{"!":0,"\"":1,"#":2,"$":3,"%":4,"&":5,"'":6,"(":7,")":8,"*":9,"+":10,",":11,"-":12,".":13,"/":14,"0":15,"1":16,"2":17,"3":18,"4":19,"5":20,"6":21,"7":22,"8":23,"9":24,":":25,";":26,"<":27,"=":28,">":29,"?":30,"@":31,"A":32,"B":33,"C":34,"D":35,"E":36,"F":37,"G":38,"H":39,"I":40,"J":41,"K":42,"L":43,"M":44,"N":45,"O":46,"P":47,"Q":48,"R":49,"S":50,"T":51,"U":52,"V":53,"W":54,"X":55,"Y":56,"Z":57,"[":58,"\\":59,"]":60,"^":61,"_":62,"`":63,"a":64,"b":65,"c":66,"d":67,"e":68,"f":69,"g":70,"h":71,"i":72,"j":73,"k":74,"l":75,"m":76,"n":77,"o":78,"p":79,"q":80,"r":81,"s":82,"t":83,"u":84,"v":85,"w":86,"x":87,"y":88,"z":89,"{":90,"}":91,"~":92,"¡":93,"¢":94,"£":95,"¤":96,"¥":97,"¦":98,"§":99,"¨":100,"©":101,"ª":102,"«":103,"¬":104,"®":105,"¯":106,"°":107,"±":108,"²":109,"³":110,"´":111,"µ":112,"¶":113,"·":114,"¸":115,"¹":116,"º":117,"»":118,"¼":119,"½":120,"¾":121,"¿":122,"Â":123,"Ã":124,"Ì":125,"Î":126,"à":127,"â":128,"ï":129,"Ċ":130,"č":131,"Ġ":132,"Ģ":133,"ģ":134,"Ĥ":135,"ĥ":136,"Ħ":137,"ħ":138,"Ĩ":139,"ĩ":140,"Ī":141,"ī":142,"Ĭ":143,"ĭ":144,"Į":145,"į":146,"İ":147,"ı":148,"Ĳ":149,"ĳ":150,"Ĵ":151,"ĵ":152,"Ķ":153,"ķ":154,"ĸ":155,"Ĺ":156,"ĺ":157,"Ļ":158,"ļ":159,"Ľ":160,"ľ":161,"Ŀ":162,"ŀ":163,"Ł":164,"ł":165,"Ń":166,"à®":167,"à¯":168,"à¯į":169,"à¯įà®":170,"Ġà®":171,"à¯ģ":172,"à®¿":173,"à®¿à®":174,"à®¾":175,"à¯ģà®":176,"à®¾à®":177,"à¯įà®ķ":178,"à¯Ī":179,"à®°":180,"à®³":181,"à®µ":182,"®à¯į":183,"à®¤":184,"à®©":185,"à¯įà®ķà®³":186,"à¯įà®¤":187,"à¯ĩ":188,"à®¯":189,"Ġà®ħ":190,"ķà¯įà®ķ":191,"à¯ģà®®à¯į":192,"à¯Ĩ":193,"čĊ":194,"à¯įà®ª":195,"Ġà®¨":196,"Ġà®ķ":197,"à®Ł":198,"à®²":199,"à®±":200,"à®®":201,"à¯įà®Ł":202,"à¯įà®ķà®³à¯į":203,"Ġà®ª":204,"Ġà®µ":205,"à®ª":206,"à¯Īà®¯":207,"à®µà®°":208,"Ġà®®":209,"à¯įà®±":210,"Ġà®ĩ":211,"à®¿à®¯":212,"à¯Ģ":213,"à®ķ":214,"à®Ļ":215,"à®¾à®ķ":216,"à®¿à®²":217,"Ġà®ļ":218,"à®¾à®©":219,"à®¾à®°":220,"à®¿à®©":221,"à¯ģà®ķà¯įà®ķ":222,"Ġà®¤":223,".čĊ":224,"Ġ(":225,"Ġà®İ":226,"à®¿à®°":227,"¨à¯įà®¤":228,"à¯įà®²":229,"Ġà®ī":230,"à®¤à¯įà®¤":231,"à¯Ĥ":232,"à®¿à®Ł":233,"à¯Ĩà®¾à®":234,"à®£":235,"Ġà®ħà®µà®°":236,"à®²à¯įà®²":237,"à®©à¯į":238,"à®®à¯į":239,"à®ªà¯įà®ª":240,"à®¤à¯ģ":241,"à¯įà®µ":242,"à¯ģà®ķ":243,"à¯ģà®¤":244,"à®¿à®²à¯į":245,"à®¿à®±":246,"à®ķà¯įà®ķ":247,"à®¾à®©à¯į":248,"à¯įà®ļ":249,"à¯ģà®Ł":250,"Ġà®ļà¯Ĩ":251,"à®¨":252,"à®Łà¯įà®Ł":253,"à¯ģà®µ":254,"ªà¯įà®ª":255,"à®ħ":256,"à®Ļà¯įà®ķà®³à¯į":257,"à®©à¯įà®±":258,"à¯įà®©":259,"à®ļ":260,"à®¾à®²":261,"Ġà®ķà¯Ĩà®¾à®":262,"à®Ļà¯įà®ķà®³":263,"à®¾à®¤":264,"à®¾à®®à¯į":265,"à®°à¯į":266,"Ġà®ĩà®°":267,"Ġà®¨à¯Ģ":268,"à®´":269,"à®±à¯įà®±":270,"à®¨à¯įà®¤":271,"Ġà®ļà¯Ĩà®¯":272,"à®¿à®©à¯į":273,"à®¿à®ķ":274,"à®¿à®°à¯ģà®":275,"à®²à¯įà®²à®¾à®":276,"à®®à®¾à®ķ":277,"à®¿à®¤":278,"à¯ģà®ķà¯įà®ķà¯ģ":279,"à®²à¯įà®²à®¾à®¹":280,"à®¿à®ķà¯įà®ķ":281,"à®¿à®ļ":282,"à®©à¯įà®©":283,"à®¾à®²à¯į":284,"à®µà®©":285,"à®ĩ":286,"à®¾à®Ł":287,"à¯ģà®¤à¯įà®¤":288,"à¯Īà®¯à¯ģà®®à¯į":289,"à¯ģà®®":290,"Ġà®ķà¯Ĥ":291,"à¯įà®³":292,"Ġà®ħà®²à¯įà®²à®¾à®¹":293,"£à¯įà®Ł":294,"Ġà®ħà®µà®°à¯įà®ķà®³":295,"à¯ģà®Łà¯Īà®¯":296,"à¯įà®®":297,"Ġà®Ĩ":298,"à®µà®©à¯į":299,"Ġà®ħà®µà®°à¯įà®ķà®³à¯į":300,"à®¿à®ļà¯įà®ļ":301,"à®©à¯įà®±à¯ģ":302,"à®£à¯įà®Ł":303,"Ġà®Ĵ":304,"à¯Īà®ķ":305,"à®¿à®ļà¯įà®ļà®¯":306,"à¯Ģà®°":307,"Ġà®ķà¯Ĩà®¾à®£à¯įà®Ł":308,"à®¿à®ļà¯įà®ļà®¯à®®à®¾à®ķ":309,"à®µà¯ĩ":310,"à®¾à®°à¯įà®ķà®³à¯į":311,"à®µà®°à¯įà®ķà®³":312,"à®¿à®µ":313,"Ġà®ķà¯Ĥà®±":314,"Ġà®¨à¯Ģà®Ļà¯įà®ķà®³à¯į":315,"à®ªà¯į":316,"à®µà¯ģà®®à¯į":317,"Ġà®µà¯ĩ":318,"à¯ĭ":319,"à¯ģà®±":320,"à®¿à®¤à¯įà®¤":321,"à®¿à®ªà¯įà®ª":322,"à®¿à®°à¯ģà®¨à¯įà®¤":323,"à®¿à®Łà¯įà®Ł":324,"à¯ģà®³":325,"à®İ":326,"Ġà®ªà¯Ĩ":327,"à®¤à¯Ī":328,"Ġà®ĩà®°à¯ģà®ķà¯įà®ķ":329,"à®ªà¯įà®ªà®Ł":330,"à®¿à®©à¯įà®±":331,"Ġà®īà®Ļà¯įà®ķà®³":332,"Ġà®İà®©à¯įà®±à¯ģ":333,"à®¾à®°à¯į":334,"à®¾à®¯":335,"Ġà®ªà¯ĩ":336,"Ġà®¨à®¿à®ļà¯įà®ļà®¯à®®à®¾à®ķ":337,"Ġà®ĩà®±":338,"à®Ļà¯įà®ķ":339,"à®¾à®µ":340,"à¯ģà®ªà¯įà®ª":341,"à®¾à®±":342,"à®¿à®²à¯įà®²":343,"Ġ\"":344,"Ļà¯įà®ķà®³à¯į":345,"Ġ-":346,"à¯Īà®¤à¯įà®¤":347,"à®¾à®ķà¯įà®ķ":348,"à®²à¯į":349,"à®µà¯įà®µ":350,"Ġà®Ĵà®°":351,"à®±à¯įà®ķ":352,"Ġà®®à¯Ģ":353,"à®¾à®Łà¯įà®Ł":354,"à®¾à®³":355,"à¯ĩà®¾à®®à¯į":356,"à®©à¯įà®©à¯ģà®®à¯į":357,"Ġà®İà®©":358,"Ġà®ħà®²à¯įà®²à®¾à®¹à¯įà®µ":359,"à¯ģà®ķà¯į":360,"Ġà®ļà¯Ĩà®¯à¯įà®¤":361,"Ġà®ħà®²à¯įà®²à®¾à®¹à¯į":362,"à¯įà®¯":363,"à®ªà¯įà®ªà®Łà¯įà®Ł":364,"à¯ĩà®°":365,"à¯ģà®ķà®¿à®±":366,"à®µà®°à¯įà®ķà®³à¯į":367,"à®¤à¯į":368,"à¯ģà®ª":369,"Ġà®¨à®¾à®®à¯į":370,"à®¾à®¤à¯ģ":371,"Ġà®®à¯ģà®":372,"à¯Ĭ":373,"Ġà®ħà®¤":374,"à¯ĩà®¾":375,"à®³à¯į":376,"à¯ĩà®²":377,"à®¿à®²à¯įà®²à¯Ī":378,"Ġà®ķà¯Ĩà®¾à®³":379,"à®Łà¯ģà®¤à¯įà®¤":380,"à¯Īà®µ":381,"à¯Īà®ķà¯į":382,"à®¿à®Łà®®à¯į":383,"à¯Īà®ķà¯įà®ķ":384,"Ġà®Ĵà®°à¯ģ":385,"Ġà®ı":386,"Ġà®ħà®±":387,"Ġà®ħà®µà®©":388,"Ġà®ĩà®±à¯Ī":389,"Ġà®µà®¿à®Łà¯įà®Ł":390,"à¯Īà®ªà¯į":391,"Ġà®µà®°":392,"à®¿à®¯à¯ĩ":393,"à®ī":394,"à¯ģà®Ļà¯įà®ķà®³à¯į":395,"à¯ģà®³à¯įà®³":396,"à¯ģà®¨à¯įà®¤":397,"à®¸":398,"?čĊ":399,"à®¤à®±à¯įà®ķ":400,"à®¿à®°à¯ģà®¨à¯įà®¤à¯ģ":401,"Ġà®ħà®µà®©à¯į":402,"à®¿à®°à¯ģà®ķà¯įà®ķ":403,"à®®à¯įà®®":404,"à®¤à¯įà®¤à¯Ī":405,"à®ļà¯į":406,"à®¾à®®":407,"à®¿à®¨à¯įà®¤":408,"à¯ĩà®²à¯ģà®®à¯į":409,"Ġà®¨à¯Ģà®°à¯į":410,"à®³à¯įà®³":411,"à®µà®±à¯įà®±":412,"à®¾à®ķà®µà¯ģà®®à¯į":413,"à®©à¯Ī":414,"à®°à¯įà®ķà®³":415,"à®Ĩ":416,"à¯Ģà®°à¯įà®ķà®³à¯į":417,"à®³à¯Ī":418,"à¯ģà®°":419,"Ġà®µà¯Ĩ":420,"à®¿à®¯à¯ģà®®à¯į":421,"à¯Īà®ªà¯įà®ª":422,"Ġà®ļà¯Ĩà®¯à¯įà®¯":423,"me":424,"Ġà®ķà¯ĩ":425,"Ġà®µà®´":426,"à¯įà®ķà¯įà®ķ":427,"on":428,"à®¨à¯Ģ":429,"à®®à¯įà®ª":430,"Ġà®µà®¿à®Ł":431,"à®¿à®ķà¯į":432,"Ġà®ĩà®©à¯įà®©à¯ģà®®à¯į":433,"à¯ĩà®©à¯į":434,"à®ķà¯į":435,"à®ļà¯įà®ļ":436,"Ġà®µà¯ĩà®£à¯įà®Ł":437,"..":438,"Ġà®ķà¯Ĩà®¾à®£à¯įà®Łà¯ģ":439,"à®ķà¯įà®ķà¯ģ":440,"à¯Īà®¯à®¿à®²à¯į":441,"Ġà®ķà¯Ĩà®¾à®Ł":442,"Ġà®ĩà®°à¯ģà®¨à¯įà®¤":443,"à®©à®¾à®²à¯į":444,"à¯Īà®¯à¯Ī":445,"Ġà®¯":446,"Ġà®¨à®¾à®©à¯į":447,"à®¿à®²à¯ģà®®à¯į":448,"à®¾à®°à¯įà®ķà®³":449,"Ġn":450,"à®¤à¯įà®¤à®¿à®²à¯į":451,"Ġà®®à¯Ģà®¤à¯ģ":452,"à¯įà®¤à¯įà®¤":453,")čĊ":454,"à¯įà®¨à¯įà®¤":455,"à¯ĩà®¾à®°":456,"Ġà®®à¯ģà®Ł":457,"Ġà®īà®³à¯įà®³":458,"Ġà®ĩà®°à¯ģà®ķà¯įà®ķà®¿à®©à¯įà®±":459,"Ġà®ħà®´":460,"ti":461,"à®¿à®°à¯ģà®ªà¯įà®ª":462,"Ġà®İà®©à¯įà®©":463,"à®®à®¾à®©":464,"Ġà®ķà¯Ĥà®±à®¿à®©":465,"à®µà®°à¯į":466,"à¯Ĩà®°":467,"Ġà®µà¯ĩà®¤":468,"Ġà®ķà®¾à®":469,"à®ªà®¿à®¯à¯ĩ":470,"Ġà®®à¯ģà®©":471,"Ġà®ĩà®±à¯Īà®µà®©":472,"à®¿à®²à®¿à®°à¯ģà®¨à¯įà®¤à¯ģ":473,"à¯įà®£":474,"Ġà®īà®Ļà¯įà®ķà®³à¯į":475,"Ġà®ķà¯Ĩà®¾à®³à¯įà®³":476,"!)":477,"Ġà®ªà¯Ĩà®¾à®":478,"à¯įà®ªà¯įà®ª":479,"Ġà®ħà®©":480,"Ġà®ªà®¿à®©":481,"Ġà®Ĩà®ķ":482,";.":483,"à®¨à®ªà®¿à®¯à¯ĩ":484,"Ġà®¤à¯Ĥ":485,"Ġà®ħà®²à¯įà®²":486,"à®¨à¯įà®¤à¯ģ":487,"à®µà®¿à®²à¯įà®²à¯Ī":488,"Ġà®ªà®¯":489,"Ġà®ĩà®²à¯įà®²":490,"®à¯įà®ª":491,"Ġà®¤à®µ":492,"à¯Īà®¯à¯ĩ":493,"Ġà®ªà®Ł":494,"ame":495,"Ġà®ļà¯Ĩà®¯à¯įà®¤à¯ģ":496,"à¯ģà®Łà®©à¯į":497,"à®£à¯įà®£":498,"Ġà®¨à®©":499,"Ġà®ħà®Ł":500,"Ġà®ĩà®°à¯ģà®ķà¯įà®ķà®¿à®±":501,"Ġà®®à®¿à®ķ":502,"à®¿à®ª":503,"à®Ļà¯įà®ķà®³à¯Ī":504,"à®µà¯įà®µà®¾à®±":505,"Ġà®®à®©":506,"à¯ģà®ķà¯įà®ķà¯ģà®®à¯į":507,"Ġà®ķà¯ģà®±":508,"Ġt":509,"à®¾à®±à¯įà®±":510,"à®®à¯Ĥ":511,"Ġà®īà®Ļà¯įà®ķà®³à¯ģà®ķà¯įà®ķà¯ģ":512,"Ġà®ħà®µà®°à¯įà®ķà®³à¯ģà®ķà¯įà®ķà¯ģ":513,"à¯įà®ķà®¿à®±":514,"à¯Īà®ķà®³":515,"Ġà®®à¯ĩà®²à¯ģà®®à¯į":516,"an":517,"tion":518,"à®¨à®¿à®ļà¯įà®ļà®¯à®®à®¾à®ķ":519,"à¯ģà®µà®°":520,"à®¿à®ķà®³":521,"à¯Ģà®°à®¾à®ķ":522,"ĥà®ª":523,"à®±à¯įà®ª":524,"à®¨à¯Ģà®Ļà¯įà®ķà®³à¯į":525,"Ġà®ªà®¾à®°":526,"à®©à®°à¯į":527,"Ġà®ħà®µà®°à¯į":528,"Ġà®īà®£":529,"à®±à¯įà®±à®¿":530,"Ġà®®à®±":531,"à¯ģà®ªà¯į":532,"Ġà®ħà®°":533,"à®¾à®ķà¯ģà®®à¯į":534,"à¯Ĥà®®":535,"Ġà®®à¯Ĥ":536,"à®¹":537,"à®¤à¯ģà®®à¯į":538,"à®¿à®°à¯ģà®®à¯įà®ª":539,"à®ĩà®©à¯įà®©à¯ģà®®à¯į":540,"Ġà®¨à¯ĩà®°":541,"à®ķà®¤à¯įà®¤":542,"à¯Ĩà®¯":543,"à®¾à®Ļà¯įà®ķà®³à¯į":544,"Ġà®ªà®¿à®°":545,"à¯įà®°":546,"in":547,"à®¾à®Łà¯įà®ļ":548,"à®¿à®¯à¯Ī":549,"à®¿à®¤à¯įà®¤à¯ģ":550,"Ġà®¨à®¿à®°":551,"à®¿à®Łà®®":552,"Ġà®ħà®²à¯įà®²à®¾à®¹à¯įà®µà®¿à®©à¯į":553,"Ġà®µà®¿à®":554,"Ġà®ĩà®²à¯įà®²à¯Ī":555,"Ġà®¨à¯ĩ":556,"Ļà¯įà®ķ":557,"Ġà®ħà®µà®°à¯įà®ķà®³à¯Ī":558,"à®ħà®²à¯įà®²à®¾à®¹":559,"à®¿à®¯à®¿à®²à¯į":560,"à¯įà®®à¯Īà®¯":561,"Ġà®ħà®²à¯įà®²à®¤à¯ģ":562,"à®µà¯Ī":563,"à¯ģà®ķà®³":564,"à®¨à®¾à®©à¯į":565,"Ġà®®à®¾à®Łà¯įà®Ł":566,"à¯įà®©à®°à¯į":567,"Ġà®¤à®¾à®©à¯į":568,"à¯ģà®®à¯įà®ª":569,"Ġà®īà®®à¯įà®®":570,"à®²à¯Ī":571,"Ġà®īà®°":572,"Ġà®ķà¯Ĥà®±à¯ģà®µ":573,"Ġà®ªà¯Ĥà®®":574,"Ġà®ªà¯Ĩà®°":575,"à®¿à®®":576,"es":577,"à®¿à®±à¯įà®ķ":578,"Ġà®ĵ":579,"à®µà¯ģ":580,"Ġà®µà®¨à¯įà®¤":581,"Ġà®ªà¯Ĩà®¾à®°":582,"Ġà®ļà¯Ĩà®¾à®":583,"à®±à¯ģ":584,"Ġà®ĩà®°à¯ģà®ªà¯įà®ª":585,"Ġà®ļà¯Ĩà®¯à¯įà®µ":586,"Ġà®Ī":587,"!čĊ":588,"à®©à¯įà®ª":589,"Ġà®ħà®¤à¯Ī":590,"Ġà®Ĩà®©à®¾à®²à¯į":591,"Ġà®ķà®Ł":592,"à®©à¯įà®±à®¿":593,"Ġà®¤à¯ĩ":594,"Ġà®ļà¯Ĩà®²":595,"Ġà®İà®©à¯įà®ª":596,"à¯ģà®ļ":597,":čĊ":598,"Ġà®ħà®µà®°à¯įà®ķà®³à¯ģà®Łà¯Īà®¯":599,"Ġà®ħà®®":600,"à®Ĵ":601,"Ġà®¤à¯Ĥà®¤":602,"à®Łà®¿à®¯":603,"à¯ĩà®¯":604,"it":605,"à¯ģà®´":606,"Ġà®¨à®¿à®²":607,"à®ŀ":608,"à®®à®¾à®©à¯į":609,"à®¾à®ļ":610,").čĊ":611,"Ġà®ĩà®¤":612,"Ġà®¨à®¾à®³":613,"Ġà®®à®©à®¿à®¤":614,"à¯ĩà®¾à®¤à¯ģ":615,"à®¤à®±à¯įà®ķà¯ģ":616,"Ġà®µà¯Ĩà®³":617,"er":618,"à¯ģà®ķà®³à¯į":619,"à®©à¯įà®±à®¿à®¯à¯ģà®®à¯į":620,"à¯Īà®¤à¯į":621,"Ġà®İà®©à¯įà®±":622,"Ġà®ħà®³":623,"Ġà®®à¯ģà®Łà®¿à®¯":624,"à®¿à®¨à¯įà®¤à¯ģ":625,"à¯ĩà®¾à®¤":626,"Ġà®¨à®¾à®Ł":627,"Ġà®®à¯ģà®±":628,"Ġa":629,"à¯ĭà®ªà¯įà®ª":630,"à®¤à®µ":631,"Ġà®īà®£à¯įà®Ł":632,"à¯Ģà®°à¯įà®ķà®³":633,"Ġà®¨à®Ł":634,"à¯Ĩà®¾à®°":635,"Ġà®ªà®¾à®¤":636,"Ġà®ħà®±à®¿à®µ":637,"Ġà®ĩà®±à¯Īà®µà®©à¯į":638,"Ġà®ķà¯ĩà®Ł":639,"Ġà®İà®¤":640,"à®¾à®ķà®°":641,"à®ŀà¯įà®ļ":642,"Ġà®ħà®¤à¯ģ":643,"à®¿à®©à¯ģà®®à¯į":644,"à¯ģà®²":645,"à¯ģà®¤à®¿à®¯":646,"Ġà®®à®±à¯įà®±":647,"Ġà®ķà®Łà¯įà®Ł":648,"Ġà®ĩà®Ł":649,"à®¿à®ķà¯įà®ķà¯Ī":650,"Ġà®¤à®µà®¿à®°":651,"Ġà®ħà®¨":652,"Ġk":653,"al":654,"à®®à¯ĩà®²à¯ģà®®à¯į":655,"à®¾à®©à¯įà®±":656,"à®¾à®ķà®µà¯ĩ":657,"la":658,"Ġà®İà®´":659,"Ġà®®à®ķ":660,"à¯ģà®©":661,"Ġà®¨à®®à¯įà®ª":662,"à®ħà®µà®°à¯įà®ķà®³":663,"Ġà®ªà¯Ĩà®¾à®¯":664,"à¯ģà®¤à¯į":665,"Ġà®ķà®¾à®£":666,"Ġà®¨à®¾à®Ļà¯įà®ķà®³à¯į":667,"à®²à¯įà®²à®¾à®®à¯į":668,"à¯Ĩà®³":669,"à®®à®¿à®©":670,"à¯įà®ķà®³à¯Ī":671,"Ġà®ħà®¤à¯įà®¤":672,"à®°à¯įà®ķà®³à¯į":673,"Ġà®ĩà®¨à¯įà®¤":674,"Ġà®ªà®±à¯įà®±à®¿":675,"Ġà®®à®©à¯įà®©":676,"à®¾à®°à¯įà®ķà®³à¯ĩà®¾":677,"à®ªà¯įà®ªà®Łà¯ģà®®à¯į":678,"à®İà®©":679,"à®¤à¯ĩ":680,"à®°à¯ģà®®à¯į":681,"Ġà®µà¯ĩà®£à¯įà®Łà¯ģà®®à¯į":682,"à®¿à®¯à®¾à®¯":683,"ed":684,"Ġà®ķà®¾à®°":685,"à¯įà®¨":686,"à®¿à®´":687,"à¯ģà®®à¯Īà®¯":688,"or":689,"Ġà®İà®©à¯į":690,"ĥà®ªà®¿à®°":691,"Ġà®ķà¯Ĥà®±à®¿à®©à®¾à®°à¯į":692,"à¯Ĩà®Ł":693,"à®¿à®ķà®³à¯į":694,"Ġà®¤à¯Ģ":695,"Ġà®¤à®®à¯į":696,"Ġd":697,"Ġà®¤à¯ĩà®°":698,"à¯Īà®¤à¯įà®¤à¯ģ":699,"Ġà®¨à®¿à®°à®¾à®ķà®°":700,"à¯ĩà®¾à®°à¯į":701,"à®µà¯įà®µà®¾à®±à¯ģ":702,"à¯Ĩà®©":703,"Ġà®¨à®¿à®±":704,"Ġp":705,"Ġà®ĩà®°à¯ģà®ķà¯įà®ķà®¿à®©à¯įà®±à®¾à®©à¯į":706,"à¯įà®¸":707,"ĥà®®à®¿à®©":708,"à¯Ĩà®¾à®´":709,"gm":710,"à®ħà®µà®°à¯įà®ķà®³à¯į":711,"Ġà®Īà®®à®¾à®©à¯į":712,"à®¾à®¯à¯į":713,"Ġà®ļà®¿à®²":714,"Name":715,"Ġkgm":716,"Ġà®µà®ļ":717,"Ġà®®à®¿à®ķà¯įà®ķ":718,"(à®¨à®ªà®¿à®¯à¯ĩ":719,"ro":720,"Ġà®ķà¯Ĩà®¾à®Łà¯ģà®¤à¯įà®¤":721,"Ġà®¨à®²à¯įà®²":722,"à®¿à®°à¯ģà®ķà¯įà®ķà®¿à®±":723,"Ġà®ļà®®à¯Ĥ":724,"Ġà®ªà®²":725,"Ġà®ªà®ķ":726,"Ġà®ļà¯Ĩà®¾à®²":727,"Ġà®ªà®°":728,"à®¾à®´":729,"à®¤à®¿à®²à¯į":730,"Ġà®ķà¯Ĩà®¾à®³à¯įà®µ":731,"Ġà®¨à®©à¯įà®ķ":732,"Ġà®ħà®µà®±à¯įà®±":733,"Ġà®Ĩà®ķà®µà¯ĩ":734,"Ġà®īà®¯":735,"Ġà®īà®±":736,"Ġà®®à¯ģà®©à¯įà®©":737,"ran":738,"Ġà®ļà®¨à¯įà®¤":739,"à®¾à®²à¯ģà®®à¯į":740,"Ġà®®à¯ĩ":741,"op":742,"à®¿à®¤à¯įà®¤à¯ģà®ķà¯į":743,"à¯ĭà®®à¯į":744,"à®ķà¯Īà®¯":745,"Ġà®µà¯ĩà®¤à®©":746,"à®¤à¯įà®¤à®¿à®¯":747,"à®¾à®ķà¯įà®ķà®¿":748,"Ġà®ĩà®±à®ķà¯įà®ķ":749,"à®°à¯ģ":750,"Ġà®ļà®®à¯Ĥà®ķà®¤à¯įà®¤":751,"Ġà®µà®¿à®°à¯ģà®®à¯įà®ª":752,"?\"":753,"Ġà®ħà®©à¯ģà®ªà¯įà®ª":754,"Ġà®ķà®¾à®Łà¯įà®Ł":755,"Ġà®¨à®¿à®©":756,"Ġà®ķà¯ĭà®ªà¯įà®ª":757,"à®ħà®²à¯įà®²à®¾à®¹à¯įà®µ":758,"à®¤à¯Īà®¯à¯ģà®®à¯į":759,"Ġà®īà®Ļà¯įà®ķà®³à¯Ī":760,"Ġà®İà®µà®°":761,"Ġname":762,"Ġà®ħà®¤à¯įà®¤à®¾à®Łà¯įà®ļ":763,"à¯Ģà®°à¯į":764,"à¯ģà®ļà¯į":765,"Ġà®ĩà®¤à¯ģ":766,"à¯ģà®¤à®¿":767,"à¯ģà®ķà®¿à®©à¯įà®±":768,"Ġà®¸":769,"à¯Ĩà®²à¯įà®²à®¾à®®à¯į":770,"à®Łà¯įà®Łà¯ģ":771,"à®Ĩà®ķ":772,"Ġà®ªà¯ĩà®¾à®¤à¯ģ":773,"à®°à®ķ":774,"Ġà®īà®¤à®µ":775,"Ġà®µà®¾à®©":776,"ot":777,"à¯ģà®³à¯į":778,"Ġà®ļà¯ĩ":779,"Ġà®®à®¿à®ķà®µà¯ģà®®à¯į":780,"Ġà®®à®¾à®±à¯įà®±":781,"à¯ģà®ķà¯įà®ķà®¾à®ķ":782,"à®¿à®¯à®¾à®ķ":783,"Ġà®ļà¯ĩà®°":784,"Ġà®ķà¯Ĩà®¾à®£à¯įà®Łà®¿à®°à¯ģà®¨à¯įà®¤":785,"Ġà®®à¯Ģà®¤à¯ģà®®à¯į":786,"à®¿à®µà®¿à®Ł":787,"à®ķà®°":788,"Ġà®İà®©à¯įà®ªà®¤à¯Ī":789,"Ġà®ıà®±à¯įà®ª":790,"Ġà®µà¯Īà®¤à¯įà®¤":791,"à¯Ĩà®¾à®Ł":792,"à¯Īà®ķà®³à¯į":793,"Ġà®ļà®ķ":794,"...čĊ":795,"Ġà®ķà¯Ĥà®Łà¯įà®Ł":796,"Ġà®ľ":797,"\"čĊ":798,"à®Łà¯Ī":799,"Ġà®īà®®":800,"ity":801,"Ġà®µà®¿à®³":802,"à®µà®©à®¾à®ķà®µà¯ģà®®à¯į":803,"Ġà®ĩà®°à¯ģà®ķà¯įà®ķà®¿à®±à®¤à¯ģ":804,"Ġà®¤à®©à¯į":805,"à®¤à¯įà®¤à®¿à®©à¯į":806,"à®¤à®±à¯įà®ķà®¾à®ķ":807,"Ġà®İà®¨à¯įà®¤":808,"à®¿à®©à®¾à®²à¯į":809,"à®Ļà¯įà®ķà®³à¯ģà®ķà¯įà®ķà¯ģ":810,"à¯įà®µà®´":811,"Ġà®°":812,"à®¤à®¿":813,"à®¾à®¤à¯Ģà®°à¯įà®ķà®³à¯į":814,"à®¿à®°à¯ģà®ķà¯įà®ķà¯ģà®®à¯į":815,"rans":816,"à®¤à¯įà®¤à®¿à®±à¯įà®ķ":817,"Ġà®®à®°":818,"Ġà®ķà®£":819,"à¯ģà®Ļà¯įà®ķ":820,"Ġà®ĩà®¯":821,"à®°à¯Ī":822,"City":823,"ransla":824,"à®µà®°à¯įà®ķà®³à®¾à®ķ":825,"à¯Ģà®´":826,"à®¿à®Łà®®à®¿à®°à¯ģà®¨à¯įà®¤à¯ģ":827,"à¯įà®¨à¯įà®¤à¯ģ":828,"Ġtransla":829,"à®µà®°à¯įà®ķà®³à¯ģà®ķà¯įà®ķà¯ģ":830,"Ġs":831,"à®¿à®ķà¯įà®ķà®ªà¯įà®ªà®Łà¯įà®Ł":832,"Ġà®ªà®¿à®©à¯įà®©à®°à¯į":833,"à¯Ĩà®³à®¿à®µ":834,"à®ĩà®±":835,"Ġà®ħà®µ":836,"Ġà®ļà®®":837,"à¯ģà®ķà®¿à®±à®¤à¯ģ":838,"option":839,"à®©à¯įà®±à¯ģà®®à¯į":840,"à®¾à®°à¯įà®¤à¯įà®¤":841,"Ġà®ļà¯Ĥ":842,"Ġà®ĩà®£":843,"Ġà®ļà®¿à®±":844,"Ġà®®à®©à¯įà®©à®¿à®ªà¯įà®ª":845,"Ġà®¨à¯Ĩà®°":846,"Ġà®ħà®ļà¯įà®ļ":847,"à®©à¯ģà®®à¯į":848,"Ġà®ķà®¾à®²":849,"à®®à®¾à®Łà¯įà®Ł":850,"à¯Īà®ķà®³à¯Ī":851,"à®ĩà®¤à¯ģ":852,"Ġà®Ĩà®ķà¯įà®ķ":853,"Ġà®ķà®°":854,"Ġà®ļà¯Ĩà®¯à¯įà®ķà®¿à®±":855,"à®Ĩà®ķà®µà¯ĩ":856,"à®²à®¾à®®à¯į":857,"Ġà®¤à®°":858,"ly":859,"Ġà®µà¯Ģ":860,"à®ªà¯įà®ªà®Łà¯ģà®¤à¯įà®¤":861,"à®ħà®¤":862,"Ġà®ªà¯Ĩà®¾à®°à¯ģà®Ł":863,"Ġà®ħà®¨à¯įà®¤":864,"à¯ģà®ķà®³à¯Ī":865,"à®¿à®ķà¯įà®ķà¯ģà®®à¯į":866,"Ġà®ļà¯Ĩà®¯à®²":867,"à¯ģà®ķà¯įà®ķà¯ģà®ķà¯į":868,"à®¾à®±à¯ģ":869,"Ġà®ªà¯Ĩà®±":870,"à®ĩà®¨à¯įà®¤":871,"optional":872,"à¯įà®®à¯Ī":873,"Ġà®İà®£à¯įà®£":874,"à¯ģà®ķà®¿à®±à®¾à®°à¯įà®ķà®³à¯į":875,"Ġà®ħà®¤à®¿à®ķ":876,"Ġà®µà®¿à®Łà¯įà®Łà¯ģà®®à¯į":877,"Ġà®ĩà®°à¯ģà®ķà¯įà®ķà¯ģà®®à¯į":878,"Ġà®ļà®°":879,"à®Ļà¯įà®ķà®³à®¿à®²à¯į":880,"à¯Ĩà®¾à®°à¯ģ":881,"...":882,"à®¾à®ª":883,"Ġà®¤à¯Ģà®°":884,"Ġpro":885,"à¯Īà®µà¯ģ":886,"Ġà®¤à¯Ĩà®³à®¿à®µ":887,"ba":888,"à¯Ĭà®Ł":889,"à®µà®°à¯įà®ķà®³à¯Ī":890,"en":891,"Ġà®ħà®¨à®¿à®¯à®¾à®¯":892,"Ġà®īà®Ł":893,"Ġà®ªà®Łà¯įà®Ł":894,"à®ªà¯įà®ªà®Łà¯ģà®µ":895,"Ġà®ªà®¯à®©à¯įà®ª":896,"(à®ħ":897,"à®Ļà¯įà®ķà¯ģ":898,"Ġà®®à®±à¯įà®±à¯ģà®®à¯į":899,"Ġà®ķà¯Ĩà®¾à®Łà¯ģà®ķà¯įà®ķ":900,"Ġà®µà®¿à®°":901,"à®ªà¯įà®ªà¯ĩà®¾à®¤à¯ģ":902,"Ġà®īà®®à¯į":903,"Ġà®¨à¯ĩà®°à¯įà®µà®´":904,"à¯ģà®°à®¿à®¯":905,"à¯ģà®ķà¯įà®ķà¯ĩ":906,"Ġà®İà®©à®µà¯ĩ":907,"Ġà®ĩà®µà¯įà®µ":908,"à¯Īà®¯à®¾":909,"Ġà®ķà®¿à®Ł":910,"Ġà®®à¯ģà®ĥà®®à®¿à®©":911,"Ġne":912,"à¯ģà®ķà¯įà®ķà¯ģà®ªà¯į":913,"Ġà®ªà¯Ĥà®®à®¿à®¯":914,"Ġà®ªà¯Ĩà®£":915,"Ġà®¯à®¾à®°à¯į":916,"Ġà®®à®¾à®Łà¯įà®Łà®¾à®°à¯įà®ķà®³à¯į":917,"Ġnot":918,"Ġà®ªà®¿à®Ł":919,"à®Łà¯ģ":920,"Ġà®µà®£":921,"à¯Īà®¯à®¾à®ķ":922,"à¯ģà®ķà®¿à®±à®¾à®©à¯į":923,"Ġà®¤à®¿à®°à¯ģà®®à¯įà®ª":924,"à®¿à®©à¯ĭà®®à¯į":925,"à®µà®±à¯įà®±à¯Ī":926,"Ġà®µà®¿à®Łà¯ģà®µ":927,"Ġà®µà®¿à®Łà¯įà®Łà¯ģ":928,"à®¿à®³":929,"à®ı":930,"à¯Ĭà®°":931,"Ġà®īà®£à¯įà®®à¯Īà®¯":932,"à®¿à®ķà¯įà®ķà®¿à®±":933,"Ġà®¤à¯Ĩà®°":934,"Ġà®Ĩà®¤":935,"Ġà®ªà¯ĩà®¾à®©à¯įà®±":936,"Ġà®ªà®¾à®µ":937,"Ġà®İà®©à®ķà¯įà®ķà¯ģ":938,"Ġà®ªà®¿à®©à¯įà®ª":939,"Ġà®®à¯ĩà®²":940,"Ġdo":941,"à®Ĩà®©à®¾à®²à¯į":942,"Ġà®¨à®®à¯įà®®":943,"à®ľ":944,"à®ħà®µà®©":945,"à®Łà®¿":946,"Ġà®ļà¯Ĩà®¯à¯įà®ª":947,"à®ļà¯įà®ļà®°":948,"Ġà®ªà®¾à®°à¯įà®ķà¯įà®ķ":949,".\"čĊ":950,"Ġà®ħà®©à¯įà®±à®¿à®¯à¯ģà®®à¯į":951,"Ġ'":952,"à®µà®¿à®²à¯įà®²":953,"Ġneed":954,"Ġà®ŀ":955,"Ġà®ļà®¤à¯įà®¤à®¿à®¯":956,"Ġtranslation":957,"à®¿à®ķà®³à¯Ī":958,"Ġà®ķà®£à¯įà®Ł":959,"à®ķà¯įà®ķà®¾à®°":960,"à¯įà®¤à®¿à®¯":961,"à®®à¯ģà®®à¯į":962,"Ġà®ĩà®µà®°à¯įà®ķà®³à¯į":963,"Ġà®ªà¯Ĩà®¯":964,"bab":965,"à®®à¯ĩ":966,"Ġà®µà®ļà®©":967,"à®İà®©à¯įà®±à¯ģ":968,"à®¤à¯įà®¤à¯Īà®¯à¯ģà®®à¯į":969,"à®¿à®°à¯ģà®ª":970,"re":971,"Ġà®ªà®ķà¯įà®ķ":972,"Ġà®¤à®Ļà¯įà®ķà®³à¯į":973,"Ġà®ķà¯Ĩ":974,"Ġà®ļà¯Ĩà®¾à®²à¯įà®²":975,"he":976,"Ġà®ªà®Łà¯Īà®¤à¯įà®¤":977,"à¯ģà®¤à¯ģ":978,"à®Ļà¯įà®ķà®³à¯Īà®¯à¯ģà®®à¯į":979,"Ġc":980,"Ġin":981,"Ġdoes":982,"Ġà®¤à®¿à®°":983,"Ġà®¨à®©à¯įà®ķà®±":984,"Ġà®ªà¯Ĩà®±à¯įà®±":985,"à®¤à¯įà®¤à®ķà¯Īà®¯":986,"Ġprobab":987,"à¯ģà®£":988,"à®Łà¯įà®Łà®¿":989,"Ġprobably":990,"Ġà®İà®Łà¯ģà®¤à¯įà®¤":991,"Ġà®ªà¯Ĩà®¾à®±":992,"Ġà®ħà®µà®©à¯ģà®Łà¯Īà®¯":993,"Ġà®ķà¯Ĩà®¾à®³à¯įà®³à¯ģà®Ļà¯įà®ķà®³à¯į":994,"Ġà®ķà¯Ĥà®±à¯ģà®µà¯Ģà®°à®¾à®ķ":995,"à®µà®©à®¾à®ķ":996,"Ġà®İà®©à®¿à®©à¯ģà®®à¯į":997,"Ġà®ªà¯ģà®±":998,"à®¾à®©à®¾à®²à¯į":999,"Ġà®Ĵà®µà¯įà®µ":1000,"Ġà®ħà®±à®¿à®¨à¯įà®¤à¯ģ":1001,"à®¿à®°à¯ģà®ķà¯įà®ķà®¿à®©à¯įà®±":1002,"à¯įà®µà¯ģ":1003,"Ġà®ħà®ŀà¯įà®ļ":1004,"à®İà®©à¯į":1005,"à®ķà¯ģ":1006,"Ġà®®à®²":1007,"à®¿à®©à¯Ī":1008,"à®£à®®à¯į":1009,"Ġà®ŀà®¾à®©":1010,"à®ħà®²à¯įà®²à®¾à®¹à¯į":1011,"à®¤à®¿à®¯":1012,"Ġà®ªà¯Ĩà®¾à®¯à¯įà®¯":1013,"Ġà®µà®¿à®²":1014,"à®ķà¯įà®ķà¯Ĥ":1015,"à¯ģà®£à¯įà®Ł":1016,"à¯Ģà®°à¯įà®ķà®³à®¾":1017,"Ġà®ħà®µà®°à¯įà®ķà®³à®¿à®²à¯į":1018,"Ġà®µà®¾à®´":1019,"à®ħà®©à¯įà®±à®¿à®¯à¯ģà®®à¯į":1020,"à®¾à®Ļà¯įà®ķ":1021,"Ġà®ķà®¾à®ĥà®ªà®¿à®°":1022,"à®¾à®£":1023,"à¯įà®ļà¯įà®ļ":1024,"Ġà®ħà®µà®°à¯įà®ķà®³à®¿à®Łà®®à¯į":1025,"Ġà®ªà¯ģà®ķ":1026,"Ġà®ķà®¾à®£à¯įà®ª":1027,"à®¾à®°à¯įà®ķà¯įà®ķ":1028,"Ġà®İà®µà®°à¯į":1029,"à¯Īà®ªà¯įà®ªà¯ģ":1030,",čĊ":1031,"à®¾à®µà®¤à¯ģ":1032,"Ġà®µà¯ĩà®±à¯ģ":1033,"nt":1034,"à¯Ĩà®¾à®£à¯įà®Ł":1035,"Ġà®ļà¯Ĩà®²à¯įà®²":1036,"Ġà®ħà®µà®©à¯ĩ":1037,"à¯ģà®¤à®²à¯į":1038,"à®¾à®®à®²à¯į":1039,"Ġà®¹":1040,"à®²à®¿":1041,"à®Łà¯įà®Łà¯ģà®®à¯į":1042,"à®·":1043,"Ġà®īà®£à¯įà®Łà¯ģ":1044,"à®µà¯įà®µà®¾à®±à¯ĩ":1045,"à¯ĩà®¯à¯ĩ":1046,"Ġà®µà®£à®Ļà¯įà®ķ":1047,"à®¾à®ķà¯įà®ķà®¿à®¯":1048,"à®Ĵà®°à¯ģ":1049,"Ġà®µà®´à®¿":1050,"Ġà®ķà¯Ģà®´":1051,"Ġà®ĵà®°à¯į":1052,"à®¤à®¿à®²à¯įà®²à¯Ī":1053,"ar":1054,"Ġà®µà¯ĩà®¤à®©à¯Ī":1055,"Ġà®ªà¯ĩà®¾à®¤":1056,"Ġà®ħà®±à®¿à®¯":1057,"à®¤à®¾à®ķ":1058,"Ġà®ļà®®à¯Ĥà®ķà®¤à¯įà®¤à®¾à®°":1059,"à®Ļà¯įà®ķà¯ĩ":1060,"Ġà®İà®¤à®¿à®°":1061,"Ġà®ķà¯Ĥà®±à¯ģà®®à¯į":1062,"Ġà®ªà®¿à®©à¯į":1063,"om":1064,"à®¿à®²à¯ģà®³à¯įà®³":1065,"Ġà®ķà¯ģà®´":1066,"à¯Īà®¨à¯įà®¤":1067,"Ġà®ħà®¤à®±à¯įà®ķ":1068,"Ġà®ªà®¤":1069,"Ġà®ĩà®´":1070,"à®¨à®¾à®®à¯į":1071,"Ġà®¤à®¾à®®à¯į":1072,"à®¤à¯Īà®ªà¯į":1073,"à®ªà®ķ":1074,"à®¿à®µà¯ģ":1075,"Ġà®Ł":1076,"Ġà®ªà®¾à®¤à¯ģà®ķ":1077,"à®ªà¯įà®ªà®Łà®¿":1078,"Ġà®īà®¯à®¿à®°":1079,"Ġà®®à¯ģà®Łà®¿à®¯à®¾à®¤à¯ģ":1080,"à®¾à®¯à®¾à®ķ":1081,"Ġà®Ĵà®°à¯ģà®µ":1082,"à¯įà®ķà®³à¯ģà®ķà¯įà®ķà¯ģ":1083,"à®±à¯įà®±à®¿à®¯":1084,"Ġà®®à®©à®¿à®¤à®°à¯įà®ķà®³":1085,"Ġà®µà®¾à®ķà¯įà®ķ":1086,"Ġà®¨à®®à¯įà®ªà®¿à®ķà¯įà®ķà¯Ī":1087,"Ġà®ħà®¤à®¿à®²à¯į":1088,"at":1089,"Ġà®µà¯Ĩà®³à®¿à®¯à¯ĩ":1090,"ou":1091,"à®ĩà®¤":1092,"à®ļà®°":1093,"à®¾à®Łà¯ģ":1094,"à®¿à®Łà¯Īà®¯à¯ĩ":1095,"Ġà®İà®©à¯įà®©à¯Ī":1096,"à®²à®®à¯į":1097,"Ġà®¤à¯ĩà®°à¯įà®¨à¯įà®¤":1098,"Ġà®¨à®®à¯į":1099,"à®ªà®¿à®©":1100,"Ġà®ļà¯Ĩà®²à¯ģà®¤à¯įà®¤":1101,"Ġà®¨à®°à®ķ":1102,"Ġà®ħà®µà¯įà®µ":1103,"à®¾à®©à¯ĭ":1104,"Ġà®ħà®°à¯ģà®³":1105,"à®µà¯Īà®¯":1106,"Ġà®ªà®¯à®©à¯įà®ªà®Łà¯ģà®¤à¯įà®¤":1107,"Ġà®®à¯ģà®©à¯į":1108,"à®¿à®ªà¯įà®ªà¯ģ":1109,"Ġà®īà®³à¯įà®³à®¤à¯ģ":1110,"Ġà®īà®®à®ķà¯įà®ķà¯ģ":1111,"à¯ĩà®¾à®©":1112,"à¯ģà®µà®¿à®Ł":1113,"à®¿à®ļà¯į":1114,"Ġà®īà®¤à®µà®¿":1115,"Ġ.čĊ":1116,"Ġà®¤à®Ļà¯įà®ķ":1117,"Ġà®µà¯ĩà®±":1118,"à®£à¯įà®Łà¯ģ":1119,"à®£à¯įà®Łà¯ģà®®à¯į":1120,"à®ħà®¤à¯ģ":1121,"Ġà®İà®ļà¯įà®ļà®°":1122,"Ġà®ļà¯Ĩà®µ":1123,"Ġà®µà®¿à®ļ":1124,"Ġà®ħà®´à®ķ":1125,"Ġà®īà®°à¯ģà®µ":1126,"Ġà®ķà¯Ĥà®Łà¯įà®Łà®¤à¯įà®¤":1127,"ic":1128,"is":1129,"à¯įà®¤à¯įà®¤à¯ģ":1130,"à¯ģà®®à®¾":1131,"Ġà®ħà®¤à®©à¯į":1132,"Ġà®¤à¯Ģà®°à¯įà®ªà¯įà®ª":1133,"à®¿à®²à®¿à®°à¯ģà®¨à¯įà®¤":1134,"le":1135,"à¯įà®ķà®³à¯Īà®¯à¯ģà®®à¯į":1136,"à¯įà®¤à®¾à®©à¯į":1137,"à®¾à®³à®°":1138,"à®ĩà®±à¯Ī":1139,"à®¯à®¾à®µ":1140,"à¯įà®¨à®¾à®³":1141,"à¯ģà®µà®¿à®Łà¯įà®Ł":1142,"Ġà®¤à®Ł":1143,"à®İà®©à¯įà®©":1144,"à¯Ĩà®©à®¿à®²à¯į":1145,"Ġà®ªà¯Ĩà®¾à®°à¯ģà®³":1146,"Ġà®Ĭ":1147,"à®İà®©à®µà¯ĩ":1148,"Ġà®¯à®¾à®µ":1149,"à®°à¯Īà®¯à¯ģà®®à¯į":1150,"à®¿à®¤à¯į":1151,"Ġà®ıà®±à¯įà®±":1152,"à¯Īà®¯à¯ģà®Łà¯Īà®¯":1153,"Ġà®Ĳ":1154,"Ġà®İà®Ļà¯įà®ķà®³à¯į":1155,"à®¾à®¤à¯įà®¤":1156,"Ġà®īà®®à¯įà®®à¯ģà®Łà¯Īà®¯":1157,"à¯Īà®¯à¯ĩà®¾":1158,"Ġà®ªà®¿à®±":1159,"à®®à¯Ī":1160,"Ġà®ķà¯ĩà®Łà¯įà®Ł":1161,"Ġà®ķà¯Ĥà®±à®¿à®©à®¾à®°à¯įà®ķà®³à¯į":1162,"Ġà®İà®´à¯ģà®¤":1163,"Ġà®ªà¯ĩà®ļ":1164,"Ġà®ķà®Łà¯įà®Łà®³":1165,"à®īà®Ļà¯įà®ķà®³à¯į":1166,"Ġà®¨à®¾à®Łà®¿à®¯":1167,"Ġà®ªà®¿à®©à¯įà®©":1168,"!\"":1169,"Ġà®ļà¯Ĩà®¯à¯įà®¯à¯ģà®®à¯į":1170,"Ġà®ķà¯ģà®°":1171,"Ġà®µà®°à¯Ī":1172,"à®Ļà¯įà®ķà®³à¯ģà®®à¯į":1173,"Ġà®ħà®µà®°à¯Ī":1174,"à¯ģà®¤à®²":1175,"Ġà®İà®©à¯įà®±à¯ģà®®à¯į":1176,"à¯ģà®®à¯Ī":1177,"à¯įà®Ĩ":1178,"à®ħà®µà®°à¯į":1179,"Ġà®®à¯ģà®ķ":1180,"à¯ģà®®à®¿à®²à¯įà®²à¯Ī":1181,"à¯ģà®ķà¯įà®ķà¯ģà®¤à¯į":1182,"Ġà®·":1183,"à¯ģà®µà¯ĩ":1184,"ĠC":1185,"à®Łà¯įà®ļ":1186,"à®©à¯Ĩà®©à®¿à®²à¯į":1187,"Ġà®ķà¯ģà®±à¯įà®±":1188,"à®²à®ķ":1189,"Ġà®¤à®¿à®Łà¯įà®Ł":1190,"Ġà®İà®Ļà¯įà®ķà®³":1191,"Ġà®Ĩà®£":1192,"Ġà®ĩà®°à¯ģà®¨à¯įà®¤à®¾à®²à¯į":1193,"Ġà®ķà¯ģà®±à®¿à®ªà¯įà®ª":1194,"Ġà®ķà¯ĩà®Łà¯įà®ķ":1195,"à®µà¯ĩà®¤":1196,"Ġà®ħà®µà®©à¯ģà®ķà¯įà®ķà¯ģ":1197,"à¯ģà®¤à¯įà®¤à¯ģ":1198,"Ġà®¨à®©à¯įà®®":1199,"Ġà®¤à¯Ĩà®³à®¿à®µà®¾à®©":1200,"à®¿à®¸":1201,"à®ªà¯įà®ªà®Łà¯įà®Łà®¤à¯ģ":1202,"Ġà®µà¯ĩà®£à¯įà®Łà®¾à®®à¯į":1203,"Ġb":1204,"à¯Īà®ķà¯įà®ķà¯ģ":1205,"Ġà®ĩà®±à¯Īà®µà®©à®¿à®©à¯į":1206,"à®ķà¯įà®ķà¯Ĥà®Łà®¿à®¯":1207,"·à®¯":1208,"Ġà®ªà¯ĭ":1209,"Ġà®ķà®¿à®°à¯ģà®ª":1210,"à®¿à®©à®¾à®©à¯į":1211,"Ġà®ķà®¾à®°à®£":1212,"Ġà®µà¯Īà®ķà¯įà®ķ":1213,"à®¸à®¾à®µ":1214,"à¯įà®ħ":1215,"à®Łà¯įà®Łà¯Ī":1216,"à®¸à¯į":1217,"Ġà®īà®Ļà¯įà®ķà®³à¯ģà®Łà¯Īà®¯":1218,"Ġà®¨à®¿à®²à¯Ī":1219,"à®¾à®ªà¯įà®ª":1220,"à¯įà®¨à®¾à®³à®¿à®²à¯į":1221,"Ġà®¤à®ķ":1222,"Ġà®¤à¯ĩà®Ł":1223,"à®®à®±":1224,"Ġà®ĩà®µà®°à¯įà®ķà®³":1225,"à¯ģà®±à¯įà®±":1226,"Ġà®ļà®¾à®°":1227,"Ġà®ªà®¿à®°à®¾à®°à¯įà®¤à¯įà®¤":1228,"Ġà®¨à¯Ĩà®°à¯ģà®ªà¯įà®ª":1229,"à®±à¯įà®±à¯Īà®¯à¯ģà®®à¯į":1230,"Ġà®ªà®¿à®©à¯įà®ªà®±à¯įà®±":1231,"à®¿à®°à¯ģà®µà®°":1232,"Ġà®ħà®©à¯ģà®®":1233,"à®¿à®ķà¯įà®ķà®¿à®©à¯įà®±":1234,"ment":1235,"Ġà®²":1236,"à®µà®¾à®©":1237,"à®¤à¯įà®¤à®¿à®²à®¿à®°à¯ģà®¨à¯įà®¤à¯ģ":1238,"Ġà®Ĩà®µ":1239,"à®µà®¿à®²à¯įà®²à¯Īà®¯à®¾":1240,"Ġà®¤à®Ļà¯įà®ķà®³":1241,"à®¿à®ªà¯į":1242,"Ġà®¤à®©":1243,"Ġà®µà®Ł":1244,"il":1245,"Ġà®ªà¯ĩà®¾à®²à¯į":1246,"à¯įà®¸à¯į":1247,"à®¾à®°à¯ĩà®¾":1248,"à¯įà®ķà®³à¯ģà®®à¯į":1249,"à®®à¯ģà®Łà¯Īà®¯":1250,"à®ķà¯įà®ķà®£":1251,"à¯Ĩà®Łà¯ģà®ķà¯įà®ķ":1252,"à®©à®¾à®ķ":1253,"à¯ģà®³à¯įà®³à®¤à¯ģ":1254,"Ġà®ķà¯Ĩà®Łà¯įà®Ł":1255,"à®¿à®Łà®¤à¯įà®¤à®¿à®²à¯į":1256,"à®¹à¯įà®®":1257,"Ġà®¨à®¾à®³à®¿à®²à¯į":1258,"à®¾à®¯à®¿à®©à¯į":1259,"Ġà®İà®µà®°à¯įà®ķà®³à¯į":1260,"à¯Ĥà®°":1261,"Ġà®ļà®¾à®Łà¯įà®ļ":1262,"Ġà®īà®±à¯ģà®¤à®¿à®¯":1263,"à®µà¯ĩà®±à¯ģ":1264,"Ġà®ĩà®°à¯ģà®¨à¯įà®¤à¯ģ":1265,"Ġà®¨à®ķà®°":1266,"Ġthe":1267,"Ġà®ªà®£":1268,"à®®à¯ģà®":1269,"Ġà®ķà¯Ĩà®¾à®³à¯įà®ķà®¿à®±":1270,"à®¾à®®à®¾":1271,"à¯Ĩà®¾à®³":1272,"à®®à®©":1273,"Ġà®¤à®¿à®°à¯ģà®ªà¯įà®ª":1274,"Ġà®µà®²":1275,"Ġf":1276,"Ġà®Ĵà®°à¯ģà®µà®°":1277,"à®¿à®°à¯ģà®¨à¯įà®¤à®¾à®²à¯į":1278,"à¯ģà®²à®ķ":1279,"Ġà®µà®¨à¯įà®¤à¯ģ":1280,"à¯ģà®¤à®¾à®©à¯į":1281,"Ġà®ªà¯Ĥà®®à®¿à®¯à®¿à®²à¯į":1282,"Ġà®ļà¯Ĥà®´":1283,"Ġà®ħà®µà®°à¯ģà®ķà¯įà®ķà¯ģ":1284,"Ġà®ķà¯ģà®Ł":1285,"à¯ĩà®¾à®¤à®°":1286,"à¯ģà®µà®¾à®°à¯įà®ķà®³à¯į":1287,"à®¿à®²à¯ĩà®¯à¯ĩ":1288,"à®İà®©à¯įà®±à¯ģà®®à¯į":1289,"à¯ģà®®à¯ĩ":1290,"à®¤à¯ĩà®ļ":1291,"Ġà®ªà¯Ĩà®¾à®¯à¯įà®ªà¯įà®ª":1292,"Ġà®īà®©à¯įà®©":1293,"à¯Īà®¯à®¾à®©":1294,"Ġà®µà®¿à®µ":1295,"Ġà®ķà®¾à®ªà¯įà®ª":1296,"Ġw":1297,"à¯ģà®ķà®¿à®±à¯ĩà®©à¯į":1298,"Ġà®īà®Ļà¯įà®ķà®³à®¿à®Łà®®à¯į":1299,"à¯įà®Łà¯ģ":1300,"Ġà®¤à®¿à®±":1301,"Ġà®ħà®µà®©à¯Ī":1302,"Ġà®µà®¿à®¤":1303,"Ġà®ħà®µà®°à¯ģà®Łà¯Īà®¯":1304,"à®±à®¿à®¯":1305,"Ġà®īà®°à¯ģà®µà®¾à®ķà¯įà®ķ":1306,"Ġà®ļà¯Ĩà®©à¯įà®±":1307,"Ġà®ķà¯Ĭ":1308,"Ġà®ĩà®¯à®²":1309,"Ġà®¤à¯Ĩà®¾à®´":1310,"ol":1311,"Ġà®µà®¾à®°":1312,"à¯įà®ķà®³à®¿à®©à¯į":1313,"à®¾à®¹":1314,"Ġà®ĩà®°à¯ģ":1315,"Ġà®ħà®±à®¿à®¨à¯įà®¤":1316,"à®ħà®µà®°":1317,"à¯įà®ķà®¿à®©à¯įà®±":1318,"à¯Īà®¯à®¿à®©à¯į":1319,"Ġà®ħà®²":1320,"Ġà®ķà®¾à®°à®¿à®¯":1321,"Ġà®ħà®Łà®¿à®¯":1322,"à®¤à®¾à®ķà¯ģà®®à¯į":1323,"à®ĩà®°":1324,"Ġà®µà®´à®¿à®ķ":1325,"Ġà®µà®ķ":1326,"à¯įà®ķà®³à®¿à®²à¯į":1327,"Ġà®ªà¯ĩà®°":1328,"à®¤à®¿à®°":1329,"Ġà®·à¯Īà®¤à¯įà®¤":1330,"Ġà®¤à®¨à¯įà®¤":1331,"Ġà®ªà¯ģà®±à®ķà¯įà®ķà®£":1332,"-čĊ":1333,"Ġà®¨à¯Ģà®ķà¯įà®ķ":1334,"à®¿à®µà®¿à®Łà¯įà®Ł":1335,"à®¿à®¯à®¾":1336,"Ġà®ªà¯ģà®°":1337,"à®ļà¯Ĩà®¯":1338,"Ġà®®à¯ģà®Łà®¿à®¯à®µà®¿à®²à¯įà®²à¯Ī":1339,"Ġà®ķà¯ĩà®Łà¯įà®ª":1340,"à¯ĩà®¾à®°à¯ģà®ķà¯įà®ķà¯ģ":1341,"à¯Īà®ķà¯įà®ķà¯ģà®®à¯į":1342,"Ġà®ļà®ķà¯ĩà®¾à®¤à®°":1343,"à®¾à®³à¯į":1344,"Ġà®ļà¯ģà®µ":1345,"à®·à¯įà®Ł":1346,"Ġà®µà®¿à®·à®¯":1347,"à®µà®°à¯įà®ķà®³à®¿à®²à¯į":1348,"Ġà®µà®¾à®ķà¯įà®ķà¯ģà®±":1349,"à®¤à®®à¯į":1350,"à®¤à¯įà®¤à®¿à®±à¯įà®ķà¯ģ":1351,"Ġà®ķà®µà®©":1352,"à®ªà®¯":1353,"Ġà®ķà¯Ĥà®±à®¿à®©à®¾à®©à¯į":1354,"Ġà®¤à¯Ĥà®¤à®°":1355,"à®±à¯įà®±à¯ģ":1356,"Ġà®İà®Łà¯ģà®¤à¯įà®¤à¯ģà®ķà¯į":1357,"à®°à¯įà®ķà®³à®¾à®ķ":1358,"à®ķà®®à¯į":1359,"Ġà®ħà®²à¯įà®²à®¾à®¹à¯įà®µà¯ģà®ķà¯įà®ķà¯ģ":1360,")à®ķ":1361,"Ġà®¨à¯ĩà®¾à®ķà¯įà®ķà®¿":1362,"à®İà®Ļà¯įà®ķà®³à¯į":1363,"Ġà®®à¯ģà®±à¯įà®±":1364,"Ġà®®à®©à¯Īà®µ":1365,"Ġà®ħà®¨à®¿à®¯à®¾à®¯à®®à¯į":1366,"à®¿à®¤à¯įà®¤à¯ĩà®¾à®®à¯į":1367,"Ġà®¤à®¿à®Ł":1368,"Ġà®®à®¤":1369,"Ġà®īà®Ļà¯įà®ķà®³à®¿à®²à¯į":1370,"à¯įà®ľ":1371,"à®ħà®µà®©à¯į":1372,"omment":1373,"Ġà®µà¯ĩà®£à¯įà®Łà®¿à®¯":1374,"Ġà®İà®²à¯įà®²à®¾à®":1375,"Ġà®ħà®ªà¯įà®ª":1376,"à®®à¯ģà®©":1377,"à®ªà®ķà¯įà®¤à®¿à®¯":1378,"Ġà®ªà¯ĩà®¾à®ķ":1379,"à®¹à¯Ģ":1380,"à®¸à®¾":1381,"à®¿à®¯à®¾à®©":1382,"Ġà®ķà¯Ĩà®¾à®²":1383,"à®¤à®¾":1384,"Ġà®®à¯Ĥà®²à®®à¯į":1385,"Ġà®¨à®¿à®°à®¾à®ķà®°à®¿à®ªà¯įà®ª":1386,"à¯Ĩà®©à¯įà®±":1387,"Ġà®¨à®±à¯įà®ķ":1388,"Ġà®ļà¯ĩà®®":1389,"à®¿à®Łà®®à¯ĩ":1390,"à®¨à®¾à®Ļà¯įà®ķà®³à¯į":1391,"Ġà®Ĵà®©à¯įà®±à¯ģ":1392,"à¯ģà®£à¯įà®Łà¯ģ":1393,"00":1394,"à¯įà®ħà®µ":1395,"à¯ģà®µà¯ģà®®à¯į":1396,"à®¿à®¯à®®à¯į":1397,"à®Ļà¯įà®ķà®³à®¿à®©à¯į":1398,"Ġà®¯à®¾à®°":1399,"à¯Īà®¯à®¾à®³":1400,"Ġà®¨à®¾à®¯":1401,"à¯ģà®ķà¯įà®ķà¯ģà®ļà¯į":1402,"Ġà®ıà®©à¯Ĩà®©à®¿à®²à¯į":1403,"Ġà®µà¯ĩà®¤à®©à¯Īà®¯":1404,"à®ªà®¿à®©à¯įà®©à®°à¯į":1405,"Ġà®µà¯Ĩà®³à®¿à®ªà¯įà®ª":1406,"Ġà®µà¯Īà®ªà¯įà®ª":1407,"Ġà®ħà®¤à®©à¯Ī":1408,"ĥà®ªà®¿à®°à¯įà®ħà®µ":1409,"ĥà®ªà®¿à®°à¯įà®ħà®µà¯įà®©":1410,"à¯Ĥà®¤":1411,"à®Łà¯ģà®¤à¯įà®¤à¯ģ":1412,"Ġà®®à¯ĩà®²à¯į":1413,"à®ªà¯ĩà®¾à®¤à¯ģ":1414,"Ġà®ĩà®°à¯ģà®ķà¯įà®ķà®¿à®©à¯įà®±à®©":1415,"à®®à®±à¯įà®±":1416,"à®īà®Ļà¯įà®ķà®³":1417,"Ġà®ĩà®¤à¯Ī":1418,"Ġà®ªà¯Ĩà®°à¯ģà®®à¯į":1419,"à®ķà¯Ĥ":1420,"à®©à¯Īà®¯à¯ģà®®à¯į":1421,"à®ķà¯ĩ":1422,"à¯įà®ķà®³à¯ĩ":1423,"à®Łà¯ģà®®à¯į":1424,"à®ªà®¤":1425,"à®¿à®¹":1426,"à®µà®°à¯įà®ķà®³à¯ĩ":1427,"à®ķà¯ģà®±":1428,"Comment":1429,"Ġà®ķà¯Ĥà®±à¯ģà®ķà®¿à®±à®¾à®°à¯įà®ķà®³à¯į":1430,"à®ħà®²à¯įà®²à®¾à®¹à¯įà®µà®¿à®©à¯į":1431,"à®¾à®¸":1432,"à¯ģà®®à®¾à®±à¯ģ":1433,"Ġà®ªà®±à¯įà®±":1434,"ĠS":1435,"à¯ģà®µà¯Ģà®°à®¾à®ķ":1436,"à®²à¯įà®²à¯Ī":1437,"à®Ī":1438,"ing":1439,"à®¾à®®à¯ĩ":1440,"Ġà®Ĵà®µà¯įà®µà¯Ĩà®¾à®°à¯ģ":1441,"Ġà®ıà®±à¯įà®ªà®Łà¯ģà®¤à¯įà®¤":1442,"à¯ģà®ķà®¿à®©à¯įà®±à®©à®°à¯į":1443,"à®¿à®²à®¿à®°à¯ģà®¨à¯įà®¤à¯ģà®®à¯į":1444,"Ġà®®à¯ģà®´":1445,"Ġà®ķà¯Ĥà®±à®¿à®¯":1446,"à®²à®¿à®²à¯į":1447,"Ġà®īà®®à¯įà®®à¯Ī":1448,"à®±à¯įà®ļ":1449,"Ġà®īà®¯à®°":1450,"Ġà®®à¯ģà®Łà®¿à®¯à¯ģà®®à¯į":1451,"à®¿à®°à®®":1452,"à®²à¯įà®²à®¤à¯ģ":1453,"à¯Īà®¯à®©à¯įà®±à®¿":1454,"Ġà®®à®¾à®±":1455,"Ġà®ļà¯Ĩà®²à¯įà®µ":1456,"à¯ģà®µà®¾à®©à¯į":1457,"Ġà®ªà®¾à®°à¯įà®¤à¯įà®¤":1458,"à®¿à®£":1459,"Ġà®Ĩà®¯":1460,"Ġà®®à¯ģà®±à¯įà®±à®¿à®²à¯ģà®®à¯į":1461,"Ġà®ķà¯Ĥà®±à¯ģà®µà®¾à®°à¯įà®ķà®³à¯į":1462,"à¯Ĩà®¯à¯įà®¯":1463,"à®¤à¯įà®¤à¯Īà®ķà¯į":1464,"à¯Ĩà®©à¯įà®±à¯ģà®®à¯į":1465,"Ġà®µà®°à®®à¯įà®ª":1466,"à®²à¯įà®ķà®³à¯į":1467,"à¯Īà®ķà®³à¯Īà®¯à¯ģà®®à¯į":1468,"à®¿à®¯à®¿à®©à¯į":1469,"Ġà®µà®´à®Ļà¯įà®ķ":1470,"Ġà®¨à®©à¯įà®±à®¿":1471,"Ġà®ħà®°à¯ģà®Ł":1472,"Ġà®ļà¯ģà®®":1473,"à®¾à®©à¯įà®©":1474,"à®¾à®ķà®¿à®¯":1475,"Ġà®¨à®¿à®©à¯Īà®µà¯ģ":1476,"Ġà®®à¯ģà®©à¯įà®©à®°à¯į":1477,"Ġà®¤à¯Ĩà®¾à®Ł":1478,"Ġà®¤à¯Ĭ":1479,"à®ħà®Ł":1480,"à®¿à®Łà¯įà®Łà¯ģ":1481,"Ġà®®à®¾à®°à¯įà®ķà¯įà®ķ":1482,"à®µà®°à¯įà®ķà®³à¯ģà®®à¯į":1483,"à®ĩà®µà¯įà®µà®¾à®±à¯ģ":1484,"Ġà®ªà¯Ĭà®°":1485,"à¯Īà®¯à®¿à®²à¯ģà®®à¯į":1486,"à®°à¯ĩ":1487,"à®µà¯Īà®¯à¯ģà®®à¯į":1488,"Ġà®ħà®²à¯įà®²à®¾à®¹à¯įà®µà¯Ī":1489,"à®¨à®®à¯į":1490,"Ġà®īà®°à®¿à®¯":1491,"Ġà®¨à®¾à®³à¯į":1492,"à¯įà®®à¯Īà®¯à®¾à®©":1493,"à®¾à®°à¯įà®ķà®³à¯ĩ":1494,"Ġà®īà®¤":1495,"Ġà®¤à®²":1496,"Ġà®ªà®¯à®ªà®ķà¯įà®¤à®¿à®¯":1497,"Ġà®ķà¯Ĥà®Ł":1498,"à®¿à®±à®¾à®©à¯į":1499,"Ġà®ħà®ķ":1500,"Ġà®İà®²à¯įà®²":1501,"à®£à¯į":1502,"à®¿à®±à®¤à¯ģ":1503,"Ġà®ķà¯Ĩà®¾à®Łà¯ģà®ªà¯įà®ª":1504,"Ġà®¤à¯Ĥà®¯":1505,"à®¿à®®à¯įà®ª":1506,"Ġà®¨à®¿à®²à¯Īà®¯à®¿à®²à¯į":1507,"à®¿à®ķà¯įà®ķà¯ģ":1508,"st":1509,"à®®à¯ģà®ĥà®®à®¿à®©":1510,"à®¿à®©à®°à¯į":1511,"Ġà®¨à¯ģà®´":1512,"à®¾à®¹à¯Ģ":1513,"ia":1514,"Ġà®¤à®²à¯Ī":1515,"à¯ģà®®à®¾à®©":1516,"à®¾à®²à®¿à®¹":1517,"à®®à®°":1518,"à¯įà®ķà¯Ĩà®¾à®Ł":1519,"à®ªà®Ł":1520,"Ġà®ļà¯ĩà®¾à®¤":1521,"Ġà®¤à¯Ģà®®":1522,"Ġà®µà®¿à®²à®ķ":1523,"à®¾à®°à®£":1524,"Ġà®ªà¯Ĩà®¯à®°à¯į":1525,"Ġà®µà®¿à®°à¯ģà®ªà¯įà®ª":1526,"Ġà®µà®¾à®´à¯įà®ķà¯įà®ķ":1527,"à®ªà¯įà®ªà®Łà®¿à®¯":1528,"à¯Ĩà®¾à®´à¯ģà®¤à¯ģ":1529,")à®¤":1530,"à®²à¯įà®µ":1531,"à®ħà®©":1532,"Ġà®¤à®©à¯įà®©":1533,"à®³à¯įà®µ":1534,"),":1535,"Ġà®¤à¯Ĭà®Ł":1536,"(à®ķ":1537,"Ġà®ªà¯Ĩà®°à¯ģà®®à¯įà®ª":1538,"à¯Īà®¨à¯įà®¤à¯ģ":1539,"à®®à®©à®¿à®¤":1540,"à¯ĩà®¤":1541,"Ġà®®à®²à®ķà¯įà®ķ":1542,"Ġà®ħà®£":1543,";)":1544,"Ġà®ĩà®±à¯Īà®µà®©à¯ĩ":1545,"à¯Īà®ķà®³à®¿à®²à¯į":1546,"Ġà®¨à®©à¯įà®®à¯Ī":1547,"Ġà®µà®¿à®³à¯Īà®¯":1548,"à¯Īà®µà®¿à®Ł":1549,"Ġà®ĩà®µà¯įà®µà¯ģà®²à®ķ":1550,"Ġà®µà®´à®¿à®¯":1551,"Ġà®ªà®¿à®´":1552,"à®ķà¯įà®ķà®®à¯į":1553,"Ġà®¨à®©à¯įà®ķà¯ģ":1554,"Ġà®µà®Łà®¿à®µ":1555,"Ġà®İà®©à®ķà¯į":1556,"Ġà®ķà¯ĭà®ªà¯įà®ªà¯ģ":1557,"à®®à®ķà¯įà®ķ":1558,"Ġà®ħà®ļà¯įà®ļà®®à¯Ĥ":1559,"à®®à®¾à®ķà¯ģà®®à¯į":1560,"Ġà®ħà®¤à¯įà®¤à®¾à®Łà¯įà®ļà®¿à®ķà®³":1561,"à®¾à®°à®®à¯į":1562,");":1563,":%":1564,"Ġà®ķà¯Ĩà®¾à®£à¯įà®Łà¯ĩ":1565,"Ġà®¨à®¿à®©à¯įà®±":1566,"Ġà®ļà®®à¯įà®ª":1567,"Ġà®µà®¾à®Ļà¯įà®ķ":1568,"Ġà®ªà¯Ĭ":1569,"à®µà®£":1570,"à®ķà¯ĭà®ªà¯įà®ª":1571,"à®¤à®±à¯įà®ķà®¾à®ķà®µà¯ģà®®à¯į":1572,"Ġà®¨à®ª":1573,"Ġà®ĩà®°à¯ģà®ķà¯įà®ķà®¿à®©à¯įà®±à®©à®°à¯į":1574,"à®©à®¿à®¯":1575,"Ġà®ªà¯Ĩà®¾à®±à¯ģà®®à¯Īà®¯":1576,"à®°à¯įà®ķà®³à¯Ī":1577,"à®Łà®¿à®ķà¯įà®ķ":1578,"Ġà®µà¯Ĩà®±":1579,"Ġà®¨à®¿à®©à¯Īà®µ":1580,"Ġà®ħà®²à¯įà®²à®¾à®¹à¯įà®µà¯ģà®ķà¯įà®ķà¯ĩ":1581,"Ġà®ªà¯Ĩà®°à¯ģà®®à¯įà®ªà®¾à®²":1582,"à¯ģà®µà¯ĩà®¾à®®à¯į":1583,"Ġà®¨à¯ĩà®ļ":1584,"Ġà®ħà®°à¯ģà®Łà¯įà®ķà¯Ĩà®¾à®Ł":1585,"Ġà®ĩà®°à¯ģà®ªà¯įà®ªà®¾à®°à¯įà®ķà®³à¯į":1586,"Ġà®ħà®µà®°à¯įà®ķà®³à¯Īà®ªà¯į":1587,"Ġà®ķà¯Ĩà®¾à®£à¯įà®Łà¯ģà®®à¯į":1588,"Ġà®ļà¯Ĩà®¾à®©à¯įà®©":1589,"à®µà®²":1590,"Ġà®®à¯ĩà®²à®¾à®©":1591,"à®¾à®ķà¯į":1592,"à¯Ĩà®©à¯įà®±à®¾à®²à¯į":1593,"Ġà®ªà®¾à®¤à¯Īà®¯à®¿à®²à¯į":1594,"à®®à¯ģà®Ł":1595,"Ġà®µà®°à¯ģà®®à¯į":1596,"Ġà®īà®£à¯įà®Łà®¾à®ķà¯įà®ķ":1597,"Ġà®¤à¯Ĩà®¾à®´à¯ģà®ķ":1598,"Ġà®ªà®¿à®±à®ķà¯ģ":1599,"à®ļà®°à®¿":1600,"Ġà®ķà®£à¯įà®£":1601,"Ġà®ĩà®±à®ķà¯įà®ķà®¿":1602,"Ġm":1603,"à®¿à®±à¯ĩà®©à¯į":1604,"Ġà®İà®©à®ķà¯įà®ķ":1605,"Ġà®ªà¯Ĩà®¾à®°à¯ģà®Łà¯įà®Łà¯ģ":1606,"Ġà®¤à®µà®±":1607,"à®¾à®ķà¯įà®ķà®³":1608,"à¯Ĩà®¯à¯įà®µ":1609,"à¯ĩà®Ł":1610,"à®ªà¯įà®°":1611,"à¯ĭà®¤":1612,"à¯ģà®ķà®¿à®±à¯ĩà®¾à®®à¯į":1613,"Ġà®ªà®Łà¯įà®Łà®¿à®¯":1614,"à¯įà®Łà¯į":1615,"à¯ģà®©à¯įà®ª":1616,"Ġà®ªà®ķà®¿à®°":1617,"Ġà®ķà®¾à®ªà¯įà®ªà®¾à®±à¯įà®±":1618,"à®¸à¯įà®ª":1619,"et":1620,"à®ħà®²à¯įà®²à®¤à¯ģ":1621,"Ġà®ĵà®¤":1622,"Ġà®ĩà®¸":1623,"Ġà®¤à¯ĩà®°à¯įà®µà¯ģ":1624,"Ġto":1625,"à®®à®¾à®Łà¯įà®Łà®¾à®°à¯įà®ķà®³à¯į":1626,"Ġà®¨à¯ĩà®°à¯įà®µà®´à®¿":1627,"Ġà®¤à®£à¯įà®Ł":1628,"Ġà®ħà®µà¯Ī":1629,"Ġà®ħà®ķà¯įà®ķ":1630,"à®ĩà®µà¯įà®µ":1631,"Ġà®ħà®ļà¯įà®ļà®®à¯Ĥà®Łà¯įà®Łà®¿":1632,"à®¾à®ķà®ķà¯į":1633,"Ġà®İà®µà¯įà®µ":1634,"à®©à¯įà®®":1635,"à®¨à®²à¯įà®²":1636,"ck":1637,"à¯ģà®¨":1638,"Ġà®ªà®ķà¯įà®ķà®®à¯į":1639,"Ġà®ŀà®¾à®©à®®à¯į":1640,"Ġà®®à®¿à®ķà¯Īà®¤à¯įà®¤":1641,"à®£à¯įà®ª":1642,"Ġà®µà®ļà®©à®Ļà¯įà®ķà®³à¯Ī":1643,"Ġà®ķà¯ģà®°à¯įà®Ĩ":1644,"Ġà®ķà®©":1645,"à®ħà®¨à¯įà®¤":1646,"Ġà®ħà®ªà¯įà®ªà¯ĩà®¾à®¤à¯ģ":1647,"Ġà®®à¯ģà®±à¯Ī":1648,"Ġà®¨à®·à¯įà®Ł":1649,"ªà¯į":1650,"à¯ģà®ķà®³à®¿à®²à¯į":1651,"à¯Ĥà®²":1652,"Ġà®ħà®µà®°à¯įà®ķà®³à®¿à®©à¯į":1653,"à®ħà®¨":1654,"Ġà®İà®Ļà¯įà®ķà®³à¯ģà®ķà¯įà®ķà¯ģ":1655,"à®¤à¯įà®¤à¯ģ":1656,"à®ªà¯įà®ªà¯ģ":1657,"à®¾à®µà®²":1658,"(à®¤à¯į":1659,"à®µà®¿à®Ł":1660,"à®Łà¯Īà®¨à¯įà®¤":1661,"\\\\":1662,"Ġà®Ĵà®©à¯įà®±":1663,"à®µà®±à¯įà®±à¯Īà®¯à¯ģà®®à¯į":1664,"à¯ĩà®ķ":1665,"à®©à¯ĩ":1666,"à¯ģà®ķà®¿à®±à¯Ģà®°à¯įà®ķà®³à¯į":1667,"à®ĵ":1668,"Ġà®ıà®±à¯įà®ªà®Łà¯įà®Ł":1669,"Ġà®ķà¯Ĥà®²":1670,"Ġx":1671,"Ġà®ĩà®±à¯Īà®µà®©à®¿à®Łà®®à®¿à®°à¯ģà®¨à¯įà®¤à¯ģ":1672,"Ġà®ĩà®°à¯ģà®¨à¯įà®¤à®¤à¯ģ":1673,"Ġà®µà¯ĩà®±à®¿à®²à¯įà®²à¯Ī":1674,"Ġà®®à®ķà®¤à¯įà®¤":1675,"Ġà®ķà¯Ģà®´à¯ĩ":1676,"à®°à¯įà®µ":1677,"à®ĩà®²à¯įà®²à¯Ī":1678,"Ġà®ķà¯Ĥà®Łà®¿à®¯":1679,"(à®ªà¯į":1680,"Ġà®ļà¯Ĩà®¯à¯į":1681,"Ġà®µà¯ĩà®¤à®©à¯Īà®¯à¯Ī":1682,"à¯ģà®®à¯Īà®¯à®¿à®²à¯į":1683,"à®µà®¾":1684,"Ġà®İà®©à¯įà®©à¯ģà®Łà¯Īà®¯":1685,"à¯įà®¤à®¿":1686,"Ġà®®à¯ģà®¯":1687,"à®¤à®©à¯į":1688,"à¯ģà®¤à®¯":1689,"à®ħà®¤à®±à¯įà®ķà¯ģ":1690,"à¯ĩà®ļ":1691,"à®ªà¯Ĩ":1692,"à¯ģà®µà®°à¯įà®ķà¯įà®ķ":1693,"Ġà®ļà®¤à¯įà®¤à®¿à®¯à®®à®¾à®ķ":1694,"Ġà®ļà¯Ĩà®¯à®²à¯įà®ª":1695,"à®¾à®°à¯ģà®®à¯į":1696,"à®ļà¯Ĩ":1697,"à®¨à®°à®ķ":1698,"(_":1699,"à®µà¯ĩà®£à¯įà®Ł":1700,"à¯Ģà®²":1701,"Ġà®ĩà®µà®°à¯įà®ķà®³à¯ģà®ķà¯įà®ķà¯ģ":1702,"à®Īà®®à®¾à®©à¯į":1703,"à®ļà®¿à®¯":1704,"à®Łà¯įà®Łà®¿à®²à¯į":1705,"à®¤à¯ĩà®¾":1706,"Ġà®ħà®¤à®±à¯įà®ķà¯ģ":1707,"Ġà®¤à¯Ĩà®°à®¿à®¯":1708,"Ġà®ħà®µà®±à¯įà®±à¯Ī":1709,"Ġà®ķà¯Ĩà®¾à®Łà¯ģà®¤à¯įà®¤à¯ģ":1710,"à®°à¯įà®¨à¯įà®¤à¯ģ":1711,"Ġà®°à®¹à¯įà®®":1712,"à®±à®¿":1713,"Ġà®¨à®©à¯įà®ķà®±à®¿à®¨à¯įà®¤":1714,"ĠM":1715,"à®¤à¯įà®¤à®¿à®²à¯ģà®®à¯į":1716,"à®¨à®¿à®±":1717,"Ġà®®à¯Ģà®£à¯įà®Łà¯ģà®®à¯į":1718,"Ġà®ĩà®¤à®¯":1719,"Ġà®ħà®¨à®¿à®¯à®¾à®¯à®ķà¯įà®ķà®¾à®°":1720,"à¯įà®ªà¯ģ":1721,"à®®à¯ģà®±":1722,"à®Ļà¯į":1723,"Ġà®¨à¯Ĩà®°à¯ģà®Ļà¯įà®ķ":1724,"Ġà®¨à¯ĩà®°à®®à¯į":1725,"à®¾à®²à®¿à®¹à®¾à®©":1726,"à®ħà®µà®°à¯įà®ķà®³à¯ģà®ķà¯įà®ķà¯ģ":1727,"Ġà®İà®Ļà¯įà®ķà®³à¯Ī":1728,"à®µà®°à®¾à®ķ":1729,"us":1730,"Ġà®ĩà®°à¯ģà®¤à®¯":1731,"à®°à¯ģà®³":1732,"Ġà®ħà®³à®µà¯ģ":1733,"Ġà®¤à®¾à®©":1734,"Ġà®ĥà®ªà®¿à®°à¯įà®ħà®µà¯įà®©":1735,"Ġà®¨à®¾à®©":1736,"Ġà®µà®¾à®ķà¯įà®ķà®³":1737,"Ġà®ªà¯ĩà®¾à®°":1738,"Ġà®¤à¯ģà®µ":1739,"à®¾à®£à¯įà®Ł":1740,"Ġà®ħà®µà®±à¯įà®±à®¿à®©à¯į":1741,"à®¨à®¿à®°":1742,"à¯Īà®ļà¯į":1743,"ec":1744,"à®ķà¯įà®ķà®¿":1745,"Ġà®ħà®µà¯įà®µà®¿à®°à¯ģà®µà®°":1746,"Ġà®İà®©à¯įà®±à¯Ĩà®©à¯įà®±à¯ģà®®à¯į":1747,"à¯ģà®Łà¯įà®Ł":1748,"à®µà®°à¯Ī":1749,"à®¿à®©à¯įà®©":1750,"Ġà®Ĵà®°à¯ģà®µà®°à¯į":1751,"à¯ĩà®¯à®©à¯įà®±à®¿":1752,"Ġà®ħà®Łà®¿à®¯à®¾à®°à¯įà®ķà®³":1753,"Ġà®ļà¯Ĩà®©à¯įà®±à¯ģ":1754,"à¯ĩà®¾à®©à®¾à®ķà®µà¯ģà®®à¯į":1755,"à¯ģà®ĥà®ª":1756,"Ġà®®à¯Ĥà®¸à®¾à®µ":1757,"Ġà®ķà®£à®ķà¯įà®ķ":1758,"ra":1759,"Ġà®īà®Ļà¯įà®ķà®³à¯Īà®ªà¯į":1760,"Ġà®ªà®´":1761,"à®ħà®¤à¯Ī":1762,"à®¤à¯įà®¤à®¾à®²à¯į":1763,"Ġà®¨à¯ĩà®¾à®µ":1764,"Ġà®ķà¯Ĥà®²à®¿":1765,"à®µà®³":1766,"à®İà®©à®¿à®©à¯ģà®®à¯į":1767,"Ġà®ªà®°à®¿à®ļ":1768,"à®ĥ":1769,"Ġà®¤à¯ģà®©à¯įà®ª":1770,"à®¾à®®à®²":1771,"à¯ģà®ªà¯įà®ªà¯ģ":1772,"Ġà®ļà¯Ģ":1773,"Ġà®ªà®Łà¯ģà®¤à¯įà®¤":1774,"Ġà®ªà®ķà®¿à®°à®Ļà¯įà®ķ":1775,"Ġà®ĩà®°à®µ":1776,"à®ĩà®¤à¯Ī":1777,"à¯Īà®µà¯ĩ":1778,"à¯įà®ķà®³à®¾à®ķ":1779,"à®¾à®ļà®®à¯į":1780,"el":1781,"Ġà®ħà®´à¯Īà®ķà¯įà®ķ":1782,"Ġà®ªà¯Ĩà®°à¯ģà®®à¯įà®ªà®¾à®²à¯ĩà®¾à®°à¯į":1783,"Ġà®İà®ļà¯įà®ļà®°à®¿à®ķà¯įà®ķà¯Ī":1784,"Ġà®ħà®¨à¯įà®¨à®¾à®³à®¿à®²à¯į":1785,"Ġà®®à®ķà®¤à¯įà®¤à®¾à®©":1786,"à¯Ĩà®Łà¯ģà®¤à¯įà®¤":1787,"à®®à®¾à®ķà®µà¯ģà®®à¯į":1788,"Ġà®ĩà®°à¯ģà®ķà¯įà®ķà®¿à®±à®¾à®°à¯įà®ķà®³à¯į":1789,"Ġ,":1790,"Ġà®ķà¯Ĩà®¾à®£à¯įà®Łà®¿à®°à¯ģà®ªà¯įà®ª":1791,"Ġà®®à®¾à®±à¯ģ":1792,"Ġà®ĩà®¤à®¿à®²à¯į":1793,"à®¤à®¾à®©":1794,"à®¿à®²à¯įà®²à®¾à®¤":1795,"à®¿à®±à¯įà®ķà¯ģ":1796,"Ġà®µà®´à®¿à®ª":1797,"à¯ģà®µà®¤à¯ģ":1798,"à®µà®°à¯ģà®®à¯į":1799,"Ġà®īà®Łà¯Īà®¯":1800,".)čĊ":1801,"Ġà®ĩà®°à¯ģà®ķà¯įà®ķà®¿à®±à®¾à®©à¯į":1802,"à®µà®¾à®³":1803,"à®¿à®©à®°":1804,"Ġà®µà®°à®®à¯įà®ªà¯ģ":1805,"à®¿à®ķà®´":1806,"Ġà®¨à®Łà®¨à¯įà®¤à¯ģ":1807,"à¯ģà®®à¯įà®ªà¯ĩà®¾à®¤à¯ģ":1808,"Ġà®¨à®®à¯įà®®à¯ģà®Łà¯Īà®¯":1809,"Ġà®ļà¯ĩà®°à¯įà®ķà¯įà®ķ":1810,"à¯ĩà®¾à®°à¯Ī":1811,"Ġà®·à¯Īà®¤à¯įà®¤à®¾à®©":1812,"Ļà¯į":1813,"Ġà®ªà¯ģà®ķà®´":1814,"à¯Īà®¤à¯įà®¤à¯ģà®ķà¯į":1815,"Ġà®ļà®¿à®¨à¯įà®¤":1816,"à®µà®´":1817,"Ġà®ķà®Łà¯įà®Łà®³à¯Īà®¯":1818,"à®ªà®¿à®°":1819,"Ġà®¨à¯ĩà®¾à®µà®¿à®©à¯Ī":1820,"à®¿à®¯à¯ģà®³à¯įà®³":1821,"Ġà®ĩà®°à®£à¯įà®Łà¯ģ":1822,"Ġà®ıà®¤":1823,"à®¿à®±à¯įà®±":1824,"Ġà®İà®²à¯įà®²à®¾à®ªà¯į":1825,"Ġà®µà®¿à®³à®ķà¯įà®ķ":1826,"à¯Ĩà®¾à®²":1827,"à®¾à®°à®¾à®¯":1828,"à®¾à®°à¯įà®ķà®³à®¾":1829,"à®¿à®ķà¯įà®ķà®µà¯ģà®®à¯į":1830,"Ġà®ªà®¿à®´à¯Ī":1831,"à®®à®¾à®ķà¯įà®ķ":1832,"Ġà®µà®¾à®¯":1833,"Ġà®ªà¯Ĩà®¾à®´":1834,"à®¤à¯įà®¤à®¾à®°":1835,"à®¯à®¾à®µà®±à¯įà®±à¯Īà®¯à¯ģà®®à¯į":1836,"Ġà®µà®¿à®´":1837,"à®¿à®ķà¯įà®ķà®ªà¯įà®ªà®Ł":1838,"à®¿à®ķà®³à®¿à®²à¯į":1839,"Ġà®İà®´à¯ģà®ªà¯įà®ª":1840,"Ġà®ķà®¾à®°à®£à®®à®¾à®ķ":1841,"à¯ĩà®¾à®°à®¿à®²à¯į":1842,"Ġà®ļà®ª":1843,"Ġà®µà®£à¯įà®£":1844,"à®µà®©à¯ģà®®à¯į":1845,"à®µà¯Ĩ":1846,"à¯Ģà®¤à¯ģ":1847,"ĠT":1848,"à®¿à®¯à®¾à®®":1849,"Ġà®İà®µà®°à¯ģà®®à¯į":1850,"Ġà®ļà®¿à®±à®¿à®¤":1851,"Ġo":1852,"à®īà®Ļà¯įà®ķà®³à¯ģà®ķà¯įà®ķà¯ģ":1853,"à¯ģà®ķà¯įà®ķà¯ģà®°à®¿à®¯":1854,"à®Ļà¯įà®ķà®³à®¿à®²à¯ģà®®à¯į":1855,"à®µà®¿à®°":1856,"ag":1857,"Ġà®¤à¯Ĩà®¯à¯įà®µ":1858,"Ġà®ĩà®©":1859,"Ġà®ĩà®µà¯įà®µà®¾à®±à¯ĩ":1860,"Ġà®¨à®¿à®±à¯ģà®¤à¯įà®¤":1861,"Ġà®ķà¯Ĥà®Łà¯įà®Łà®¤à¯įà®¤à®¾à®°":1862,"Ġà®ªà¯ģà®¤à®¿à®¯":1863,"Ġà®¨à®©à¯įà®®à®¾à®°à®¾à®¯":1864,"Ġà®ħà®Łà¯Īà®µ":1865,"Ġà®ĩà®µà¯įà®µà®¾à®±à¯ģ":1866,"Ġà®®à®¾à®¤":1867,"Ġà®ļà¯Ĩà®¾à®¨à¯įà®¤":1868,"à®Łà¯Īà®¯":1869,"Ġà®ıà®©à¯į":1870,"à®°à¯įà®ķà®³à¯ĩ":1871,"Ġà®ıà®´":1872,"à¯ģà®ªà®µ":1873,"à®¨à¯ĩà®°":1874,"Ġà®ħà®µà®°à¯įà®ķà®³à¯ģà®ķà¯įà®ķà¯ģà®ķà¯į":1875,"Ġà®µà®¿à®µà®°":1876,"Ġà®ķà®¾à®Łà¯įà®Łà¯ģ":1877,"à®®à¯Īà®¯":1878,"à®¾à®ķà®¿":1879,"Ġà®ªà¯Ĩà®°à®¿à®¯":1880,"Ġà®ļà®¿à®²à®°à¯į":1881,"Ġà®ħà®©à¯įà®±à®¿":1882,"à®¿à®°à¯ģà®ķà¯įà®ķà®¿à®±à®¤à¯ģ":1883,"Ġà®ķà¯ģà®Łà¯ģà®®à¯įà®ª":1884,"à®¤à¯Īà®ķà¯į":1885,"à®¿à®¯à¯ģà®Ļà¯įà®ķà®³à¯į":1886,"Ġà®µà¯ĩà®£à¯įà®Łà®¾à®®à®¾":1887,").":1888,"Ġà®İà®¤à¯ģà®µà¯ģà®®à¯į":1889,"Ġà®ļà¯Ĩà®²à®µà¯ģ":1890,"Ġà®ĩà®Ļà¯įà®ķà¯ĩ":1891,"(à®ħà®¤à®±à¯įà®ķà¯ģ":1892,"Ġh":1893,"à®ªà¯įà®ªà®Łà¯įà®Łà®¾à®²à¯į":1894,"Ġà®ĩà®²":1895,"ut":1896,"Ġà®ħà®³à®¿à®¤à¯įà®¤":1897,"Ġ&":1898,"ĠD":1899,"à®Ĵà®°":1900,"Ġà®®à¯ģà®±à¯įà®ª":1901,"Ġà®¨à¯ĩà®°à¯į":1902,"Ġà®īà®®à¯įà®®à®¿à®Łà®®à¯į":1903,"à®²à¯įà®²à®¾à®®":1904,"Ġà®Ĵà®³":1905,"à¯ģà®²à¯į":1906,"Ġà®¨à®ķà®°à¯įà®¤à¯įà®¤à¯ģ":1907,"Ġà®µà¯Ĩà®³à®¿à®¯":1908,"Ġà®ªà®¾à®°à¯įà®ªà¯įà®ª":1909,"Ġà®¨à®©à¯įà®®à¯Īà®¯":1910,"à¯ģà®µà®°à¯į":1911,"ad":1912,"à¯ģà®®à¯Īà®¯à®¾à®©":1913,"\"à®¨à®¿à®ļà¯įà®ļà®¯à®®à®¾à®ķ":1914,"Ġà®¨à®Łà®ķà¯įà®ķ":1915,"Ġà®ļà®¾à®³à®°":1916,"Ġà®¨à¯ĩà®°à¯įà®µà®´à®¿à®¯à®¿à®²à¯į":1917,"Ġà®İà®ªà¯įà®ªà®Łà®¿":1918,"à¯ģà®ªà®¤à¯ĩà®ļ":1919,"Ġà®ªà®¯à®ªà®ķà¯įà®¤à®¿à®¯à¯ģà®Łà¯Īà®¯":1920,"à®ķà®Ł":1921,"à®¾à®¤à¯Ģà®°à¯į":1922,"Ġà®µà®¿à®Łà¯įà®Łà®¤à¯ģ":1923,"Ġà®¤à¯Ĥà®¤à®°à¯įà®ķà®³":1924,"Ġà®ªà®¾à®¤à¯ģà®ķà®¾à®µà®²":1925,"Ġà®ªà®¾à®¤à¯ģà®ķà®¾à®ªà¯įà®ª":1926,"Ġà®ĩà®±à¯Īà®µà®©à®¿à®Łà®®à¯į":1927,"Ġà®®à®©à®¿à®¤à®©à¯į":1928,"à®¿à®°à®®à¯į":1929,"à®³à®µà¯ģ":1930,"Ġà®Ĩà®¤à¯įà®®":1931,"Ġà®ĩà®²à¯įà®²à®¾à®¤":1932,"Ġà®¨à®ķ":1933,"à®¤à¯ĩà®°":1934,"à®®à®ķà¯įà®ķà¯ģ":1935,"Ġà®ħà®Ļà¯įà®ķà¯ģ":1936,"à®ĩà®±à¯Īà®µà®©":1937,"à¯Ĩà®Łà¯ģ":1938,"Ġà®ªà¯ĩà®¾à®²":1939,"à¯įà®ļà¯įà®ļà®¿":1940,"Ġà®Ĩà®ķà®¿à®¯":1941,"à®ĩà®£":1942,"Ġà®ķà¯ģà®´à®ªà¯įà®ª":1943,"à®®à®¾à®±à¯įà®±":1944,"Ġà®ķà¯Ĩà®¾à®Łà¯ģà®¤à¯įà®¤à¯ĩà®¾à®®à¯į":1945,"à®ļà¯Ī":1946,"ur":1947,"à¯ģà®µà®¤à®±à¯įà®ķà®¾à®ķ":1948,"(à®¯":1949,"à¯ĭà®¤à¯ģ":1950,"Ġà®ªà¯ĩà®¾à®°à¯į":1951,"Ġà®ªà®±à¯įà®±à®¿à®¯":1952,"Ġà®ļà¯ģà®±à¯įà®±":1953,"Ġà®ļà®®à¯įà®ªà®¾à®¤":1954,"Ġà®ļà¯ģà®µà®°à¯įà®ķà¯įà®ķ":1955,"Ġà®ħà®µà®©à¯ģà®ķà¯įà®ķà¯ĩ":1956,"à¯ĩà®¯à®¾à®ķà¯ģà®®à¯į":1957,"Ġà®ļà¯Ĩà®¯à¯įà®¯à®ªà¯įà®ªà®Ł":1958,"Ġà®ķà®¿à®Łà¯Īà®¤à¯įà®¤":1959,"à¯Īà®¯à¯Ĩà®²à¯įà®²à®¾à®®à¯į":1960,"à®ªà¯įà®ªà®Łà¯įà®Łà¯ģ":1961,"Ġà®İà®ªà¯įà®ª":1962,"Ġà®īà®ª":1963,"à®¨à®¿à®²":1964,"à®ªà¯ģà®¤à®¿à®¯":1965,"Ġà®ħà®ķà¯įà®ķà®¿à®°à®®":1966,"à¯Ĩà®¾à®£à¯įà®Łà¯ģ":1967,"à®ªà®¿à®©à¯į":1968,"à®®à¯Ģ":1969,"Ġà®īà®®à®ķà¯įà®ķ":1970,"à¯Ĥà®¸":1971,"à®ħà®µà®°à¯įà®ķà®³à¯ģà®Łà¯Īà®¯":1972,"à¯ģà®µà®¤":1973,"Ġà®ļà¯Ĩà®¯à¯įà®¤à®¾à®²à¯į":1974,"Ġà®ªà®¾à®°à¯įà®µ":1975,"à®®à¯ģà®©à¯įà®©":1976,"Ġà®¤à®ķà®µ":1977,"Ġà®ļà¯ģà®µà®©":1978,"Ġà®ħà®²à¯įà®²à®¾à®¹à¯įà®µà®¿à®Łà®®à¯į":1979,"Ġà®ªà®¾à®ķà¯įà®ķà®¿à®¯":1980,"à®£à®¿":1981,"à®¤à¯įà®¤à¯Īà®ªà¯į":1982,"Ġà®®à®¾à®Łà¯įà®Łà®¾à®©à¯į":1983,"à®īà®°":1984,"Ġà®ªà®¾à®²à¯į":1985,"à®¨à¯Ģà®°à¯į":1986,"Ġà®ļà¯Ĩà®¯à¯įà®ķà®¿à®©à¯įà®±":1987,"Ġà®ļà®¨à¯įà®¤à®¤à®¿à®¯":1988,"à¯Īà®µà®¾":1989,"Ġà®µà®¿à®Łà¯ģà®Ļà¯įà®ķà®³à¯į":1990,"à®¿à®ªà¯įà®ªà®Łà¯įà®Ł":1991,"Ġà®¨à®¾à®¯à®©à¯į":1992,"Ġà®ªà®¿à®°à®¿à®µ":1993,"à®µà®±à¯įà®±à®¿à®©à¯į":1994,"Ġà®ķà®Łà®¿à®©":1995,"Ġ...":1996,"Ġà®µà¯Ģà®Ł":1997,"à®¾à®Łà¯įà®Łà¯ģ":1998,"Ġà®¨à¯Ĥ":1999,"Ġà®ķà¯Ĩà®¾à®³à¯įà®³à¯ģà®®à¯į":2000,"Ġà®¤à¯Ĩà®°à®¿à®¯à¯ģà®®à¯į":2001,"à¯ĩà®¾à®°à¯ģà®®à¯į":2002,"Ġà®ļà®°à®¿":2003,"à®ªà®¾à®µ":2004,"Ġà®¤à¯Ĥà®¤à®°à¯į":2005,"Ġà®¤à®¯":2006,"Ġà®®à¯ģà®¨à¯įà®¤":2007,"ĠA":2008,"à®īà®£":2009,"Ġà®ªà¯Ĩà®¾à®¯à¯įà®¯à®¾à®ķà¯įà®ķ":2010,"Ġà®ĩà®¤à®±à¯įà®ķà¯ģ":2011,"Ġà®īà®£à¯įà®®":2012,"Ġà®İà®µà®©à¯į":2013,"Ġà®¤à¯Ģà®Ļà¯įà®ķ":2014,"Ġà®ħà®µà®°à¯įà®ķà®³à¯ģà®®à¯į":2015,"Ġà®®à¯Ĩà®¯à¯įà®¯":2016,"à®¾à®Ļ":2017,"à®®à®¾à®ķà®ķà¯į":2018,"Ġà®¤à®Łà¯ģà®ķà¯įà®ķ":2019,"Ġà®µà®¹à¯Ģ":2020,"Ġà®ķà¯ģà®´à®¨à¯įà®¤":2021,"Ġà®Ĩà®±":2022,"Ġà®µà¯Ĩà®±à¯įà®±à®¿à®¯":2023,"à®¿à®°à¯ģà®ķà¯įà®ķà®¿à®©à¯įà®±à®¾à®©à¯į":2024,"à®¾à®³à®°à¯į":2025,"Ġà®ħà®³à®µ":2026,"Ġà®ĵà®Ł":2027,"Ġà®ħà®®à¯Īà®ªà¯įà®ª":2028,"(à®¨":2029,"à®Ļà¯įà®ķà®³à¯Īà®ªà¯į":2030,"Ġ\"(":2031,"Ġà®¨à¯Ģà®ķà¯įà®ķà¯ģ":2032,"à®¿à®°à¯ģà®ķà¯įà®ķà®¿à®±à¯ĩà®¾à®®à¯į":2033,"à¯ģà®µà®°à¯ģà®®à¯į":2034,"Ġà®īà®£à¯įà®®à¯Ī":2035,"Ġà®µà®¿à®Łà¯įà®Łà®¾à®²à¯į":2036,"Ġà®µà¯Ĩà®³à®¿à®ªà¯įà®ªà®Łà¯ģà®¤à¯įà®¤":2037,"à®®à¯ģà®ĥà®®à®¿à®©à¯įà®ķà®³à¯ĩ":2038,"à®µà®°à¯įà®ķà®³à®¾à®ķà®µà¯ģà®®à¯į":2039,"Ġà®ļà¯Ĩà®¯à¯įà®¯à¯ģà®Ļà¯įà®ķà®³à¯į":2040,"à¯ĩà®©à¯ģà®®à¯į":2041,"Ġà®®à¯ģà®Łà®¿à®µà¯ģ":2042,"à®ªà¯įà®ªà®Łà¯ģà®µà®¾à®°à¯įà®ķà®³à¯į":2043,"Ġà®ıà®¤à®¾à®µà®¤à¯ģ":2044,"Ġà®İà®©à¯įà®ªà®¤à¯Īà®¯à¯ģà®®à¯į":2045,"Ġà®µà®´à®¿à®¯à®¿à®²à¯į":2046,"Ġà®®à®ķà¯įà®ķà®³à¯į":2047,"Ġà®µà®¾à®ļ":2048,"Ġà®ķà¯Ĩà®¾à®£à¯įà®Łà®¿à®°à¯ģà®ķà¯įà®ķà¯ģà®®à¯į":2049,"à®¿à®ļà¯Ī":2050,"Ġof":2051,"Ġà®īà®©à¯į":2052,"Ġà®ıà®µ":2053,"à®µà®±à¯įà®±à®¿à®²à¯į":2054,"ld":2055,"and":2056,"à®µà¯ĩà®±":2057,"à¯ģà®®à¯įà®ªà®Ł":2058,"Ġà®¨à®£à¯įà®ª":2059,"Ġà®ħà®©à¯Īà®¤à¯įà®¤à¯ģ":2060,"Ġà®ķà¯Ĥà®±à®ªà¯įà®ªà®Łà¯ģà®®à¯į":2061,"à®ªà¯įà®ªà®Łà¯įà®Łà¯ģà®³à¯įà®³":2062,"Ġà®¨à®²à¯įà®²à¯ģà®ªà®¤à¯ĩà®ļ":2063,"Ġà®Ĵà®°à¯ĩ":2064,"à®ķà®¾à®²":2065,"Ġà®īà®±à¯ģà®¤":2066,"Ġ%":2067,"Ġà®¤à¯ĩà®°à¯įà®µ":2068,"Ġà®µà¯Ĩà®±à¯įà®±à®¿":2069,"Ġà®ªà¯Ĩà®£à¯į":2070,"à®µà®°à¯įà®ķà®³à®¿à®©à¯į":2071,"Ġà®ªà®¤à®¿à®²":2072,"Ġà®µà®¾à®ķà¯įà®ķà¯ģà®±à¯ģà®¤à®¿":2073,"AN":2074,"à¯Ĥà®Łà¯įà®Ł":2075,"à¯ģà®©à¯į":2076,"Ġà®İà®¤à¯Ī":2077,"à®İà®´":2078,"à®ªà¯Ĥà®®":2079,"Ġà®¤à¯ĩà®°à¯įà®¨à¯įà®¤à¯Ĩà®Łà¯ģà®ķà¯įà®ķ":2080,"à¯Ģà®°à¯įà®ķà®³à¯ĩà®¾":2081,"Ġà®¤à®°à¯įà®ķà¯įà®ķ":2082,"Ġà®ħà®©à¯ģà®®à®¤":2083,"Ġà®¤à®µà®£":2084,"à®±à¯į":2085,"à®¨à®Ł":2086,"Ġà®ļà¯Ĩà®¯à¯įà®ķà®¿à®±à®¾à®©à¯į":2087,"à®®à¯ģà®³à¯įà®³":2088,"à®īà®®à¯įà®®":2089,"Ġà®ªà®¯à®©":2090,"Ġà®ħà®©à¯Īà®¤à¯įà®¤":2091,"Ġà®ªà®¿à®³":2092,"Ġà®¨à¯Ĩ":2093,"Ġà®ķà®£à¯įà®£à®¿à®¯":2094,"Ġà®µà®¿à®Łà¯įà®Łà®¾à®©à¯į":2095,"Ġà®®à®±à¯ģà®®à¯Īà®¯":2096,"à®¤à®°":2097,"à¯ģà®±à¯Ī":2098,"à®ªà®²":2099,"Ġà®ħà®µà®³à¯į":2100,"Ġà®ķà¯Ĩà®¾à®£à¯įà®Łà®µà®°à¯įà®ķà®³à¯ĩ":2101,"Ġà®ķà®±à¯įà®ª":2102,"à®¤à¯įà®¤à¯ģà®Łà®©à¯į":2103,"enc":2104,"(à®ĩ":2105,"Ġà®®à¯ģà®Łà®¿à®¯à®¾à®¤":2106,"Ġà®¤à®°à¯ģà®®à¯į":2107,"Ġà®ķà¯ĭ":2108,"Ġà®®à¯ģà®Łà®¿à®µ":2109,"Ġà®İà®©à¯įà®±à®¾à®²à¯į":2110,"à¯Ĩà®©à¯įà®±à¯ģ":2111,"à®ħà®²":2112,"Ġl":2113,"à®ħà®µà®©à¯ĩ":2114,"Ġà®®à¯Ĥà®¸à®¾":2115,"Ġ/":2116,"Ġà®ĩà®£à¯Ī":2117,"à®¤à¯Ģ":2118,"Ġà®®à®Łà¯įà®Łà¯ģà®®à¯į":2119,"à®¾à®¤à¯Īà®¯":2120,"à¯ģà®®à®¤à®¿":2121,"Ġà®ªà®Łà¯Īà®ªà¯įà®ª":2122,"à®¿à®²à¯ĩà®¾":2123,"à¯įà®¹":2124,"Ġà®¤à®¿à®°à¯ģà®®à¯įà®ªà®¿":2125,"à®ªà¯įà®±":2126,"Ġà®İà®Ł":2127,"ĠK":2128,"Ġà®¤à¯Ĭà®ķ":2129,"à¯ģà®µà¯Ģà®°à¯įà®ķà®³à¯į":2130,"à®¿à®ķà®°":2131,"Ġà®ªà®¾à®ķ":2132,"à¯ģà®¨à¯įà®¤à¯ģ":2133,"Ġà®¤à®Łà¯ģà®¤à¯įà®¤":2134,"\"(":2135,"à®ªà¯įà®ªà®Łà¯ģà®µà¯Ģà®°à¯įà®ķà®³à¯į":2136,"Ġà®İà®´à¯ģà®¤à¯įà®¤":2137,"Ġà®ªà®ķà¯Ī":2138,"Ġà®ħà®°à¯ģà®³à¯į":2139,"Ġà®ªà®Łà¯Īà®ķà¯įà®ķ":2140,"à®¤à¯Īà®¤à¯į":2141,"Ġà®Ĩà®ķà¯ģà®®à¯į":2142,"Ġà®ħà®²à¯įà®²à®¾à®¹à¯įà®µà¯ĩ":2143,"Ġà®µà®ķà¯Ī":2144,"Ġà®¨à®¿à®±à¯Īà®µà¯ĩ":2145,"Ġà®ħà®©à¯Ī":2146,"Ġà®ķà®¿à®Łà¯Īà®ķà¯įà®ķà¯ģà®®à¯į":2147,"Ġà®ķà¯Ĩà®¾à®³à¯įà®µà®¾à®°à¯įà®ķà®³à¯į":2148,"Ġà®ªà®¿à®®à¯įà®ª":2149,"Ġst":2150,"Ġà®µà¯Īà®¤à¯įà®¤à¯ģ":2151,"Ġà®¤à®¿à®±à®ķà¯įà®ķ":2152,"Ġà®ħà®´à®ķà®¾à®©":2153,"à®¨à®®à¯įà®ª":2154,"Ġà®ªà¯ĩà®¾à®¤à¯ģà®®à®¾à®©":2155,"Ġà®ħà®µà®±à¯įà®±à®¿à®²à¯į":2156,"à®¤à®©":2157,"à¯įà®¤à¯ģ":2158,"Ġà®īà®¯à®¿à®°à¯įà®ªà¯įà®ª":2159,"Ġà®¤à¯Ĥà®¤à®°à¯įà®ķà®³à¯į":2160,"Ġà®¸à®¾à®²à®¿à®¹à®¾à®©":2161,"à®¿à®°à¯ģà®ķà¯įà®ķà®¿à®©à¯įà®±à¯ĩà®¾à®®à¯į":2162,"col":2163,"Ġà®ħà®±à®¿à®¯à®¾à®¤":2164,"à¯ģà®ķà®³à®¿à®©à¯į":2165,"à®°à¯įà®ķà®³à¯ģà®ķà¯įà®ķà¯ģ":2166,"Ġà®µà¯Ĩà®±à¯įà®±":2167,"Ġà®ªà¯Ĥà®®à®¿à®¯à¯Īà®¯à¯ģà®®à¯į":2168,"à®ħà®µ":2169,"à¯Īà®¯à¯Īà®¯à¯ģà®®à¯į":2170,"Ġà®ħà®²à¯įà®²à®¾à®¹à¯įà®µà¯ģà®Łà¯Īà®¯":2171,"Ġà®¨à®©à¯įà®±":2172,"Ġà®ªà®°à®¿à®ķ":2173,"Ġà®Ĩà®°":2174,"à¯Īà®ķà®³à¯ģà®®à¯į":2175,"Ġà®ħà®Łà¯Īà®¯":2176,"Ġà®ĩà®±à®¨à¯įà®¤":2177,"à¯Ĩà®¾à®³à¯įà®³":2178,"Ġà®ķà®²":2179,"à®ħà®´":2180,"Ġà®Ĩà®ķà®¿à®µà®¿à®Ł":2181,"à®°à®¿à®¯":2182,"(à®µ":2183,"à®ħà®µà¯įà®µ":2184,"Ġà®īà®ªà®¤à¯ĩà®ļ":2185,"Ġà®®à®°à®£":2186,"à®®à¯Īà®ªà¯įà®ªà¯ģ":2187,"Ġà®ªà®¯à®ªà¯įà®ªà®Ł":2188,"à®ªà¯ĩ":2189,"Ġà®Ĵà®ªà¯įà®ª":2190,"Ġà®¯à®¾à®¤":2191,"Ġà®İà®±":2192,"Ġà®µà®°à¯Īà®¯à®¿à®²à¯į":2193,"à®¤à®¾à®¤à¯Īà®¯":2194,"Ġà®ħà®¤à®©à®¾à®²à¯į":2195,"Ġà®İà®²à¯įà®²à®¾à®®à¯į":2196,"un":2197,"à¯ģà®®à¯įà®ªà®Łà®¿":2198,"Ġà®¨à®¾à®Łà®¿à®©à®¾à®²à¯į":2199,"Ġà®µà®¾à®°à¯ģà®Ļà¯įà®ķà®³à¯į":2200,"à®®à®ķ":2201,"Ġà®ħà®¤à®©":2202,"à¯ģà®Łà®©à¯ģà®®à¯į":2203,"à®©à®®à¯į":2204,"Ġà®¤à¯Ģà®°à¯įà®ªà¯įà®ªà¯ģ":2205,"à®¿à®Łà¯ģ":2206,"à¯ģà®ķà¯įà®ķà®¾à®©":2207,"à®ħà®¤à®©à¯į":2208,"à®¿à®ķà®³à¯Īà®¯à¯ģà®®à¯į":2209,"à¯Īà®µà®¾à®©":2210,"Ġà®ħà®´à¯Īà®ªà¯įà®ª":2211,"à®³à®¿à®ªà¯įà®ª":2212,"à®¿à®¯à®¿à®°à¯ģà®ªà¯įà®ª":2213,"Ġà®ªà®¿à®Łà®¿à®¤à¯įà®¤à¯ģà®ķà¯į":2214,"ow":2215,"Ġà®®à®¾à®±à¯įà®±à¯ģ":2216,"Ġà®ļà¯Ĩà®¯à¯įà®¯à®µà¯ģà®®à¯į":2217,"Ġà®ªà®°à®¿à®ļà¯ģà®¤à¯įà®¤":2218,"à¯įà®ķà¯į":2219,"à®µà®°à¯Īà®¯à¯ģà®®à¯į":2220,"à®²à¯įà®²à®¾à®®à®²à¯į":2221,"Ġà®ħà®¤à®¿à®²à®¿à®°à¯ģà®¨à¯įà®¤à¯ģ":2222,"Ġà®İà®µà¯įà®µà®¿à®¤":2223,"à®ħà®¨à¯įà®¨à®¾à®³à®¿à®²à¯į":2224,"Ġà®ħà®µà®°à¯įà®ķà®³à¯ģà®ķà¯įà®ķà¯ģà®ªà¯į":2225,"Ġà®ķà®°à¯ģà®µ":2226,"Ġà®ħà®®à¯Ī":2227,"Ġinf":2228,"Ġà®®à¯Ģà®±":2229,"Ġth":2230,"Ġà®¨à®¿à®ķà®´":2231,"ri":2232,"Ġà®ĩà®±à¯Īà®µà®¾":2233,"Ġà®ªà®±":2234,"à®¿à®Łà®¿":2235,"à¯ģà®µà®¤à®±à¯įà®ķà¯ģ":2236,"ĠI":2237,"Ġà®¨à¯Ģà®Ļà¯įà®ķà®³à¯ģà®®à¯į":2238,"à®¾à®ķà®ªà¯į":2239,"Ġà®µà®¿à®°à¯ģà®®à¯įà®ªà¯ģà®ķà®¿à®±":2240,"à®ķà¯ģà®°":2241,"Ġà®ķà®´":2242,"¿½":2243,"ï¿½":2244,"Ġï¿½":2245,"à®¿à®¤à¯įà®¤à¯ģà®ªà¯į":2246,"Ġà®ħà®©à¯ģà®®à®¤à®¿":2247,"à®ħà®µà¯įà®µà®¾à®±à¯ģ":2248,"à¯ĩà®¾à®®":2249,"Ġà®µà®¿à®Łà¯ģà®®à¯į":2250,"Ġà®Ĩà®¤à¯įà®®à®¾à®µ":2251,"à®¤à¯ģà®µ":2252,"Ġà®¤à¯ĩà®µà¯Īà®¯":2253,"à®µà®°à®¾à®ķà®µà¯ģà®®à¯į":2254,"Ġà®µà®¯":2255,"Ġà®ħà®©à¯ģà®ªà¯įà®ªà®¿":2256,"Ġà®ķà®Łà¯ģà®®à¯Īà®¯à®¾à®©":2257,"Ġà®µà¯Ģà®£":2258,"\"à®İà®©à¯į":2259,"Ġà®īà®Ļà¯įà®ķà®³à¯ģà®ķà¯įà®ķà®¾à®ķ":2260,"à®¿à®®à¯Ī":2261,"à®īà®³à¯įà®³":2262,"Ġà®ħà®®à¯Īà®ķà¯įà®ķ":2263,"à®¿à®°à¯ģà®¨à¯įà®¤à¯ģà®®à¯į":2264,"Ġà®¨à®¿à®¯à®¾à®¯":2265,"à®¤à¯įà®¤à®¿à®°":2266,"à¯Ĥà®¤à¯ģ":2267,"à¯įà®¸à®¿à®©à¯į":2268,"Ġà®īà®²":2269,"Ġà®¨à¯ĩà®°à®¾à®©":2270,"Ġà®Ĵà®Łà¯įà®Ł":2271,"Ġà®µà®´à®¿à®ķà¯ĩ":2272,"à®µà®°à¯įà®ķà®³à¯Īà®¯à¯ģà®®à¯į":2273,"Ġà®®à¯Ĥà®¤à®¾à®¤à¯Īà®¯":2274,"Ġà®ļà®¨à¯įà®¤à¯ĩà®ķ":2275,"Ġà®ķà¯Ĩà®¾à®£à¯įà®Łà®¾à®°à¯įà®ķà®³à¯į":2276,"à®ĥà®ª":2277,"à®¿à®Łà®®à¯ģà®®à¯į":2278,"Ġà®¤à®¿à®Łà®®à®¾à®ķ":2279,"à¯įà®¤à®¾à®®à¯į":2280,"à®¨à®¿à®°à®¾à®ķà®°":2281,"à®ªà¯įà®±à®¾à®¹à¯Ģ":2282,"Ġà®µà¯Ĩà®³à®¿à®¯à¯ĩà®±à¯įà®±":2283,"à®ªà®°":2284,"ĠF":2285,"à®İà®©à®ķà¯įà®ķà¯ģ":2286,"à®Ĳ":2287,"Ġà®ķà¯ĩà®¾à®ª":2288,"Ġà®ĩà®¯à®ķà¯įà®ķ":2289,"Ġà®ıà®±à¯įà®±à¯ģà®ķà¯į":2290,"à¯ģà®ľ":2291,"à¯Ģà®Łà¯ģ":2292,"à®®à®¾à®Łà¯įà®Łà®¾à®©à¯į":2293,"à®ªà®¿à®±":2294,"Ġà®ħà®´à®ķà®¿à®¯":2295,"à®Ĵà®µà¯įà®µ":2296,"à¯ģà®±à¯ģà®¤à¯įà®¤":2297,"Ġà®īà®£à¯įà®®à¯Īà®¯à®¾à®©":2298,"Ġà®ļà®¿à®²à®°":2299,"à¯įà®ķà®¿à®±à®¾à®°à¯įà®ķà®³à¯į":2300,"em":2301,"à®¿à®ķà¯įà®ķà®¿à®±à®¾à®©à¯į":2302,"à®©à®ķà¯įà®ķà¯ģ":2303,"Ġà®®à®©à¯Īà®µà®¿à®¯":2304,"Ġà®ļà¯Ĥà®©à®¿à®¯":2305,"à®İà®µà®°à¯įà®ķà®³à¯į":2306,"Ġà®ķà®¾à®¤à¯įà®¤":2307,"à®¿à®Łà¯įà®Łà®¾à®²à¯į":2308,"Ġà®İà®©à¯įà®©à¯ģà®®à¯į":2309,"ĠP":2310,"age":2311,"Ġà®®à®ķà¯įà®ķà®³à¯ģà®ķà¯įà®ķà¯ģ":2312,"à®ļà®¤à¯įà®¤à®¿à®¯":2313,",)":2314,"Ġà®¨à®¾à®®à¯ĩ":2315,"à®ĩà®µà®°à¯įà®ķà®³à¯į":2316,"Ġà®ħà®©à¯ģà®ªà®µ":2317,"\"à®¨à¯Ģà®Ļà¯įà®ķà®³à¯į":2318,"Ġà®®à®Łà¯įà®Ł":2319,"à®¨à®¾à®©":2320,"à®µà¯Ĩà®³":2321,"à®©à¯Īà®¯à¯Ī":2322,"à®¾à®°à¯įà®Ł":2323,"à®ĩà®°à¯ģ":2324,"Ġà®®à®ķà®¿à®´":2325,"Ġï¿½\\":2326,"Ġà®¨à®¿à®©à¯Īà®ķà¯įà®ķ":2327,"Ġà®®à¯ģà®¯à®±à¯įà®ļ":2328,"Ġà®¤à®®à¯įà®®":2329,"à®¿à®ķà®³à®¿à®©à¯į":2330,"à®¿à®¯à®¾à®ķà®µà¯ģà®®à¯į":2331,"Ġà®ļà¯Ĭ":2332,"à¯ģà®ķà®³à¯ģà®®à¯į":2333,"à¯ģà®¤à®¾à®¯":2334,"Ġà®ªà®ķà®¿à®°à®Ļà¯įà®ķà®®à®¾à®©":2335,"Ġà®ķà¯Ī":2336,"Ġà®®à¯ģà®¤":2337,"Ġà®Ĩà®Łà¯įà®ļ":2338,"à¯ģà®µà®¾à®¯à®¾à®ķ":2339,"Ġà®ļà¯Ĩà®¾à®±":2340,"à®ªà¯įà®ªà®Łà®¿à®¯à®²à¯įà®²":2341,"Ġre":2342,"Ġà®ķà®¿à®°à¯ģà®ªà¯Īà®¯à¯ģà®Łà¯Īà®¯":2343,"ils":2344,"à®ħà®ªà¯įà®ª":2345,"Ġà®īà®³à¯įà®³à®©":2346,"Ġà®ªà¯ģà®ļ":2347,"Ġà®ķà¯ĩà®³à¯įà®µ":2348,"à®¤à®¯":2349,"à®¤à¯įà®¤à¯Īà®¤à¯į":2350,"à®µà®¾à®ļ":2351,"Ġà®µà®¾à®°à¯įà®¤à¯įà®¤":2352,"Ġà®®à®¿à®ķà¯įà®ķà®µà®©à¯į":2353,"Ġà®ķà¯ģà®±à®¿à®ªà¯įà®ªà®¿à®Łà¯įà®Ł":2354,"à®īà®¯":2355,"à®´à¯įà®ķ":2356,"ce":2357,"ĠB":2358,"Ġà®İà®¤à¯Īà®ªà¯į":2359,"Ġà®®à¯Ģà®³":2360,"Ġà®ĩà®°à®ķ":2361,"Ġà®ķà¯Ĩà®¾à®²à¯Ī":2362,"à¯Ģà®¹":2363,"Ġà®ļà®¿à®¤à¯įà®¤":2364,"Ġà®īà®¤à®µà®¿à®¯":2365,"Ġà®İà®¤à®¿à®°à¯įà®ª":2366,"Ġà®µà®¿à®Łà¯įà®Łà¯ĩà®¾à®®à¯į":2367,"Ġà®ķà¯Ĥà®±à®¿":2368,"Ġà®¨à®©à¯įà®ķà®±à®¿à®ª":2369,"à®ħà®µà®°à¯įà®ķà®³à¯Ī":2370,"Ġà®¤à¯ĩà®°à¯įà®¨à¯įà®¤à¯Ĩà®Łà¯ģà®¤à¯įà®¤":2371,"Ġà®ķà¯Ĥà®±à¯ģà®Ļà¯įà®ķà®³à¯į":2372,"Ġà®İà®¤à¯Īà®¯à¯ģà®®à¯į":2373,"à®ķà®Łà¯įà®Ł":2374,"Ġà®ªà¯ģà®±à®ķà¯įà®ķà®£à®¿à®¤à¯įà®¤à¯ģ":2375,"St":2376,"à¯ģà®µà®¤à®¿à®²à¯įà®²à¯Ī":2377,"Ġà®ħà®ŀà¯įà®ļà®¿":2378,"Ġinfo":2379,"Ġà®ªà®¾à®°à¯ģà®Ļà¯įà®ķà®³à¯į":2380,"à®¨à®¿à®©":2381,"à¯ģà®Łà¯Īà®¯à®µà®©à¯į":2382,"Ġà®ĩà®£à¯Īà®µ":2383,"à®¯à®¾à®µà®°à¯Īà®¯à¯ģà®®à¯į":2384,"Ġà®ĩà®±à¯Īà®µà®©à¯ģà®Łà¯Īà®¯":2385,"Ġà®ħà®²à¯įà®²à®¾à®¹à¯įà®µà®¿à®Łà®®à®¿à®°à¯ģà®¨à¯įà®¤à¯ģ":2386,"Ġà®ĩà®´à®¿à®µ":2387,"à®¿à®ķà®¿à®±à®¾à®©à¯į":2388,"Ġà®µà¯ĩà®£à¯įà®Łà¯ģà®®":2389,"à¯ģà®ķà®¿à®±à®¾à®°à¯įà®ķà®³à¯ĩà®¾":2390,"Ġà®¨à®±à¯įà®ķà¯Ĥà®²":2391,"à®®à®¾à®®à¯į":2392,"Ġà®ķà¯Ĩà®¾à®²à¯įà®²":2393,"Ġà®ļà¯Ĩà®¯à¯įà®ķà®¿à®±à®¾à®°à¯įà®ķà®³à¯ĩà®¾":2394,"Ġà®¨à¯Ģà®°":2395,"à®¿à®ķà®³à¯ģà®®à¯į":2396,"Ġà®ļà¯Ĩà®¾à®²à¯įà®µ":2397,"à®Ļà¯įà®ķà®¿":2398,"Ġà®īà®²à®ķ":2399,"th":2400,"Ġà®ĩà®ªà¯įà®ª":2401,"Ġà®ķà®³":2402,"Ġà®İà®µà®°à¯Īà®¯à¯ģà®®à¯į":2403,"DE":2404,"Ġà®¤à®ķà¯įà®ķ":2405,"à¯ģà®µà®¤à¯Ī":2406,"Ġà®µà¯ĩà®£à¯įà®Łà¯ģà®®à®¾":2407,"(à®¤à¯įà®¤à®ķà¯Īà®¯":2408,"Ġà®¨à®¿à®°à®¾à®ķà®°à®¿à®¤à¯įà®¤":2409,"Ġà®ļà®¾à®¤":2410,"Ġà®Ĵà®´":2411,"Ġà®ļà¯Ĩà®µà®¿à®¯à¯ĩ":2412,"Ġà®ķà®¿à®³":2413,"Ġà®®à®©à¯įà®©à®¿à®ªà¯įà®ªà®µà®©à®¾à®ķà®µà¯ģà®®à¯į":2414,"à®³à®¿à®ķà¯įà®ķ":2415,"ss":2416,"Ġà®İà®µà¯įà®µà®¾à®±à¯ģ":2417,"à®©à¯Īà®¯":2418,"Ġà®īà®±à¯ģà®¤à®¿à®¯à®¾à®ķ":2419,"à®¿à®ķà¯įà®ķà®¿à®©à¯įà®±à®¾à®©à¯į":2420,"Ġà®®à¯Ģà®¤à¯ĩ":2421,"Ġà®ļà®¾à®¯":2422,"Ġà®¯à®¾à®µà®°à¯Īà®¯à¯ģà®®à¯į":2423,"¸à¯įà®²":2424,"Ġà®ĩà®¤à¯įà®¤à®ķà¯Īà®¯":2425,"Ġà®¤à¯Ĭà®Łà®°":2426,"à®İà®©à¯įà®©à¯ģà®Łà¯Īà®¯":2427,"Ġà®ļà®¤à¯įà®¤à®¿à®¯à®®à¯į":2428,"à®µà®¿à®©":2429,"à®ķà¯Ģà®´":2430,"Ġg":2431,"à®µà¯ĩà®¾":2432,"à®®à¯Ĥà®¸à®¾à®µ":2433,"Ġà®Ĩà®¤à®°":2434,"Ġà®ĩà®Łà®¤à¯įà®¤à®¿à®²à¯į":2435,"Ġà®ļà¯ģà®ķ":2436,")à®¤à¯Ī":2437,"à¯įà®İ":2438,"à®ļà®¿à®±":2439,"à®ªà¯įà®ªà®Łà¯ģà®ķà®¿à®±à®¤à¯ģ":2440,"à®Ĩà®¤":2441,"à®¿à®²à¯ĩ":2442,"à®ªà¯Ĩà®¾à®":2443,"Ġà®¤à®¿à®°à¯ģà®ª":2444,"Ġà®ķà®¾à®Łà¯įà®ļ":2445,"à¯Īà®¯à¯ģà®Ļà¯įà®ķà®³à¯į":2446,"Ġà®ļà¯Ĩà®¯à¯įà®¤à®¾à®©à¯į":2447,"Ġà®ªà¯Ĥà®®à®¿":2448,"à¯ģà®£à®°":2449,"Ġà®µà®°à¯Īà®¯":2450,"Ġà®ĩà®¤à®©à¯Ī":2451,"Ġà®¤à®¿à®Łà¯įà®Łà®®à®¾à®ķ":2452,"encils":2453,"Ġà®®à®¤à®¿à®ªà¯įà®ª":2454,"Ġà®ªà¯ĩà®¾à®©à¯įà®±à¯ģ":2455,"à®µà¯Ģ":2456,"Ġà®ļà®®à¯ģà®¤à®¾à®¯":2457,"Ġà®ħà®ķà®¿à®²":2458,"Ġà®ªà¯Ĥà®°":2459,"Ġà®ħà®±à®¿à®µà®¿à®ªà¯įà®ª":2460,"Ġà®ªà¯Ĩà®¯à®°":2461,"à®µà®©à®¾à®ķà®µà¯ĩ":2462,"à¯Īà®¯à®¾à®ķà¯įà®ķ":2463,"Ġà®¸à¯ģà®ľ":2464,"Ġà®ļà¯Ĩà®¯à¯įà®¤à¯ĩà®¾à®®à¯į":2465,"Ġà®ªà®Łà¯Īà®¤à¯įà®¤à®¾à®©à¯į":2466,"à¯ģà®ªà®µà®©à¯į":2467,"à®¿à®±à¯įà®±à¯ģ":2468,"Ġtranslat":2469,"à¯Ģà®°à¯įà®ķà®³à®¾à®©à®¾à®²à¯į":2470,"Ġà®īà®Ļà¯įà®ķà®³à¯ģà®ķà¯įà®ķà¯ģà®ķà¯į":2471,"Ġà®ħà®µà®©à®¿à®Łà®®à¯į":2472,"Ġà®ļà¯Ĩà®¯à¯įà®¯à®ªà¯įà®ªà®Łà¯įà®Ł":2473,"à¯įà®·":2474,"à¯ģà®¯":2475,"à®ħà®±":2476,"color":2477,"Ġà®ķà¯Ĩà®¾à®£à¯įà®Łà®¿à®°à¯ģà®ķà¯įà®ķà®¿à®±":2478,"Ġà®ħà®Łà¯Īà®¯à®¾à®³":2479,"Ġà®¨à®Łà®ªà¯įà®ª":2480,"se":2481,"à®²à®¿à®©à¯į":2482,"Ġà®®à®´":2483,"à®¿à®ķà¯įà®ķà®ļà¯į":2484,"Ġà®ĩà®±à¯ģà®¤à®¿":2485,"à¯įà®°à®¾à®¯":2486,"à®²à¯įà®ª":2487,"Ġà®ĩà®°à¯ģà®µà®°à¯ģà®®à¯į":2488,"à®µà¯ĩà®±à¯Ĩ":2489,"à¯ĭà®ķ":2490,"à®¿à®¯à®¤à¯ģ":2491,"à®¾à®¤à¯ĩ":2492,"Ġà®®à®©à®¿à®¤à®°à¯įà®ķà®³à¯į":2493,"Ġà®µà®¿à®°à¯Īà®µ":2494,"à®¿à®°à®£à¯įà®Ł":2495,"Ġà®ªà¯ģà®³à¯įà®³":2496,"Ġà®ħà®Łà¯Īà®¨à¯įà®¤":2497,"à®ķà¯Ī":2498,"Ġà®¨à®¿à®±à¯ģà®µ":2499,"Ġà®īà®£à®°":2500,"Ġà®ķà¯Ĥà®±à¯ģà®ķà®¿à®©à¯įà®±à®©à®°à¯į":2501,"Ġà®ªà®¿à®©à¯įà®©à®°à¯ģà®®à¯į":2502,"Ġà®ħà®¤à¯įà®¤à®¾à®Łà¯įà®ļà®¿à®ķà®³à¯Ī":2503,"à®ĩà®¯":2504,"à®Łà¯į":2505,"Ġà®ķà®¿à®¯à®¾à®®":2506,"à®¯à¯į":2507,"Ġà®ķà®¾à®²à®®à¯į":2508,"à®¿à®±à®¾à®°à¯įà®ķà®³à¯į":2509,"à¯ģà®ķà®¿à®±à®¾à®©à¯ĭ":2510,"Ġà®¨à®®à¯įà®ªà®¿à®ķà¯įà®ķ":2511,"à®¿à®°à¯ģà®ªà¯įà®ªà¯ģ":2512,"Ġà®¨à®©à¯įà®ķà®±à®¿à®µ":2513,"à¯Īà®¯à®¾à®Ł":2514,"Ġà®¨à®©à¯įà®ķà®±à®¿à®¨à¯įà®¤à®µà®©à¯į":2515,"ĠO":2516,"à¯ĩà®¾à®¤à¯ģà®®à¯į":2517,"Ġà®ĩà®°à¯ģà®ķà¯įà®ķà®¿à®±à¯ĩà®©à¯į":2518,"Ġà®ªà®¾à®°à¯įà®ķà¯įà®ķà®µà®¿à®²à¯įà®²à¯Īà®¯à®¾":2519,"Ġà®¤à®ķà®µà®²à¯į":2520,"Ġà®®à®¾à®Łà¯įà®Łà¯ĩà®¾à®®à¯į":2521,"Ġà®ħà®¤à¯įà®¤à®¾à®Łà¯įà®ļà®¿à®ķà®³à¯į":2522,"Ġà®ķà¯Ĩà®¾à®Łà¯ģà®ķà¯įà®ķà®ªà¯įà®ªà®Łà¯įà®Ł":2523,"à®¨à®®à¯įà®®":2524,"Ġà®®à¯Ĥà®Ł":2525,"à¯įà®°à®¹à¯įà®®":2526,"à®ħà®¤à®¿à®²à¯į":2527,"à®ªà¯įà®°à®¾à®¹à¯Ģ":2528,"Ġà®®à¯Ĩà®¯à¯įà®¯à®¾à®ķà®µà¯ĩ":2529,"à¯įà®ķà¯ģ":2530,"Ġà®ĩà®°à¯ģà®ķà¯įà®ķà®µà®¿à®²à¯įà®²à¯Ī":2531,"à®¤à¯ĩà®©à¯ģà®®à¯į":2532,"à¯įà®ķà®¿à®±à¯ĩà®©à¯į":2533,"à®µà®°à¯ģà®ķà¯įà®ķà¯ģ":2534,"Ġit":2535,"ver":2536,"Ġà®µà®¾à®©à®¤à¯įà®¤à®¿à®²à®¿à®°à¯ģà®¨à¯įà®¤à¯ģ":2537,"ch":2538,"Ġà®¤à¯Ģà®¯":2539,"à¯ĭà®°":2540,"à®İà®²à¯įà®²":2541,"pp":2542,"Ġà®İà®©à¯įà®©à®¿à®Łà®®à¯į":2543,"à¯ģà®®à¯ģà®³à¯įà®³":2544,"à®µà®¾à®±à¯ģ":2545,"Ġà®ķà¯ĩà®¾à®°":2546,"Ġà®®à®¿à®ķà¯Īà®¤à¯įà®¤à®µà®©à¯į":2547,"Ġà®Ĩà®Ł":2548,"Ġà®ķà¯Ĩà®¾à®£à¯įà®Łà®¾à®©à¯į":2549,"à¯ģà®µà®¿à®Łà¯ģà®®à¯į":2550,"Ġà®İà®³":2551,"à¯ģà®®à¯Īà®¯à¯Ī":2552,"Ġà®¤à®Ļà¯įà®ķà®³à¯ģà®Łà¯Īà®¯":2553,"Ġà®¨à¯Ģà®Ļà¯įà®ķà®³":2554,"à®İà®¨à¯įà®¤":2555,"à®īà®®à¯į":2556,"Ġà®ħà®®à¯Īà®¤à¯įà®¤":2557,"Ġà®İà®µà®°à¯ĩà®©à¯ģà®®à¯į":2558,"Ġà®ķà®¾à®ĥà®ªà®¿à®°à¯įà®ķà®³à¯į":2559,"à®ĩà®Ł":2560,"à®¿à®¤à¯įà®¤à®¾à®©à¯į":2561,"Ġà®µà®Łà¯įà®Łà¯ģ":2562,"à®®à®¾à®©à®¤à¯ģ":2563,"à®ħà®ªà¯įà®ªà¯ĩà®¾à®¤à¯ģ":2564,"à®¿à®Łà®ªà¯įà®ªà®Łà¯įà®Ł":2565,"Ġà®İà®¤à¯įà®¤":2566,"à®®à®±à¯ģà®®à¯Īà®¯à®¿à®²à¯į":2567,"à®¨à®¿à®°à®¾à®ķà®°à®¿à®ªà¯įà®ª":2568,"..čĊ":2569,"à®®à®¾":2570,"à®µà®Ł":2571,"Ġà®ķà®£à¯įà®Łà¯ģà®ª":2572,"à¯ĩà®¾à®Łà¯ģ":2573,"Ġà®ļà¯ģà®µà®©à®ªà®¤":2574,"Ġà®ħà®±à®¿à®ª":2575,"Ġà®µà®¿à®²à®ķà¯įà®ķ":2576,"à®µà¯ĩà®£à¯įà®Łà¯ģà®®à¯į":2577,"Ġà®İà®²à¯įà®²à®¾":2578,"à®Ļà¯įà®ķà¯ģà®®à¯į":2579,"à¯Ĩà®´":2580,"Ġà®īà®£à®µà¯ģ":2581,"Ġbe":2582,"à®ªà¯Ĩà®°":2583,"à¯Ĭà®Łà¯ģà®ķà¯įà®ķ":2584,"Ġà®ķà®°à¯ģà®£":2585,"à¯ĭà®Ł":2586,"Ġà®¤à®¾à®Ļà¯įà®ķà®³à¯į":2587,"ts":2588,"à¯Ĭà®°à¯ģ":2589,"à®ļà®¿":2590,"Ġà®İà®Ļà¯įà®ķà¯ĩ":2591,"Ġà®İà®¤à®¿à®°à®¾à®ķ":2592,"à¯Ĭà®´":2593,"Ġà®ĩà®¤à¯ģà®µà¯ĩ":2594,"Ġà®ķà¯ģà®±à¯įà®±à®µà®¾à®³":2595,"Ġà®ħà®²à¯įà®²à®°à¯į":2596,"de":2597,"IN":2598,"Ġà®·à¯Īà®¤à¯įà®¤à®¾à®©à¯į":2599,"Ġà®īà®¯à®¿à®°à¯į":2600,"Ġy":2601,"Ġà®¤à®Ļà¯įà®ķà¯ģà®®":2602,"Ġà®ħà®µà®°à¯įà®ķà®³à¯ģà®ķà¯įà®ķà®¾à®ķ":2603,"Ġà®ķà®¿à®°à¯ģà®ªà¯Ī":2604,"Ġà®®à®£":2605,"Ġà®¨à®°":2606,"à®©à¯Ĩà®©à¯įà®±à®¾à®²à¯į":2607,"Ġà®ļà¯Ĩà®¯à¯įà®µà®¾à®©à¯į":2608,"à®³à®µ":2609,"à®ļà¯ĩ":2610,"à®®à¯Ĩ":2611,"Ġà®¨à®±à¯įà®ª":2612,"à¯Ĥà®¸à¯ģà®ĥà®ª":2613,"ĠL":2614,"à®µà®²à¯Ī":2615,"ĠN":2616,"Ġà®ħà®¤à¯Īà®ªà¯į":2617,"à®ħà®°":2618,"à¯ģà®°à¯ģ":2619,"à¯ģà®ķà®¿à®©à¯įà®±à®¾à®©à¯į":2620,"ess":2621,"à®¾à®°à¯ģà®Łà¯Īà®¯":2622,"à®¨à¯įà®¨":2623,"Ġà®ħà®¤à¯įà®¤à®¾à®Łà¯įà®ļà®¿":2624,"Ġà®ĩà®°à®ķà®ļà®¿à®¯":2625,"à®¿à®µà®°":2626,"Ġà®®à¯Ĥà®´à¯įà®ķ":2627,"à®®à®¿à®ķà¯įà®ķ":2628,"Ġà®ªà¯ĩà®¾à®¤à®¿à®²à¯ģà®®à¯į":2629,"Ġà®ļà®¿à®±à®¨à¯įà®¤":2630,"à®¿à®¨":2631,"Ġà®ķà¯įà®ķ":2632,"à¯Īà®¯à¯Īà®ķà¯į":2633,"Ġà®ħà®²à¯įà®²à®¾à®¤":2634,"à¯Ĩà®¾à®°à¯ģà®µà®°à¯į":2635,"Ġà®ļà¯ĩà®°à¯į":2636,"à®®à®¤à¯ģ":2637,"à®®à¯ģà®ķ":2638,"Ġà®ªà®¿à®°à®µà¯ĩ":2639,"Ġà®µà®¿à®³à¯Īà®¯à®¾à®Łà¯įà®Ł":2640,"Ġà®µà¯Īà®¤à¯įà®¤à¯ģà®ķà¯į":2641,"Ġà®ķà®¾à®Łà¯įà®Łà¯ģà®®à¯į":2642,"à¯ģà®Łà¯Īà®¯à®µà¯ģà®®à¯į":2643,"Ġà®ħà®²à¯įà®²à®¾à®¹à¯įà®µà¯ģà®ķà¯įà®ķà¯ģà®®à¯į":2644,"à¯Īà®ķà®³à®¿à®©à¯į":2645,"Ġà®µà®´à®¿à®ªà®Ł":2646,"à®ħà®²à¯įà®²à®¾à®¹à¯įà®µà¯ģà®ķà¯įà®ķà¯ģ":2647,"Ġà®ħà®µà®°à¯įà®ķà®³à¯Īà®¤à¯į":2648,"Ġà®¤à¯Ĩà®¾à®´à¯ģà®ķà¯Īà®¯à¯Ī":2649,"Ġà®¯à®¾à®¤à¯Ĩà®¾à®°à¯ģ":2650,"Ġà®ªà¯Ĩà®°à¯ģà®®à¯Īà®¯":2651,"à¯įà®°à®¿à®ķà¯įà®ķ":2652,"Ġà®¸à¯ģà®ľà¯Ĥà®¤à¯ģ":2653,"Ġà®ļà¯Ĩà®¯à¯įà®µà®¤à¯Ī":2654,"à®¿à®ķà¯įà®ķà¯Ĩà®¾à®£à¯įà®Ł":2655,"Ġà®ªà¯ģà®¤à¯įà®¤":2656,"à¯ģà®¤à®¿à®¯à¯Ī":2657,"à®¤à®¾à®©à¯į":2658,"Ġà®īà®¤à®¾à®°à®£":2659,"Ġà®µà¯ĩà®¤à®©à¯Īà®¯à¯ģà®®à¯į":2660,"Ġà®ļà¯Ĩà®¾à®±à¯įà®ª":2661,"à®ªà¯įà®ªà®Łà¯ģà®¤à¯įà®¤à®¿":2662,"à®ħà®¤à®±à¯įà®ķ":2663,"Ġà®ĩà®Łà®®à¯į":2664,"Ġà®Ĩà®¤à®¾à®°":2665,"Ġà®ªà¯ĩà®°à®¾à®±à¯įà®±":2666,"Ġà®İà®©à¯įà®ªà®¤à¯ģ":2667,"Ġà®ļà¯Ĩà®²à¯įà®²à¯ģà®®à¯į":2668,"·à¯įà®°à®¿à®ķà¯įà®ķ":2669,"à®¿à®°à¯ģà®Ļà¯įà®ķà®³à¯į":2670,"à¯ĩà®±à¯įà®±":2671,"Ġà®İà®¤à¯įà®¤à®ķà¯Īà®¯":2672,"Ġà®ªà¯Ĩà®¾à®±à¯ģà®ªà¯įà®ª":2673,"Ġà®µà®Łà¯įà®Ł":2674,"Ġà®¤à¯ģà®ķà¯įà®ķ":2675,"à®¾à®©à®¾":2676,"à®ķà¯ģà®±à®¿à®ªà¯įà®ª":2677,"à®ĩà®±à¯Īà®µà®©à¯į":2678,"à®¿à®±à¯įà®ķà¯ģà®®à¯į":2679,"\"%":2680,"à®°à¯ģà®®":2681,"à¯Ģà®Łà¯įà®Ł":2682,"à®¿à®°à¯ģà®ķà¯įà®ķà®¿à®±à®¾à®©à¯į":2683,"Ġà®ļà®¾à®°à®¾à®°à¯ģà®®à¯į":2684,"à®©à¯įà®®à¯Ī":2685,"à®ĩà®ªà¯įà®ª":2686,"Ġà®ķà¯Ĩà®¾à®³à¯įà®³à®¾à®¤":2687,"à®µà®¿à®³":2688,"Ġà®ļà®¾à®Łà¯įà®ļà®¿":2689,"Ġà®¤à¯Ĩà®³à®¿à®µà®¾à®ķ":2690,"Ġà®®à®¿à®ķà®ķà¯į":2691,"ter":2692,"Ġà®¤à®¨à¯įà®¤à¯Īà®¯":2693,"Ġà®ªà®¤à®¿à®²à¯į":2694,"ex":2695,"à®ħà®¤à®¿à®ķ":2696,"à®İà®©à¯įà®±":2697,"Ġà®ĩà®¤à®©à¯į":2698,"Ġà®ħà®´à¯Īà®¤à¯įà®¤":2699,"à®¿à®¯à¯Īà®¯à¯ģà®®à¯į":2700,"Ġà®¤à®®à®ķà¯įà®ķ":2701,"à®®à¯ĩà®²":2702,"Ġà®ĥà®ª":2703,"Ġà®ħà®µà®©à¯Īà®¤à¯į":2704,"Ġà®¨à®¿à®°à®¾à®ķà®°à®¿à®¤à¯įà®¤à¯ģ":2705,"Ġà®īà®Ļà¯įà®ķà®³à¯ģà®ķà¯įà®ķ":2706,"ĠG":2707,"Ġà®ķà®±à¯įà®±":2708,"Ġà®¤à¯Ģà®£à¯įà®Ł":2709,"à¯Ĩà®¾à®©à¯įà®±":2710,"à¯Ģà®ª":2711,"à¯ģà®¤à®²à¯įà®µ":2712,"à¯Īà®ķà®³à¯Īà®ķà¯į":2713,"Ġà®µà®¾à®´à¯įà®µ":2714,"à®ķà¯ģà®°à¯įà®Ĩ":2715,"Ġà®ķà®£à¯įà®Łà¯ģà®ªà®¿à®Ł":2716,"à®¤à®¾à®ķà®µà¯ģà®®à¯į":2717,"Ġà®ķà®¾à®ĥà®ªà®¿à®°à¯įà®ķà®³":2718,"à®ķà®£":2719,"ĠR":2720,"Ġà®ļà¯ģà®°":2721,".)":2722,"à¯ģà®ķà¯įà®ķà®³à¯į":2723,"Ġà®ªà¯ģà®°à®¿à®¨à¯įà®¤":2724,")à®¤à¯ģ":2725,"Ġà®ªà¯Ĥà®®à®¿à®¯à®¿à®²à¯ģà®®à¯į":2726,"à¯ģà®ķà®³à¯Īà®¯à¯ģà®®à¯į":2727,"Ġà®ķà¯Ĩà®¾à®£à¯įà®Łà¯ĩà®¾à®®à¯į":2728,"Ġà®µà®¾à®©à®Ļà¯įà®ķà®³à¯Īà®¯à¯ģà®®à¯į":2729,"Ġà®¤à®ªà¯įà®ª":2730,"uck":2731,"ate":2732,"à¯Īà®¯à¯Īà®ªà¯į":2733,"Ġà®µà¯ĩà®²à¯Ī":2734,"Ġà®µà®³":2735,"Ġà®ħà®µà®°à¯įà®ķà®³à¯Īà®ķà¯į":2736,"Ġà®¨à®Łà®¨à¯įà®¤":2737,"Ġà®ķà¯Ĥà®±à®¿à®©à®°à¯į":2738,"à¯ģà®µà¯ĩà®©à¯į":2739,"am":2740,"à®¿à®°à®¿à®¯":2741,"Ġà®¤à¯ĩà®°à¯įà®¨à¯įà®¤à¯Ĩà®Łà¯ģ":2742,"(à®¤":2743,"à®ļà¯Ĥ":2744,"Ġà®ĩà®Łà¯įà®Ł":2745,"à®¾à®µà¯Ī":2746,"ion":2747,")à®¤à®¿à®²à¯į":2748,"à®¿à®©à¯įà®±à®©à®°à¯į":2749,"Stencils":2750,"à¯ģà®Łà®©":2751,"Ġà®ķà®Łà¯įà®Łà®³à¯Ī":2752,"200":2753,"Ġà®Ĵà®¤":2754,"à®¿à®©à¯įà®ª":2755,"à®¿à®Łà®¤à¯įà®¤":2756,"Ġà®®à®±à¯ģà®®à¯Īà®¯à®¿à®²à¯į":2757,"Ġà®ĩà®µà¯Ī":2758,"à¯ģà®ķà®¿à®©à¯įà®±à®©":2759,"Ġà®µà®¿à®©":2760,"à®ļà®¾à®³à®°":2761,"ĥà®ªà¯į":2762,"à¯Ģà®°à®¾":2763,"à¯ģà®ªà®Łà¯ģà®¤à¯įà®¤":2764,"à®¯à®®à¯į":2765,"Ġà®Ĩà®ķà¯įà®ķà®¿à®©à¯ĭà®®à¯į":2766,"Ġà®ķà¯Ĥà®±à¯ģà®µà®¾à®©à¯į":2767,"Ġà®ļà®¿à®±à®¿à®¤à¯ģ":2768,"à®©à®¿":2769,"Ġà®ħà®µà®°à¯įà®ķà®³à¯ģà®ķà¯įà®ķ":2770,"Ġà®ıà®±à¯įà®ķ":2771,"Ġà®¤à¯Ĩà®¾à®Łà®°":2772,"Ġà®ķà¯Ĥà®Łà®¾à®¤à¯ģ":2773,"à¯Ģà®°à¯įà®ķà®³à®¾à®ķ":2774,"Ġà®ªà®Łà¯įà®Łà®¿à®¯à®²à¯į":2775,"à®±à¯įà®ķà¯ģ":2776,"Ġà®ªà¯ĭà®¤à¯ģ":2777,"Ġà®ĩà®ļà¯įà®ļ":2778,"Ġà®µà®¿à®²à®ķà®¿à®ķà¯į":2779,"Ġà®ķà¯ĩà®Łà¯ģà®¤à®¾à®©à¯į":2780,"à®°à®¿":2781,"Ġà®ķà®¿à®Łà¯Īà®¤à¯įà®¤à®¤à¯ģ":2782,"Ġà®®à¯Ĥà®²":2783,"Ġà®īà®¯à®°à¯įà®¤à¯įà®¤":2784,"Ġà®®à¯ģà®¤à®²":2785,"Ġà®¨à®¾à®Łà¯įà®Ł":2786,"Ġà®ªà¯ģà®¤à®²à¯įà®µ":2787,"Ġà®īà®±à¯ģà®¤à®¿à®¯à®¾à®©":2788,"Ġà®¨à®ªà®¿à®¯à¯ĩ":2789,"Ġà®ªà®¾à®²":2790,"à¯ģà®ļà¯įà®ļ":2791,"à®¤à¯Ĩà®²à¯įà®²à®¾à®®à¯į":2792,"à®¿à®ªà¯įà®ªà®Łà¯ģà®¤à¯įà®¤":2793,"Ġà®ķà¯Ĭà®£à¯įà®Ł":2794,"à¯Īà®¯à®¿à®²à®¿à®°à¯ģà®¨à¯įà®¤à¯ģ":2795,"à®µà®ļ":2796,"à¯ģà®®à®¾à®©à®¾à®²à¯į":2797,"à®ħà®®":2798,"Ġà®¨à®¾à®³à®¿à®©à¯į":2799,"Ġà®®à¯ģà®ķà®µà®°":2800,"à®ļà®¿à®²":2801,"à®²à®¾à®²à¯į":2802,"Ġà®ªà®±à¯įà®±à®¿à®¯à¯ģà®®à¯į":2803,"à®¾à®®à¯įà®ª":2804,"Ġ-čĊ":2805,"à®¿à®©à¯įà®±à®¿":2806,"à®¤à®¯à®µà¯ģ":2807,"Ġà®ļà®¾à®°à®¾à®°à¯ģà®Łà¯Īà®¯":2808,"Ġà®ħà®°à¯ģà®Łà¯įà®ķà¯Ĩà®¾à®Łà¯Īà®ķà®³à®¿à®²à¯į":2809,"Ġà®ªà¯Ĩà®¾à®¯à¯įà®¯à®¾à®ķà¯įà®ķà¯ģà®µà¯Ģà®°à¯įà®ķà®³à¯į":2810,"à¯įà®°à®¾à®¯à¯Ģà®²":2811,"Ġà®®à¯ģà®¤à®²à¯į":2812,"Ġà®ļà¯ĩà®°à¯įà®ªà¯įà®ª":2813,"Ġ\"%":2814,"Ġor":2815,"à¯ģà®µà®¤à®±à¯įà®ķ":2816,"Ġà®ļà¯Ĥà®°à®¿à®¯":2817,"Ġà®¤à¯ģà®£":2818,"Ġà®µà®´à®¿à®¯à¯Ī":2819,"à®Ļà¯įà®ķà®³à¯Īà®ķà¯į":2820,"Ġà®ķà¯ĩà®³":2821,"Ġà®ħà®³à®¿à®ķà¯įà®ķ":2822,"Ġà®µà¯Ĩà®³à®¿à®¯à¯ĩà®±":2823,"Ġà®ļà¯Ĩà®¯à¯įà®µà¯Ģà®°à®¾à®ķ":2824,"Ġà®¤à®£à¯įà®£":2825,"Ġà®īà®°à®¿à®¯à®¤à¯ģ":2826,"Ġà®¨à¯ĩà®¾à®ķà¯įà®ķ":2827,"Ġà®ļà®®à¯įà®ªà®¾à®¤à®¿à®¤à¯įà®¤":2828,"Ġà®µà®¿à®°à¯ģà®®à¯įà®ªà®¿à®¯":2829,"Ġà®ħà®µà¯įà®µà®¾à®±à¯ģ":2830,"à®¿à®¯à®©à¯į":2831,"à®ħà®ļà¯įà®ļ":2832,"à®ħà®µà¯įà®µà®¾à®±à¯ĩ":2833,"à®ªà®¿à®©à¯įà®©":2834,"à®ķà¯ĭà®ªà¯įà®ªà¯ģ":2835,"Ġà®ħà®µà®°à¯įà®ķà®³à¯Īà®ļà¯į":2836,"à®īà®Ļà¯įà®ķà®³à¯Ī":2837,"Ġà®µà®¿à®±":2838,"ada":2839,"ist":2840,"Ġà®ķà®¿à®°":2841,"Ġà®¨à¯Ĥà®¹":2842,"Ġà®ķà¯ģà®°à¯įà®Ĩà®©à¯Ī":2843,"à®ŀà¯įà®ļà®²à¯į":2844,"anada":2845,"Ġà®µà¯Īà®¤à¯įà®¤à¯ĩà®¾à®®à¯į":2846,"Ġà®Īà®®à®¾à®©":2847,"Ġà®¤à¯ĩà®µà¯Ī":2848,"Ġà®ķà¯Ĩà®¾à®£à¯įà®Łà®¤à¯ģ":2849,"Ġà®¤à¯Ĥà®¤à®°à¯ģà®ķà¯įà®ķà¯ģà®®à¯į":2850,"Ġà®®à¯ģà®ĥà®®à®¿à®©à¯įà®ķà®³":2851,";čĊ":2852,"Ġà®ħà®µà®°à¯įà®ķà®³à¯ģà®Łà®©à¯į":2853,"Ġà®İà®£à¯įà®£à®¿à®ķà¯į":2854,"Ġà®®à¯ģà®ĥà®®à®¿à®©à®¾à®©":2855,"Ġà®ħà®´à®¿à®¤à¯įà®¤":2856,"à¯ģà®Ļà¯į":2857,"Ġà®Ĩà®µà®£":2858,"Ġà®ħà®ªà¯įà®ªà¯Ĩà®¾à®´à¯ģà®¤à¯ģ":2859,"]čĊ":2860,"à®ªà®Łà¯įà®Ł":2861,"Ġà®¤à®¸à¯įà®ª":2862,"Ġà®¨à®©à¯įà®®à®¾à®°à®¾à®¯à®Ļà¯į":2863,"Ġà®ĩà®°à®£à¯įà®Ł":2864,"Ġà®¤à®£à¯įà®Łà®©à¯Ī":2865,"à®¤à¯Ĭ":2866,"Ġà®®à¯ģà®±à¯Īà®¯à®¿à®²à¯į":2867,"Ġà®ĩà®ªà¯įà®±à®¾à®¹à¯Ģ":2868,"Ġà®®à®±à®¨à¯įà®¤à¯ģ":2869,"à®©à®¿à®©à¯į":2870,"Ġà®ħà®´à®¿à®¤à¯įà®¤à¯ģ":2871,"Ġà®®à®±à¯Īà®¤à¯įà®¤à¯ģ":2872,"Ġà®ķà¯ģà®±à®¿à®ªà¯įà®ªà®¿à®Ł":2873,"12":2874,"à®¿à®µà®¿à®Łà¯ģà®®à¯į":2875,"Ġà®īà®°à¯Ī":2876,"à®¾à®°à®¾":2877,"Ġà®®à®²à®ķà¯įà®ķà¯ģà®ķà®³à¯į":2878,"Ġà®İà®Łà¯ģà®ķà¯įà®ķ":2879,"à®°à¯ģà®ķ":2880,"Ġà®ĩà®Ļà¯įà®ķà¯ģ":2881,"à¯ĩà®¾à®Ł":2882,"ation":2883,"à¯įà®ķà®³à¯Īà®ļà¯į":2884,"Ġà®®à¯ģà®¤à¯įà®¤":2885,"Ġà®ªà¯ĩà®¾à®ķà®¿à®±à¯ĩà®©à¯į":2886,"Ġà®ıà®¤à¯ĩà®©à¯ģà®®à¯į":2887,"Ġà®ªà¯ĩà®¾à®©":2888,"Ġà®µà¯Ĩà®ķà¯ģ":2889,"Ġà®ĩà®¯à®²à®µà®¿à®²à¯įà®²à¯Ī":2890,"ay":2891,"à®īà®±":2892,"à®¾à®¨à¯įà®¤":2893,"Ġà®ļà®ķà¯įà®¤à®¿à®¯":2894,"Ġà®¨à®¿à®±à¯Īà®µà¯ĩà®±à¯įà®±":2895,"Ġà®®à®¾à®Łà¯įà®Łà¯Ģà®°à¯įà®ķà®³à¯į":2896,"à®©à¯ģà®ķà¯įà®ķà¯ģ":2897,"à¯Īà®ªà¯įà®ªà®±à¯įà®±à®¿":2898,"Ġà®ªà®¿à®Łà®¿à®ķà¯įà®ķ":2899,"Ġà®ªà®¿à®°à®µà¯ĩà®ļ":2900,"Ġà®īà®©à¯įà®©à¯Ī":2901,"à®²à¯ģà®®à¯į":2902,"à¯įà®ļà¯įà®ļà®¿à®¯":2903,"Ġà®ĩà®±à¯Īà®µà®©à¯Ī":2904,"Ġà®ħà®µà®ļà®°":2905,"à®®à®£à¯įà®Ł":2906,"à®¾à®ķà®µà¯ĩà®¾":2907,"Ġà®¤à®µà¯įà®ª":2908,"Ġà®ŀà®¾à®©à®®à¯ģà®Łà¯Īà®¯":2909,"à®¿à®ªà¯įà®ªà®Ł":2910,"Ġà®ķà®Łà®µ":2911,"Ġà®ªà¯Ĩà®£à¯įà®ķà®³à¯į":2912,"à®°à¯įà®ķà®³à®¿à®©à¯į":2913,"à®ħà®ªà¯įà®ªà®Łà®¿à®¯à®²à¯įà®²":2914,"Ġà®ªà¯ĩà®ļà¯įà®ļ":2915,"Ġà®®à¯ģà®©à¯įà®©à®¾à®²à¯į":2916,"Ġà®īà®³à¯įà®³à®¿à®Ł":2917,"\"à®ĩà®©à¯įà®©à¯ģà®®à¯į":2918,"à®ĩà®µà¯įà®µà®¾à®±à¯ĩ":2919,"Ġà®ĩà®ªà¯įà®ªà¯ĩà®¾à®¤à¯ģ":2920,"Ġà®¨à®®à®ķà¯įà®ķà¯ģ":2921,"à®Łà¯įà®Łà®µà®£":2922,"Ġà®®à¯ģà®¸à¯įà®²":2923,"Ġà®ħà®¤à¯Īà®ķà¯į":2924,"Ġà®İà®¤à¯ģ":2925,"Ġà®®à¯Ĥà®©à¯įà®±à¯ģ":2926,"Ġà®µà®¾à®´à¯įà®ķà¯įà®ķà¯Ī":2927,"à®ªà¯įà®ªà®Łà®µà®¿à®²à¯įà®²à¯Ī":2928,"à®ħà®µà®°à¯įà®ķà®³à®¿à®²à¯į":2929,"Ġà®ħà®°à¯įà®°à®¹à¯įà®®":2930,"Ġà®ªà®¿à®°à®¾à®°à¯įà®¤à¯įà®¤à®©à¯Ī":2931,"Ġà®µà®¾à®ķà¯įà®ķà®³à®¿à®ķà¯įà®ķà®ªà¯įà®ªà®Łà¯įà®Ł":2932,")à®µà®°à¯įà®ķà®³à¯į":2933,"à¯Ģà®¹à¯ģ":2934,"Ġà®İà®£à¯įà®£à®¿à®ķà¯įà®ķà¯Ī":2935,"Ġà®ķà®Łà¯įà®Łà¯ģà®ªà¯įà®ª":2936,"à®¿à®©à®¾à®°à¯į":2937,"Ġà®ķà®¾à®°à®£à®®à¯į":2938,"à®®à®¿à®²à¯įà®²à¯Ī":2939,"Ġà®ĩà®ªà¯įà®°à®¾à®¹à¯Ģ":2940,"à®®à®©à¯įà®©":2941,"à®Łà®¿à®¯à®¾à®ķ":2942,"Ġà®¹à®°":2943,"à®İà®²à¯įà®²à®¾à®":2944,"à®Ĩà®¯":2945,"à®ķà¯įà®ķà®¤à¯įà®¤à®¿à®±à¯įà®ķ":2946,"à®®à®¾à®ķà®µà¯ĩ":2947,"Ġà®ļà®¨à¯įà®¤à®¿à®ªà¯įà®ª":2948,"Ġà®Ĩà®ķà®¿à®µà®¿à®Łà¯įà®Ł":2949,"à¯ģà®µà®¤à¯ģà®®à¯į":2950,"Ġà®¤à®Ļà¯įà®ķà®³à¯ģà®ķà¯įà®ķà¯ģ":2951,"à¯ģà®ªà®µà®°à¯į":2952,"Ġà®Ĩà®¯à®¿à®©à¯ģà®®à¯į":2953,"Ġà®®à®£à¯įà®£":2954,"Ġà®Ĵà®´à¯ģà®Ļà¯įà®ķ":2955,"Ġà®īà®£à¯įà®®à¯Īà®¯à®¾à®³":2956,"Ġà®ķà®ªà¯įà®ª":2957,"à®¸à¯įà®Ł":2958,"à®Ĩà®°":2959,"Ġà®ħà®´à¯ģà®¤à¯įà®¤":2960,"Ġà®µà®Łà¯įà®Łà¯Ī":2961,"à®µà®±à¯įà®±à®¿à®²à®¿à®°à¯ģà®¨à¯įà®¤à¯ģ":2962,"à®¿à®¸à¯į":2963,"ĠU":2964,"Ġà®®à®©à®¿à®¤à®°à¯įà®ķà®³à®¿à®²à¯į":2965,"à®©à¯įà®®à¯Īà®¯":2966,"Ġà®ħà®®à¯įà®®":2967,"Ġà®ļà¯ģà®Łà¯įà®Ł":2968,"Ġà®ķà®¾à®¤":2969,"à¯ģà®³à¯įà®³à¯ĩà®¾à®®à¯į":2970,"à¯Īà®µà®¿à®Łà¯įà®Łà¯ģ":2971,"wor":2972,"à®ªà¯įà®ªà®±à¯įà®±à®¿":2973,"Ġà®ĩà®°à¯ģà®¨à¯įà®¤à®©à®°à¯į":2974,"à¯ģà®®à¯įà®ªà¯ĭà®¤à¯ģ":2975,"Ġà®ļà®®à¯Ģà®ª":2976,"Ġà®İà®ļà¯įà®ļà®°à®¿à®ķà¯įà®ķ":2977,"à¯Ĥà®±à¯ģ":2978,"Ġà®īà®£à®µà®³":2979,"Ġà®ļà¯ĩà®®à®¿à®ķà¯įà®ķ":2980,"à®¤à¯ĩà®°à¯įà®¨à¯įà®¤":2981,"ĠCanada":2982,"Ġà®ªà¯Ĩà®£à¯įà®ķà®³":2983,"Ġ>":2984,"à¯ĩà®¾à®ļ":2985,"Ġà®īà®Ļà¯įà®ķà®³à¯ģà®Łà®©à¯į":2986,"Ġà®İà®Łà¯ģà®¤à¯įà®¤à¯ģ":2987,"Ġà®ªà¯Ĩà®¾à®¯à¯įà®ªà¯įà®ªà®¿à®¤à¯įà®¤":2988,"à®ħà®µà¯įà®µà®¾à®±":2989,"Ġà®ķà®¾à®±à¯įà®±":2990,"à¯įà®ĩ":2991,"Ġà®ĩà®¤à¯įà®¤":2992,"à®ĩà®ªà¯įà®ªà¯ĩà®¾à®¤à¯ģ":2993,"à®ķà®¾à®°":2994,"Ġà®ħà®µà®°à¯įà®ķà®³à¯ģà®ķà¯įà®ķà¯ģà®¤à¯į":2995,"Ġà®ħà®ķà¯įà®ķà®¿à®°à®®à®ķà¯įà®ķà®¾à®°":2996,"à¯Ĩà®²":2997,"à®¤à¯įà®¤à¯Īà®ļà¯į":2998,"Ġà®®à®±à¯ģà®®à¯Ī":2999,"Ġà®µà®¿à®Łà¯ģà®µà®¾à®°à¯įà®ķà®³à¯į":3000,"Ġà®ķà¯Ĥà®±à®¿à®©à¯ĭà®®à¯į":3001,"Ġis":3002,"Ġà®ªà¯ĩà®¾à®¤à¯ģà®®à¯į":3003,"Ġà®ķà¯Ĥà®°à¯įà®µ":3004,"à¯ģà®¤à®¿à®¯à®¿à®²à¯į":3005,"à®®à®¤":3006,")à®ķà®³":3007,"Ġà®®à®±à¯Īà®ķà¯įà®ķ":3008,"Ġà®ļà®Łà¯įà®Ł":3009,"à®¨à®®à¯įà®ªà®¿à®ķà¯įà®ķà¯Ī":3010,"ener":3011,"Ġà®ªà¯Ĭà®¤à¯įà®¤":3012,"à¯Īà®¯à®¾à®²à¯į":3013,"à®¿à®®à®¾à®°à¯įà®ķà®³":3014,"à®¹à¯Ģà®©":3015,"à®ªà¯Ĭ":3016,"Ġà®ļà¯ĩà®®à®¿":3017,"Ġà®ªà¯ģà®²":3018,"Ġà®ħà®µà®©à®¿à®Łà®®à¯ĩ":3019,"Ġà®¨à®¿à®°à®¾à®ķà®°à®¿à®¤à¯įà®¤à¯ģà®ķà¯į":3020,"Ġà®®à¯Ģà®Łà¯įà®Ł":3021,"Ġà®ªà¯ģà®¤":3022,"Ġ..":3023,"à¯ģà®ķà¯įà®ķà®¿à®¯":3024,"à®¿à®©à®¾à®²à¯ģà®®à¯į":3025,"Ġà®ªà¯Ĩà®°à¯ģà®®à¯Īà®¯à®Ł":3026,"à®¿à®¯à¯ĩà®¾à®°":3027,"Ġà®ĩà®±à®Ļà¯įà®ķ":3028,"Ġà®¨à®©à¯įà®±à®¾à®ķ":3029,"Ġà®ķà¯įà®ķà¯ģ":3030,"Ġà®ħà®¤à®¿à®ķà®¾à®°":3031,"Ġà®¨à¯Ĩà®°à¯ģà®Ļà¯įà®ķà®¿à®¯":3032,"Ġà®ķà¯Ĩà®Ł":3033,"Ġà®µà®¿à®°à¯ĩà®¾à®¤":3034,"à®¿à®¯à®²à¯į":3035,"Ġà®ªà¯ĩà®¾à®¯":3036,"µà®±à¯įà®±à¯Īà®¯à¯ģà®®à¯į":3037,";,":3038,"à®ıà®©à¯Ĩà®©à®¿à®²à¯į":3039,"Ġà®ħà®±à®¿à®µà®¿à®¤à¯įà®¤":3040,"yp":3041,"Ġà®¤à¯ģà®°":3042,"Ġà®¤à¯Ĩ":3043,"Ġà®ķà®±à¯įà®ªà®©à¯Ī":3044,"Ġà®ĩà®±à®ķà¯įà®ķà®¿à®¯":3045,"à®®à®¾à®©à®µà®©à¯į":3046,"à®°à¯įà®ķà®³à®¿à®²à¯į":3047,"Ġà®ļà¯Ĩà®¯à¯įà®¤à®¿":3048,"Ġà®¤à¯Ĥà®°":3049,"Ġà®µà®¿à®Łà¯įà®Łà®¾à®°à¯įà®ķà®³à¯į":3050,"à®¾à®©à®®à¯į":3051,"Ġà®ªà¯ģà®±à®ķà¯įà®ķà®£à®¿à®¤à¯įà®¤":3052,"ig":3053,"Ġà®®à®ķà¯įà®ķà®³":3054,"Ġà®Īà®Ł":3055,"Ġà®ļà¯Ĥà®´à¯įà®¨à¯įà®¤à¯ģ":3056,"à®©à®¾":3057,"Ġà®ĩà®±à®¨à¯įà®¤à¯ģ":3058,"à®¿à®ķà¯įà®ķà®ªà¯į":3059,"Ġà®¤à®©à¯įà®©à¯ģà®Łà¯Īà®¯":3060,"Ġà®ħà®µà®ķ":3061,"Ġà®¨à®¾à®Łà®¿à®¯à®¿à®°à¯ģà®¨à¯įà®¤à®¾à®²à¯į":3062,"Ġà®ķà¯ģà®±à®¿à®¤à¯įà®¤à¯ģ":3063,"(à®ļà¯į":3064,"ul":3065,"Ġà®¤à¯ģà®µà®ķà¯įà®ķ":3066,"à®İà®©à¯įà®ª":3067,"Ġà®ķà¯Ĩà®¾à®£à¯įà®Łà®¾à®²à¯į":3068,"Ġà®¤à¯ĩà®¾à®Łà¯įà®Ł":3069,"Ġ~":3070,"à¯ģà®®à¯įà®ªà®Łà®¿à®ļà¯į":3071,"Ġà®ķà¯Ģà®´à¯įà®ª":3072,"à®±à¯įà®ªà¯ĭà®¤":3073,"Ġà®®à®©à¯įà®©à®¿à®ªà¯įà®ªà®µà®©à¯į":3074,"Ġà®ķà¯ĭà®ªà¯įà®ªà¯ģà®ķà®³à¯Ī":3075,"Ġà®µà®¾à®°à®¿à®ļ":3076,"à®µà®©à¯Ī":3077,"à®¿à®²à®¿à®°à¯ģà®¨à¯įà®¤à¯ĩ":3078,"Ġà®ħà®²à¯įà®²à®¾à®¹à¯įà®µà¯Īà®¯à®©à¯įà®±à®¿":3079,"Ġà®¨à¯Ģà®¯":3080,"Ġà®İà®µà®°à¯ģà®®à®¿à®²à¯įà®²à¯Ī":3081,"Ġà®ħà®©à¯įà®ª":3082,"à¯ģà®ĥà®ªà¯įà®°":3083,"à¯Ĩà®¯à®°":3084,"Ġà®Ĩà®µà®¾à®°à¯įà®ķà®³à¯į":3085,"Ġà®ħà®±à®¿à®µà®¾à®©à¯į":3086,"à®¿à®¯à¯Īà®ķà¯į":3087,"10":3088,"Ġà®µà®¿à®Łà¯ģà®µà¯ĩà®¾à®®à¯į":3089,"à¯ĩà®¾à®°à®¿à®©à¯į":3090,"Ġà®ķà®¿à®Łà¯Īà®ķà¯įà®ķ":3091,"à¯ĩà®¾à®©à¯į":3092,"à®ªà¯įà®ªà®Łà®¾à®¤":3093,"à®¿à®ªà¯įà®ªà¯Ģà®°à®¾à®ķ":3094,"à¯ģà®ķà¯įà®ķà¯ģà®³à¯į":3095,"Ġà®ľà®¿à®©":3096,"à¯Īà®ķà®³à¯Īà®ªà¯į":3097,"Ġà®¤à®¾à®¯":3098,"Ġà®¨à®²à¯įà®²à®Łà®¿à®¯":3099,")à®¯":3100,"à®ªà¯įà®ªà®Łà¯įà®Łà¯ģà®³à¯įà®³à®¤à¯ģ":3101,"Ġà®ħà®²à¯įà®²à®¾à®¹à¯įà®µà®¿à®Łà®®à¯ĩ":3102,"Ġà®¤à®¸à¯įà®ªà¯Ģà®¹à¯ģ":3103,"Ġà®®à¯ģà®·à¯įà®°à®¿à®ķà¯įà®ķ":3104,"à®ķà¯ģà®´":3105,"Ġà®¨à®±à¯įà®ķà®°à¯ģà®®":3106,"Ġà®ķà¯ģà®´à®ªà¯įà®ªà®®à¯į":3107,"Ġà®µà®£à®Ļà¯įà®ķà¯ģà®Ļà¯įà®ķà®³à¯į":3108,"Ġà®ļà¯ĩà®°à¯įà®¨à¯įà®¤":3109,"Ġà®Łà®¿à®µà®¿à®Ł":3110,"Ġà®¨à¯ĩà®ļà®¿à®ªà¯įà®ª":3111,"à®ªà¯įà®²":3112,"à®Ĩà®®à®¾à®®à¯į":3113,"Ġà®ļà®ķà¯įà®¤à®¿":3114,"Ġà®ķà¯Ĩà®¾à®©à¯įà®±":3115,"à®¾à®µà®¿à®Łà¯įà®Łà®¾à®²à¯į":3116,"Ġà®®à¯ģà®©à¯įà®©à®¿à®°à¯ģà®¨à¯įà®¤":3117,"Ġà®ħà®ļ":3118,"Ġ(%":3119,"Ġà®µà®¿à®ļà®¾à®²":3120,"à®ķà¯ĭ":3121,"Ġà®İà®³à®¿à®¤":3122,"Ġà®ļà®¨à¯įà®¤à®¿à®°":3123,"à¯Īà®ªà¯įà®ªà¯Ī":3124,"Ġà®īà®¯à®°à¯įà®¨à¯įà®¤":3125,"à®¿à®¯à¯ĭ":3126,"à®Ļà¯įà®ķà®¾à®°":3127,"Ġà®¨à®¿à®®":3128,"à®ħà®ķ":3129,"à®¿à®±à¯ĩà®¾à®®à¯į":3130,"Ġà®¤à®°à¯įà®ķà¯įà®ķà®®à¯į":3131,"Ġà®ļà®¿à®²à®°à¯Ī":3132,"à®ħà®µà®©à¯ģà®ķà¯įà®ķà¯ģ":3133,"Ġme":3134,"Ġà®ħà®Łà¯Īà®µà¯ģ":3135,"à®ªà¯įà®ªà®Łà¯ģà®¤à¯įà®¤à®¿à®ķà¯į":3136,"Ġà®ªà¯ģà®ķà¯ģà®¤à¯įà®¤":3137,"Ġà®ļà®¾à®Łà¯įà®ļà®¿à®¯à®¾à®ķ":3138,"Ġà®ļà¯Ĩà®¯à¯įà®ķ":3139,"Ġà®ļà¯Ĩà®¯à®²à¯į":3140,"ort":3141,"à®ªà¯įà®ªà¯ģà®±":3142,"\"à®İà®Ļà¯įà®ķà®³à¯į":3143,"AR":3144,"Ġà®¤à¯ĭ":3145,"Ġà®®à®±à¯Īà®µà®¾à®©":3146,"Ġà®ħà®µà¯įà®µà®¿à®°à¯ģà®µà®°à¯ģà®®à¯į":3147,"Ġà®¨à®²à¯įà®²à¯ģà®ªà®¤à¯ĩà®ļà®®à¯į":3148,"à®µà®ŀà¯įà®ļ":3149,"Ġà®¤à®¾à®®à¯ĩ":3150,"um":3151,"à®¨à¯įà®¤à®°":3152,"Ġà®ħà®µà®³":3153,"Ġà®ķà¯Ĩà®¾à®£à¯įà®Łà®µà®°à¯įà®ķà®³à¯į":3154,"à®°à¯įà®ķà®³à¯Īà®¯à¯ģà®®à¯į":3155,"Ġà®ĵà®¤à®¿à®ķà¯į":3156,"Ġà®ķà¯Ĥà®±à¯ģà®ķà®¿à®±à®¾à®©à¯į":3157,"à®©à¯Īà®¯à¯ĩà®¾":3158,"à®Łà¯Īà®¨à¯įà®¤à¯ģ":3159,"Ġà®ªà¯Ĩà®£à¯įà®£":3160,"Ġà®Ĩà®£à¯įà®Ł":3161,"Ġà®ķà®¾à®ĥà®ªà®¿à®°à¯įà®ķà®³à¯ģà®ķà¯įà®ķà¯ģ":3162,"Ġà®µà¯ĩà®¤à®¤à¯įà®¤à¯Ī":3163,"Ġà®ªà¯ĩà®°à®¾à®±à¯įà®±à®²":3164,"Ġà®Ĵà®µà¯įà®µà¯Ĩà®¾à®°":3165,"Ġà®ļà¯ĩà®°à¯įà®¨à¯įà®¤à¯ģ":3166,"à¯Ĥà®°à¯į":3167,"à®¿à®ķà®³à®¾à®ķ":3168,"à®®à¯Ĥà®¸à®¾":3169,"à®¿à®©à¯įà®±à®©":3170,"Ġà®¤à®¿à®°à¯ģà®¤à¯įà®¤":3171,"Ġà®īà®Ļà¯įà®ķà®³à¯Īà®ķà¯į":3172,"ain":3173,"à®Łà®ķà¯įà®ķ":3174,"tle":3175,"à®¿à®·":3176,"à®¾à®°à¯įà®ķà®³à®¾à®©à®¾à®²à¯į":3177,"Ġà®µà®´à®¿à®ķà®¾à®Łà¯įà®Ł":3178,"à®¿à®¯à®¾à®ķà¯ģà®®à¯į":3179,"Ġà®ļà®®à®¾à®¤":3180,"à®¾à®ķà¯įà®ķà¯ģ":3181,"Ġà®ĩà®¸à¯įà®°à®¾à®¯à¯Ģà®²":3182,"à¯Īà®ªà¯įà®ªà®¿à®Ł":3183,"Ġà®ªà¯Īà®¤à¯įà®¤":3184,"Ġà®ļà®ªà¯įà®¤":3185,"Ġà®ªà¯Ĭà®°à¯ģà®³":3186,"Ġà®¨à®¾à®©à¯ģà®®à¯į":3187,"à®¿à®Łà¯Īà®¯à®¿à®²à¯į":3188,"à®¿à®°à®¿":3189,"à®¿à®°à¯ģ":3190,"à®®à®©à®¿à®¤à®°à¯įà®ķà®³à¯ĩ":3191,"ey":3192,"à®®à¯Īà®ķà¯įà®ķ":3193,"Ġà®ĩà®°à¯ģà®ķà¯įà®ķà®¿à®±à¯ĩà®¾à®®à¯į":3194,"Ġà®ķà®£à¯įà®Łà¯ģ":3195,"ve":3196,"Ġà®®à¯ģà®©à¯įà®©à¯ĭ":3197,"Ġà®ıà®±à¯įà®ªà®Ł":3198,"à®İà®©à¯įà®©à¯Ī":3199,"Ġà®ħà®©à¯ģà®ªà¯įà®ªà®¿à®¯":3200,"Ġà®ªà®¤à®¿à®µà¯ģ":3201,"à¯ģà®ķà®³à¯ģà®ķà¯įà®ķà¯ģ":3202,"Ġà®ħà®¤à¯įà®¤à®ķà¯Īà®¯":3203,"Ġà®¤à®¿à®°à¯ģà®":3204,"Ġà®ķà¯ģà®³":3205,"à®®à¯ģà®Łà®¿à®¯":3206,"à®¿à®²à¯Ī":3207,"Ġà®ļà¯Ģà®ķà¯įà®ķ":3208,"Ġà®¤à¯Ĥà®¯à¯įà®®à¯Īà®¯à®¾à®©":3209,"Ġà®ķà¯ģà®±à¯įà®±à®®à¯į":3210,"Ġà®¤à®µà®±à¯ģ":3211,"à¯Īà®¯à®¿à®©":3212,"Ġti":3213,"à®¿à®¯à®¿à®°à¯ģà®¨à¯įà®¤":3214,"à®µà®ķ":3215,"à¯Īà®¯à¯ĩà®¾à®°à¯į":3216,"if":3217,"Ġà®ĩà®µà¯įà®µà¯ĩà®¤":3218,"Ġà®®à®©à®¿à®¤à®°à¯įà®ķà®³à¯ģà®ķà¯įà®ķà¯ģ":3219,"Ġà®¨à®©à¯įà®ķà®±à®¿à®µà®¾à®©à¯į":3220,"à¯Īà®ķà®³à¯ģà®ķà¯įà®ķà¯ģà®®à¯į":3221,"Ġà®ıà®´à¯ģ":3222,"Ġà®®à®¿à®©à¯įà®©":3223,"à¯ģà®¤à¯ģà®®à¯į":3224,"Ġà®µà¯ĩà®±à¯Ĩ":3225,"à®ĩà®¤à®©à¯į":3226,"Ġà®İà®ļà¯įà®ļà®°à®¿à®ªà¯įà®ª":3227,"à®ªà¯įà®ªà¯Ĩ":3228,"Ġà®¨à®¾à®³à¯Ī":3229,"à¯ĩà®¾à®°à¯ĩ":3230,"à®®à¯Ĥà®¸à®¾à®µà¯ĩ":3231,"Ġà®®à®©à®¿à®¤à®°":3232,"Ġà®ķà¯ģà®±à®¿à®¯":3233,"à¯ģà®µà¯ĩà®¾à®°à¯į":3234,"eg":3235,"Ġà®ªà¯Ĥà®®à®¿à®¯à®¿à®²à¯ģà®³à¯įà®³":3236,"Ġà®®à®¸":3237,"à®µà®°à¯įà®ķà®³à®¾à®ķà®µà¯ĩ":3238,"Ġà®µà®ļà®©à®Ļà¯įà®ķà®³à¯Īà®ªà¯į":3239,"Ġà®®à®¤à®¿à®ªà¯įà®ªà¯ģ":3240,"Ġà®¤à¯Ĩà®¾à®²":3241,"à®¨à®±à¯į":3242,"Ġà®ħà®©à¯ģà®ªà¯įà®ªà®ªà¯įà®ªà®Łà¯įà®Ł":3243,"Ġà®µà®¿à®Łà¯įà®Łà¯ģà®µà®¿à®Ł":3244,"qu":3245,"à®¾à®©à¯ĩ":3246,"Ġà®ļà¯Ģà®°":3247,"Ġà®ªà¯Ĩà®°à®¿à®¤":3248,"Ġà®ļà¯Ĩà®µà®¿à®¯":3249,"Ġà®ªà¯ĩà®¾à®¤à¯ģà®®à®¾à®©à®µà®©à¯į":3250,"Ġà®¨à®¿à®²à¯Īà®¯à®¾à®©":3251,"à¯Ĭà®°à¯ģà®ķ":3252,"(à®®à¯ģà®ĥà®®à®¿à®©à¯įà®ķà®³à¯ĩ":3253,"Ġcom":3254,"im":3255,"Ġà®µà®²à¯įà®²":3256,"à®ķà®¤à¯įà®¤à®¿à®©à¯į":3257,"à®¾à®ľ":3258,"Ġà®ªà¯Ĥà®®à®¿à®¯à¯Ī":3259,"Ġà®®à®¾à®²":3260,"à®ķà¯įà®ķà¯ģà®®à¯į":3261,"Ġ?čĊ":3262,"Ġfor":3263,"à®¤à®¿à®²à®¿à®°à¯ģà®¨à¯įà®¤à¯ģ":3264,"Ġà®®à¯Ģà®±à®¿à®¯":3265,"Ġac":3266,"Ġyou":3267,"à¯ĩà®¾à®²à¯į":3268,"Ġà®¤à®³":3269,"Ġon":3270,"Ġà®®à¯ģà®¯à®±à¯įà®ļà®¿":3271,"à®¿à®Łà¯ģà®®à¯į":3272,"à®ĩà®¤à¯įà®¤à®ķà¯Īà®¯":3273,"à®İà®µà®°":3274,"Ġà®¨à®¿à®´":3275,"Ġà®µà®¾à®©à®Ļà¯įà®ķà®³":3276,"Ġà®ħà®®à¯Īà®ªà¯įà®ªà¯ģ":3277,"Ġà®¨à¯ĩà®°à®¤à¯įà®¤à®¿à®²à¯į":3278,"Ġà®ļà¯ĩà®¾à®²":3279,"à®¤à¯Ĭà®Ł":3280,"Ġà®µà®¨à¯įà®¤à®¤à¯ģ":3281,"à®ªà¯ĩà®¾à®°":3282,"à®ħà®£":3283,"à¯Ĩà®¾à®³à¯įà®µ":3284,"ang":3285,"à®µà®°à¯įà®ķà®³à¯Īà®ªà¯į":3286,"Ġà®µà¯Īà®¤à¯įà®¤à®¾à®©à¯į":3287,"à¯ģà®ķà¯įà®ķà¯Ĩà®¾à®°à¯ģà®µà®°à¯į":3288,"à¯ģà®®à®¿à®Łà¯Īà®¯à¯ĩ":3289,"Ġà®ĩà®¯à®²à®¾à®¤à¯ģ":3290,"Ġà®īà®Ļà¯įà®ķà®³à¯ģà®ķà¯įà®ķà¯ģà®¤à¯į":3291,"Ġà®ħà®´à¯Īà®¤à¯įà®¤à¯ģ":3292,"Ġà®ªà®²à®©":3293,"Ġà®ĩà®µà®°à¯į":3294,"à®ĥà®ªà®¿à®°à¯įà®ħà®µà¯įà®©":3295,"à¯Īà®ª":3296,"Ġà®µà®´à®¿à®ªà¯įà®ªà®Łà¯įà®Ł":3297,"Ġà®ĩà®±à¯Īà®µà®©à¯ģà®ķà¯įà®ķà¯ģ":3298,"à®ªà¯Ĩà®¾à®¯":3299,"à®ķà®¤à¯įà®¤à¯Ī":3300,"Ġà®ĩà®°à¯ģà®¨à¯įà®¤à®¾à®°à¯į":3301,"à¯įà®µà®¾à®¯à®¾à®ķ":3302,"Ġà®¤à®Łà¯ģà®¤à¯įà®¤à¯ģ":3303,"à®µà¯ĩà®¤à®¤à¯į":3304,"à®¯à®µà®ŀà¯įà®ļ":3305,"Ġà®īà®©à®ķà¯įà®ķà¯ģ":3306,"à®ĩà®¤à®±à¯įà®ķà¯ģ":3307,"Ġà®İà®Ļà¯įà®ķà®³à¯ģà®Łà¯Īà®¯":3308,"Ġà®®à®°à¯įà®¯":3309,"Ġà®ķà¯Ĥà®°à¯įà®µà¯Ģà®°à®¾à®ķ":3310,"à®īà®Ł":3311,"à¯Ĩà®©à¯į":3312,"Ġà®ĩà®°à¯ģà®ªà¯įà®ªà®¿à®©à¯į":3313,"à®®à¯ģà®´":3314,"à®µà®¿à®²à¯įà®²à¯Īà®¯à¯ĩà®¾":3315,"Ġà®µà®¿à®Łà®¾à®¤à¯Ģà®°à¯įà®ķà®³à¯į":3316,"eneric":3317,"Ġà®ķà®¾à®°à®£à®¤à¯įà®¤à®¾à®²à¯į":3318,"Ġà®Ĩà®ļà¯įà®ļà®°":3319,"ount":3320,"Ġà®ªà¯Ĩà®¾à®°à¯ģà®Łà¯įà®ķà®³à¯Īà®¯à¯ģà®®à¯į":3321,"Ġà®Ĩà®ķà¯įà®ķà®¿à®ķà¯į":3322,"à®¿à®¤à®´":3323,"à¯ģà®®à¯Īà®¯à®¾à®ķ":3324,"à¯Īà®µà¯Ĩà®³":3325,"Ġà®¤à¯Ģà®Ļà¯įà®ķà®¿à®´":3326,"à¯ģà®¤à®²à¯Ī":3327,"Ġà®ıà®®à®¾à®±à¯įà®±":3328,"à®¿à®¯à¯įà®¯":3329,"Ġà®ħà®µà¯įà®µà®¾à®±":3330,"OR":3331,"Ġà®¨à®¿à®²à¯Īà®¯":3332,"Ġà®ķà®Łà®¿à®©à®®à®¾à®©":3333,"Ġà®¨à®ķà®²":3334,"à®¿à®ªà¯įà®ªà®¾à®©à¯į":3335,"à®ķà®¾à®¤à¯įà®¤":3336,"à®¹à®¾à®°à¯įà®Ł":3337,"à®¾à®°à®£à®®à¯į":3338,"Ġà®ªà¯Ĩà®¾à®¯à¯įà®ªà¯įà®ªà®¿à®ķà¯įà®ķ":3339,"à®ĩà®µà¯įà®µà¯ģà®²à®ķ":3340,"Ġà®ªà®²à®¹à¯Ģà®©":3341,"Ġà®¹à®¾à®°":3342,"Ġà®¯à®¾à®µà®°à¯ģà®®à¯į":3343,"à®±à¯įà®ªà¯ĭà®¤à¯Īà®¯":3344,"à¯ģà®³à¯įà®³à®¾à®©à¯į":3345,"Ġà®ļà¯Ĩà®¯à¯įà®µà¯ĩà®¾à®®à¯į":3346,"à®µà®¾à®°":3347,"Ġà®īà®±à¯ģà®¤à®¿":3348,"Ġwh":3349,"Ġà®ªà®ķà¯įà®ķà®¤à¯įà®¤à®¿à®²à¯į":3350,"à®¿à®ķà¯įà®ķà®¿à®±à®¤à¯ģ":3351,"AT":3352,"Ġà®ķà¯Īà®ªà¯įà®ª":3353,"Ġà®µà®£à¯įà®£à®®à¯į":3354,"ME":3355,"Ġà®ļà¯Ĩà®°à¯ģà®ķ":3356,"à®¾à®ķà®®à¯į":3357,"Ġà®µà®Łà®¿à®ķ":3358,"Ġà®¤à¯ģà®£à¯įà®Ł":3359,"Ġà®ķà®°à¯ģà®¤":3360,"à®īà®²à®ķ":3361,"âĻ":3362,"âĻª":3363,"Ġà®ħà®°à®ļ":3364,"Ġà®®à¯Ģà®¤":3365,"Ġà®İà®£à¯į":3366,"Ġà®¨à®¿à®²à¯Īà®¤à¯įà®¤":3367,"à®ªà®¿à®±à®ķà¯ģ":3368,"Ġà®¨à®©à¯įà®ķà®±à®¿à®ªà®µà®©à¯į":3369,"à®ªà¯Ĥà®®à®¿à®¯à®¿à®²à¯į":3370,"à®¿à®Ļà¯įà®ķ":3371,"à®¤à®¾à®²à¯į":3372,"à®¾à®¤à¯į":3373,"à®¿à®¤à¯įà®¤à®¾à®°à¯į":3374,"Ġà®ħà®ªà¯įà®ªà®¾à®²à¯į":3375,"Ġà®µà®¿à®Łà¯įà®Łà®©":3376,"à®®à®¿à®ķ":3377,"Ġ(_":3378,"Ġà®®à¯ĩà®²à¯ĩ":3379,"à®°à¯įà®¨à¯įà®¤":3380,"Ġà®ĩà®©à¯į":3381,"Ġà®īà®Ļà¯įà®ķà®³à¯ģà®ķà¯įà®ķà¯ģà®ªà¯į":3382,"Ġà®µà®ļà®¤":3383,"%s":3384,"Ġà®µà®¾à®ķà¯įà®ķà¯ģ":3385,"Ġà®ķà¯ĭà®ªà¯įà®ªà¯ģà®ķà®³à¯į":3386,"Ġà®°à®¹à¯įà®®à®¤à¯įà®¤":3387,"Ġà®®à®©à¯įà®©à®¿à®ªà¯įà®ªà¯ģà®ķà¯į":3388,"Ġà®Ĩà®±à¯ģà®ķà®³à¯į":3389,"Ġà®īà®®à®¤à¯ģ":3390,"Ġà®ħà®©à¯ģà®ªà¯įà®ªà®¿à®©à¯ĭà®®à¯į":3391,"Ġà®ļà®¿à®±à®¿à®¯":3392,"à¯ģà®µà®¤à®¿à®²à¯į":3393,"à®ħà®µà®°à¯įà®ķà®³à®¿à®Łà®®à¯į":3394,"à®ķà¯įà®ķà®¤à¯įà®¤à®¿à®±à¯įà®ķà¯ģà®°à®¿à®¯":3395,"Ġà®ªà¯Ĩà®¾à®°à¯ģà®³à¯Īà®¯à¯ģà®®à¯į":3396,"à¯ģà®ļà¯įà®ļà¯Ĭ":3397,"Ġsh":3398,"Ġà®¤à®µà®£à¯Ī":3399,"à®¾à®ĥà®ª":3400,"Ġà®®à®Ł":3401,"Ġà®ĩà®Łà¯Īà®¯à¯ĩ":3402,"à®Ļà¯įà®ķà®³à¯Īà®ļà¯į":3403,"Ġà®®à¯ģà®ĥà®®à®¿à®©à¯įà®ķà®³à¯į":3404,"Ġà®Ĩà®²":3405,"à¯ģà®ķà¯įà®ķà¯Ĩà®²à¯įà®²à®¾à®®à¯į":3406,"Ġà®ļà®¨à¯įà®¤à¯ĩ":3407,"Ġà®ļà®Ļà¯įà®ķ":3408,"Ġà®ĩà®±à®ķà¯įà®ķà®ªà¯įà®ªà®Łà¯įà®Ł":3409,"Ġà®ķà¯Ĩà®¾à®³à¯įà®³à®¾à®¤à¯Ģà®°à¯įà®ķà®³à¯į":3410,"Ġà®ħà®¤à¯ģà®µà¯ĩ":3411,"Ġà®ķà¯Ĩà®¾à®³à¯įà®ª":3412,"(à®ķà¯į":3413,"Ġà®ĩà®°à¯ģà®¨à¯įà®¤à®¾à®°à¯įà®ķà®³à¯į":3414,"à®Ĩà®¯à®¿à®©à¯ģà®®à¯į":3415,"à®ªà®Łà¯įà®ļ":3416,"à®¹à®¾à®°à¯įà®Łà¯įà®¸à®¿à®©à¯į":3417,"à®µà®±à¯įà®±à¯Īà®¯à¯Ĩà®²à¯įà®²à®¾à®®à¯į":3418,"Ġà®¨à¯Ĩà®ŀà¯įà®ļ":3419,"Ġà®®à¯ģà®±à¯įà®ªà®Łà¯įà®Ł":3420,"ĠName":3421,"ent":3422,"à®¤à¯Īà®¯à¯ĩ":3423,"à®İà®µà®°à¯į":3424,"Ġà®¨à®¿à®°à®¾à®ķà®°à®¿à®ķà¯įà®ķà®¿à®±":3425,"Ġà®ļà¯ĭà®¤":3426,"Ġà®ķà®²à¯įà®µ":3427,"Ġà®Ĵà®²":3428,"Ġà®®à®Łà¯įà®Łà¯ģà®®à¯ĩ":3429,"à®Ļà¯įà®ķà®¿à®ķà¯į":3430,"à¯Ģà®°à¯įà®ķà®³à®¾à®¯à®¿à®©à¯į":3431,"à®®à®¿à®©à¯į":3432,"Ġà®¤à®°à¯įà®®":3433,"SL":3434,"Ġà®ļà®°à®¿à®¯à®¾à®©":3435,"à®ħà®©à¯Īà®¤à¯įà®¤à¯ģ":3436,"Ġà®²à¯Ĥ":3437,"Ġà®µà®°à®²":3438,"à®°à®¿à®©à¯į":3439,"Ġà®ĩà®®à¯įà®®":3440,"Ġà®µà®¿à®Łà¯ģà®ķà®¿à®±à®¾à®©à¯į":3441,"à¯ĩà®¾à®°à®¾à®ķ":3442,"Ġà®ªà®ķà¯įà®ķà®®à¯ĩ":3443,"(à®µà¯įà®µ":3444,"à®İà®¤à®¿à®°":3445,"nu":3446,"à¯Ĥà®©à¯į":3447,"Ġà®®à¯Ĩà®¾à®´":3448,"à®¤à®¿à®Ł":3449,"à®Ĩà®®à¯į":3450,"à®¾à®®à®²à¯ģà®®à¯į":3451,"à®¤à®¿à®Łà¯įà®Ł":3452,"Ġà®¨à®¿à®©à¯įà®±à¯ģà®®à¯į":3453,"à®īà®Ļà¯įà®ķà®³à®¿à®²à¯į":3454,"à¯Ĩà®°à®¿à®¯":3455,"Ġand":3456,"Ġà®¨à®¾à®Ļ":3457,"Ġà®ªà®¾à®¤à¯Īà®¯à¯Ī":3458,"Ġà®®à®¾à®©":3459,"Ġà®ªà®¯à®©à¯įà®ªà®Łà¯ģà®¤à¯įà®¤à¯ģ":3460,"Ġà®ĩà®µà®°à¯įà®ķà®³à¯Ī":3461,"Ġà®ªà®¾à®°à¯įà®¤à¯įà®¤à¯ģ":3462,"Ġà®µà®¿à®°à¯Īà®µà®¿à®²à¯į":3463,"ph":3464,"à®¿à®İ":3465,"Ġà®ļà¯Ĭà®°à¯ģà®ķ":3466,"à¯įà®ªà¯įà®ªà¯ģ":3467,"Ġà®ļà®¾à®©à¯įà®±":3468,"à®®à¯ĩà®±à¯įà®ķà¯ģ":3469,"à®ĩà®µà¯Ī":3470,"Ġà®¨à®ķà®°à¯įà®¤à¯įà®¤":3471,"Ġà®µà®¿à®°à¯ģà®®à¯įà®ªà¯ģà®ķà®¿à®±à¯Ģà®°à¯įà®ķà®³à®¾":3472,"Ġà®ªà¯Ĩà®¯à®°à¯Ī":3473,"Ġà®īà®Łà®©à¯įà®ª":3474,"Ġà®¨à¯Ĩà®°à¯ģà®ķà¯įà®ķ":3475,"Ġà®ļà®¾à®°à¯įà®¨à¯įà®¤":3476,"Ġà®®à¯ĩà®±à¯įà®ķ":3477,"à®¿à®ªà¯įà®ªà¯ĩà®¾à®®à¯į":3478,"à¯Īà®¯à¯Īà®ļà¯į":3479,"vi":3480,"à®µà®°à¯įà®ķà®³à¯Īà®¤à¯į":3481,"à®²à¯Ĥ":3482,"Ġà®¨à®¿à®©à¯Īà®¤à¯įà®¤":3483,"Ġà®Ĵà®µà¯įà®µà¯ĩà®¾à®°à¯į":3484,"Ġà®ªà¯Ĩà®¾à®´à¯ģà®¤à¯ģ":3485,"Ġà®Ĩà®Łà¯įà®ļà®¿":3486,"Ġà®ķà¯Ĩà®¾à®£à¯įà®Łà®¾à®°à¯į":3487,"Ġà®ļà¯Ĩà®¯à¯įà®¤à®¾à®²à¯ģà®®à¯į":3488,"Ġà®īà®°à®¿à®®":3489,"Ġà®Ĩà®ķà¯įà®ķà®¿":3490,"Ġà®µà®¿à®°à¯Īà®¨à¯įà®¤à¯ģ":3491,"à¯ĩà®°à¯į":3492,"Ġà®¯à®¾à®µà®±à¯įà®±à¯Īà®¯à¯ģà®®à¯į":3493,"Ġà®®à¯ģà®ĥà®®à®¿à®©à¯įà®ķà®³à¯ģà®ķà¯įà®ķà¯ģ":3494,"à®¿à®ľ":3495,"à®ªà¯įà®²à¯Ģ":3496,"Ġà®ķà®Łà®®à¯Īà®¯":3497,"à®¿à®Ļà¯į":3498,"Ġà®ªà¯ģà®°à®¿à®¯":3499,"Ġà®¯à®¾à®µà¯ģà®®à¯į":3500,"à¯Ģà®Ł":3501,"Ġà®ļà¯ĩà®°à¯įà®¤à¯įà®¤à¯ģ":3502,"Ġà®ķà¯Ĥà®±à¯ģà®ª":3503,"Ġà®īà®®à¯įà®®à¯Ģà®¤à¯ģ":3504,"à¯ĩà®¾à®©à¯ģà®®à¯į":3505,"Ġà®ķà¯ĩà®Łà¯įà®ªà¯Ģà®°à®¾à®ķ":3506,"à®ķà¯Īà®¯à¯ĩà®¾à®°à¯į":3507,"Ġà®ķà¯ĩà®³à¯įà®µà®¿":3508,"à¯ģà®²à¯Ī":3509,"à®ªà®¿à®®à¯įà®ª":3510,"Ġà®®à¯ģà®ĥà®®à®¿à®©à¯įà®ķà®³à®¾à®ķ":3511,"Ġà®ķà®¾à®£à¯įà®ªà¯Ģà®°à¯į":3512,"as":3513,"à®¿à®©à®¾à®°à¯įà®ķà®³à¯į":3514,"Ġà®ĩà®µà®°à¯įà®ķà®³à¯ģà®Łà¯Īà®¯":3515,"à¯Ĥà®²à®¿":3516,"Ġà®ħà®µà®©à¯Īà®¯à®©à¯įà®±à®¿":3517,"à®ªà®Łà®¿":3518,"à®µà¯ģà®®à®¿à®²à¯įà®²à¯Ī":3519,"Ġà®ªà®¤à®¿à®µ":3520,"Ġà®Ĩà®£à¯į":3521,"à¯ģà®ķà®¿à®±à®¾à®°à¯ĩà®¾":3522,"à¯įà®ķà®¿à®±à®¤à¯ģ":3523,"Ġà®īà®®à®ķà¯įà®ķà¯ģà®ķà¯į":3524,"à®°à¯įà®ķà®³à¯ģà®®à¯į":3525,"Ġla":3526,"Ġà®¤à®Łà¯įà®Ł":3527,"Ġà®İà®µà®©":3528,"Ġà®®à¯ģà®©à¯įà®ª":3529,"à®°à¯ĭ":3530,"à®¾à®ĥà®ªà®¿à®°":3531,"à®īà®Ļà¯įà®ķà®³à¯ģà®Łà¯Īà®¯":3532,"à¯įà®ķà®¾à®£":3533,"à®¤à®ķà¯įà®ķ":3534,"à¯Īà®ķà¯įà®ķà¯ģà®°à®¿à®¯":3535,"Ġà®µà®°à¯ģà®Ł":3536,"Ġcon":3537,"à¯įà®ĥà®ª":3538,"Ġà®ķà¯Ĩà®¾à®³à¯įà®ķà®¿à®±à®¾à®°à¯įà®ķà®³à¯į":3539,"Ġà®µà®¾à®©à®Ļà¯įà®ķà®³à®¿à®²à¯ģà®®à¯į":3540,"Ġà®¨à¯Ģà®°à¯ģà®®à¯į":3541,"Ġà®ªà®¤à®¿à®²à®¾à®ķ":3542,"Ġà®ħà®µà®°à¯ģà®Łà®©à¯į":3543,"Ġà®ĩà®°à¯ģà®¤à®¯à®Ļà¯įà®ķà®³à¯į":3544,"Ġà®ªà®Łà®¿":3545,"Ġà®ªà®¿à®©à¯įà®©à®¾à®²à¯į":3546,"Ġà®Ĵà®°à¯ģà®µà®°à®¾à®ķ":3547,"(à®©à¯į":3548,"à®ķà¯įà®³":3549,"Ġà®ħà®Ļà¯įà®ķ":3550,"Ġà®ªà®¯à®¨à¯įà®¤à¯ģ":3551,"Ġà®ħà®Ļà¯įà®ķà¯ĩ":3552,"à®¿à®Łà®®à®¿à®°à¯ģà®¨à¯įà®¤":3553,"Ġà®ķà¯ģà®Łà¯ģà®®à¯įà®ªà®¤à¯įà®¤à®¾à®°":3554,"Ġà®ļà¯Ĩà®¯à®²à¯įà®ªà®Łà¯ģà®¤à¯įà®¤":3555,"Ġà®®à®¾à®Łà¯įà®Łà®¾à®¤à¯ģ":3556,"Ġà®ļà¯ģà®¤à¯įà®¤":3557,"Ġà®µà¯Ĩà®³à®¿à®ªà¯įà®ªà®Ł":3558,"Ġbut":3559,"à®²à¯įà®ķà®³à¯Ī":3560,"à¯ĩà®¾à®°à¯ģà®ķà¯įà®ķà¯ģà®®à¯į":3561,"Ġà®¤à®²à¯Īà®ªà¯įà®ªà¯ģ":3562,"Ġà®ªà¯Ĩà®°à¯ģà®®à¯Ī":3563,"à®īà®¯à®¿à®°":3564,"à®Ļà¯įà®ķà®³à®¿à®²à®¿à®°à¯ģà®¨à¯įà®¤à¯ģ":3565,"(à®ķà®³":3566,"Ġà®¨à®Łà®¤à¯įà®¤":3567,"Ġà®ªà®ķà¯ģà®¤à®¿":3568,"Ġ...čĊ":3569,"à®¤à®µà®±":3570,"Ġà®ķà¯ģà®±à¯Īà®¨à¯įà®¤":3571,"Ġà®µà®¾":3572,"Ġà®ĩà®°à¯ģà®³":3573,"à¯Īà®¯à¯Īà®¤à¯į":3574,"Ġà®ªà¯Ĩà®¾à®°à¯ģà®Łà¯įà®ķà®³à¯į":3575,"Ġà®ķà¯ĩà®Łà¯įà®Łà®¾à®°à¯į":3576,"ĠX":3577,"à®®à®£à¯įà®Łà®¿à®©à¯į":3578,"à®¨à¯Ģà®Ļà¯įà®ķà®³":3579,"à¯įà®ľà®¿à®©":3580,"à®µà®°à¯įà®ķà®³à®¿à®Łà®®à¯į":3581,"Ġà®ħà®¤à®¿à®ķà®®à®¾à®ķ":3582,"Ġà®Ĩà®ļà¯įà®ļà®°à®¿à®¯":3583,"à®¤à®¿à®©à¯į":3584,"Ġà®¤à®¾à®´":3585,"à¯įà®ķà®³à¯Īà®ªà¯į":3586,"à®¿à®©à®¾à®²":3587,"à®Łà¯įà®Łà®µà®£à¯Ī":3588,"à®°à®Ļà¯įà®ķ":3589,"ub":3590,"art":3591,"Ġà®¤à¯ģà®Ł":3592,"Ġ()":3593,"Ġà®¤à®µà®±à®¾à®©":3594,"à¯įà®ªà®Łà¯ģà®¤à¯įà®¤":3595,"Ġà®īà®¤à®¾à®°à®£à®®à¯į":3596,"Ġà®¤à®µà¯įà®ªà®¾":3597,"Ġà®ħà®£à¯ģà®ķ":3598,"Ġà®Ĩà®°à®®à¯įà®ª":3599,"à®İà®¤":3600,"à®¿à®°à¯ģà®µà®°à¯ģà®®à¯į":3601,"Ġà®ªà®¾à®°à¯įà®¤à¯įà®¤à¯ģà®ķà¯į":3602,"Ġà®ķà®±à¯įà®±à¯ģà®ķà¯į":3603,"à¯Ĭà®°à¯ģà®³à¯į":3604,"à®ªà®¯à®©à¯įà®ª":3605,"Ġà®ªà®¿à®°à®¯":3606,"à®¾à®£à¯įà®Łà¯į":3607,"à®µà®©à¯ĩ":3608,"Ġà®ªà®Łà®¿à®ªà¯įà®ª":3609,"Ġà®ĩà®¯à®²à®¾à®¤":3610,")\"":3611,"Ġà®¨à®²":3612,"Ġà®ıà®©à¯Ĩà®©à¯įà®±à®¾à®²à¯į":3613,"à¯Ĩà®¯à¯į":3614,"à®¾à®©à¯Ī":3615,"Ġà®¨à®±à¯įà®ķà¯Ĥà®²à®¿":3616,"à¯įà®ľà®¿à®©à®¿à®¯à®¾":3617,"Ġà®ħà®²à¯įà®²à®¾à®¹à¯įà®µà¯Īà®¤à¯į":3618,"à®±à¯įà®ļà¯Ĩà®¯":3619,"à®®à®¾à®Łà¯įà®Łà¯Ģà®°à¯į":3620,"à®¤à¯Ĥà®¤":3621,"Ġà®ªà®¾à®µà®Ļà¯įà®ķà®³à¯Ī":3622,"à®¨à®¿à®±à¯ģà®¤à¯įà®¤":3623,"Ġà®¤à®®à®ķà¯įà®ķà¯ģà®¤à¯į":3624,"Ġà®ļà®¨à¯įà®¤à®¤":3625,"à®ħà®µà®©à¯ģà®Łà¯Īà®¯":3626,"Ġà®İà®¨à¯įà®¤à®ªà¯į":3627,"Ġà®®à®°à®£à®®à¯į":3628,"à®¾à®ªà¯į":3629,"Ġà®µà®¿à®±à¯įà®ľà®¿à®©à®¿à®¯à®¾":3630,"Ġà®ĩà®°à¯ģà®ķà¯įà®ķà®¿à®©à¯įà®±à¯ĩà®¾à®®à¯į":3631,"oo":3632,"à¯ĩà®Łà®¿à®©à¯į":3633,"à®²à®¾à®©":3634,"à¯Ģà®©à¯į":3635,"Ġà®ħà®±à®¿à®ķà®¿à®±à®¾à®©à¯į":3636,"à¯įà®°à¯ģ":3637,"Ġà®ľà¯ĭ":3638,"à®ªà®¿":3639,"Ġà®ħà®µà®ķà®¾à®ļà®®à¯į":3640,"Generic":3641,"à®¾City":3642,"Ġà®ħà®®à®²à¯įà®ķà®³à¯į":3643,"Ġà®ķà¯Ĩà®¾à®Łà¯ģà®ķà¯įà®ķà®ªà¯įà®ªà®Ł":3644,"Ġà®ķà¯Ĩà®¾à®£à¯įà®Łà¯ģà®µà®°":3645,"Ġà®ĩà®°à¯ģà®ªà¯įà®ªà¯Ģà®°à®¾à®ķ":3646,"Ġà®®à¯ģà®¸à¯įà®²à®¿à®®":3647,"à®¿à®µà¯Īà®¤à¯įà®¤":3648,"Ġà®µà®¿à®³à¯Īà®¯à®¾à®Ł":3649,"à®ĩà®®à¯įà®®":3650,"Ġà®µà®¿à®Łà¯įà®Łà¯ģà®ļà¯į":3651,"Ġà®¨à®¾à®¯à®©":3652,"Ġà®ªà®¾à®µà®®à¯į":3653,"Ġà®¨à¯ĩà®¾à®¯":3654,")à®ķà¯į":3655,"Ġà®¤à®¾à®®":3656,"Ġà®ĩà®°à¯ģà®Ļà¯įà®ķà®³à¯į":3657,"à®¸à¯įà®ªà¯ĩà®Łà®¿à®©à¯į":3658,"Ġà®İà®¤à¯įà®¤à®©à¯Īà®¯à¯ĩà®¾":3659,"ind":3660,"Ġà®¤à®¿à®©":3661,"à®°à¯ģà®ķà¯įà®ķà¯ģà®®à¯į":3662,"Ġà®¹à®°à®¾à®®":3663,"Ġà®µà®ļà®©à®Ļà¯įà®ķà®³à¯į":3664,"Ġà®¤à¯Ĥà®¤à®°à¯ģà®®à¯į":3665,"ucking":3666,"¤à¯įà®¤":3667,"Ġà®µà¯Ĩà®³à¯įà®³":3668,"à®ħà®ķà¯įà®ķ":3669,"Ġà®ªà¯Ĩà®±à¯įà®±à¯ģà®ķà¯į":3670,"à®±à®¿à®µ":3671,"Ġà®ļà®®à¯Ĥà®ķà®¤à¯įà®¤à®¾à®°à®¿à®Łà®®à¯į":3672,"à¯Īà®ķà¯įà®ķà®¾à®ķ":3673,"à®ıà®¯à¯į":3674,"à®¿à®°à¯ģà®ªà¯įà®ªà®¾à®°à¯įà®ķà®³à¯į":3675,"Ġà®®à¯ģà®©à¯įà®©à®°à¯ĩ":3676,"Ġà®¤à®Ļà¯įà®ķà®³à¯Ī":3677,"à¯ģà®®à®¾à®ķ":3678,"à®¾à®µà®¿à®²à¯į":3679,"Ġà®µà¯ĩà®¤à®©à¯Īà®¯à¯Īà®ķà¯į":3680,"Ġà®ħà®²à¯įà®²à®¾à®¹à¯įà®µà¯Īà®¯à¯ģà®®à¯į":3681,"Ġà®ĩà®±à¯Īà®µà®©à®¿à®Łà®¤à¯įà®¤à®¿à®²à¯į":3682,"à®Łà¯Īà®µ":3683,"Ġà®ķà®µà®©à®¿à®¤à¯įà®¤":3684,"Ġà®®à®¯":3685,"Ġà®®à®¾à®Łà¯įà®Łà¯ĩà®©à¯į":3686,"Ġà®ªà®¿à®Łà®¿à®¤à¯įà®¤":3687,"Ġà®İà®±à®¿à®¯":3688,"Ġ@":3689,"Ġà®¤à®¿à®°à¯ģà®ªà¯įà®ªà®¿":3690,"ĠH":3691,"Ġà®ļà®®à®®à®¾à®ķ":3692,"à®®à®Łà¯įà®Ł":3693,"à®¾à®µà®¤à®¾à®ķ":3694,"Ġà®¨à®¿à®©à¯Īà®µà¯Ĥà®Łà¯įà®Ł":3695,"Ġà®ļà¯Ĩà®µà®¿à®¯à¯ģà®±":3696,"Ġus":3697,"à®®à®¯":3698,"à®ļà®¾à®¤":3699,"à¯Ĩà®°à®¿à®ķà¯įà®ķ":3700,"à¯ĩà®¾à®®à®¾":3701,"à®µà¯Īà®¯à®¾à®ķ":3702,"Ġà®®à¯ģà®¨à¯įà®¤à®¿à®¯":3703,"à®¨à®¿à®²à¯Ī":3704,"à®ķà¯Ģà®´à¯į":3705,"Ġà®ªà¯Ĥ":3706,"à¯ģà®ªà®Łà¯įà®Ł":3707,"Ġà®ķà®µà®²à¯Ī":3708,"à®¿à®²à¯įà®²à®¾à®®à®²à¯į":3709,"tur":3710,"Ġà®ļà¯Ĩà®¯à®²à¯įà®ķà®³à¯į":3711,"à¯įà®®à¯Ģà®¤à¯ģ":3712,"Ġà®ĩà®Łà¯Īà®µà¯Ĩà®³":3713,"Ġà®ªà®¿à®£":3714,"à®İà®Ļà¯įà®ķà®³":3715,"à®¤à®±à¯įà®ķà¯ģà®®à¯į":3716,"Ġà®īà®±à¯ģà®¤à®¿à®ªà¯įà®ªà®Łà¯ģà®¤à¯įà®¤":3717,"à®¿à®¸à¯įà®ķ":3718,"Ġà®ķà¯Ĩà®¾à®Łà®¿à®¯":3719,"ile":3720,"à®°à®¾à®ķ":3721,"Ġà®ĵà®Łà®¿à®ķà¯įà®ķ":3722,"\"à®ĩ":3723,"Ġà®¨à®®à¯įà®®à¯Ī":3724,"à®ħà®¤à¯įà®¤":3725,"Ġà®ħà®²à®Ļà¯įà®ķà®¾à®°":3726,"Ġà®ļà¯Ĥà®´à¯įà®ļà¯įà®ļà®¿":3727,"à¯įà®®à®¾à®©":3728,"Ġà®Ĩà®¤à®²à®¾à®²à¯į":3729,"(à®ª":3730,"à®¿à®ķà®³à¯Īà®ķà¯į":3731,"Ġà®µà®¨à¯įà®¤à®¾à®°à¯įà®ķà®³à¯į":3732,"à®ħà®µà®©à¯Ī":3733,"à®²à®¾à®®":3734,"Ġà®īà®°à¯Īà®¯à®¾à®Ł":3735,"à¯ģà®µà®¿à®Łà¯įà®Łà®¾à®²à¯į":3736,"à®ķà®¿à®°":3737,"Ġà®¤à®¿à®°à¯ģà®®à¯įà®ªà®¿à®ļà¯į":3738,"à®ĩà®¤à¯įà®¤":3739,"Ġà®īà®Łà®©à¯į":3740,"Ġà®ķà®¾à®²à¯į":3741,"à®µà®¿à®²":3742,"Ġà®ªà®¿à®©à¯įà®ªà¯ģ":3743,"à¯įà®ķà®¾à®°":3744,"à¯įà®Łà®©à¯į":3745,"à¯ģà®ķà¯įà®ķà®³à¯Ī":3746,"Ġà®ħà®µà¯įà®µà®¾à®±à¯ĩ":3747,"Ġà®ļà¯ģà®´":3748,"Ġà®®à®ķà®©à¯į":3749,"Ġà®ķà¯ģà®°à¯įà®Ĩà®©à¯į":3750,"Ġà®ķà¯Ĥà®Łà¯įà®Łà®¤à¯įà®¤à®¾à®°à¯į":3751,"à¯įà®ľà®¿à®¤":3752,"à¯Ĩà®Łà¯įà®Ł":3753,"à¯ĩà®¾à®°à¯Īà®¯à¯ģà®®à¯į":3754,"à®ħà®¤à®©à¯Ī":3755,"Ġà®ĩà®£à¯Īà®µà¯Īà®ªà¯įà®ª":3756,"à®µà®°à¯įà®ķà®³à¯ģà®ķà¯įà®ķà¯ģà®®à¯į":3757,"Ġà®ħà®²à¯įà®²à®¾à®¹à¯įà®µà¯ģà®®à¯į":3758,"à®ħà®µà®°à¯Ī":3759,"Ġà®ļà¯ģà®±à¯įà®±à®¿":3760,"Ġà®µà®´à®¿à®ķà¯ĩà®Łà¯įà®Łà®¿à®²à¯į":3761,"Ġà®¨à®¿à®°à®¾à®ķà®°à®¿à®ªà¯įà®ªà®µà®°à¯įà®ķà®³à¯į":3762,"(à®¤à¯ģ":3763,"à®¾à®ķà¯įà®ķà®¿à®ķà¯į":3764,"Ġà®¨à®°à®ķà®¤à¯įà®¤à®¿à®²à¯į":3765,"Ġà®¤à®¿à®Łà¯įà®Łà®®à¯į":3766,"Ġà®ķà¯ģà®®":3767,"ers":3768,"Ġà®¨à®¾à®©à¯įà®ķà¯ģ":3769,"à®¾à®³à®¿à®ķ":3770,"à¯Ĥà®¹":3771,"Ġà®ķà®Łà¯Īà®ªà¯įà®ªà®¿à®Ł":3772,"Ġà®¯à®¾à®°à¯ģà®®à¯į":3773,"à®¿à®¯à¯ģà®³à¯įà®³à¯ĩà®¾à®®à¯į":3774,"ĠW":3775,"à®µà®¾à®©à®Ļà¯įà®ķà®³":3776,"à¯Ĩà®©à¯įà®ª":3777,"(à®ļ":3778,"à®¾à®Łà¯įà®Łà®¿":3779,"Ġà®¤à®²à¯Īà®®à¯ģà®±":3780,"tt":3781,"à¯ģà®©à®¿à®¤":3782,"Ġà®ķà¯Ĩà®¾à®³à¯įà®µà¯Ģà®°à®¾à®ķ":3783,"Ġà®ĩà®±à®ķà¯įà®ķà¯ģà®®à®¤à®¿":3784,"Ġà®¤à®¿à®Łà®©à®¾à®ķ":3785,"Ġà®®à®ķà¯įà®ķà®³à¯Ī":3786,"à¯ĩà®¾à®²":3787,"à¯ģà®µà®¿à®Łà¯įà®Łà®¤à¯ģ":3788,"Ġà®ħà®µà®°à®¿à®Łà®®à¯į":3789,"Ġà®¨à®·à¯įà®Łà®®":3790,"Ġà®ļà¯ĩà®°à¯įà®¤à¯įà®¤":3791,"à®Łà¯Īà®®à®£à¯įà®Łà®¿à®©à¯į":3792,"Ġà®ªà®°à®¾à®®":3793,"Ġà®ħà®Łà®¿à®®":3794,"à®µà¯ĩà®£à¯įà®Łà®¿à®¯":3795,"à®±à¯ģà®®à¯į":3796,"Ġà®µà¯Ĩà®Łà¯įà®Ł":3797,"à®Łà¯įà®ķ":3798,"Ġà®µà¯Ģà®Łà¯įà®Ł":3799,"Ġà®ĩà®°à¯ģà®ķà¯įà®ķà®¿à®©à¯įà®±à¯ĩà®©à¯į":3800,"Ġà®ķà¯Ĩà®¾à®´":3801,"Ġà®ļà¯Ĩà®¯à¯įà®ķà®¿à®±à®¾à®°à¯įà®ķà®³à¯į":3802,"Ġà®ķà®¾à®£à®µà®¿à®²à¯įà®²à¯Ī":3803,"Ġà®Ĵà®²à®¿":3804,"Ġà®¤à¯Ĩà®°à®¿à®¯à®¾à®¤à¯ģ":3805,"Ġà®¤à¯Ĩà®¾à®ķ":3806,"à®¯à®¾à®°à¯į":3807,"à¯įà®ªà®¾à®©":3808,"IS":3809,"Ġà®¨à¯Ģà®¯à¯ĩ":3810,"Ġun":3811,"Ġà®µà®´à®ķà¯įà®ķ":3812,"Ġà®®à¯Īà®¯":3813,"Ġà®ħà®¨à¯įà®¤à®°à®Ļà¯įà®ķ":3814,"Ġà®ķà®£à¯įà®Łà¯ģà®ªà®¿à®Łà®¿à®ķà¯įà®ķ":3815,"Ġà®ªà®Ļà¯įà®ķ":3816,"tin":3817,"Ġà®¨à¯ģà®´à¯Īà®¯":3818,"Ġà®¨à®¾à®Łà¯įà®ķà®³à®¿à®²à¯į":3819,"à¯įà®µà¯Ī":3820,"à®¾à®µà®¿à®©à¯į":3821,"à®©à®µà¯ĩ":3822,"à¯įà®¤à¯įà®¤à®¿":3823,"à¯ģà®ķà®¿à®±à¯Ģà®°à¯įà®ķà®³à®¾":3824,"Ġà®ļà¯Ĥà®©à®¿à®¯à®ķà¯įà®ķà®¾à®°":3825,"Ġà®ļà¯Ĩà®¯à¯įà®¤à®¾à®°à¯įà®ķà®³à¯į":3826,"à®Łà¯Īà®¯à¯ģà®®à¯į":3827,"Ġr":3828,"à®©à¯įà®Ł":3829,"Ġà®ħà®°à¯ģà®ķ":3830,"à¯ĭà®Łà¯ģ":3831,"à®®à¯Ĥà®¤à¯ģ":3832,"Ġà®¨à®¿à®°à®¾à®ķà®°à®¿à®ķà¯įà®ķà®¿à®©à¯įà®±":3833,"Ġà®¨à®¿à®°à¯įà®µ":3834,"Ġà®ªà®ķà®²":3835,"Ġà®¤à¯Ĥà®¯à¯įà®®à¯Īà®¯":3836,"Ġà®ĩà®°à¯ģà®ķà¯įà®ķà®¿à®©à¯įà®±à®¤à¯ģ":3837,"Ġà®ķà¯ĩà®Łà¯įà®Łà®¾à®©à¯į":3838,"Ġà®µà®²à®¤à¯ģ":3839,"jec":3840,"Ġà®ķà¯Ģà®´à¯į":3841,"Ġà®ªà¯ģà®°à®¿à®µ":3842,"à®ķà®¤à¯įà®¤à®¿à®²à¯į":3843,"Ġà®ħà®¤à®¿à®ķà®ªà¯įà®ªà®Łà¯ģà®¤à¯įà®¤":3844,"Ġà®ķà¯ĩà®Łà¯įà®Łà¯ģ":3845,"Ġà®µà®¿à®²à¯įà®²":3846,"Ġà®¨à®¾à®®":3847,"Ġà®ħà®¤à¯Īà®¤à¯į":3848,"Ġà®ħà®µà®³à¯Ī":3849,"à®¾à®³à®©à¯į":3850,"Ġà®ĩà®£à¯Īà®ªà¯įà®ªà¯ģ":3851,"à®µà®±à¯įà®±à¯Īà®ªà¯į":3852,"Ġà®¯à¯Ĥà®¸à¯ģà®ĥà®ª":3853,"Ġà®ĩà®²à¯įà®²à¯Īà®¯à®¾":3854,"Ġà®ħà®µà®°à¯įà®ķà®³à¯ĩà®¾":3855,"à®ķà¯įà®ķà®°":3856,"Ġà®µà®¿à®Łà¯ģà®µà®¾à®©à¯į":3857,"Ġà®ħà®²à¯įà®²à®¾à®¹à¯įà®µà¯Īà®¯à¯ĩ":3858,"(à®¨à¯įà®¤":3859,"à®¾à®ķà®ļà¯į":3860,"Ġà®Ĩà®µà®¾à®©à¯į":3861,"à¯ĩà®¾à®°à®¾à®ķà®µà¯ģà®®à¯į":3862,"à®ħà®Ļà¯įà®ķà¯ģ":3863,"Ġà®ľà®ķà®¾à®¤à¯įà®¤":3864,"Ġà®µà¯ĩà®¤à®©à¯Īà®¯à¯Īà®ļà¯į":3865,"Ġà®īà®Łà®©à¯ĩ":3866,"Ġà®ķà®£à®¿à®©":3867,"oun":3868,"à¯Ĥà®Ł":3869,"Ġà®®à®±à¯ģà®®à¯Īà®¯à®¿à®²à¯ģà®®à¯į":3870,"Ġà®ħà®µà®°à¯įà®ķà®³à¯ģà®ķà¯įà®ķà¯ģà®®à¯į":3871,"à¯ģà®µà®¤à®±à¯įà®ķà®¾à®ķà®µà¯ģà®®à¯į":3872,"Ġà®ħà®µà®°à®¤à¯ģ":3873,"Ġà®Ĵà®°à¯ģà®µà®©à¯į":3874,"id":3875,"Ġà®īà®£à¯įà®®à¯Īà®¯à¯Īà®ķà¯į":3876,"Ġà®®à¯ģà®³":3877,"Ġà®ķà¯Ĥà®²à®¿à®¯à¯Ī":3878,"à®µà®¿à®²à¯įà®²à¯Īà®¯":3879,"à¯įà®¨à®Ł":3880,"Ġà®®à¯Ģà®±à®¿":3881,"Ġà®ħà®µà®°à¯įà®ķà®³à®¿à®Łà¯Īà®¯à¯ĩ":3882,"Ġse":3883,"Ġà®ħà®µà®©à¯įà®¤à®¾à®©à¯į":3884,"à®¤à®ķ":3885,"à®¸à®¾à®²à®¿à®¹à®¾à®©":3886,"Ġà®ļà¯Ĩà®¯à¯įà®ªà®µà®±à¯įà®±à¯Ī":3887,"à®¾à®¸à¯į":3888,"à®¤à¯įà®¤à®¿à®©à®¾à®²à¯į":3889,"Ġà®¤à®£à¯įà®£à¯Ģà®°à¯į":3890,"Ġà®ªà®¿à®°à®¯à®¾à®£":3891,"Ġà®Ĭà®°":3892,"Ġà®®à¯ģà®´à¯ģ":3893,"Ġà®¤à¯Ĩà®¯à¯įà®µà®Ļà¯įà®ķà®³à¯Ī":3894,"Ġà®®à¯ģà®Łà®¿à®¨à¯įà®¤":3895,"Ġà®¨à®±à¯įà®ķà®°à¯ģà®®à®Ļà¯įà®ķà®³à¯į":3896,"Ġà®¤à¯ĩà®¾à®´":3897,"Ġà®µà®°à¯ģà®µ":3898,"Ġà®µà®¿à®·à®¯à®¤à¯įà®¤à®¿à®²à¯į":3899,"ML":3900,"Ġà®ķà¯įà®³":3901,"Ġà®¸à¯ģà®²à¯Ī":3902,"Ġà®īà®Ļà¯įà®ķà®³à¯ģà®ķà¯įà®ķà¯ģà®ļà¯į":3903,"Ġà®ªà¯ĩà®£":3904,"Ġ..čĊ":3905,"Ġà®ĩà®©à¯įà®±à¯ģ":3906,"ould":3907,"Ġà®¨à®ªà®¿à®®à®¾à®°à¯įà®ķà®³":3908,"Ġà®ĩà®¤à®±à¯įà®ķ":3909,"Ġà®ļà®®à¯Ĥà®ķà®¤à¯įà®¤à®¾à®°à¯Ī":3910,"Ġà®ķà¯ĭà®ªà¯įà®ªà®¿à®©à¯Ī":3911,"up":3912,"Ġà®¤à®Łà¯ģà®¤à¯įà®¤à¯ģà®ķà¯į":3913,"à®ªà¯ĭ":3914,"à®¿à®±à¯Ģà®°à¯įà®ķà®³à¯į":3915,"Ġà®ħà®µà®©à¯Īà®¯à¯ĩ":3916,"Ġà®ªà®Łà¯Īà®¤à¯įà®¤à¯ĩà®¾à®®à¯į":3917,"à®¾à®µà®¾à®°à¯įà®ķà®³à¯į":3918,"à®İà®´à¯ģà®¤à¯įà®¤":3919,"Ġà®µà¯ĩà®¤à®®à¯į":3920,"20":3921,"Ġà®ļà®®à¯Ĥà®ķà®¤à¯įà®¤à®¾à®°à¯ĩ":3922,".\"":3923,"à¯Ĩà®Łà¯ģà®¤à¯įà®¤à¯ģ":3924,"à®ĥà®ķà¯Ĥ":3925,"Ġà®µà¯ĩà®¤à®¤à¯įà®¤à¯Īà®¯à¯ģà®®à¯į":3926,"à¯Īà®¯à®¿à®©à®¾à®²à¯į":3927,"Ġà®ķà¯ĩà®Łà¯įà®ķà®¿à®±à®¾à®°à¯įà®ķà®³à¯į":3928,"Ġà®īà®Ļà¯įà®ķà®³à¯Īà®¤à¯į":3929,")à®®à¯į":3930,"ac":3931,"à®µà®¿à®¤":3932,"Ġà®µà¯ĩà®²":3933,"à®¾à®²à®¿à®ķ":3934,"Ġà®ħà®±à®¿à®µà®¿à®ķà¯įà®ķà®ªà¯įà®ªà®Łà¯įà®Ł":3935,"Ġà®ķà®¿à®´":3936,"à¯ģà®µà®¤à¯Īà®¯à¯ģà®®à¯į":3937,"Ġà®ªà®¿à®°à®ķ":3938,"à¯ģà®ķà¯įà®ķà®ªà¯įà®ªà®Łà¯įà®Ł":3939,"à®¾à®µà®²à¯į":3940,"Ġà®®à¯ģà®Łà®¿à®¯à¯ģà®®à®¾":3941,"Ġà®µà®°à¯ģà®¨à¯įà®¤":3942,"à®±à¯Ī":3943,"Ġà®ķà¯Ĩà®¾à®Łà¯ģà®Ļà¯įà®ķà®³à¯į":3944,"à®¿à®±à®¿à®¸":3945,"Ġà®ħà®±à®¿à®µà®¿à®ķà¯įà®ķ":3946,"Ġà®İà®µà¯įà®µà®³à®µà¯ģ":3947,"Ġà®ļà¯Ĩà®µà®¿à®¯à¯ĩà®±à¯įà®ª":3948,"Ġà®ķà®·à¯įà®Ł":3949,"Ġà®ªà¯Ĩà®¾à®°à¯ģà®Łà¯įà®Ł":3950,"Ġde":3951,"Ġà®ªà¯ĩà®¾à®¯à¯į":3952,"à®¾à®ķà¯įà®ķà®ªà¯įà®ªà®Łà¯įà®Ł":3953,"Ġà®ķà¯Ĩà®¾à®³à¯įà®ķà®¿à®±à®¾à®°à¯įà®ķà®³à¯ĩà®¾":3954,"Ġà®¨à¯Ģà®£à¯įà®Ł":3955,"à®µà¯ĩà®£à¯įà®Łà®¾à®®à¯į":3956,"Ġà®ħà®Łà¯ģà®¤à¯įà®¤":3957,"à¯įà®®à¯Īà®¯à¯Ī":3958,"Ġà®ļà¯Ĩà®²à¯įà®²à¯ģà®Ļà¯įà®ķà®³à¯į":3959,"Ġà®ĩà®²à¯į":3960,"Ġà®ķà¯Īà®ªà¯įà®ªà®±à¯įà®±":3961,"Ġà®İà®°":3962,"à¯Ģà®©":3963,"Ġà®ķà®Łà¯Ī":3964,"à¯Ĩà®ķ":3965,"Ġà®ĩà®²à¯įà®²à®¾à®®à®²à¯į":3966,"à®ªà¯įà®ªà®Łà®¿à®ļà¯į":3967,"à®¤à¯Ģà®¯":3968,"à®¾à®©à®¤à¯ģ":3969,"à®®à®²":3970,"à®¿à®¯à¯Īà®ªà¯į":3971,"Ġà®¤à¯Ĥà®£à¯įà®Ł":3972,"Ġà®Ĵà®°à¯ģà®µà®°à¯ģà®ķà¯įà®ķà¯Ĩà®¾à®°à¯ģà®µà®°à¯į":3973,"Ġà®Ĵà®©à¯įà®±à¯Ī":3974,"Ġà®ªà®¿à®°à®¾à®£":3975,"à®¿à®ķà¯įà®ķà®¾à®©":3976,"à®¤à®Ł":3977,"à¯ģà®µà¯Ī":3978,"à®®à®±à¯įà®±à¯ģà®®à¯į":3979,"à®¤à¯įà®¤à¯Īà®¯à¯ģà®Łà¯Īà®¯":3980,"ĠE":3981,"à®ķà®¿à®¯à®¾à®®":3982,"à®ħà®µà®³à¯į":3983,"Ġà®ħà®µà®°à¯įà®ķà®³à¯ĩ":3984,"Ġà®µà¯Ĩà®³à®¿à®¯à®¾à®ķà¯įà®ķ":3985,"Ġà®İà®²":3986,"(à®µà¯į":3987,"Ġà®ªà®¿à®©à¯įà®ªà®±à¯įà®±à®¿":3988,"Ġà®ªà¯Ĭà®°à¯ģà®³à¯į":3989,"à®ĩà®¤à®©à¯Ī":3990,"à®°à¯ģà®³à¯įà®µà®¾à®¯à®¾à®ķ":3991,"Ġà®ļà¯Ĥà®´à¯įà®ļà¯įà®ļ":3992,"à¯įà®¨à¯įà®¤à®¤à¯ģ":3993,"Ġà®µà¯Ĩà®±à¯ģà®ªà¯įà®ª":3994,"Ġà®ħà®Łà®¿à®¯à®¾à®°à¯įà®ķà®³à®¿à®²à¯į":3995,"à®¿à®°à¯ģà®ªà¯įà®ªà¯ĩà®¾à®®à¯į":3996,"Ġà®µà®¿à®ļà®¾à®°":3997,"à®¿à®ªà¯įà®ªà®¤à¯ģ":3998,"Ġà®ĵà®Łà®¿à®ķà¯įà®ķà¯Ĩà®¾à®£à¯įà®Ł":3999,"Ġà®ļà¯ģà®®à®¨à¯įà®¤à¯ģ":4000,"Ġà®ķà¯ĩà®Łà¯įà®ªà®¾à®°à¯įà®ķà®³à¯į":4001,"Ġà®¨à®¿à®©à¯įà®±à¯ģà®®à¯ģà®³à¯įà®³":4002,"Ġà®ļà¯Ĩà®¯à¯įà®µà®¾à®°à¯įà®ķà®³à¯į":4003,"Ġà®ļà¯Ĩà®¯à¯įà®ķà®¿à®±à®¾à®°à¯ĩà®¾":4004,"Ġà®ķà®°à¯ģà®£à¯Īà®¯à¯ģà®Łà¯Īà®¯":4005,"à®ªà®¾à®¤":4006,"Ġtranslate":4007,"Ġà®ªà®¿à®°à®¿à®µà®¿à®©à®°à¯į":4008,"à®®à¯įà®ªà¯ģ":4009,"à¯ģà®ªà¯įà®ªà®¿":4010,"à®®à®±à¯ģà®®à¯Ī":4011,"Ġà®ķà®¿à®°à¯ģà®ªà¯Īà®¯à¯ģà®Łà¯Īà®¯à®µà®©à¯į":4012,"Ġà®®à¯ģà®©à¯įà®©à¯ĩ":4013,"Ġà®ĩà®²à¯ĩà®ļ":4014,"Ġà®ħà®±à®¿à®¨à¯įà®¤à®µà®©à¯į":4015,"à¯Īà®¯à®¾à®ķà¯ģà®®à¯į":4016,"!\"čĊ":4017,"Ġtitle":4018,"Ġà®ªà¯Ĥà®°à®£":4019,"Ġà®®à®±à¯Ī":4020,"Ġà®®à®±à¯įà®±à¯Ĩà®¾à®°à¯ģ":4021,"Ġà®ļà¯Ĩà®¯à¯įà®µà®¤à¯ģ":4022,"Ġà®ªà®¿à®°à®ļà¯įà®ļ":4023,"Ġà®¤à¯Ģà®°à¯įà®ªà¯įà®ªà®³à®¿à®ªà¯įà®ª":4024,"Ġà®īà®±à¯įà®±":4025,"Ġà®¨à®©à¯įà®®à®¾à®°à®¾à®¯à®®à¯į":4026,"à®īà®©à¯įà®©":4027,"à¯ģà®®à®¾à®ķà®¿à®¯":4028,"his":4029,"à®¿à®¯à¯Īà®¤à¯į":4030,"à¯ĩà®¾à®®à¯ĩà®¾":4031,"Ġà®ķà¯Ĩà®¾à®³à¯įà®µà®¤à®±à¯įà®ķà®¾à®ķ":4032,"à®īà®²":4033,"à®İà®µà®©à¯į":4034,"Ġà®İà®±à®¿à®¨à¯įà®¤":4035,"Ġà®īà®®à¯įà®®à¯Īà®ªà¯į":4036,"Ġà®¨à®Łà¯įà®ļ":4037,"Ġà®ķà¯ģà®®à®¾à®°":4038,"à¯Īà®ļà¯įà®ļ":4039,"Ġà®ĩà®Łà®¤à¯įà®¤à¯Ī":4040,"Ġà®ħà®²à¯įà®²à®¾à®¹à¯įà®¤à®¾à®©à¯į":4041,"Ġà®®à®¿à®ķà®ªà¯į":4042,"à®¤à®²":4043,"Ġà®ªà¯Ĩà®±à¯ģà®®à¯į":4044,"Ġà®ļà®ķà¯ĩà®¾à®¤à®°à®°à¯į":4045,"\"à®®à¯ĩà®²à¯ģà®®à¯į":4046,"Ġà®ķà¯Ĥà®Łà¯įà®Łà®¾à®³":4047,"ir":4048,"Ġà®ķà®¾à®Łà¯įà®ļà®¿":4049,"\"à®ħà®©à¯įà®±à®¿à®¯à¯ģà®®à¯į":4050,"Ġà®¨à®°à®ķà®®à¯į":4051,"à¯Ĭà®°à¯ģà®³":4052,"à¯įà®µà®°à¯Ī":4053,"à®¿à®¯à®¿à®²à®¿à®°à¯ģà®¨à¯įà®¤à¯ģ":4054,"Ġà®¤à®³à¯įà®³":4055,"à®µà®¾à®¯":4056,"à®³à®®à¯į":4057,"à®©à®ķà¯įà®ķ":4058,"Ġà®®à®©à¯įà®©à®¿à®¤à¯įà®¤à¯ģ":4059,"à¯ģà®ªà¯įà®ªà¯Ĭ":4060,"bel":4061,"Ġà®¤à®¯à®µà¯ģ":4062,"à®Ļà¯įà®ķà®¿à®°à¯ģà®¨à¯įà®¤à¯ģ":4063,"à®©à¯įà®±à¯Īà®¯":4064,"Ġà®ªà¯Ĩà®¾à®¯à¯į":4065,"à®ħà®¤à®©à®¾à®²à¯į":4066,"Ġà®ªà¯ĩà®¾à®ķà¯įà®ķ":4067,"Ġà®ļà¯Ĩà®¯à¯įà®¯à®¾à®¤à¯Ģà®°à¯įà®ķà®³à¯į":4068,")à®ķà®³à¯į":4069,"Ġà®īà®£à¯įà®®à¯Īà®¯à®¾à®³à®°à¯įà®ķà®³à®¾à®ķ":4070,"Ġà®ļà¯Ĩà®µà®¿à®®":4071,"à®¾à®¸à®°à¯ĭ":4072,"Ġà®İà®©à®ķà¯įà®ķà¯ģà®®à¯į":4073,"Ġà®¤à®¨à¯įà®¤à¯Ī":4074,"Ġà®ļà¯Ĩà®¾à®©à¯įà®©à®¾à®°à¯į":4075,"à®Ĭ":4076,"Ġà®ķà¯Ĭà®£à¯įà®Łà¯ģ":4077,"à®³à¯įà®ķ":4078,"à¯įà®ļà®¿":4079,"Ġà®®à®¾à®°":4080,"à¯Īà®¯à®¾à®ķà®ķà¯į":4081,"og":4082,"Ġà®ļà¯Ĩà®¯à¯įà®¤à®¤à¯ģ":4083,"Ġà®µà®ķà¯Īà®¯":4084,"à¯ģà®ķà®³à¯Īà®ķà¯į":4085,"Ġà®ªà®ļ":4086,"Ġà®®à¯ģà®©à¯įà®©à®°à¯ģà®®à¯į":4087,"Ġà®ªà¯Ĩà®¾à®°à¯ģà®³à¯Ī":4088,"Ġà®ħà®´à®¿à®¨à¯įà®¤à¯ģ":4089,"à®¿à®ķà¯įà®ķà®¿à®±à¯ĩà®¾à®®à¯į":4090,"Ġà®µà®¿à®Łà¯įà®Łà¯Ģà®°à¯įà®ķà®³à¯į":4091,"Ġà®ķà®°à¯ģà®µà®¿":4092,"à®ħà®µà®©à¯įà®¤à®¾à®©à¯į":4093,"Ġà®ķà¯Ĭà®³à¯įà®³":4094,"à®µà®¿à®ļ":4095,"Ġà®¨à®®à¯įà®®à®¿à®Łà®®à¯į":4096,"Ġà®īà®³à¯įà®³à®µà¯Īà®¯à¯ģà®®à¯į":4097,"Ġà®¤à¯Ĩà®°à®¿à®¯à¯ģà®®à®¾":4098,"à®µà®£à¯įà®£":4099,"Ġà®ĩà®°à®µà¯ģ":4100,"à®¤à®£à¯įà®Ł":4101,"Ġà®ķà®£à¯įà®ķà®¾à®£":4102,"Ġà®ªà¯ĩà®°à¯Ģ":4103,"Ġà®ļà®¿à®±à®¿à®¤à¯ģà®®à¯į":4104,"Ġà®ĩà®¤à¯ģà®¤à®¾à®©à¯į":4105,"à®¿à®°à¯ģà®ķà¯įà®ķà®¿à®©à¯įà®±à®©":4106,"à¯ģà®µà®©":4107,"Ġà®µà®¿à®³à¯Īà®¯à®¾à®Łà¯įà®Łà¯ģ":4108,"à¯ģà®²à®ª":4109,"Ġà®®à®¾à®±à®¿":4110,"Ġà®ħà®´à®¿à®¨à¯įà®¤":4111,"à®¤à¯įà®¤à¯Īà®¯à¯ĩ":4112,"Ġà®ķà®¾à®²à¯įà®¨à®Ł":4113,"Ġà®¨à®±à¯įà®ļà¯Ĩà®¯":4114,"à®¨à¯įà®¤à®¿à®°":4115,"à®¿à®ķà®³à¯ĩ":4116,"Ġà®ħà®±à®¿à®µà¯ģà®Łà¯Īà®¯":4117,"Ġà®ļà®¾à®Łà¯įà®ļà®¿à®¯":4118,"à¯Ģà®²à¯į":4119,"Ġà®ªà¯Ĩà®¾à®°à¯ģà®¨à¯įà®¤":4120,"Ġà®®à®¾à®©à®ķà¯įà®ķ":4121,"Ġà®¯à¯Ĥà®¤":4122,"Ġà®®à®±à¯Īà®¨à¯įà®¤":4123,"Ġà®¤à¯ģà®¤":4124,"Ġà®ħà®©à¯ģà®®à®¤à®¿à®¯":4125,"Ġà®ļà¯Ĩà®¯à¯įà®µà¯ĩà®¾à®°à¯į":4126,"à®¤à¯ĩà®°à¯įà®¨à¯įà®¤à¯Ĩà®Łà¯ģà®ķà¯įà®ķ":4127,"à®°à¯įà®ķà®³à¯ģà®ķà¯įà®ķà¯ģà®®à¯į":4128,"Ġà®ªà¯ĩà®°à®¾à®±à¯įà®±à®²à¯ģà®Łà¯Īà®¯à®µà®©à¯į":4129,"Ġà®®à®¸à¯įà®ľà®¿à®¤":4130,"à¯Ģà®°à¯įà®ķà®³à¯ĩ":4131,"rance":4132,"à®µà®¿à®©à¯į":4133,"Ġà®Ĩà®¤à®°à®µà¯ģ":4134,"à®¤à¯įà®¤à®¿à®©":4135,"Ġà®¤à¯Ĥà®¤à®°à¯Ī":4136,"à®©à¯Īà®ªà¯į":4137,"Ġà®¨à¯ĩà®¾à®©":4138,"Ġà®¤à®ķà®µà®²":4139,"Ġà®īà®±à®µà®¿à®©":4140,"Ġà®ĩà®°à®µà®¿à®²à¯į":4141,"Ġà®Ĩà®´":4142,"Ġà®¨à®¾à®Łà®¿à®¯à®µà®°à¯įà®ķà®³à¯Ī":4143,"Ġà®ªà®°à®¾à®®à¯ģà®ķ":4144,"Ġà®µà®´à®¿à®ķà¯ĩà®Łà¯įà®Ł":4145,"à¯įà®ķà¯įà®ķà¯ģ":4146,"Ġà®®à¯ĩà®²à®¾à®©à®µà®©à¯į":4147,"à®¿à®¤à¯įà®¤à®²à¯į":4148,"Ġà®ªà¯Ĥà®®à®¿à®¯à®¿à®©à¯į":4149,"à®µà¯Īà®¯à¯Ĩà®²à¯įà®²à®¾à®®à¯į":4150,"à®¯à®µà®ŀà¯įà®ļà®ķ":4151,"à®µà®¾à®´":4152,"Ġà®ķà¯ģà®ĥà®ªà¯įà®°":4153,"à¯Īà®¤à¯įà®¤à®µà®¿à®°":4154,"à®İà®©à¯įà®ªà®¤à¯Ī":4155,"Ġà®µà®ļà®©à®Ļà¯įà®ķà®³":4156,"à®¾à®³à®°à®¾à®ķ":4157,"Ġà®ķà¯Ĩà®¾à®Łà¯ģà®ªà¯įà®ªà®¾à®©à¯į":4158,"à¯Ĩà®Łà¯į":4159,"Ġà®¤à®Łà¯ģà®ªà¯įà®ª":4160,"à®¾à®·":4161,"à®®à¯ģà®®à®¿à®²à¯įà®²à¯Ī":4162,"Ġà®Ĵà®¤à¯ģà®Ļà¯įà®ķ":4163,"Ġà®ªà®¯à®ªà®ķà¯įà®¤à®¿à®¯à¯ģà®Łà®©à¯į":4164,"Ġà®ĩà®±à¯Īà®µà®©à®¾à®ķà®¿à®¯":4165,"Ġà®¤à¯Ģà®°à¯įà®ªà¯įà®ªà¯ģà®ļà¯į":4166,"Ġthis":4167,"à®īà®¤à®µ":4168,"Ġà®ķà¯Ĩà®¾à®³à¯įà®µà®¤à®¿à®²à¯įà®²à¯Ī":4169,"Ġà®ĥà®ªà®¿à®°à¯įà®ħà®µà¯įà®©à¯į":4170,"à¯ģà®µà®¿à®Łà¯įà®Łà¯ģ":4171,"Ġà®¤à¯ģà®µà®Ļà¯įà®ķ":4172,"à®¿à®·à®¯":4173,"Ġà®ļà¯ĩà®µà¯Īà®¯":4174,"Ġà®ħà®°à¯įà®·":4175,"à¯ģà®µà®°à¯Ī":4176,"Ġà®Ĵà®µà¯įà®µà¯Ĩà®¾à®°à¯ģà®µà®°":4177,"rip":4178,"Ġà®¨à®²à¯įà®²à®Łà®¿à®¯à®¾à®°à¯įà®ķà®³":4179,"Ġà®ķà¯Ĩà®¾à®³à¯įà®³à®µà¯ģà®®à¯į":4180,"à®¤à®Ļà¯įà®ķà®³":4181,"à¯Īà®ķà®³à¯ģà®ķà¯įà®ķà¯ģ":4182,"à®ķà®®à®¾à®ķ":4183,"à®²à¯įà®ķà®³":4184,"à®¸à¯įà®¤":4185,"Ġà®°à®¸":4186,"Ġà®µà®¨à¯įà®¤à®ªà¯ĩà®¾à®¤à¯ģ":4187,"à®¯à®¾":4188,"à®µà®°à¯įà®ķà®³à¯ģà®Łà®©à¯į":4189,"à®¾à®³à®°à¯įà®ķà®³à¯į":4190,"à¯ĩà®©":4191,"à¯ģà®ķà¯įà®ķà¯Ĩà®¾à®£à¯įà®Ł":4192,"Ġà®ªà¯Ĩà®Łà¯įà®Ł":4193,"à®¿à®°à¯ģà®¨à¯įà®¤à®¤à¯ģ":4194,"à®īà®°à¯Ī":4195,"à®ªà¯ĩà®¾à®¤":4196,"Ġà®ħà®³à®¿à®ªà¯įà®ª":4197,"Ġà®µà¯ĩà®¤à®©à¯Īà®¯à¯ģà®£à¯įà®Łà¯ģ":4198,"à®°à®¾":4199,"Ġà®µà®¿à®³à¯Īà®µ":4200,"\"à®¨à®¾à®©à¯į":4201,"Ġà®īà®®à¯įà®®à¯Īà®ķà¯į":4202,"Ġà®¤à®Ļà¯įà®ķà¯ģà®®à®¿à®Łà®®à¯į":4203,"à®ķà®²à¯į":4204,"ue":4205,"à®¿à®ķà®³à¯ģà®ķà¯įà®ķà¯ģ":4206,"à¯Īà®¯à®¿à®²":4207,"Ġà®ıà®±à¯įà®ķà®©à®µà¯ĩ":4208,"à®¤à¯Ĩà®¾à®´":4209,"à®ĩà®Ļà¯įà®ķà¯ĩ":4210,"?\"čĊ":4211,"Ġà®ķà®µà®©à®¿à®ķà¯įà®ķ":4212,"à®¾à®µà¯ģà®®à¯į":4213,"à®ķà®¿à®Ł":4214,"à®ªà¯Ī":4215,"à¯ģà®ªà¯įà®ªà®¿à®©à¯į":4216,"à®ªà¯įà®¸à®¿à®©à¯į":4217,"à®¿à®µà®¾à®©":4218,"Ġà®ķà®¿à®±à®¿à®¸":4219,"à®Łà®¿à®ķà¯įà®ķà¯Ī":4220,"Ġà®ļà®°à®¿à®¯à®¾à®ķ":4221,"RL":4222,"à®ħà®¤à®¾à®µà®¤à¯ģ":4223,"Ġà®ķà¯Ĩà®¾à®³à¯įà®µà¯Ģà®°à¯įà®ķà®³à¯į":4224,"à®¾à®±à¯įà®ķ":4225,"Ġà®ļà®¿à®©à¯įà®©":4226,"Ġà®µà¯ĩà®³":4227,"à¯ģà®ķà®³à®¾à®ķ":4228,"Ġà®ªà®¿à®³à¯įà®³":4229,"Ġà®ªà®¾à®ķà¯įà®ķà®¿à®¯à®®à¯į":4230,"à®°à¯ģà®ķà¯įà®ķà¯ģ":4231,"à¯Īà®µà®¿à®Łà¯įà®Ł":4232,"Ġà®ķà¯ģà®³à®¿à®°":4233,"Ġà®¨à®¿à®°à®ªà¯įà®ª":4234,"Ġà®µà®¿à®°à¯ģà®®à¯įà®ªà®¿à®©à®¾à®²à¯į":4235,"ric":4236,"à¯įà®Łà®°à¯į":4237,"à¯Ĩà®¤à®¿à®°":4238,"à®ķà¯Ĩà®¾à®Ł":4239,"Ġà®ļà®¤":4240,"à¯Īà®ķà®³à®¿à®²à®¿à®°à¯ģà®¨à¯įà®¤à¯ģ":4241,"Ġà®īà®ªà®¯":4242,"Ġà®ļà¯ģà®°à¯ģà®ķà¯įà®ķ":4243,"Ġà®µà®¾à®ķà¯įà®ķà®³à®¿à®¤à¯įà®¤":4244,"à®Ĵà®µà¯įà®µà¯Ĩà®¾à®°à¯ģ":4245,"Ġà®¤à¯ģà®©à¯įà®ªà®®à¯į":4246,"Ġà®ķà®¤":4247,"Ġ(\"":4248,"ab":4249,"Ġà®īà®£à¯įà®£":4250,"Ġà®ķà¯ģà®°à¯ģà®Ł":4251,"Ġà®Ĩà®©à¯įà®®":4252,"ry":4253,"Ġà®ļà¯ģà®²à®ª":4254,"à¯ģà®ķà¯įà®ķà¯Ĭ":4255,"à®¿à®¯à®¿à®°à¯ģà®ķà¯įà®ķ":4256,"Ġà®īà®°à¯ģà®µà®¾à®ķà¯įà®ķà¯ģ":4257,"à®ļà¯Ĩà®²à¯įà®²":4258,"Ġà®ļà®¿à®°":4259,"Ġà®ıà®±":4260,"à®¤à¯įà®¤à®¿à®±à¯įà®ķà¯ģà®ªà¯į":4261,"Ġà®Ĩà®£à¯įà®ķà®³à¯ģà®®à¯į":4262,"Ġà®ļà®°à®¿à®ª":4263,"Ġà®ªà¯ģà®ķà®Łà¯įà®Ł":4264,"ith":4265,"Ġà®ļà¯Ĩà®¾à®¨à¯įà®¤à®®à¯į":4266,"Ġà®ħà®µà®©à¯Īà®ªà¯į":4267,"Ġà®ªà¯ĩà®¾à®°à®¿à®Ł":4268,"à¯ģà®¤à¯įà®¤à®¾à®©à¯į":4269,"Ġà®ķà¯Ĩà®¾à®£à¯įà®Łà®©à®°à¯į":4270,"à¯ģà®ªà®µà®°à¯įà®ķà®³à¯į":4271,"à®¾à®Łà¯įà®Łà¯Ī":4272,"Ġà®ķà¯Ĩà®¾à®£à¯įà®Łà¯ģà®³à¯įà®³":4273,"à®°à¯įà®ķà®³à®¾à®ķà®µà¯ģà®®à¯į":4274,"ext":4275,"à®®à®©à¯įà®©à®¿à®ªà¯įà®ª":4276,"à®¨à¯Ĩ":4277,"ŀà¯įà®ļ":4278,"à®¾à®¯à®¾":4279,"à®¤à®±à¯įà®ķà®¾à®ķà®µà¯ĩ":4280,"à®ķà¯įà®³à®ªà¯įà®¸à®¿à®©à¯į":4281,"Ġà®ķà¯ĩà®³à¯ģà®®à¯į":4282,"Ġà®¨à¯Ĩà®°à¯ģà®ªà¯įà®ªà®¿à®©à¯į":4283,"\"à®ħà®²à¯įà®²à®¾à®¹à¯įà®µ":4284,"?)čĊ":4285,"di":4286,"à®´à¯Ī":4287,"Ġà®ªà¯Ĩà®£à¯įà®ķà®³à¯ģà®®à¯į":4288,"Ġà®®à®¾à®©à®ķà¯įà®ķà¯ĩà®Ł":4289,"Ġà®ĩà®°à¯ģà®ķà¯įà®ķà®¿à®©à¯įà®±à®¾à®°à¯įà®ķà®³à¯į":4290,"Ġà®ķà¯Ĩà®¾à®³à¯įà®ķà®¿à®±à®¾à®©à¯į":4291,"Ġà®ĩà®¸à¯įà®°à®¾à®¯à¯Ģà®²à®¿à®©à¯į":4292,"Ġà®µà¯Ģà®Łà¯ģà®ķà®³à®¿à®²à¯į":4293,"Ġà®ªà®³à¯įà®³":4294,"Ġà®¨à®¿à®©à¯Īà®ķà¯įà®ķà®¿à®±à¯ĩà®©à¯į":4295,"?)":4296,"à®®à®°à®£":4297,"à®ĩà®±à¯ģà®¤à®¿":4298,"Ġà®ķà¯Ĩà®¾à®Łà¯ģà®ªà¯įà®ªà¯ĩà®¾à®®à¯į":4299,"Ġà®ªà¯Ĩà®¾à®±à¯ģà®®à¯Īà®¯à¯ģà®Łà®©à¯į":4300,"Ġà®µà®¿à®°à¯ģà®®à¯įà®ªà®µà®¿à®²à¯įà®²à¯Ī":4301,"Ġà®ķà®£à¯įà®£à®¿à®¯à®®à®¾à®©":4302,"à®İà®²à¯įà®²à®¾à®µà®±à¯įà®±à¯Īà®¯à¯ģà®®à¯į":4303,"Ġà®ħà®¤à®¿à®ķà®¾à®°à®®à¯į":4304,"Ġà®ĩà®°à¯ģà®¨à¯įà®¤à¯ĩà®¾à®®à¯į":4305,"à®¾à®Łà¯įà®ļà®¿":4306,"Ġ//":4307,"angu":4308,"Ġà®¤à®¾à®µ":4309,"à¯Īà®¯à®¿à®Ł":4310,"à¯Īà®¯à®©à¯į":4311,"Ġà®Ĩà®±à¯ģ":4312,"gre":4313,"Ġà®µà¯Ĩà®±à¯įà®±à¯ģ":4314,"à®¿à®ļà¯įà®ļà®®à®¯":4315,"Ġitem":4316,"Ġà®®à¯ģà®¤à¯įà®¤à®¿à®°":4317,"à®ķà¯ģà®°à¯įà®Ĩà®©à¯Ī":4318,"à®¨à®¿à®©à¯Īà®µ":4319,"Ġà®®à¯Ĥà®´à¯įà®ķà®Ł":4320,"Ġà®ļà®¾à®ª":4321,"Ġà®īà®³à¯įà®³à®Ļà¯įà®ķà®³à®¿à®²à¯į":4322,"Ġà®ļà¯ĩà®¾à®¤à®©":4323,"Ġà®ħà®µà®°à¯Īà®ªà¯į":4324,"Ġà®¤à¯ĩà®°à¯įà®¨à¯įà®¤à¯Ĩà®Łà¯ģà®ķà¯įà®ķà®µà¯ģà®®à¯į":4325,"crip":4326,"à¯ĩà®Łà¯į":4327,"à®ªà®¾à®°":4328,"Ġà®ļà®¿à®Łà®¿":4329,"à®¿à®ªà¯įà®°":4330,"Ġà®ĩà®©à¯įà®ª":4331,"world":4332,"Ġà®Ĩà®ķà®¾à®°":4333,"Ġà®¤à¯Ģà®®à¯Ī":4334,"à®¿à®ķà¯įà®ķà®¿à®±à¯ĩà®©à¯į":4335,"lic":4336,"Ġà®ĩà®´à®¿à®µà¯ģ":4337,"Ġà®®à¯ĩà®©à¯įà®®à¯Īà®¯":4338,"Ġà®İà®£à¯įà®£à®¿à®ķà¯įà®ķ":4339,"Ġà®ħà®ªà¯įà®ªà®Łà®¿":4340,"à®¿à®©à¯įà®±à®¾à®©à¯į":4341,"Ġà®µà¯Ģà®£à®¾à®©":4342,"à®®à¯Ĥà®²":4343,"à¯įà®ī":4344,"à®¿à®¤à®®à¯į":4345,"Ġà®Ĩà®±à¯įà®±":4346,"Ġà®īà®£à¯įà®Łà®¾à®ķà¯įà®ķà®¿":4347,"ber":4348,"à®¿à®ªà¯įà®ªà®¾à®ķ":4349,"Ġà®ħà®±à®¿à®µà®¿à®¤à¯įà®¤à¯ĩà®¾à®®à¯į":4350,"Ġà®¨à®²à¯įà®²à¯ģà®£à®°":4351,"Ġà®ĩà®ªà¯įà®°à®¾à®¹à¯Ģà®®à¯į":4352,"à®®à¯ģà®©à¯įà®©à®¿à®°à¯ģà®ªà¯įà®ªà¯ģ":4353,"Ġà®īà®£à¯įà®Łà®¾":4354,"Ġà®¤à®µà¯įà®°":4355,"Ġà®¨à®¿à®±à®®à¯į":4356,"Ġà®ªà®°à®¿à®ļà¯ģà®¤à¯įà®¤à®®à®¾à®©":4357,"Ġà®®à®¾à®³à®¿à®ķ":4358,"Ġà®ħà®µà®°à¯įà®ķà®³à¯ģà®ķà¯įà®ķà¯ģà®ļà¯į":4359,"ew":4360,"Ġà®ķà¯ĭà®ªà¯įà®ªà¯Ī":4361,"Ġà®µà®¾à®©à®Ļà¯įà®ķà®³à¯į":4362,"Ġà®®à¯ģà®±à¯įà®ªà®Łà¯ģà®¤à¯įà®¤":4363,"à®¾à®£à®¿":4364,"à®ħà®µà¯Ī":4365,"Ġà®µà®¿à®Łà¯įà®Łà®¾à®°à¯į":4366,"Ġà®ķà¯ģà®´à®¨à¯įà®¤à¯Ī":4367,"Ġe":4368,"Ġà®µà¯Ģà®Łà¯ģ":4369,"à¯ģà®¤à®¿à®¯à®¾à®ķ":4370,"Ġà®īà®Łà¯įà®ķà®¾à®°":4371,"rit":4372,"Ġà®ªà¯Ĩà®£à¯įà®ķà®³à¯Ī":4373,"Ġà®ĩà®Łà¯įà®Łà¯ģà®ķà¯į":4374,"Ġà®¨à®®à®¤à¯ģ":4375,"Ġà®ħà®±à¯įà®ª":4376,"Ġà®ŀà®¾à®©à®¤à¯įà®¤à¯Īà®¯à¯ģà®®à¯į":4377,"à®ļà¯Ģ":4378,"Ġà®ıà®±à¯įà®ªà®Łà¯ģà®®à¯į":4379,"Ġà®µà¯Ĩà®±à¯ģà®®à¯į":4380,"à®¿à®°à¯ģà®ªà¯įà®ªà®¿à®©à¯į":4381,"Ġà®īà®ªà®¯à¯ĭà®ķ":4382,"à¯Ĩà®¯à¯įà®¤à¯ģ":4383,"Ġà®İà®Ļà¯įà®ķà®³à¯ģà®ķà¯įà®ķà®¾à®ķ":4384,"Ġà®İà®´à¯ģà®¤à¯ģà®¤à®²à¯į":4385,"Ġà®ķà®Łà¯įà®Łà®³à¯Īà®¯à¯Ī":4386,"à®ªà®ķà¯įà®ķ":4387,"Ġ'%":4388,"50":4389,"Ġà®Ĩà®ļ":4390,"Ġà®ħà®²à¯įà®²à®¾à®¹à¯įà®µà®¿à®Łà®¤à¯įà®¤à®¿à®²à¯į":4391,"Ġà®ķà¯ģà®±à¯Īà®µ":4392,"à®İà®²à¯įà®²à®¾à®®à¯į":4393,"à¯ģà®µà®©à¯į":4394,"à¯įà®®à¯Īà®¯à®¿à®²à¯į":4395,"Ġà®µà®¿à®°à¯ģà®®à¯įà®ªà¯ģà®®à¯į":4396,"à®¤à¯įà®¤à®¿":4397,"Ġà®ħà®¤à®±à¯įà®ķà¯ģà®°à®¿à®¯":4398,"à®ķà®Łà®µ":4399,"Ġà®¤à¯Ĩà®¾à®Łà®°à¯įà®¨à¯įà®¤à¯ģ":4400,"à¯ģà®ķà¯įà®ķà¯Ĩà®¾à®³à¯įà®³":4401,"Ġà®µà®¿à®¤à®®à®¾à®©":4402,"à®ķà¯Ĥà®Łà¯įà®Ł":4403,"Ġà®ļà¯Ĩà®¯à®²à¯Ī":4404,"à®¿à®¤à¯įà®¤à®¿à®¯":4405,"Ġà®ļà¯Ĩà®²à¯įà®ª":4406,"Ġà®®à¯Ĥà®©à¯įà®±":4407,"Ġà®ķà®³à¯Ī":4408,"Ġà®µà®¨à¯įà®¤à¯ģà®³à¯įà®³":4409,"Ġà®ªà¯Ĩà®¾à®°à¯ģà®Łà¯įà®ķà®³à®¿à®©à¯į":4410,"Ġà®ħà®ª":4411,"bo":4412,"à®¤à®±à¯įà®ķà®¾à®©":4413,"Ġà®ªà®³":4414,"à¯ģà®ķà®³à®¿à®²à®¿à®°à¯ģà®¨à¯įà®¤à¯ģ":4415,"est":4416,"Ġà®¤à®¿à®©à®®à¯į":4417,"anguage":4418,"à®µà¯ģà®®":4419,"à®©à®¿à®²à¯į":4420,"Ġà®µà®¿à®Łà®µà¯ģà®®à¯į":4421,"Ġà®®à®¾à®±à¯įà®±à¯ģà®ķ":4422,"Ġà®¤à®¿à®°à¯ģà®®":4423,"Ġà®İà®ªà¯įà®ªà¯ĩà®¾à®¤à¯ģà®®à¯į":4424,"Ġà®īà®³à¯įà®³à®Łà®ķà¯įà®ķ":4425,"Ġlabel":4426,"Ġà®ªà®´à¯Īà®¯":4427,"Ġà®ķà¯ĩà®¾à®ªà®®à¯į":4428,"à®ķà®Łà¯Ī":4429,"Ġà®İà®©à¯įà®©à¯Īà®ªà¯į":4430,"Ġà®µà®¿à®²à®ķà®¿":4431,"à®¨à®Łà®ªà¯įà®ªà¯ģ":4432,"ail":4433,"à¯ģà®µà®¾à®©":4434,"out":4435,"ct":4436,"Ġà®¤à¯Ģà®°à¯įà®®à®¾à®©":4437,"Ġà®ļà®¿à®¤":4438,"à®īà®©à®ķà¯įà®ķà¯ģ":4439,"Ġà®ħà®¤à¯įà®¤à®¾à®Łà¯įà®ļà®¿à®ķà®³à¯Īà®ķà¯į":4440,"Ġaction":4441,"60":4442,"Ġà®ªà¯ĩà®¾à®µ":4443,"Ġà®®à®¹":4444,"Ġà®ªà¯Ĩà®¾à®´à®¿à®¯":4445,"Ġà®¨à®¿à®ļà¯įà®ļà®¯à®®à®¾à®ķà®ķà¯į":4446,"Ġà®ĩà®£à¯Īà®ªà¯įà®ª":4447,"Ġà®ĵà®Łà®¿à®ķà¯į":4448,"à®¿à®ķà¯įà®ķà®ªà¯įà®ªà®Łà¯ģà®®à¯į":4449,"Ġà®ķà¯Ĥà®²à®¿à®¯à®¾à®ķ":4450,"à®¾à®ķà¯įà®ķà®¿à®©à®¾à®©à¯į":4451,"Ġà®®à®¾à®©à®ķà¯įà®ķà¯ĩà®Łà®¾à®©":4452,"à®¾à®µà®¾à®©à¯į":4453,"Ġà®ļà®¿à®¤à¯įà®¤à®®à¯į":4454,"Ġà®ħà®®à¯Īà®ªà¯įà®ªà¯ģà®ķà®³à¯į":4455,"Ġ=":4456,"Ġà®µà®¿à®·à®¯à®®à¯į":4457,"Ġà®ħà®©à¯Īà®µà®°à¯Īà®¯à¯ģà®®à¯į":4458,"à®¤à®Ļà¯įà®ķà®³à¯į":4459,"à®¤à¯Īà®ļà¯į":4460,"à®¿à®°à¯ģà®ķà¯įà®ķà®¿à®±à¯ĩà®©à¯į":4461,"\"à®İà®©à¯įà®©à¯ģà®Łà¯Īà®¯":4462,"Ġà®ķà¯Ĥà®±à¯įà®±":4463,"Ġà®İà®´à¯ģà®¤à®ķà¯įà®ķà¯Ĥà®Łà®¿à®¯":4464,"à®®à¯Ĭ":4465,"Ġà®īà®©à¯įà®©à¯ģà®Łà¯Īà®¯":4466,"Ġà®®à®±à¯ģà®®à¯Īà®¯à®¿à®©à¯į":4467,"Ġà®ķà¯ģà®±à¯įà®±à®®à®¿à®²à¯įà®²à¯Ī":4468,"à®®à¯Ĩà®¯à¯įà®¯":4469,"Ġà®ĩà®µà®°":4470,"Ġà®īà®®à¯įà®®à¯Īà®¤à¯į":4471,"Ġà®µà®¿à®³à®Ļà¯įà®ķà®¿à®ķà¯į":4472,"Ġà®ªà¯Ĩà®¾à®±à¯ģà®¤à¯įà®¤":4473,"Ġà®ļà®®à¯Ĥà®ķà®¤à¯įà®¤à®¾à®°à¯į":4474,"Ġà®¨à®Łà¯įà®ļà®¤à¯įà®¤à®¿à®°":4475,"Ġà®®à¯ģà®©à®¾à®ĥà®ª":4476,"Ġà®µà®¿à®ļà¯Ī":4477,"Ġà®īà®£à¯įà®®à¯Īà®¯à®¿à®²à¯į":4478,"à®ħà®©à¯Īà®¤à¯įà®¤":4479,"à®īà®®à¯įà®®à¯Ī":4480,"Ġà®ªà®¿à®©à¯įà®¤":4481,"Ġà®¨à®¿à®±à¯įà®ª":4482,"à®ªà®£":4483,"à®Ļà¯įà®ķà®³à¯Īà®¤à¯į":4484,"Ġà®Ĩà®ķà¯įà®ķà®¿à®©à®¾à®©à¯į":4485,"Ġà®ħà®©à¯Īà®¤à¯įà®¤à¯ģà®®à¯į":4486,"à®¾à®¤à®¾":4487,"à®¿à®°à¯ģà®³":4488,"Ġà®¯à®ĥà®ķà¯Ĥ":4489,"Ġà®¤à¯ĩà®Łà®¿à®ķà¯į":4490,"Ġà®ķà®¾à®¤à¯įà®¤à¯ģà®ķà¯į":4491,"Ġà®ªà®¾à®Ł":4492,"Ġà®®à¯Ĩà®¯":4493,"à®ķà¯ģà®±à¯įà®±":4494,"Ġà®¤à®¿à®°à¯ģà®ªà¯įà®¤à®¿à®¯":4495,"Ġà®ļà¯Ĩà®¯à¯įà®ªà®µà®°à¯įà®ķà®³à¯į":4496,"Ġà®ĩà®°à¯ģà®¨à¯įà®¤à¯Ģà®°à¯įà®ķà®³à¯į":4497,"Ġà®¤à¯ĩà®Łà®¿":4498,"Ġà®ļà¯Ĩà®¯à¯įà®¯à®¾à®¤":4499,"à®²à¯įà®²à®°à¯į":4500,"Ġà®µà®¾à®ķà¯įà®ķà¯ģà®±à¯ģà®¤à®¿à®¯à¯Ī":4501,"à®¤à¯įà®¤à¯ģà®ķà¯įà®ķà¯ģ":4502,")à®ķà®³à¯Ī":4503,"Ġà®µà®Łà®¿à®ķà®Łà¯įà®Łà®¿":4504,"à®ļà¯įà®ļà¯Ī":4505,"Ġà®ķà¯Ĥà®±à¯ģà®µà®°à¯į":4506,"Ġà®Ĩà®ķà¯įà®ķà®¿à®¯":4507,"Ġà®ļà®®à¯Ĥà®ķà®¤à¯įà®¤à®¾à®°à¯ģà®ķà¯įà®ķà¯ģ":4508,"Ġà®ļà®®à®¾à®¤à®¾à®©":4509,"Ġà®®à®°à®¿à®¤à¯įà®¤":4510,"Ġà®ĩà®¤à®¯à®Ļà¯įà®ķà®³à®¿à®²à¯į":4511,"à¯įà®ªà®¾à®²à¯į":4512,"Ġà®¤à¯Ĥà®¤à®°à¯įà®ķà®³à¯Ī":4513,"Ġà®ªà®°à®¿à®ķà®ļ":4514,"Ġà®ķà¯Ĩà®¾à®³à¯įà®³à®µà®¿à®²à¯įà®²à¯Ī":4515,"à¯ģà®ªà®µà®°à¯įà®ķà®³à®¾à®ķ":4516,"à®ĩà®¤à¯ģà®µà¯ĩ":4517,"RO":4518,"Ġà®ªà®¿à®®à¯įà®ªà®¤à¯įà®¤à¯Ī":4519,"Ġà®İà®µà®°à¯įà®ķà®³à¯Ī":4520,"à¯Ĩà®£":4521,"Ġà®¨à®²à¯įà®²à¯ģà®£à®°à¯įà®µà¯ģ":4522,"à®¤à®µà®±à®¾à®©":4523,"à®¾à®©à¯įà®ķ":4524,"Ġà®īà®£à¯įà®®à¯Īà®¯à¯Ī":4525,"à®¾à®ķà¯įà®ķà®¿à®©à¯ĭà®®à¯į":4526,"Ġà®µà®¿à®´à¯ģà®Ļà¯įà®ķ":4527,"Ġà®ķà¯ģà®µ":4528,"Ġà®¨à¯Ģà®¤":4529,"Ġà®¤à¯ĩà®¾à®²":4530,"à®µà¯į":4531,"à¯įà®ķà¯Ĥà®±à¯ģ":4532,"Ġà®¯à¯Ĥ":4533,"Ġà®®à®±à¯ģà®®à¯Īà®¯à¯Ī":4534,"Ġà®ªà¯Īà®¤à¯įà®¤à®¿à®¯":4535,"Ġà®ķà®Łà®¨à¯įà®¤à¯ģ":4536,"à®¨à¯ĩà®°à¯įà®µà®´":4537,"à®¿à®ķà®¿à®±":4538,"Ġà®ķà¯ĩà®Łà¯įà®ªà®¾à®©à¯į":4539,"Ġà®ķà¯ģà®±à®¿à®¤à¯įà®¤":4540,"RAN":4541,"Ġà®ķà®¾à®¯":4542,"Ġà®ªà¯Ĩà®±à¯įà®±à¯ģ":4543,"Ġà®ħà®°à¯įà®°à®¹à¯įà®®à®¾à®©":4544,"Ġà®ıà®±à¯įà®±à¯ģ":4545,"Ġà®ļà¯Ĩà®¯à¯įà®µà®¤":4546,"à®²à¯įà®²à®µà®¾":4547,"Ġà®°à®¹à¯įà®®à®¤à¯įà®¤à¯Ī":4548,"à¯ĩà®²à¯į":4549,"Ġà®ªà¯ģà®ķà®´à¯į":4550,"Ġà®ĩà®µà®±à¯įà®±à¯Ī":4551,"à®¾à®ķà¯įà®ķà®®à¯į":4552,"Ġà®¨à®¿à®°à®¨à¯įà®¤à®°":4553,"Ġà®®à¯ģà®ķà®µà®°à®¿":4554,"à®¿à®²à¯Ĩà®²à¯įà®²à®¾à®®à¯į":4555,"Ġà®ķà¯Īà®¯":4556,"int":4557,"à¯ģà®ķà®¿à®±à®¾à®°à¯į":4558,"Ġà®¤à®¯à®¾à®°":4559,"à¯įà®ķà®³à®¿à®²à¯ģà®®à¯į":4560,"à®©à¯įà®®à®¾à®°à¯įà®ķà¯įà®ķ":4561,"Ġà®Ĭà®¤":4562,"Ġare":4563,"Ġà®ķà¯Ĩà®¾à®¤":4564,"à¯ĭà®©à®¿":4565,"à®ļà®¾à®°":4566,"à®¤à¯įà®¤à®°":4567,"Ġà®ļà®¿à®ķà¯įà®ķ":4568,"Ġà®¨à¯ģà®´à¯Īà®µ":4569,"à®ķà¯Ĥà®±":4570,"à®ķà¯ģà®±à®¿à®ªà¯įà®ªà®¿à®Łà¯įà®Ł":4571,"Ġà®ķà¯Ĩà®¾à®£à¯įà®Łà®¿à®°à¯ģà®ķà¯įà®ķ":4572,"ill":4573,"à®¨à¯Ĩà®°":4574,"à®®à®¾à®ķà®ªà¯į":4575,"à®¿à®²à¯įà®²à®¾":4576,"à®ļà¯įà®ļà¯ģ":4577,"Ġà®¯à¯Ī":4578,"à®®à¯Ģà®£à¯įà®Łà¯ģà®®à¯į":4579,"à¯ģà®µà®¾à®°à¯į":4580,"à¯ģà®°à¯Ī":4581,"à®¿à®²à¯Īà®¯à®¿à®²à¯į":4582,"ER":4583,"Ġà®ļà¯Ĩà®¯à¯įà®¯à®²à®¾à®®à¯į":4584,"à¯ģà®®à¯ģà®±à¯Ī":4585,"à®ħà®µà®°à¯ģà®Łà¯Īà®¯":4586,"Ġà®ļà¯Ĩà®µà¯įà®µ":4587,"à®¨à®¿à®©à¯Īà®µà¯ģ":4588,"à®¿à®¤à¯įà®¤à®¿à®°":4589,"à®¤à¯ĩà®°à¯įà®µà¯ģ":4590,"Ġà®Ĩà®©":4591,"Ġà®µà®¿à®Łà¯ģ":4592,"Ġà®µà®¾à®¤":4593,"Ġà®ļà¯Ĩà®¯à¯įà®¯à®µà®¿à®²à¯įà®²à¯Ī":4594,"à®¿à®ķà¯įà®ķà®ªà¯įà®ªà®Łà¯įà®Łà¯ģ":4595,"Ġà®µà®¿à®´à¯ģà®¨à¯įà®¤à¯ģ":4596,"Ġà®ĩà®Łà¯Ī":4597,"Ġà®µà®¿à®°à®¿à®µ":4598,"Ġà®ķà®¿à®±à®¿à®¸à¯įà®¤":4599,"à¯ģà®®à®¾à®±":4600,"Ġà®ĩà®¤à®¯à®Ļà¯įà®ķà®³à¯į":4601,"à®µà®Łà¯įà®Łà¯ģ":4602,"à®¤à®±à¯įà®ªà¯ĭà®¤à¯Īà®¯":4603,"Ġà®ĩà®°à¯ģà®¨à¯įà®¤à®©":4604,"Ġà®ħà®³à®µà¯Ī":4605,"Ġà®īà®£à¯įà®Łà®¾à®µà®¤à®¾à®ķ":4606,"Ġà®®à¯ģà®°":4607,"à®¿à®ªà¯įà®ªà®¾à®°à¯įà®ķà®³à¯į":4608,"à¯Ĩà®¯à®°à¯į":4609,"Ġà®İà®©à¯įà®©à¯ģà®Łà®©à¯į":4610,"Ġà®®à¯ģà®¤à¯ģà®ķ":4611,"à®¤à¯Ĩà®°à®¿à®¯":4612,"à®ķà¯įà®ķà®¿à®¯":4613,"à¯Ĩà®©à®ķà¯į":4614,"Ġà®¤à®Ļà¯įà®ķà¯ģà®®à®¿à®Ł":4615,"Ġà®ļà®¿à®±à¯ģ":4616,"Ġà®ļà¯Ĭà®²à¯įà®²":4617,"à¯ģà®®à®¾à®ķà¯ģà®®à¯į":4618,"Ġà®ªà®Łà¯įà®Łà®¿à®¯à®²":4619,"Ġà®ķà¯Ĭà®Łà¯ģà®ķà¯įà®ķ":4620,"her":4621,"Ġà®ĩà®°à¯ģà®¨à¯įà®¤à®¾à®²à¯ģà®®à¯į":4622,"Ġà®ķà®Łà®²":4623,"Ġà®ªà®£à®®à¯į":4624,"ING":4625,"à®°à¯įà®ª":4626,"Ġà®ħà®µà®±à¯įà®±à¯Īà®ªà¯į":4627,"Ġà®®à¯ģà®±à¯Īà®ªà¯įà®ªà®Łà®¿":4628,"à¯įà®ķà®³à¯ģà®ķà¯įà®ķà¯ģà®®à¯į":4629,"Ġà®ķà¯ģà®±à®¿":4630,"Ġà®¤à®¿à®ķ":4631,"Ġà®ªà®¾à®¤à¯Ī":4632,"Ġà®ĩà®¸à¯įà®¹":4633,"Ġà®¤à¯Ģà®Ļà¯įà®ķà¯ģà®®à¯į":4634,"Ġà®®à®¿à®ķà®¤à¯į":4635,"à®Ļà¯įà®ķà®³à®¾à®ķ":4636,"Ġà®Ĵà®°à¯ģà®µà®©":4637,"Ġà®İà®¤à®¿à®°à¯įà®ªà®¾à®°à¯įà®¤à¯įà®¤":4638,"Ġà®ķà¯Ĥà®±à®¿à®¯à®¤à¯Ī":4639,"Ġà®ĩà®µà¯įà®µà®¿à®°à®£à¯įà®Ł":4640,"Ġà®ķà®Łà¯įà®Łà®³à¯Īà®¯à®¿à®Ł":4641,"à¯ĩà®¾à®ķ":4642,"à®°à¯įà®¤à¯įà®¤":4643,"Ġà®ĩà®°à®µà®¿à®©à¯į":4644,"à¯Īà®ķà¯įà®ķà®¾à®©":4645,"(à®ĩà®µà¯įà®µà®¾à®±à¯ģ":4646,"à¯Ĩà®²à¯į":4647,"Ġà®ħà®µà®©à®¤à¯ģ":4648,"Ġà®¨à®®à¯įà®ªà®¿":4649,"Ġà®¤à®¿à®°à¯ģ":4650,"Ġà®ĩà®ªà¯įà®ªà¯Ĥà®®":4651,"Ġà®ĵà®Łà®¿à®ķà¯įà®ķà¯Ĩà®¾à®£à¯įà®Łà®¿à®°à¯ģà®ķà¯įà®ķà¯ģà®®à¯į":4652,"ties":4653,"Ġà®®à¯Ĥà®¸à®¾à®µà¯ģà®ķà¯įà®ķà¯ģ":4654,"Ġà®ĩà®¤à¯Īà®ķà¯į":4655,"Ġà®ħà®°à¯ģà®³à®¿à®¯":4656,"à®µà®¾à®©à®Ļà¯įà®ķà®³à¯Īà®¯à¯ģà®®à¯į":4657,"à®®à®¾à®ķà¯įà®ķà®¿à®ķà¯į":4658,"Ġà®īà®®à¯įà®®à¯ģà®Łà®©à¯į":4659,"Ġà®ħà®¤à¯įà®¤à®¾à®Łà¯įà®ļà®¿à®ķà®³à®¿à®²à¯į":4660,"Ġà®ªà®¤à®µ":4661,"Ġà®ħà®±à®¿à®¨à¯įà®¤à®µà®©à®¾à®ķ":4662,"Ġà®īà®Ļà¯įà®ķà®³à®¿à®Łà¯Īà®¯à¯ĩ":4663,"Ġà®¤à®¿à®°à¯ģà®ªà¯įà®ªà®¿à®ķà¯į":4664,"à®¤à¯įà®¤à®¿à®²à®¿à®°à¯ģà®¨à¯įà®¤à¯ģà®®à¯į":4665,"à®¿à®ķà¯įà®ķà¯Ĩà®¾à®³à¯įà®³":4666,"Ġà®īà®ªà®¤à¯ĩà®ļà®®à¯į":4667,"erver":4668,"Ġà®µà¯Ģà®£à¯į":4669,"Ġà®Ĵà®°à¯ģà®µà®©à®¾à®ķ":4670,"Ġà®¤à®¿à®Łà¯įà®Łà®¤à¯įà®¤à¯Ī":4671,"à®¨à®®à¯įà®®à¯ģà®Łà¯Īà®¯":4672,"Ġà®ªà®Łà®¿à®ķà¯įà®ķ":4673,"Ġà®ªà®°à®¾à®®à¯ģà®ķà®®à®¾à®ķ":4674,"Ġà®µà®¿à®ª":4675,"Ġà®ªà®°à®¿à®¨à¯įà®¤à¯ģ":4676,"Ġà®īà®Ļà¯įà®ķà®³à¯Īà®ļà¯į":4677,"à®¿à®ªà¯įà®ªà®¤à®±à¯įà®ķà®¾à®ķ":4678,"à®İà®©à¯įà®©à¯ģà®®à¯į":4679,"Ġà®¤à¯Ĩà®°à®¿à®¨à¯įà®¤":4680,"à®ĩà®µà®°à¯į":4681,"à®İà®ªà¯įà®ª":4682,"Ġà®ķà¯Ĩà®Łà¯įà®Łà®¤à¯ģ":4683,"à®®à®¾à®°à¯įà®ķà¯įà®ķ":4684,"Ġà®¤à®Ļà¯įà®ķà®¿à®¯à®¿à®°à¯ģà®ªà¯įà®ª":4685,"Ġà®¨à¯ĩà®ļà®¿à®ªà¯įà®ªà®¤à®¿à®²à¯įà®²à¯Ī":4686,"à®¿à®ļà¯įà®ļà®®à®¯à®¾à®ķ":4687,"ap":4688,"Ġà®µà®¨à¯įà®¤à®¾à®²à¯į":4689,"Ġà®ħà®±à®¿à®ªà®µà®©à®¾à®ķà®µà¯ģà®®à¯į":4690,"sia":4691,"Ġà®Ĳà®¨à¯įà®¤à¯ģ":4692,"Ġà®¤à¯ģà®ķà¯įà®ķà®ªà¯įà®ªà®Ł":4693,"Ġà®ĩà®£à¯Īà®¯à®¾à®ķà¯įà®ķ":4694,"Ġà®¤à®©à®ķà¯įà®ķà¯ģ":4695,"Ġà®ıà®°à®¿":4696,"à®®à¯Ĩà®¯à¯įà®¯à®¾à®ķà®µà¯ĩ":4697,"à®ķà®¾à®ĥà®ªà®¿à®°":4698,"à®ħà®²à¯įà®²à®¾à®¹à¯įà®µà¯Ī":4699,"Ġà®Īà®®à®¾à®©à¯Ī":4700,"Ġà®ħà®ŀà¯įà®ļà®¿à®ķà¯į":4701,"Ġà®®à®ķà®¿à®´à¯įà®µ":4702,"Ġà®®à®¾à®Łà¯ģ":4703,"Ġà®¨à®¿à®°à®²à¯į":4704,"à®ļà®¾à®²":4705,"à®ħà®²à¯įà®²à®¾à®¹à¯įà®µà®¿à®Łà®®à¯į":4706,"Ġà®ĩà®©à®¿":4707,"à¯Ĩà®±":4708,"à®ļà¯ģà®´":4709,"Ġà®¨à¯Ģà®Ļà¯įà®ķà®³à¯ĩ":4710,")à®µà®©à¯į":4711,"à®©à¯įà®ªà®¤à¯ģ":4712,"MAN":4713,"Ġà®®à¯ģà®©à¯įà®ªà¯ģ":4714,"à®ªà®´":4715,"Ġà®ªà®¯à®ªà®ķà¯įà®¤à®¿à®¯à¯ģà®Łà¯Īà®¯à®µà®°à¯įà®ķà®³à¯ģà®ķà¯įà®ķà¯ģ":4716,"Ġà®İà®©à®ķà¯įà®ķà¯ģà®ķà¯į":4717,"ttp":4718,"Ġ!čĊ":4719,"(à®ħà®ªà¯įà®ªà¯ĩà®¾à®¤à¯ģ":4720,"Ġà®ļà¯Ĩà®¾à®¤à¯įà®¤":4721,"Ġà®ħà®´à¯Īà®ķà¯įà®ķà¯ģà®®à¯į":4722,"Ġà®ªà®±à®µ":4723,"Ġà®ĩà®°à¯ģà®ªà¯įà®ªà®¤à¯ģ":4724,"Ġà®İà®¤à®¿à®°à¯į":4725,"Ġà®ļà®ķà¯įà®¤":4726,"Ġà®İà®²à¯ģà®®à¯įà®ª":4727,"Ġà®ķà¯Ĩà®¾à®£à¯įà®Łà®¾à®°à¯įà®ķà®³à¯ĩà®¾":4728,"Ġà®ªà¯ģà®ļà®¿à®¯à¯ģà®Ļà¯įà®ķà®³à¯į":4729,"ine":4730,"Ġà®ķà®£à®ķà¯įà®ķà¯ģ":4731,"Ġà®¤à®°à®µà¯ģ":4732,"Ġà®ĩà®Łà¯Īà®µà¯Ĩà®³à®¿":4733,"Ġà®µà®¿à®Łà¯įà®Łà®©à®°à¯į":4734,"Ġà®¨à¯Ĩà®°à¯ģà®ªà¯įà®ªà®¿à®²à¯į":4735,"Ġà®ªà®¿à®©à¯įà®ªà®±à¯įà®±à¯ģà®Ļà¯įà®ķà®³à¯į":4736,"Ġà®µà®¾à®ķà¯įà®ķà¯ģà®±à¯ģà®¤à®¿à®¯":4737,"Ġà®ķà¯ĩà®Łà¯įà®ķà¯ģà®®à¯į":4738,"Ġà®ļà®¾à®³à®°à®®à¯į":4739,"à®ĩà®£à¯Ī":4740,"à®¤à¯ĩà®°à¯įà®¨à¯įà®¤à¯Ĩà®Łà¯ģà®ķà¯įà®ķà®ªà¯įà®ªà®Łà¯įà®Ł":4741,"(à®¤à¯įà®¤":4742,"Ġà®®à¯ģà®ķà¯įà®ķà®¿à®¯":4743,"Ġà®¨à®¿à®±à¯Īà®¯":4744,"Ġà®ªà®£à®¿":4745,"à®¨à®©à¯įà®®à¯Ī":4746,"à®¿à®ķà®°à®®à®¾à®ķ":4747,"Ġà®ħà®©à¯Īà®µà®°":4748,"Ġà®¤à®¿à®ļ":4749,"Ġà®ªà®£à¯įà®ª":4750,"\"à®Ĩà®ķà®µà¯ĩ":4751,"Ġà®ħà®´à®¿à®ķà¯įà®ķ":4752,"Ġà®ķà®Łà®µà¯ģà®ļà¯įà®ļà¯Ĭ":4753,"Ġà®ªà®¾à®ķà®®à¯į":4754,"à¯ģà®Łà¯į":4755,"à¯Ĩà®°à¯ģà®®à¯į":4756,"Ġà®¤à®Ļà¯įà®ķà®¿":4757,"Ġà®ĩà®©à¯įà®©":4758,"Ġà®ļà®¿à®°à®®":4759,"Ġà®īà®³à¯įà®³à®¿à®Łà®µà¯ģà®®à¯į":4760,"à®®à¯ģà®¤à®²":4761,"à¯įà®¸à¯ĭà®©à®¿":4762,"Ġà®µà®¿à®¤à®¿à®¤à¯įà®¤":4763,"19":4764,"Ġà®ªà¯ĩà®¾":4765,"à®¤à®¾à®©à®¿à®¯":4766,"à¯įà®¯à¯Ĥ":4767,"Ġà®ķà®°à¯įà®ªà¯įà®ª":4768,"Ġà®ķà¯Ĩà®Łà¯įà®Łà®¤à®¾à®ķà¯ģà®®à¯į":4769,"à®¯à®¤à¯įà®¤à®¿à®²à¯į":4770,"à¯Ĩà®¾à®°à¯ģà®³":4771,"à®µà®¿à®Łà¯įà®Ł":4772,"Ġà®µà®¿à®¯":4773,"Ġà®ļà®ķà¯įà®¸à¯ĭà®©à®¿":4774,"à®®à¯ģà®¤":4775,"TS":4776,"Ġà®ªà¯ĩà®¾à®Ł":4777,"Ġà®¤à®°à®µ":4778,"Ġà®ķà¯ģà®¤":4779,"Ġà®ªà®¨à¯įà®¤":4780,"à®¤à¯įà®¤à®¿à®²":4781,"à¯įà®ķà®¿à®©à¯įà®±à®©à®°à¯į":4782,"à®µà®Łà¯įà®Ł":4783,"Ġà®®à¯Ĭà®´":4784,"Ġà®ħà®©à¯Īà®¤à¯įà®¤à¯Īà®¯à¯ģà®®à¯į":4785,"Ġà®Ĵà®°à¯ģà®µà®°à¯Ī":4786,"Ġà®ķà¯Ģà®´à¯įà®ªà®Ł":4787,"à¯ģà®¸":4788,"ll":4789,"Ġà®ħà®¨à®¾à®¤":4790,"Ġà®ªà®¿à®°à®¿à®¨à¯įà®¤à¯ģ":4791,"Ġà®®à¯ģà®©à¯įà®©à®¿à®°à¯ģà®ªà¯įà®ªà¯ģ":4792,"02":4793,"Ġà®¤à®¾à®Ļ":4794,"à®¤à®¾à®ķà®µà¯ĩ":4795,"Ġà®µà®Łà®¿à®µà®®à¯Īà®ªà¯įà®ªà¯ģ":4796,"Ġà®¤à¯ģà®±":4797,"Ġà®ıà®¤à¯ģà®®à¯į":4798,"Ġà®İà®¤à®©à¯Īà®¯à¯ģà®®à¯į":4799,"Ġà®¤à®ķà¯ģà®¤à®¿à®¯":4800,"Ġà®ļà¯Ĭà®Łà¯ģà®ķà¯įà®ķ":4801,"Ġà®ªà¯ĩà®¾à®²à®µà¯ĩ":4802,"à®ªà¯įà®ªà¯Ĩà®±à¯įà®±":4803,"à®Ĩà®£":4804,"Ġà®®à®¾à®±à¯ģà®ª":4805,"à¯ģà®Ĳ":4806,"Ġà®İà®´à¯ģà®¤à¯ģ":4807,"à®°à¯ĩà®¾":4808,"à¯Ģà®Łà¯įà®Łà¯ģ":4809,"à¯ĩà®¾à®ļà®©à¯Ī":4810,"Ġà®ªà¯Īà®¯à®©à¯į":4811,"à®®à¯ģà®±à¯Ī":4812,"Ġà®ĩà®°à¯ģà®ªà¯įà®ªà®¾à®°à¯į":4813,"Ġà®¨à®¿à®²à¯Īà®¨à®¿à®±à¯ģà®¤à¯įà®¤":4814,"Ġà®µà®¿à®°à¯ģà®¨à¯įà®¤":4815,"Ġà®®à®±à®ķà¯įà®ķ":4816,"Ġà®ĩà®¨à¯įà®¨":4817,"à®®à®¾à®ķà¯įà®ķà®¿":4818,"à®īà®°à¯ģà®µ":4819,"à®īà®¤à®µà®¿":4820,"Ġà®®à®¿à®ķà®ªà¯įà®ª":4821,"Ġà®ªà¯Ĩà®¾à®°à¯ģà®Łà¯įà®ķà®³à¯Ī":4822,"à®¿à®µà®¿à®Łà¯įà®Łà®¤à¯ģ":4823,"à®ķà¯įà®ķà¯ģà®±":4824,"à®ªà®¿à®°à®¾à®°à¯įà®¤à¯įà®¤":4825,"Ġà®ļà¯Ĩà®µà®¿à®Ł":4826,"Ġà®®à®¾à®¤à®¿à®°à®¿":4827,"à®¿à®ķà¯įà®ķà®ªà¯įà®ªà®Łà¯įà®Łà®¤à¯ģ":4828,"Ġà®¨à¯Ģà®ķà¯įà®ķà®µà¯ģà®®à¯į":4829,"à¯Ģà®®":4830,"Ġà®¤à®Łà¯Ī":4831,"à¯ģà®®à¯ģà®©à¯į":4832,"à®¨à®ª":4833,")à®¤à®¿à®©à¯į":4834,"Ġà®ªà¯Ĩà®¾à®°à¯ģà®³à¯į":4835,"Ġà®ıà®±à¯įà®ªà®Łà¯įà®Łà®¾à®²à¯į":4836,"ton":4837,"Ġà®ħà®¤à®¿à®ķà®°":4838,"od":4839,"à®°à®¾à®³":4840,"Ġà®Ĩà®£à®µ":4841,"à®ħà®®à®°":4842,"Ġà®ļà¯Ĩà®¯à®²à¯įà®ªà®Łà¯ģà®¤à¯įà®¤à¯ģ":4843,"à®¿à®¯à®°à¯į":4844,"Ġà®ļà¯ĩà®ķà®°":4845,"à®µà¯ģà®®à¯ĩ":4846,"Ġà®ħà®°à¯ģà®³à®ªà¯įà®ªà®Łà¯įà®Ł":4847,"Ġà®®à®©à¯Īà®µà®¿":4848,"Ġà®µà®°à®²à®¾à®±à¯įà®±":4849,"Ġà®Ĩà®¤à¯įà®®à®¾à®µà¯ģà®®à¯į":4850,"à®¾à®°à®¤à¯įà®¤à¯Ī":4851,"à®®à¯Īà®ªà¯įà®ª":4852,"Ġà®īà®Ļà¯įà®ķà®³à¯ģà®ķà¯įà®ķà¯ģà®®à¯į":4853,"Ġà®¨à®¿à®±à¯įà®ķ":4854,"Ġà®ħà®±à®¿à®µà¯ģ":4855,"à®ªà¯įà®ªà®Łà®¾à®¤à¯Ģà®°à¯į":4856,"Ġà®ĩà®°à¯ģà®¤à®¯à®Ļà¯įà®ķà®³à®¿à®²à¯į":4857,"à®īà®®à¯įà®®à¯ģà®Łà¯Īà®¯":4858,"Ġà®µà¯Īà®¤à¯įà®¤à®¿à®°à¯ģà®ªà¯įà®ª":4859,"Ġà®¤à¯ģà®£à¯Ī":4860,"à¯Ģà®°à®¾à®¯à®¿à®©à¯į":4861,"à®µà®°à¯įà®ķà®³à¯ģà®Łà¯Īà®¯":4862,"à®¯à®¾à®µà¯ģà®®à¯į":4863,"Ġà®¤à®¨à¯įà®¤à¯Īà®¯à¯ĩ":4864,"Ġà®®à®¾à®°à¯įà®ķà¯įà®ķà®¤à¯įà®¤à¯Ī":4865,"Ġà®ıà®±à¯įà®ªà®Łà¯ģà®¤à¯įà®¤à®¿à®ķà¯į":4866,"Ġà®ķà¯Ĩà®¾à®£à¯įà®Łà®¿à®°à¯ģà®¨à¯įà®¤à®µà¯Ī":4867,"sh":4868,"Ġà®µà®´à®¿à®ªà®Łà¯ģà®Ļà¯įà®ķà®³à¯į":4869,"KDE":4870,"Ġà®ŀà®¾à®©à®®à¯ģà®Łà¯Īà®¯à®µà®©à®¾à®ķà®µà¯ģà®®à¯į":4871,"Ġà®ļà®®à®®":4872,"Ġà®¨à®©à¯įà®®à¯Īà®¯à¯Ī":4873,"Ġà®ķà¯ĩà®Łà¯įà®ķà®¿à®©à¯įà®±à®©à®°à¯į":4874,"à®ķà®©":4875,"Ġà®ħà®µà®°à¯Īà®¯à¯ģà®®à¯į":4876,"à¯Īà®ķà®³à®¿à®²à¯ģà®®à¯į":4877,"Ġà®ªà¯Ĭà®°à¯ģà®¤à¯įà®¤":4878,"à®¤à¯Ĥ":4879,"Ġà®®à®©à¯įà®©à®¿à®ªà¯įà®ªà¯ģà®®à¯į":4880,"bia":4881,"à®¿à®¯à®¾à®²à¯į":4882,"à®ķà¯Ĥà®Ł":4883,"Ġà®ħà®ķà®²à®®à¯į":4884,"à®¿à®°à¯ģà®³à¯įà®³":4885,"à®ªà®¿à®³":4886,"Ġà®®à®±à¯ģà®ª":4887,"Ġà®ķà¯Ĩà®¾à®Łà¯ģà®¤à¯įà®¤à®¾à®©à¯į":4888,"Ġà®Ĩà®ļà¯Ī":4889,"à®µà¯ĩà®¤à®©":4890,"à®¿à®¸à¯įà®ķà¯Ĭ":4891,"(à®®à¯į":4892,"à®¿à®ķà®³à®¾à®©":4893,"à®ĩà®µà¯įà®µà®¾à®±":4894,"à®¿à®Łà®®à®¿à®°à¯ģà®¨à¯įà®¤à¯ģà®®à¯į":4895,"Ġà®ħà®¨à®¿à®¯à®¾à®¯à®ķà¯įà®ķà®¾à®°à®°à¯įà®ķà®³à¯į":4896,"à®Łà®¿à®µà®¿à®Ł":4897,"à®ļà®¾à®¯":4898,"à®µà®¾à®©à®Ļà¯įà®ķà®³à®¿à®²à¯ģà®®à¯į":4899,"Ġà®ªà¯Ĩà®°à¯ģà®®":4900,"à®ªà¯Ĩà®±à¯įà®±":4901,"Ġà®ĩà®°à¯ģà®¨à¯įà®¤à®¾à®©à¯į":4902,"Ġà®ķà®¾à®£à¯ģà®®à¯į":4903,"à®µà®°à®¿":4904,"Ġà®¨à®®à¯įà®®à®¿à®Łà®®à¯ĩ":4905,"Ġà®ªà®¿à®©à¯įà®©à¯ģà®®à¯į":4906,"star":4907,"Ġà®¤à®©à®ķà¯įà®ķ":4908,"Ġà®İà®²à¯įà®²à®¾à®µ":4909,"Ġà®µà®¾à®¯à®¿à®²":4910,"à®ĩà®µà¯įà®µà¯ģà®²à®ķà®¿à®²à¯į":4911,"Ġà®µà®°à¯ģà®µà®¾à®°à¯įà®ķà®³à¯į":4912,"Ġà®¨à®°à®ķà®¤à¯įà®¤":4913,"Ġtranslated":4914,"à¯Ĩà®°à®¿à®ķà¯įà®ķà®¾":4915,"Ġà®ªà®£à¯įà®£":4916,"Ġà®ķà®¾à®£à®®à®¾à®Łà¯įà®Łà¯Ģà®°à¯į":4917,"à®®à®°à¯įà®¯":4918,"à®¿à®¤à¯įà®¤à®¾à®²à¯į":4919,"à®¿à®Ļ":4920,"Ġà®Ĵà®¤à¯įà®¤":4921,"à¯ģà®ķà®³à¯Īà®ªà¯į":4922,"ong":4923,"à¯Īà®®à®Łà¯įà®Ł":4924,"à®®à®¿à®Ł":4925,"à®·à¯Īà®¤à¯įà®¤":4926,"Ġà®ļà¯ģà®µà®°à¯įà®ķà¯įà®ķà®¤à¯įà®¤à®¿à®²à¯į":4927,"Ġà®ħà®©à¯Īà®µà®°à¯ģà®®à¯į":4928,"Ġà®ħà®ķà¯įà®ķà®¿à®°à®®à®®à¯į":4929,"à¯ģà®ĥà®ªà¯į":4930,"Ġà®¤à¯Ģà®Ļà¯įà®ķà¯ģ":4931,"Ġà®µà®ļà®ªà¯įà®ªà®Łà¯ģà®¤à¯įà®¤à®¿à®ķà¯į":4932,"à¯Ĥà®¸à¯ģà®ĥà®ªà¯į":4933,"Ġà®ķà®¾à®ĥà®ªà®¿à®°à¯įà®ķà®³à¯Ī":4934,"à®İà®²à¯įà®²à®¾":4935,"Ġà®īà®©à®ķà¯įà®ķ":4936,"CO":4937,"à®µà®±":4938,"Ġà®ħà®¤à¯įà®¤à®¾à®Łà¯įà®ļà®¿à®ķà®³à¯ģà®Łà®©à¯į":4939,"à®ĩà®±à¯Īà®µà®©à¯ģà®ķà¯įà®ķà¯ģ":4940,"Ġà®¤à®µà¯įà®°à®¾à®¤à¯įà®¤":4941,"à®¾à®ķà¯įà®ķà¯ģà®®à¯į":4942,"ussia":4943,"à®¿à®Łà®¤à¯įà®¤à®¿à®²à¯ģà®®à¯į":4944,"à®ªà®¿à®´":4945,"Ġà®īà®¤à®µà®¿à®¯à®¾à®³":4946,"à®ħà®®à¯įà®®":4947,"à®ļà®¨à¯įà®¤":4948,"Ġà®ķà®¾à®ªà¯įà®ªà®¾à®±à¯įà®±à®¿à®©à¯ĭà®®à¯į":4949,"Ġà®ļà¯Ĩà®µà®¿à®¯à¯ģà®±à¯ģà®µ":4950,"Ġà®¨à®°à®ķà®µà®¾à®ļ":4951,"Ġà®ķà¯Ĥà®±à®ªà¯įà®ªà®Łà¯įà®Łà®¾à®²à¯į":4952,"à¯Ĩà®´à¯ģà®¤à¯įà®¤":4953,"Ġà®İà®µà®°à¯ģà®Łà¯Īà®¯":4954,"oc":4955,"ug":4956,"à®¤à¯įà®¤à®¿à®²à¯ģà®³à¯įà®³":4957,"à®İà®©à®ķà¯į":4958,"à®ĥà®ªà¯į":4959,"Ġà®īà®±à¯įà®±à¯ģ":4960,"Ġà®Ĭà®±à¯įà®±":4961,"Ġà®µà®°à¯ģà®¨à¯įà®¤à¯ģà®ķà®¿à®±à¯ĩà®©à¯į":4962,"Ġà®ļà¯Ĩà®¯à¯įà®ķà®¿à®±à¯ĩà®©à¯į":4963,"à®Łà¯įà®ļà®¿à®¯":4964,"ĠKDE":4965,"à®¿à®ªà¯įà®ªà®¤à¯Ī":4966,"à®ľà¯įà®ľ":4967,"Ġà®İà®¤à®¿à®°à¯įà®ªà®¾à®°à¯įà®ķà¯įà®ķ":4968,"Ġà®¸à®²à®¾à®®à¯į":4969,"Ġà®ªà¯Ĩà®°à¯ģà®®à¯Īà®¯à®Łà®¿à®¤à¯įà®¤à¯ģà®ķà¯į":4970,"à®®à®©à¯į":4971,"Ġà®ªà®¿à®°à®¿à®¯":4972,"Ġà®ĵà®°":4973,"à¯įà®ªà¯į":4974,"Ġà®¤à®¾à®°":4975,"à®ļà®¿à®¸à¯įà®ķà¯Ĭ":4976,"Ġà®Ĵà®ªà¯įà®ªà®Ł":4977,"Ġà®¤à¯ģà®Łà¯Īà®ķà¯įà®ķ":4978,"à¯Īà®¯à®¾à®¤à¯ģ":4979,"à¯Īà®ķà®³à®¾à®²à¯į":4980,"Ġà®īà®£à¯įà®Łà®¾à®ķà¯įà®ķà®¿à®©à®¾à®©à¯į":4981,"Ġà®ªà®Łà¯Īà®¤à¯įà®¤à®µà®©à¯į":4982,"à®Ĵà®°à¯ģà®µà®°":4983,"Ġà®İà®Ļà¯įà®ķà¯ģ":4984,"ATOR":4985,"à¯įà®Ĵ":4986,"Ġà®ķà®¾à®²à®¤à¯įà®¤à®¿à®²à¯į":4987,"à®¾à®Łà®¿":4988,"Ġà®ħà®Łà®¿à®¯à®¾à®°à¯įà®ķà®³à¯Ī":4989,"à®¿à®®à¯į":4990,"Ġà®¤à®µà®±à®¿à®¯":4991,"Ġà®ĩà®£à¯Īà®ķà¯įà®ķ":4992,"à®ķà®³à¯į":4993,"ĠY":4994,"Ġà®ħà®ªà¯įà®ªà®Łà®¿à®¯":4995,"à®¤à¯įà®¤à®¾à®©à¯į":4996,"Ġà®ªà¯ĩà®¾à®Łà¯įà®Ł":4997,"Ġà®ĩà®°à¯ģà®ªà¯įà®ªà®¤à¯Ī":4998,"Ġà®¤à®¿à®°à¯ģà®ªà¯įà®¤à®¿":4999,"à®ķà®²":5000,"Ġà®µà®¿à®ļà®¾à®°à®£":5001,"à®¤à¯Ĭà®ķ":5002,"escrip":5003,"à®®à®¾à®Łà¯įà®Łà®¾à®¤à¯ģ":5004,"Ġà®ĩà®Łà®¤à¯ģ":5005,"Ġà®īà®³à¯įà®³à¯ĩ":5006,"à¯įà®ķà®³à¯Īà®ķà¯į":5007,"Ġà®ķà¯įà®³à®¿à®ķà¯į":5008,"à®µà®¾à®±":5009,"Ġà®ļà¯Ĩà®²à¯į":5010,"ome":5011,"à®ħà®Łà¯ģà®¤à¯įà®¤":5012,"Ġà®ħà®ªà¯įà®ªà®Ł":5013,"à®İà®´à¯ģà®¤":5014,"à®ļà®®":5015,"Ġà®īà®°à®¿à®®à¯Ī":5016,"à¯Ĩà®Łà¯ģà®ªà¯įà®ª":5017,"Ġà®ħà®´à®¿à®µ":5018,"à®²à®¾à®®à¯ģà®©à¯į":5019,"Ġà®ļà®¾à®ªà¯įà®ª":5020,"Ġà®®à¯ģà®¤à®²à®¿à®²à¯į":5021,"à¯Ĥà®Łà¯įà®Łà¯ģà®®à¯į":5022,"AME":5023,"Ġà®µà®¿à®Łà¯ģà®µà¯ĩà®©à¯į":5024,"Ġà®ħà®¤à®±à¯įà®ķà®¾à®ķ":5025,"Ġà®ªà¯ĩà®¾à®°à®¿à®²à¯į":5026,"à¯įà®ķà®³à¯Īà®¤à¯į":5027,"Ġà®¨à®¿à®ļà¯įà®ļà®¯":5028,"à®®à¯Īà®¯à¯ģà®®à¯į":5029,"Ġà®¤à®¾à®©à®¿à®¯":5030,"Ġà®¤à¯Ĭà®ķà¯ģà®ªà¯įà®ª":5031,"egion":5032,"à®ħà®¤à¯Īà®ªà¯į":5033,"Ġstat":5034,"à®¤à¯ģà®ª":5035,"Ġà®ķà®Łà®²à®¿à®²à¯į":5036,"Ġà®ļà®¤à®¿":5037,"Ġà®ħà®©à¯Īà®¤à¯įà®¤à¯ģà®ªà¯į":5038,"Ġà®ķà®¿à®Łà®ķà¯įà®ķ":5039,"Ġà®ķà®¤à¯Ī":5040,"Ġà®ķà®Łà¯įà®Łà®³à¯Īà®ķà®³à¯Ī":5041,"Ġà®µà®°à®¿":5042,"à®¿à®ķà®³à®¿à®Łà®®à¯į":5043,"Ġà®¤à¯ĩà®¾à®©à¯įà®±":5044,"à®ħà®µà®°à¯įà®ķà®³à®¿à®©à¯į":5045,"Ġà®ªà¯ģà®©à®¿à®¤":5046,"à¯ĭà®°à¯į":5047,"à®¾à®¯à®¿à®©à¯ģà®®à¯į":5048,"Ġà®µà¯Ĩà®±à¯ģà®¤à¯įà®¤":5049,"Ġà®ªà®¤à¯įà®¤à¯ģ":5050,"à¯ģà®®à¯ĩà®¾":5051,"à¯įà®®à¯ĩà®ļ":5052,"à®Łà®¿à®¯à¯ĭ":5053,"ĠSt":5054,"Ġà®ıà®±à¯įà®±à¯ģà®®à®¤à®¿":5055,"Ġà®ĩà®°à®ķà¯įà®ķ":5056,"Ġà®ħà®²à¯įà®²à®¾à®®à®²à¯į":5057,"à®µà®¿à®³à¯Īà®¯":5058,"Ġà®®à®±à¯įà®±à¯Ĩà®¾à®°":5059,"Ġà®¨à®²à¯įà®²à®¤à¯ģ":5060,"Ġà®ķà¯ĩà®Łà¯įà®Łà¯ģà®ķà¯į":5061,"LE":5062,"Ġà®ļà¯Ĥà®´à¯įà®¨à¯įà®¤":5063,"Ġà®ļà¯Ĩà®²à¯ģà®¤à¯įà®¤à¯ģà®ķà®¿à®±à®¾à®©à¯į":5064,"Ġà®ĩà®¤à¯Īà®ªà¯į":5065,"à®¨à¯į":5066,"Ġà®Ĵà®©à¯įà®ªà®¤à¯ģ":5067,"Ġà®®à¯ĩà®¾à®ļà®®à¯į":5068,"Ġà®µà®Łà®¿à®µà®®à¯į":5069,"à®¿à®°à¯į":5070,"Ġà®īà®£à®°à¯įà®¨à¯įà®¤à¯ģ":5071,"Ġà®īà®£à®µ":5072,"Ġà®ķà®¾à®£à¯įà®ķà®¿à®±":5073,"à®¤à®¿à®°à¯ģà®®à¯įà®ª":5074,"à®ĩà®¤à®¿à®²à¯į":5075,"à®¾à®Łà¯ģà®ķà®³à¯į":5076,"Ġà®īà®°à¯ģà®µà®¾à®ķà¯įà®ķà¯ģà®ķ":5077,"à®ħà®£à¯ģà®ķ":5078,"ting":5079,"(à®ħà®¤à¯ģ":5080,"Ġà®ĩà®°à¯ģà®ķà¯įà®ķà®²à®¾à®®à¯į":5081,"à¯ĩà®³à¯Ī":5082,"à¯įà®ªà®Ł":5083,"à®ķà®¿à®³":5084,"ype":5085,"à®ħà®¤à¯įà®¤à®ķà¯Īà®¯":5086,"à®¤à¯įà®¤à®¿à®±à¯įà®ķà¯ģà®®à¯į":5087,"à®µà®Łà®¿à®µ":5088,"Ġà®İà®µà®°à¯Ī":5089,"Ġà®ªà¯ģà®°à®¿à®¨à¯įà®¤à¯ģ":5090,"à®Łà¯Īà®ķ":5091,"end":5092,"Ġà®ªà®¯à®©à¯įà®ªà®Łà¯ģà®¤à¯įà®¤à®¿":5093,"Ġà®ªà¯ģà®ķà®²":5094,"à¯ģà®Łà¯Ī":5095,"Ġà®ªà®°à®¿à®ķà®¾à®ļà®®à¯į":5096,"Ġà®¨à¯ĩà®¾à®©à¯įà®ªà¯ģ":5097,"Ġà®ļà¯Ģà®ķà¯įà®ķà®¿à®°":5098,"Ġà®īà®£à¯įà®Łà®¾à®ķà¯įà®ķà®¿à®¯":5099,"à®®à®ķà¯įà®ķà®³à¯Ī":5100,"Ġà®ĩà®Łà¯įà®Łà¯ģà®ķà¯įà®ķ":5101,"Ġà®¨à®¾à®Ļà¯įà®ķà®³à¯ģà®®à¯į":5102,"france":5103,"à¯Īà®ªà¯įà®ªà®Ł":5104,"Ġà®ķà¯ģà®ªà¯įà®ª":5105,"Ġà®µà¯ĩà®¤à®©à¯Īà®¯à®¿à®²à¯į":5106,"Ġà®®à®¾à®°à¯įà®ķà¯įà®ķà®¤à¯įà®¤à®¿à®²à¯į":5107,"Ġà®ħà®µà®±à¯įà®±à¯Īà®ķà¯į":5108,"Ġà®Łà®¿à®µà®¿à®Łà®¿":5109,"Ġà®µà®¿à®²à¯įà®²à¯Īà®¯à®¾":5110,"à®©à¯įà®®à¯Īà®¯à®¾à®©":5111,"Ġà®ħà®Łà¯įà®Łà®µà®£à¯Ī":5112,"Ġà®ķà¯Ĥà®±à¯ģà®ķà®¿à®©à¯įà®±":5113,"Ġà®µà¯ĩà®¤à®¤à¯įà®¤à¯Īà®ķà¯į":5114,"à®®à®¾à®ķà®¤à¯į":5115,"Ġà®ªà®±à¯įà®±à®¿à®ķà¯į":5116,"Ġà®¤à®¾à®®à®¤":5117,"à¯įà®Łà®¿":5118,"Ġà®ªà®¿à®°à®µà¯ĩà®ļà®¿à®ķà¯įà®ķà®ļà¯į":5119,"Ġà®®à®ķà¯įà®ķà®³à®¿à®²à¯į":5120,"à®¿à®ķà¯įà®ķà®¿à®©à¯įà®±à¯ĩà®¾à®®à¯į":5121,"à®¿à®ķà¯įà®ķà®¿à®©à¯įà®±à®©à®°à¯į":5122,"à®¿à®ĥà®ªà¯į":5123,"Ġà®®à®¾à®Łà¯įà®Łà¯Ģà®°à¯įà®ķà®³à®¾":5124,"Ġà®ĩà®±à®ķà¯įà®ķà®¿à®¯à®°à¯ģà®³":5125,"Ġà®ļà®¾à®¯à¯įà®¨à¯įà®¤à¯ģ":5126,"Ġà®ªà®²à®©à¯Ī":5127,"Ġà®ĩà®£à¯Īà®¯":5128,"Ġà®®à®©à¯įà®©à®¿à®ªà¯įà®ªà¯ģ":5129,"à®İà®Ļà¯įà®ķà®³à¯ģà®ķà¯įà®ķà¯ģ":5130,"Ġà®ļà¯Ĩà®¯à¯įà®µà¯ĩà®¾à®°à¯ģà®ķà¯įà®ķà¯ģ":5131,"Ġà®ªà®¿à®°à®¾à®°à¯įà®¤à¯įà®¤à®¿à®¤à¯įà®¤à®¾à®°à¯į":5132,"11":5133,"Ġ#":5134,"à¯ģà®ķà¯įà®ķà®¿":5135,"à¯įà®ļà¯į":5136,"Ġà®ļà¯Ĩà®¯à¯įà®µà¯ĩà®¾à®°à¯Ī":5137,"Ġà®ļà®¤à¯įà®¤à®¿à®¯à®¤à¯įà®¤à¯Ī":5138,")à®²":5139,"Ġà®īà®¯à®¿à®°à¯ģà®³à¯įà®³":5140,"à®µà®´à®¿":5141,"à®¤à®¾à®Ļà¯įà®ķà®³à¯į":5142,"à®¤à®¿à®¯à®¾à®ķ":5143,"à¯ĩà®¾à®©à¯įà®±":5144,"à®¿à®°à¯ģà®¨à¯įà®¤à®¾à®°à¯įà®ķà®³à¯į":5145,"Ġà®ķà¯Ĩà®¾à®£à¯įà®Łà®¿à®°à¯ģà®¨à¯įà®¤à¯Ģà®°à¯įà®ķà®³à¯į":5146,"Ġà®ªà®¿à®°à®ķà®¾à®ļ":5147,"à®¿à®°à¯ģà®ªà¯įà®ªà®¤à¯ģà®®à¯į":5148,"Ġà®¤à¯Ĥà®¤à®°à¯įà®ķà®³à¯Īà®ªà¯į":5149,"Ġà®ªà®¿à®®à¯įà®ªà®®à¯į":5150,"à®®à®¿à®©à¯įà®©":5151,"Ġà®¤à¯Ĥà®¤à®°à®¾à®ķ":5152,"Ġà®¨à®±à¯įà®ªà¯ĩà®¾à®¤":5153,"Ġà®ªà®Ļà¯įà®ķà¯ģ":5154,"Ġà®¤à®¿à®¯à®¾à®©":5155,"Ġà®µà¯ĩà®¤à®¤à¯įà®¤à®¿à®©à¯į":5156,"Ġà®ķà¯Ĥà®Łà¯įà®Łà®¤à¯įà®¤à®¿à®©à®°":5157,"Ġà®Ĵà®³à®¿":5158,"Ġà®ħà®®à¯Īà®ķà¯įà®ķà®µà¯ģà®®à¯į":5159,"Ġà®¹à®¾à®°à¯Ĥ":5160,"à®¿à®µà¯Īà®¤à¯įà®¤à¯ĩà®¾à®®à¯į":5161,"à®Ļà¯įà®ķà®³à¯ģà®ķà¯įà®ķà¯Ĩà®²à¯įà®²à®¾à®®à¯į":5162,"Ġà®ħà®Łà¯Īà®¨à¯įà®¤à¯ģ":5163,"à®īà®©à¯į":5164,"Ġà®¤à¯Ĥà®¯à¯įà®®à¯Īà®¯à®¾à®©à®µà®©à¯į":5165,"à®ªà¯įà®²à¯Ģà®¸":5166,"Ġà®¤à¯Ĩà®°à®¿à®µ":5167,"à®µà®°à®¿à®ļà¯Ī":5168,"Ġà®¨à®©à¯įà®ķà®±à®¿à®ķà®¿à®±à®¾à®©à¯į":5169,"ĠTRAN":5170,"Ġà®®à®©à¯Īà®µà®¿à®¯à®°":5171,"SLATOR":5172,"ĠTRANSLATOR":5173,"ĠTRANSLATORS":5174,"à®µà®¿à®¯":5175,"Ġà®Ĩà®ķà¯įà®ķà®¿à®µà®¿à®Ł":5176,"Ġà®¸à¯ģà®²à¯Īà®®à®¾à®©":5177,"à®ķà¯įà®ķà¯Ĥà®Ł":5178,"à®ķà¯įà®ļ":5179,"Ġà®ļà¯Ĩà®¯à¯įà®µà®¾à®¯à®¾à®ķ":5180,"Ġà®¨à¯Ģà®ķà¯įà®ķà®¿":5181,"à¯ĩà®¾à®°à¯Ĩà®©à¯įà®±à®¾à®²à¯į":5182,"Ġà®ķà®¿à®°à¯ģà®ªà¯Īà®¯à¯ģà®Łà¯Īà®¯à®µà®©à®¾à®ķà®µà¯ģà®®à¯į":5183,"Ġshould":5184,"à®¿à®ªà¯įà®°à®¯":5185,"Ġà®ĩà®°à¯ģà®ķà¯įà®ķà®¿à®©à¯įà®±à¯Ģà®°à¯įà®ķà®³à¯į":5186,"à®ªà®¤à®¿à®µ":5187,"Ġà®Ĵà®Łà¯įà®Łà®ķà®®à¯į":5188,"à¯ģà®Łà¯įà®ª":5189,"Ġà®İà®©à¯įà®ªà®¤à¯Īà®ªà¯į":5190,"Ġà®ļà¯Ĩà®¯à®²à¯įà®ķà®³à¯Īà®ļà¯į":5191,"Ġà®¨à®®à¯įà®®à®¿à®Łà®®à®¿à®°à¯ģà®¨à¯įà®¤à¯ģ":5192,"Ġà®ļà¯Ĩà®²à¯ģà®¤à¯įà®¤à¯ģà®®à¯į":5193,"Ġà®¨à¯ģà®´à¯Īà®¯à¯ģà®Ļà¯įà®ķà®³à¯į":5194,"Ġà®®à¯Ĥà®¸à®¾à®µà®¿à®©à¯į":5195,"Ġà®®à®©à¯įà®©à®¿à®ªà¯įà®ªà¯ĩà®¾à®©à®¾à®ķà®µà¯ģà®®à¯į":5196,"Ġà®ªà®¿à®¨à¯įà®¤":5197,"à®¿à®Łà¯Īà®¯à®¿à®²à¯ģà®®à¯į":5198,"à®µà®©à¯ģà®ķà¯įà®ķà¯ģ":5199,"Ġà®¨à®¾à®Łà®¿à®¯à®µà®°à¯įà®ķà®³à¯ģà®ķà¯įà®ķà¯ģ":5200,"Ġà®¤à¯ĩà®µà¯Īà®¯à®¾à®©":5201,"Ġà®ªà®¯à®©à®°à¯į":5202,"Ġà®ķà®±":5203,"à¯Ģà®ķà¯įà®ķ":5204,"à®µà¯ĩà®¤à®©à¯Ī":5205,"Ġà®ķà®³à®¿à®®":5206,"Ġà®µà®²à®ķà¯įà®ķà®°":5207,"Ġà®ĵà®¤à®¿à®ķà¯įà®ķ":5208,"à¯įà®ķà®¿à®±à®¾à®©à¯į":5209,"Ġà®µà®¿à®¯à®¾à®ª":5210,"Ġà®®à®¾à®²à¯Īà®¯à®¿à®²à¯ģà®®à¯į":5211,"ĠOF":5212,"à®¨à®©à¯įà®®":5213,"à®ħà®ªà¯įà®ªà¯Ĩà®¾à®´à¯ģà®¤à¯ģ":5214,"Ġà®¨à®·à¯įà®Łà®µà®¾à®³":5215,"à®Ĩà®µà®£":5216,"à®±à¯įà®ªà¯ĭà®¤à¯ģ":5217,"Ġà®¨à®¿à®°à®¾à®ķà®°à®¿à®ķà¯įà®ķ":5218,"VD":5219,"Ġà®īà®¤à¯įà®¤à®°":5220,"Ġà®µà®²à®ªà¯įà®ªà¯ģà®±":5221,"Ġà®¤à¯ģà®ķà¯įà®ķà®ªà¯įà®ªà®Łà®µà¯ģà®®à¯į":5222,"à®¾à®Łà¯į":5223,"à®ıà®©à¯į":5224,"Ġà®ķà¯Ĥà®Łà¯įà®Łà®¤à¯įà®¤à®¿à®©à®°à¯į":5225,"Ġà®ļà¯Ĩà®µà®¿à®¯à¯ģà®±à¯ģà®µà¯ĩà®¾à®©à®¾à®ķà®µà¯ģà®®à¯į":5226,"Ġà®ªà®¯à®ªà®ķ":5227,"à¯įà®¤à¯įà®¤à¯ģà®ķà¯į":5228,"Ġà®ªà®°à®¿à®ª":5229,"Ġà®ķà¯Īà®ļ":5230,"Ġà®®à¯Ĩà®¯à¯įà®ªà¯įà®ª":5231,"à®¿à®ªà¯įà®ªà®µà®©à¯į":5232,"à®®à¯ģà®¨à¯įà®¤":5233,"à®¾à®°à¯įà®ķà®³à®¾à®¯à®¿à®©à¯į":5234,"à®²à®ķà¯Ī":5235,"à®©à®¾à®ķà®¿à®¯":5236,"à®ļà¯Ĩà®¯à¯įà®¤":5237,"Ġà®¤à¯Ģà®°à¯įà®ķà¯įà®ķ":5238,"Ġorg":5239,"Ġà®ĩà®¯à®ķà¯įà®ķà®¿":5240,"vin":5241,"Ġà®ħà®µà®°à¯ģà®ķà¯įà®ķà¯ģà®ķà¯į":5242,"à¯Īà®¤à¯įà®¤à¯ģà®ªà¯į":5243,"Ġà®ªà®¾à®¤à¯ģà®ķà®¾à®¤à¯įà®¤":5244,"Ġà®ļà¯Ĩà®¯à¯įà®ķà®¿à®±à®¾à®©à¯ĭ":5245,"Ġà®¤à¯Ĭà®²à¯Ī":5246,"Ġ[":5247,"à®¸à¯įà®ķ":5248,"Ġà®ħà®©à¯ģà®ªà¯įà®ªà®µà®¿à®²à¯įà®²à¯Ī":5249,"Ġà®ķà®µà®©à®¿à®¤à¯įà®¤à¯Ģà®°à¯įà®ķà®³à®¾":5250,"à®ħà®µà®°à¯ģà®ķà¯įà®ķà¯ģ":5251,"à®¿à®ĥà®ª":5252,"Ġà®ķà¯Īà®ļà¯ĩà®¤":5253,"Ġà®ªà¯Ĩà®¾à®°à¯ģà®³à¯įà®ķà®³à¯Īà®¯à¯ģà®®à¯į":5254,"à®µà®°à¯įà®ķà®³à®¾à®ķà®¿":5255,"Ġà®µà¯Ĩà®±à¯įà®±à®¿à®ķà®°à®®à®¾à®ķ":5256,"à¯ĩà®¾à®ª":5257,"Ġà®ªà®¾à®°à¯į":5258,"Ġà®¤à¯ĩà®°à¯įà®¨à¯įà®¤à¯Ĩà®Łà¯ģà®¤à¯įà®¤à¯ģà®ķà¯į":5259,"Ġv":5260,"à®¿à®Ĳ":5261,"à¯įà®®à¯Īà®¯à®¾à®ķ":5262,"Ġà®ķà¯Ĩà®¾à®©à¯įà®±à¯ģ":5263,"Ġà®¨à®©à¯įà®®à¯Īà®¯à®¾à®©":5264,"à¯Ĩà®¾à®´à¯ģà®¤à¯ģà®®à¯į":5265,"à®©à®¾à®ķà®µà¯ģà®®à¯į":5266,"escription":5267,"Ġà®ħà®²à¯įà®²à®¾à®¹à¯įà®µà¯ģà®Łà®©à¯į":5268,"Ġà®ķà¯Ĩà®¾à®£à¯įà®Łà®¿à®°à¯ģà®¨à¯įà®¤à¯Ģà®°à¯įà®ķà®³à¯ĩà®¾":5269,"Ġà®ļà¯Ĩà®¯à®²à¯įà®ķà¯Ĥà®±à¯ģ":5270,"Ġà®ªà®ķà®²à¯Ī":5271,"Ġà®µà®¿à®°à¯ģà®®à¯įà®ªà¯ģà®ķà®¿à®±à¯ĩà®©à¯į":5272,"Ġà®²à¯į":5273,"à®¤à¯ģà®°":5274,"à¯ģà®ķà¯įà®ķà®¿à®Łà¯Īà®¯à¯ĩ":5275,"Ġà®ĩà®°à®¤à¯įà®¤":5276,"Ġà®¨à®·à¯įà®Łà®®à®Łà¯Īà®¨à¯įà®¤":5277,"à®ļà¯Ĩà®¯à®²à¯įà®ª":5278,"Ġà®İà®´à¯ģà®¤à¯įà®¤à¯ģà®°à¯ģ":5279,"Ġà®ļà¯ĩà®°à¯ģà®®à¯į":5280,"Ġà®ªà¯Ĩà®±à¯ģà®µà®¤à®±à¯įà®ķà®¾à®ķ":5281,"Ġà®µà®¾à®´à¯įà®ķà¯įà®ķà¯Īà®¯à®¿à®²à¯į":5282,"à¯ģà®ķà¯įà®ķà¯Ĩà®¾à®³":5283,"Ġà®ĩà®±à¯ģà®¤":5284,"Ġà®¨à¯ĩà®°à¯įà®¨à¯įà®¤à®¤à¯ģ":5285,"Ġà®¨à®¾à®Łà®¿":5286,"Ġà®ħà®ļà¯įà®ļà¯ģà®ªà¯įà®ªà¯Ĭ":5287,"Ġà®ªà®¿à®±à®¨à¯įà®¤":5288,"à®¿à®ķà®°à¯į":5289,"à®ªà¯ģà®ķ":5290,"Ġà®İà®Ļà¯įà®ķ":5291,"Ġà®ĩà®´à¯ģà®¤à¯įà®¤":5292,"à®¨à¯ĩà®°à®¾à®©":5293,"Ġà®ªà¯Ģ":5294,"à®¿à®±à®¾à®°à¯į":5295,"Ġà®¨à¯ĩà®¾à®¯à¯į":5296,"à¯ģà®®à¯įà®ªà¯ĩà®¾à®¤":5297,"à®ıà®©à¯Ĩà®©à¯įà®±à®¾à®²à¯į":5298,"Ġà®ªà®¾à®°à¯įà®ķà¯įà®ķà®µà¯ģà®®à¯į":5299,"à¯Īà®ķà¯įà®ķà¯ģà®ªà¯į":5300,"Ġà®µà®¿à®ļà®¾à®²à®®à®¾à®©":5301,"Ġà®ĩà®°à¯ģà®¨à¯įà®¤à¯ģà®®à¯į":5302,"à®Ĵà®²à®¿":5303,"Ġà®ķà¯ģà®±à®¿à®ªà¯įà®ªà¯ģ":5304,"Ġà®ħà®¤à®¿à®°":5305,"Ġà®¨à®¿à®±à¯Īà®¨à¯įà®¤":5306,"Ġà®µà®¿à®ķ":5307,"rom":5308,"Ġà®ĩà®´à®¨à¯įà®¤à¯ģ":5309,"lo":5310,"à®¨à¯įà®¤à¯Ī":5311,"Ġà®ļà¯Ĩà®¯à¯įà®ªà®µà®°à¯į":5312,"Ġà®ªà¯Īà®¤à¯įà®¤à®¿à®¯à®ķà¯įà®ķà®¾à®°":5313,"à®ķà®°à¯į":5314,"Ġ--":5315,"à®ħà®µà®±à¯įà®±à¯Ī":5316,"à¯ĩà®±à¯ģ":5317,"Ġà®®à¯ģà®ķà®®à¯į":5318,"Ġà®µà®¿à®Łà¯įà®Łà¯ĩà®©à¯į":5319,"à®µà®°à®¿à®©à¯į":5320,"Ġà®ķà¯Ĩà®¾à®Łà¯ģà®ķà¯įà®ķà®ªà¯įà®ªà®Łà¯ģà®®à¯į":5321,"Ġà®ķà®µà®²":5322,"Ġà®µà®´à®¿à®ªà¯įà®ªà®Ł":5323,"à®ıà®±à¯įà®ª":5324,"à®®à¯ģà®¤à®²à¯į":5325,"à®İà®²":5326,"Ġà®ªà¯Ĭà®¤à¯įà®¤à®¾à®©à¯Ī":5327,"onth":5328,"à®ĩà®¸":5329,"à¯įà®£à®¯":5330,"Ġà®µà®¾à®Ļà¯įà®ķà®¿":5331,"uer":5332,"_:":5333,"à®¨à®¿à®ķà®´":5334,"Ġà®®à®±à¯Īà®µ":5335,"à®¿à®ªà®¤à®¿":5336,"Ġà®ķà®Łà®©à¯į":5337,"Ġsp":5338,"à®¿à®®à¯ģà®±à¯Ī":5339,"Ġà®ķà®°à¯ģà®¤à¯įà®¤à¯ģ":5340,"Ġà®ĩà®°à®Łà¯įà®Ł":5341,"Ġà®ķà¯Īà®ķà®³à¯į":5342,"Ġà®ªà®´à®¿":5343,"Ġà®¤à¯ģà®ªà¯įà®ª":5344,"à®¿à®°à¯ģà®ªà¯įà®ªà®¤à¯Ī":5345,"à¯Ģà®Łà¯įà®Łà¯Ī":5346,"Ġà®ħà®µà®©à¯Īà®ķà¯į":5347,"Ġà®¤à¯ģà®£à¯įà®Łà¯ģ":5348,"Ġà®ĩà®´à®ªà¯įà®ª":5349,"à®ķà®°à¯ģà®µ":5350,"Ġà®¨à®¿à®©à¯įà®±à¯ģ":5351,"à¯ĩà®ļà®¿":5352,"Ġà®ķà®²à¯įà®µà®¿":5353,"à®³à®¿à®ķà¯įà®ķà¯ģà®®à¯į":5354,"Ġà®®à®¾à®±à¯įà®±à®¿":5355,"Ġà®īà®²à®ķà®¤à¯įà®¤":5356,"Ġà®ļà¯Ĩà®¯à¯įà®¤à®¿à®¯à¯Ī":5357,"Ġà®ķà¯ĩà®³à¯ģà®Ļà¯įà®ķà®³à¯į":5358,"à®¿à®¤à®´à¯į":5359,"Ġà®ħà®¤à¯ĩ":5360,"à®¤à¯įà®¤à®¾à®°à¯į":5361,"à®¤à¯ģà®¤à®¾à®©à¯į":5362,"à®±à¯įà®±à¯Ī":5363,"ase":5364,"à®®à®¿à®©à¯įà®±à®¿":5365,"à¯Īà®¯à¯ģà®®à¯ĩ":5366,"à®ªà¯įà®°à®¾à®¸à®°à¯ĭ":5367,"Ġà®®à¯Ģà®³à¯įà®µ":5368,"Ġà®®à®²à¯Īà®ķà®³à¯Ī":5369,"Ġà®¤à®¿à®°à¯ģà®Ł":5370,"Ġà®ķà¯Ĩà®¾à®³à¯įà®ķà®¿à®±à¯ĩà®¾à®®à¯į":5371,"Ġà®¸à¯įà®ª":5372,"Ġà®µà¯Ĩà®±à¯ģà®ķà¯įà®ķ":5373,"à®ļà¯Ĭ":5374,"Ġà®µà®¾à®©à®®à¯į":5375,"PI":5376,"à®¨à®ķà®°":5377,"Ġcoun":5378,"Ġà®ħà®´à¯Īà®ªà¯įà®ªà¯ģ":5379,"Ġà®ķà¯Ĩà®¾à®²à¯įà®²à®ªà¯įà®ªà®Łà¯įà®Ł":5380,"Ġà®¨à®¿à®°à¯įà®£à®¯":5381,"Ġà®ħà®´à¯Īà®¤à¯įà®¤à¯ģà®ķà¯į":5382,"lass":5383,"à®µà®¿à®°à¯ģà®ªà¯įà®ª":5384,"Ġà®¨à®¿à®°à¯įà®ªà¯įà®ª":5385,"Ġà®ħà®ŀà¯įà®ļà¯ģà®Ļà¯įà®ķà®³à¯į":5386,"Ġà®¤à®¤à¯įà®¤":5387,"Ġà®İà®Łà¯įà®Łà¯ģ":5388,"Ġà®µà¯ĩà®£à¯įà®Łà¯ģà®®à¯ĩ":5389,"à®¿à®¯à®¾à®¯à®®à¯į":5390,"Ġà®ļà®¿à®±à®ªà¯įà®ª":5391,"ountry":5392,"à®®à¯Īà®¯à®¾à®ķ":5393,"Ġà®ķà®£à¯įà®Łà®¾à®°à¯į":5394,"Ġà®ķà®¾à®°à®¿à®¯à®¤à¯įà®¤à¯Ī":5395,"à®°à®¾à®³à®®à®¾à®©":5396,"Ġà®ķà¯Ĥà®°à¯įà®¨à¯įà®¤à¯ģ":5397,"Ġà®ķà®Łà®®à¯Īà®¯à®¾à®ķà¯ģà®®à¯į":5398,"à®¿à®©à®°à¯ģà®®à¯į":5399,"à¯ģà®ªà¯įà®ªà®Łà¯ģà®¤à¯įà®¤":5400,"Ġà®īà®£à¯įà®Łà®¾à®ķ":5401,"Ġà®¨à¯ĩà®°à¯įà®µà®´à®¿à®¯à¯Ī":5402,"Ġà®ķà¯ģà®´à®ªà¯įà®ªà®¤à¯įà®¤à¯Ī":5403,"Ġà®ķà¯Ĩà®¾à®³à¯įà®ķ":5404,"à®Ļà¯įà®ķà¯ģà®¤à¯įà®¤à¯ģ":5405,"à®ĩà®°à¯ģà®ķà¯įà®ķ":5406,"à®ĩà®²":5407,"à®¿à®ķà®³à¯Īà®ªà¯į":5408,"Ġà®µà®£à®ķà¯įà®ķà®¤à¯įà®¤à®¿à®±à¯įà®ķà¯ģà®°à®¿à®¯":5409,"Ġà®ķà®Łà¯įà®Łà®³à¯Īà®¯à®¿à®Łà¯įà®Ł":5410,"Ġà®ħà®µà®°à¯įà®ķà®³à®¿à®²à®¿à®°à¯ģà®¨à¯įà®¤à¯ģ":5411,"Ġà®¤à¯Ĥà®¯à®µà®©à¯į":5412,"Ġ<":5413,"Ġà®ħà®µà®°à¯įà®ķà®³à¯įà®¤à®¾à®®à¯į":5414,"à®¿à®µà®ķ":5415,"à®¿à®°à¯ģà®ķà¯įà®ķà®µà¯ģà®®à¯į":5416,"Ġà®¨à¯Ĩà®°à¯ģà®ªà¯įà®ªà¯ģ":5417,"à®¿à®±à®¾à®°à¯įà®ķà®³à¯ĩà®¾":5418,"à®¾à®²à¯Ī":5419,"Ġà®İà®Ļà¯įà®ķà®³à®¿à®Łà®®à¯į":5420,"Ġà®ĩà®ªà¯įà®±à®¾à®¹à¯Ģà®®à¯į":5421,"à¯Ĩà®°à®¿à®¯à¯ģà®®à¯į":5422,"Ġà®µà®°à¯Īà®¯à®±":5423,"Ġà®ħà®Łà®¿à®¤à¯įà®¤":5424,"Ġà®µà®´à®¿à®ªà®Łà¯įà®Ł":5425,"à¯ģà®Łà®©à¯ĩà®¯à¯ĩ":5426,"à®¤à¯Ĩà®°à®¿à®¯à®¾à®¤":5427,"Ġà®ļà¯Ĩà®µà®¿à®®à®Ł":5428,"à¯Īà®¯à¯ģà®³à¯įà®³":5429,"Ġà®ĩà®°à®Łà¯įà®ļ":5430,"Ġfucking":5431,"Ġà®ĩà®Łà¯įà®Łà¯ģà®ķà¯įà®ķà®Łà¯įà®Ł":5432,"Ġà®®à®²à®ķà¯įà®ķà¯ģà®ķà®³":5433,"à¯ĭà®ļ":5434,"à®¤à®¿à®Łà®®à®¾à®ķ":5435,"à¯ģà®ķà¯įà®ķà¯ģà®±":5436,"Ġà®ªà¯Ĩà®°à¯ģà®Ļà¯įà®ķ":5437,"Ġà®ķà®¿à®°à¯ģà®ªà¯Īà®¯à®¾à®³":5438,"à®®à®¾à®¯à¯į":5439,"Ġà®īà®¤à®µà®¿à®¯à¯ģà®®à¯į":5440,"Ġà®ªà¯ģà®ķà®´à¯ģà®®à¯į":5441,"Ġà®ªà¯Ĩà®¾à®´à®¿à®¯à®ļà¯į":5442,"à®İà®ªà¯įà®ªà®Łà®¿":5443,"Ġà®ķà¯Ĩà®¾à®£à¯įà®Łà®¿à®°à¯ģà®¨à¯įà®¤à®¾à®°à¯įà®ķà®³à¯į":5444,"Ġà®ªà®¾à®¤à¯ģà®ķà®¾à®ķà¯įà®ķ":5445,"à®ħà®Łà¯Īà®µà¯ģ":5446,"Ġà®¨à®¿à®¯à®¾à®¯à®¤à¯į":5447,"Ġà®ĩà®¤à¯įà®¤à¯Ĥà®¤":5448,"à®¤à®©à®¾à®²à¯į":5449,"à®¤à¯įà®¤à®¿à®±à¯įà®ķà®¾à®ķ":5450,"Ġà®Ĵà®µà¯įà®µà¯Ĩà®¾à®©à¯įà®±":5451,"Ġà®ªà¯Ĩà®¾à®±à¯ģà®®à¯Īà®¯à¯ģà®Łà¯Īà®¯":5452,"à®¤à¯įà®¤à¯ģà®Łà¯Īà®¯":5453,"à®ħà®ŀà¯įà®ļà®²à¯į":5454,"Ġà®¨à¯ĩà®¾à®ķà¯įà®ķà®¿à®¯":5455,"Ġcounties":5456,"à®®à®¾à®Łà¯įà®Łà¯Ģà®°à¯įà®ķà®³à¯į":5457,"Ġà®Ĩà®®à®¾à®®à¯į":5458,"Ġà®ķà¯ĩà®Łà¯ģ":5459,"Ġà®ķà¯ĩà®Łà¯įà®Łà®¾à®°à¯įà®ķà®³à¯į":5460,"Ġà®ĩà®µà®°à¯įà®ķà®³à®¿à®²à¯į":5461,"Ġà®ħà®Łà¯Īà®¯à®¾à®³à®®à¯į":5462,"ire":5463,"à¯įà®ķà®³à®¿à®²à®¿à®°à¯ģà®¨à¯įà®¤à¯ģ":5464,"à®ħà®Łà¯Īà®µ":5465,"Ġà®¨à®©à¯įà®®à¯Īà®¯à®¾à®ķà¯ģà®®à¯į":5466,"Ġà®ªà¯Ĩà®¾à®¯à¯įà®ªà¯įà®ªà®¿à®¤à¯įà®¤à®©à®°à¯į":5467,"(à®ħà®µà®°à¯įà®ķà®³à¯į":5468,"Ġà®ªà¯ĩà®¾à®ķà¯ģà®®à¯į":5469,")à®ªà¯į":5470,"à®¿à®²à¯ģà®®à¯ģà®³à¯įà®³":5471,"Ġà®ªà®²à®©à¯į":5472,"Ġà®ħà®µà¯įà®µà®¿à®°à®£à¯įà®Ł":5473,"Ġà®īà®Ļà¯įà®ķà®³à¯ģà®ķà¯įà®ķà¯ĩ":5474,"à®±à¯įà®ļà®¿":5475,"Ġà®·à¯Īà®¤à¯įà®¤à®¾à®©à®¿à®©à¯į":5476,"Ġà®İà®©à¯įà®©à¯Īà®¯à¯ģà®®à¯į":5477,"Ġà®ħà®°à¯ģà®¨à¯įà®¤":5478,"à®ªà®¯à®ªà®ķà¯įà®¤à®¿à®¯":5479,"Ġà®īà®¯à®°à¯įà®¨à¯įà®¤à®µà®©à¯į":5480,"à®µà®²à¯į":5481,"Ġà®ªà¯Ĥà®®à®¿à®ķà¯įà®ķà¯ģà®®à¯į":5482,"Ġà®®à¯ĩà®²à®¾à®³à®°à¯į":5483,"ard":5484,"Ġà®ļà¯ĩà®¾à®¤à®©à¯Ī":5485,"Ġà®ªà®¿à®³à®¨à¯įà®¤à¯ģ":5486,"Ġà®Ĩà®µà¯ĩ":5487,"Ġà®ħà®¤à®¾à®µà®¤à¯ģ":5488,"Ġà®Īà®¸à®¾à®µ":5489,"Ġà®ªà¯įà®°":5490,"Ġà®İà®µà®°à¯įà®ķà®³à¯ģà®ķà¯įà®ķà¯ģ":5491,"à¯ĭà®¤à¯ģà®®à¯į":5492,"Ġà®®à®©à¯įà®©à®¿à®ªà¯įà®ªà®¾à®©à¯į":5493,"Ġà®µà¯ĩà®¤à®©à¯Īà®¯à®¿à®²à®¿à®°à¯ģà®¨à¯įà®¤à¯ģ":5494,"Ġà®īà®Łà®©à¯įà®ªà®Łà®¿à®ķà¯įà®ķà¯Ī":5495,"\"à®ħà®²à¯įà®²à®¾à®¹à¯į":5496,"Ġà®ªà¯Ĩà®£à¯įà®ķà®³à¯Īà®¯à¯ģà®®à¯į":5497,"à®¨à®Łà®¿à®ķà®°":5498,"Ġà®®à¯ģà®ķà®Ļà¯įà®ķà®³à¯į":5499,"à®µà¯Ĩà®±à¯įà®±à¯ģ":5500,"Ġà®µà®¿à®¤à®¿à®ķà¯įà®ķà®ªà¯įà®ªà®Łà¯įà®Ł":5501,"Ġà®¤à¯Ĥà®¤à®°à¯Īà®¯à¯ģà®®à¯į":5502,"à®ħà®¤à®±à¯įà®ķà®µà®°à¯įà®ķà®³à¯į":5503,"Ġà®¨à®¿à®ļà¯įà®ļà®¯à®®à®¾à®ķà®ªà¯į":5504,"(à®ĩà®¤à¯ģ":5505,"à®ªà¯ĩà®¾à®°à®¿à®²à¯į":5506,"à®¨à¯Ĥà®¹":5507,"à®ļà¯Ĥà®©à®¿à®¯":5508,"(G":5509,"à®®à¯įà®¤à®¾à®©à¯į":5510,"à®Łà®¿à®¯à¯ģà®Ļà¯įà®ķà®³à¯į":5511,"Ġà®µà®¿à®³à®ķà¯įà®ķà®®à¯į":5512,"Ġunit":5513,"à¯ģà®ħ":5514,"à®ĩà®µà®°à¯įà®ķà®³à¯ģà®ķà¯įà®ķà¯ģ":5515,"à¯ģà®°à¯ģà®µ":5516,"Ġà®ªà®¿à®©à¯įà®ªà®±à¯įà®±à®¿à®¯":5517,"à®İà®Ļà¯įà®ķà®³à¯ģà®Łà¯Īà®¯":5518,"à®©à¯Īà®ķà¯į":5519,"Ġà®ķà¯Īà®ķà®³à¯Ī":5520,"Ġà®ķà¯Ĥà®±à®ªà¯įà®ªà®Łà¯įà®Ł":5521,"Ġà®¤à®¿à®°à¯ģà®ªà¯įà®ªà®ªà¯įà®ªà®Ł":5522,"à®¿à®Łà¯įà®Łà¯ģà®ķà¯į":5523,"Ġà®ĵà®Łà¯įà®Ł":5524,"Ġà®ĩà®¨à¯įà®¤à®¿à®°à®¿à®¯":5525,"Ġà®ħà®°à¯ģà®³à¯Ī":5526,"Ġà®¤à®²à¯Īà®µà®°à¯įà®ķà®³à¯į":5527,"à®µà®£à®ķà¯įà®ķà®¤à¯įà®¤à®¿à®±à¯įà®ķà¯ģà®°à®¿à®¯":5528,"Ġà®İà®±à®¿à®¨à¯įà®¤à¯ģ":5529,"Ġà®®à¯ģà®³à¯Īà®ªà¯įà®ª":5530,"Ġà®ħà®²à¯įà®²à®¾à®¹à¯įà®µà¯Īà®ªà¯į":5531,"Ġà®ĩà®²à¯įà®²à¯Īà®¯":5532,"Ġà®ħà®©à¯ģà®ªà®µà®¿à®ķà¯įà®ķ":5533,"à®µà¯Ĩà®³à®¿à®¯à¯ĩ":5534,"Ġà®µà®°à¯įà®£":5535,"à¯Ĩà®¾à®°à¯ģà®¤à¯įà®¤":5536,"Ġmonth":5537,"à¯ĩà®¾à®°à¯įà®ķà®³":5538,"Ġà®²à®¾à®®à¯į":5539,"à®ħà®²à®¿à®ĥà®ªà¯į":5540,"Ġwill":5541,"Ġà®ħà®±à®¿à®¨à¯įà®¤à®µà®©à®¾à®ķà®µà¯ģà®®à¯į":5542,"Ġà®ªà®ķà¯ģà®¤":5543,"Ġwor":5544,"à®¿City":5545,"Ġà®ĩà®°à¯ģà®ªà¯įà®ªà®µà®°à¯įà®ķà®³à¯į":5546,"Ġà®ķà¯Ĩà®¾à®¤à®¿à®ķà¯įà®ķà¯ģà®®à¯į":5547,"Ġà®®à®©à®¿à®¤à®©à¯ģà®ķà¯įà®ķà¯ģ":5548,"Ġà®¨à®¿à®´à®²":5549,"Ġkde":5550,"à®¤à¯ĩà®¯à®¾à®ķà¯ģà®®à¯į":5551,"Ġà®ķà®¾à®µà®²":5552,"Ġà®¤à®®à¯įà®®à¯ģà®Łà¯Īà®¯":5553,"à®¿à®©à®¿à®©à¯įà®±":5554,"à¯ģà®®à¯ģà®£à¯įà®Łà¯ģ":5555,"à®©à¯Īà®¤à¯įà®¤":5556,"Ġà®ħà®¤à®±à¯įà®ķà¯ģà®ªà¯į":5557,"à®¿à®ķà®¿à®±à®¤à¯ģ":5558,"Ġà®®à®ķà®¿à®´à¯įà®ļà¯įà®ļà®¿":5559,"Ġà®ķà¯Ĩà®¾à®³à¯įà®³à®Łà¯įà®Łà¯ģà®®à¯į":5560,"Ġà®¤à®¿à®°à¯ģà®ªà¯įà®ªà¯Ĩà®¾à®°à¯ģà®¤à¯įà®¤":5561,"Ġà®µà®Łà®¿à®µà®®à¯Īà®ķà¯įà®ķ":5562,"Ġà®ªà®¿à®Łà®¿":5563,"Ġà®ªà®¯à®©à¯įà®ªà®Łà¯ģà®®à¯į":5564,"Ġà®ļà®¾à®¤à®©":5565,"Ġà®ķà¯ģà®´à¯ģ":5566,"Ġà®¨à®ķà®²à¯Ĩà®Łà¯ģà®ķà¯įà®ķ":5567,"ob":5568,"Ġà®ħà®¤à¯įà®¤à®¾à®Łà¯įà®ļà®¿à®¯à¯Ī":5569,"à®®à®¾à®±":5570,"Ġà®ĩà®°à¯ģà®ªà¯įà®ªà®°à¯į":5571,"Ġà®Ĩà®³":5572,"Ġà®ļà¯Ĩà®¾à®²à¯įà®²à®¿à®ķà¯į":5573,"Ġà®ªà®¾à®¤à¯ģà®ķà®¾à®µà®²à®©à¯į":5574,"Ġà®ķà¯Ĩà®¾à®£à¯įà®Łà®µà®°à¯įà®ķà®³":5575,")à®ķà¯įà®ķ":5576,"*.":5577,"à®ļà®¾à®©à¯įà®±":5578,"Ġà®®à¯Ĥà®²à®®à®¾à®ķ":5579,"à®ķà®Łà¯įà®Łà®³":5580,"Ġà®°à®¸à¯Ĥà®²":5581,"ines":5582,"Ġà®ķà¯Ĩà®¾à®£à¯įà®Łà¯ĩà®©à¯į":5583,"Ġà®¨à®¾à®Łà®¿à®¯à¯ĩà®¾à®°":5584,"Ġà®ķà¯Ĥà®±à¯ģà®µà®¤à¯ģ":5585,"Ġà®µà¯Īà®ķà¯įà®ķà¯ģà®®à¯į":5586,"Ġà®ªà®¿à®°à®¿à®¤à¯įà®¤":5587,"Ġà®ĩà®Łà®Ļà¯įà®ķà®³à®¿à®²à¯į":5588,"Ġà®ľà®¾à®ķà¯į":5589,"Ġà®¤à®¿à®Łà¯Ģà®°":5590,"we":5591,"Ġà®ķà¯Īà®¯à¯Ī":5592,"à¯Ģà®¯":5593,",%":5594,"Ġà®Īà®¸à®¾":5595,"Ġà®¤à®¿à®°à¯Ī":5596,"à®Ĩà®Łà¯ģ":5597,"à¯Īà®ķà®³à¯Īà®ļà¯į":5598,"Ġà®¨à¯Ĩà®°à¯ģà®Ļà¯įà®ķà®¿":5599,"Ġà®īà®Ļà¯įà®ķà®³à¯Īà®¯à¯ģà®®à¯į":5600,"Ġà®¸à¯įà®Ł":5601,"Ġà®ĩà®°à¯ģà®µà®°":5602,"à¯įà®¸à¯įCity":5603,"Ġà®Ĵà®µà¯įà®µà¯Ĩà®¾à®°à¯ģà®µà®°à¯ģà®ķà¯įà®ķà¯ģà®®à¯į":5604,"à¯ģà®®à®¿à®Łà®®à¯į":5605,"à®ħà®³":5606,"à®ļà¯ģà®µà®°à¯įà®ķà¯įà®ķ":5607,"Ġà®®à¯ģà®´à¯ģà®µà®¤à¯ģà®®à¯į":5608,"à®°à¯ģà®¨à¯įà®¤":5609,"à®ħà®®à¯Ĩà®°à®¿à®ķà¯įà®ķà®¾":5610,"à¯ģà®ķà®³à®¿à®²à¯ģà®®à¯į":5611,"à®¿à®ķà¯Ī":5612,"Ġstate":5613,"à®®à®¿à®ķà®µà¯ģà®®à¯į":5614,"Ġà®®à®±à¯Īà®¤à¯įà®¤":5615,"à®¯à¯Ĥà®¸à¯ģà®ĥà®ª":5616,"à¯Ĩà®¯à¯įà®¤":5617,"Ġà®°à®¾à®ľ":5618,"Ġà®®à¯ģà®±à¯Īà®®à¯Ī":5619,"à®ıà®±à¯įà®±":5620,"Ġà®ªà®¿à®Łà®¿à®¤à¯įà®¤à¯ģ":5621,"Ġ{":5622,"Ġà®¨à®®à®ķà¯įà®ķ":5623,"à®¤à¯įà®¤à®¿à®±à¯įà®ķà®¾à®©":5624,"à®µà®¿à®Łà¯įà®Łà¯ģ":5625,"Ġà®ĩà®°à¯ģà®ķà¯įà®ķà®¿à®±à¯Ģà®°à¯įà®ķà®³à¯į":5626,"Ġà®¨à®Łà¯Ī":5627,"Ġà®Ĩà®ķà®¿à®¯à®µà®±à¯įà®±à®¿à®©à¯į":5628,"à®¤à¯Ĭà®²à¯Ī":5629,"Ġà®ĩà®µà®±à¯įà®±":5630,"Ġà®¹à®²":5631,"Ġà®®à¯Ĩ":5632,"à®¯à®©à¯į":5633,"à¯ģà®±à®®à¯į":5634,"Ġà®ļà¯Ĩà®¯à®²à¯įà®ķà®³à¯Ī":5635,"Ġà®µà¯ĩà®±à¯ģà®ª":5636,"Ġà®ªà®¯à®ªà¯įà®ªà®Łà¯ģà®ķà®¿à®±à¯ĩà®©à¯į":5637,"Ġà®ķà®¾à®£à¯įà®ªà®¿à®ķà¯įà®ķ":5638,"Ġà®¤à¯ĩà®µ":5639,"Ġà®µà®°à¯ģà®ķà®¿à®±à®¤à¯ģ":5640,"Ġà®İà®²à¯įà®²à®¾à®µà®±à¯įà®±à¯Īà®¯à¯ģà®®à¯į":5641,"Ġà®ħà®¨à¯ĩà®ķ":5642,"Ġà®İà®©à¯įà®ªà®¤à¯Īà®¤à¯į":5643,"Ġà®µà®¾à®²":5644,"à®¨à®¾à®®":5645,"Ġà®¨à®¿à®²à¯Īà®¯à¯Ī":5646,"ĠURL":5647,"Ġà®¤à¯Ģà®µà®¿à®°":5648,"à®¤à®©à¯įà®©":5649,"à®¾à®ªà¯įà®ªà¯ģ":5650,"à®®à¯ģà®Łà®¿à®¯à®¾à®¤à¯ģ":5651,"Ġà®ĩà®¸à¯įà®²":5652,"à®¸à®²à®¾à®®à¯ģà®©à¯į":5653,"à®¾à®±à¯įà®±à¯ģ":5654,"ice":5655,"Ġà®®à®¾à®±à®¾à®ķ":5656,"à¯Ĩà®¾à®´à®¿":5657,"Ġdist":5658,"TML":5659,"Ġà®®à®±à®¨à¯įà®¤":5660,"Ġà®ķà¯Ĥà®ªà¯įà®ª":5661,"ont":5662,"à®İà®²à¯įà®²à®¾à®ªà¯į":5663,"à®Łà¯įà®°":5664,"Ġà®ĩà®°à¯ģà®ķà¯įà®ķà®¿à®±à®¤à®¾":5665,"Ġà®®à¯Ĥà®Łà¯įà®Ł":5666,"à®²à¯įà®²à®¾à®¤":5667,"ari":5668,"Ġà®µà®´à®¿à®ªà¯įà®ª":5669,"Ġà®µà®¿à®·":5670,"Ġà®¯à®¾à®°à¯Ī":5671,"Ġà®ħà®¤à®©à¯Īà®ķà¯į":5672,"great":5673,"Ġà®ķà¯Īà®¯à®¾à®³":5674,"Ġà®®à¯ģà®¤à¯įà®¤à®¿à®°à¯Īà®¯":5675,"à®ķà¯ģà®±à¯Īà®¨à¯įà®¤":5676,"à¯įà®®à®ķ":5677,"Ġà®ķà¯Ĭà®³à¯įà®ķ":5678,"Ġà®ªà®¾à®Ļà¯įà®ķ":5679,"Ġà®ķà®¾à®Łà¯įà®Łà®¿à®¯":5680,"Ġfile":5681,"Ġà®¤à®©à¯įà®©à¯Ī":5682,"Country":5683,"Ġà®ķà¯Ĩà®¾à®³à¯įà®³à®²à®¾à®®à¯į":5684,"Ġà®µà¯Īà®ªà¯įà®ªà¯ĩà®¾à®®à¯į":5685,"à®¿à®©à®°à¯Ī":5686,"Ġà®¤à®¾à®¯à¯į":5687,"Ġà®ļà¯Ĩà®¾à®²à¯įà®ķà®¿à®±à®¾à®°à¯įà®ķà®³à¯į":5688,"ipp":5689,"à¯įà®©à¯į":5690,"à¯ģà®ķà¯Ĥ":5691,"à®®à®¾à®ķà®¿":5692,"à®¸à¯įà®µ":5693,"Ġà®ķà¯Ĩà®¾à®£à¯įà®Łà¯ĩà®¯":5694,"Ġà®ªà®¤à®¿à®ªà¯įà®ªà¯ģ":5695,"Ġle":5696,"à®©à®¾à®¤":5697,"à®¿à®¯à¯ģà®Łà®©à¯į":5698,"Ġà®īà®µ":5699,"à®ļà¯ĩà®°":5700,"Ġà®®à¯ĩà®®à¯įà®ª":5701,"Ġcont":5702,"à®©à®¿à®¯à®¾":5703,"Ġà®ļà®¾à®¨à¯įà®¤":5704,"à®¾à®±à¯įà®ª":5705,"MA":5706,"Ġà®Ĩà®ª":5707,"Ġà®Ĵà®©à¯įà®±à¯ģà®®à¯į":5708,"Ġà®ļà®¿à®²à®µà®±à¯įà®±à¯Ī":5709,"Ġà®ªà®£à®¿à®¯":5710,"à®¤à¯Ĩà®¾à®´à¯ģà®ķ":5711,"à®±à®¿à®µà¯ģ":5712,"Ġà®µà®¿à®²à¯įà®²à¯Ī":5713,"à®¾à®¤à®®à¯į":5714,"Ġsy":5715,"Ġà®ħà®¤à®©à¯įà®ª":5716,"à®µà®¿à®²à¯įà®²à¯Īà®¯à¯ĩ":5717,"Ġà®¤à¯ģà®©à¯įà®ªà¯ģà®±à¯ģà®¤à¯įà®¤":5718,"Ġà®ªà®°à®ªà¯įà®ª":5719,"à®µà®¤à¯ģ":5720,"à®ĩà®©à¯įà®©":5721,"Ġà®ĩà®°à¯ģà®ķà¯įà®ķà®¿à®±à®¾à®¯à¯į":5722,"Ġà®ĥà®ªà®¿à®°à¯įà®ħà®µà¯įà®©à®¿à®©à¯į":5723,"à®®à¯ģà®ķà¯įà®ķà¯ģ":5724,"à®ªà¯ģà®±":5725,"à¯ģà®¯à®²à¯į":5726,"à¯Īà®¯à¯ģà®Łà®©à¯į":5727,"à®µà®°à¯įà®ķà®³à®¾":5728,"Ġà®®à¯Ģà®£à¯įà®Łà¯ģ":5729,"Ġà®ªà¯Ĩà®¾à®¯à¯įà®¯à®¾à®©":5730,"à®¨à®¾à®³":5731,"Ġà®µà®°à®¿à®ļà¯Ī":5732,"Ġà®¨à®¾à®µ":5733,"à®®à®¾à®ķà®ļà¯į":5734,"Ġà®¤à®£à¯įà®£à¯Ģà®°":5735,"à®¿à®°à¯ģà®¨à¯įà®¤à¯ĩà®¾à®®à¯į":5736,"tic":5737,"Ġà®ļà¯Ĩà®¯à¯įà®µà®¤à®±à¯įà®ķà®¾à®ķ":5738,"Ġà®µà¯Ģà®Łà¯įà®Łà®¿à®²à¯į":5739,"à®ªà¯įà®ªà®Łà¯įà®Łà¯ģà®³à¯įà®³à®©":5740,"à®µà®¨à¯įà®¤":5741,"Ġà®ķà¯ĩà®¾à®£":5742,"UN":5743,"à®¯à®¾à®°":5744,"ritain":5745,"à®¨à®¾à®Ł":5746,"Ġhow":5747,"Ġà®µà®¿à®Łà¯įà®Łà¯ģà®¤à¯į":5748,"The":5749,"Ġà®µà®¿à®°à¯ģà®®à¯įà®ªà¯ģà®ķà®¿à®±à®¾à®°à¯įà®ķà®³à¯į":5750,"Ġà®µà®°à¯ģà®µà®¤":5751,"Ġà®µà®¿à®°à®Łà¯įà®Ł":5752,"à®¯à®©à¯įà®±à®¿":5753,"à®µà®°à¯įà®ķà®³à®¾à®©":5754,"Ġà®ļà®¿à®¨à¯įà®¤à®¿à®¤à¯įà®¤à¯ģà®ªà¯į":5755,"Ġà®¤à¯ĭà®²à¯įà®µ":5756,"à¯ģà®ķà¯įà®ķà®µà¯ģà®®à¯į":5757,"Ġà®ķà¯Ĥà®±à¯ģà®ķà®¿à®±":5758,"Ġà®ħà®±à®¿à®¯à®®à®¾à®Łà¯įà®Łà®¾à®°à¯įà®ķà®³à¯į":5759,"Ġà®¨à®¾à®Łà®¿à®¯à®µà®°à¯Ī":5760,"Ġà®¨à®¿à®°à¯įà®ªà¯įà®ªà®¨à¯įà®¤":5761,".%":5762,"à®ªà¯ģà®²":5763,"Ġà®ħà®µà®°à¯įà®ķà®³à¯Īà®¯à¯ģà®®à¯į":5764,"Ġà®µà®¿à®Łà¯ģà®µà¯Ģà®°à®¾à®ķ":5765,"Ġà®Īà®Łà¯ĩà®±à¯įà®±":5766,"Ġà®¨à®¾à®ļ":5767,"Ġà®ļà®®à¯Ĥà®ķà®¤à¯įà®¤à®µà®°à¯įà®ķà®³à¯ĩ":5768,"Ġà®µà®¿à®Łà¯ģà®µà¯Ģà®°à¯įà®ķà®³à¯į":5769,"Ġà®µà®£à®Ļà¯įà®ķà®¿à®ķà¯į":5770,"à®ĩà®°à¯ģà®ªà¯įà®ª":5771,"Ġà®®à®´à¯Ī":5772,"à®ĩà®¤à¯Īà®ķà¯į":5773,"ĠSh":5774,"Ġà®īà®£à¯įà®Łà®¾à®ķà¯įà®ķà®¿à®©à¯ĭà®®à¯į":5775,"Ġà®¨à®¿à®ļà¯įà®ļà®®à®¯à®¾à®ķ":5776,"Ġà®µà®´à®¿à®¤":5777,"à®ĩà®¤à®¿à®²à®¿à®°à¯ģà®¨à¯įà®¤à¯ģ":5778,"Ġà®µà®¾à®ķà¯įà®ķà¯ģà®±à¯ģà®¤":5779,"Ġà®ħà®µà®±à¯įà®±à®¿à®²à®¿à®°à¯ģà®¨à¯įà®¤à¯ģ":5780,"Ġbritain":5781,"Ġà®ªà¯Ĩà®¾à®¯à¯įà®ªà¯įà®ªà®¿à®ªà¯įà®ª":5782,"Ġà®µà®´à®¿à®¯à®¾à®ķà¯ģà®®à¯į":5783,"à®¿à®ķà¯įà®ķà®¾à®¤à¯Ģà®°à¯įà®ķà®³à¯į":5784,"Ġà®ļà®®à®¯à®®à¯į":5785,"Ġà®ħà®¨à®¿à®¯à®¾à®¯à®ķà¯įà®ķà®¾à®°à®©à¯į":5786,"Ġà®®à®¾à®®":5787,"Ġà®µà®¾à®©à®¤à¯įà®¤à¯Ī":5788,"Ġà®īà®ªà®ķ":5789,"à®ļà®¿à®¯à®®à¯į":5790,"Ġà®ħà®ļà®¤à¯įà®¤à®¿à®¯":5791,"à®®à¯ĩà®¾":5792,"Ġà®ħà®ªà¯įà®ªà®Łà®¿à®¯à®²à¯įà®²":5793,"Ġà®ļà¯ģà®®à®ªà¯įà®ª":5794,"Ġà®İà®¤à®©à¯Ī":5795,"Ġà®ªà®¾à®µà®®à®©à¯įà®©à®¿à®ªà¯įà®ª":5796,"Ġà®İà®Ļà¯įà®ķà®³à¯Īà®ªà¯į":5797,"à®Ĩà®¤à¯ģ":5798,"Ġà®®à®©à¯įà®©à®¿à®ªà¯įà®ªà¯ģà®¤à¯į":5799,"Ġà®ĩà®µà®°à¯įà®ķà®³à®¿à®©à¯į":5800,"Ġà®ķà®µà®©à®¿à®ªà¯įà®ªà¯Ģà®°à®¾à®ķ":5801,"Ġà®µà®¨à¯įà®¤à®¤à¯ģà®®à¯į":5802,"Ġà®ķà¯Ĩà®Łà¯ģà®¤à¯įà®¤":5803,"à®©à¯įCity":5804,"à®¿à®±à®¾à®°à¯ĩà®¾":5805,"Ġch":5806,"Ġà®İà®ªà¯įà®ªà®Łà®¿à®¯":5807,"Ġà®ķà¯Ĩà®¾à®£à¯įà®Łà®¿à®°à¯ģà®Ļà¯įà®ķà®³à¯į":5808,"Ġà®ļà¯Ĩà®¯à¯įà®ªà®µà®©à¯į":5809,"Ġcan":5810,"Ġà®ļà¯Ĩà®¾à®©à¯įà®©à®¾à®°à¯įà®ķà®³à¯į":5811,"à®¤à¯įà®¤à®¾à®°à®¿à®Łà®®à¯į":5812,"à®īà®£à¯įà®®à¯Īà®¯":5813,"à¯Ĩà®©à¯įà®©":5814,"Ġà®ĩà®°à¯ģà®ķà¯įà®ķà®¿à®©à¯įà®±à®¾à®¯à¯į":5815,"Ġà®ħà®®à¯Īà®¨à¯įà®¤":5816,"Ġà®ªà¯Ĥà®®à®¿à®¯à®¿à®²à®¿à®°à¯ģà®¨à¯įà®¤à¯ģ":5817,"Ġà®¤à®©à®¤à¯ģ":5818,"Ġà®¨à®¿à®®à®¿à®Ł":5819,"à®¤à¯ģà®µà¯ģà®®à¯į":5820,"Ġà®¨à®°à®ķà®¤à¯įà®¤à®¿à®©à¯į":5821,"Ġà®®à¯Ģà®¤à¯ģà®³à¯įà®³":5822,"CK":5823,"à®°à¯įà®ķà®³à¯ĩà®¾":5824,"Ġà®ħà®¤à¯Īà®ªà¯įà®ªà®±à¯įà®±à®¿":5825,"Ġà®ħà®°à¯įà®°à®¹à¯įà®®à®¾à®©à¯į":5826,"ik":5827,"à®¿à®²à¯ģà®³à¯įà®³à®µà¯Īà®¯à¯ģà®®à¯į":5828,"Ġà®İà®©à®ķà¯įà®ķà¯ĩ":5829,"Ġà®ļà¯ģà®µà®©à®ªà®¤à®¿à®ķà®³à®¿à®²à¯į":5830,"Ġà®ªà¯Ĥà®®à®¿à®¯à®¿à®²à¯ģà®³à¯įà®³à®µà¯Īà®¯à¯ģà®®à¯į":5831,"\"à®ĩà®¤à¯ģ":5832,"à®®à¯Ĩà®²à¯įà®²à®¾à®®à¯į":5833,"à®Ĩà®ļ":5834,"Ġà®īà®£à¯įà®®à¯Īà®¯à®¾à®©à®¤à¯ģ":5835,"Ġà®īà®£à¯įà®ª":5836,"Ġà®¤à¯Ģà®°à¯įà®ªà¯įà®ªà¯ģà®ķà¯įà®ķà¯ģà®°à®¿à®¯":5837,"Ġà®µà®´à®¿à®¯à¯Īà®ķà¯į":5838,"à®īà®²à®ķà®¿à®²à¯į":5839,"Ġà®¨à®±à¯įà®ķà¯Ĥà®²à®¿à®¯à¯Ī":5840,"Ġà®ķà¯Ĩà®¾à®£à¯įà®Łà®¿à®°à¯ģà®¨à¯įà®¤à®¾à®°à¯įà®ķà®³à¯ĩà®¾":5841,"Ġà®ļà¯Ĩà®¾à®¨à¯įà®¤à®®à®¾à®ķà¯įà®ķà®¿à®ķà¯į":5842,"à®¤à¯įà®¤à¯ĩà®°":5843,"Ġà®ļà¯Ĩà®¯à¯įà®ķà®¿à®©à¯įà®±à®©à®°à¯į":5844,"Ġà®ļà®¨à¯įà®¤à¯ĩà®ķà®¤à¯įà®¤":5845,"à¯ģà®ķà¯įà®ķà¯ĩà®¾":5846,"Ġclass":5847,"Ġà®¤à¯Ĩà®¯à¯įà®µà®Ļà¯įà®ķà®³à¯į":5848,"Ġex":5849,"Ġà®µà®¿à®Łà¯įà®Łà¯ģà®ªà¯į":5850,"Ġà®ĩà®µà¯įà®µà¯ĩà®¤à®¤à¯įà®¤à¯Ī":5851,"Ġà®Ĩà®²à¯į":5852,"Ġà®ħà®©à¯ģà®ªà¯įà®ªà¯ģ":5853,"Ġà®¤à®²à¯Īà®®à¯ģà®±à¯Īà®¯à®¿à®©":5854,"à®ķà®³":5855,"Ġà®īà®´":5856,"à®ļà®¾à®¨à¯įà®¤":5857,"Ġà®ªà¯Ĩà®¾à®±à¯ģà®®à¯Īà®¯à¯Īà®ķà¯į":5858,"à®Ļà¯įà®ķà®³à¯ģà®ķà¯įà®ķà®¾à®ķ":5859,"Ġà®ªà®Łà¯Īà®¤à¯įà®¤à¯ģ":5860,"Ġà®¤à¯ĩà®Łà¯ģà®ķà®¿à®±à¯ĩà®©à¯į":5861,"à®¤à¯ģà®®à®¿à®²à¯įà®²à¯Ī":5862,"à®°à¯įà®ķà®³à®¿à®Łà®®à¯į":5863,"Ġà®ħà®Łà¯Īà®¯à¯ģà®®à¯į":5864,"(à®¨à¯į":5865,"à®¤à¯Ĩà®¾à®°à¯ģ":5866,"Ġà®ļà®¿à®°à®®à¯į":5867,"Ġà®ķà¯ģà®±à¯įà®±à®Ļà¯įà®ķà®³à¯Ī":5868,"--":5869,"à®°à¯įà®ķà¯įà®ķ":5870,"Ġà®®à¯ĩà®¾à®ļ":5871,"à®ĩà®¨à¯įà®¤à®ªà¯į":5872,"Ġà®ĩà®©à¯įà®ľ":5873,"Ġà®®à¯ģà®±à¯įà®ªà®Ł":5874,"à®¿à®£à¯įà®Ł":5875,"Ġà®µà®´à®¿à®ķà¯ĩà®Łà¯įà®Łà®¿à®²à¯ĩà®¯à¯ĩ":5876,"à¯ģà®ªà®µà®°à¯įà®ķà®³à®¿à®²à¯į":5877,"Ġà®ªà¯ĩà®ļà®¿à®ķà¯į":5878,"Ġà®®à¯ģà®Łà¯įà®Ł":5879,"Ġà®īà®°à®¿à®®à¯Īà®¯":5880,"Ġan":5881,"Ġà®ħà®±à®¿à®¯à®µà®¿à®²à¯įà®²à¯Īà®¯à®¾":5882,"à®Ĵà®°à¯ĩ":5883,"à¯įà®µà®°":5884,"à®®à®¿à®ļà¯įà®ļ":5885,"à¯ģà®ªà¯įà®ªà®Ł":5886,"Ġà®īà®©à¯įà®©à®¿à®Łà®®à¯į":5887,"¨à®¾à®®":5888,"Ġà®ĩà®µà¯įà®µà¯ģà®²à®ķà®¿à®²à¯į":5889,"à¯ģà®¨à®¿à®°":5890,"Ġà®¨à®ķà®²à¯į":5891,"Ġà®ļà®¿à®¤à¯įà®¤à®ªà¯įà®ªà®Łà¯ģà®¤à¯įà®¤à®¿":5892,"Ġà®ħà®µà®°à¯įà®ķà®³à¯ģà®ķà¯įà®ķà®¿à®Łà¯Īà®¯à¯ĩ":5893,"Ġbutton":5894,"à®®à¯ĩà®¯à®©à¯įà®±à®¿":5895,"Ġà®ķà¯Ĥà®±à®ªà¯įà®ªà®Łà¯įà®Łà®¤à¯ģ":5896,"Ġà®ļà®¨à¯įà®¤à¯ĩà®ķà®®à¯į":5897,"Ġà®¤à®Ļà¯įà®ķà®¿à®¯à®¿à®°à¯ģà®ªà¯įà®ªà®¾à®°à¯įà®ķà®³à¯į":5898,"à®¤à®¿à®±":5899,"à®ĩà®Ļà¯įà®ķà¯ģ":5900,"à®¿à®Łà¯į":5901,"Ġà®ħà®ķà®¿à®²à®Ļà¯įà®ķà®³à®¿à®©à¯į":5902,"à®¿à®ķà¯įà®ķà®ªà¯įà®ªà®Łà¯įà®Łà®¾à®²à¯į":5903,"à®®à¯ģà®Łà¯Īà®¯à®µà®©à¯į":5904,"Ġà®ķà®Łà®¨à¯įà®¤":5905,"à®ĩà®®à¯įà®®à¯Īà®¯à®¿à®²à¯į":5906,"Ġà®¨à¯ĩà®¾à®¯à®¾à®³":5907,"Ġà®ħà®©à¯įà®ªà¯ģà®Łà¯Īà®¯":5908,"Ġà®¤à¯Ģà®Ļà¯įà®ķà®¿à®´à¯Īà®¤à¯įà®¤à¯ģà®ķà¯į":5909,"Ġà®¨à®¿à®ķà®°":5910,"Ġà®ªà¯Ĩà®°à¯ģà®Ļà¯į":5911,"à®¿à®ķà¯Ĩà®©à¯į":5912,"ject":5913,"Ġà®ħà®¤à¯Īà®ļà¯į":5914,"Ġkey":5915,"à®ĥà®ªà®¿à®°à¯įà®ħà®µà¯įà®©à¯į":5916,"Ġà®ķà¯Ĩà®¾à®£à¯įà®Łà¯ĩà®¾à®°à¯ĩ":5917,"Ġà®ĩà®°à¯ģà®ķà¯įà®ķà®¿à®©à¯įà®±à¯Ģà®°à¯į":5918,"Ġà®ªà®¿à®°à®¯à®¾à®£à®®à¯į":5919,"Ġà®¤à¯Ĩà®°à®¿à®¨à¯įà®¤à¯ģ":5920,"Ġà®ĩà®©à¯įà®ľà¯Ģà®²":5921,"à®ħà®²à¯įà®²à®¾à®¹à¯įà®µà¯ĩ":5922,"Ġà®ķà®£à¯įà®ķà®³à¯į":5923,"Ġà®ķà¯Ĩà®¾à®´à¯ģà®¨à¯įà®¤à¯ģ":5924,"à¯įà®µà¯ģà®ķà®³à¯į":5925,"Ġà®ħà®ŀà¯įà®ļà®²à¯į":5926,"à¯įà®Ĳ":5927,"Ġà®ĩà®©à¯įà®±à¯Īà®¯":5928,"Ġà®ķà®¾à®ĥà®ªà®¿à®°à¯įà®ķà®³à®¾à®ķ":5929,"Ġwith":5930,"Ġà®¤à¯ĩà®°à¯įà®µà¯ģà®ķà®³à¯į":5931,"à®¿à®©à¯įà®ªà®¾à®²à¯į":5932,"à®®à®¿à®ļà¯įà®ļà®¿à®ķà¯Ĩà®©à¯į":5933,"Region":5934,"Ġà®ĩà®°à¯ģà®¨à¯įà®¤à®¿à®°à¯ģà®ķà¯įà®ķ":5935,"à®ħà®µà®°à¯įà®ķà®³à¯ģà®ķà¯įà®ķà¯ģà®ķà¯į":5936,"Ġà®ķà¯Ĩà®¾à®£à¯įà®Łà®¿à®°à¯ģà®ķà¯įà®ķà®¿à®±à®¾à®°à¯įà®ķà®³à¯ĩà®¾":5937,"SE":5938,"à®ªà¯ģà®°":5939,"à®ķà¯ĭà®ªà¯įà®ªà®¿à®©à¯Ī":5940,"Ġà®ķà¯Ĭà®Ł":5941,"Ġà®¤à¯ģà®¤à®¿":5942,"à¯ģà®®à®²à¯įà®²":5943,"Ġà®±":5944,"Ġà®ħà®´à¯Īà®ķà¯įà®ķà®¿à®©à¯įà®±":5945,"à®©à¯ĭ":5946,"à®¤à®µà®¿à®°":5947,"Ġà®ħà®Łà¯Īà®µà¯Ī":5948,"Ġà®µà®¾à®©à®Ļà¯įà®ķà®³à®¿à®²à¯į":5949,"Ġà®ªà®Łà¯Īà®ķà¯įà®ķà®ªà¯įà®ªà®Łà¯įà®Ł":5950,"à®ķà¯Ĭ":5951,"à®¤à®±à¯įà®ķà®¾à®²à®¿à®ķ":5952,"Ġà®®à®±à¯ģ":5953,"Ġà®ķà®¾à®£à¯įà®ªà®¿à®¤à¯įà®¤":5954,"Ġà®ļà¯Ĩà®¯à®±à¯įà®ª":5955,"(à®µà¯įà®µà¯ĩà®¤":5956,"à®¿à®®à¯ģà®±":5957,"Ġà®ļà¯Ĩà®²à¯įà®ķà®¿à®©à¯įà®±":5958,"à®¿à®¯à¯ģà®³à¯įà®³à®¾à®©à¯į":5959,"Ġà®¤à¯ĩà®°à¯įà®¨à¯įà®¤à¯Ĩà®Łà¯ģà®ķà¯įà®ķà®ªà¯įà®ªà®Łà¯įà®Ł":5960,"Ġà®¤à¯ģà®³":5961,"Ġà®ķà¯ģà®°à¯įà®ªà®¾à®©":5962,"Ġà®ªà¯Ĩà®Łà¯įà®Łà®¿":5963,"Ġà®Ĩà®ķà¯Īà®¯à®¾à®²à¯į":5964,"Ġà®ļà®®à®¯à®¤à¯įà®¤à®¿à®²à¯į":5965,"Ġà®ķà¯ĩà®Łà¯įà®ķà®µà®¿à®²à¯įà®²à¯Ī":5966,"Ġà®®à¯ģà®±à¯Īà®¯à®¾à®ķ":5967,"Ġà®İà®ªà¯įà®ªà¯Ĩà®¾à®´à¯ģà®¤à¯ģ":5968,"à®ķà¯įà®ķà¯Ĥà®Łà¯ģà®®à¯į":5969,"à®µà¯ģà®Łà®©à¯į":5970,"Ġà®ªà®¯à®©à¯įà®ªà®Łà¯ģà®¤à¯įà®¤à®µà¯ģà®®à¯į":5971,"ult":5972,"Ġà®µà¯Ī":5973,"Ġà®¤à®¿à®°à¯ģà®¤à¯įà®¤à¯ģ":5974,"à®ķà®µà®©":5975,"Ġà®®à®©à®¿à®¤à®©à¯Ī":5976,"Ġà®ħà®®à®°à¯įà®µ":5977,"Ġà®¨à®¿à®±à¯ģà®¤à¯įà®¤à¯ģ":5978,"(à®¯à¯Ĩà®²à¯įà®²à®¾à®®à¯į":5979,"Ġhe":5980,"à®ĩà®¤à®±à¯įà®ķ":5981,"Ġà®ķà¯ģà®±à¯Īà®ķà¯įà®ķ":5982,"à¯ģà®²à¯įà®²":5983,"à®µà¯ĩà®£à¯įà®Łà¯ģà®®à®¾":5984,"Ġà®ļà®¿à®¨à¯įà®¤à®¿à®ķà¯įà®ķ":5985,"à®¾à®ªà¯Ĩà®°à¯ģà®®à¯į":5986,"à®¤à®¿à®¯à®¿à®©à¯į":5987,"à®®à®¿à®²à¯įà®²":5988,"à®²à®¾à®ķ":5989,"à®¿à®°à¯ģà®¤à¯įà®¤":5990,"ions":5991,"Ġà®īà®³à¯įà®³à®¿à®Łà¯ģ":5992,"Ġà®ĩà®±à¯Īà®µà®©à¯ģà®®à¯į":5993,"Ġà®ªà®¯à®©à¯įà®ªà®¾à®Łà¯ģ":5994,"Ġthat":5995,"Ġà®ķà¯ģà®±à¯įà®±à®µà®¾à®³à®¿à®ķà®³à¯į":5996,"à¯Īà®¯à®®à¯į":5997,"à®ļà¯Ĥà®°":5998,"Ġà®İà®©à¯įà®©à¯Īà®ķà¯į":5999,"IG":6000,"à®®à¯ĩà®²à¯į":6001,"Ġà®®à®¿à®©à¯įà®©à®ŀà¯įà®ļà®²à¯į":6002,"Ġà®ĩà®¤à®©à®¾à®²à¯į":6003,"à®®à¯ģà®©à¯į":6004,"Ġà®ħà®ķà®±à¯įà®±":6005,"à®ļà®¿à®±à®¿à®¤":6006,"Ġà®ļà¯ģà®²à®ªà®®à®¾à®©":6007,"à®®à®¾à®Łà¯įà®Łà¯ĩà®©à¯į":6008,"Ġà®ķà®Łà¯Īà®ļà®¿":6009,"Ġà®®à®¾à®±à¯įà®±à®¿à®ķà¯į":6010,"Ġà®¤à¯ĩà®°à¯įà®µà¯ģà®ļ":6011,"à®¤à¯Ĩà®³à®¿à®µ":6012,"à¯Ĩà®¾à®©à¯įà®±à¯ģ":6013,"à®ħà®£à¯ģà®ķà®ķà¯įà®ķà¯Ĥà®Łà®¿à®¯":6014,"Ġà®ħà®ļà¯įà®ļà¯ģ":6015,"Ġà®ļà¯Ĩà®¯à¯įà®ķà®¿à®±à¯ĩà®¾à®®à¯į":6016,"Ġà®ªà®¯à®¨à¯įà®¤":6017,"Ġsub":6018,"à®¨à®¿à®²à¯Īà®¯à®¾à®©":6019,"Ġà®ķà¯Ĩà®¾à®Łà¯ģà®ķà¯įà®ķà¯ģà®®à¯į":6020,"à®ļà¯ĭà®¤":6021,"Ġà®¨à®¿à®°à®²":6022,"Ġà®¤à®¿à®Łà¯Ģà®°à¯Ĩà®©":6023,"Ġà®®à¯ģà®¨à¯įà®¤à¯Īà®¯":6024,"Ġà®µà®°à¯ģà®®à¯įà®ªà¯ĩà®¾à®¤à¯ģ":6025,"Ġà®Ĳà®¯à®¾":6026,"Ġà®ªà®¿à®©à¯įà®©à®£à®¿":6027,"Ġà®ķà¯Ĩà®¾à®£à¯įà®Łà¯ģà®µ":6028,"ary":6029,"à®®à®¤à®¿à®ªà¯įà®ªà¯ģ":6030,"à®ĩà®²à¯įà®²":6031,"Ġà®ķà®Łà¯įà®Łà®³à¯Īà®ķà¯įà®ķà¯ģ":6032,"Ġà®ķà®¾à®µà®²à¯į":6033,"Ġà®īà®³à¯įà®³à¯Ģà®Łà¯ģ":6034,"à®¤à¯ģà®µà®¾à®ķ":6035,"Ġà®¤à¯Ĩà®¾à®²à¯Īà®µ":6036,"ost":6037,"à¯ģà®ķà®³à¯Īà®¤à¯į":6038,"Ġà®Ĩà®¯à®¿à®±à¯įà®±à¯ģ":6039,"Ġà®ªà¯ĩà®¾à®¯à¯įà®µ":6040,"Ġà®ıà®±à¯įà®ªà®Łà¯ģà®¤à¯įà®¤à®¿à®¯":6041,"Ġà®ļà¯Ĩà®¯à®²à¯įà®ªà®Ł":6042,"à¯ģà®£à®°à¯įà®ķà®¿à®±à¯ĩà®©à¯į":6043,"à®¾à®Łà¯įà®Łà®¿à®²à¯į":6044,"à®¿Name":6045,"à®¾à®¨":6046,"Ġà®ķà®¿à®£":6047,"ania":6048,"à®ļà¯Ĩà®²à¯įà®µ":6049,"Ġà®¤à®ķà®µà®²à¯Ī":6050,"à®ĩà®¤à¯Īà®ªà¯į":6051,"ere":6052,"Ġà®µà®°à¯Īà®ªà®Ł":6053,"Ġà®ªà¯Ĭà®°à¯ģà®¨à¯įà®¤":6054,"à®®à¯ģà®¤à®²à®¿à®²à¯į":6055,"à®¾à®¹à¯į":6056,"Ġà®Ĩà®£à¯įà®Łà¯ģà®ķà®³à¯į":6057,"Ġà®¤à¯Ĭà®Łà®°à¯įà®ª":6058,"à®µà®¾à®¤":6059,"Ġà®ķà¯ģà®±à¯Īà®¤à¯įà®¤à¯ģ":6060,"à®ªà®ļà¯Ĥ":6061,"Ġà®®à®£à®¿":6062,"Ġà®¤à®¾à®Ļà¯įà®ķà®³à¯ĩ":6063,"à®®à¯Īà®¯à®¿à®²à¯į":6064,"à®¾à®£à¯įà®ª":6065,"à®µà¯Īà®¯à®¾à®ķà¯ģà®®à¯į":6066,"Ġà®¤à¯ĩà®µà¯Īà®¯à®±à¯įà®±":6067,"à®µà¯Īà®¯à¯ĩ":6068,"à®©à¯ģà®ķà¯įà®ķà¯ģà®®à¯į":6069,"Ġà®İà®²à¯įà®²à¯ĩà®¾à®°à¯ģà®®à¯į":6070,"per":6071,"à¯ģà®µà®¾à®¯":6072,"à®³à®©":6073,"ilipp":6074,"ilippines":6075,"à®¿à®¯à®®":6076,"Ġà®µà®°à®¿à®ļ":6077,"à®ħà®µà®±à¯įà®±à®¿à®²à¯į":6078,"à®¤à®¾à®®à¯į":6079,"Ġà®ļà¯Ĩà®¯à¯įà®¤à¯ģà®µà®¿à®Łà¯įà®Ł":6080,"Ġà®¤à®Ļà¯įà®ķà®¿à®¯":6081,"Ġà®¤à¯Ĩà®¾à®":6082,"à®ªà®¿à®Ł":6083,"Ġà®¨à®¾à®Łà¯įà®ķà®³à¯į":6084,"Ġà®¤à®¿à®°à¯ģà®®à®£à®®à¯į":6085,"Ġà®ħà®Łà®¿à®¯à®¾à®°à¯įà®ķà®³à¯ģà®ķà¯įà®ķà¯ģ":6086,"à®µà¯ĩà®±à¯Ĩà®¤à¯Īà®¯à¯ģà®®à¯į":6087,"Ġà®µà¯Ĩà®³à®¿à®ªà¯įà®ªà®Łà¯Īà®¯à®¾à®©":6088,"à®ıà®´":6089,"Ġà®İà®²à¯įà®²à®¾à®ķà¯į":6090,"indow":6091,"ds":6092,"Ġà®ķà¯ģà®©":6093,"Ġà®®à®¿à®ķà¯įà®ķà¯ĩà®¾à®©à¯į":6094,"Ġà®ķà¯Ĩà®¾à®£à¯įà®Łà®¿à®°à¯ģà®¨à¯įà®¤à®¤à¯ģ":6095,"à®ķà¯ĩà®³à¯įà®µ":6096,"à¯įà®®à¯į":6097,"Ġà®µà®°à®®à¯įà®ªà¯Ī":6098,"Ġà®ļà¯ģà®®à®ķà¯įà®ķ":6099,"Ġà®ªà®Łà¯įà®Łà®¿à®¯à®²à®¿à®²à¯į":6100,"à¯ģà®İ":6101,"Ġà®¨à¯Ģà®Ļà¯įà®ķ":6102,"à®ĩà®¨à¯įà®¨":6103,"Ġà®ķà¯Ĩà®¾à®³à¯įà®µà®¤à¯ģ":6104,"Ġà®®à®°à®¿à®ķà¯įà®ķà®ļà¯į":6105,"Ġà®īà®°à¯Īà®¯à®¾à®Łà®²à¯į":6106,"à¯ģà®ķà¯įà®ķà¯ģà®³à¯įà®³":6107,"Ġà®ĩà®´à®¨à¯įà®¤":6108,"philippines":6109,"à®ªà¯įà®²à¯Ģà®¸à¯į":6110,"à®¿à®©à®¾à®²à®©à¯įà®±à®¿":6111,"Ġà®ªà¯ĩà®°à¯Ģà®¤à¯įà®¤":6112,"à®ħà®ªà¯įà®ªà®Łà®¿à®¯":6113,"Ġà®ħà®³à®¿à®¤à¯įà®¤à®¾à®©à¯į":6114,"Ġà®¨à®Łà®ķà¯įà®ķà¯ģà®®à¯į":6115,"à®¨à¯Ģà®Ļà¯įà®ķà®³à¯ģà®®à¯į":6116,"Ġà®ħà®Łà®¿à®ļà¯įà®ļ":6117,"à®Ĵà®°à¯ģà®µ":6118,"Ġà®İà®¤à®¿à®°à¯įà®ªà®¾à®°":6119,"à®ªà®¯à®©à®°à¯į":6120,"Ġà®®à¯ģà®©à®¾à®ĥà®ªà®¿à®ķà¯įà®ķ":6121,"AE":6122,"tor":6123,"à®®à¯Ĭà®´":6124,"Ġà®ļà®¾à®Łà¯įà®ļà®¿à®¯à®®à¯į":6125,"Ġà®īà®±à¯ģà®¤à®¿à®®":6126,"os":6127,"Ġà®¨à®¾à®³à®¿à®²à¯ģà®®à¯į":6128,"à®µà¯ĩà®¤à®¤à¯įà®¤à¯Īà®¯à¯ģà®Łà¯Īà®¯":6129,"ak":6130,"à®¾à®£à¯įà®Łà¯įà®¸à¯į":6131,"à®ħà®µà¯įà®µà®¾à®±à®¾à®¯à®¿à®©à¯į":6132,"Ġà®ļà¯Ĩà®¯à¯įà®¯à¯ģà®®à®¾à®±à¯ģ":6133,"Ġà®ħà®Łà¯ģà®ķà¯įà®ķ":6134,"Ġà®ķà®£à¯į":6135,"Ġà®ħà®ķà®¿à®²à®¤à¯įà®¤à®¾à®°":6136,"à®ªà®¿à®´à¯Ī":6137,"Ġà®ķà¯Īà®¯à®¿à®²à¯į":6138,"à®ªà¯ģà®³à¯įà®³":6139,"Ġà®ļà®¾à®²":6140,"Ġà®ħà®¤à¯Īà®µà®¿à®Ł":6141,"à®Ĵà®³":6142,"Ġà®¤à¯Ĥà®¤à®°à¯įà®ķà®³à¯Īà®¯à¯ģà®®à¯į":6143,"Ġà®ªà®ķà®²à¯Īà®¯à¯ģà®®à¯į":6144,"CD":6145,"à¯ģà®ķà¯ģ":6146,"à®¸à®®à¯Ĥà®¤à¯ģ":6147,"Ġà®¸à®®à¯Ĥà®¤à¯ģ":6148,"Ġà®ªà¯Ĥà®°à¯įà®¤à¯įà®¤à®¿":6149,"à®ªà¯Ĩà®¾à®¯à¯įà®ªà¯įà®ª":6150,"Ġà®µà®¿à®·à®®":6151,"Ġà®¤à®¿à®°à®¾à®Łà¯įà®ļ":6152,"Ġà®ªà®±à¯įà®±à®¿à®¤à¯į":6153,"à®ļà®¤à¯įà®¤à®¿à®¯à®¤à¯įà®¤à¯Ī":6154,"Ġà®ļà®¿à®¤à®±":6155,"Ġà®®à®¾à®±à¯įà®±à®®à¯į":6156,"Ġà®ªà®Łà¯įà®Łà®¿à®¯à®²à¯Ī":6157,"Ġà®ļà®ķà¯įà®¤à®¿à®¯à®±à¯įà®±":6158,"Ġà®ħà®®à¯įà®®à®¾":6159,"à®®à®²à®ķà¯įà®ķ":6160,"à®®à®¾à®Ł":6161,"Ġà®ķà¯Ĩà®¾à®£à¯įà®Łà®µà®°à¯įà®ķà®³à¯Ī":6162,"Ġà®µà¯ĩà®¤à®¤à¯įà®¤à®¿à®²à¯į":6163,"Ġà®ªà®£à®¿à®¨à¯įà®¤à¯ģ":6164,"Ġà®¨à®¿à®°à®¾à®ķà®°à®¿à®ªà¯įà®ªà¯ĩà®¾à®°":6165,"à¯Īà®ªà¯įà®ªà¯ĩà®¾à®²à¯į":6166,"à®´à®¿":6167,"Ġà®ĩà®°à¯ģà®ķà¯įà®ķà®¿à®±à¯Ģà®°à¯įà®ķà®³à®¾":6168,"Ġà®ĵà®¯":6169,"Ġà®ªà¯Ĭà®¤à¯ģ":6170,"Ġà®ıà®°à®¾à®³à®®à®¾à®©":6171,"à®¯à®¾à®µà®°à¯ģà®®à¯į":6172,"à®ķà¯įà®¸":6173,"Ġà®ªà¯Ĩà®¾à®°à¯ģà®Łà¯įà®Łà¯ģà®®à¯į":6174,"Ġà®ħà®¤à®©à¯Īà®ªà¯į":6175,"Ġà®ªà¯Ĥà®®à®¿à®¯à®¿à®©":6176,"à®Łà¯Īà®¨à¯įà®¤à®¤à¯ģ":6177,"Ġà®®à®´à¯Īà®¯à¯Ī":6178,"Ġà®ħà®³à®¿à®ķà¯įà®ķà®ªà¯įà®ªà®Łà¯įà®Ł":6179,"à¯Ģà®¸à¯į":6180,"Ġà®ķà¯Ĩà®¾à®£à¯įà®Łà®µà®°à¯įà®ķà®³à®¾à®ķ":6181,"à®°à¯įà®ķà®³à®¾à®©":6182,"à¯ģà®°à¯įà®Ĩ":6183,"Ġà®¤à®¿à®°à®Łà¯įà®Ł":6184,"ht":6185,"Ġà®ħà®µà®°à¯Īà®¤à¯į":6186,"à®¾à®¤à®¿à®°à¯ģà®ªà¯įà®ª":6187,"Ġà®µà®¿à®Łà¯ģà®ķà®¿à®±à®¾à®°à¯įà®ķà®³à¯į":6188,"Ġà®µà¯Īà®ªà¯įà®ªà®¾à®¯à®¾à®ķ":6189,"Ġà®·à¯Īà®¤à¯įà®¤à®¾à®©à¯įà®ķà®³à¯į":6190,"Ġà®µà®¹à¯Ģà®¯":6191,"Ġà®ļà®¿à®²à®°à¯Īà®µà®¿à®Ł":6192,"à¯Į":6193,"à®²à®µ":6194,"Ġà®ļà¯Ĩà®¯à¯įà®¤à¯ģà®µà®¿à®Ł":6195,"Ġà®ħà®¤à®¿à®ķà®®à®¾à®ķà¯įà®ķ":6196,"Ġà®ļà¯Ĩà®¯à¯įà®ªà®µà®°à¯įà®ķà®³à¯Ī":6197,"Ġà®ªà®¯à®©à¯įà®ªà®Łà¯ģà®¤à¯įà®¤à®ªà¯įà®ªà®Łà¯ģà®®à¯į":6198,"Ġà®ªà®±à¯įà®±à®¿à®ªà¯į":6199,"Ġà®¨à®¿à®¤à¯įà®¤à®¿à®¯":6200,"Ġà®ķà¯Ĥà®±à®¿à®ķà¯į":6201,"Ġà®µà®¿à®µà®¾à®ķà®®à¯į":6202,"Ġà®ķà®£à®ķà¯įà®ķà¯ģà®ķà¯į":6203,"Ġà®īà®£à¯įà®®à¯Īà®¯à¯ĩ":6204,"Ġà®¨à®¿à®":6205,"à®ĩà®ªà¯įà®±à®¾à®¹à¯Ģ":6206,"Ġà®ļà®®à¯Ĥà®ķà®¤à¯įà®¤à®¾à®°à¯ģà®®à¯į":6207,"Ġà®ħà®¤à¯įà®¤à®¾à®Łà¯įà®ļà®¿à®ķà®³à¯Īà®¯à¯ģà®®à¯į":6208,"Ġà®ªà®Łà¯Īà®ķà¯įà®ķà®µà®¿à®²à¯įà®²à¯Ī":6209,"Ġà®¹à®²à®¾à®²":6210,"Ġà®ķà¯Ĩà®¾à®£à¯įà®Łà®µà®°à¯įà®ķà®³à¯ģà®ķà¯įà®ķà¯ģ":6211,"à®īà®®à®ķà¯įà®ķà¯ģ":6212,"Ġà®ķà®¾à®ĥà®ªà®¿à®°à¯įà®ķà®³à®¿à®©à¯į":6213,"Ġà®ļà¯Ĩà®¾à®©à¯įà®©à¯ĭà®®à¯į":6214,"Ġà®¤à¯Ĥà®¤à®°à¯įà®ķà®³à®¿à®²à¯į":6215,"à®ªà®¾à®µà®ļà¯į":6216,"Ġà®īà®Łà®©à¯įà®ªà®Łà®¿à®ķà¯įà®ķ":6217,"à¯Īà®µà®¿à®Łà¯įà®Łà¯ģà®®à¯į":6218,"à¯ĩà®¤à®®à¯į":6219,"à®¿à®Łà®¤à¯įà®¤à®¿à®²à®¿à®°à¯ģà®¨à¯įà®¤à¯ģ":6220,"Ġà®¤à¯ĩà®Łà¯ģ":6221,"Ġà®İà®µà®°à¯ģà®ķà¯įà®ķà¯ģà®®à¯į":6222,"ĠCD":6223,"à®¾à®µà®¾à®°à¯į":6224,"Ġà®ħà®±à®¿à®µà®¿à®²à¯įà®²à®¾à®¤":6225,"Ġà®µà®´à®¿à®ªà®Łà¯įà®Łà¯ģ":6226,"Ġà®ķà®³à®¿à®®à®£à¯įà®£":6227,"Ġà®ķà®²à¯įà®²":6228,"Ġà®ħà®µà®°à¯įà®ķà®³à®¿à®Łà®¤à¯įà®¤à®¿à®²à¯į":6229,"Ġà®Ĵà®°à¯ģà®Ļà¯įà®ķ":6230,"Ġà®Ĭà®°à¯Ī":6231,"Ġà®®à®¿à®ķà¯Īà®¤à¯įà®¤à®µà®©à®¾à®ķà®µà¯ģà®®à¯į":6232,"Ġà®µà¯Ĩà®±à¯įà®±à®¿à®¯à®¾à®ķà¯ģà®®à¯į":6233,"Ġà®ļà®¨à¯įà®¤à®¿à®°à®©à¯Īà®¯à¯ģà®®à¯į":6234,"à®£à¯įà®Łà¯Ī":6235,"Ġà®ªà¯ĩà®°à¯į":6236,"à®¿à®®à®¾à®±à¯įà®±":6237,"à®¿à®©à®°à¯ģà®ķà¯įà®ķà¯ģ":6238,"(à®¨à¯įà®¨":6239,"à®¾à®°à¯Ī":6240,"à¯Ĩà®¤à®¿à®°à®¾à®ķ":6241,"à®µà¯ĭ":6242,"Ġà®ħà®²à¯įà®²à®¾à®¹à¯įà®µà¯ģà®ķà¯įà®ķà®¾à®ķ":6243,"Ġà®ķà¯Ĩà®¾à®³à¯įà®³à®¾à®®à®²à¯į":6244,"Ġà®ĩà®¤à¯ĩà®¾":6245,"Ġà®ªà®¿à®©à¯įà®ªà®±à¯įà®±à¯ģà®ķà®¿à®±à®¾à®°à¯įà®ķà®³à¯į":6246,"à®ķà¯Ĩà®²":6247,"Ġà®Ĩà®¤à¯ģ":6248,"à¯įà®¨à¯įà®¤à®¿à®°à¯ģà®ªà¯įà®ª":6249,"Ġà®ªà®°à¯ģà®ķ":6250,"Ġà®Ĵà®Łà¯įà®Łà®ķ":6251,"à®ªà®¯à®©à¯įà®ªà®Łà¯ģà®¤à¯įà®¤":6252,"Ġà®ķà®Łà¯Īà®ªà¯įà®ªà®¿à®Łà®¿à®¤à¯įà®¤à¯ģ":6253,"Ġà®¨à®¾à®³à¯Īà®¯à¯ģà®®à¯į":6254,"à®ħà®ķà®¿à®²":6255,"à®ķà¯ģà®±à¯įà®±à®µà®¾à®³":6256,"à®ªà¯įà®ªà¯ĩà®¾à®°à¯į":6257,"Ġà®ªà®¿à®°à®¤":6258,"Ġà®ªà¯Ĩà®¾à®°à¯ģà®¤à¯įà®¤":6259,"Ġà®ļà¯Ĩà®¾à®²à¯įà®ª":6260,"Ġà®µà®¿à®²à¯Īà®ķà¯įà®ķà¯ģ":6261,"Ġà®īà®¯à®¿à®°à¯įà®ķà®³à¯Īà®¯à¯ģà®®à¯į":6262,"à®¿à®Łà®®à®¿à®°à¯ģà®¨à¯įà®¤à¯ģà®³à¯įà®³":6263,"à¯įà®¤à¯į":6264,"Ġà®µà®ļà®ªà¯įà®ªà®Łà¯ģà®¤à¯įà®¤":6265,"Ġà®ŀà®¾à®ª":6266,"à®°à¯ģà®µ":6267,"Ġà®ķà®¾à®³":6268,"Ġà®ħà®ªà¯įà®ªà¯Ĩà®£":6269,"Ġà®ħà®®à¯Īà®¯à¯ģà®®à¯į":6270,"à®ħà®°à¯ģà®³à¯į":6271,"à¯Īà®ķà¯įà®ķà¯ģà®³à¯į":6272,"Ġas":6273,"Ġà®¤à®Ļà¯įà®ķà®¿à®¯à®¿à®°à¯ģà®¨à¯įà®¤":6274,"Ġà®ħà®Łà®¿à®¯à®¾à®°à¯įà®ķà®³à¯į":6275,"à¯ģà®µà®¤à¯Ĩà®²à¯įà®²à®¾à®®à¯į":6276,"à®¿à®ķà¯įà®ķà®ªà¯įà®ªà®Łà¯ģà®µà®¾à®°à¯įà®ķà®³à¯į":6277,"à¯ģà®®à¯įà®ªà®Łà®¿à®¯à¯ģà®®à¯į":6278,"Ġà®ķà¯Ģà®´à¯įà®ªà®Łà®¿à®¯à¯ģà®Ļà¯įà®ķà®³à¯į":6279,"à®ħà®³à®µà¯ģ":6280,"à®¿à®°à¯ģà®ķà¯įà®ķà®¿à®©à¯įà®±à¯ĩà®©à¯į":6281,"Ġà®¤à¯Ĩà®¾à®Łà®Ļà¯įà®ķ":6282,"Ġà®ªà®°à®¿à®ķà®¾à®°":6283,"à®ħà®±à®¿à®¨à¯įà®¤à¯ģ":6284,"Ġà®ĩà®±à¯Īà®µà®©à¯Īà®ªà¯į":6285,"Ġà®¨à®¾à®³à®¾à®ķà¯ģà®®à¯į":6286,"Ġà®ļà¯Ĩà®¾à®²à¯įà®²à®ªà¯įà®ªà®Łà¯ģà®®à¯į":6287,"Ġà®¨à®©à¯įà®ķà®±à®¿à®ªà®µà®©à®¾à®ķà®µà¯ģà®®à¯į":6288,"Ġà®ķà¯ģà®Łà¯ģà®®à¯įà®ªà®¤à¯įà®¤à®¾à®°à¯Īà®¯à¯ģà®®à¯į":6289,"Ġ_":6290,"Ġà®µà¯Īà®¤à¯įà®¤à¯ģà®³à¯įà®³à¯ĩà®¾à®®à¯į":6291,"à®¤à®²à¯įà®²":6292,"Ġà®µà®¯à®¿à®±":6293,"Ġà®¤à®¿à®°à¯ģà®¨à®¾à®®":6294,"land":6295,"Ġra":6296,"à®¯à®¾à®ķà¯ģà®®à¯į":6297,"à®®à®¾à®¤":6298,"Ġà®µà®¾à®Ļà¯įà®ķà®¿à®ķà¯į":6299,"à®µà®¾à®ķ":6300,"mage":6301,"à®ħà®µà®±à¯įà®±":6302,"à®ļà¯Ĩà®¯à¯įà®¯":6303,"Ġà®ħà®³à®¿à®¤à¯įà®¤à¯ģà®³à¯įà®³":6304,"Ġà®ªà¯Ĭà®¤à¯įà®¤à®¾à®©à¯į":6305,"Ġà®µà®¿à®°à¯ģà®ªà¯įà®ªà®¤à¯įà®¤à¯ĩà®°":6306,"Ġà®ªà®¾à®°à¯ģà®®à¯į":6307,"Ġoption":6308,"Ġà®µà®ļà®¿à®¤à¯įà®¤":6309,"Ġà®ķà®¾à®²à¯Īà®¯à®¿à®²à¯ģà®®à¯į":6310,"IL":6311,"Ġà®ķà®´à¯ģà®¤":6312,"Ġà®¨à¯Ģà®Łà¯įà®Ł":6313,"Ġà®ļà¯Ĩà®¾à®²à¯įà®²à®¿":6314,"à®ªà¯įà®Ł":6315,"à®¾à®°à¯įà®ķà®³à®¾à®ķ":6316,"Ġà®ļà¯ĩà®µà®ķ":6317,"à®³à®µà®¿à®²à¯į":6318,"à®ķà¯ģà®°à¯įà®Ĩà®©à¯į":6319,"DVD":6320,"à¯Ĭà®ªà¯įà®ª":6321,"à®ªà¯Ĩà®±":6322,"à®²à®¾à®®à®¾":6323,"Ġà®ªà¯ģà®£à®°à¯įà®ķà®¿à®±à¯ĩà®©à¯į":6324,"Ġà®ķà®¾à®Łà¯įà®Łà¯ģà®ķ":6325,"ĠServer":6326,"Ġà®ļà¯Ģà®Łà¯įà®Łà¯ģ":6327,"ep":6328,"Ġà®µà¯Ĩà®³à®¿à®¯à¯ĩà®±à¯įà®±à®¿":6329,"Ġà®ħà®´à®ķà®¾à®ķ":6330,"à¯Ģà®®à¯į":6331,"à®ªà¯Ĭà®²":6332,"Ġà®µà®¿à®Łà®²à®¾à®®à¯į":6333,"Ġà®°à®ªà¯įà®ª":6334,"pi":6335,"Ġà®ªà¯Ĩà®¾à®¤":6336,"Ġà®ĩà®´à®ķà¯įà®ķ":6337,"Ġà®µà¯Ĩà®³à®¿à®ļà¯įà®ļ":6338,"Ġà®¨à®¿à®°à®¾à®ķà®°à®¿à®ªà¯įà®ªà¯ĩà®¾à®°à¯į":6339,"à®ħà®ªà¯įà®ªà®¾à®²à¯į":6340,"Ġà®µà¯Ģà®Łà¯ģà®ķà®³":6341,"Ġà®ħà®´à®¿à®¤à¯įà®¤à¯ĩà®¾à®®à¯į":6342,"our":6343,"à®ªà¯Ĩà®¾à®±":6344,"à®©à¯Īà®¯à®¾à®ķ":6345,"Ġà®ħà®±à®¿à®ķ":6346,"Ġà®İà®´à¯ģà®¨à¯įà®¤":6347,"ĠDPI":6348,"à®¨à®¾à®³à¯į":6349,"à®Łà¯įà®Łà¯ģà®®à®¾":6350,"Ġà®ªà®¾à®µà®¿à®ķà®³":6351,"Ġà®ļà¯ĩà®°à¯įà®ķà¯įà®ķà¯ģà®®à¯į":6352,"Ġà®ķà®µà®²à¯Īà®ªà¯įà®ªà®Ł":6353,"Ġà®¤à¯Ĩà®°à®¿à®ķà®¿à®±à®¤à¯ģ":6354,"Ġà®µà®¿à®ļà¯Īà®¯à¯Ī":6355,"Ġà®ħà®´à¯ģà®¤à¯įà®¤à®µà¯ģà®®à¯į":6356,"Ġà®ļà¯Ĩà®µà®¿à®¯à¯ĩà®±à¯įà®±":6357,"Ġà®¨à¯Ĩà®Ł":6358,"à®Łà¯ĩ":6359,"Ġby":6360,"Ġà®¨à®¿à®¨à¯įà®¤":6361,"Ġà®ĩà®²à¯įà®²à®¾à®®":6362,"Ġà®µà®¾à®´à¯įà®µà®¿à®²à¯į":6363,"à®¤à®¿à®¯à®¾à®©":6364,"Ġà®İà®Łà¯įà®Ł":6365,"Ġà®®à®¤à®¿à®ªà¯įà®ªà¯Ī":6366,"à®ħà®©à¯Ī":6367,"Ġà®ļà¯ģà®µà®°à¯įà®ķà¯įà®ķà®ļà¯į":6368,"Ġà®®à¯ģà®Łà®¿à®¨à¯įà®¤à®¤à¯ģ":6369,"Ġà®İà®´à¯ģà®¤à¯įà®¤à¯ģ":6370,"à®¿à®µà®¿à®Łà¯įà®Łà®¾à®©à¯į":6371,"Ġà®ļà¯Ĩà®¯à¯įà®ķà®¿à®±à¯Ģà®°à¯įà®ķà®³à¯į":6372,"Ġà®¤à®ķà¯įà®µ":6373,"(à®ĩà®¤à®±à¯įà®ķà¯ģ":6374,"à®İà®´à¯ģà®¤à¯įà®¤à¯ģà®°à¯ģ":6375,"à®®à®¿à®Łà¯įà®Ł":6376,"à®¿à®ķà¯įà®ķà®¿à®±à®¾à®°à¯į":6377,"à®¨à®©à¯įà®±à®¿":6378,"Ġà®İà®©à¯ģà®®à¯į":6379,"ico":6380,"à®¿à®ªà¯įà®ªà¯Ī":6381,"Ġà®ķà®´à¯ģà®¤à¯įà®¤":6382,"à®ļà®¾à®³à®°à®¤à¯įà®¤à¯Ī":6383,"à¯ģà®µà¯ĩà®³à¯Ī":6384,"à®ħà®µà®³":6385,"à¯įà®ķà¯įà®ķà¯Ī":6386,"à®İà®¤à¯ģà®µà¯ģà®®à¯į":6387,"ns":6388,"à¯Īà®ķà¯įà®ķà®ªà¯įà®ªà®Łà¯įà®Ł":6389,"Ġstatus":6390,"Ġà®ķà®©à®µ":6391,"à®¨à®¾à®Ļ":6392,"ress":6393,"à®¤à®¾à®¯à¯į":6394,"à®¨à®¿à®±à®®à¯į":6395,"Ġà®ħà®±à®¿à®ķà¯įà®ķ":6396,"Ġà®ªà®¾à®°à¯įà®µà¯Ī":6397,"Ġà®īà®£à¯įà®®à¯Īà®¯à®¾à®ķ":6398,"à®¿à®°à¯Ī":6399,"à®Ĩà®£à¯į":6400,"à®®à¯ģà®ķà¯įà®ķà®¿à®¯":6401,"Ġà®µà®²à¯Ī":6402,"Ġà®®à®©à¯įà®©à®¿à®¤à¯įà®¤":6403,"Ġà®¤à®²à¯Īà®ªà¯įà®ª":6404,"Ġà®ħà®±à®¿à®ªà®µà®©à¯į":6405,"à®ķà®£à®¿à®©":6406,"Ġà®ļà¯Ĩà®µà®¿à®¯à¯ĩà®±à¯įà®ªà®µà®©à¯į":6407,"à®µà®£à®ķà¯įà®ķà®®à¯į":6408,"box":6409,"ments":6410,"à¯Īà®µà¯Ĥà®Łà¯įà®Ł":6411,"ces":6412,"à®©à®¿à®ķà¯įà®ķ":6413,"Ġà®ķà¯ĭà®ªà¯įà®ªà®¿à®©à¯į":6414,"ust":6415,"à¯Ĩà®²à¯įà®²":6416,"Ġà®®à¯ģà®¹":6417,"Ġà®ħà®´à¯Īà®¯à¯ģà®Ļà¯įà®ķà®³à¯į":6418,"à¯Ĩà®©à¯įà®Łà¯į":6419,"Ġà®īà®¯à®¿à®°à¯ģà®Łà®©à¯į":6420,"\"à®Ĩà®©à®¾à®²à¯į":6421,"à®īà®£à¯įà®®à¯Īà®¯à®¾à®©":6422,"à®¿à®ķà¯įà®ķà®µà®¿à®²à¯įà®²à¯Ī":6423,"Ġà®µà¯Ģà®ļ":6424,"à®ªà¯įà®ªà®¿à®°":6425,"à®ļà®¿à®Łà®¿":6426,"'%":6427,"à®¿à®ŀ":6428,"Ġà®ªà¯ĭà®ķ":6429,"à¯įà®¯à¯ģ":6430,"à¯įà®¯à®©à¯į":6431,"à®¿à®ķà®³à¯Īà®¤à¯į":6432,"à®¾à®°à¯įà®µ":6433,"Ġà®¤à®¿à®±à®¨à¯įà®¤à¯ģ":6434,"Ġà®ħà®ŀà¯įà®ļà®Ļà¯įà®ķà®³à¯į":6435,"Ġà®¤à®±à¯įà®ªà¯ĭà®¤à¯Īà®¯":6436,"à®²à¯įà®¸à¯į":6437,"à®¿à®ĩ":6438,"Ġà®¨à®Łà®ªà¯įà®ªà¯ģ":6439,"Ġmess":6440,"Ġà®ķà®°à¯ģà®£à¯Ī":6441,"Ġà®ļà®¿à®ª":6442,"Ġà®ķà¯ĭà®°":6443,"Ġà®¨à®®à¯įà®ªà®¿à®ķà¯įà®ķà¯Īà®ķà¯įà®ķà¯ģà®°à®¿à®¯":6444,"Ġà®ªà®¾à®¤à¯ģà®ķà®¾à®ªà¯įà®ªà¯ģ":6445,"Ġà®®à®¾à®®à®¿à®ļ":6446,"à®®à¯ģà®±à¯įà®±":6447,"à®®à®Łà¯Īà®¯":6448,"Ġà®µà®¿à®Łà¯ģà®¤à®²à¯Ī":6449,"Ġà®ķà®¾à®°à®£à®¤à¯įà®¤à®¿à®©à®¾à®²à¯į":6450,"Ġà®ķà¯Ĥà®Łà¯įà®Łà¯ģ":6451,"à¯ģà®ªà®µà®°à¯įà®ķà®³à¯ģà®ķà¯įà®ķà¯ģ":6452,"à®¿à®¯à®¾à®ķà®ªà¯į":6453,"Ġà®ķà®°à¯ģà®¤à®¿":6454,"Ġà®®à®©à®¿à®¤à®°à¯į":6455,"à®İà®¤à¯Īà®¯à¯ģà®®à¯į":6456,"Ġà®¤à¯ĩà®¤à®¿":6457,"Ġà®ķà®¿à®Łà¯Īà®¯à®¾à®¤à¯ģ":6458,"Ġà®ļà¯Ĩà®¾à®²à¯įà®²à¯ģà®®à¯į":6459,"à¯ģà®®à®¤":6460,"Ġà®®à®©à®®à¯į":6461,"Ġà®ľà¯Ģ":6462,"Ġà®µà®¯à®¤à¯ģ":6463,"'čĊ":6464,"Ġà®µà¯ĩà®³à¯Ī":6465,"Ġà®İà®£":6466,"à®ħà®ªà¯įà®ªà®Ł":6467,"Ġtype":6468,"orm":6469,"à®©à¯ģà®ªà¯įà®ª":6470,"à®¤à¯įà®¤à®¾à®ķà¯įà®ķ":6471,"ore":6472,"Ġà®ĩà®¯à®Ļà¯įà®ķ":6473,"Ġà®ķà®¾à®£à¯įà®ªà®¿à®ªà¯įà®ª":6474,"Ġà®¨à®Łà®¨à¯įà®¤à®¤à¯ģ":6475,"à®¨à®¿à®¯à®¾à®¯":6476,"ella":6477,"Ġà®¨à®¿à®¯à®¾à®¯à®®à®¾à®©":6478,"Ġà®Ĩà®±à¯įà®±à®²":6479,"Ġà®µà®´à®¿à®¯à®¾à®ķ":6480,"Ġà®¨à®¾à®©à¯ĩ":6481,"Ġà®¤à¯Ĭà®Łà®°à¯įà®ªà¯ģ":6482,"à®¿à®°à®¿à®¯à®°à¯į":6483,"Ġà®µà®¨à¯įà®¤à®¾à®°à¯į":6484,"Ġà®µà®¾à®´à¯įà®ķà¯įà®ķà¯Īà®¯à®¿à®©à¯į":6485,"Ġà®®à¯Ĩà®¯à¯įà®¯à®¾à®ķ":6486,"à®¿à®ľà¯įà®°":6487,"à®²à¯įà®²à®©à¯į":6488,"Ġà®ħà®°à¯ģà®ķà¯ĩ":6489,"Ġà®ļà®®à®¾à®¤à®¾à®©à®®à¯į":6490,"Ġà®¨à®¿à®©à¯Īà®¤à¯įà®¤à¯ĩà®©à¯į":6491,"à®ħà®Łà¯įà®Łà®µà®£à¯Ī":6492,"Ġà®µà®²à®¿à®®à¯Ī":6493,"à®¿à®°à®£à¯įà®Łà¯ģ":6494,"Ġà®ķà¯Ĥà®Łà¯įà®Łà®®à¯į":6495,"Ġà®®à¯ģà®Łà®ķà¯įà®ķà¯ģ":6496,"Ġà®ļà¯Ĩà®¯à¯įà®ķà®¿à®±à®¤à¯ģ":6497,"à®Łà¯įà®Łà¯ĭ":6498,"Ġà®ķà¯Ĥà®±à¯ģà®µà®¾à®°à¯į":6499,"Ġà®µà®¨à¯įà®¤à®¾à®²à¯ģà®®à¯į":6500,"Ġà®ļà®µà®©":6501,"Ġà®ªà®²à®ķ":6502,"à®Ĵà®°à¯ģà®µà¯ĩà®³à¯Ī":6503,"Ġà®¨à®Łà®ķà¯įà®ķà®¿à®±à®¤à¯ģ":6504,"à®¾à®°à¯Īà®¯à¯ģà®®à¯į":6505,"à¯įà®©à¯ģ":6506,"à®¾à®ļà¯Ī":6507,"Ġà®µà®¿à®°à¯ģà®®à¯įà®ªà¯ģà®µ":6508,"Ġà®²à®¿à®²à¯įà®²":6509,"Ġà®ħà®µà®°à¯ģà®ķà¯įà®ķà®¾à®ķ":6510,"à¯Ĭà®©à®¿à®¯à®¾":6511,"à®ħà®µà®°à¯įà®ķà®³à¯Īà®ªà¯į":6512,"à®¿à®ĥà®ªà¯Ĭà®©à®¿à®¯à®¾":6513,"à®ķà¯Ĩà®²à®¿à®ĥà®ªà¯Ĭà®©à®¿à®¯à®¾":6514,"à®¾à®Łà¯įà®Łà®¿à®©à¯į":6515,"Ġà®ªà®¯à®£à®®à¯į":6516,"Ġà®ªà®°à®¿à®¨à¯įà®¤":6517,"Ġà®¨à®¿à®©à¯Īà®µà®¿à®²à¯į":6518,"Ġà®¤à¯Ĭà®Łà®Ļà¯įà®ķ":6519,"100":6520,"à®¨à®®à®¤à¯ģ":6521,"à®ķà®Łà¯Īà®ļà®¿":6522,"à¯ģà®®à®¾à®±à¯ģà®®à¯į":6523,"Ġà®ļà¯ĩà®°à¯įà®ªà¯įà®ªà®¾à®©à¯į":6524,"ĠÂ":6525,"à¯Ģà®°à¯įà®ªà¯įà®ª":6526,"à®®à®£":6527,"Ġà®ļà¯Ĩà®¯à¯įà®µà®¤à®¿à®²à¯į":6528,"à®ĩà®±à¯Īà®µà®¾":6529,"Ġà®¤à®²à®¾à®ķà¯į":6530,"Ġà®¨à¯ĩà®ļà®¿à®ķà¯įà®ķà®¿à®©à¯įà®±à®¾à®©à¯į":6531,"Ġà®ªà¯Ĩà®£à¯įà®ķà®³à¯ģà®ķà¯įà®ķà¯ģà®®à¯į":6532,"Ġà®ħà®µà®©à®©à¯įà®±à®¿":6533,"Ġà®µà®¿à®Łà¯ģà®ķà®¿à®±à®¾à®©à¯ĭ":6534,"Ġà®ļà¯Ĩà®¯à¯įà®ªà®µà®©":6535,"à®¤à®¾à®ķà®ķà¯į":6536,"à®ļà¯Ĩà®¯à®²à¯į":6537,"port":6538,"à®°à¯įà®Ł":6539,"Ġà®¨à¯ĩà®°à¯įà®®à¯Īà®¯à®¾à®©":6540,"Ġà®ļà®¨à¯įà®¤à®¿à®¤à¯įà®¤":6541,"à®¾à®®à®²à®¿à®°à¯ģà®ķà¯įà®ķ":6542,"Ġà®ķà¯Ĥà®Łà¯įà®Łà®¤à¯įà®¤à®¾à®°à¯Ī":6543,"à®ªà¯Ĭà®°à¯ģà®³":6544,"à¯ģà®ķà®¿à®©à¯įà®±à®¤à¯ģ":6545,"Ġà®ĩà®µà®°à¯įà®ķà®³à¯ģà®®à¯į":6546,"à®¤à®¿à®²à¯ģà®®à¯į":6547,"Ġà®ķà¯ģà®£":6548,"Ġà®ļà®¿à®¨à¯įà®¤à®¿à®¤à¯įà®¤à¯ģ":6549,"à®Ĵà®µà¯įà®µà¯ĩà®¾à®°à¯į":6550,"Ġà®ķà¯Ĥà®±à¯ģà®µà®¤à¯Ī":6551,"Ġà®ªà®Łà¯įà®Łà®¿":6552,"Ġà®¨à®¾à®Łà®¿à®©à®¾à®²à®©à¯įà®±à®¿":6553,"à®®à¯ģà®¸à¯įà®²":6554,"Ġà®µà®ķà¯Īà®¯à®¾à®©":6555,"à¯ĩà®¾à®ķà¯įà®ķ":6556,"à®ŀà¯įà®ļà®®à¯į":6557,"à®ľà®¾à®ķà¯į":6558,"Ġà®µà®°à®²à®¾à®±à¯įà®±à¯Ī":6559,"à®¿à®ľà¯įà®°à®¤à¯į":6560,"Ġà®ĩà®°à¯ģà®ķà¯įà®ķà®¿à®©à¯įà®±à®¾à®°à¯į":6561,"Ġà®®à®¯à®ķà¯įà®ķ":6562,"Ġà®ĩà®±à¯Īà®µà®©à®¾à®²à¯į":6563,"Ġà®¯à®¾à®ķà¯ģà®®à¯į":6564,"Ġà®°à¯ģà®ķà¯Ĥ":6565,"Ġà®°à¯ģà®ķà¯Ĥà®ĥ":6566,"Ġà®ªà¯Ĩà®¾à®¯à¯įà®¯à¯Ĩà®©à®ķà¯į":6567,"Ġà®¨à®¾à®¯à®©à®¿à®²à¯įà®²à¯Ī":6568,"ĠÃ":6569,"OM":6570,"à®ħà®¨à¯įà®¨":6571,")!čĊ":6572,"Ġà®ļà¯Ĩà®¯à¯įà®ªà®µà®°":6573,"Ġà®µà®ļà®©à®Ļà¯įà®ķà®³à¯Īà®¯à¯ģà®®à¯į":6574,"Ġà®¤à®Ļà¯įà®ķà®³à®¿à®Łà®®à¯į":6575,"à®®à®Łà¯įà®Łà¯ģà®®à¯į":6576,"Ġà®İà®µà®°à¯ģà®ķà¯įà®ķà¯ģ":6577,"Ġà®¤à¯Ĥà®°à®®à¯į":6578,"360":6579,"à¯įà®ķà®³à®¾à®²à¯į":6580,"Ġà®ļà®°à®¿à®¯":6581,"à®ĩà®±à¯Īà®µà®©à¯ĩ":6582,"à®¤à®°à¯įà®²":6583,"Ġà®µà¯Ĩà®³à¯įà®³à¯Ī":6584,"à®¤à®¿à®ķ":6585,"Ġà®ķà¯Īà®ķà®³à¯Īà®¯à¯ģà®®à¯į":6586,"à®Łà¯įà®Łà®¿à®©à¯į":6587,"Ġà®ħà®³à®¿à®¤à¯įà®¤à¯ĩà®¾à®®à¯į":6588,"Ġà®İà®¤à®©à¯į":6589,"à®ķà¯įà®ķà®¾à®°à®°à¯įà®ķà®³à¯į":6590,"Ġà®ªà¯ĩà®¾à®¤à¯Ĩà®²à¯įà®²à®¾à®®à¯į":6591,"Ġà®ªà¯ĭà®©à¯įà®±":6592,"à®ªà®¯à®ªà®ķà¯įà®¤à®¿à®¯à¯ģà®Łà¯Īà®¯":6593,"à®¨à¯įà®¤à®®à¯į":6594,"Ġà®ħà®°à®ªà®¿":6595,"Ġà®ıà®±à¯įà®ªà®Łà¯įà®Łà¯ģ":6596,"Ġà®Ĩà®£à¯įà®ķà®³à¯į":6597,"Ġà®Ĩà®µà®£à®®à¯į":6598,"à¯Ĥà®°à¯įà®µ":6599,"à®ĩà®±à¯Īà®µà®©à®¿à®©à¯į":6600,"Ġà®ªà®¾à®²à¯ĩà®¾à®°à¯į":6601,"Ġà®ļà®¤à®¾":6602,"Ġà®ĩà®°à®µà¯Īà®¯à¯ģà®®à¯į":6603,"à®¸à®²à®¾à®®à¯į":6604,"Ġà®ªà®Łà®¿à®ªà¯įà®ªà®¿à®©à¯Ī":6605,"à®¾à®¯à®¿à®±à¯įà®±à¯ģ":6606,"Ġà®ļà¯Ĩà®¯à¯įà®¤à®µà®°à¯įà®ķà®³à¯į":6607,"Ġà®ļà¯Ĩà®¯à¯įà®¯à®¾à®¤à¯ģ":6608,"Ġà®µà®¿à®Łà¯ģà®ķà®¿à®©à¯įà®±à®©à®°à¯į":6609,"Ġà®®à®¾à®Łà¯įà®Łà®¾à®°à¯į":6610,"Ġà®ķà¯Īà®¤à¯įà®¤":6611,"à®®à¯ĩà®¯à¯ĩ":6612,"Ġà®ķà¯Ĥà®±à®¿à®©à®¾à®³à¯į":6613,"à®ħà®²à¯įà®²à®¾à®¹à¯įà®¤à®¾à®©à¯į":6614,"Ġà®İà®©à¯įà®±à¯ĩ":6615,"Ġà®ķà®£à¯įà®Łà¯ĩà®©à¯į":6616,"à¯ģà®ķà®ļà¯į":6617,"Ġà®ħà®Łà®¿à®¤à¯įà®¤à¯ģà®ķà¯į":6618,"Ġà®ļà®¨à¯įà®¤à®¿à®ķà¯įà®ķ":6619,"Ġà®®à¯ģà®ĥà®®à®¿à®©à¯įà®ķà®³à¯Ī":6620,"Ġà®ļà®¾à®®à¯įà®ª":6621,"Ġà®¨à®¿à®ļà¯įà®ļà®¯à®®à®¾à®ķà®¤à¯į":6622,"à®ªà®°à®¿à®ķ":6623,"(à®ªà®¿à®©à¯įà®©à®°à¯į":6624,"Ġà®®à®±à¯ģà®ķà¯įà®ķ":6625,"Ġà®®à¯Ĥà®Łà¯ģ":6626,"Ġà®ªà¯Ĩà®¾à®±à®¾à®®":6627,"14":6628,"Ġà®ļà¯ģà®µà¯Īà®ķà¯įà®ķ":6629,"Ġà®ħà®ķà®¿à®²à®Ļà¯įà®ķà®³à¯ģà®ķà¯įà®ķà¯Ĩà®²à¯įà®²à®¾à®®à¯į":6630,"Ġà®¤à®Łà¯įà®Łà®´":6631,"à®¨à®±à¯įà®ª":6632,"Ġà®µà®¾à®Ļà¯įà®ķà®¿à®©à¯ĭà®®à¯į":6633,"Ġà®¨à®°à®ķà®®à¯ĩ":6634,"Ġmenu":6635,"Ġà®īà®ªà®ķà®¾à®°à®®à¯į":6636,"à®®à¯ģà®©à¯įà®©à®°à¯į":6637,"à®¿à®Łà®ļà¯į":6638,"Ġà®ĩà®®à¯įà®®à¯Īà®¯à®¿à®²à¯ģà®®à¯į":6639,"Ġà®ĩà®²à¯įà®²à®¾à®¤à®¿à®°à¯ģà®¨à¯įà®¤à®¾à®²à¯į":6640,"Ġà®ªà®¯à®©à®³à®¿à®ķà¯įà®ķ":6641,"à®¤à®°à®µà¯ģ":6642,"Ġà®ķà¯Īà®¯à¯ĩ":6643,"Ġà®ħà®µà®°à¯Īà®ķà¯į":6644,"Ġà®ħà®¤à®¿à®²à¯ģà®³à¯įà®³":6645,"à®¾à®°à¯įà®ķà®³à¯ģà®®à¯į":6646,"Ġà®ĩà®²à¯ĩà®ļà®¾à®ķà¯įà®ķ":6647,"à®¨à¯Ĩà®¤à®°à¯įà®²":6648,"Ġà®µà®¸":6649,"à®ªà¯ĩà®¾à®°à¯į":6650,"Ġà®µà¯ĩà®¤à®¤à¯į":6651,"Ġà®ħà®Łà¯Īà®ķ":6652,"à®®à¯Ĥà®ķà®¤à¯įà®¤":6653,"Ġà®ªà¯ĩà®¾à®©à¯įà®±à¯ĩ":6654,"à®ĩà®¤à®©à®¾à®²à¯į":6655,"Ġà®ķà®Łà®¿à®©à®®à®¾à®ķ":6656,"Ġà®¤à®Łà¯ģà®ķà¯įà®ķà®ªà¯įà®ªà®Łà¯įà®Ł":6657,"Ġà®ªà¯Ĩà®¾à®¯à¯įà®¯à®¾à®ķà®ķà¯į":6658,"Ġà®µà®£à®Ļà¯įà®ķà¯ģà®ª":6659,"Ġà®İà®Ļà¯įà®ķà®³à¯ģà®ķà¯įà®ķà¯ģà®ķà¯į":6660,"à®¿à®ķà¯įà®ķà®ªà¯įà®ªà®Łà®µà®¿à®²à¯įà®²à¯Ī":6661,"Ġà®ıà®´à¯Īà®ķà®³à¯ģà®ķà¯įà®ķà¯ģà®®à¯į":6662,"Ġà®ļà®®à¯ģà®¤à®¾à®¯à®¤à¯įà®¤":6663,"Ġà®®à®°à¯įà®¯à®®à®¿à®©à¯į":6664,"à®¤à®ķà®µà®²à¯į":6665,"zer":6666,"à¯įà®®à®¾à®¯":6667,"à®¿à®ªà¯įà®ªà¯ģà®²":6668,"Ġà®ļà¯Ĩà®¾à®²à¯įà®²à¯ģà®Ļà¯įà®ķà®³à¯į":6669,"Ġà®ªà¯Ĩà®¾à®¯à¯įà®¯à®°à¯įà®ķà®³à¯į":6670,"Ġà®¨à®©à¯įà®®à¯Īà®¯à¯Īà®ķà¯į":6671,"Ġà®µà®¾à®°à¯įà®¤à¯įà®¤à¯Ī":6672,"Ġà®µà®´à®¿à®ķà®¾à®Łà¯įà®Łà®¿à®¯à®¾à®ķà®µà¯ģà®®à¯į":6673,"ror":6674,"à®©à®¿à®¯à®®à¯į":6675,"à¯ģà®ķà¯įà®ķà®®à¯į":6676,"Ġà®īà®±à¯ģà®ªà¯įà®ª":6677,"Ġà®ķà¯Ĩà®¾à®Łà¯ģà®ķà¯įà®ķà®¿à®±à¯ĩà®¾à®®à¯į":6678,"heck":6679,"Ġà®ļà¯Ĩà®¾à®²à¯įà®µà¯Ģà®°à®¾à®ķ":6680,"Ġà®ķà®Łà®µà¯ģà®³":6681,"Ġà®ħà®´à®¿à®ªà¯įà®ª":6682,"à¯ģà®ķà®³à®¾à®ķà®µà¯ģà®®à¯į":6683,"à®ľà¯įà®¤":6684,"Ġà®ļà¯Ĩà®¯à¯įà®ªà®µà®©à®¾à®ķ":6685,"à®¿à®µà®¿à®Łà¯įà®Łà®¾à®²à¯į":6686,"Ġà®®à¯Īà®¯à®®à¯į":6687,"Ġà®ħà®µà®°à¯įà®ķà®³à®¿à®Łà®®à®¿à®°à¯ģà®¨à¯įà®¤à¯ģ":6688,"Ġà®®à¯Ģà®®à¯į":6689,"Ġà®İà®¤à¯ģà®µ":6690,"Ġà®ļà¯Ĥà®°à®¿à®¯à®©à¯Īà®¯à¯ģà®®à¯į":6691,"à®ªà®¿à®©à¯įà®©à®°à¯ģà®®à¯į":6692,"Ġà®µà®¿à®Łà¯įà®Łà¯Ĩà®°à®¿à®¯à¯ģà®®à¯į":6693,"Ġà®īà®£à®°à¯įà®µ":6694,"Ġà®®à¯ĩà®²à®¾à®©à®¤à¯ģ":6695,"Ġà®ħà®¨à®¿à®¯à®¾à®¯à®ķà¯įà®ķà®¾à®°à®°à¯įà®ķà®³à¯ģà®ķà¯įà®ķà¯ģ":6696,"Ġà®µà®¿à®³à¯Īà®ļà¯įà®ļ":6697,"Ġà®ļà®°à®¿à®ªà®¾à®°à¯įà®ķà¯įà®ķ":6698,"à¯ĩà®¾à®©à¯ģà®®à®¾à®ķà®¿à®¯":6699,")à®¤à¯Īà®¯à¯ģà®®à¯į":6700,"Ġà®Ĵà®©à¯įà®±à®¾à®ķ":6701,"Ġà®¨à®¿à®ķà®´à¯įà®µ":6702,"lease":6703,"Ġà®¨à¯Ĩà®°à¯ģà®ªà¯įà®ªà¯Ī":6704,"à®µà®¿à®µà®°":6705,"à®¤à¯įà®¤à®ķà¯įà®ķ":6706,"Ġà®®à®ķà¯įà®ķà®³à¯ĩ":6707,"Ġà®®à¯Ĥà®´à¯įà®ķà®Łà®¿à®¤à¯įà®¤à¯ĩà®¾à®®à¯į":6708,"Ġà®ļà®¾à®¯à¯įà®¨à¯įà®¤":6709,"à®²à¯Ĥà®¯":6710,"à®©à®¾à®¤à®¿à®ªà®¤à®¿":6711,"Ġà®ļà®®à¯Ĥà®ķà®¤à¯įà®¤à®¿à®±à¯įà®ķà¯ģ":6712,"Ġ>čĊ":6713,"à®ªà®¿à®£":6714,"à®ķà¯įà®ķà®®à®¾à®©":6715,"Ġà®ķà¯Ĩà®¾à®£à¯įà®Łà¯Ģà®°à¯įà®ķà®³à¯į":6716,"Ġà®µà®¿à®Łà¯ģà®ķà®¿à®±à¯ĩà®¾à®®à¯į":6717,"à¯Īà®ķà®³à¯Īà®¤à¯į":6718,"à®µà¯ĩà®¤à®©à¯Īà®¯à¯Ī":6719,"Ġà®µà®¿à®°à¯ģà®ªà¯įà®ªà®®à¯į":6720,"Ġà®īà®²à¯ĩà®¾à®ª":6721,"à®ķà®Łà¯įà®Łà®³à¯Ī":6722,"Ġà®¨à®¿à®©à¯Īà®µà¯Ĥà®Łà¯įà®Łà¯ģà®µà¯Ģà®°à®¾à®ķ":6723,"à®®à¯įà®¤à¯ģ":6724,"à¯Īà®µà¯ģà®ķà®³à¯į":6725,"Ġà®®à®©à¯įà®©à®¿à®ķà¯įà®ķ":6726,"Ġà®ļà®¨à¯įà®¤à®¿à®ķà¯įà®ķà¯ģà®®à¯į":6727,"Ġà®ļà¯Ĩà®µà®¿à®ªà¯įà®ªà¯ģà®²":6728,"à®µà®²à®¤à¯ģ":6729,"Ġà®ĩà®¸à¯įà®®à®¾à®¯":6730,"à¯įà®¹à®®à¯įà®¤à¯ģ":6731,"Ġà®ªà¯Ĩà®¾à®°à¯ģà®¨à¯įà®¤à®¿à®ķà¯į":6732,"à®¤à®¿à®©à®¾à®²à¯į":6733,"Ġà®ĩà®µà®°à¯Ī":6734,"Ġà®µà¯ĩà®Łà®¿à®ķà¯įà®ķ":6735,"à¯ģà®ķà®¿à®±à®¤à¯ĩà®¾":6736,"à®¤à¯ĩà®¤à®¿":6737,"à®Ĵà®°à¯ģà®µà®©à®¾à®ķ":6738,"Ġà®®à¯Ģà®Łà¯įà®ķ":6739,"Ġà®ļà®¾à®°à¯į":6740,"Ġà®ħà®µà®ļà®°à®ªà¯įà®ªà®Ł":6741,"\";":6742,"Ġà®İà®ľ":6743,"Ġà®µà®¿à®Łà®¿à®¯":6744,"Ġà®ļà®ķà®¿à®¤à¯įà®¤à¯ģà®ķà¯į":6745,"Ġà®İà®¨à¯įà®¤à®¤à¯į":6746,"Ġà®ķà¯ĩà®Łà¯įà®ķà®ªà¯įà®ªà®Łà¯ģà®®à¯į":6747,"Ġà®¤à¯Ģà®®à¯Īà®¯à¯Ī":6748,"Ġà®İà®ľà®®à®¾à®©":6749,"à¯ģà®®à¯Īà®¯à¯ģà®®à¯į":6750,"Ġà®¨à®®à¯įà®ªà®¾à®¤":6751,"Ġà®·à¯Īà®¤à¯įà®¤à®¾à®©à¯Ī":6752,"Ġà®ªà®°à®µ":6753,"Ġà®ªà¯Ĩà®¾à®°à¯ģà®³à¯įà®ķà®³à¯Ī":6754,"ure":6755,"Ġpre":6756,"Ġà®µà®¿à®°à¯ģà®ªà¯įà®ªà®Ļà¯įà®ķà®³à¯į":6757,"Ġà®ªà®¾à®¤à¯ģà®ķà®¾à®µà®²à®°à¯įà®ķà®³à®¾à®ķ":6758,"Ġà®¤à¯ĭà®±à¯įà®±":6759,"Language":6760,"à¯ĭà®¸à¯į":6761,"Ġà®ħà®¨à®¿à®¯à®¾à®¯à®ķà¯į":6762,"Ġà®®à¯ģà®¯à®²":6763,"à®²à¯Īà®¯à¯ģà®®à¯į":6764,"Ġà®µà¯Ģà®´":6765,"à®¨à®©à¯įà®®à¯Īà®¯":6766,"à®ĩà®µà®°à¯įà®ķà®³":6767,"à¯įà®¤à¯įà®¤à®¿à®ķà¯į":6768,"Ġà®ķà®Łà¯įà®Łà¯ģà®ªà¯įà®ªà®Łà¯ģà®¤à¯įà®¤":6769,"Ġà®¤à®±à¯įà®ķ":6770,"à®µà¯ĩà®¤à®®à¯į":6771,"Con":6772,"à®¿à®¯à®¾à®ļ":6773,"à®ħà®ªà¯įà®ªà®Łà®¿":6774,"Ġà®ĩà®°à¯ģà®ķà¯įà®ķà®¿à®±à®¾à®°à¯įà®ķà®³à¯ĩà®¾":6775,"Ġà®ļà¯Ĩà®²à¯įà®ķà®¿à®±":6776,"à®ķà¯įà®ķà®¾à®³":6777,"Ġà®ķà¯ģà®Łà®¿à®ªà¯įà®ª":6778,"Ġà®ħà®µà¯įà®µà®¾à®±à®¾à®¯à®¿à®©à¯į":6779,"Ġà®®à¯Ĩà®¾à®´à®¿":6780,"Ġà®ªà¯ģà®°à®¿à®¯à¯ģà®Ļà¯įà®ķà®³à¯į":6781,"Ġà®īà®³à¯įà®³à®ļà¯įà®ļ":6782,"Ġà®īà®£à¯įà®®à¯Īà®¯à®¾à®³à®°à®¾à®ķ":6783,"Ġà®ħà®°à¯ģà®Łà¯įà®ķà¯Ĩà®¾à®Łà¯Īà®ķà®³à¯Ī":6784,"ets":6785,"Ġà®¤à¯ĩà®°à¯įà®µà¯Ī":6786,"li":6787,"Ġà®ªà¯ģà®³à¯įà®³à®¿":6788,"Ġà®®à®©à®¿à®¤à®©à¯ģà®®à¯į":6789,"Ġà®¨à¯ģà®´à¯Īà®¨à¯įà®¤":6790,"jects":6791,"Ġà®®à¯ĩà®±à¯įà®ª":6792,"Ġà®İà®©à¯įà®±à®¾à®²à¯ģà®®à¯į":6793,"Ġà®¨à®©à¯įà®±à®¿à®¯":6794,"Ġà®ļà®¾à®¤à¯įà®¤à®¿à®¯":6795,"(c":6796,"Ġà®¤à¯Ģà®°à¯įà®ªà¯įà®ªà®³à®¿à®ķà¯įà®ķ":6797,"à®ķà®¾à®ªà¯įà®ª":6798,"Ġà®ħà®°à¯ģà®Łà¯į":6799,"à®ħà®®à¯Īà®ªà¯įà®ª":6800,"Ġà®ªà®¤à¯įà®¤à¯Ī":6801,"à®¿à®°à®¾à®¤":6802,"\")":6803,"Ġà®¨à¯ĭ":6804,"Ġà®®à¯ģà®ķà®Ļà¯įà®ķà®³à¯Ī":6805,"à®¿à®¯à®¾à®©à®¾":6806,"à®ķà¯ģà®´à¯ģ":6807,"Ġà®ķà®£à¯įà®ķà®¾à®£à®¿à®ªà¯įà®ª":6808,"à¯įà®®à¯ĩà®ļà¯Ī":6809,"25":6810,"à®µà¯ĩà®²":6811,"Ġà®ļà¯Ĩà®¯à¯įà®¤à®¿à®ķà®³à¯Ī":6812,"Ġà®®à®²à®ķà¯įà®ķà¯ģ":6813,"à¯įà®ķà®³à®¿à®Łà®®à¯į":6814,"Ġà®®à¯ĩà®¯":6815,"à®ķà®ªà¯įà®ª":6816,"Ġà®ļà¯Ĩà®¯à¯įà®µà¯ĩà®¾à®°":6817,"à®ĩà®°à®£à¯įà®Ł":6818,"Ġà®¨à®¯à®µà®ŀà¯įà®ļà®ķ":6819,"Ġà®ķà¯Ĩà®¾à®Łà¯ģà®ķà¯įà®ķà®¿à®±à®¾à®©à¯į":6820,"Ġà®ķà®¾à®£à¯įà®ªà®¿":6821,"Ġà®Ĩà®¯à¯ģà®¤":6822,"Ġà®ªà®ķà¯ģà®¤à®¿à®¯":6823,"à®ĩà®µà¯įà®µà¯ĩà®¤":6824,"Ġà®¨à®¿à®²à¯Īà®¯à®¿à®²à¯ĩà®¯à¯ĩ":6825,"Ġà®¤à®¾à®´à¯įà®¨à¯įà®¤":6826,"Ġà®ĩà®Ļà¯įà®ķà®¿à®°à¯ģà®¨à¯įà®¤à¯ģ":6827,"à®µà®¿à®Łà®¿à®¯à¯ĭ":6828,"Ġà®®à®²à®ķà¯įà®ķà¯ģà®ķà®³à¯ģà®®à¯į":6829,"Ġà®ªà¯ģà®¤à¯įà®¤à®ķ":6830,"à®ªà¯Ĭà®²à®¾à®£à¯įà®Łà¯į":6831,"Ġà®ķà¯Ĥà®Łà®¾à®¤à®¾":6832,"Ġà®ªà®¿à®±à¯įà®ªà®Łà¯ģà®¤à¯įà®¤":6833,"Ġà®īà®£à®µà¯ģà®®à¯į":6834,"à®®à¯įà®ªà®¿":6835,"Ġsome":6836,"Ġà®ķà¯ģà®±à®¿à®¯à¯Ģà®Łà¯ģ":6837,"30":6838,"à®¨à¯ĩà®°à¯į":6839,"Ġfil":6840,"Ġà®īà®³à¯įà®³à®¿à®Łà¯ģà®ķ":6841,"à®ļà®ķ":6842,"Ġà®®à¯ģà®±à®¿à®¤à¯įà®¤à¯ģ":6843,"Ġà®ļà®®à®®à®¾à®©à®¤à¯ģ":6844,"Ġà®ļà¯Ĩà®¯à®²à¯įà®ķà®³à®¿à®©à¯į":6845,"Ġà®ªà®¾à®¤à¯ģà®ķà®¾à®¤à¯įà®¤à¯ģà®ķà¯į":6846,"Ġà®īà®³à¯įà®³à®µà®±à¯įà®±à¯Ī":6847,"Ġà®ıà®±à¯įà®ªà®Łà¯įà®Łà®¤à¯ģ":6848,"\"à®¨à®¾à®®à¯į":6849,"à®®à¯ĩà®¯à®¾à®ķà¯ģà®®à¯į":6850,"Ġà®ħà®±à®¿à®µà®¿à®¤à¯įà®¤à®¤à¯ģ":6851,"à®®à¯Ĩà®¯":6852,"à®Ļà¯įà®ķà®³à®¿à®²à¯ģà®³à¯įà®³":6853,"à®¿à®ªà¯įà®ªà®Łà¯Ī":6854,"Ġà®ħà®®à¯Īà®¤à¯įà®¤à®¾à®©à¯į":6855,"HS":6856,"à®Ļà¯įà®ķà®°":6857,"Ġà®ªà®ķà®²à®¿à®²à¯į":6858,"Ġà®¨à¯ĩà®°à®¤à¯įà®¤à¯Ī":6859,"sp":6860,"Ġà®ķà®¾à®Łà¯įà®Łà®¿":6861,"Ġà®īà®°à¯ģà®µà®¾à®ķà¯įà®ķà¯ģà®ķà®¿à®±à®¤à¯ģ":6862,"à®®à®¿à®°":6863,"à®®à¯Īà®¯à¯Ī":6864,"à¯Īà®¯à®¾à®µà®¤à¯ģ":6865,"à®ļà¯ģà®°":6866,"à®¿à®ķà®³à¯Īà®ļà¯į":6867,"à®ķà¯ĭà®£":6868,"ĠV":6869,"ml":6870,"Ġà®®à¯ģà®´à¯ģà®®à¯Īà®¯à®¾à®ķ":6871,"Ġà®ķà®¾à®²à®¿":6872,"Ġà®ªà®°à®¿à®ļà®¤à¯įà®¤":6873,"Ġà®ĩà®°à®¾à®¤à¯ģ":6874,"Ġà®ĩà®¤à¯ģà®µ":6875,"Ġà®ķà®¾à®²à¯Ī":6876,"à®µà®¿à®²à¯įà®²à¯Īà®¯à®¾à®©à®¾à®²à¯į":6877,"à®ķà®£à¯įà®£":6878,"Ġà®µà®¨à¯įà®¤à¯ģà®³à¯įà®³à®¤à¯ģ":6879,"à®Ĵà®´":6880,"Ġà®Ĩà®¯à®¿à®°à®®à¯į":6881,"à®®à¯ģà®±à¯įà®±à®¿à®²à¯ģà®®à¯į":6882,"à®¿à®±à®¾à®¯à¯į":6883,"Ġà®ķà¯ģà®±à¯Ī":6884,"Ġà®ªà¯ģà®±à®Ļà¯įà®ķ":6885,"Ġà®ļà¯ĩà®®à®¿à®¤à¯įà®¤à¯ģ":6886,"à®ķà¯Ģà®´à¯ĩ":6887,"à®ļà®¾à®¤à®©":6888,"à®µà®¿à®´":6889,"Ġà®Ĵà®°à¯ģà®ª":6890,"Ġà®µà¯Ĩà®ķ":6891,"Ġà®µà¯Īà®¤à¯įà®¤à®¿à®°à¯ģà®ķà¯įà®ķ":6892,"Ġà®¤à®±à¯įà®ķà®¾à®²à®¿à®ķ":6893,"Ad":6894,"stella":6895,"à¯ģà®ªà®Łà¯ģà®¤à¯įà®¤à¯ģà®®à¯į":6896,"stellation":6897,"à¯ĭCity":6898,"Ġà®¤à¯Ĩà®³à®¿à®µà®¾à®ķà¯įà®ķ":6899,"à®¨à®¿à®±à¯Īà®µà¯ĩ":6900,"Ġà®ħà®£à¯ģà®µ":6901,"à®ĩà®£à¯Īà®ªà¯įà®ªà¯ģ":6902,"Ġà®ĩà®°à¯ģà®ķà¯įà®ķà®¿à®±à®¾à®°à¯į":6903,"russia":6904,"à®¿à®¤à®¾à®ķ":6905,"Ġà®ħà®²à®¾à®°":6906,"Ġà®ļà¯Ĩà®¯à®²à¯įà®ªà®¾à®Łà¯ģ":6907,"à®µà¯ĩà®£à¯įà®Łà¯ģà®®":6908,"à®ªà¯Ĩà®°à¯ģà®®à¯į":6909,"Ġà®ķà®¿à®´à®ķà¯įà®ķ":6910,"à¯ģà®®à¯įà®µà®°à¯Ī":6911,"à®¿à®¤à¯įà®¤à®¾à®°à¯įà®ķà®³à¯į":6912,"à®ķà®¿à®Łà¯Īà®®à®Łà¯įà®Ł":6913,"à®µà®¿":6914,"Ġà®ħà®ªà¯į":6915,"à®¿à®¯à¯ĩà®¾":6916,"à®©à¯įà®±à¯Ī":6917,"menu":6918,"Ġà®ªà®¿à®©à¯įà®µ":6919,"Ġà®ķà®°à¯ģà®¤à¯įà®¤":6920,"à®¨à®²à¯įà®²à®¤à¯ģ":6921,"Ġà®µà¯ĩà®ķà®®à¯į":6922,"à¯įà®ļà¯įà®ļà®¿à®¯à®¾à®ķ":6923,"Ġà®¨à®£à¯įà®ªà®°à¯įà®ķà®³à¯į":6924,"à®īà®Ļà¯įà®ķà®³à®¿à®Łà®®à¯į":6925,"Ġà®®à®ŀà¯įà®ļ":6926,"à®¨à®ķà®²à¯į":6927,"Ġà®ļà¯Ĩà®¯à¯įà®¤à®²à¯į":6928,"Ġà®¤à®¾à®Ļà¯įà®ķ":6929,"à®ķà®±à¯įà®ª":6930,"Ġà®İà®´à¯ģà®¤à®¿à®¯":6931,"Ġà®µà®£à¯įà®£à®¤à¯įà®¤à¯Ī":6932,"à®ĩà®´":6933,"à®ħà®¤à¯ģà®µà¯ĩ":6934,"Ġà®ĩà®ªà¯įà®ªà®Łà®¿":6935,"Ġà®¤à®µà®¿à®°à¯įà®¤à¯įà®¤à¯ģ":6936,"Ġà®Ĵà®µà¯įà®µà¯Ĭà®°à¯ģ":6937,"Ġà®ķà®¾à®°à®¿à®¯à®®à¯į":6938,"Ġà®¨à®¾à®Ļà¯įà®ķà®³":6939,"âĢ":6940,"Ġà®ķà¯ĭà®ªà¯įà®ªà®¿à®²à¯į":6941,"Ġreg":6942,"à®ķà¯įà®ļà®®à¯į":6943,"Ġà®ªà®¾à®´":6944,"Ġà®µà¯Īà®¯à¯ģà®Ļà¯įà®ķà®³à¯į":6945,"à®ķà¯įà®¸à¯į":6946,"à®ļà®²":6947,"à¯ĭà®²":6948,"Ġà®µà¯Ĩà®Łà¯įà®ķ":6949,"Ġà®īà®²à®¾à®µ":6950,"CT":6951,"other":6952,"à¯įà®Łà¯įCity":6953,"Ġà®ħà®±à®¿à®µà®¿à®ªà¯įà®ªà®¾à®©à¯į":6954,"à®ĩà®¯à®²à¯įà®ª":6955,"à®ĩà®ªà¯įà®ªà¯Ĩà®¾à®´à¯ģà®¤à¯ģ":6956,"à®µà¯ģà®©à¯į":6957,"Ġà®®à®¾à®±à¯įà®±à®Ļà¯įà®ķà®³à¯į":6958,"à®ķà®¾à®Łà¯įà®Ł":6959,"à¯Ĩà®Łà¯ģà®ªà¯įà®ªà¯ģ":6960,"Ġà®¤à¯ĭà®²à¯įà®µà®¿à®¯":6961,"Ġ.":6962,"Ġà®ħà®²à¯Ī":6963,"à®¿à®ķà®¿à®©à¯įà®±":6964,"der":6965,"Ġà®¤à®¾à®³à¯į":6966,"Ġà®µà®¿à®Łà®¿à®¯à¯ĭ":6967,"ricts":6968,"Ġà®®à®ķà®©à¯ĩ":6969,"isc":6970,"Ġà®¤à®¾à®©à¯ĩ":6971,"à®µà®¾à®±à¯ĩ":6972,"Ġà®ĩà®µà¯Īà®¯":6973,"Ġà®ļà¯Ĩà®¯à¯įà®¯à®ªà¯įà®ªà®Łà¯ģà®®à¯į":6974,"Ġà®®à®©à®¿à®¤à®°à¯įà®ķà®³à¯Ī":6975,"Ġà®ļà®¾à®µ":6976,"Ġà®ħà®±à®¿à®ķà¯įà®ķà¯Ī":6977,"à®ķà¯įà®ķà¯Ĥà®Łà¯įà®Ł":6978,"Ġà®ħà®²à®Łà¯įà®ļà®¿à®¯":6979,"à®®à¯Ģà®©à¯į":6980,"Ġba":6981,"Ġà®®à®±à¯ģà®¤à¯įà®¤à¯ģ":6982,"Ġà®īà®³à¯įà®³à®¤à®¾":6983,"à®ķà®°à¯Ī":6984,"Ġà®µà®¯à®¿à®±à¯įà®±":6985,"à®¿à®ķà¯įà®ļ":6986,"à®ķà®¾à®²à®®à¯į":6987,"Ġà®ħà®®à¯Īà®¤à¯įà®¤à¯ģà®ķà¯į":6988,"Ġà®ªà¯Ĩà®¾à®°à¯ģà®Łà¯įà®ªà®Łà¯ģà®¤à¯įà®¤":6989,"ON":6990,"Ġà®ªà®¾à®¯":6991,"à®®à®¾à®µà®¤à¯ģ":6992,"Ġà®®à®©à¯Īà®µà®¿à®¯à¯Ī":6993,"à®ħà®©à¯ģà®ªà¯įà®ª":6994,"Ġdistricts":6995,"Ġà®ħà®®à¯Īà®ªà¯įà®ªà¯Ī":6996,"Ġà®ħà®Łà¯įà®Ł":6997,"Ġà®®à®ķà¯įà®ķà®³à®¿à®©à¯į":6998,"Ġà®¤à¯Ĩà®°à®¿à®¯à®¾à®¤":6999,"à®¿à®ķà¯įà®ķà¯Ĩà®¾à®³":7000,"Ġà®¤à®¿à®±à®¨à¯įà®¤":7001,"Ġà®®à¯ģà®´à¯ģà®®à¯Īà®¯":7002,"Ġà®ļà¯Ĩà®¾à®²à¯įà®µà®¤à¯Ī":7003,"Ġà®ķà®¤à®¿à®°":7004,"à®¿à®©à®¾à®¯à¯į":7005,"Ġà®ħà®®à®²":7006,"Ġà®ĩà®°à¯ģà®ªà¯įà®ªà®¿à®©à¯ģà®®à¯į":7007,"Ġà®ħà®±à®¿à®µà®¿à®ªà¯įà®ªà¯ģ":7008,"à¯ģà®Łà¯įà®Łà®¿":7009,"à®īà®£à¯įà®®à¯Ī":7010,"Ġà®ļà¯Ĭà®°à¯ģà®ķà¯ģà®ªà¯įà®ª":7011,"Ġà®¤à®¾à®©à®¾à®ķ":7012,"Ġà®®à¯ģà®¤à¯įà®¤à®¿à®°à¯Īà®¯à®¿à®Łà¯įà®Łà¯ģ":7013,"à®¤à®ªà¯įà®ª":7014,"Ġà®ªà¯ĭà®²":7015,"Ġà®ķà¯Ĩà®¾à®³à¯įà®µà¯ĩà®¾à®®à¯į":7016,"are":7017,"Ġprovin":7018,"Ġprovinces":7019,"Ġà®ķà®¯":7020,"à®¾à®²à¯Īà®¯à®¿à®²à¯į":7021,"à®Ĩà®´":7022,"Ġà®µà¯Īà®¤à¯įà®¤à®¿à®°à¯ģà®¨à¯įà®¤":7023,"Ġà®ªà®¾à®µà®¤à¯įà®¤à®¿à®©à¯į":7024,"Ġà®ļà¯Ĩà®µà®¿":7025,"à®ĩà®ķà¯įà®ķ":7026,"Ġà®ĩà®°à¯ģà®ªà¯įà®ªà¯ĩà®¾à®®à¯į":7027,"Ġà®µà®¿à®ļà¯ģà®µ":7028,"à¯ģà®µà®¤à®±à¯įà®ķà®¾à®©":7029,"ff":7030,"Ġà®ķà¯ģà®Łà¯ģà®®à¯įà®ªà®¤à¯įà®¤":7031,"Ġyour":7032,"à®¿à®ķà¯įà®ķà®ķà¯į":7033,"à¯ģà®®à®¿à®Ł":7034,"Ġà®µà®¿à®Łà¯ģà®ķà®¿à®±à®¤à¯ģ":7035,"Ġà®®à¯ĩà®ķ":7036,"à¯Ĩà®¾à®²à¯įà®²":7037,"à®©à¯ģà®Łà¯Īà®¯":7038,"à®¨à®®à®ķà¯įà®ķà¯ģ":7039,"à¯ģà®µà®¿à®Łà¯įà®Łà®¾à®©à¯į":7040,"Ġà®ªà®¾à®£à®¿":7041,"à¯Ģà®°à¯ĩà®¾":7042,"Ġà®ħà®µà®©à¯Īà®ļà¯į":7043,"à®ļà¯Ĩà®¯à¯įà®¤à®¿":7044,"Ġà®¨à®ķà®±à¯įà®±à¯ģ":7045,"à®¨à¯Ĩà®°à¯ģà®ªà¯įà®ª":7046,"à®¤à¯įà®¤à¯ģà®®à¯į":7047,"ĠQ":7048,"Ġtext":7049,"à®Ĵà®µà¯įà®µà¯Ĭà®°à¯ģ":7050,"à®İà®¤à¯įà®¤à®ķà¯Īà®¯":7051,"Ġà®ħà®¤à¯ģà®¤à®¾à®©à¯į":7052,"à®¿à®°à¯ģà®ķà¯įà®ķà®ķà¯į":7053,"Ġà®¨à®Łà¯ģà®Ļà¯įà®ķ":7054,"Ġà®ķà¯ģà®´à¯ģà®µ":7055,"Ġà®¤à¯Ĭà®ķà¯ģà®ªà¯įà®ªà¯ģ":7056,"Ġà®µà¯ĩà®£à¯įà®Łà¯ģà®®à¯Ĩà®©":7057,"à®µà®°à®®à¯įà®ªà¯ģ":7058,"Ġà®ļà®¾à®¸":7059,"Ġà®ħà®Łà®¿à®ª":7060,"Ġà®µà®´à¯ģ":7061,"Ġà®īà®£à¯įà®Łà®¾à®ķà¯ģà®®à¯į":7062,"ree":7063,"Ġà®Ĭà®Ł":7064,"à¯Ĥà®¤à®°à¯įà®ķà®³à¯į":7065,"Ġà®µà®¿à®©à®µ":7066,"Ġà®¤à¯ĩà®¾à®²à¯įà®µ":7067,"\"à®¨à®¾à®Ļà¯įà®ķà®³à¯į":7068,"key":7069,"à®¤à¯ģà®©à¯įà®ª":7070,"Ġà®¤à®¾à®ķà¯įà®ķ":7071,"à®ªà¯įà®ªà®Łà®®à®¾à®Łà¯įà®Łà®¾à®¤à¯ģ":7072,"à®ļà®¿à®¨à¯įà®¤":7073,"Ġà®µà®°à¯ģà®µà¯ĩà®¾à®®à¯į":7074,"à¯ģà®ķà®¿à®©à¯įà®±à¯ĩà®¾à®®à¯į":7075,"Ġà®¯à®¾à®°à®¾à®µà®¤à¯ģ":7076,"à®´à¯ģà®µ":7077,"à®ªà¯įà®ªà®Łà¯įà®Łà¯ģà®ķà¯į":7078,"à¯ģà®ªà®µà®°":7079,"Ġà®ħà®±à®¿à®µà¯ĩà®¾à®®à¯į":7080,"Ġà®ļà¯Ĩà®¯à¯įà®¤à®©à®°à¯į":7081,"Ġà®µà®ķà¯Īà®¯à¯Ī":7082,"Ġà®Ĩà®µà®£à®¤à¯įà®¤à¯Ī":7083,"Ġà®ħà®°à®ļà®¾à®Ļà¯įà®ķ":7084,"Ġà®İà®©à¯įà®±à®¾à®°à¯į":7085,"Ġà®µà®°à¯ģà®ķà®¿à®±à¯ĩà®©à¯į":7086,"à®ĩà®±à¯ģà®¤":7087,"Ġà®ªà¯Ĩà®¾à®±à¯ģà®®à¯Īà®¯à®¾à®ķ":7088,"Ġà®īà®±à¯ģà®¤à®¿à®®à¯Ĩà®¾à®´à®¿":7089,"Ġà®īà®³à¯įà®³à®µà®°à¯įà®ķà®³à¯ģà®®à¯į":7090,"Ġà®ķà®£à¯įà®Łà¯ĩà®¾à®®à¯į":7091,"Ġà®¤à¯Ģà®°à¯įà®ªà¯įà®ªà¯ģà®ķà¯į":7092,"Ġà®µà¯Ĩà®±à¯įà®±à®¿à®¯à®¾à®³à®°à¯įà®ķà®³à¯į":7093,"Ġà®¨à®¿à®°à®¾à®ķà®°à®¿à®ķà¯įà®ķà®¿à®©à¯įà®±à®¾à®°à¯įà®ķà®³à¯ĩà®¾":7094,"à®¿à®ªà¯įà®²":7095,"Ġab":7096,"Ġà®ħà®¤à¯įà®¤à®¾à®Łà¯įà®ļà®¿à®ķà®³à¯Īà®ªà¯į":7097,"Ġà®¨à®¿à®©à¯Īà®µà¯ģà®±à¯ģà®¤à¯įà®¤":7098,"à®¾à®®à®¾à®©":7099,"Ġà®®à®¿à®ķà¯Īà®ªà¯įà®ª":7100,"Ġà®ħà®µà®©à®¿à®Łà®¤à¯įà®¤":7101,"Ġà®ħà®°à¯įà®¤à¯įà®¤":7102,"Ġà®¨à®¾à®Łà¯ģà®ķà®¿à®±à®¾à®©à¯į":7103,"à®¿à®¯à®¾à®¯à®¿à®©à¯į":7104,"Ġà®ĩà®±à®ķà¯įà®ķà®¿à®µ":7105,"Ġà®ıà®µà®ªà¯įà®ªà®Łà¯įà®Łà¯ģà®³à¯įà®³":7106,"Ġà®ħà®µà®³à¯ģà®ķà¯įà®ķà¯ģ":7107,"Ġà®ĩà®©à¯įà®ªà®®à¯į":7108,"à®¨à¯Ĩà®¤à®°à¯įà®²à®¾à®£à¯įà®Łà¯įà®¸à¯į":7109,")à®Ł":7110,"à®¿à®°à¯ģà®ķà¯įà®ķà®µà®¿à®²à¯įà®²à¯Ī":7111,"Ġcol":7112,"à¯ĩà®¾à®®à®¾à®©à®¾à®²à¯į":7113,"Ġà®ĩà®ķà¯įà®ķ":7114,"Ġà®µà®°à®µà®¿à®²à¯įà®²à¯Īà®¯à®¾":7115,"Ġà®µà¯Ĩà®£":7116,"Ġà®ĩà®µà¯įà®µà®¿à®°à¯ģà®µà®°à¯ģà®®à¯į":7117,"Ġà®¤à®Ļà¯įà®ķà®¿à®µà®¿à®Ł":7118,"Ġà®ķà¯ĩà®Łà¯įà®Łà®¾à®²à¯į":7119,"\"à®ħà®²à¯įà®²à®¤à¯ģ":7120,"à®ħà®¤à®±à¯įà®ķà®¾à®ķ":7121,"Ġà®ħà®µà®©à¯ģà®ķà¯įà®ķà¯ģà®ªà¯į":7122,"Ġà®®à®°à®Ļà¯įà®ķà®³à¯ģà®®à¯į":7123,"Ġinmenu":7124,"Ġà®ķà®¾à®±à¯įà®±à¯Ī":7125,"Ġà®ħà®ķà¯įà®ķà®¿à®°à®®à®ķà¯įà®ķà®¾à®°à®°à¯įà®ķà®³à¯į":7126,"à¯Īà®ķà®³à¯Īà®¯à¯ĩ":7127,"Ġà®¨à®¾à®³à¯įà®µà®°à¯Ī":7128,"Ġà®ĩà®¨à¯įà®¤à®ªà¯į":7129,"Ġà®ķà¯Ĩà®¾à®Łà¯ģà®¤à¯įà®¤à®¿à®°à¯ģà®¨à¯įà®¤à¯ĩà®¾à®®à¯į":7130,"à®Ĩà®ķà®¿à®¯":7131,"lect":7132,"Ġà®¤à¯Ĩà®¾à®´à¯ģà®¤à¯ģ":7133,"à®µà¯ĩà®±à¯Ĩà®µà®°à¯Īà®¯à¯ģà®®à¯į":7134,"ud":7135,"à®Ļà¯įà®ķà®³à®¾à®ķà¯ģà®®à¯į":7136,"à®ªà¯įà®ªà®Łà¯ģà®®à¯įà®ªà¯ĩà®¾à®¤à¯ģ":7137,"Ġà®İà®¤à¯Īà®ķà¯į":7138,"Ġà®¨à®®à¯įà®®à®¿à®Łà®¤à¯įà®¤à®¿à®²à¯į":7139,"Ġà®ķà®¾à®°à®¿à®¯à®Ļà¯įà®ķà®³à¯į":7140,"Ġà®ħà®¤à®©à¯Īà®ļà¯į":7141,"Ġà®İà®´à¯ģà®ªà¯įà®ªà®ªà¯įà®ªà®Łà¯ģà®®à¯į":7142,"à¯ģà®©à¯įà®©":7143,"à®¿à®°à¯ģà®ķà¯įà®ķà®¿à®©à¯įà®±à®©à®°à¯į":7144,"Ġà®®à¯ģà®´à®ķà¯įà®ķà®®à¯į":7145,"Ġà®ħà®¨à¯ĩ":7146,"Ġà®ķà¯Ĥà®±à¯ģà®ķà®¿à®©à¯įà®±à®¾à®©à¯į":7147,"Ġsubjects":7148,"à®¿à®ķà¯įà®ķà®¿à®±à®¾à®°à¯įà®ķà®³à¯į":7149,"Ġà®®à¯ģà®©à¯įà®ªà¯ģà®®à¯į":7150,"Ġà®ªà®¿à®°à®¾à®°à¯įà®¤à¯įà®¤à®©à¯Īà®¯à¯Ī":7151,"Ġà®ħà®µà¯įà®µà®¾à®±à®²à¯įà®²":7152,"Ġà®°à®¹à¯įà®®à®¤à¯įà®¤à®¾à®ķà®µà¯ģà®®à¯į":7153,"Ġà®Ĩà®£à®µà®®à¯į":7154,"à®¿à®¯à®ªà¯ĩà®¾à®¤à¯ģ":7155,"Ġà®®à¯ģà®ĥà®®à®¿à®©à¯įà®ķà®³à®¾à®©":7156,"Ġà®ķà®ªà¯įà®ªà®²à®¿à®²à¯į":7157,"iz":7158,"Ġà®ķà¯Ĩà®Łà¯ģà®ķà¯įà®ķ":7159,"à¯Īà®¯à®¾à®ķà®µà¯ģà®®à¯į":7160,"à®ķà®¾à®Łà¯įà®ļà®¿":7161,"Ġà®¨à¯Ģà®³":7162,"\\\\\\\\":7163,"à®µà¯Ģà®Łà®¿à®¯à¯ĭ":7164,"à®°à®®à¯į":7165,"à®ħà®³à®µ":7166,"Ġà®ķà¯Ĥà®±à®¿à®µà®¿à®Ł":7167,"à®¿à®ªà¯įà®ªà®µà®°à¯įà®ķà®³à¯ģà®ķà¯įà®ķà¯ģ":7168,"Ġà®ªà®¾à®¤à¯Īà®¯à®¿à®²à®¿à®°à¯ģà®¨à¯įà®¤à¯ģ":7169,"Ġà®ķà®¿à®Łà®¨à¯įà®¤":7170,"Ġà®ªà®¾à®µà®Ļà¯įà®ķà®³à®¿à®©à¯į":7171,"Ġà®ªà¯ĩà®ļà¯ģà®®à¯į":7172,"Ġà®ħà®µà¯įà®µà®¿à®°à¯ģà®µà®°à¯ģà®ķà¯įà®ķà¯ģà®®à¯į":7173,"Ġà®ļà®¿à®²à®°à¯Īà®¤à¯į":7174,")à®µà®°à¯įà®ķà®³":7175,"ķà¯įà®ķà®¿à®·":7176,"Ġà®ķà¯ģà®ķ":7177,"à®²à¯Īà®ķà¯į":7178,"Ġà®¤à¯ģà®²":7179,"Ġà®ªà¯Ĩà®¾à®ķà¯įà®ķà®¿à®·":7180,"Ġà®¤à¯ģà®©à¯įà®ªà®¤à¯įà®¤à¯Ī":7181,"à®¾à®²à¯ĩà®¾":7182,"à®¿à®¤à¯įà®¤à¯ĩà®¾à®Ł":7183,"à¯ģà®¤à®²à¯ģà®®à¯į":7184,"Ġà®ķà¯Ĥà®²à®¿à®¯à®¾à®ķà¯ģà®®à¯į":7185,"à®ĩà®±à¯Īà®µà®©à¯Ī":7186,"Ġà®ļà¯Ĭà®Łà¯ģà®ķà¯įà®ķà®µà¯ģà®®à¯į":7187,"à¯ĩà®ķà¯į":7188,"Ġà®ħà®²à¯įà®²à®¾à®¹à¯įà®µà¯ĩà®¾":7189,"à¯ģà®°à®¿à®®à¯Ī":7190,"Ġà®®à®±à¯Īà®¤à¯įà®¤à¯ģà®ķà¯į":7191,"Ġà®¤à¯ĩà®¾à®±à¯įà®ķ":7192,"Ġà®ħà®¨à¯įà®¨":7193,"Ġà®ļà¯Ĩà®¯à¯įà®ªà®µà®°à¯įà®ķà®³à¯ģà®ķà¯įà®ķà¯ģ":7194,"à®¤à®¿à®°à¯ģ":7195,"à®¿à®¯à®¿à®°à¯ģà®ªà¯įà®ªà¯ĩà®¾à®®à¯į":7196,"Ġà®Ĩà®¤à¯įà®®à®¾à®µà¯ģà®ķà¯įà®ķà¯ģà®®à¯į":7197,"Ġà®Ĵà®¤à¯ģà®ķà¯įà®ķ":7198,"à®¤à®Ļà¯įà®ķà®³à¯ģà®ķà¯įà®ķà¯ģ":7199,"à®²à¯ģà®ķà¯įà®ķà¯ģ":7200,"Ġà®ķà¯Ĩà®¾à®£à¯įà®Łà®µà®°à¯įà®ķà®³à¯Īà®¯à¯ģà®®à¯į":7201,"Ġà®ħà®°à¯ģà®®":7202,"à®µà¯Ĩà®±à¯įà®±":7203,"à®¨à®®à¯įà®ªà®¿à®ķà¯įà®ķ":7204,"Ġà®¤à¯Ģà®Ļà¯įà®ķà®¿à®´à¯Īà®ķà¯įà®ķ":7205,"à¯ĩà®±à¯įà®ª":7206,"à®¤à¯įà®¤à®¿à®²à¯ĩà®¾":7207,"à¯ģà®µà¯Ģà®°à¯įà®ķà®³à®¾à®ķ":7208,"Ġà®ļà®®à¯Ĥà®ķà®¤à¯įà®¤à®¾à®°à®¿à®©à¯į":7209,"Ġà®ļà¯ģà®µà¯Īà®¤à¯įà®¤à¯ģà®ªà¯į":7210,"Ġà®ªà®ķà®¿à®°à®Ļà¯įà®ķà®®à®¾à®ķ":7211,"Ġà®¤à®°à¯įà®ķà¯įà®ķà®¿à®¤à¯įà®¤à¯ģà®ķà¯į":7212,"Ġà®ħà®³à®¿à®ķà¯įà®ķà®¾à®¤à¯ģ":7213,"Ġà®ķà¯Ĥà®²à®¿à®¯à®¾à®ķà®ķà¯į":7214,"à¯ģà®Łà¯Īà®¯à¯ĩà®¾à®°":7215,"Ġà®İà®©à¯įà®©à¯Īà®ļà¯į":7216,"Ġà®ķà®¿à®Łà¯įà®Ł":7217,"Ġà®ķà¯Ĥà®±à®¿à®¯à®ªà¯ĩà®¾à®¤à¯ģ":7218,"Ġà®İà®¤à¯Īà®ļà¯į":7219,"à®ħà®°à¯ģà®³":7220,"Ġà®ħà®°à¯ģà®Łà¯įà®ķà¯Ĩà®¾à®Łà¯Īà®¯à¯Ī":7221,"à®¿à®ķà¯įà®ķà¯Ĩà®¾à®³à¯įà®µ":7222,"à¯ĩà®¯à®¿à®²à¯įà®²à¯Ī":7223,"Ġà®¨à®ªà®¿":7224,"Ġà®Ĩà®ķà®¿":7225,"à¯ģà®ķà¯įà®ķà®¿à®Łà¯Īà®¯à®¿à®²à¯į":7226,"Ġà®ªà¯Ĥà®®à®¿à®¯à®¿à®²à¯ĩà®¾":7227,"à¯ĩà®¾à®®à¯ĩ":7228,"à¯ģà®µà¯Ģà®°à¯įà®ķà®³à®¾à®©à®¾à®²à¯į":7229,"Ġ(#":7230,"Ġà®ħà®Łà®ķà¯įà®ķà®¿à®¯":7231,"Ġph":7232,"Ġà®®à¯ģà®©à¯įà®©à¯ĭà®ķà¯įà®ķà®¿":7233,"Ġà®ħà®Łà®ķà¯įà®ķà®¿à®¯à®¾à®³":7234,"à®¤à¯Ĩà®¯à¯įà®µ":7235,"à®ķà¯ģà®ĥà®ªà¯įà®°":7236,"à®µà®©à®¾":7237,"Ġà®ķà®Łà¯ģà®®à¯Īà®¯à®¾à®©à®µà®©à¯į":7238,"Ġà®ļà®®à®®à®¾à®µ":7239,"Ġà®ķà¯Ĩà®¾à®³à¯į":7240,"Ġà®µà®²à®¿à®®":7241,"Ġà®īà®¯à®°à®®à¯į":7242,"Ġà®ķà®¾à®ªà¯įà®ªà®¾à®±à¯įà®±à®¿":7243,"Ġà®µà®²à¯įà®²à®®":7244,"Ġà®µà®¾à®²à®¿à®ª":7245,"à®İà®Ļà¯įà®ķà®³à¯Ī":7246,"Ġà®ħà®µà®©à¯ĭ":7247,"à®¿à®Łà®®à¯ĩà®¾":7248,"Ġà®¤à®©à¯įà®©à®¿à®Łà®®à®¿à®°à¯ģà®¨à¯įà®¤à¯ģ":7249,"Ġà®ªà®¿à®°à®¿à®µà®¿à®©":7250,"Ġà®ļà¯Ĩà®µà®¿à®¯à¯ĩà®±à¯įà®ķ":7251,"Ġà®ľà®ķà®¾à®¤à¯įà®¤à¯ģà®®à¯į":7252,"Ġà®ħà®ªà¯įà®ªà®Łà®¿à®¯à®¿à®°à¯ģà®¨à¯įà®¤à¯ģà®®à¯į":7253,"Ġà®ħà®ªà®¯":7254,"à®µà®±à¯įà®±à¯Īà®ļà¯į":7255,"Ġà®µà®¿à®ļà®©":7256,"Ġà®ªà®Łà¯Īà®ķà¯įà®ķà®¿à®±à®¾à®©à¯į":7257,"Ġà®īà®¯à®¿à®°à¯įà®ªà¯įà®ªà®¿à®ķà¯įà®ķà®¿à®±à®¾à®©à¯į":7258,"Ġà®¨à®¿à®°à®¨à¯įà®¤à®°à®®à®¾à®ķ":7259,";\"":7260,"à®ħà®ªà¯įà®ªà®Łà®¿à®ļà¯į":7261,"à®¾à®¯à¯ĩ":7262,"à¯ĩà®¾à®°à¯Īà®¤à¯į":7263,"Ġà®ķà¯Ĩà®¾à®³à¯įà®³à®®à®¾à®Łà¯įà®Łà®¾à®°à¯įà®ķà®³à¯į":7264,"à®¿à®Łà®®à¯ģà®³à¯įà®³":7265,"Ġà®ªà¯ĩà®¾à®©à¯įà®±à®¤à¯ģ":7266,"Ġà®ªà®£à®¿à®µ":7267,"Ġà®µà®´à®¿à®¯à¯Īà®ªà¯į":7268,"à®¤à®©à®ķà¯įà®ķ":7269,"Ġà®ļà¯ģà®ķà®®à¯į":7270,"Ġà®¨à®±à¯įà®ªà®¾à®ķà¯įà®ķà®¿à®¯":7271,"Ġà®°à®¹à¯įà®®à®¤à¯įà®¤à¯ģà®®à¯į":7272,"Ġà®ħà®±à®ªà¯įà®ªà¯ĩà®¾à®°à¯į":7273,"(à®ħà®¤à®±à¯įà®ķ":7274,"Ġà®ªà¯Ĩà®¾à®¯à¯įà®ªà¯įà®ªà®Łà¯ģà®¤à¯įà®¤":7275,"Ġà®īà®°à®¿à®¯à®©":7276,"Ġà®ļà¯Ģà®Łà¯įà®Ł":7277,"Ġà®¨à®©à¯įà®ķà®±à®¿à®µà¯ĩà®¾à®®à¯į":7278,"à®®à¯ĩà®²à®¾à®©":7279,"Ġà®¨à¯Ĥà®¹à¯į":7280,"à®ķà®Łà®µà¯ģà®ļà¯įà®ļà¯Ĭ":7281,"(S":7282,"CH":7283,"à¯įà®±à¯ģ":7284,"à®¾à®©à®¾à®ķ":7285,"Ġà®µà®¿à®Łà¯įà®Łà¯ģà®ķà¯į":7286,"Ġà®ķà¯Ĩà®Łà¯įà®Łà®µà®°à¯įà®ķà®³à¯į":7287,"Ġà®µà¯ĩà®¤à®©à¯Īà®¯à¯Īà®¯à¯ģà®®à¯į":7288,"Ġà®µà¯Īà®ªà¯įà®ªà¯Ģà®°à®¾à®ķ":7289,"Ġà®®à¯ģà®Łà®¿à®µà®¿à®²à¯į":7290,"Ġà®¯à®ĥà®ķà¯Ĥà®ª":7291,"Ġà®İà®²à¯įà®²à®¾à®µà®±à¯įà®±":7292,"Ġà®ªà¯ģà®ķà®²à®¿à®Łà®®à¯į":7293,"cess":7294,"Ġà®µà®±":7295,"Ġà®İà®µà®°à¯įà®ķà®³à¯ģà®Łà¯Īà®¯":7296,"roup":7297,"Ġà®¸à®ľà¯įà®¤":7298,"Ġà®ªà®¿à®±à®¿à®¤":7299,"Ġà®®à¯ĩà®²à®¾à®©à®¤à®¾à®ķà¯ģà®®à¯į":7300,"à®µà®¾à®ļà®¿à®ķà®³à¯į":7301,"Ġà®īà®¯à®°à¯įà®¤à¯įà®¤à®¿":7302,"à®ªà¯Ĩà®¾à®¯à¯įà®¯":7303,"Ġà®ļà¯Ĥà®©à®¿à®¯à®ķà¯įà®ķà®¾à®°à®°à¯įà®ķà®³à¯į":7304,"(à®Ĩà®©à®¾à®²à¯į":7305,"à®µà®°à®¾à®ķà®µà¯ĩ":7306,"à¯ģà®ķà¯įà®ķà®¾à®²à¯ģà®®à¯į":7307,"Ġà®İà®¨à¯įà®¤à®ķà¯į":7308,"Ġà®Łà®ķà¯įà®ķ":7309,"à¯ģà®¨à®°à¯į":7310,"Ġà®ļà®®à¯įà®ªà®¾à®¤à®¿à®¤à¯įà®¤à¯ģà®ķà¯į":7311,"à®¿à®¯à®¿à®°à¯ģà®ªà¯įà®ªà®¾à®©à¯į":7312,"à®µà®©à®¿à®Łà®®à¯į":7313,"Ġà®ķà®¾à®£à¯įà®ªà®¿à®ķà¯įà®ķà®ªà¯įà®ªà®Łà¯įà®Łà®¾à®²à¯į":7314,"Ġà®īà®¯à®¿à®°à¯įà®ªà¯įà®ªà®¿à®¤à¯įà®¤à¯ģ":7315,"Ġà®µà®¿à®°à¯ģà®®à¯įà®ªà¯ģà®ķà®¿à®±à®¾à®°à¯ĩà®¾":7316,"Ġà®īà®£à¯įà®£à¯ģà®Ļà¯įà®ķà®³à¯į":7317,"Ġà®ĩà®±à¯Īà®µà®©à®¾à®ķ":7318,"Ġà®ķà®©à®¿":7319,"Ġà®İà®´à¯ģà®ªà¯įà®ªà®ªà¯įà®ªà®Łà¯ģà®µ":7320,"à®µà®¾à®©à®Ļà¯įà®ķà®³à®¿à®²à¯ģà®³à¯įà®³à®µà¯Īà®¯à¯ģà®®à¯į":7321,"à®ĩà®¤à®±à¯įà®ķà®¾à®ķ":7322,"Ġà®®à®©à®¤à®¿à®²à¯į":7323,"Ġà®īà®³à¯įà®³à®µà®±à¯įà®±à¯Īà®¯à¯ģà®®à¯į":7324,"à®¿à®±à¯įà®ķà¯ģà®®à®¿à®Łà¯Īà®¯à¯ĩ":7325,"Ġà®ªà¯Ĩà®¾à®¯à¯įà®¯à¯Ī":7326,"Ġà®®à®¸à¯įà®ľà®¿à®¤à¯ģà®²à¯į":7327,"Ġà®İà®£à¯įà®£à®¿à®ķà¯įà®ķà¯Īà®¯à¯Ī":7328,"Ġà®ļà®¨à¯įà®¤à¯ĩà®ķà®¤à¯įà®¤à®¿à®²à¯ĩà®¯à¯ĩ":7329,"à¯Ĩà®±à¯įà®±":7330,"à®¿à®¯à®µà®°à¯įà®ķà®³à®¾à®ķ":7331,"à¯Īà®ķà¯įà®ķà¯Ĩà®¾à®£à¯įà®Łà¯ģ":7332,"à®ľà¯į":7333,"Ġà®ªà®¾à®°à¯įà®µà¯Īà®ķà®³à¯Īà®¯à¯ģà®®à¯į":7334,"Ġà®®à¯ģà®±à¯įà®ªà®Łà¯ģà®¤à¯įà®¤à®¿":7335,"à¯ģà®ĩ":7336,"à®ľà®¿à®©":7337,"Ġà®ªà®¾à®¤à¯ģà®ķà®¾à®µà®²à®©à®¾à®ķ":7338,"Ġà®ļà¯Ĩà®µà®¿à®®à®Łà¯ģà®ªà¯įà®ª":7339,"à®¿à®°à¯ģà®¨à¯įà®¤à®¿":7340,"Ġà®īà®Ļà¯įà®ķà®³à®¾à®²à¯į":7341,"à®¾à®³à®¿":7342,"Ġà®ħà®Łà®¿à®ªà¯įà®ªà®Ł":7343,"Ġà®İà®´à¯ģà®¨à¯įà®¤à¯ģ":7344,"Ġà®°à¯ĩ":7345,"Ġà®ķà¯Ĩà®¾à®Łà¯ģà®ķà¯įà®ķà®¿à®©à¯įà®±":7346,"à®®à®±à¯ģà®®à¯Īà®¯":7347,"Ġà®İà®©à®ķà¯įà®ķà®¾à®ķ":7348,"Ġà®ĩà®¤à¯įà®¤à®ķà¯Īà®¯à¯ĩà®¾à®°à¯į":7349,"Ġà®¨à®¿à®°à¯įà®µà®ķ":7350,"Ġà®¤à®°à®µà¯ģà®¤à¯įà®¤":7351,"Ġà®¨à®¿à®ķà®°à®±à¯įà®±":7352,"Ġà®ªà¯Ĥà®®à®¿à®¯à¯ģà®®à¯į":7353,"ite":7354,"à®ħà®²à¯įà®²à®¾à®¹à¯įà®µà¯ģà®Łà¯Īà®¯":7355,"Ġà®¨à¯ĩà®°à¯įà®µà®´à®¿à®¯":7356,"à®ĩà®°à®£à¯įà®Łà¯ģ":7357,"Ġà®ªà¯Ĭà®´":7358,"OP":7359,"Ġà®ļà®²":7360,"à®ķà¯įà®ķà¯Ĩà®¾à®£à¯įà®Łà¯ģ":7361,"à®Łà®¿à®¯à®¿":7362,"Ġà®ĩà®¤à®¿à®²à¯ĩ":7363,"Ġà®ªà®°à¯ģà®µ":7364,"à®ľà®¿à®ªà¯įà®°à®¯":7365,"à®®à®¯à®®à¯į":7366,"Ġà®ıà®¸à¯į":7367,"à®¿à®°à¯ģà®ķà¯įà®ķà®¿à®±à®¾à®°à¯įà®ķà®³à¯į":7368,"à¯ģà®£à¯įà®®à¯Īà®¯à¯Ī":7369,"Ġà®ĩà®µà®°à¯įà®ķà®³à¯ĩ":7370,"Ġà®®à®²à®ķà¯įà®ķà¯ģà®ķà®³à¯Ī":7371,"Ġà®ªà®¤à®¿à®²à®³":7372,"Ġà®ķà¯Ĩà®¾à®³à¯įà®µà®¾à®¯à®¾à®ķ":7373,"Ġà®ķà¯Ĩà®¾à®Łà¯ģà®ķà¯įà®ķà®ªà¯į":7374,"Ġà®ķà¯Ĥà®Łà¯įà®Łà®¤à¯įà®¤à®¾à®°à¯ģà®®à¯į":7375,"Ġà®İà®´à¯ģà®¤à¯ģà®®à¯į":7376,"Ġà®¨à®¾à®Łà®¿à®¯à®µà®°à¯ģà®ķà¯įà®ķà¯ģ":7377,"Ġà®°à®¹à¯įà®®à®¤à¯įà®¤à®¿à®²à¯į":7378,"Ġà®ªà®°à®¿à®ļà¯ģà®¤à¯įà®¤à®®à®¾à®©à®µà®©à¯į":7379,"Ġà®ļà®Łà¯įà®Łà®®à¯į":7380,"Ġà®ªà¯Īà®¤à¯įà®¤à®¿à®¯à®®à¯į":7381,"à®¿à®Łà®®à®¿à®°à¯ģà®¨à¯įà®¤à¯ĩ":7382,"Ġà®Ĩà®£à¯įà®ķà®³à¯Īà®¯à¯ģà®®à¯į":7383,"à®¤à®¿à®°à¯Ī":7384,"Ġà®ĩà®°à®µà®¿à®²à¯ģà®®à¯į":7385,"à¯ĩà®©à®¾":7386,"à®ĩà®±à¯ģà®¤à®¿à®¤à¯į":7387,"Ġà®ķà¯Ĥà®²à®¿à®¯à¯ģà®®à¯į":7388,"Ġà®®à®ķà¯įà®ķà®³à¯ģà®®à¯į":7389,"à®īà®£à¯įà®®à¯Īà®¯à®¿à®²à¯į":7390,"Ġà®µà¯ĩà®¤à®©à¯Īà®¯à¯ģà®®à¯ģà®£à¯įà®Łà¯ģ":7391,"Ġà®ķà®¿à®³à®¿à®ķà¯į":7392,"Ġà®ļà¯ĩà®¾à®²à¯Īà®ķà®³à®¿à®²à¯į":7393,"à®¿à®©à¯įà®±à®¾à®°à¯įà®ķà®³à¯į":7394,"all":7395,"Ġà®µà®¾à®©à®¤à¯įà®¤à®¿à®©à¯į":7396,"Ġà®ªà¯ģà®ķà®´à¯Īà®ķà¯į":7397,"Ġà®¤à¯Ĩà®¯à¯įà®µà®Ļà¯įà®ķà®³":7398,"Ġà®®à®ķà®¿à®´à¯įà®ļà¯įà®ļà®¿à®¯":7399,"ĠZ":7400,"Ġà®ªà®ķà¯ģà®¤à®¿à®¯à¯Ī":7401,"Ġà®¤à®¿à®°à¯ģà®®à¯įà®ªà¯ģà®®à¯į":7402,"à®ħà®µà®°à®¤à¯ģ":7403,"Ġà®¨à®ªà®¿à®¯à®¾à®ķ":7404,"ĠMB":7405,"Ġà®¨à®©à¯įà®®à¯Īà®¯à®¾à®ķ":7406,"Ġunits":7407,"à®ķà¯ĩà®³à¯įà®µà®¿":7408,"\"à®īà®Ļà¯įà®ķà®³à¯į":7409,"Ġà®¨à¯Ĭà®Ł":7410,"Ġà®¨à®¾à®Łà¯ģ":7411,"Ġà®ħà®¤à®¿à®ķà®¾à®°à®®à¯ģà®®à¯į":7412,"Ġà®®à®°à¯įà®¯à®®à¯ģà®Łà¯Īà®¯":7413,"Ġà®¤à®¿à®ķà¯įà®°à¯ģ":7414,"à®ķà®Ļà¯įà®ķà®³":7415,"Ġà®®à®¿à®ķà¯Īà®¤à¯įà®¤à¯ģ":7416,"à¯ģà®¨à®¿à®²à¯Ī":7417,"à®¾à®°à¯ģà®ķà¯įà®ķà¯ģ":7418,"Ġà®Ĩà®£à¯Īà®¯à®¾à®ķ":7419,"Ġà®ħà®²à¯įà®²à®¾à®¤à®µà®±à¯įà®±à¯Ī":7420,"à®±à¯įà®±à¯ģà®®à¯Ī":7421,"Ġà®ļà®ķà®²":7422,"à®ªà¯Ĩà®¤à¯į":7423,"Ġà®¤à®µà¯įà®ªà®¾à®µà¯Ī":7424,"Ġà®¨à¯Ģà®¤à®¿":7425,"Ġà®ªà®Łà¯Īà®¤à¯įà®¤à¯ģà®³à¯įà®³":7426,"à®ļà®¾à®³à®°à®®à¯į":7427,"Ġà®¤à®Ļà¯įà®ķà®³à¯ģà®ķà¯įà®ķà¯ģà®³à¯į":7428,"Ġà®ħà®µà®°à¯ģà®ķà¯įà®ķà¯ģà®ªà¯į":7429,"Ġà®µà¯ĩà®ķà®®à®¾à®ķ":7430,"Ġà®ķà¯ĩà®Łà¯įà®ªà®µà®©à®¾à®ķà®µà¯ģà®®à¯į":7431,"Ġà®®à®¿à®ķà¯Īà®¤à¯įà®¤à®µà®©à¯ģà®®à¯į":7432,"à¯ģà®Ļà¯įà®ķà®¿":7433,"BAR":7434,"à®ªà®¿à®©à¯įà®©à¯ģà®®à¯į":7435,"Ġà®ļà®®à¯ģà®¤à®¾à®¯à®®à¯į":7436,"Ġà®®à®¿à®¤":7437,"Ġà®ķà¯Ĩà®¾à®Łà¯ģà®ªà¯įà®ªà®¤à®¿à®²à¯į":7438,"PS":7439,"à®¤à¯ĭ":7440,"à®ļà¯ĩà®µà¯Īà®¯":7441,"ft":7442,"à¯įà®ķà¯ĭ":7443,"à®ķà®¾à®°à®£":7444,"Ġà®¤à¯ĩà®¤":7445,"à®¤à¯Ĩ":7446,"à¯įà®¸à®¿à®¯à®¾à®©à®¾":7447,"Ġà®ļà®°à®¿à®¯à®¾":7448,"à®²à¯Ĥà®¯à¯įà®¸à®¿à®¯à®¾à®©à®¾":7449,"Ġà®ĩà®°à¯ģà®ķà¯įà®ķà®¿à®±à®¤à¯ĩà®¾":7450,"Ġà®İà®´à¯ģà®¤à®¿":7451,"Ġà®ªà®¾à®°à¯įà®ķà¯įà®ķà¯ģà®®à¯į":7452,"à¯Ĩà®ķà¯įà®¸":7453,"Ġà®ĩà®µà¯įà®µà®¾à®±":7454,"Ġà®ļà®©à¯įà®®à®¾à®°à¯įà®ķà¯įà®ķ":7455,"à®¿à®±à®©à¯į":7456,"Ġà®¯à®¾à®°à¯ģà®ķà¯įà®ķà¯ģ":7457,"Ġà®ªà®¿à®ļ":7458,"à®¾à®©à®¿à®©à¯į":7459,"Ġà®¤à¯Ĥà®¤à®°à®¿à®©à¯į":7460,"ring":7461,"à®®à¯ģà®Łà®¿à®µà¯ģ":7462,"Ġà®®à¯ģà®·à¯įà®°à®¿à®ķà¯įà®ķà¯ģà®ķà®³à®¿à®²à¯į":7463,"Ġà®ķà¯ģà®±à¯Īà®µà®¾à®ķ":7464,"Ġà®Łà®ķà¯įà®ķà¯Ĭà®Ł":7465,"à®ĩà®µà¯Īà®¯à¯Ĩà®²à¯įà®²à®¾à®®à¯į":7466,"à¯Ĥà®±à¯įà®±":7467,"Ġà®ªà®¾à®°à¯įà®ªà¯įà®ªà®µà®©à®¾à®ķà®µà¯ģà®®à¯į":7468,"Ġà®ļà®®à¯Ĥà®ķà®¤à¯įà®¤à®¿à®©à®°":7469,"à®¿à®°à¯ģà®¨à¯įà®¤à®¾à®²à¯ģà®®à¯į":7470,"ah":7471,"Ġà®¨à®®à¯įà®ªà¯ģà®ķà®¿à®±à¯ĩà®©à¯į":7472,")à®µ":7473,"Ġà®¤à¯ĩà®°à¯įà®¨à¯įà®¤à¯Ĩà®Łà¯ģà®¤à¯įà®¤à¯ģ":7474,"Ġà®¤à®©à®¿à®¤à¯įà®¤":7475,"(à®ķà®³à®¾à®©":7476,"Ġà®ªà®¾à®©":7477,"Ġà®ķà¯ģà®´à®¨à¯įà®¤à¯Īà®ķà®³à¯į":7478,"à®¨à®Łà¯įà®ļ":7479,"Ġà®¤à¯Ĥà®¤à®©à¯į":7480,"Ġà®ħà®©à¯ģà®®à®¤à®¿à®¯à®¿à®©à¯įà®±à®¿":7481,"ĠJ":7482,"Ġà®ķà¯Ĥà®Łà¯ģà®®à¯į":7483,"Ġà®İà®©à®¤à¯ģ":7484,"Ġà®µà¯Ģà®£à®¾à®ķà¯įà®ķ":7485,"à¯ģà®ķà¯įà®ķà¯Ĭà®³à¯įà®³":7486,"Ġà®®à¯ģà®°à®£à¯įà®ª":7487,"Ġà®ļà®¾à®ªà¯įà®ªà®¿à®Ł":7488,"16":7489,"Ġà®ķà®¾à®°à®¿à®¯à®¤à¯įà®¤à®¿à®²à¯į":7490,"à®ªà®¾à®Ł":7491,"à®¿à®ļà®ªà¯Ĩà®¤à¯į":7492,"à¯ģà®®à®²à¯į":7493,"Ġà®¤à¯Ĥà®³":7494,"Ġà®īà®£à®°à¯įà®¨à¯įà®¤":7495,"Ġà®µà®Łà®¿à®ķà®Łà¯įà®Łà®¿Name":7496,"à¯ģà®ķà®¿":7497,"à®¨à®°":7498,"arch":7499,"à®¤à¯Īà®¯":7500,"à®ķà¯įà®ķà¯Ĥà®Łà®¾à®¤à¯ģ":7501,"720":7502,"wat":7503,"Ġà®ļà¯ĭà®¤à®©à¯Ī":7504,"à®©à®¿à®ķà¯įà®ķà®¿à®´":7505,"à®¤à¯įà®¤à®¿à®©à¯Ī":7506,"ant":7507,"à®ĵà®°à¯į":7508,"à®µà¯Ĩà®³à®¿à®¯":7509,"umber":7510,"av":7511,"à®²à®ķà®®à¯į":7512,"Ġà®ªà¯ĩà®¾à®ķà®²à®¾à®®à¯į":7513,"Ġà®ļà®®à¯įà®ªà®¨à¯įà®¤":7514,"à¯ģà®Ĩ":7515,"à®¯à¯ģà®®à¯į":7516,"à¯Ģà®¸":7517,"à®¿à®Ļà¯įà®ķà¯į":7518,"Ġà®īà®£à®µà¯Ī":7519,"Ġà®İà®´à¯ģà®¤à®ªà¯įà®ªà®Łà¯įà®Łà®¤à¯ģ":7520,"à¯ĩà®Łà¯ģ":7521,"à®¹à®¾à®°":7522,"Ġwhat":7523,"à®µà®¾à®²":7524,"à®¨à¯ĩ":7525,"Ġà®ķà®Łà¯įà®Łà®¾à®¯":7526,"Ġà®ªà¯Ĩà®°à¯ģà®®à¯įà®ªà®¾à®²à®¾à®©":7527,"Ġà®ĥà®ªà®¿à®°à¯įà®ħà®µà¯įà®©à¯ģà®Łà¯Īà®¯":7528,"à®ħà®ļ":7529,"Ġà®ħà®®à®°":7530,"Ġà®ªà¯Ī":7531,"Ġà®ħà®°à¯įà®ªà¯įà®ª":7532,"Ġà®®à®¸à¯Ģà®¹":7533,"Ġà®ļà®¾à®ªà®®à¯į":7534,"Ġworld":7535,"MM":7536,"à¯Īà®ªà¯įà®ªà®²à®ķà¯Ī":7537,"000":7538,"Ġà®ļà¯ģà®±à¯įà®±à®¿à®¯à¯ģà®³à¯įà®³":7539,"à¯ģà®ŀ":7540,"Ġà®ªà®µ":7541,"à®¿à®²à®¾à®©":7542,"à®¿à®ķà¯įà®ķà¯Ĩà®¾à®£à¯įà®Łà¯ģ":7543,"Ġà®®à®±à¯Īà®¯à®¾à®ķà¯įà®ķ":7544,"Ġà®ĩà®¯à®Ļà¯įà®ķà¯ģà®®à¯į":7545,"Ġà®ķà®Łà®µà¯ģà®ļà¯įà®ļà¯Ĭà®²à¯į":7546,"Ġà®ªà®¿à®°à®¿à®¤à¯įà®¤à¯ģ":7547,"Ġà®ªà¯Ĩà®°à®¿à®¤à¯ģà®®à¯į":7548,"à¯ģà®®à®¾à®¯à®¿à®©à¯į":7549,"Ġà®ļà®®à¯įà®ªà®µ":7550,"IM":7551,"Ġà®®à®¾à®ªà¯Ĩà®°à¯ģà®®à¯į":7552,"Ġà®µà®Łà®¿à®µà®®à¯Ī":7553,"à®Ļà¯įà®ķà®¿à®²":7554,"Ġà®µà®¾à®¯à¯įà®ªà¯įà®ªà¯ģ":7555,"Ġà®®à¯Ĭ":7556,"à®¿à®ķà¯įà®ķà®¾à®¤":7557,"Ġà®ªà®£à¯įà®ªà¯ģà®ķà®³à¯į":7558,"à®Łà¯ģà®ķà®³à¯Ī":7559,"Ġà®¤à®¿à®°à¯ģà®ªà¯įà®ªà®¿à®µà®¿à®Ł":7560,"Ġwindow":7561,"à®ĩà®¯à®ķà¯įà®ķ":7562,"à®Ļà¯įà®ķà®³à¯ģà®Łà®©à¯į":7563,"Ġà®ħà®µà¯Īà®¯":7564,"Ġà®īà®¤à®¯":7565,"Ġà®¤à®¾à®°à®¾à®³":7566,"object":7567,"Ġà®ķà®¾à®°à¯į":7568,"Ġà®ĩà®³à¯Ī":7569,"Ġà®ĩà®°à¯ģà®ķà¯įà®ķà®¾à®¤à¯ģ":7570,"Ġà®ļà¯Ĩà®¯à¯įà®¤à®¿à®°à¯ģà®ªà¯įà®ª":7571,"Ġà®ķà®£à®ķà¯įà®ķà®¿à®Ł":7572,"mb":7573,"Ġà®®à®±à¯ģà®¤à¯įà®¤":7574,"Ġà®ķà®£à¯įà®Łà®¿à®ªà¯įà®ªà®¾à®ķ":7575,"à¯Īà®¯à®¾à®³à®°à¯į":7576,"Ġà®ªà¯ģà®¤à¯ģà®ªà¯įà®ª":7577,"Ġà®©":7578,"Ġà®ĩà®ļ":7579,"à¯ĭà®²à¯į":7580,"Ġà®®à®±à¯Īà®¨à¯įà®¤à¯ģ":7581,"à®ªà¯įà®ªà®Łà¯ģà®¤à¯įà®¤à¯ģà®®à¯į":7582,"Ġà®µà®¾à®¯à¯įà®ªà¯įà®ª":7583,"à®¤à¯ģà®µà®ķà¯įà®ķ":7584,"à®®à®¿à®²à¯įà®²à®¾à®¤":7585,"à®ĩà®°à®ķ":7586,"à®¿à®°à¯ģà®¨à¯įà®¤à®©à®°à¯į":7587,"à®¹à¯įà®°":7588,"Ġà®ªà®°à®¿à®¨à¯įà®¤à¯ģà®°":7589,"à®¾à®°à®¿à®ļ":7590,"ata":7591,"Ġà®ļà®ķà¯ĩà®¾à®¤à®°à®°à¯įà®ķà®³à¯į":7592,"à®ļà®¾à®°à¯į":7593,"came":7594,"roon":7595,"Ġà®ķà¯ģà®±à¯Īà®¨à¯įà®¤à®¤à¯ģ":7596,"waters":7597,"à®ļà®Łà¯įà®Ł":7598,"Ġà®Łà¯Ī":7599,"18":7600,"à®°à¯įà®²":7601,"à®¤à¯ģà®®à®¾à®©":7602,"à¯įà®ļà®¿à®¯à®®à¯į":7603,"à®İà®µà¯įà®µ":7604,"Ġà®ķà®¾à®²à®¿à®¯à®¾à®ķ":7605,"Ġà®Ĩà®¤à®¾à®°à®®à¯į":7606,"à®¤à®Łà®®à¯į":7607,"à¯ģà®ŀà¯į":7608,"Ġà®µà®Łà®¿à®ķà®Łà¯įà®Ł":7609,"à®°à®¿à®Łà®®à¯į":7610,"à®®à¯ģà®®":7611,"Ġà®ļà¯Ĩà®¯à¯įà®µà®¤à®±à¯įà®ķà¯ģ":7612,"Ġà®¤à¯ĩà®Łà¯ģà®®à¯į":7613,"à®¾à®µà®¿à®Ł":7614,"Ġhttp":7615,"Ġà®ķà®¾à®±à¯įà®±à¯ģ":7616,"Ġà®¤à®¯à®¾à®°à®¾à®ķ":7617,"Ġà®ħà®°à¯įà®¤à¯įà®¤à®®à¯į":7618,"NAME":7619,"Ġà®ªà®©":7620,"à®ªà¯Ĩà®£":7621,"Ġà®ľà¯ĭà®Łà®¿":7622,"DA":7623,"Ġà®®à¯Ī":7624,"à®¤à¯įà®¤à®¿à®²à¯ĩà®¯à¯ĩ":7625,"à®¿à®ķà¯įà®ķà®ªà¯įà®ªà®Łà¯įà®Łà®©à®°à¯į":7626,"Ġà®ħà®²à¯ģà®µ":7627,"à®®à¯ģà®Łà®¿à®¯à¯ģà®®à¯į":7628,"à®¤à¯ģà®µà®¾à®©":7629,"à®¯à¯Ĥ":7630,"à®µà®°à¯ģà®ķà¯įà®ķà¯ģà®®à¯į":7631,"à®¿à®¯à®¾à®ķà¯įà®ķ":7632,"Ġà®µà¯Īà®ķà¯įà®ķà®ªà¯įà®ªà®Łà¯įà®Ł":7633,"http":7634,"Ġà®ļà¯ĩà®¾à®°":7635,"à¯ģà®Łà¯įà®Łà¯ģ":7636,"Ġà®µà®°à¯ģà®µà®¤à®±à¯įà®ķà¯ģ":7637,"à®ĩà®Łà®¤à¯ģ":7638,"à®ĩà®Łà¯Ī":7639,"à®ļà¯Īà®®à®©à¯į":7640,"Ġà®ªà®¾à®°à¯įà®¤à¯įà®¤à¯ĩà®©à¯į":7641,"Ġà®ħà®ļà¯ģà®¤à¯įà®¤":7642,"à®ħà®±à¯įà®ª":7643,"ages":7644,"à®¾à®©à¯įà®Ł":7645,"Ġà®®à®ŀà¯įà®ļà®³à¯į":7646,"Ġà®Ĵà®¤à¯įà®¤à®¿à®ļ":7647,"à®ļà®¤à¯įà®¤à®¿à®¯à®®à¯į":7648,"ook":7649,"ory":7650,"Ġà®ħà®±à®¿à®¯à®¾à®®":7651,"Ġà®ķà®²à®¨à¯įà®¤à¯ģ":7652,"à¯įà®ķà¯įCity":7653,"à¯Ĥà®²à¯į":7654,"à¯įà®ļà¯Ĩà®©à¯įà®Łà¯į":7655,"à¯ģà®ªà¯įà®ªà®Łà®¿":7656,"Ġà®īà®³à¯įà®³à®¿à®Łà¯įà®Ł":7657,"ĠMi":7658,"Ġà®µà®°à¯ģà®µà®¾à®©à¯į":7659,"à®Ĩà®²":7660,"à®ļà¯Ĩà®Ļà¯įà®ķà¯ģà®¤à¯įà®¤à¯ģ":7661,"Ġregions":7662,"à®¨à®Łà¯įà®ļà®¤à¯įà®¤à®¿à®°":7663,"Ġà®ľà®©à®¾à®¤à®¿à®ªà®¤à®¿":7664,"à®¿à®ŀà¯įà®ļ":7665,"à®¨à®©":7666,"à®Łà¯įà®Łà¯ģà®ķà¯į":7667,"Ġà®®à®¾à®±à¯įà®±à®Ļà¯įà®ķà®³à¯Ī":7668,"Ġà®ķà®©à®µà¯ģ":7669,"à®¨à¯įà®¤à®¿à®°à®®à¯į":7670,"à®ªà¯Ĥà®®à®¿":7671,"à®İà®²à¯įà®²à¯ĩà®¾à®°à¯ģà®®à¯į":7672,"Ġà®ķà®¿à®°à®¾à®®":7673,"à®ķà®¾à®Łà¯įà®ļ":7674,"Ġà®ļà¯Ĩà®¯à¯įà®¤à¯ģà®ķ":7675,"Ġà®ļà®¾à®³à®°à®¤à¯įà®¤à¯Ī":7676,"Ġà®ļà¯Ĥà®°à®¿à®¯à®©à¯į":7677,"Constellation":7678,"Ġà®ĩà®µà®±à¯įà®±à®¿à®©à¯į":7679,"Ġà®®à®²à¯Īà®ķà®³à¯į":7680,"Ġet":7681,"à¯Ĥà®Łà®¿à®¤à¯į":7682,"Ġà®µà¯ĩà®£à¯įà®Łà¯ģà®®à¯Ĩà®©à¯įà®ª":7683,"à®¿à®ķà¯įà®ķà®¤à¯į":7684,"à®ªà¯ģà®©à®¿à®¤":7685,"Ġà®µà®¿à®µà®°à®¿à®¤à¯įà®¤":7686,"part":7687,"Ġà®µà®¿à®²à®Ļà¯įà®ķ":7688,"Ġà®¨à®·à¯įà®Łà®®à¯į":7689,"à®®à®¾à®±à¯įà®±à¯ģ":7690,"à®ªà¯ģà®ķà®´":7691,"Ġà®ļà¯ģà®®à®¤à¯įà®¤":7692,"Ġà®ªà¯Ĭà®°à¯ģà®³à¯Ī":7693,"à®µà®¾à®°à®¿":7694,"à®īà®²à®ķà®¤à¯įà®¤":7695,"Ġà®µà®¿à®±à¯įà®ķ":7696,"à®µà®°à¯ĩ":7697,"à®ķà®¿à®¯":7698,"à®ķà¯įà®ķà®ªà¯įà®ªà®Łà¯įà®Ł":7699,"Ġà®ħà®±à®¿à®µà®¿à®ķà¯įà®ķà¯ģà®®à¯į":7700,"à®¤à®¾à®µ":7701,"à®ķà¯įà®ķà®¾à®©":7702,"Ġà®ħà®¤à¯ģà®ª":7703,"Ġà®ĩà®°à¯ģà®ªà¯įà®ªà®¤à®¾à®ķ":7704,"à®¿à®¸à¯įà®Ł":7705,"Ġà®ªà®¾à®¤à¯ģà®ķà®¾à®ªà¯įà®ªà®¾à®©":7706,"Ġà®µà®¾à®°à¯įà®¤à¯įà®¤à¯Īà®ķà®³à¯į":7707,"Ġà®ļà¯Ĩà®¯à¯įà®¤à®¿à®ķà®³à¯į":7708,"Ġcheck":7709,"à®°à®ļ":7710,"Ġà®µà¯ĩà®£à¯įà®Łà¯ģà®®à¯Ĩà®©à¯įà®±à¯ģ":7711,"à®¤à®¾à®®":7712,"Ġà®ķà®©à¯įà®©":7713,"à®¿à®±à¯Ģà®°à¯įà®ķà®³à®¾":7714,"à®µà®©à®¿à®©à¯į":7715,"Ġà®µà®ķà¯Īà®ķà®³à¯į":7716,"Ġà®¤à®¿à®°à¯ģà®ªà¯įà®¤":7717,"à®ļà¯Ĩà®¾à®":7718,"Ġà®ħà®¤à®¿à®ķà®®à¯į":7719,"Ġà®¤à¯ģà®µà®ķà¯įà®ķà¯ģ":7720,"Ġà®ļà®¿à®ªà®¾à®°à®¿à®ļ":7721,"à¯ģà®¤à¯įà®¤à®¿":7722,"ublic":7723,"à¯įà®ķà¯įà®ķà¯ģà®®à¯į":7724,"Ġà®ªà®¯à®¿à®±":7725,"Ġà®®à¯ģà®©à¯įà®©à®¿à®²à¯Īà®¯à®¿à®²à¯į":7726,"à®ªà®Łà¯įà®Łà®¿à®¯":7727,"cameroon":7728,"à®¾à®²à®¤à¯įà®¤à®¿à®²à¯į":7729,"Ġà®ªà¯ģà®ķà¯Īà®ªà¯įà®ªà®Ł":7730,"ĠAl":7731,"à®¿à®ķà¯įà®ķà®¿à®Ł":7732,"Ġà®ķà®Łà¯įà®Łà®Ł":7733,"à®ĩà®±à®¨à¯įà®¤à¯ģ":7734,"Ġà®İà®£à¯įà®£à®¿":7735,"à¯ĩà®¾à®Łà¯ģà®®à¯į":7736,"Ġà®ķà¯Īà®µà®¿à®Ł":7737,"à®ªà¯ĩà®ļ":7738,"Ġà®ĩà®µà®±à¯įà®±à®¿à®²à¯į":7739,"Ġà®ªà®ķà¯ģà®¤à®¿à®¯à®¿à®²à¯į":7740,"ick":7741,"rack":7742,"Ġà®ªà¯ģà®³à¯įà®³à®¿à®¯à¯Ī":7743,"à®®à®©à¯įà®©à®¿à®ķà¯įà®ķà®µà¯ģà®®à¯į":7744,"Ġà®ĩà®²à¯įà®²à®¾à®®à®²":7745,"Ġà®µà®±à¯įà®ª":7746,"Ġà®īà®³à¯įà®³à®µà®±à¯įà®±":7747,"Ġà®īà®°à®¿à®¯à®¤à®¾à®ķà¯ģà®®à¯į":7748,"Ġà®ªà¯ĩà®¾à®µà®¤à®¿à®²à¯įà®²à¯Ī":7749,"Ġà®µà®±à¯įà®ªà¯ģà®±à¯ģà®¤à¯įà®¤":7750,"à®¿à®©à¯ĩà®©à¯į":7751,"à®Ĵà®²":7752,"Ġà®ļà®¿à®ķ":7753,"à®¿à®±à¯įà®ķà®¾à®©":7754,"Ġà®ķà®¾à®Łà¯įà®Łà®µà¯ģà®®à¯į":7755,"à®®à®±à¯įà®±à®µà®°à¯įà®ķà®³à¯Ī":7756,"Ġà®ªà®¾à®°à¯įà®ªà¯įà®ªà®¾à®°à¯įà®ķà®³à¯į":7757,"à®¤à¯ģà®Łà®©à¯į":7758,"ound":7759,"lat":7760,"Ġà®µà®ķà¯ģà®ªà¯įà®ª":7761,"Ġetc":7762,"Ġà®¨à¯Ģà®°à¯Ī":7763,"Ġà®¨à®¿à®²à¯Īà®¯à®¿à®²à¯ģà®®à¯į":7764,"(à®ħà®µà®©à¯ĩ":7765,"à¯Īà®¯à¯ģà®®":7766,"uk":7767,")?":7768,"Ġà®İà®Łà¯ģà®¤à¯įà®¤à¯ģà®°":7769,"à®ħà®µà¯į":7770,"Ġed":7771,"à®¿à®²à®¿à®°à¯ģà®ªà¯įà®ª":7772,"Ġà®ļà¯Ĩà®¯à¯įà®ķà®¿à®©à¯įà®±à®©":7773,"Ġà®ĩà®ļà¯Ī":7774,"Ġà®ļà®¾à®Łà¯įà®Ł":7775,"Ġà®µà¯Ĩà®³à®¿à®¯à®¾à®ķ":7776,"Ġà®µà¯Īà®¤à¯įà®¤à®¿à®°à¯ģà®ķà¯įà®ķà®¿à®©à¯įà®±à®¾à®©à¯į":7777,"Ġà®ªà¯Ĩà®±à¯įà®±à¯ĩà®¾à®°":7778,"Ġà®µà®²à®ķà¯įà®ķ":7779,"Ġà®ķà¯ģà®°à¯įà®Ĩà®©à®¿à®²à¯į":7780,"Ġà®ķà®©à®¿à®µà®ķ":7781,"Ġà®®à¯ģà®¯à®©à¯įà®±":7782,"ters":7783,"à®®à¯ģà®´à¯ģ":7784,"Ġà®ļà®µà®©à®ªà®¤":7785,"GL":7786,"à®³à®µà¯ģà®®à¯į":7787,"à®¾à®°à¯ĭ":7788,"Ġà®ħà®µà®°à¯ģà®ķà¯įà®ķà¯ĩ":7789,"Ġà®ķà¯Ĥà®±à¯ģ":7790,"à¯ģà®ªà®Ł":7791,"Ġà®ķà¯Ĩà®¾à®£à¯įà®Łà®¿à®°à¯ģà®ªà¯įà®ªà®¾à®°à¯įà®ķà®³à¯į":7792,"à®µà®Łà®ķà¯įà®ķà¯ģ":7793,"Ġà®¨à®²à¯įà®µà®´":7794,")à®²à®¿à®°à¯ģà®¨à¯įà®¤à¯ģ":7795,"à®ªà¯Ĩà®¯à®°":7796,"ink":7797,"Ġà®®à®±à¯įà®±à¯ĩà®¾à®°à¯į":7798,"Ġà®ķà®¾à®Łà¯įà®Łà¯ģà®ķà®¿à®±à®¾à®©à¯į":7799,"Ġà®ķà®µà®©à®¿à®¤à¯įà®¤à¯ģà®ķà¯į":7800,"à¯Ĩà®©à¯įà®±à¯ĩ":7801,"Ġà®¤à¯Ĭà®Łà®°à¯į":7802,"Ġà®¨à®¿à®©à¯Īà®µà¯Ĥà®Łà¯įà®Łà¯ģà®®à¯į":7803,"Ġà®ħà®°à¯įà®·à®¿à®©à¯į":7804,"à®®à¯Ĭà®¤à¯įà®¤":7805,"à®©à¯Īà®¤à¯įà®¤à¯ģà®®à¯į":7806,"Ġrare":7807,"à®¨à¯įà®¨à®¾à®³à®¿à®²à¯į":7808,"Ġà®ķà®¾à®£à¯įà®ªà¯Ģà®°à¯įà®ķà®³à¯į":7809,"Ġà®ĩà®´à¯ģà®ķà¯įà®ķ":7810,"Ġà®®à®©à®¿à®¤à®°à¯įà®ķà®³à¯ģà®ķà¯įà®ķà®¾à®ķ":7811,"Ġà®¨à¯ĩà®ļà®¿à®ķà¯įà®ķ":7812,"Ġà®ľà¯ĭà®Łà®¿à®¯à®¾à®ķ":7813,"Ġà®ħà®Łà®¿à®ķà¯įà®ķ":7814,"Ġà®®à®¿à®ķà¯įà®ķà¯ĩà®¾à®©à®¾à®ķà®µà¯ģà®®à¯į":7815,"Ġà®ªà®ķà¯įà®ķà®®à¯ģà®®à¯į":7816,"Ġà®¨à®©à¯įà®®à¯Īà®ķà®³à¯į":7817,"Ġà®¤à®©à¯įà®®":7818,"Ġà®®à®¤à¯įà®¯à®©à¯į":7819,"Ġà®īà®¤à®µà¯ģà®®à¯į":7820,"Ġà®ĩà®¸à¯įà®¹à®¾à®ķà¯įà®ķ":7821,"à¯įà®ķà¯ĩ":7822,"à¯Ģà®ķ":7823,"Ġà®Ĩà®ķà®¿à®¯à¯ĩà®¾à®°":7824,"Ġà®ħà®®à¯Īà®¤à¯įà®¤à¯ĩà®¾à®®à¯į":7825,"à®®à¯ģà®£à¯įà®Łà¯ģ":7826,"Ġà®ļà¯Ĩà®¯à¯įà®ªà®µà¯Ī":7827,"Ġà®¹à®¿à®ľà¯įà®°à®¤à¯į":7828,"Ġà®¨à®¿à®°à®¾à®ķà®°à®¿à®ªà¯įà®ªà¯ĩà®¾à®°à®¿à®©à¯į":7829,"à®ħà®±à®¿à®µ":7830,"à¯ģà®µà®¤à®¾à®ķ":7831,"à®Łà®¿à®µà®¿à®Łà®¿":7832,"In":7833,"Ġà®ħà®©à¯ģà®ªà¯įà®ªà®¿à®¯à¯ģà®³à¯įà®³à¯ĩà®¾à®®à¯į":7834,"à®®à®¾à®Łà¯įà®Łà¯ĩà®¾à®®à¯į":7835,"Ġà®ħà®£à®¿à®µ":7836,"Ġà®¯à®¾à®¤à¯ĩà®¾à®°à¯į":7837,"Ġà®®à¯ģà®©à¯įà®©à¯ģà®®à¯į":7838,"Ġà®ħà®ļà¯įà®ļà®®à¯į":7839,"Ġà®ĩà®µà¯įà®µà¯ģà®²":7840,"Ġlist":7841,"Ġà®®à®£à®¨à¯įà®¤à¯ģ":7842,"Ġà®ļà®¿à®²à®°à¯Īà®ļà¯į":7843,"à®®à®¾à®©à®µà®°à¯įà®ķà®³à¯į":7844,"Ġà®µà¯ĩà®¤à®¤à¯įà®¤à¯Īà®¯à¯ģà®Łà¯Īà®¯":7845,"Ġà®ªà®¯à®£":7846,"arn":7847,"Ġà®ĩà®µà¯įà®µà¯ģà®²à®ķà®¿à®²à¯ģà®®à¯į":7848,"à®¿à®¯à®Ł":7849,"Ġà®¸à®¾à®²à®¿à®¹":7850,"à®ħà®¤à®¿à®²à®¿à®°à¯ģà®¨à¯įà®¤à¯ģ":7851,"Ġà®®à¯ģà®ĥà®®à®¿à®©à¯įà®ķà®³à¯ĩ":7852,"Ġà®ªà¯Ĩà®£à¯įà®ķà®³à®¿à®©à¯į":7853,"Ġà®ļà¯Ĩà®¾à®²à¯įà®²à®ªà¯įà®ªà®Łà¯įà®Łà®¾à®²à¯į":7854,"Ġà®ªà¯ģà®±à®ªà¯įà®ªà®Łà¯įà®Ł":7855,"Ġà®¤à¯Ĥà®¤à®°à¯ģà®ķà¯įà®ķà¯ģ":7856,"Ġà®ķà¯Ĥà®Łà¯įà®Łà®¤à¯įà®¤à®¾à®°à®¿à®Łà®®à¯į":7857,"Ġà®ļà®¨à¯įà®¤à¯ĩà®ķà®¤à¯įà®¤à®¿à®²à¯į":7858,"Ġà®®à¯Ģà®Łà¯įà®Łà®ªà¯įà®ªà®Łà¯ģà®µà¯Ģà®°à¯įà®ķà®³à¯į":7859,"Ġà®µà®²à¯įà®²à®®à¯Ī":7860,"à®ĩà®ªà¯įà®±à®¾à®¹à¯Ģà®®à¯į":7861,"(à®¨à¯įà®¨à®°à®ķ":7862,"à¯ģà®ķà¯įà®ķà¯Ĩà®¾à®Ł":7863,"Ġà®¤à®±à¯įà®ªà¯ĭà®¤à¯ģ":7864,"à®ķà¯įà®ķà®®à®¾à®ķ":7865,"à®ĩà®ķà¯į":7866,"Ġà®ħà®±à®¿à®µà¯Ģà®°à¯įà®ķà®³à¯į":7867,"Ġà®ļà¯Ĩà®¾à®²à¯įà®ķà®¿à®±":7868,"Ġà®¤à®Ļà¯įà®ķà®³à¯ģà®ķà¯įà®ķà¯ģà®¤à¯į":7869,"Ġà®īà®±à¯ģà®¤à®¿à®¯à¯ģà®Łà®©à¯į":7870,"Ġà®µà®´à®¿à®ķà¯Ĩà®Łà¯ģà®¤à¯įà®¤":7871,"Ġà®¤à¯Ĩà®¾à®´à¯ģà®ķà¯Īà®¯à¯Īà®¯à¯ģà®®à¯į":7872,"à®ķà¯Ĥà®±à¯ģà®µà¯Ģà®°à®¾à®ķ":7873,"Ġà®ĩà®ªà¯įà®ªà¯Ĥà®®à®¿à®¯à®¿à®²à¯į":7874,"Ġà®ļà®¾à®¸à®©":7875,"à®µà®ķà¯Ī":7876,"à®®à®¾à®ķà®¾à®¤à¯ģ":7877,"Ġà®ķà¯Ĩà®¾à®³à¯įà®µà®¤à®±à¯įà®ķà®¾à®ķà®µà¯ģà®®à¯į":7878,"Ġà®ªà¯Ĥà®®à®¿à®¯à®¿à®²à¯ģà®®à¯ģà®³à¯įà®³":7879,"Ġà®¤à¯ĩà®Łà¯ģà®Ļà¯įà®ķà®³à¯į":7880,"Ġà®ıà®±à¯įà®ªà®Łà¯ģà®¤à¯įà®¤à®¿":7881,"Ġà®ªà®¾à®°à¯įà®¤à¯įà®¤à¯Ģà®°à®¾":7882,"Ġà®ķà®©à®¿à®µà®°":7883,"Ġà®İà®ļà¯įà®ļà®°à®¿à®ķà¯įà®ķà¯Īà®¯à®¾à®ķ":7884,"Ġà®ļà¯Ģà®ķà¯įà®ķà®¿à®°à®®à¯į":7885,"à®ªà¯ĩà®¾à®°à¯ģà®ķà¯įà®ķà¯ģà®ļà¯į":7886,"ROAN":7887,"Ġà®µà®´à®¿à®ªà¯įà®ªà¯ĩà®¾à®ķà¯įà®ķ":7888,"Ġà®ķà®©à®¿à®µà®°à¯įà®ķà¯įà®ķ":7889,"à®ªà¯įà®ªà®µà®©à¯į":7890,"Ġà®¨à®¿à®°à®¾à®ķà®°à®¿à®ķà¯įà®ķà¯ģà®®à¯į":7891,"à®ķà®°à¯įà®ªà¯įà®ª":7892,"Ġà®ļà¯Ĩà®²à¯įà®²à®¾à®¤":7893,"Ġà®µà¯Ĩà®³à®¿à®ªà¯įà®ªà®Łà¯įà®Łà¯ģ":7894,"Ġà®ļà¯ĩà®¾à®¤à®©à¯Īà®¯":7895,"Ġà®µà®¾à®ļà®¿à®ķà®³à¯į":7896,"Ġà®Ĵà®°à¯ģà®ķà¯įà®ķà®¾à®²à¯ģà®®à¯į":7897,"Ġà®ħà®µà®©à¯ģà®®à¯į":7898,"Ġà®ªà¯Ĩà®¾à®¯à¯įà®¯à¯ģà®°":7899,"Ġà®®à®©à®¿à®¤à®°à¯įà®ķà®³à®¿à®Łà¯Īà®¯à¯ĩ":7900,")à®¯à¯ģà®®à¯į":7901,"Ġà®ķà¯ģà®®à®¾à®°à®°à¯į":7902,"à®¿à®¯à®¤à¯ģà®®à¯į":7903,"à®ķà®ĥà®ª":7904,"à®¿à®¤à¯įà®¤à®µà®°à¯įà®ķà®³à®¾à®ķ":7905,"à®¿à®¯à¯ĩà®¾à®Łà¯ģ":7906,"Ġà®ļà¯Ĩà®¯à¯įà®ªà®µà®±à¯įà®±à¯Īà®¯à¯Ĩà®²à¯įà®²à®¾à®®à¯į":7907,"Ġà®µà®°à®®à¯įà®ªà¯ģà®ķà®³à¯Ī":7908,"Ġà®®à®¾à®°à¯įà®ķà¯įà®ķà®®à®¾à®ķà¯ģà®®à¯į":7909,"Ġà®ªà®¾à®ķà¯įà®ķà®¿à®¯à®®à¯ģà®³à¯įà®³":7910,"Ġà®ļà¯Ģà®ķà¯įà®ķà®¿à®°à®®à¯ĩ":7911,"à®¤à¯įà®¤à®¿à®±à¯įà®ķà¯ģà®³à¯įà®³":7912,"sthis":7913,"Ġà®ķà®²à®¨à¯įà®¤":7914,"Ġà®ķà¯Ĥà®±à¯ģà®ªà®µà®°à®¾à®ķà®µà¯ģà®®à¯į":7915,"Ġà®¤à¯Ģà®°à¯įà®ªà¯įà®ªà®³à®¿à®ªà¯įà®ªà®¾à®©à¯į":7916,"\"à®ħà®²à¯įà®²à®¾à®¹à¯įà®µà¯Īà®¯à®©à¯įà®±à®¿":7917,"Ġwhatsthis":7918,"à®¾à®°à®¿à®Łà®®à¯į":7919,"Ġà®İà®Ļà¯įà®ķà®³à®¿à®²à¯į":7920,"à¯ģà®ªà®µà®°à¯įà®ķà®³à®¾à®ķà®µà¯ģà®®à¯į":7921,"Ġà®ĩà®°à¯ģà®ķà¯įà®ķà®¿à®©à¯įà®±à®¾à®°à¯įà®ķà®³à®¾":7922,"Ġà®İà®©à¯įà®©à¯Īà®¯à¯ĩ":7923,"Ġà®®à®¾à®±à¯įà®±à®ªà¯įà®ªà®Łà¯įà®Ł":7924,"Ġà®¤à®¿à®°à¯ģà®®à¯įà®ªà®ķà¯į":7925,"Ġà®µà®¿à®µà®ļà®¾à®¯":7926,"à®¤à®¾à®²à¯ģà®®à¯į":7927,"Ġà®¯à®¾à®¤à¯ģ":7928,"Ġà®µà®¿à®·à®¯à®¤à¯į":7929,"à®ĩà®£à¯Īà®µ":7930,"Ġà®ħà®©à¯ģà®ªà®µà®¿à®¯à¯ģà®Ļà¯įà®ķà®³à¯į":7931,"Ġà®ªà¯Ĥà®°à¯įà®¤à¯įà®¤":7932,"Ġà®µà®²à®ķà¯įà®ķà®°à®Ļà¯įà®ķà®³à¯į":7933,"à®¤à¯Īà®¯à¯ĩà®¾":7934,"à®¿à®ļà®¾à®¯":7935,"Ġà®ļà®®à¯Ĥà®ķà®¤à¯įà®¤à®¾à®°à®¾à®ķà®µà¯ĩ":7936,"à®¤à¯ĩà®Ł":7937,"Ġà®ªà¯Ĥà®®à®¿à®¯à®¿à®©à¯ģà®Łà¯Īà®¯à®µà¯ģà®®à¯į":7938,"Ġà®ªà¯Ĩà®£à¯įà®ķà®³à®¿à®²à¯į":7939,"Ġà®ħà®´à®ķà®¾à®ķà®ķà¯į":7940,"\"à®ħà®²à¯įà®²à®¾à®¹à¯įà®µà®¿à®©à¯į":7941,"à®ķà¯įà®ķà®¤à¯įà®¤à¯Ī":7942,"à®¿à®ķà¯įà®ķà®¿à®±à®¾à®°à¯įà®ķà®³à¯ĩà®¾":7943,"Ġà®ļà¯ģà®µà®©à®ª":7944,"Ġà®µà¯Ģà®Łà¯ģà®ķà®³à¯Ī":7945,"Ġà®ªà¯Ĩà®¾à®¯à¯įà®¯à®¾à®ķà¯įà®ķà®¿à®ķà¯į":7946,"Ġà®īà®£à®°à¯įà®µà¯ģ":7947,"Ġà®ĩà®°à¯ģà®ķà¯įà®ķà®¿à®©à¯įà®±à®¾à®©à®¾":7948,"Ġà®®à®©à¯įà®©à®¿à®¤à¯įà®¤à®¾à®©à¯į":7949,"Ġà®ķà¯Ĩà®¾à®Łà¯ģà®ķà¯įà®ķà®ªà¯įà®ªà®Łà¯ģà®µ":7950,"Ġà®µà¯Īà®ķà¯įà®ķà®¿à®±à®¾à®©à¯į":7951,"à®¿à®°à¯ģà®µà®°à¯ģà®ķà¯įà®ķà¯ģà®®à¯į":7952,"Ġà®ªà®¯à®©à®±à¯įà®±":7953,"à¯įà®¹à¯ģà®²à¯į":7954,"Ġà®µà®¿à®³à¯Īà®¯à®¾à®Łà¯įà®Łà¯Ī":7955,"Ġà®ħà®´à®¿à®¤à¯įà®¤à®¿à®°à¯ģà®ķà¯įà®ķà®¿à®±à¯ĩà®¾à®®à¯į":7956,"Ġà®®à¯Ĥà®©à¯įà®±à®¿à®²à¯į":7957,"Ġà®®à®¹à¯įà®ĥà®ª":7958,"à®²à®µà¯įà®¹à¯ģà®²à¯į":7959,"Ġà®µà®²à¯įà®²à®®à¯Īà®¯à¯ģà®Łà¯Īà®¯":7960,"à¯ģà®ªà®µà®°à¯įà®ķà®³à¯ģà®®à¯į":7961,"Ġà®ªà®¯à®ªà¯įà®ªà®Łà¯ģà®µ":7962,"Ġà®ħà®³à®¿à®¤à¯įà®¤à¯ģ":7963,"(à®ħà®µà¯įà®µà®¾à®±à¯ģ":7964,"à®ªà®ķà¯Ī":7965,"à®µà¯Īà®¯à®¾à®ķà®µà¯ģà®®à¯į":7966,"Ġà®ªà¯Ĩà®¾à®¯à¯įà®ªà¯įà®ªà®¿à®¤à¯įà®¤à¯ģà®ķà¯į":7967,"Ġà®µà®¿à®·à®¯à®Ļà¯įà®ķà®³à¯Ī":7968,"Ġà®µà¯Īà®ªà¯įà®ªà®¤à¯Īà®¯à¯ģà®®à¯į":7969,"Ġà®ĥà®ªà®¿à®°à¯įà®ħà®µà¯įà®©à¯ģà®®à¯į":7970,"Ġà®¨à®©à¯įà®®à¯Īà®¯à¯ģà®Łà¯Īà®¯":7971,"Ġà®ļà¯Ĩà®¯à¯įà®¯à®ªà¯įà®ªà®Łà®µà¯ģà®®à¯į":7972,"Ġà®ļà¯ģà®µà®©à®ªà®¤à®¿à®¯à®¿à®²à¯į":7973,"Ġà®ķà®µà®©à®¿à®ķà¯įà®ķà®µà®¿à®²à¯įà®²à¯Īà®¯à®¾":7974,")à®³":7975,"yle":7976,"Ġj":7977,"à®²à¯įà®ķà®³à¯Īà®¯à¯ģà®®à¯į":7978,"à¯ĩà®¾à®°à¯ģà®Łà®©à¯į":7979,"Ġneeds":7980,"à¯Ĥà®°à®£":7981,"Ġà®¨à®ªà®¿à®®":7982,"à®ķà®¾à®²à¯įà®ļà®¿à®¯à®®à¯į":7983,"à®ħà®¤à®±à¯įà®ķà®µà®°à¯į":7984,"Ġà®¨à®²à¯įà®²à®Łà®¿à®¯à®¾à®°à¯įà®ķà®³à®¿à®²à¯į":7985,"Ġà®ªà®¿à®©à¯įà®¤à¯ĩà®¾à®©à¯įà®±":7986,"Ġrarely":7987,"Ġà®ªà®¾à®ª":7988,"Ġà®µà®¿à®Łà®¾à®¤à¯Ģà®°à¯į":7989,"Ġà®ħà®©à¯ģà®ªà¯įà®ªà®¿à®µà¯Īà®¤à¯įà®¤à¯ĩà®¾à®®à¯į":7990,"Ġà®İà®Ļà¯įà®ķà®³à¯ģà®ķà¯įà®ķà¯ģà®®à¯į":7991,"Ġà®µà®¾à®°à¯ģà®®à¯į":7992,"Ġà®¤à¯Ģà®®à¯Īà®¯à¯ĩà®¾":7993,"Ġà®¤à¯Ĩà®°à®¿à®¯à®µà®¿à®²à¯įà®²à¯Ī":7994,"Ġà®®à¯Ĥà®Łà®¿à®ķà¯į":7995,"à¯ģà®Łà¯Īà®¯à®µà®°à¯įà®ķà®³à¯į":7996,
[...]
