{
  "version": "1.0",
  "truncation": null,
  "padding": null,
  "added_tokens": [
    {
      "id": 0,
      "content": "[PAD]",
      "single_word": false,
      "lstrip": false,
      "rstrip": false,
      "normalized": false,
      "special": true
    },
    {
      "id": 1,
      "content": "[UNK]",
      "single_word": false,
      "lstrip": false,
      "rstrip": false,
      "normalized": false,
      "special": true
    },
    {
      "id": 2,
      "content": "[BOS]",
      "single_word": false,
      "lstrip": false,
      "rstrip": false,
      "normalized": false,
      "special": true
    },
    {
      "id": 3,
      "content": "[EOS]",
      "single_word": false,
      "lstrip": false,
      "rstrip": false,
      "normalized": false,
      "special": true
    }
  ],
  "normalizer": null,
  "pre_tokenizer": {
    "type": "Whitespace"
  },
  "post_processor": null,
  "decoder": null,
  "model": {
    "type": "BPE",
    "dropout": null,
    "unk_token": "[UNK]",
    "continuing_subword_prefix": null,
    "end_of_word_suffix": null,
    "fuse_unk": false,
    "byte_fallback": false,
    "ignore_merges": false,
    "vocab": {
      "[PAD]": 0,
      "[UNK]": 1,
      "[BOS]": 2,
      "[EOS]": 3,
      " ": 4,
      " ҉": 5,
      " ං": 6,
      " ්": 7,
      " ්‍": 8,
      " ා": 9,
      " ැ": 10,
      " ැා": 11,
      " ි": 12,
      " ු": 13,
      " ෙ": 14,
      " ‍": 15,
      " ‍ෙ": 16,
      " ‍‍": 17,
      " ‍‍‍": 18,
      "!": 19,
      "\"": 20,
      "#": 21,
      "$": 22,
      "%": 23,
      "&": 24,
      "'": 25,
      "(": 26,
      ")": 27,
      "*": 28,
      "+": 29,
      ",": 30,
      "-": 31,
      ".": 32,
      "/": 33,
      "0": 34,
      "0්": 35,
      "1": 36,
      "2": 37,
      "3": 38,
      "4": 39,
      "5": 40,
      "6": 41,
      "7": 42,
      "8": 43,
      "9": 44,
      ":": 45,
      ";": 46,
      "<": 47,
      "=": 48,
      ">": 49,
      "?": 50,
      "@": 51,
      "A": 52,
      "B": 53,
      "C": 54,
      "D": 55,
      "E": 56,
      "F": 57,
      "G": 58,
      "H": 59,
      "I": 60,
      "J": 61,
      "K": 62,
      "K‌": 63,
      "L": 64,
      "M": 65,
      "N": 66,
      "O": 67,
      "P": 68,
      "Q": 69,
      "R": 70,
      "S": 71,
      "T": 72,
      "Tෙ": 73,
      "U": 74,
      "V": 75,
      "W": 76,
      "X": 77,
      "Y": 78,
      "Z": 79,
      "[": 80,
      "\\": 81,
      "]": 82,
      "^": 83,
      "_": 84,
      "`": 85,
      "a": 86,
      "b": 87,
      "c": 88,
      "d": 89,
      "e": 90,
      "f": 91,
      "g": 92,
      "h": 93,
      "i": 94,
      "j": 95,
      "k": 96,
      "l": 97,
      "m": 98,
      "n": 99,
      "o": 100,
      "p": 101,
      "q": 102,
      "r": 103,
      "s": 104,
      "t": 105,
      "u": 106,
      "v": 107,
      "w": 108,
      "x": 109,
      "y": 110,
      "z": 111,
      "{": 112,
      "}": 113,
      "~": 114,
      "£": 115,
      "©": 116,
      "½": 117,
      "¿": 118,
      "é": 119,
      "ë": 120,
      "í": 121,
      "ï": 122,
      "ø": 123,
      "ü": 124,
      "Ā": 125,
      "ā": 126,
      "۩": 127,
      "අ": 128,
      "අං": 129,
      "අංෙ": 130,
      "අඃ": 131,
      "අැ": 132,
      "අෑ": 133,
      "අෙ": 134,
      "අ‍": 135,
      "ආ": 136,
      "ආෙ": 137,
      "ආ‍": 138,
      "ඇ": 139,
      "ඇං": 140,
      "ඇෙ": 141,
      "ඇ‍": 142,
      "ඈ": 143,
      "ඉ": 144,
      "ඉං": 145,
      "ඉ‍": 146,
      "ඊ": 147,
      "ඊ‍": 148,
      "උ": 149,
      "උං": 150,
      "උූ": 151,
      "උෙ": 152,
      "උ‍": 153,
      "ඌ": 154,
      "ඍ": 155,
      "එ": 156,
      "එං": 157,
      "එ්": 158,
      "එා": 159,
      "එෙ": 160,
      "එ‍": 161,
      "ඒ": 162,
      "ඒෙ": 163,
      "ඒ‍": 164,
      "ඓ": 165,
      "ඔ": 166,
      "ඔා": 167,
      "ඔෙ": 168,
      "ඔෟ": 169,
      "ඔ‍": 170,
      "ඕ": 171,
      "ඕෙ": 172,
      "ඕ‍": 173,
      "ඖ": 174,
      "ක": 175,
      "කං": 176,
      "ක්": 177,
      "ක්ං": 178,
      "ක්ි": 179,
      "ක්ෙ": 180,
      "ක්‌": 181,
      "ක්‍": 182,
      "ක්‍‍": 183,
      "කා": 184,
      "කාං": 185,
      "කාෙ": 186,
      "කා‍": 187,
      "කැ": 188,
      "කැැ": 189,
      "කැ‍": 190,
      "කෑ": 191,
      "කෑ‍": 192,
      "කි": 193,
      "කිං": 194,
      "කිි": 195,
      "කිෙ": 196,
      "කි‍": 197,
      "කී": 198,
      "කු": 199,
      "කුං": 200,
      "කුෙ": 201,
      "කු‍": 202,
      "කූ": 203,
      "කූ‍": 204,
      "කෘ": 205,
      "කෙ": 206,
      "කේ": 207,
      "කො": 208,
      "කෙි": 209,
      "කෙු": 210,
      "කෙෙ": 211,
      "කෙෝ": 212,
      "කෞ": 213,
      "කෙ‍": 214,
      "කේ": 215,
      "කේ‍": 216,
      "කෛ": 217,
      "කො": 218,
      "කොං": 219,
      "කොා": 220,
      "කොෙ": 221,
      "කො‍": 222,
      "කෝ": 223,
      "කෝ‍": 224,
      "කෞ": 225,
      "කෲ": 226,
      "ක‍": 227,
      "ක‍්": 228,
      "ක‍්‍": 229,
      "ක‍ා": 230,
      "ඛ": 231,
      "ඛ්": 232,
      "ඛ්‍": 233,
      "ඛා": 234,
      "ඛාං": 235,
      "ඛෑ": 236,
      "ඛි": 237,
      "ඛී": 238,
      "ඛෙ": 239,
      "ඛේ": 240,
      "ඛෝ": 241,
      "ඛ‍": 242,
      "ග": 243,
      "ගං": 244,
      "ග්": 245,
      "ග්‍": 246,
      "ගා": 247,
      "ගාං": 248,
      "ගාෙ": 249,
      "ගා‍": 250,
      "ගැ": 251,
      "ගැං": 252,
      "ගැ‍": 253,
      "ගෑ": 254,
      "ගි": 255,
      "ගිෙ": 256,
      "ගි‍": 257,
      "ගී": 258,
      "ගු": 259,
      "ගුං": 260,
      "ගු‍": 261,
      "ගූ": 262,
      "ගෘ": 263,
      "ගෙ": 264,
      "ගෙං": 265,
      "ගේ": 266,
      "ගෙි": 267,
      "ගෙු": 268,
      "ගෙෙ": 269,
      "ගෞ": 270,
      "ගෙ‍": 271,
      "ගේ": 272,
      "ගේ්": 273,
      "ගේ‍": 274,
      "ගො": 275,
      "ගොං": 276,
      "ගො‍": 277,
      "ගෝ": 278,
      "ගෝ‍": 279,
      "ගෞ": 280,
      "ගෟ": 281,
      "ගෲ": 282,
      "ග‍": 283,
      "ඝ": 284,
      "ඝ්": 285,
      "ඝ්‍": 286,
      "ඝා": 287,
      "ඝූ": 288,
      "ඝෘ": 289,
      "ඝෝ": 290,
      "ඞ": 291,
      "ඞු": 292,
      "ඟ": 293,
      "ඟා": 294,
      "ඟෑ": 295,
      "ඟි": 296,
      "ඟී": 297,
      "ඟු": 298,
      "ඟෙ": 299,
      "ඟේ": 300,
      "ච": 301,
      "චං": 302,
      "ච්": 303,
      "ච්ෙ": 304,
      "ච්‍‍": 305,
      "චා": 306,
      "චැ": 307,
      "චෑ": 308,
      "චි": 309,
      "චිං": 310,
      "චි‍": 311,
      "චී": 312,
      "චු": 313,
      "චූ": 314,
      "චෙ": 315,
      "චේ": 316,
      "චො": 317,
      "චේ": 318,
      "චො": 319,
      "චෝ": 320,
      "චෞ": 321,
      "ච‍": 322,
      "ඡ": 323,
      "ඡා": 324,
      "ඡී": 325,
      "ඡේ": 326,
      "ජ": 327,
      "ජං": 328,
      "ජ්": 329,
      "ජ්‍": 330,
      "ජා": 331,
      "ජා‍": 332,
      "ජැ": 333,
      "ජෑ": 334,
      "ජි": 335,
      "ජිං": 336,
      "ජි‍": 337,
      "ජී": 338,
      "ජී‍": 339,
      "ජු": 340,
      "ජූ": 341,
      "ජෙ": 342,
      "ජේ": 343,
      "ජො": 344,
      "ජෙි": 345,
      "ජේ": 346,
      "ජෛ": 347,
      "ජො": 348,
      "ජෝ": 349,
      "ජ‍": 350,
      "ජ‍්": 351,
      "ඤ": 352,
      "ඤං": 353,
      "ඤ්": 354,
      "ඤා": 355,
      "ඥ": 356,
      "ඥ්": 357,
      "ඥා": 358,
      "ට": 359,
      "ටං": 360,
      "ට්": 361,
      "ට්‍": 362,
      "ට්‍‍": 363,
      "ටා": 364,
      "ටැ": 365,
      "ටැං": 366,
      "ටෑ": 367,
      "ටි": 368,
      "ටිං": 369,
      "ටිෙ": 370,
      "ටි‍": 371,
      "ටී": 372,
      "ටු": 373,
      "ටු‍": 374,
      "ටූ": 375,
      "ටෙ": 376,
      "ටේ": 377,
      "ටේ‍": 378,
      "ටො": 379,
      "ටෙේ‍": 380,
      "ටේ": 381,
      "ටේ‍": 382,
      "ටෛ": 383,
      "ටො": 384,
      "ටෝ": 385,
      "ටෝ‍": 386,
      "ටෲ": 387,
      "ට‍": 388,
      "ඨ": 389,
      "ඨා": 390,
      "ඨාං": 391,
      "ඨි": 392,
      "ඨු‍‍": 393,
      "ඩ": 394,
      "ඩං": 395,
      "ඩං‍‍": 396,
      "ඩ්": 397,
      "ඩ්‍": 398,
      "ඩ්‍‍": 399,
      "ඩා": 400,
      "ඩාං": 401,
      "ඩා‍": 402,
      "ඩැ": 403,
      "ඩෑ": 404,
      "ඩි": 405,
      "ඩිං": 406,
      "ඩිෙ": 407,
      "ඩි‍": 408,
      "ඩී": 409,
      "ඩු": 410,
      "ඩු‍": 411,
      "ඩූ": 412,
      "ඩෘ": 413,
      "ඩෙ": 414,
      "ඩෙං": 415,
      "ඩේ": 416,
      "ඩො": 417,
      "ඩෙි": 418,
      "ඩේ": 419,
      "ඩේෙ": 420,
      "ඩේ‍": 421,
      "ඩො": 422,
      "ඩෝ": 423,
      "ඩෲ": 424,
      "ඩ‍": 425,
      "ඪ": 426,
      "ණ": 427,
      "ණං": 428,
      "ණ්": 429,
      "ණ්ෙ": 430,
      "ණ්‍": 431,
      "ණ්‍‍": 432,
      "ණා": 433,
      "ණාං": 434,
      "ණැ": 435,
      "ණෑ": 436,
      "ණි": 437,
      "ණී": 438,
      "ණු": 439,
      "ණූ": 440,
      "ණෘ": 441,
      "ණෙ": 442,
      "ණේ": 443,
      "ණො": 444,
      "ණෙු": 445,
      "ණෙෝ": 446,
      "ණේ": 447,
      "ණො": 448,
      "ණෝ": 449,
      "ණෟ": 450,
      "ණ‍": 451,
      "ඬ": 452,
      "ඬා": 453,
      "ඬි": 454,
      "ඬු": 455,
      "ඬේ": 456,
      "ත": 457,
      "තං": 458,
      "ත්": 459,
      "ත්ා": 460,
      "ත්ෙ": 461,
      "ත්‍": 462,
      "ත්‍‍": 463,
      "තා": 464,
      "තාං": 465,
      "තා‍": 466,
      "තැ": 467,
      "තැ‍": 468,
      "තෑ": 469,
      "ති": 470,
      "තිං": 471,
      "තිා": 472,
      "තිෙ": 473,
      "ති‍": 474,
      "තී": 475,
      "තු": 476,
      "තුං": 477,
      "තුෙ": 478,
      "තු‍": 479,
      "තූ": 480,
      "තූ‍": 481,
      "තෘ": 482,
      "තෙ": 483,
      "තේ": 484,
      "තෙු": 485,
      "තෙ‍්": 486,
      "තේ": 487,
      "තේ‍": 488,
      "තො": 489,
      "තො‍": 490,
      "තෝ": 491,
      "තෞ": 492,
      "තෲ": 493,
      "ත‍": 494,
      "ත‍්‍": 495,
      "ථ": 496,
      "ථ්": 497,
      "ථ්‍": 498,
      "ථා": 499,
      "ථාං": 500,
      "ථි": 501,
      "ථී": 502,
      "ථු": 503,
      "ද": 504,
      "දං": 505,
      "ද්": 506,
      "ද්‍": 507,
      "ද්‍‍": 508,
      "දා": 509,
      "දාං": 510,
      "දා‍": 511,
      "දැ": 512,
      "දැං": 513,
      "දැෙ": 514,
      "දැ‍": 515,
      "දෑ": 516,
      "දි": 517,
      "දිං": 518,
      "දිං‍‍": 519,
      "දිෙ": 520,
      "දි‍": 521,
      "දී": 522,
      "දීං": 523,
      "දී‍": 524,
      "දු": 525,
      "දුෙ": 526,
      "දු‍": 527,
      "දූ": 528,
      "දෘ": 529,
      "දෙ": 530,
      "දේ": 531,
      "දෙි": 532,
      "දෙු": 533,
      "දෙෙ": 534,
      "දෙේ": 535,
      "දෙ‍": 536,
      "දේ": 537,
      "දේ‍": 538,
      "දෛ": 539,
      "දෛ්": 540,
      "දො": 541,
      "දොං": 542,
      "දො‍": 543,
      "දෝ": 544,
      "දෝං": 545,
      "දෞ": 546,
      "ද‍": 547,
      "ධ": 548,
      "ධ්": 549,
      "ධ්‍": 550,
      "ධා": 551,
      "ධැ": 552,
      "ධි": 553,
      "ධී": 554,
      "ධු": 555,
      "ධූ": 556,
      "ධෘ": 557,
      "ධෙ": 558,
      "ධේ": 559,
      "ධෛ": 560,
      "ධො": 561,
      "ධෝ": 562,
      "ධ‍": 563,
      "න": 564,
      "නං": 565,
      "නඃ": 566,
      "න්": 567,
      "න්ං": 568,
      "න්ා": 569,
      "න්ෙ": 570,
      "න්‍": 571,
      "න්‍ෙ": 572,
      "න්‍‍": 573,
      "න්‍‍‍": 574,
      "න්‍‍‍‍‍": 575,
      "නා": 576,
      "නාං": 577,
      "නාා": 578,
      "නා‍": 579,
      "නැ": 580,
      "නැං": 581,
      "නැෙ": 582,
      "නැ‍": 583,
      "නෑ": 584,
      "නෑෑ": 585,
      "නෑෙ": 586,
      "නි": 587,
      "නිං": 588,
      "නිෙ": 589,
      "නි‍": 590,
      "නී": 591,
      "නී‍": 592,
      "නු": 593,
      "නුෙ": 594,
      "නු‍": 595,
      "නූ": 596,
      "නූ‍": 597,
      "නෙ": 598,
      "නේ": 599,
      "නො": 600,
      "නෙැ": 601,
      "නෙි": 602,
      "නෙී": 603,
      "නෙු": 604,
      "නෙෙ": 605,
      "නෙෙි": 606,
      "නෙේ": 607,
      "නෙ‍": 608,
      "නේ": 609,
      "නේෙ": 610,
      "නේ‍": 611,
      "නෛ": 612,
      "නො": 613,
      "නො‍": 614,
      "නෝ": 615,
      "නෝ‍": 616,
      "නෞ": 617,
      "නෟ": 618,
      "න‍": 619,
      "න‍්": 620,
      "න‍්‍": 621,
      "න‍ේ": 622,
      "ඳ": 623,
      "ඳං": 624,
      "ඳ්": 625,
      "ඳා": 626,
      "ඳැ": 627,
      "ඳෑ": 628,
      "ඳි": 629,
      "ඳිං": 630,
      "ඳී": 631,
      "ඳු": 632,
      "ඳූ": 633,
      "ඳෙ": 634,
      "ඳේ": 635,
      "ප": 636,
      "පං": 637,
      "ප්": 638,
      "ප්‍": 639,
      "ප්‍‍": 640,
      "පා": 641,
      "පාං": 642,
      "පා‍": 643,
      "පැ": 644,
      "පැං": 645,
      "පැු": 646,
      "පැ‍": 647,
      "පෑ": 648,
      "පෑ‍": 649,
      "පි": 650,
      "පිං": 651,
      "පිි": 652,
      "පිෙ": 653,
      "පි‍": 654,
      "පී": 655,
      "පු": 656,
      "පුං": 657,
      "පුු": 658,
      "පුෙ": 659,
      "පු‍": 660,
      "පූ": 661,
      "පූෙ": 662,
      "පූ‍": 663,
      "පෘ": 664,
      "පෙ": 665,
      "පේ": 666,
      "පො": 667,
      "පෙෙ": 668,
      "පෞ": 669,
      "පෙ‍": 670,
      "පේ": 671,
      "පේ‍": 672,
      "පො": 673,
      "පෝ": 674,
      "පො‍": 675,
      "පෝ": 676,
      "පෞ": 677,
      "පෟ": 678,
      "ප‍": 679,
      "ප‍්‍": 680,
      "ඵ": 681,
      "ඵ්": 682,
      "බ": 683,
      "බං": 684,
      "බං‍": 685,
      "බං‍‍": 686,
      "බ්": 687,
      "බ්‍": 688,
      "බ්‍‍": 689,
      "බා": 690,
      "බැ": 691,
      "බැං": 692,
      "බැ‍": 693,
      "බැ‍‍": 694,
      "බෑ": 695,
      "බෑ‍": 696,
      "බි": 697,
      "බිං": 698,
      "බි‍": 699,
      "බි‍්‍": 700,
      "බී": 701,
      "බී‍": 702,
      "බු": 703,
      "බුු": 704,
      "බු‍": 705,
      "බූ": 706,
      "බෘ": 707,
      "බෙ": 708,
      "බෙං": 709,
      "බේ": 710,
      "බො": 711,
      "බෞ": 712,
      "බෙ‍": 713,
      "බේ": 714,
      "බේං": 715,
      "බේ‍": 716,
      "බෛ": 717,
      "බො": 718,
      "බොෙ": 719,
      "බො‍": 720,
      "බෝ": 721,
      "බෝං": 722,
      "බෝ‍": 723,
      "බෞ": 724,
      "බෲ": 725,
      "බ‍": 726,
      "භ": 727,
      "භං": 728,
      "භ්": 729,
      "භ්‍": 730,
      "භා": 731,
      "භි": 732,
      "භිෙ": 733,
      "භී": 734,
      "භු": 735,
      "භූ": 736,
      "භූ‍": 737,
      "භෙ": 738,
      "භේ": 739,
      "භෛ": 740,
      "භෝ": 741,
      "භෞ": 742,
      "ම": 743,
      "මං": 744,
      "මං‍": 745,
      "මං‍‍": 746,
      "ම්": 747,
      "ම්ං": 748,
      "ම්ෙ": 749,
      "ම්‍": 750,
      "ම්‍‍": 751,
      "මා": 752,
      "මාං": 753,
      "මාෙ": 754,
      "මා‍": 755,
      "මැ": 756,
      "මැ‍": 757,
      "මෑ": 758,
      "මි": 759,
      "මිෙ": 760,
      "මි‍": 761,
      "මී": 762,
      "මු": 763,
      "මුං": 764,
      "මුෙ": 765,
      "මු‍": 766,
      "මු‍‍": 767,
      "මූ": 768,
      "මෘ": 769,
      "මෙ": 770,
      "මේ": 771,
      "මො": 772,
      "මෙි": 773,
      "මෙු": 774,
      "මෙෙ": 775,
      "මෙෙි": 776,
      "මෙේ": 777,
      "මෙ‍": 778,
      "මෙ‍ේ": 779,
      "මේ": 780,
      "මේී": 781,
      "මේෙ": 782,
      "මේ‍": 783,
      "මො": 784,
      "මො‍": 785,
      "මෝ": 786,
      "මෝ‍": 787,
      "මෞ": 788,
      "ම‍": 789,
      "ම‍ෙ": 790,
      "ම‍‍": 791,
      "ඹ": 792,
      "ඹා": 793,
      "ඹි": 794,
      "ඹී": 795,
      "ඹු": 796,
      "ඹෙ": 797,
      "ඹේ": 798,
      "ඹ‍": 799,
      "ය": 800,
      "යං": 801,
      "ය්": 802,
      "ය්‍": 803,
      "යා": 804,
      "යාං": 805,
      "යාා": 806,
      "යාෙ": 807,
      "යා‍": 808,
      "යැ": 809,
      "යැං": 810,
      "යැෙ": 811,
      "යෑ": 812,
      "යි": 813,
      "යිෙ": 814,
      "යි‍": 815,
      "යී": 816,
      "යු": 817,
      "යු‍": 818,
      "යූ": 819,
      "යෙ": 820,
      "යෙං": 821,
      "යේ": 822,
      "යො": 823,
      "යෙි": 824,
      "යෙෙි": 825,
      "යෙ‍": 826,
      "යේ": 827,
      "යෛ": 828,
      "යො": 829,
      "යෝ": 830,
      "යෞ": 831,
      "ය‍": 832,
      "ර": 833,
      "රං": 834,
      "රං‍‍": 835,
      "ර්": 836,
      "ර්්": 837,
      "ර්්‍": 838,
      "ර්ෙ": 839,
      "ර්‍": 840,
      "රා": 841,
      "රාං": 842,
      "රා‍": 843,
      "රැ": 844,
      "රැං": 845,
      "රැෙ": 846,
      "රැ‍": 847,
      "රෑ": 848,
      "රි": 849,
      "රිං": 850,
      "රිං‍‍": 851,
      "රිි": 852,
      "රිෙ": 853,
      "රි‍": 854,
      "රී": 855,
      "රීෙ": 856,
      "රී‍": 857,
      "රු": 858,
      "රුං": 859,
      "රුං‍‍": 860,
      "රුෙ": 861,
      "රු‍": 862,
      "රූ": 863,
      "රූෙ": 864,
      "රෘ": 865,
      "රෙ": 866,
      "රෙං": 867,
      "රේ": 868,
      "රො": 869,
      "රෙි": 870,
      "රෙී": 871,
      "රෙු": 872,
      "රෙෙ": 873,
      "රෙේ": 874,
      "රෙො": 875,
      "රෙ‍": 876,
      "රේ": 877,
      "රේා": 878,
      "රේෙ": 879,
      "රෛ": 880,
      "රො": 881,
      "රෝ": 882,
      "රෝං": 883,
      "රෝ‍": 884,
      "ර‍": 885,
      "ර‍්‍": 886,
      "ල": 887,
      "ලං": 888,
      "ලං‍": 889,
      "ල්": 890,
      "ල්‍": 891,
      "ල්‍‍": 892,
      "ලා": 893,
      "ලාං": 894,
      "ලාා": 895,
      "ලාෙ": 896,
      "ලා‍": 897,
      "ලැ": 898,
      "ලැෙ": 899,
      "ලැ‍": 900,
      "ලෑ": 901,
      "ලි": 902,
      "ලිං": 903,
      "ලිෙ": 904,
      "ලි‍": 905,
      "ලී": 906,
      "ලු": 907,
      "ලුෙ": 908,
      "ලු‍": 909,
      "ලූ": 910,
      "ලූ‍": 911,
      "ලෙ": 912,
      "ලේ": 913,
      "ලො": 914,
      "ලෝ": 915,
      "ලෙි": 916,
      "ලෙී": 917,
      "ලෙු": 918,
      "ලෙෙ": 919,
      "ලෙේ": 920,
      "ලෙේ": 921,
      "ලෙෝ": 922,
      "ලෙ‍": 923,
      "ලේ": 924,
      "ලේ‍": 925,
      "ලො": 926,
      "ලෝ": 927,
      "ලෝං": 928,
      "ලෝ‍": 929,
      "ල‍": 930,
      "ල‍‍": 931,
      "ව": 932,
      "වං": 933,
      "ව්": 934,
      "ව්‍": 935,
      "ව්‍‍": 936,
      "වා": 937,
      "වාං": 938,
      "වාෙ": 939,
      "වා‍": 940,
      "වැ": 941,
      "වැ‍": 942,
      "වෑ": 943,
      "වි": 944,
      "වි‍": 945,
      "වී": 946,
      "වී‍": 947,
      "වු": 948,
      "වුං": 949,
      "වුෙ": 950,
      "වු‍": 951,
      "වූ": 952,
      "වෘ": 953,
      "වෙ": 954,
      "වේ": 955,
      "වො": 956,
      "වෙැ": 957,
      "වෙි": 958,
      "වෙී": 959,
      "වෙ‍": 960,
      "වෙ‍‍": 961,
      "වේ": 962,
      "වේ‍": 963,
      "වෛ": 964,
      "වෛ‍": 965,
      "වො": 966,
      "වෝ": 967,
      "ව‍": 968,
      "ව‍ෙ": 969,
      "ව‍‍": 970,
      "ශ": 971,
      "ශං": 972,
      "ශ්": 973,
      "ශ්ං": 974,
      "ශ්‍": 975,
      "ශ්‍‍": 976,
      "ශා": 977,
      "ශාං": 978,
      "ශා‍": 979,
      "ශැ": 980,
      "ශැං": 981,
      "ශෑ": 982,
      "ශි": 983,
      "ශිං": 984,
      "ශී": 985,
      "ශී‍්‍": 986,
      "ශු": 987,
      "ශූ": 988,
      "ශෘං": 989,
      "ශෙ": 990,
      "ශෙි": 991,
      "ශේ": 992,
      "ශෛ": 993,
      "ශො": 994,
      "ශෝ": 995,
      "ශෝ": 996,
      "ශ‍": 997,
      "ෂ": 998,
      "ෂ්": 999,
      "ෂ්්‍": 1000,
      "ෂ්‍": 1001,
      "ෂා": 1002,
      "ෂාං": 1003,
      "ෂැ": 1004,
      "ෂි": 1005,
      "ෂිං": 1006,
      "ෂී": 1007,
      "ෂු": 1008,
      "ෂූ": 1009,
      "ෂෙ": 1010,
      "ෂේ": 1011,
      "ෂේ": 1012,
      "ෂො": 1013,
      "ෂෝ": 1014,
      "ෂ‍": 1015,
      "ස": 1016,
      "සං": 1017,
      "සං‍": 1018,
      "ස්": 1019,
      "ස්්": 1020,
      "ස්ෙ": 1021,
      "ස්‌": 1022,
      "ස්‍": 1023,
      "ස්‍‍": 1024,
      "සා": 1025,
      "සාං": 1026,
      "සාා": 1027,
      "සාෙ": 1028,
      "සා‍": 1029,
      "සැ": 1030,
      "සැ‍": 1031,
      "සෑ": 1032,
      "සි": 1033,
      "සිං": 1034,
      "සිෙ": 1035,
      "සි‍": 1036,
      "සී": 1037,
      "සී‍": 1038,
      "සු": 1039,
      "සුෙ": 1040,
      "සු‍": 1041,
      "සූ": 1042,
      "සූ‍": 1043,
      "සෘ": 1044,
      "සෙ": 1045,
      "සෙං": 1046,
      "සේ": 1047,
      "සො": 1048,
      "සෙි": 1049,
      "සෞ": 1050,
      "සෙ‍": 1051,
      "සේ": 1052,
      "සෛ": 1053,
      "සො": 1054,
      "සෝ": 1055,
      "සෞ": 1056,
      "සෟ": 1057,
      "ස‍": 1058,
      "ස‍්‍": 1059,
      "හ": 1060,
      "හං": 1061,
      "හඃ": 1062,
      "හ්": 1063,
      "හ්ං": 1064,
      "හ්‍": 1065,
      "හා": 1066,
      "හා‍": 1067,
      "හැ": 1068,
      "හැං": 1069,
      "හැෙ": 1070,
      "හැ‍": 1071,
      "හෑ": 1072,
      "හි": 1073,
      "හිං": 1074,
      "හිෙ": 1075,
      "හි‍": 1076,
      "හී": 1077,
      "හු": 1078,
      "හුෙ": 1079,
      "හු‍": 1080,
      "හූ": 1081,
      "හූ‍": 1082,
      "හෘ": 1083,
      "හෙ": 1084,
      "හෙං": 1085,
      "හො": 1086,
      "හෙෙ": 1087,
      "හෙේ": 1088,
      "හෙ‍": 1089,
      "හේ": 1090,
      "හේ‍": 1091,
      "හෛ": 1092,
      "හො": 1093,
      "හොං": 1094,
      "හො‍": 1095,
      "හෝ": 1096,
      "හෞ": 1097,
      "හෟ": 1098,
      "හ‍": 1099,
      "ළ": 1100,
      "ළං": 1101,
      "ළ්": 1102,
      "ළා": 1103,
      "ළැ": 1104,
      "ළෑ": 1105,
      "ළි": 1106,
      "ළී": 1107,
      "ළු": 1108,
      "ළුෙ": 1109,
      "ළු‍": 1110,
      "ළූ": 1111,
      "ළෙ": 1112,
      "ළො": 1113,
      "ළේ": 1114,
      "ළො": 1115,
      "ළෝ": 1116,
      "ළ‍": 1117,
      "ෆ": 1118,
      "ෆ්": 1119,
      "ෆ්‍": 1120,
      "ෆ්‍‍": 1121,
      "ෆා": 1122,
      "ෆා‍": 1123,
      "ෆැ": 1124,
      "ෆෑ": 1125,
      "ෆෑං": 1126,
      "ෆි": 1127,
      "ෆී": 1128,
      "ෆු": 1129,
      "ෆූ": 1130,
      "ෆෙ": 1131,
      "ෆේ": 1132,
      "ෆේ‍": 1133,
      "ෆො": 1134,
      "ෆෝ": 1135,
      "ෆෞ": 1136,
      "ෆ‍ෙ": 1137,
      "ා": 1138,
      "ී": 1139,
      "ෙ": 1140,
      "ො": 1141,
      "෴": 1142,
      "๑": 1143,
      "‌": 1144,
      "‍": 1145,
      "‍‍": 1146,
      "–": 1147,
      "—": 1148,
      "…": 1149,
      "∙": 1150,
      "►": 1151,
      "◄": 1152,
      "◢": 1153,
      "◣": 1154,
      "★": 1155,
      "☺": 1156,
      "♠": 1157,
      "♥": 1158,
      "♪": 1159,
      "♫": 1160,
      "❃": 1161,
      "❄": 1162,
      "න්න": 1163,
      "ඔයා": 1164,
      "..": 1165,
      "කර": 1166,
      "මම": 1167,
      "කිය": 1168,
      "නවා": 1169,
      "මට": 1170,
      "න්නේ": 1171,
      "එයා": 1172,
      "...": 1173,
      "අපි": 1174,
      "ඒක": 1175,
      "යක්": 1176,
      "එක": 1177,
      "කරන්න": 1178,
      "ගන්න": 1179,
      "නව": 1180,
      "හරි": 1181,
      "න්නෙ": 1182,
      "ඔයාට": 1183,
      "කියලා": 1184,
      "යට": 1185,
      "ත්ත": 1186,
      "නම්": 1187,
      "මොක": 1188,
      "තියෙ": 1189,
      "වන්": 1190,
      "මගේ": 1191,
      "ඉන්න": 1192,
      "යන්න": 1193,
      "වෙන්න": 1194,
      "වත්": 1195,
      "මයි": 1196,
      "වගේ": 1197,
      "තර": 1198,
      "ගැන": 1199,
      "බල": 1200,
      "වෙලා": 1201,
      "මේක": 1202,
      "ක්ක": 1203,
      "නැහැ": 1204,
      "දැන්": 1205,
      "ඔහු": 1206,
      "ගෙන": 1207,
      "වක්": 1208,
      "හිත": 1209,
      "එහෙ": 1210,
      "ල්ල": 1211,
      "දන්න": 1212,
      "ටම": 1213,
      "වල": 1214,
      "ප්‍ර": 1215,
      "නවද": 1216,
      "කට": 1217,
      "තිය": 1218,
      "ඔබ": 1219,
      "අපිට": 1220,
      "එක්ක": 1221,
      "මක්": 1222,
      "හොම": 1223,
      "දෙයක්": 1224,
      "මිනි": 1225,
      "එන්න": 1226,
      "තන": 1227,
      "ඕන": 1228,
      "හොඳ": 1229,
      "වෙන": 1230,
      "එපා": 1231,
      "ඒත්": 1232,
      "දෙන්න": 1233,
      "ගත්": 1234,
      "ලින්": 1235,
      "ද්ද": 1236,
      "අර": 1237,
      "කතා": 1238,
      "ඔයාගේ": 1239,
      "වට": 1240,
      "ඩක්": 1241,
      "කියන්න": 1242,
      "දර": 1243,
      "කවු": 1244,
      "මාව": 1245,
      "ඔව්": 1246,
      "තමයි": 1247,
      "නය": 1248,
      "කිව්": 1249,
      "පුළු": 1250,
      "අව": 1251,
      "කියල": 1252,
      "මොකද": 1253,
      "මොකක්": 1254,
      "කොහොම": 1255,
      "හැම": 1256,
      "ඕනේ": 1257,
      "පුළුවන්": 1258,
      "යෙන්": 1259,
      "මහ": 1260,
      "වෙයි": 1261,
      "ස්ස": 1262,
      "බලන්න": 1263,
      "වන්න": 1264,
      "රක්": 1265,
      "වෙනවා": 1266,
      "කරනවා": 1267,
      "නෙක්": 1268,
      "එහෙම": 1269,
      "ඇති": 1270,
      "යන්": 1271,
      "තියෙනවා": 1272,
      "ඇත්ත": 1273,
      "ඇයි": 1274,
      "විදි": 1275,
      "ඇය": 1276,
      "මන්": 1277,
      "සහ": 1278,
      "කොහොමද": 1279,
      "යෙක්": 1280,
      "එකක්": 1281,
      "හිටි": 1282,
      "වර": 1283,
      "වුන්": 1284,
      "මෙහෙ": 1285,
      "හොද": 1286,
      "වද": 1287,
      "කරලා": 1288,
      "ලට": 1289,
      "නැති": 1290,
      "වැඩ": 1291,
      "පස්": 1292,
      "වෙන්": 1293,
      "ටික": 1294,
      "නිය": 1295,
      "කෙනෙක්": 1296,
      "අපේ": 1297,
      "ඔයාගෙ": 1298,
      "දැන": 1299,
      "කාර": 1300,
      "අහ": 1301,
      "පුලු": 1302,
      "කරන්නේ": 1303,
      "ඔයාව": 1304,
      "වාස": 1305,
      "කොට": 1306,
      "ඔවුන්": 1307,
      "එයාට": 1308,
      "ඔය": 1309,
      "ච්ච": 1310,
      "ස්සු": 1311,
      "පුලුවන්": 1312,
      "තව": 1313,
      "∙∙": 1314,
      "දන්නවා": 1315,
      "විතර": 1316,
      "උඹ": 1317,
      "මෙතන": 1318,
      "මර": 1319,
      "අද": 1320,
      "මොකක්ද": 1321,
      "තින්": 1322,
      "මත": 1323,
      "in": 1324,
      "තියි": 1325,
      "සර්": 1326,
      "වල්": 1327,
      "කව": 1328,
      "කිසි": 1329,
      "කැම": 1330,
      "ම්බ": 1331,
      "වුනා": 1332,
      "හොයා": 1333,
      "කරු": 1334,
      "ඇතු": 1335,
      "දව": 1336,
      "නිසා": 1337,
      "කලා": 1338,
      "යනවා": 1339,
      "විශ්": 1340,
      "කියන්නේ": 1341,
      "උද": 1342,
      "කරන": 1343,
      "තැන": 1344,
      "ගොඩක්": 1345,
      "සමා": 1346,
      "ණය": 1347,
      "අවු": 1348,
      "වලට": 1349,
      "වගේම": 1350,
      "බලා": 1351,
      "අම්": 1352,
      "අයි": 1353,
      "හොඳයි": 1354,
      "ඉන්නේ": 1355,
      "ඉන්නවා": 1356,
      "ටන්": 1357,
      "කවුද": 1358,
      "කින්": 1359,
      "ගත්තා": 1360,
      "ඉතින්": 1361,
      "විශ්වාස": 1362,
      "මත්": 1363,
      "නේද": 1364,
      "කම්": 1365,
      "තියෙන්නේ": 1366,
      "හින්": 1367,
      "තාත්": 1368,
      "නැත්": 1369,
      "පහ": 1370,
      "සන්": 1371,
      "මගෙ": 1372,
      "කලින්": 1373,
      "ඕනෙ": 1374,
      "ච්චර": 1375,
      "කොහෙ": 1376,
      "කෙන්": 1377,
      "නයක්": 1378,
      "මොනවද": 1379,
      "පහු": 1380,
      "එයාව": 1381,
      "ඇත්තටම": 1382,
      "න්ද": 1383,
      "දන්නේ": 1384,
      "තුව": 1385,
      "යන්නේ": 1386,
      "වෙන්නේ": 1387,
      "on": 1388,
      "නෙවෙයි": 1389,
      "ටර්": 1390,
      "එයාල": 1391,
      "අනි": 1392,
      "මිනිස්සු": 1393,
      "an": 1394,
      "යන": 1395,
      "තිබු": 1396,
      "උදව්": 1397,
      "ප්‍රශ්": 1398,
      "er": 1399,
      "වය": 1400,
      "ඉක්": 1401,
      "තුරු": 1402,
      "දේවල්": 1403,
      "it": 1404,
      "ආරක්": 1405,
      "හිතන්නේ": 1406,
      "කියන": 1407,
      "වෙනු": 1408,
      "ගෙදර": 1409,
      "මොන": 1410,
      "සිය": 1411,
      "උන්": 1412,
      "එකට": 1413,
      "කවුරු": 1414,
      "විය": 1415,
      "වැඩි": 1416,
      "ලක්": 1417,
      "පරි": 1418,
      "ටිකක්": 1419,
      "ල්ලි": 1420,
      "අය": 1421,
      "වඩා": 1422,
      "ඒකට": 1423,
      "ආපහු": 1424,
      "මතක": 1425,
      "ගිහින්": 1426,
      "විතරයි": 1427,
      "හට": 1428,
      "සමාවෙන්න": 1429,
      "විට": 1430,
      "සමහ": 1431,
      "කන්": 1432,
      "නින්": 1433,
      "හරියට": 1434,
      "රක": 1435,
      "ඇවි": 1436,
      "කවදා": 1437,
      "යයි": 1438,
      "ක්ෂ": 1439,
      "ගියා": 1440,
      "සක්": 1441,
      "මන": 1442,
      "ගන්නවා": 1443,
      "කරන්නෙ": 1444,
      "ජීවි": 1445,
      "එහෙනම්": 1446,
      "නම": 1447,
      "කුත්": 1448,
      "තේරු": 1449,
      "කිසිම": 1450,
      "ද්ධ": 1451,
      "ඉවර": 1452,
      "රය": 1453,
      "ගහ": 1454,
      "සමහර": 1455,
      "ඔබට": 1456,
      "රියා": 1457,
      "අල්ල": 1458,
      "නැද්ද": 1459,
      "සතු": 1460,
      "me": 1461,
      "මුත්": 1462,
      "එයාගේ": 1463,
      "ඔක්": 1464,
      "ල්ලා": 1465,
      "බැරි": 1466,
      "තියෙන": 1467,
      "පස්සෙ": 1468,
      "මින්": 1469,
      "වෙනුවෙන්": 1470,
      "හිතු": 1471,
      "ගෙන්": 1472,
      "ගත": 1473,
      "ස්තු": 1474,
      "තමා": 1475,
      "එත": 1476,
      "එයාලා": 1477,
      "හමු": 1478,
      "වයි": 1479,
      "තමු": 1480,
      "ගත්ත": 1481,
      "ත්තු": 1482,
      "ස්ථා": 1483,
      "බැහැ": 1484,
      "කැමති": 1485,
      "00": 1486,
      "න්නා": 1487,
      "මොනා": 1488,
      "කරා": 1489,
      "වන": 1490,
      "හැමෝ": 1491,
      "අත": 1492,
      "කිරී": 1493,
      "පස්සේ": 1494,
      "න්ට": 1495,
      "or": 1496,
      "කියන්නෙ": 1497,
      "කාර්": 1498,
      "දෙක": 1499,
      "යක": 1500,
      "නමුත්": 1501,
      "එනවා": 1502,
      "එකේ": 1503,
      "ලොකු": 1504,
      "කවදාවත්": 1505,
      "at": 1506,
      "කල": 1507,
      "පන්": 1508,
      "කල්": 1509,
      "ඒවා": 1510,
      "කොහෙද": 1511,
      "කිව්වා": 1512,
      "අහන්න": 1513,
      "අප": 1514,
      "වනේ": 1515,
      "තාත්තා": 1516,
      "වර්": 1517,
      "ඔයාල": 1518,
      "රුදු": 1519,
      "ඕනා": 1520,
      "සම්": 1521,
      "වෙන්නෙ": 1522,
      "ත්ම": 1523,
      "වුනේ": 1524,
      "හොදයි": 1525,
      "යමු": 1526,
      "එතකොට": 1527,
      "එලි": 1528,
      "ඔක්කො": 1529,
      "උනා": 1530,
      "වැර": 1531,
      "විනා": 1532,
      "රම": 1533,
      "කාල": 1534,
      "වෙනස්": 1535,
      "පොඩි": 1536,
      "මොකද්ද": 1537,
      "වහ": 1538,
      "හේයි": 1539,
      "එය": 1540,
      "හස්": 1541,
      "කරුණා": 1542,
      "කලේ": 1543,
      "පිට": 1544,
      "නැව": 1545,
      "දාන්න": 1546,
      "තත්": 1547,
      "මැරු": 1548,
      "ඔහ්": 1549,
      "සම": 1550,
      "අන්": 1551,
      "හැකි": 1552,
      "උත්": 1553,
      "හද": 1554,
      "මාරු": 1555,
      "තිබ්": 1556,
      "කය": 1557,
      "පත්": 1558,
      "ඔක්කොම": 1559,
      "රිය": 1560,
      "තියෙන්නෙ": 1561,
      "අනේ": 1562,
      "දන්නවද": 1563,
      "හිටියේ": 1564,
      "∙∙∙": 1565,
      "ත්‍ර": 1566,
      "මෙයි": 1567,
      "මෙයා": 1568,
      "තුර": 1569,
      "ar": 1570,
      "දැක්": 1571,
      "වලින්": 1572,
      "කළා": 1573,
      "ඉන්නෙ": 1574,
      "නක්": 1575,
      "ඔයාලා": 1576,
      "තියනවා": 1577,
      "කෙනා": 1578,
      "හිතන්නෙ": 1579,
      "වැරදි": 1580,
      "එක්": 1581,
      "ඔහුට": 1582,
      "නියමයි": 1583,
      "නෙමෙයි": 1584,
      "රණ": 1585,
      "ඉඳ": 1586,
      "සල්ලි": 1587,
      "තරම්": 1588,
      "විදිහට": 1589,
      "කරගන්න": 1590,
      "ඉද": 1591,
      "ඔහේ": 1592,
      "නියම": 1593,
      "අවුරුදු": 1594,
      "පටන්": 1595,
      "ට්ටු": 1596,
      ".\"": 1597,
      "අත්": 1598,
      "එකම": 1599,
      "ටද": 1600,
      "බය": 1601,
      "වුන": 1602,
      "දුර": 1603,
      "වැඩක්": 1604,
      "තියා": 1605,
      "සට": 1606,
      "කරපු": 1607,
      "හරිද": 1608,
      "වෙලාව": 1609,
      "පිරි": 1610,
      "පොරො": 1611,
      "නැත්නම්": 1612,
      "බව": 1613,
      "ච්චි": 1614,
      "ල්ලෙ": 1615,
      "th": 1616,
      "යාළු": 1617,
      "වම": 1618,
      "තය": 1619,
      "හොඳි": 1620,
      "දිහා": 1621,
      "ආවේ": 1622,
      "ට්ටි": 1623,
      "සයි": 1624,
      "කයි": 1625,
      "ලැබු": 1626,
      "අවශ්‍": 1627,
      "කිව්වේ": 1628,
      "ඔබේ": 1629,
      "හොයාගන්න": 1630,
      "එතන": 1631,
      "නවත්ත": 1632,
      "න්ධ": 1633,
      "වාර්": 1634,
      "ආද": 1635,
      "සම්බ": 1636,
      "ස්තූ": 1637,
      "නවත්": 1638,
      "කමක්": 1639,
      "එලියට": 1640,
      "පාල": 1641,
      "ගය": 1642,
      "විදියට": 1643,
      "ඊට": 1644,
      "මැරෙ": 1645,
      "මොනවා": 1646,
      "නැතුව": 1647,
      "තුවක්": 1648,
      "රෙන්": 1649,
      "ඇවිත්": 1650,
      "ඇහු": 1651,
      "වෙනි": 1652,
      "ලග": 1653,
      "ඕනි": 1654,
      "හැමෝම": 1655,
      "පල": 1656,
      "බොරු": 1657,
      "ප්‍රති": 1658,
      "පෙන්": 1659,
      "උප": 1660,
      "st": 1661,
      "යන්නෙ": 1662,
      "ity": 1663,
      "අඩු": 1664,
      "වෙඩි": 1665,
      "හොදි": 1666,
      "කරල": 1667,
      "ගමන්": 1668,
      "දන්නෙ": 1669,
      "පාර": 1670,
      "කියනවා": 1671,
      "City": 1672,
      "අම්මා": 1673,
      "පොඩ්": 1674,
      "පිළි": 1675,
      "අන": 1676,
      "සිදු": 1677,
      "වැඩේ": 1678,
      "දැක්ක": 1679,
      "සුන්": 1680,
      "පැත්ත": 1681,
      "න්දු": 1682,
      "නයි": 1683,
      "මෙහේ": 1684,
      "ගැනී": 1685,
      "යුතු": 1686,
      "එයාගෙ": 1687,
      "පුතා": 1688,
      "ගිය": 1689,
      "වෙක්": 1690,
      "දකි": 1691,
      "පරී": 1692,
      "පැහැ": 1693,
      "හිටියා": 1694,
      "ආදර": 1695,
      "දැනගන්න": 1696,
      "නග": 1697,
      "ක්‍රියා": 1698,
      "මොනාද": 1699,
      "ටින්": 1700,
      "නොත්": 1701,
      "සහෝ": 1702,
      "අරන්": 1703,
      "තාත්ත": 1704,
      "අරගෙන": 1705,
      "රයක්": 1706,
      "පසු": 1707,
      "ස්තුතියි": 1708,
      "ou": 1709,
      "ame": 1710,
      "තේරෙ": 1711,
      "අපිව": 1712,
      "පොලි": 1713,
      "එත්": 1714,
      "කොච්චර": 1715,
      "දෙනවා": 1716,
      "වාහ": 1717,
      "හම්බ": 1718,
      "න්ම": 1719,
      "ඒයි": 1720,
      "එළි": 1721,
      "වොත්": 1722,
      "ලස්ස": 1723,
      "ර්ණ": 1724,
      "es": 1725,
      "සම්බන්ධ": 1726,
      "නරක": 1727,
      "ඉක්මන": 1728,
      "න්‍ය": 1729,
      "ලබා": 1730,
      "en": 1731,
      "ත්තෙ": 1732,
      "ආවා": 1733,
      "ඔහුව": 1734,
      "අනු": 1735,
      "එන": 1736,
      "යින්": 1737,
      "ලය": 1738,
      "ඒකෙන්": 1739,
      "kg": 1740,
      "කැමතියි": 1741,
      "සිටි": 1742,
      "සර": 1743,
      "උඩ": 1744,
      "උබ": 1745,
      "පිස්සු": 1746,
      "kgm": 1747,
      "යාලු": 1748,
      "ගත්තේ": 1749,
      "සල": 1750,
      "කම": 1751,
      "හිට": 1752,
      "ආරක්ෂා": 1753,
      "එයාලට": 1754,
      "පොඩ්ඩක්": 1755,
      "සමහරවිට": 1756,
      "තියන්න": 1757,
      "උනේ": 1758,
      "දැනෙ": 1759,
      "යෙන්ම": 1760,
      "කණ්": 1761,
      "ස්තූතියි": 1762,
      "රහ": 1763,
      "වුණා": 1764,
      "අනිත්": 1765,
      "ජීවත්": 1766,
      "වීම": 1767,
      "මාර්": 1768,
      "නෙමේ": 1769,
      "පත": 1770,
      "ස්තර": 1771,
      "දෙයක්ම": 1772,
      "හන්": 1773,
      "වනවා": 1774,
      "පැන": 1775,
      "වේවි": 1776,
      "සෙල්ල": 1777,
      "ඇතුලට": 1778,
      "එච්චර": 1779,
      "කර්": 1780,
      "දරු": 1781,
      "ලිය": 1782,
      "හැදු": 1783,
      "ඩාය": 1784,
      "කරුණාකරලා": 1785,
      "ඇයට": 1786,
      "සඳ": 1787,
      "පවු": 1788,
      "ගල": 1789,
      "යාව": 1790,
      "ජැක්": 1791,
      "ළම": 1792,
      "මාත්": 1793,
      "හිර": 1794,
      "අන්ති": 1795,
      "වෙනව": 1796,
      "අමාරු": 1797,
      "මෙන්න": 1798,
      "රස්": 1799,
      "හිතනවා": 1800,
      "ට්ට": 1801,
      "අවශ්‍ය": 1802,
      "මෙන්": 1803,
      "ගොඩ": 1804,
      "දෙවිය": 1805,
      "කියලද": 1806,
      "මගු": 1807,
      "කොහේ": 1808,
      "තාව": 1809,
      "ඉඩ": 1810,
      "ඉවරයි": 1811,
      "ළඟ": 1812,
      "තවත්": 1813,
      "කිව්වෙ": 1814,
      "මරන්න": 1815,
      "කාට": 1816,
      "පුලුවන්ද": 1817,
      "සාමා": 1818,
      "ටුයි": 1819,
      "කුණු": 1820,
      "ion": 1821,
      "හොඳින්": 1822,
      "ලැබෙ": 1823,
      "ඉක්මනට": 1824,
      "නැවත": 1825,
      "ඉදි": 1826,
      "ණයක්": 1827,
      "නැගි": 1828,
      "තාම": 1829,
      "පුදු": 1830,
      "මෝඩ": 1831,
      "ඕක": 1832,
      "තියන": 1833,
      "ජන": 1834,
      "අතර": 1835,
      "ප්‍රශ්නයක්": 1836,
      "ලයි": 1837,
      "මනු": 1838,
      "අලු": 1839,
      "දෙවි": 1840,
      "කට්ටි": 1841,
      "තුවක්කු": 1842,
      "උන": 1843,
      "රෙයි": 1844,
      "කණ්ඩාය": 1845,
      "ක්ස්": 1846,
      "මහත්ත": 1847,
      "විසි": 1848,
      "ඔහුගේ": 1849,
      "ඔයාලට": 1850,
      "නට": 1851,
      "සක": 1852,
      "වරු": 1853,
      "ඇයව": 1854,
      "දන්නව": 1855,
      "al": 1856,
      "ඔයත්": 1857,
      "තේරුම්": 1858,
      "ගන්නේ": 1859,
      "ආයෙ": 1860,
      "මුහු": 1861,
      "බලාගෙන": 1862,
      "උඹට": 1863,
      "නැත්ත": 1864,
      "අදහ": 1865,
      "රිකා": 1866,
      "දේම": 1867,
      "දොර": 1868,
      "දිග": 1869,
      "දාලා": 1870,
      "ගොනු": 1871,
      "ම්ම්": 1872,
      "මිය": 1873,
      "දුව": 1874,
      "අවස්ථා": 1875,
      "ස්ති": 1876,
      "හර": 1877,
      "ටත්": 1878,
      "ගයක්": 1879,
      "එකෙන්": 1880,
      "කරයි": 1881,
      "ඒවගේම": 1882,
      "තුමා": 1883,
      "ඉස්ස": 1884,
      "කරන්නම්": 1885,
      "න්ව": 1886,
      "Name": 1887,
      "පර්": 1888,
      "ල්ලෝ": 1889,
      "තාත්තේ": 1890,
      "කිවු": 1891,
      "තියෙනවද": 1892,
      "ලඟ": 1893,
      "ක්‍රම": 1894,
      "ඉක්ම": 1895,
      "අයින්": 1896,
      "බේර": 1897,
      "is": 1898,
      "මග": 1899,
      "පැහැදි": 1900,
      "කොල්ල": 1901,
      "කරනව": 1902,
      "දින": 1903,
      "විහි": 1904,
      "දෙවියනේ": 1905,
      "රයි": 1906,
      "හිතන්න": 1907,
      "සුම්": 1908,
      "le": 1909,
      "අමතක": 1910,
      "විනාශ": 1911,
      "මුණ": 1912,
      "ලර්": 1913,
      "නිර්": 1914,
      "හාට": 1915,
      "මොනව": 1916,
      "ic": 1917,
      "තියනව": 1918,
      "ලන්": 1919,
      "ල්ලෙක්": 1920,
      "මෙහෙට": 1921,
      "කරේ": 1922,
      "ඉතිං": 1923,
      "ගාව": 1924,
      "--": 1925,
      "සිද්ධ": 1926,
      "ආදරෙයි": 1927,
      "වැද": 1928,
      "දැක්කා": 1929,
      "කරනවද": 1930,
      "ද්දි": 1931,
      "රන්": 1932,
      "නිද": 1933,
      "හැටි": 1934,
      "සහෝදර": 1935,
      "දය": 1936,
      "සඳහා": 1937,
      "පූර්ණ": 1938,
      "හොදින්": 1939,
      "ගියේ": 1940,
      "තොර": 1941,
      "ජීවිත": 1942,
      "ගණ": 1943,
      "පති": 1944,
      "තමුසෙ": 1945,
      "ඇම": 1946,
      "දැම්": 1947,
      "වච": 1948,
      "කෑම": 1949,
      "විනාඩි": 1950,
      "වැදගත්": 1951,
      "පර": 1952,
      "කරමු": 1953,
      "හම්": 1954,
      "සැක": 1955,
      "කරදර": 1956,
      "තනින්": 1957,
      "අලුත්": 1958,
      "පාවි": 1959,
      "යකට": 1960,
      "ස්ම": 1961,
      "එකතු": 1962,
      "රණය": 1963,
      "ෂක": 1964,
      "නැත්තේ": 1965,
      "මමයි": 1966,
      "නවත්තන්න": 1967,
      "හරිම": 1968,
      "දැන්ම": 1969,
      "එළියට": 1970,
      "අවසා": 1971,
      "ක්‍රී": 1972,
      "මුකුත්": 1973,
      "මුළු": 1974,
      "ඇත": 1975,
      "රිලා": 1976,
      "කෙල්ල": 1977,
      "කෝල්": 1978,
      "පස්ස": 1979,
      "ඇස්": 1980,
      "පාවිච්චි": 1981,
      "මේකට": 1982,
      "ටයි": 1983,
      "දවස්": 1984,
      "කාලෙ": 1985,
      "ජය": 1986,
      "ළමයි": 1987,
      "දේශ": 1988,
      "තයි": 1989,
      "ස්ටර්": 1990,
      "ව්‍යා": 1991,
      "ර්ථ": 1992,
      "නැත්තම්": 1993,
      "සේරම": 1994,
      "කියා": 1995,
      "ඉස්": 1996,
      "නිකන්": 1997,
      "කට්ටිය": 1998,
      "හිටිය": 1999,
      "විශේ": 2000,
      "විතරක්": 2001,
      "re": 2002,
      "විදිහ": 2003,
      "පහර": 2004,
      "අරි": 2005,
      "ලෝක": 2006,
      "මිනිහෙ": 2007,
      "පුදුම": 2008,
      "වතා": 2009,
      "to": 2010,
      "තිබුනා": 2011,
      "කන්න": 2012,
      "පාරක්": 2013,
      "හැර": 2014,
      "ශක්": 2015,
      "නැතිව": 2016,
      "ව්වා": 2017,
      "10": 2018,
      "යුධ": 2019,
      "ඉදිරි": 2020,
      "අහ්": 2021,
      "පරීක්ෂ": 2022,
      "ගන්": 2023,
      "දක්": 2024,
      "හායි": 2025,
      "වන්නේ": 2026,
      "තාමත්": 2027,
      "ලෙන්": 2028,
      "තමන්": 2029,
      "උත්සහ": 2030,
      "වතුර": 2031,
      "සම්පූර්ණ": 2032,
      "දුන්නා": 2033,
      "ඩය": 2034,
      "කරගෙන": 2035,
      "el": 2036,
      "ia": 2037,
      "කාමර": 2038,
      "පින්": 2039,
      "ඔවුන්ට": 2040,
      "වුනත්": 2041,
      "දෙන": 2042,
      "මෙතනින්": 2043,
      "වලා": 2044,
      "දකින්න": 2045,
      "මිනිහා": 2046,
      "කඩ": 2047,
      "ගන්නම්": 2048,
      "සටන්": 2049,
      "කළේ": 2050,
      "ජීවිතේ": 2051,
      "පැහැදිලි": 2052,
      "පොරොන්දු": 2053,
      "බලාපොරො": 2054,
      "හරියටම": 2055,
      "මමත්": 2056,
      "සුභ": 2057,
      "නාව": 2058,
      "එන්නම්": 2059,
      "අන්න": 2060,
      "සැල": 2061,
      "දැනටම": 2062,
      "හයි": 2063,
      "පිටි": 2064,
      "තියේ": 2065,
      "මොකටද": 2066,
      "හැමදේම": 2067,
      "ආර": 2068,
      "ඔහොම": 2069,
      "ල්ලු": 2070,
      "දැනු": 2071,
      "බිරි": 2072,
      "කෙන": 2073,
      "කණ": 2074,
      "පළ": 2075,
      "තුන්": 2076,
      "පිය": 2077,
      "හදන්නේ": 2078,
      "දිය": 2079,
      "ගම": 2080,
      "උදවු": 2081,
      "තර්": 2082,
      "කළ": 2083,
      "ලින්ම": 2084,
      "දෙවියන්": 2085,
      "දානම්": 2086,
      "සාමාන්‍ය": 2087,
      "om": 2088,
      "අහු": 2089,
      "ඇද": 2090,
      "තියාගන්න": 2091,
      "සාහ": 2092,
      "ආවෙ": 2093,
      "මගෙන්": 2094,
      "SA": 2095,
      "මැරෙන්න": 2096,
      "හිටියෙ": 2097,
      "ඉස්සර": 2098,
      "දෙයි": 2099,
      "න්නෑ": 2100,
      "කාරයෙක්": 2101,
      "මිනිහෙක්": 2102,
      "හෙට": 2103,
      "රින්": 2104,
      "හිතුවේ": 2105,
      "විශේෂ": 2106,
      "මෙහෙම": 2107,
      "දුම්": 2108,
      "විද්‍": 2109,
      "හිතෙ": 2110,
      "පාලනය": 2111,
      "විත": 2112,
      "අවුලක්": 2113,
      "දෙන්නෙ": 2114,
      "හෙන්න": 2115,
      "හමුදා": 2116,
      "යනව": 2117,
      "මටත්": 2118,
      "ර්ශ": 2119,
      "ත්තේ": 2120,
      "nt": 2121,
      "අදහස්": 2122,
      "පුර": 2123,
      "මය": 2124,
      "රාධ": 2125,
      "දෙකක්": 2126,
      "හිතා": 2127,
      "as": 2128,
      "කිව්ව": 2129,
      "සාක්": 2130,
      "උත්සාහ": 2131,
      "කිරීම": 2132,
      "මුද": 2133,
      "ගුවන්": 2134,
      "බැලු": 2135,
      "පයක්": 2136,
      "දාගන්න": 2137,
      "උත්ත": 2138,
      "මනුස්ස": 2139,
      "ආදරය": 2140,
      "බලාපොරොත්තු": 2141,
      "කුණ": 2142,
      "මීට": 2143,
      "සතුට": 2144,
      "චාර්": 2145,
      "දැක්කද": 2146,
      "ow": 2147,
      "පැය": 2148,
      "කණගා": 2149,
      "නයේ": 2150,
      "හොර": 2151,
      "පියා": 2152,
      "පුළුවන්ද": 2153,
      "පස්සෙන්": 2154,
      "කෙනකේ": 2155,
      "සෙල්ලම්": 2156,
      "මොකුත්": 2157,
      "ප්පු": 2158,
      "ලොක්": 2159,
      "ක්ෂා": 2160,
      "වින්": 2161,
      "the": 2162,
      "il": 2163,
      "බර": 2164,
      "පෙර": 2165,
      "ද්ධි": 2166,
      "USA": 2167,
      "දිගටම": 2168,
      "හදන්න": 2169,
      "පේන": 2170,
      "ලෙස": 2171,
      "මාස": 2172,
      "බොහොම": 2173,
      "අනා": 2174,
      "පිලි": 2175,
      "ද්දී": 2176,
      "ol": 2177,
      "ඉන්": 2178,
      "ad": 2179,
      "ඉදන්": 2180,
      "තොරතුරු": 2181,
      "පෙන්න": 2182,
      "මිනිහ": 2183,
      "තියක්": 2184,
      "ක්ටර්": 2185,
      "මෙම": 2186,
      "පැටි": 2187,
      "කයෙක්": 2188,
      "කොහ": 2189,
      "යර්": 2190,
      "උදේ": 2191,
      "දැනටමත්": 2192,
      "අම්මේ": 2193,
      "ලස්සන": 2194,
      "ගක්": 2195,
      "ඇන්": 2196,
      "ඒව": 2197,
      "සුදු": 2198,
      "ස්ව": 2199,
      "වෙලාවට": 2200,
      "යාළුවා": 2201,
      "යනේ": 2202,
      "ධාන": 2203,
      "රාව": 2204,
      "නවත්වන්න": 2205,
      "මේවා": 2206,
      "දැනගෙන": 2207,
      "ඉඳන්": 2208,
      "පණි": 2209,
      "පම": 2210,
      "සාද": 2211,
      "තිබෙ": 2212,
      "ආව": 2213,
      "එකෙ": 2214,
      "වේද": 2215,
      "අදහසක්": 2216,
      "ඩුව": 2217,
      "වාද": 2218,
      "තරු": 2219,
      "රාජ": 2220,
      "දෙනෙක්": 2221,
      "ඉක්මන්": 2222,
      "ඔබව": 2223,
      "හතර": 2224,
      "හොඳට": 2225,
      "රෙන්න": 2226,
      "ඉන්නව": 2227,
      "දෙන්නේ": 2228,
      "නිල": 2229,
      "විස්තර": 2230,
      "ඉල්ල": 2231,
      "හිටපු": 2232,
      "මහත්තයා": 2233,
      "අම්ම": 2234,
      "ඕහ්": 2235,
      "වස": 2236,
      "ජීවිතය": 2237,
      "රට": 2238,
      "ගහන්න": 2239,
      "තනි": 2240,
      "ගන": 2241,
      "අස": 2242,
      "එන්නේ": 2243,
      "පොලිස්": 2244,
      "මහත්": 2245,
      "වග": 2246,
      "ආයෙත්": 2247,
      "ඉන්නවද": 2248,
      "ල්ලක්": 2249,
      "වැරැ": 2250,
      "කුට": 2251,
      "සහෝදරයා": 2252,
      "FF": 2253,
      "නවති": 2254,
      "න්ගේ": 2255,
      "නියෝ": 2256,
      "පරණ": 2257,
      "ආරක්ෂක": 2258,
      "දන්නවනේ": 2259,
      "වටි": 2260,
      "පටි": 2261,
      "ලක්ද": 2262,
      "තිබ්බා": 2263,
      "දුන්න": 2264,
      "ගන්නෙ": 2265,
      "බිම": 2266,
      "කාන්": 2267,
      "දහ": 2268,
      "ඉක්මනින්": 2269,
      "එකයි": 2270,
      "වෙලාවෙ": 2271,
      "දුවන්න": 2272,
      "පැමි": 2273,
      "ලෝකය": 2274,
      "පොයි": 2275,
      "20": 2276,
      "ec": 2277,
      "her": 2278,
      "අපට": 2279,
      "මෙතනට": 2280,
      "තැනක්": 2281,
      "ප්‍රමා": 2282,
      "අනිවාර්": 2283,
      "බර්": 2284,
      "ත්මක": 2285,
      "යව": 2286,
      "නෙවයි": 2287,
      "පරිස්ස": 2288,
      "ඇර": 2289,
      "රිස්": 2290,
      "තිබ්බ": 2291,
      "ආයේ": 2292,
      "යොත්": 2293,
      "we": 2294,
      "කථා": 2295,
      "ත්වය": 2296,
      "ඉවත්": 2297,
      "කාලයක්": 2298,
      "දවස": 2299,
      "මගෝ": 2300,
      "කරන්නද": 2301,
      "පුද්": 2302,
      "මස්": 2303,
      "බන්": 2304,
      "තුම්": 2305,
      "අමු": 2306,
      "ඉගෙන": 2307,
      "කවුරුහරි": 2308,
      "ඔහුගෙ": 2309,
      "බලමු": 2310,
      "යම්": 2311,
      "පාට": 2312,
      "කාලය": 2313,
      "පමණ": 2314,
      "සින්": 2315,
      "සමග": 2316,
      "න්ත": 2317,
      "දින්න": 2318,
      "බලන්": 2319,
      "හිතුවා": 2320,
      "පය": 2321,
      "ජනා": 2322,
      "කොහදෙ": 2323,
      "ළට": 2324,
      "රයේ": 2325,
      "ing": 2326,
      "බවට": 2327,
      "ල්ලො": 2328,
      "වාර්තා": 2329,
      "ඇහෙ": 2330,
      "පණිවි": 2331,
      "ම්භ": 2332,
      "කිහි": 2333,
      "වැරැද්ද": 2334,
      "ඉහ": 2335,
      "මිනී": 2336,
      "අංක": 2337,
      "කවුරුත්": 2338,
      "දෙන්නා": 2339,
      "අරින්න": 2340,
      "විද්‍යා": 2341,
      "ඔයයි": 2342,
      "ගින්": 2343,
      "එයාලව": 2344,
      "ac": 2345,
      "ඒකයි": 2346,
      "කියපු": 2347,
      "ඇත්තෙ": 2348,
      "දක්ෂ": 2349,
      "ගත්තෙ": 2350,
      "තියෙනව": 2351,
      "කව්": 2352,
      "කිරීමට": 2353,
      "ලෑස්ති": 2354,
      "වෙත": 2355,
      "ප්‍රා": 2356,
      "යුතුයි": 2357,
      "මිලි": 2358,
      "රව": 2359,
      "for": 2360,
      "කාව": 2361,
      "අයිති": 2362,
      "සුබ": 2363,
      "පස්සට": 2364,
      "ගනි": 2365,
      "අපරාධ": 2366,
      "වැටු": 2367,
      "දෙනා": 2368,
      "ක්ලා": 2369,
      "වෙලාවක්": 2370,
      "යාන": 2371,
      "හුඟ": 2372,
      "ඇවිල්ලා": 2373,
      "ed": 2374,
      "දර්ශ": 2375,
      "ලේසි": 2376,
      "කාරයා": 2377,
      "ආපු": 2378,
      "ඇඳු": 2379,
      "....": 2380,
      "අයට": 2381,
      "කණගාටුයි": 2382,
      "අන්තිම": 2383,
      "පැත්තට": 2384,
      "ගැල": 2385,
      "ණ්ඩ": 2386,
      "ඇතුලේ": 2387,
      "තනියම": 2388,
      "පණ": 2389,
      "නීති": 2390,
      "විශා": 2391,
      "ගනී": 2392,
      "and": 2393,
      "දානවා": 2394,
      "තල": 2395,
      "සියලු": 2396,
      "ලිපි": 2397,
      "නතර": 2398,
      "අල්ලගන්න": 2399,
      "රහස්": 2400,
      "මරු": 2401,
      "මෙච්චර": 2402,
      "වුණේ": 2403,
      "ඔලු": 2404,
      "වෙලේ": 2405,
      "තිබුනේ": 2406,
      "දැකලා": 2407,
      "හදි": 2408,
      "හැමදෙයක්ම": 2409,
      "පුහු": 2410,
      "000": 2411,
      "අපොයි": 2412,
      "ඕනද": 2413,
      "සැලැ": 2414,
      "තික": 2415,
      "කාම": 2416,
      "ලික": 2417,
      "දෙනු": 2418,
      "රාත්‍": 2419,
      "වීමක්": 2420,
      "ab": 2421,
      "පුංචි": 2422,
      "දවසක්": 2423,
      "සාක්ෂි": 2424,
      "මයිකල්": 2425,
      "වැටෙ": 2426,
      "ගැහු": 2427,
      "ප්‍රේ": 2428,
      "පද්ධ": 2429,
      "ගෙනා": 2430,
      "කතාව": 2431,
      "පැනලා": 2432,
      "මාන": 2433,
      "දාල": 2434,
      "දෙන්නම්": 2435,
      "යවන්න": 2436,
      "කුරු": 2437,
      "ද්‍ර": 2438,
      "යය": 2439,
      "හැමෝටම": 2440,
      "හදව": 2441,
      "මෙහෙන්": 2442,
      "තක්": 2443,
      "සමාව": 2444,
      "ල්ස්": 2445,
      "ප්‍රශ්න": 2446,
      "හොඳම": 2447,
      "විස්": 2448,
      "ඉති": 2449,
      "වුනොත්": 2450,
      "us": 2451,
      "අධි": 2452,
      "විවාහ": 2453,
      "et": 2454,
      "**": 2455,
      "සූදානම්": 2456,
      "තවමත්": 2457,
      "මෙහෙයු": 2458,
      "කාටවත්": 2459,
      "මඟු": 2460,
      "තිස්": 2461,
      "කවුරුවත්": 2462,
      "වෙච්ච": 2463,
      "ලව": 2464,
      "සිද්ද": 2465,
      "මතක්": 2466,
      "කවම": 2467,
      "සොයා": 2468,
      "තීරණය": 2469,
      "නිදහස්": 2470,
      "විකාර": 2471,
      "හිතුවෙ": 2472,
      "සතුටක්": 2473,
      "මහත්ම": 2474,
      "හොදින්ද": 2475,
      "of": 2476,
      "ඔයාගෙන්": 2477,
      "හෙයි": 2478,
      "යානු": 2479,
      "පැත්තෙ": 2480,
      "හිතනවද": 2481,
      "හුඟක්": 2482,
      "අතුරු": 2483,
      "ආරම්භ": 2484,
      "තමුන්": 2485,
      "තමුසේ": 2486,
      "දුරක": 2487,
      "රස": 2488,
      "හම": 2489,
      "වාසනා": 2490,
      "කොහේද": 2491,
      "හෙලෝ": 2492,
      "am": 2493,
      "ලැබුනා": 2494,
      "කාරි": 2495,
      "ඔයාලගේ": 2496,
      "සතුටු": 2497,
      "ගමු": 2498,
      "එයි": 2499,
      "ආරක්ෂි": 2500,
      "ඩර්": 2501,
      "තහ": 2502,
      "සිහි": 2503,
      "ගිහි": 2504,
      "ඒකෙ": 2505,
      "හේතුව": 2506,
      "ම්ස්": 2507,
      "රස්සා": 2508,
      "හොදට": 2509,
      "මෙහාට": 2510,
      "තම": 2511,
      "කකු": 2512,
      "මහත්මයා": 2513,
      "විනෝ": 2514,
      "මුලින්ම": 2515,
      "පිහි": 2516,
      "කොන්": 2517,
      "උස": 2518,
      "ආයුධ": 2519,
      "හැටියට": 2520,
      "හිමි": 2521,
      "මැරිලා": 2522,
      "වක": 2523,
      "වේග": 2524,
      "පන": 2525,
      "පුරු": 2526,
      "උඹේ": 2527,
      "තුම": 2528,
      "තේරුනා": 2529,
      "ආදරේ": 2530,
      "විවෘ": 2531,
      "අවසන්": 2532,
      "තෝරා": 2533,
      "හොයන්න": 2534,
      "ඔන්න": 2535,
      "කරණ": 2536,
      "විහිළු": 2537,
      "ඩියෝ": 2538,
      "පෙන්වන්න": 2539,
      "දුරටත්": 2540,
      "ඉල": 2541,
      "මෙහි": 2542,
      "වැඩියි": 2543,
      "දොස්තර": 2544,
      "අනතු": 2545,
      "පන්න": 2546,
      "උස්ස": 2547,
      "සති": 2548,
      "උත්තර": 2549,
      "රෙක්": 2550,
      "බඩු": 2551,
      "තොත්": 2552,
      "ගෙනි": 2553,
      "ලද": 2554,
      "හොඳින්ද": 2555,
      "බලය": 2556,
      "උනත්": 2557,
      "පුහුණු": 2558,
      "පරා": 2559,
      "අයියෝ": 2560,
      "මොහො": 2561,
      "ජිත": 2562,
      "කන": 2563,
      "දුරු": 2564,
      "ශක්ති": 2565,
      "මරණ": 2566,
      "බලාගන්න": 2567,
      "වැනි": 2568,
      "පද": 2569,
      "තත්වය": 2570,
      "කොයි": 2571,
      "ගත්තොත්": 2572,
      "පරක්": 2573,
      "පොලී": 2574,
      "දිලා": 2575,
      "එහෙමයි": 2576,
      "පහසු": 2577,
      "ප්ප": 2578,
      "අළු": 2579,
      "තුවක්කුව": 2580,
      "ගැනද": 2581,
      "ලයක්": 2582,
      "නිලධා": 2583,
      "තවම": 2584,
      "සියට": 2585,
      "නොහැකි": 2586,
      "නෙවේ": 2587,
      "ගැහැ": 2588,
      "පරක්කු": 2589,
      "නිකම්": 2590,
      "පුරා": 2591,
      "තුවා": 2592,
      "ඇතුල්": 2593,
      "කාශ": 2594,
      "ලගට": 2595,
      "ගැන්": 2596,
      "ඉතා": 2597,
      "යන්ට": 2598,
      "මහා": 2599,
      "කියන්නම්": 2600,
      "අවුල්": 2601,
      "දාන": 2602,
      "නිර්මා": 2603,
      "බේරගන්න": 2604,
      "ව්‍ය": 2605,
      "නුඹ": 2606,
      "එකෙක්": 2607,
      "බෝම්බ": 2608,
      "විසින්": 2609,
      "ඉතුරු": 2610,
      "ගිනි": 2611,
      "න්ස්": 2612,
      "තැනට": 2613,
      "කාලේ": 2614,
      "ඉලක්ක": 2615,
      "ගැනීම": 2616,
      "සියළු": 2617,
      "දීලා": 2618,
      "දැම්මා": 2619,
      "රජ": 2620,
      "විල්": 2621,
      "සමඟ": 2622,
      "කල්ප": 2623,
      "ගොඩා": 2624,
      "ather": 2625,
      "ලස්සනයි": 2626,
      "අවශ්‍යයි": 2627,
      "අඩුම": 2628,
      "තට්ටු": 2629,
      "ගල්": 2630,
      "කැමැ": 2631,
      "ළුව": 2632,
      "weather": 2633,
      "වැසි": 2634,
      "හාද": 2635,
      "වීමට": 2636,
      "ඩම්": 2637,
      "හොරකම්": 2638,
      "අභි": 2639,
      "තිබෙනවා": 2640,
      "පව": 2641,
      "නැගිටි": 2642,
      "තිබුන": 2643,
      "හෙන": 2644,
      "කරුණාකර": 2645,
      "තැන්": 2646,
      "බැයි": 2647,
      "ගොඩාක්": 2648,
      "you": 2649,
      "ay": 2650,
      "ග්‍රහ": 2651,
      "තන්": 2652,
      "ot": 2653,
      "ඒකේ": 2654,
      "හැමදා": 2655,
      "ලැයි": 2656,
      "ඇගේ": 2657,
      "tr": 2658,
      "සටහ": 2659,
      "කතාකරන්න": 2660,
      "අනාගත": 2661,
      "සන්සුන්": 2662,
      "ජේන්": 2663,
      "මිනිත්තු": 2664,
      "දාගෙන": 2665,
      "පැත්තේ": 2666,
      "he": 2667,
      "අනතුරු": 2668,
      "ධ්‍ය": 2669,
      "පිටින්": 2670,
      "සාර්ථ": 2671,
      "කරමින්": 2672,
      "හුගක්": 2673,
      "තියෙන්න": 2674,
      "අස්": 2675,
      "චිත්‍ර": 2676,
      "බායි": 2677,
      "සන්න": 2678,
      "හොයාගෙන": 2679,
      "12": 2680,
      "ඩොලර්": 2681,
      "ලියා": 2682,
      "නෙවා": 2683,
      "නැත්තෙ": 2684,
      "හම්බු": 2685,
      "විශාල": 2686,
      "එනව": 2687,
      "දෙන්නම": 2688,
      "කෙල්ලෙක්": 2689,
      "ස්ට්": 2690,
      "ගෙදරට": 2691,
      "බිලා": 2692,
      "බිරිඳ": 2693,
      "හැබැයි": 2694,
      "හිතන": 2695,
      "විනෝද": 2696,
      "හාර": 2697,
      "සුව": 2698,
      "තුන": 2699,
      "ජර්": 2700,
      "ගනු": 2701,
      "හිස්": 2702,
      "හොය": 2703,
      "එහේ": 2704,
      "ඔවුන්ගේ": 2705,
      "උඩට": 2706,
      "විරු": 2707,
      "ජිවත්": 2708,
      "එන්නෙ": 2709,
      "විවෘත": 2710,
      "ජරා": 2711,
      "වනේන": 2712,
      "ඇත්තෙන්ම": 2713,
      "කාමරේ": 2714,
      "ment": 2715,
      "කව්ද": 2716,
      "ඔතන": 2717,
      "ur": 2718,
      "කිරි": 2719,
      "තුල": 2720,
      "se": 2721,
      "කට්": 2722,
      "පින්තූ": 2723,
      "අරගන්න": 2724,
      "මුහුණ": 2725,
      "අවස්ථාවක්": 2726,
      "අනික": 2727,
      "කේස්": 2728,
      "වම්": 2729,
      "නවතින්න": 2730,
      "ඇතුල": 2731,
      "ඉදලා": 2732,
      "කයා": 2733,
      "පිටු": 2734,
      "අතන": 2735,
      "මිලියන": 2736,
      "වුරු": 2737,
      "සිට": 2738,
      "නයට": 2739,
      "අමාරුයි": 2740,
      "එයාලගේ": 2741,
      "ගින්න": 2742,
      "පැතුම්": 2743,
      "ද්‍ය": 2744,
      "ඉස්කෝ": 2745,
      "අපිත්": 2746,
      "ඩන්": 2747,
      "යමක්": 2748,
      "වන්ත": 2749,
      "වෙලේම": 2750,
      "තෝර": 2751,
      "විහිලු": 2752,
      "තෙක්": 2753,
      "පනි": 2754,
      "ඩින්": 2755,
      "දුනා": 2756,
      "වාඩි": 2757,
      "භාවි": 2758,
      "යාලුවා": 2759,
      "භයාන": 2760,
      "වන්නෙ": 2761,
      "හිනා": 2762,
      "වරෙන්": 2763,
      "ෆෝන්": 2764,
      "50": 2765,
      "විශ්වාසද": 2766,
      "මොනවාද": 2767,
      "දීම": 2768,
      "ආවර": 2769,
      "නායක": 2770,
      "ගානක්": 2771,
      "ans": 2772,
      "අනුව": 2773,
      "නද": 2774,
      "ක්ලාක්": 2775,
      "නිශ්": 2776,
      "මිනිස්සුන්ට": 2777,
      "පරීක්ෂා": 2778,
      "මිස්ටර්": 2779,
      "ඇයගේ": 2780,
      "තට": 2781,
      "පෙනු": 2782,
      "න්සි": 2783,
      "අඳු": 2784,
      "අතුරුද": 2785,
      "ප්‍රධාන": 2786,
      "මගුලක්ද": 2787,
      "වැටි": 2788,
      "ඇමරිකා": 2789,
      "සුර": 2790,
      "ලෝකෙ": 2791,
      "හුස්ම": 2792,
      "එයත්": 2793,
      "දෙන්නෙක්": 2794,
      "පේන්නේ": 2795,
      "නංගි": 2796,
      "ත්ව": 2797,
      "ආහ්": 2798,
      "වැරදියි": 2799,
      "ගනින්": 2800,
      "tion": 2801,
      "නික": 2802,
      "දෙයියනේ": 2803,
      "ඕනෙද": 2804,
      "මද": 2805,
      "ස්ට": 2806,
      "දුන්නේ": 2807,
      "කිරීමක්": 2808,
      "විලි": 2809,
      "ලයට": 2810,
      "උඹව": 2811,
      "ඉදිරියට": 2812,
      "පුරුදු": 2813,
      "මොනවහරි": 2814,
      "රෝහ": 2815,
      "ගොනුව": 2816,
      "ඉඳලා": 2817,
      "ඔන": 2818,
      "විස": 2819,
      "ගෙයි": 2820,
      "තියලා": 2821,
      "එහා": 2822,
      "එච්චරයි": 2823,
      "ක්‍රීය": 2824,
      "වශ": 2825,
      "කැප්": 2826,
      "නර්": 2827,
      "30": 2828,
      "ඔවුන්ව": 2829,
      "ඳින්න": 2830,
      "මාර්ග": 2831,
      "සහිත": 2832,
      "වුණ": 2833,
      "දුර්": 2834,
      "සේවා": 2835,
      "න්ක්": 2836,
      "හැක": 2837,
      "හොයාගත්තා": 2838,
      "යන්නම්": 2839,
      "බොහෝ": 2840,
      "හදිසි": 2841,
      "ගැහෙන්න": 2842,
      "දෑස": 2843,
      "පැටියෝ": 2844,
      "මිනිසුන්": 2845,
      "මරලා": 2846,
      "Mr": 2847,
      "අවසාන": 2848,
      "ගුරු": 2849,
      "නිසයි": 2850,
      "ගොල්ලෝ": 2851,
      "මේකෙන්": 2852,
      "මැති": 2853,
      "හොදම": 2854,
      "තේරෙනවා": 2855,
      "කලබල": 2856,
      "බඩ": 2857,
      "සියල්ල": 2858,
      "එහෙමද": 2859,
      "ඔබගේ": 2860,
      "පේනවා": 2861,
      "ල්ඩ්": 2862,
      "කොල්ලෝ": 2863,
      "තමන්ගේ": 2864,
      "බලනවා": 2865,
      "උදෑස": 2866,
      "ගත්තද": 2867,
      "මුර": 2868,
      "ජෝන්": 2869,
      "ඇහැ": 2870,
      "තිබ්බේ": 2871,
      "ගාවට": 2872,
      "මායා": 2873,
      "බුද්ධි": 2874,
      "පට": 2875,
      "හිතාගන්න": 2876,
      "මියා": 2877,
      "හොඳටම": 2878,
      "මෙය": 2879,
      "න්නම්": 2880,
      "සප": 2881,
      "මොනවත්": 2882,
      "බඳ": 2883,
      "මතකද": 2884,
      "තවදුරටත්": 2885,
      "ක්‍රි": 2886,
      "ගියොත්": 2887,
      "ඇතුලෙ": 2888,
      "අල්ලන්න": 2889,
      "de": 2890,
      "දරුණු": 2891,
      "ෂ්ඨ": 2892,
      "කඩා": 2893,
      "ඊයේ": 2894,
      "බෝට්ටු": 2895,
      "ස්ත": 2896,
      "වෙමු": 2897,
      "ඕනම": 2898,
      "දායක": 2899,
      "නුත්": 2900,
      "ලක": 2901,
      "උදව්වක්": 2902,
      "කොහෙන්ද": 2903,
      "දුරකථ": 2904,
      "වගෝ": 2905,
      "අංශ": 2906,
      "වෙලාවේ": 2907,
      "ඕනෑ": 2908,
      "කෙනෙක්ව": 2909,
      "අවුරු": 2910,
      "කියනව": 2911,
      "විරුද්ධ": 2912,
      "කාරය": 2913,
      "පෙට්ටි": 2914,
      "අල්ලා": 2915,
      "බයි": 2916,
      "කොටසක්": 2917,
      "සතුටුයි": 2918,
      "ජන්": 2919,
      "මුල්": 2920,
      "හදනවා": 2921,
      "අඩි": 2922,
      "නියෝජිත": 2923,
      "හරහා": 2924,
      "යුද්ධ": 2925,
      "අවසර": 2926,
      "ක්‍රියාත්මක": 2927,
      "ආත්ම": 2928,
      "අවං": 2929,
      "ඇලෙ": 2930,
      "ගෙන්න": 2931,
      "වීර": 2932,
      "යාවි": 2933,
      "ඩොක්ටර්": 2934,
      "එදා": 2935,
      "කැප්ටන්": 2936,
      "ව්වේ": 2937,
      "හලෝ": 2938,
      "හින්දා": 2939,
      "වැඩිය": 2940,
      "ගිහිල්ලා": 2941,
      "තත්ව": 2942,
      "ඇවිදි": 2943,
      "දින්": 2944,
      "බබා": 2945,
      "අමුතු": 2946,
      "19": 2947,
      "වෛද්‍ය": 2948,
      "ලොත්": 2949,
      "රංචි": 2950,
      "නෝනා": 2951,
      "හැදුවා": 2952,
      "බොන්න": 2953,
      "හඳු": 2954,
      "දුන්": 2955,
      "ධානය": 2956,
      "කතාවක්": 2957,
      "රයට": 2958,
      "කෙනෙ": 2959,
      "15": 2960,
      "ගන්නව": 2961,
      "ඩංගු": 2962,
      "ශක්තිමත්": 2963,
      "අන්තිමට": 2964,
      "ve": 2965,
      "වස්තු": 2966,
      "ආරංචි": 2967,
      "වචන": 2968,
      "තරුණ": 2969,
      "අයියා": 2970,
      "තුනක්": 2971,
      "පෙම්": 2972,
      "ස්තුව": 2973,
      "ආච්චි": 2974,
      "එක්කම": 2975,
      "ඩයක්": 2976,
      "කැමතිද": 2977,
      "ඔයාටත්": 2978,
      "විශ්වාසයි": 2979,
      "වුම්": 2980,
      "මුදල්": 2981,
      "දකුණු": 2982,
      "අනිවා": 2983,
      "සෑම්": 2984,
      "ස්ථානය": 2985,
      "හැසි": 2986,
      "කරන්": 2987,
      "ර්ත": 2988,
      "බැංකු": 2989,
      "ගැනීමට": 2990,
      "නිතර": 2991,
      "බාර": 2992,
      "un": 2993,
      "අනික්": 2994,
      "ate": 2995,
      "මර්": 2996,
      "op": 2997,
      "උබට": 2998,
      "තියාගෙන": 2999,
      "මෙයාව": 3000,
      "ෂ්‍ය": 3001,
      "ගෙනියන්න": 3002,
      "තද": 3003,
      "නිකං": 3004,
      "එකත්": 3005,
      "විවේ": 3006,
      "බේරු": 3007,
      "මාර": 3008,
      "හැදුවේ": 3009,
      "යක්ද": 3010,
      "යනවද": 3011,
      "දම්": 3012,
      "තාත්තට": 3013,
      "රණයක්": 3014,
      "අතා": 3015,
      "con": 3016,
      "වෙනකම්": 3017,
      "පේන්නෙ": 3018,
      "කිව්වොත්": 3019,
      "ද්දෙ": 3020,
      "නල්": 3021,
      "බෙහෙ": 3022,
      "සුපිරි": 3023,
      "නිදා": 3024,
      "දැනෙනවා": 3025,
      "කෙනෙක්ට": 3026,
      "පැහැර": 3027,
      "අතට": 3028,
      "සැන්": 3029,
      "ගොඩනැගි": 3030,
      "ඇඳ": 3031,
      "මල්": 3032,
      "බෙන්": 3033,
      "කණ්ඩායම": 3034,
      "සල්": 3035,
      "සෑහෙන": 3036,
      "රියේ": 3037,
      "උපන්": 3038,
      "සත්": 3039,
      "දිවි": 3040,
      "තේරුම": 3041,
      "කරාවි": 3042,
      "හොදටම": 3043,
      "රික්": 3044,
      "බහි": 3045,
      "කලි": 3046,
      "ලොක්කා": 3047,
      "ගැට": 3048,
      "ව්‍යාපෘ": 3049,
      "මිනිහෝ": 3050,
      "පලවෙනි": 3051,
      "බස්": 3052,
      "පවුල": 3053,
      "ගලික": 3054,
      "දම": 3055,
      "ළග": 3056,
      "තිබුණා": 3057,
      "හදවත": 3058,
      "නිව්": 3059,
      "අණ": 3060,
      "ර්ක්": 3061,
      "කලොත්": 3062,
      "අතාරි": 3063,
      "රියක්": 3064,
      "වෙනකොට": 3065,
      "තියනවද": 3066,
      "ඉව": 3067,
      "නැත": 3068,
      "ඉතිරි": 3069,
      "කාටද": 3070,
      "සංසුන්": 3071,
      "සැලසුම්": 3072,
      "එන්": 3073,
      "පවුලේ": 3074,
      "අඩංගු": 3075,
      "චන්": 3076,
      "නගරය": 3077,
      "බිය": 3078,
      "රයන්": 3079,
      "ඔප්පු": 3080,
      "පුද්ගල": 3081,
      "සහා": 3082,
      "ජිවිත": 3083,
      "පැති": 3084,
      "ain": 3085,
      "අවස්ථාව": 3086,
      "සිද්ධි": 3087,
      "ig": 3088,
      "න්‍‍න": 3089,
      "කසාද": 3090,
      "රතු": 3091,
      "ඌව": 3092,
      "තුවාල": 3093,
      "වෙලාවක": 3094,
      "පනය": 3095,
      "දැනට": 3096,
      "විදිය": 3097,
      "දැක්කේ": 3098,
      "තේරෙන්නේ": 3099,
      "නෑනේ": 3100,
      "ගමන": 3101,
      "නැතිනම්": 3102,
      "කොටස්": 3103,
      "මඟ": 3104,
      "ධිපති": 3105,
      "ast": 3106,
      "වටිනා": 3107,
      "එකඟ": 3108,
      "ip": 3109,
      "හදන්නෙ": 3110,
      "තල්": 3111,
      "තනය": 3112,
      "කුමක්": 3113,
      "නිර්මාණය": 3114,
      "Com": 3115,
      "ප්‍රශ්ණයක්": 3116,
      "දවසක": 3117,
      "වෙනවද": 3118,
      "උණු": 3119,
      "වීම්": 3120,
      "තේරුණා": 3121,
      "කයක්": 3122,
      "මැරි": 3123,
      "වගයක්": 3124,
      "න්ග්": 3125,
      "උනොත්": 3126,
      "අඩ": 3127,
      "ගාන": 3128,
      "ලේඛ": 3129,
      "රීන්": 3130,
      "අළුත්": 3131,
      "ey": 3132,
      "ල්ට්": 3133,
      "ත්‍ය": 3134,
      "කැමරා": 3135,
      "සුම": 3136,
      "දුක්": 3137,
      "ඇත්තම": 3138,
      "ලඟට": 3139,
      "ඇඳුම්": 3140,
      "ද්‍රව්‍ය": 3141,
      "කුඩා": 3142,
      "බැරිද": 3143,
      "උදෑසනක්": 3144,
      "යකෝ": 3145,
      "කිවුවා": 3146,
      "එහාට": 3147,
      "වාහනේ": 3148,
      "කරුවන්": 3149,
      "නාවක්": 3150,
      "ch": 3151,
      "බීම": 3152,
      "මැඩම්": 3153,
      "රුව": 3154,
      "ලබ": 3155,
      "වෙලාවෙම": 3156,
      "හ්ම්ම්": 3157,
      "ත්‍රා": 3158,
      "නුයි": 3159,
      "කින්ම": 3160,
      "ඔලුව": 3161,
      "සෑම": 3162,
      "සෙන්": 3163,
      "හය": 3164,
      "ස්තියි": 3165,
      "ගේන්න": 3166,
      "උතුමා": 3167,
      "වේවා": 3168,
      "ඔට්ටු": 3169,
      "උන්ට": 3170,
      "වර්ග": 3171,
      "හේතුවක්": 3172,
      "ශබ්": 3173,
      "ඇත්තට": 3174,
      "සතුටින්": 3175,
      "පෙනෙ": 3176,
      "ස්වා": 3177,
      "පහල": 3178,
      "කොල්ලනේ": 3179,
      "එකි": 3180,
      "ද්දක්": 3181,
      "සැලැස්ම": 3182,
      "එතනට": 3183,
      "කාරයෝ": 3184,
      "දුර්වල": 3185,
      "පැත්තෙන්": 3186,
      "කියනවද": 3187,
      "පයි": 3188,
      "වේලා": 3189,
      "තාක්ෂ": 3190,
      "ජනය": 3191,
      "නොවේ": 3192,
      "පිරිසිදු": 3193,
      "කාරී": 3194,
      "මොකෝ": 3195,
      "ටිය": 3196,
      "සහෝද": 3197,
      "නමක්": 3198,
      "ක්සි": 3199,
      "හැරී": 3200,
      "ගැලපෙ": 3201,
      "ඉන්දි": 3202,
      "වේශ": 3203,
      "නියා": 3204,
      "ගහනවා": 3205,
      "ගෙවන්න": 3206,
      "ඒකත්": 3207,
      "රල්": 3208,
      "උන්ව": 3209,
      "සාර්ථක": 3210,
      "චාර්ලි": 3211,
      "Can": 3212,
      "තාවක්": 3213,
      "ඇලෙක්ස්": 3214,
      "උපරි": 3215,
      "cH": 3216,
      "තෑග්": 3217,
      "නික්": 3218,
      "සුදුසු": 3219,
      "මැරුවා": 3220,
      "යාවක්": 3221,
      "ඉවරයක්": 3222,
      "හදා": 3223,
      "ඔබලා": 3224,
      "අතුරුදහන්": 3225,
      "අම්මට": 3226,
      "ලෝකේ": 3227,
      "ලැජ්": 3228,
      "පෙන්නන්න": 3229,
      "මල": 3230,
      "වගේද": 3231,
      "කොටස": 3232,
      "යේදී": 3233,
      "ළමයෙක්": 3234,
      "ගනෙ": 3235,
      "මිස්": 3236,
      "වැඩසටහ": 3237,
      "ඔයාලගෙ": 3238,
      "කිවුවේ": 3239,
      "ඔයාලව": 3240,
      "හැමදාම": 3241,
      "පීටර්": 3242,
      "සටහන්": 3243,
      "වාව්": 3244,
      "හිරේ": 3245,
      "තිස්සෙ": 3246,
      "යිද": 3247,
      "පැට": 3248,
      "බෑග්": 3249,
      "මාර්ගය": 3250,
      "වැරැද්දක්": 3251,
      "දැනන්": 3252,
      "තහවුරු": 3253,
      "විදු": 3254,
      "හෙන්": 3255,
      "නිතරම": 3256,
      "දන්නෑ": 3257,
      "පළමු": 3258,
      "කියවන්න": 3259,
      "න්ෙන": 3260,
      "ලම": 3261,
      "ir": 3262,
      "උසස්": 3263,
      "පලා": 3264,
      "විම": 3265,
      "වුනාද": 3266,
      "ගෙනිය": 3267,
      "වැටිලා": 3268,
      "නිව": 3269,
      "තැනම": 3270,
      "dit": 3271,
      "ගණු": 3272,
      "ප්ල": 3273,
      "පවා": 3274,
      "ගානේ": 3275,
      "බ්‍රි": 3276,
      "අතේ": 3277,
      "නැගිටින්න": 3278,
      "Comment": 3279,
      "පැමිණි": 3280,
      "මරනවා": 3281,
      "එක්කෙනෙක්": 3282,
      "පේන්න": 3283,
      "අහ්හ්": 3284,
      "අල්ලගෙන": 3285,
      "හැමවෙලේම": 3286,
      "ෂණ": 3287,
      "Ch": 3288,
      "එකිනෙ": 3289,
      "විද": 3290,
      "ටොම්": 3291,
      "ළමයා": 3292,
      "උබේ": 3293,
      "ස්ටී": 3294,
      "හ්ම්": 3295,
      "ඩුවක්": 3296,
      "තියට": 3297,
      "ශාලා": 3298,
      "පොත": 3299,
      "වෙල": 3300,
      "දැනෙන්නේ": 3301,
      "වෙයිද": 3302,
      "දන්නවනෙ": 3303,
      "නොකර": 3304,
      "ce": 3305,
      "ශරී": 3306,
      "හාස": 3307,
      "දැක": 3308,
      "කාලෙකට": 3309,
      "ල්ලේ": 3310,
      "ට්ස්": 3311,
      "බැල්ලි": 3312,
      "ex": 3313,
      "ත්‍රය": 3314,
      "ටුව": 3315,
      "වරුනි": 3316,
      "කොල්ලෙක්": 3317,
      "මූල": 3318,
      "හමුවෙන්න": 3319,
      "හම්බෙ": 3320,
      "අහලා": 3321,
      "වතාවක්": 3322,
      "මතකයි": 3323,
      "ණිය": 3324,
      "පහලට": 3325,
      "බලාගන්නම්": 3326,
      "කීම": 3327,
      "සිරු": 3328,
      "සිර": 3329,
      "pl": 3330,
      "සෑහෙන්න": 3331,
      "දවසේ": 3332,
      "බිරිද": 3333,
      "අම": 3334,
      "ඔක්ක": 3335,
      "කළු": 3336,
      "ප්‍රශ්ණ": 3337,
      "පළවෙනි": 3338,
      "මෙහෙයුම": 3339,
      "මදි": 3340,
      "යුක්": 3341,
      "නිදහ": 3342,
      "කද": 3343,
      "වස්තුවේ": 3344,
      "ප්‍රශ්නේ": 3345,
      "පොලිසිය": 3346,
      "ඉප": 3347,
      "ඔහේට": 3348,
      "කරුනා": 3349,
      "ෂ්ට": 3350,
      "දෙනවද": 3351,
      "මුලින්": 3352,
      "අපා": 3353,
      "ආර්": 3354,
      "ගණුදෙනු": 3355,
      "නිවැරදි": 3356,
      "දෙය": 3357,
      "ලමයි": 3358,
      "කෙලින්ම": 3359,
      "නිසාද": 3360,
      "නේන": 3361,
      "වීමේ": 3362,
      "පෙළ": 3363,
      "අවුල": 3364,
      "වෛර": 3365,
      "නවට": 3366,
      "ලයේ": 3367,
      "වසර": 3368,
      "නන්": 3369,
      "කවද": 3370,
      "නගරයේ": 3371,
      "දනේ": 3372,
      "චාර": 3373,
      "අගය": 3374,
      "කැර": 3375,
      "ලෝන්": 3376,
      "ජනාධිපති": 3377,
      "මුලු": 3378,
      "ගම්": 3379,
      "ස්තූති": 3380,
      "ඉස්සරහට": 3381,
      "ඇහෙනවද": 3382,
      "මොනාහරි": 3383,
      "පැත්තකට": 3384,
      "දන්නා": 3385,
      "සාදර": 3386,
      "ew": 3387,
      "නිදාගන්න": 3388,
      "විශි": 3389,
      "දන්": 3390,
      "මචෝ": 3391,
      "නිසැ": 3392,
      "උනාට": 3393,
      "කාර්‍": 3394,
      "දෙකකට": 3395,
      "ඩම්බ": 3396,
      "ගණන්": 3397,
      "විස්වාස": 3398,
      "ආරක්ෂාව": 3399,
      "වමනා": 3400,
      "මේකේ": 3401,
      "ස්ටා": 3402,
      "බෙහෙත්": 3403,
      "කරණය": 3404,
      "ada": 3405,
      "ෂණය": 3406,
      "එහ": 3407,
      "ප්‍රදේශ": 3408,
      "බැලුවා": 3409,
      "කොල": 3410,
      "ගැහැණු": 3411,
      "ගස්ස": 3412,
      "හදන": 3413,
      "කොල්ලා": 3414,
      "ගෙම": 3415,
      "වරයා": 3416,
      "දුන": 3417,
      "පිපි": 3418,
      "නස්": 3419,
      "sh": 3420,
      "ag": 3421,
      "තාවය": 3422,
      "රුසි": 3423,
      "අයව": 3424,
      "හහ්": 3425,
      "නුවා": 3426,
      "විඩ්": 3427,
      "කරගත්තා": 3428,
      "ගලා": 3429,
      "කරුණාකරල": 3430,
      "තැනකට": 3431,
      "ස්මක්": 3432,
      "ආඩම්බ": 3433,
      "තේරෙන්නෙ": 3434,
      "මධ්‍ය": 3435,
      "තුමනි": 3436,
      "ඉර": 3437,
      "අධ්‍": 3438,
      "මචං": 3439,
      "වෙනත්": 3440,
      "කයන්": 3441,
      "බිත්": 3442,
      "භාවිත": 3443,
      "රැන්": 3444,
      "ඔයාම": 3445,
      "වයින්": 3446,
      "සියළුම": 3447,
      "හදලා": 3448,
      "ඔහ්හ්": 3449,
      "අදහස": 3450,
      "සිතිය": 3451,
      "තැනක": 3452,
      "සම්පූර්ණයෙන්ම": 3453,
      "කුයි": 3454,
      "11": 3455,
      "හැඟී": 3456,
      "බට": 3457,
      "මැරුණා": 3458,
      "බලන": 3459,
      "මරා": 3460,
      "උපා": 3461,
      "පණිවිඩය": 3462,
      "මූණ": 3463,
      "සාදරයෙන්": 3464,
      "අනිවාර්ය": 3465,
      "ඒකනම්": 3466,
      "උදා": 3467,
      "කස්": 3468,
      "කියන්නද": 3469,
      "පල්": 3470,
      "mb": 3471,
      "භාවිතා": 3472,
      "පුතේ": 3473,
      "පාද": 3474,
      "ෂර්": 3475,
      "පහත්": 3476,
      "කරදරයක්": 3477,
      "තක": 3478,
      "ඊළඟ": 3479,
      "පැර": 3480,
      "ගෞරව": 3481,
      "..\"": 3482,
      "ro": 3483,
      "ත්තක්": 3484,
      "200": 3485,
      "පමණයි": 3486,
      "ap": 3487,
      "මයික්": 3488,
      "උත්ස": 3489,
      "BI": 3490,
      "ul": 3491,
      "එහි": 3492,
      "ෂිත": 3493,
      "එකක": 3494,
      "පවති": 3495,
      "කල්පනා": 3496,
      "නට්": 3497,
      "ආපසු": 3498,
      "රථ": 3499,
      "පවත්": 3500,
      "100": 3501,
      "සීමා": 3502,
      "කියලයි": 3503,
      "කලාද": 3504,
      "වීඩියෝ": 3505,
      "එම": 3506,
      "කෙටි": 3507,
      "මැරෙනවා": 3508,
      "සංගී": 3509,
      "ak": 3510,
      "රුනා": 3511,
      "හර්": 3512,
      "තමුසෙට": 3513,
      "කිහිපයක්": 3514,
      "ඇත්තේ": 3515,
      "එනවද": 3516,
      "trans": 3517,
      "Al": 3518,
      "කසා": 3519,
      "අන්තිමේ": 3520,
      "සංඥා": 3521,
      "පත්‍ර": 3522,
      "කරන්නයි": 3523,
      "යටත්": 3524,
      "නෙන්": 3525,
      "ht": 3526,
      "වටේ": 3527,
      "ච්චා": 3528,
      "සද": 3529,
      "බයයි": 3530,
      "වුල්": 3531,
      "කාර්යා": 3532,
      "තත්ප": 3533,
      "න්ගෙ": 3534,
      "මතු": 3535,
      "ලෑස්තියි": 3536,
      "යොමු": 3537,
      "පහක්": 3538,
      "ත්‍රස්ත": 3539,
      "පරීක්ෂණ": 3540,
      "බලන්නම්": 3541,
      "කවද්ද": 3542,
      "වෙනසක්": 3543,
      "අහන්නේ": 3544,
      "name": 3545,
      "මනුස්සයෙක්": 3546,
      "ඒකි": 3547,
      "දෙනව": 3548,
      "වාසි": 3549,
      "සුළු": 3550,
      "අඩංගුවට": 3551,
      "ist": 3552,
      "එකා": 3553,
      "රුවා": 3554,
      "ජිවි": 3555,
      "මෙතැන": 3556,
      "ආයු": 3557,
      "එනකම්": 3558,
      "ගර්": 3559,
      "බලන්නේ": 3560,
      "dition": 3561,
      "බබෝ": 3562,
      "ස්තුති": 3563,
      "ඔත්තු": 3564,
      "ind": 3565,
      "සපත්තු": 3566,
      "ඩුවේ": 3567,
      "කිහිප": 3568,
      "නිවා": 3569,
      "අශ්": 3570,
      "යානය": 3571,
      "මෝඩයෙක්": 3572,
      "මාළු": 3573,
      "ph": 3574,
      "?\"": 3575,
      "කඳු": 3576,
      "කණ්ඩායමක්": 3577,
      "අට": 3578,
      "පින්තූර": 3579,
      "ඇට": 3580,
      "ඇහුම්": 3581,
      "ගනීවි": 3582,
      "ut": 3583,
      "Canada": 3584,
      "අති": 3585,
      "රංග": 3586,
      "නිසැකවම": 3587,
      "කරවන්න": 3588,
      "කාරණා": 3589,
      "ill": 3590,
      "රෙහි": 3591,
      "ප්ලෝන්": 3592,
      "දූපත": 3593,
      "පණපිටින්": 3594,
      "යාලුවෙක්": 3595,
      "වරයෙක්": 3596,
      "නගින්න": 3597,
      "ation": 3598,
      "මිනිහව": 3599,
      "දිනවා": 3600,
      "ග්‍රේ": 3601,
      "යහ": 3602,
      "නිර්භී": 3603,
      "FBI": 3604,
      "කිරීමේ": 3605,
      "වචනයක්": 3606,
      "පැන්": 3607,
      "තරමට": 3608,
      "ක්ෂේ": 3609,
      "බහු": 3610,
      "තරමේ": 3611,
      "පූර්": 3612,
      "කීයක්": 3613,
      "ඌට": 3614,
      "ප්‍රහා": 3615,
      "මාමා": 3616,
      "ගමේ": 3617,
      "වනි": 3618,
      "ලැබෙන": 3619,
      "වශයෙන්": 3620,
      "යානා": 3621,
      "ඇතුළට": 3622,
      "ඉස්සරහ": 3623,
      "වුර": 3624,
      "av": 3625,
      "ගෑනු": 3626,
      "ගන්නා": 3627,
      "මීටර්": 3628,
      "කිරීම්": 3629,
      "කිව්වනේ": 3630,
      "ගොල්ල": 3631,
      "හරින්න": 3632,
      "දේට": 3633,
      "යිඩ්": 3634,
      "ක්ලෙ": 3635,
      "භාර": 3636,
      "තිබුනෙ": 3637,
      "මහත්මිය": 3638,
      "රෙඩ්": 3639,
      "condition": 3640,
      "තත්පර": 3641,
      "ගනුදෙනු": 3642,
      "oo": 3643,
      "ලිස්": 3644,
      "වන්නම්": 3645,
      "ආස": 3646,
      "රොන්": 3647,
      "තරහ": 3648,
      "පියන්": 3649,
      "ඔවු": 3650,
      "ඩිය": 3651,
      "අනතුරක්": 3652,
      "වරක්": 3653,
      "රොත්": 3654,
      "නීප": 3655,
      "පුපුර": 3656,
      "ඇදු": 3657,
      "වයස": 3658,
      "නිකම්ම": 3659,
      "ඊලග": 3660,
      "ආරක්ෂිතයි": 3661,
      "ද්දේ": 3662,
      "සාම": 3663,
      "දිනය": 3664,
      "අග": 3665,
      "යුම්": 3666,
      "transl": 3667,
      "ගියාම": 3668,
      "ගෞර": 3669,
      "24": 3670,
      "හෝට": 3671,
      "සෙල්": 3672,
      "මගුල": 3673,
      "forec": 3674,
      "forecast": 3675,
      "ess": 3676,
      "මව්": 3677,
      "එල්ල": 3678,
      "පරිගණ": 3679,
      "බේරා": 3680,
      "නැවතත්": 3681,
      "වෙනුවට": 3682,
      "අහගන්න": 3683,
      "අඟ": 3684,
      "මනුෂ්‍ය": 3685,
      "දුම්රිය": 3686,
      "පිළිබඳ": 3687,
      "බහ": 3688,
      "දායි": 3689,
      "හිතේ": 3690,
      "ආවරණය": 3691,
      "ලැයිස්තු": 3692,
      "එයාලගෙ": 3693,
      "බලලා": 3694,
      "මෙයාට": 3695,
      "හිතලා": 3696,
      "රැජි": 3697,
      "ගෙනාවා": 3698,
      "විලා": 3699,
      "හානි": 3700,
      "අහනවා": 3701,
      "පෞද්": 3702,
      "ස්සි": 3703,
      "ආහාර": 3704,
      "ටෙන්": 3705,
      "උඹලා": 3706,
      "අනාගතය": 3707,
      "ගරු": 3708,
      "චිත්‍රපටි": 3709,
      "ආවොත්": 3710,
      "සලකුණු": 3711,
      "oc": 3712,
      "ඔර": 3713,
      "ක්ල": 3714,
      "යාළුවෙක්": 3715,
      "තාත්තෙ": 3716,
      "වෝල්": 3717,
      "නාස්ති": 3718,
      "ඊයෙ": 3719,
      "රම්": 3720,
      "පිරිමි": 3721,
      "විහිළුවක්": 3722,
      "මරණය": 3723,
      "ගබ": 3724,
      "අනතුර": 3725,
      "ක්‍රමයක්": 3726,
      "මුණගැහෙන්න": 3727,
      "ලැජ්ජා": 3728,
      "මැර": 3729,
      "ප්‍රකාශ": 3730,
      "ස්ථාන": 3731,
      "කරුවෙක්": 3732,
      "මේකෙ": 3733,
      "කුළු": 3734,
      "හඩ": 3735,
      "වේදි": 3736,
      "දැක්කෙ": 3737,
      "ඔක්කම": 3738,
      "තේරුනාද": 3739,
      "විශ්වාසය": 3740,
      "අංකය": 3741,
      "උපරිම": 3742,
      "සියලුම": 3743,
      "id": 3744,
      "දත්ත": 3745,
      "පරිවර්": 3746,
      "රස්සාව": 3747,
      "භයානක": 3748,
      "ෆිල්": 3749,
      "දයි": 3750,
      "අද්": 3751,
      "art": 3752,
      "ඔච්චර": 3753,
      "සත්ත": 3754,
      "be": 3755,
      "ඔයාද": 3756,
      "නිල්": 3757,
      "පේනවද": 3758,
      "සාම්": 3759,
      "ග්‍රා": 3760,
      "ගැහුවා": 3761,
      "හිතන්": 3762,
      "දකුණ": 3763,
      "මේව": 3764,
      "ව්ව": 3765,
      "තිබ්බෙ": 3766,
      "පස": 3767,
      "විදිහක්": 3768,
      "තියන්නේ": 3769,
      "අභ්‍": 3770,
      "භාෂා": 3771,
      "කළම": 3772,
      "පරික්ෂා": 3773,
      "සද්ද": 3774,
      "අයිස්": 3775,
      "මැදි": 3776,
      "රාජ්‍": 3777,
      "ගෑණු": 3778,
      "කිව්වද": 3779,
      "ගැනීමක්": 3780,
      "qu": 3781,
      "ශය": 3782,
      "හිතෙනවා": 3783,
      "are": 3784,
      "දිම": 3785,
      "නැත්ද": 3786,
      "5ක්": 3787,
      "\".": 3788,
      "ඉක්මනින්ම": 3789,
      "විරුද්ධව": 3790,
      "40": 3791,
      "ලිපිනය": 3792,
      "13": 3793,
      "ශ්‍ය": 3794,
      "ලානා": 3795,
      "වේදී": 3796,
      "අවස්": 3797,
      "මිල": 3798,
      "ශක්තිය": 3799,
      "කයින්": 3800,
      "මන්දා": 3801,
      "යාළුවො": 3802,
      "තුවක්කුවක්": 3803,
      "මිනීමැරු": 3804,
      "ග්‍රී": 3805,
      "කරොත්": 3806,
      "ආසයි": 3807,
      "පරීක්ෂක": 3808,
      "විකුණ": 3809,
      "දෙන්": 3810,
      "ගෙවල්": 3811,
      "වැඩකට": 3812,
      "එක්කගෙන": 3813,
      "ලයිට්": 3814,
      "ගැනීමේ": 3815,
      "ඇතුළු": 3816,
      "ණ්ඩු": 3817,
      "ඕනෙම": 3818,
      "මඟුලක්ද": 3819,
      "සික": 3820,
      "දෝෂ": 3821,
      "අනිවාර්යෙන්ම": 3822,
      "නුම්": 3823,
      "පරිස්සම්": 3824,
      "ලෙක්": 3825,
      "හොයන්නේ": 3826,
      "ලැබෙනවා": 3827,
      "පොලිසියට": 3828,
      "යාර්": 3829,
      "සහතික": 3830,
      "බිල්": 3831,
      "හැකියාව": 3832,
      "රෙනවා": 3833,
      "බැට": 3834,
      "පිලිගන්නවා": 3835,
      "යෝජ": 3836,
      "සත්තකින්ම": 3837,
      "තයක්": 3838,
      "ගබඩා": 3839,
      "ount": 3840,
      "පෙනී": 3841,
      "ට්‍රක්": 3842,
      "පතේ": 3843,
      "Jo": 3844,
      "වරද": 3845,
      "ලික්": 3846,
      "හෝව්": 3847,
      "කණ්ඩායමේ": 3848,
      "කිවා": 3849,
      "හොයලා": 3850,
      "ප්ලගි": 3851,
      "ම්ම": 3852,
      "තරඟ": 3853,
      "පනින්න": 3854,
      "රූප": 3855,
      "උන්නා": 3856,
      "em": 3857,
      "ක්‍රිස්": 3858,
      "ජීව": 3859,
      "අහිමි": 3860,
      "ඇහුම්කන්": 3861,
      "දරුවා": 3862,
      "ප්ට": 3863,
      "සමී": 3864,
      "අමත": 3865,
      "ty": 3866,
      "සෙන": 3867,
      "ගස්": 3868,
      "සිටිනවා": 3869,
      "තියෙන්": 3870,
      "nd": 3871,
      "අර්": 3872,
      "cHFF": 3873,
      "සම්පු": 3874,
      "න්ඩ්": 3875,
      "සෙක්": 3876,
      "සාධා": 3877,
      "වැඩට": 3878,
      "නැවැ": 3879,
      "පිළිගන්නවා": 3880,
      "ඇදලා": 3881,
      "මේන්": 3882,
      "ආචාර්": 3883,
      "සීයා": 3884,
      "මේකයි": 3885,
      "සුරකි": 3886,
      "ණික": 3887,
      "බාධ": 3888,
      "වනු": 3889,
      "නමයි": 3890,
      "වුනාට": 3891,
      "පට්ට": 3892,
      "තියනේ": 3893,
      "බිම්": 3894,
      "ට්‍රේ": 3895,
      "දඩය": 3896,
      "ලැයිස්තුව": 3897,
      "මිනිස්": 3898,
      "විවේක": 3899,
      "අතී": 3900,
      "නැහැනේ": 3901,
      "අතාරින්න": 3902,
      "KD": 3903,
      "ව්‍යාපාර": 3904,
      "කරන්නත්": 3905,
      "පිටත්": 3906,
      "චර්": 3907,
      "මැද": 3908,
      "ඈත්": 3909,
      "හම්බුනා": 3910,
      "ගත්තු": 3911,
      "ණට": 3912,
      "චරි": 3913,
      "මිනිසා": 3914,
      "කඳ": 3915,
      "නිදි": 3916,
      "ගනේ": 3917,
      "ඉරි": 3918,
      "දෙවෙනි": 3919,
      "විධි": 3920,
      "ඩ්‍රයි": 3921,
      "උණ්ඩ": 3922,
      "රාජ්": 3923,
      "කෙල": 3924,
      "ආරක්‍": 3925,
      "වහන්න": 3926,
      "ගෑනි": 3927,
      "ලකේස්": 3928,
      "අතින්": 3929,
      "වෙනකන්": 3930,
      "හඬ": 3931,
      "ent": 3932,
      "අක": 3933,
      "වේගවත්": 3934,
      "බිමට": 3935,
      "දෙකයි": 3936,
      "රියන්": 3937,
      "br": 3938,
      "වතු": 3939,
      "කාර්ය": 3940,
      "මහන්සි": 3941,
      "පිස්සුවක්": 3942,
      "ඒකා": 3943,
      "ers": 3944,
      "කුම": 3945,
      "ගිවි": 3946,
      "ඇඟ": 3947,
      "දක්වා": 3948,
      "වුනු": 3949,
      "පාටි": 3950,
      "යන්නද": 3951,
      "මුද්‍": 3952,
      "පෙන්නේ": 3953,
      "කකුල්": 3954,
      "රහිත": 3955,
      "වික්": 3956,
      "අදින්න": 3957,
      "මුහුදු": 3958,
      "ome": 3959,
      "හොයාගත්ත": 3960,
      "ශබ්ද": 3961,
      "ඩියා": 3962,
      "වංචා": 3963,
      "හත": 3964,
      "හිම": 3965,
      "පසුව": 3966,
      "නයිට්": 3967,
      "ජේම්ස්": 3968,
      "වොට්": 3969,
      "මෙට": 3970,
      "ජෙනී": 3971,
      "බෝවන්": 3972,
      "තිස්සේ": 3973,
      "තුළ": 3974,
      "සතිය": 3975,
      "හත්": 3976,
      "ජින්": 3977,
      "කොට්": 3978,
      "කිට්": 3979,
      "තියන්": 3980,
      "සෙබ": 3981,
      "වාහන": 3982,
      "කාගෙ": 3983,
      "නාවි": 3984,
      "ල්ලෙන්": 3985,
      "මිනීමරු": 3986,
      "වෙස්": 3987,
      "අහකට": 3988,
      "සිල්": 3989,
      "රටා": 3990,
      "ක්ලෝ": 3991,
      "කොටු": 3992,
      "පල්ලා": 3993,
      "රීම": 3994,
      "පහුගිය": 3995,
      "සමාගම": 3996,
      "IA": 3997,
      "යත්": 3998,
      "නොහැක": 3999
    },
    "merges": [
      [
        "න්",
        "න"
      ],
      [
        "ඔ",
        "යා"
      ],
      [
        ".",
        "."
      ],
      [
        "ක",
        "ර"
      ],
      [
        "ම",
        "ම"
      ],
      [
        "කි",
        "ය"
      ],
      [
        "න",
        "වා"
      ],
      [
        "ම",
        "ට"
      ],
      [
        "න්",
        "නේ"
      ],
      [
        "එ",
        "යා"
      ],
      [
        "..",
        "."
      ],
      [
        "අ",
        "පි"
      ],
      [
        "ඒ",
        "ක"
      ],
      [
        "ය",
        "ක්"
      ],
      [
        "එ",
        "ක"
      ],
      [
        "කර",
        "න්න"
      ],
      [
        "ග",
        "න්න"
      ],
      [
        "න",
        "ව"
      ],
      [
        "හ",
        "රි"
      ],
      [
        "න්",
        "නෙ"
      ],
      [
        "ඔයා",
        "ට"
      ],
      [
        "කිය",
        "ලා"
      ],
      [
        "ය",
        "ට"
      ],
      [
        "ත්",
        "ත"
      ],
      [
        "න",
        "ම්"
      ],
      [
        "මො",
        "ක"
      ],
      [
        "ති",
        "යෙ"
      ],
      [
        "ව",
        "න්"
      ],
      [
        "ම",
        "ගේ"
      ],
      [
        "ඉ",
        "න්න"
      ],
      [
        "ය",
        "න්න"
      ],
      [
        "වෙ",
        "න්න"
      ],
      [
        "ව",
        "ත්"
      ],
      [
        "ම",
        "යි"
      ],
      [
        "ව",
        "ගේ"
      ],
      [
        "ත",
        "ර"
      ],
      [
        "ගැ",
        "න"
      ],
      [
        "බ",
        "ල"
      ],
      [
        "වෙ",
        "ලා"
      ],
      [
        "මේ",
        "ක"
      ],
      [
        "ක්",
        "ක"
      ],
      [
        "නැ",
        "හැ"
      ],
      [
        "දැ",
        "න්"
      ],
      [
        "ඔ",
        "හු"
      ],
      [
        "ගෙ",
        "න"
      ],
      [
        "ව",
        "ක්"
      ],
      [
        "හි",
        "ත"
      ],
      [
        "එ",
        "හෙ"
      ],
      [
        "ල්",
        "ල"
      ],
      [
        "ද",
        "න්න"
      ],
      [
        "ට",
        "ම"
      ],
      [
        "ව",
        "ල"
      ],
      [
        "ප්‍",
        "ර"
      ],
      [
        "නව",
        "ද"
      ],
      [
        "ක",
        "ට"
      ],
      [
        "ති",
        "ය"
      ],
      [
        "ඔ",
        "බ"
      ],
      [
        "අපි",
        "ට"
      ],
      [
        "එ",
        "ක්ක"
      ],
      [
        "ම",
        "ක්"
      ],
      [
        "හො",
        "ම"
      ],
      [
        "දෙ",
        "යක්"
      ],
      [
        "මි",
        "නි"
      ],
      [
        "එ",
        "න්න"
      ],
      [
        "ත",
        "න"
      ],
      [
        "ඕ",
        "න"
      ],
      [
        "හො",
        "ඳ"
      ],
      [
        "වෙ",
        "න"
      ],
      [
        "එ",
        "පා"
      ],
      [
        "ඒ",
        "ත්"
      ],
      [
        "දෙ",
        "න්න"
      ],
      [
        "ග",
        "ත්"
      ],
      [
        "ලි",
        "න්"
      ],
      [
        "ද්",
        "ද"
      ],
      [
        "අ",
        "ර"
      ],
      [
        "ක",
        "තා"
      ],
      [
        "ඔයා",
        "ගේ"
      ],
      [
        "ව",
        "ට"
      ],
      [
        "ඩ",
        "ක්"
      ],
      [
        "කිය",
        "න්න"
      ],
      [
        "ද",
        "ර"
      ],
      [
        "ක",
        "වු"
      ],
      [
        "මා",
        "ව"
      ],
      [
        "ඔ",
        "ව්"
      ],
      [
        "ත",
        "මයි"
      ],
      [
        "න",
        "ය"
      ],
      [
        "කි",
        "ව්"
      ],
      [
        "පු",
        "ළු"
      ],
      [
        "අ",
        "ව"
      ],
      [
        "කිය",
        "ල"
      ],
      [
        "මොක",
        "ද"
      ],
      [
        "මොක",
        "ක්"
      ],
      [
        "කො",
        "හොම"
      ],
      [
        "හැ",
        "ම"
      ],
      [
        "ඕ",
        "නේ"
      ],
      [
        "පුළු",
        "වන්"
      ],
      [
        "යෙ",
        "න්"
      ],
      [
        "ම",
        "හ"
      ],
      [
        "වෙ",
        "යි"
      ],
      [
        "ස්",
        "ස"
      ],
      [
        "බල",
        "න්න"
      ],
      [
        "ව",
        "න්න"
      ],
      [
        "ර",
        "ක්"
      ],
      [
        "වෙ",
        "නවා"
      ],
      [
        "කර",
        "නවා"
      ],
      [
        "නෙ",
        "ක්"
      ],
      [
        "එහෙ",
        "ම"
      ],
      [
        "ඇ",
        "ති"
      ],
      [
        "ය",
        "න්"
      ],
      [
        "තියෙ",
        "නවා"
      ],
      [
        "ඇ",
        "ත්ත"
      ],
      [
        "ඇ",
        "යි"
      ],
      [
        "වි",
        "දි"
      ],
      [
        "ඇ",
        "ය"
      ],
      [
        "ම",
        "න්"
      ],
      [
        "ස",
        "හ"
      ],
      [
        "කොහොම",
        "ද"
      ],
      [
        "යෙ",
        "ක්"
      ],
      [
        "එක",
        "ක්"
      ],
      [
        "හි",
        "ටි"
      ],
      [
        "ව",
        "ර"
      ],
      [
        "වු",
        "න්"
      ],
      [
        "මෙ",
        "හෙ"
      ],
      [
        "හො",
        "ද"
      ],
      [
        "ව",
        "ද"
      ],
      [
        "කර",
        "ලා"
      ],
      [
        "ල",
        "ට"
      ],
      [
        "නැ",
        "ති"
      ],
      [
        "වැ",
        "ඩ"
      ],
      [
        "ප",
        "ස්"
      ],
      [
        "වෙ",
        "න්"
      ],
      [
        "ටි",
        "ක"
      ],
      [
        "නි",
        "ය"
      ],
      [
        "කෙ",
        "නෙක්"
      ],
      [
        "අ",
        "පේ"
      ],
      [
        "ඔයා",
        "ගෙ"
      ],
      [
        "දැ",
        "න"
      ],
      [
        "කා",
        "ර"
      ],
      [
        "අ",
        "හ"
      ],
      [
        "පු",
        "ලු"
      ],
      [
        "කර",
        "න්නේ"
      ],
      [
        "ඔයා",
        "ව"
      ],
      [
        "වා",
        "ස"
      ],
      [
        "කො",
        "ට"
      ],
      [
        "ඔ",
        "වුන්"
      ],
      [
        "එයා",
        "ට"
      ],
      [
        "ඔ",
        "ය"
      ],
      [
        "ච්",
        "ච"
      ],
      [
        "ස්",
        "සු"
      ],
      [
        "පුලු",
        "වන්"
      ],
      [
        "ත",
        "ව"
      ],
      [
        "∙",
        "∙"
      ],
      [
        "දන්න",
        "වා"
      ],
      [
        "වි",
        "තර"
      ],
      [
        "උ",
        "ඹ"
      ],
      [
        "මෙ",
        "තන"
      ],
      [
        "ම",
        "ර"
      ],
      [
        "අ",
        "ද"
      ],
      [
        "මොකක්",
        "ද"
      ],
      [
        "ති",
        "න්"
      ],
      [
        "ම",
        "ත"
      ],
      [
        "i",
        "n"
      ],
      [
        "ති",
        "යි"
      ],
      [
        "ස",
        "ර්"
      ],
      [
        "ව",
        "ල්"
      ],
      [
        "ක",
        "ව"
      ],
      [
        "කි",
        "සි"
      ],
      [
        "කැ",
        "ම"
      ],
      [
        "ම්",
        "බ"
      ],
      [
        "වු",
        "නා"
      ],
      [
        "හො",
        "යා"
      ],
      [
        "ක",
        "රු"
      ],
      [
        "ඇ",
        "තු"
      ],
      [
        "ද",
        "ව"
      ],
      [
        "නි",
        "සා"
      ],
      [
        "ක",
        "ලා"
      ],
      [
        "ය",
        "නවා"
      ],
      [
        "වි",
        "ශ්"
      ],
      [
        "කිය",
        "න්නේ"
      ],
      [
        "උ",
        "ද"
      ],
      [
        "කර",
        "න"
      ],
      [
        "තැ",
        "න"
      ],
      [
        "ගො",
        "ඩක්"
      ],
      [
        "ස",
        "මා"
      ],
      [
        "ණ",
        "ය"
      ],
      [
        "අ",
        "වු"
      ],
      [
        "වල",
        "ට"
      ],
      [
        "වගේ",
        "ම"
      ],
      [
        "බ",
        "ලා"
      ],
      [
        "අ",
        "ම්"
      ],
      [
        "අ",
        "යි"
      ],
      [
        "හොඳ",
        "යි"
      ],
      [
        "ඉ",
        "න්නේ"
      ],
      [
        "ඉන්න",
        "වා"
      ],
      [
        "ට",
        "න්"
      ],
      [
        "කවු",
        "ද"
      ],
      [
        "කි",
        "න්"
      ],
      [
        "ගත්",
        "තා"
      ],
      [
        "ඉ",
        "තින්"
      ],
      [
        "විශ්",
        "වාස"
      ],
      [
        "ම",
        "ත්"
      ],
      [
        "නේ",
        "ද"
      ],
      [
        "ක",
        "ම්"
      ],
      [
        "තියෙ",
        "න්නේ"
      ],
      [
        "හි",
        "න්"
      ],
      [
        "තා",
        "ත්"
      ],
      [
        "නැ",
        "ත්"
      ],
      [
        "ප",
        "හ"
      ],
      [
        "ස",
        "න්"
      ],
      [
        "ම",
        "ගෙ"
      ],
      [
        "ක",
        "ලින්"
      ],
      [
        "ඕ",
        "නෙ"
      ],
      [
        "ච්ච",
        "ර"
      ],
      [
        "කො",
        "හෙ"
      ],
      [
        "කෙ",
        "න්"
      ],
      [
        "න",
        "යක්"
      ],
      [
        "මො",
        "නවද"
      ],
      [
        "ප",
        "හු"
      ],
      [
        "එයා",
        "ව"
      ],
      [
        "ඇත්ත",
        "ටම"
      ],
      [
        "න්",
        "ද"
      ],
      [
        "ද",
        "න්නේ"
      ],
      [
        "තු",
        "ව"
      ],
      [
        "ය",
        "න්නේ"
      ],
      [
        "වෙ",
        "න්නේ"
      ],
      [
        "o",
        "n"
      ],
      [
        "නෙ",
        "වෙයි"
      ],
      [
        "ට",
        "ර්"
      ],
      [
        "එයා",
        "ල"
      ],
      [
        "අ",
        "නි"
      ],
      [
        "මිනි",
        "ස්සු"
      ],
      [
        "a",
        "n"
      ],
      [
        "ය",
        "න"
      ],
      [
        "ති",
        "බු"
      ],
      [
        "උද",
        "ව්"
      ],
      [
        "ප්‍ර",
        "ශ්"
      ],
      [
        "e",
        "r"
      ],
      [
        "ව",
        "ය"
      ],
      [
        "ඉ",
        "ක්"
      ],
      [
        "තු",
        "රු"
      ],
      [
        "දේ",
        "වල්"
      ],
      [
        "i",
        "t"
      ],
      [
        "ආ",
        "රක්"
      ],
      [
        "හිත",
        "න්නේ"
      ],
      [
        "කිය",
        "න"
      ],
      [
        "වෙ",
        "නු"
      ],
      [
        "ගෙ",
        "දර"
      ],
      [
        "මො",
        "න"
      ],
      [
        "සි",
        "ය"
      ],
      [
        "උ",
        "න්"
      ],
      [
        "එක",
        "ට"
      ],
      [
        "කවු",
        "රු"
      ],
      [
        "වි",
        "ය"
      ],
      [
        "වැ",
        "ඩි"
      ],
      [
        "ල",
        "ක්"
      ],
      [
        "ප",
        "රි"
      ],
      [
        "ටික",
        "ක්"
      ],
      [
        "ල්",
        "ලි"
      ],
      [
        "අ",
        "ය"
      ],
      [
        "ව",
        "ඩා"
      ],
      [
        "ඒක",
        "ට"
      ],
      [
        "ආ",
        "පහු"
      ],
      [
        "මත",
        "ක"
      ],
      [
        "ගි",
        "හින්"
      ],
      [
        "විතර",
        "යි"
      ],
      [
        "හ",
        "ට"
      ],
      [
        "සමා",
        "වෙන්න"
      ],
      [
        "වි",
        "ට"
      ],
      [
        "ස",
        "මහ"
      ],
      [
        "ක",
        "න්"
      ],
      [
        "නි",
        "න්"
      ],
      [
        "හරි",
        "යට"
      ],
      [
        "ර",
        "ක"
      ],
      [
        "ඇ",
        "වි"
      ],
      [
        "කව",
        "දා"
      ],
      [
        "ය",
        "යි"
      ],
      [
        "ක්",
        "ෂ"
      ],
      [
        "ගි",
        "යා"
      ],
      [
        "ස",
        "ක්"
      ],
      [
        "ම",
        "න"
      ],
      [
        "ගන්න",
        "වා"
      ],
      [
        "කර",
        "න්නෙ"
      ],
      [
        "ජී",
        "වි"
      ],
      [
        "එහෙ",
        "නම්"
      ],
      [
        "න",
        "ම"
      ],
      [
        "කු",
        "ත්"
      ],
      [
        "තේ",
        "රු"
      ],
      [
        "කිසි",
        "ම"
      ],
      [
        "ද්",
        "ධ"
      ],
      [
        "ඉ",
        "වර"
      ],
      [
        "ර",
        "ය"
      ],
      [
        "ග",
        "හ"
      ],
      [
        "සමහ",
        "ර"
      ],
      [
        "ඔබ",
        "ට"
      ],
      [
        "රි",
        "යා"
      ],
      [
        "අ",
        "ල්ල"
      ],
      [
        "නැ",
        "ද්ද"
      ],
      [
        "ස",
        "තු"
      ],
      [
        "m",
        "e"
      ],
      [
        "මු",
        "ත්"
      ],
      [
        "එයා",
        "ගේ"
      ],
      [
        "ඔ",
        "ක්"
      ],
      [
        "ල්",
        "ලා"
      ],
      [
        "බැ",
        "රි"
      ],
      [
        "තියෙ",
        "න"
      ],
      [
        "පස්",
        "සෙ"
      ],
      [
        "මි",
        "න්"
      ],
      [
        "වෙනු",
        "වෙන්"
      ],
      [
        "හි",
        "තු"
      ],
      [
        "ගෙ",
        "න්"
      ],
      [
        "ග",
        "ත"
      ],
      [
        "ස්",
        "තු"
      ],
      [
        "ත",
        "මා"
      ],
      [
        "එ",
        "ත"
      ],
      [
        "එයා",
        "ලා"
      ],
      [
        "හ",
        "මු"
      ],
      [
        "ව",
        "යි"
      ],
      [
        "ත",
        "මු"
      ],
      [
        "ග",
        "ත්ත"
      ],
      [
        "ත්",
        "තු"
      ],
      [
        "ස්",
        "ථා"
      ],
      [
        "බැ",
        "හැ"
      ],
      [
        "කැම",
        "ති"
      ],
      [
        "0",
        "0"
      ],
      [
        "න්",
        "නා"
      ],
      [
        "මො",
        "නා"
      ],
      [
        "ක",
        "රා"
      ],
      [
        "ව",
        "න"
      ],
      [
        "හැ",
        "මෝ"
      ],
      [
        "අ",
        "ත"
      ],
      [
        "කි",
        "රී"
      ],
      [
        "පස්",
        "සේ"
      ],
      [
        "න්",
        "ට"
      ],
      [
        "o",
        "r"
      ],
      [
        "කිය",
        "න්නෙ"
      ],
      [
        "කා",
        "ර්"
      ],
      [
        "දෙ",
        "ක"
      ],
      [
        "ය",
        "ක"
      ],
      [
        "න",
        "මුත්"
      ],
      [
        "එ",
        "නවා"
      ],
      [
        "එ",
        "කේ"
      ],
      [
        "ලො",
        "කු"
      ],
      [
        "කවදා",
        "වත්"
      ],
      [
        "a",
        "t"
      ],
      [
        "ක",
        "ල"
      ],
      [
        "ප",
        "න්"
      ],
      [
        "ක",
        "ල්"
      ],
      [
        "ඒ",
        "වා"
      ],
      [
        "කොහෙ",
        "ද"
      ],
      [
        "කිව්",
        "වා"
      ],
      [
        "අහ",
        "න්න"
      ],
      [
        "අ",
        "ප"
      ],
      [
        "ව",
        "නේ"
      ],
      [
        "තාත්",
        "තා"
      ],
      [
        "ව",
        "ර්"
      ],
      [
        "ඔයා",
        "ල"
      ],
      [
        "රු",
        "දු"
      ],
      [
        "ඕ",
        "නා"
      ],
      [
        "ස",
        "ම්"
      ],
      [
        "වෙ",
        "න්නෙ"
      ],
      [
        "ත්",
        "ම"
      ],
      [
        "වු",
        "නේ"
      ],
      [
        "හොද",
        "යි"
      ],
      [
        "ය",
        "මු"
      ],
      [
        "එත",
        "කොට"
      ],
      [
        "එ",
        "ලි"
      ],
      [
        "ඔක්",
        "කො"
      ],
      [
        "උ",
        "නා"
      ],
      [
        "වැ",
        "ර"
      ],
      [
        "වි",
        "නා"
      ],
      [
        "ර",
        "ම"
      ],
      [
        "කා",
        "ල"
      ],
      [
        "වෙන",
        "ස්"
      ],
      [
        "පො",
        "ඩි"
      ],
      [
        "මොක",
        "ද්ද"
      ],
      [
        "ව",
        "හ"
      ],
      [
        "හේ",
        "යි"
      ],
      [
        "එ",
        "ය"
      ],
      [
        "හ",
        "ස්"
      ],
      [
        "කරු",
        "ණා"
      ],
      [
        "ක",
        "ලේ"
      ],
      [
        "පි",
        "ට"
      ],
      [
        "නැ",
        "ව"
      ],
      [
        "දා",
        "න්න"
      ],
      [
        "ත",
        "ත්"
      ],
      [
        "මැ",
        "රු"
      ],
      [
        "ඔ",
        "හ්"
      ],
      [
        "ස",
        "ම"
      ],
      [
        "අ",
        "න්"
      ],
      [
        "හැ",
        "කි"
      ],
      [
        "උ",
        "ත්"
      ],
      [
        "හ",
        "ද"
      ],
      [
        "මා",
        "රු"
      ],
      [
        "ති",
        "බ්"
      ],
      [
        "ක",
        "ය"
      ],
      [
        "ප",
        "ත්"
      ],
      [
        "ඔක්කො",
        "ම"
      ],
      [
        "රි",
        "ය"
      ],
      [
        "තියෙ",
        "න්නෙ"
      ],
      [
        "අ",
        "නේ"
      ],
      [
        "දන්න",
        "වද"
      ],
      [
        "හිටි",
        "යේ"
      ],
      [
        "∙∙",
        "∙"
      ],
      [
        "ත්‍",
        "ර"
      ],
      [
        "මෙ",
        "යි"
      ],
      [
        "මෙ",
        "යා"
      ],
      [
        "තු",
        "ර"
      ],
      [
        "a",
        "r"
      ],
      [
        "දැ",
        "ක්"
      ],
      [
        "ව",
        "ලින්"
      ],
      [
        "ක",
        "ළා"
      ],
      [
        "ඉ",
        "න්නෙ"
      ],
      [
        "න",
        "ක්"
      ],
      [
        "ඔයා",
        "ලා"
      ],
      [
        "තිය",
        "නවා"
      ],
      [
        "කෙ",
        "නා"
      ],
      [
        "හිත",
        "න්නෙ"
      ],
      [
        "වැර",
        "දි"
      ],
      [
        "එ",
        "ක්"
      ],
      [
        "ඔහු",
        "ට"
      ],
      [
        "නිය",
        "මයි"
      ],
      [
        "නෙ",
        "මෙයි"
      ],
      [
        "ර",
        "ණ"
      ],
      [
        "ඉ",
        "ඳ"
      ],
      [
        "ස",
        "ල්ලි"
      ],
      [
        "තර",
        "ම්"
      ],
      [
        "විදි",
        "හට"
      ],
      [
        "කර",
        "ගන්න"
      ],
      [
        "ඉ",
        "ද"
      ],
      [
        "ඔ",
        "හේ"
      ],
      [
        "නිය",
        "ම"
      ],
      [
        "අවු",
        "රුදු"
      ],
      [
        "ප",
        "ටන්"
      ],
      [
        "ට්",
        "ටු"
      ],
      [
        ".",
        "\""
      ],
      [
        "අ",
        "ත්"
      ],
      [
        "එක",
        "ම"
      ],
      [
        "ට",
        "ද"
      ],
      [
        "බ",
        "ය"
      ],
      [
        "වු",
        "න"
      ],
      [
        "දු",
        "ර"
      ],
      [
        "වැ",
        "ඩක්"
      ],
      [
        "ති",
        "යා"
      ],
      [
        "ස",
        "ට"
      ],
      [
        "කර",
        "පු"
      ],
      [
        "හරි",
        "ද"
      ],
      [
        "වෙලා",
        "ව"
      ],
      [
        "පි",
        "රි"
      ],
      [
        "පො",
        "රො"
      ],
      [
        "නැත්",
        "නම්"
      ],
      [
        "බ",
        "ව"
      ],
      [
        "ච්",
        "චි"
      ],
      [
        "ල්",
        "ලෙ"
      ],
      [
        "t",
        "h"
      ],
      [
        "යා",
        "ළු"
      ],
      [
        "ව",
        "ම"
      ],
      [
        "ත",
        "ය"
      ],
      [
        "හො",
        "ඳි"
      ],
      [
        "දි",
        "හා"
      ],
      [
        "ආ",
        "වේ"
      ],
      [
        "ට්",
        "ටි"
      ],
      [
        "ස",
        "යි"
      ],
      [
        "ක",
        "යි"
      ],
      [
        "ලැ",
        "බු"
      ],
      [
        "අව",
        "ශ්‍"
      ],
      [
        "කිව්",
        "වේ"
      ],
      [
        "ඔ",
        "බේ"
      ],
      [
        "හොයා",
        "ගන්න"
      ],
      [
        "එ",
        "තන"
      ],
      [
        "නව",
        "ත්ත"
      ],
      [
        "න්",
        "ධ"
      ],
      [
        "වා",
        "ර්"
      ],
      [
        "ආ",
        "ද"
      ],
      [
        "ස",
        "ම්බ"
      ],
      [
        "ස්",
        "තූ"
      ],
      [
        "නව",
        "ත්"
      ],
      [
        "ක",
        "මක්"
      ],
      [
        "එලි",
        "යට"
      ],
      [
        "පා",
        "ල"
      ],
      [
        "ග",
        "ය"
      ],
      [
        "විදි",
        "යට"
      ],
      [
        "ඊ",
        "ට"
      ],
      [
        "මැ",
        "රෙ"
      ],
      [
        "මො",
        "නවා"
      ],
      [
        "නැ",
        "තුව"
      ],
      [
        "තු",
        "වක්"
      ],
      [
        "රෙ",
        "න්"
      ],
      [
        "ඇවි",
        "ත්"
      ],
      [
        "ඇ",
        "හු"
      ],
      [
        "වෙ",
        "නි"
      ],
      [
        "ල",
        "ග"
      ],
      [
        "ඕ",
        "නි"
      ],
      [
        "හැමෝ",
        "ම"
      ],
      [
        "ප",
        "ල"
      ],
      [
        "බො",
        "රු"
      ],
      [
        "ප්‍ර",
        "ති"
      ],
      [
        "පෙ",
        "න්"
      ],
      [
        "උ",
        "ප"
      ],
      [
        "s",
        "t"
      ],
      [
        "ය",
        "න්නෙ"
      ],
      [
        "it",
        "y"
      ],
      [
        "අ",
        "ඩු"
      ],
      [
        "වෙ",
        "ඩි"
      ],
      [
        "හො",
        "දි"
      ],
      [
        "කර",
        "ල"
      ],
      [
        "ග",
        "මන්"
      ],
      [
        "ද",
        "න්නෙ"
      ],
      [
        "පා",
        "ර"
      ],
      [
        "කිය",
        "නවා"
      ],
      [
        "C",
        "ity"
      ],
      [
        "අම්",
        "මා"
      ],
      [
        "පො",
        "ඩ්"
      ],
      [
        "පි",
        "ළි"
      ],
      [
        "අ",
        "න"
      ],
      [
        "සි",
        "දු"
      ],
      [
        "වැ",
        "ඩේ"
      ],
      [
        "දැ",
        "ක්ක"
      ],
      [
        "සු",
        "න්"
      ],
      [
        "පැ",
        "ත්ත"
      ],
      [
        "න්",
        "දු"
      ],
      [
        "න",
        "යි"
      ],
      [
        "මෙ",
        "හේ"
      ],
      [
        "ගැ",
        "නී"
      ],
      [
        "යු",
        "තු"
      ],
      [
        "එයා",
        "ගෙ"
      ],
      [
        "පු",
        "තා"
      ],
      [
        "ගි",
        "ය"
      ],
      [
        "වෙ",
        "ක්"
      ],
      [
        "ද",
        "කි"
      ],
      [
        "ප",
        "රී"
      ],
      [
        "පැ",
        "හැ"
      ],
      [
        "හිටි",
        "යා"
      ],
      [
        "ආ",
        "දර"
      ],
      [
        "දැන",
        "ගන්න"
      ],
      [
        "න",
        "ග"
      ],
      [
        "ක්‍",
        "රියා"
      ],
      [
        "මොනා",
        "ද"
      ],
      [
        "ටි",
        "න්"
      ],
      [
        "නො",
        "ත්"
      ],
      [
        "ස",
        "හෝ"
      ],
      [
        "අර",
        "න්"
      ],
      [
        "තා",
        "ත්ත"
      ],
      [
        "අර",
        "ගෙන"
      ],
      [
        "ර",
        "යක්"
      ],
      [
        "ප",
        "සු"
      ],
      [
        "ස්තු",
        "තියි"
      ],
      [
        "o",
        "u"
      ],
      [
        "a",
        "me"
      ],
      [
        "තේ",
        "රෙ"
      ],
      [
        "අපි",
        "ව"
      ],
      [
        "පො",
        "ලි"
      ],
      [
        "එ",
        "ත්"
      ],
      [
        "කො",
        "ච්චර"
      ],
      [
        "දෙ",
        "නවා"
      ],
      [
        "වා",
        "හ"
      ],
      [
        "හ",
        "ම්බ"
      ],
      [
        "න්",
        "ම"
      ],
      [
        "ඒ",
        "යි"
      ],
      [
        "එ",
        "ළි"
      ],
      [
        "වො",
        "ත්"
      ],
      [
        "ල",
        "ස්ස"
      ],
      [
        "ර්",
        "ණ"
      ],
      [
        "e",
        "s"
      ],
      [
        "සම්බ",
        "න්ධ"
      ],
      [
        "න",
        "රක"
      ],
      [
        "ඉක්",
        "මන"
      ],
      [
        "න්‍",
        "ය"
      ],
      [
        "ල",
        "බා"
      ],
      [
        "e",
        "n"
      ],
      [
        "ත්",
        "තෙ"
      ],
      [
        "ආ",
        "වා"
      ],
      [
        "ඔහු",
        "ව"
      ],
      [
        "අ",
        "නු"
      ],
      [
        "එ",
        "න"
      ],
      [
        "යි",
        "න්"
      ],
      [
        "ල",
        "ය"
      ],
      [
        "ඒ",
        "කෙන්"
      ],
      [
        "k",
        "g"
      ],
      [
        "කැම",
        "තියි"
      ],
      [
        "සි",
        "ටි"
      ],
      [
        "ස",
        "ර"
      ],
      [
        "උ",
        "ඩ"
      ],
      [
        "උ",
        "බ"
      ],
      [
        "පි",
        "ස්සු"
      ],
      [
        "kg",
        "m"
      ],
      [
        "යා",
        "ලු"
      ],
      [
        "ගත්",
        "තේ"
      ],
      [
        "ස",
        "ල"
      ],
      [
        "ක",
        "ම"
      ],
      [
        "හි",
        "ට"
      ],
      [
        "ආරක්",
        "ෂා"
      ],
      [
        "එයා",
        "ලට"
      ],
      [
        "පොඩ්",
        "ඩක්"
      ],
      [
        "සමහර",
        "විට"
      ],
      [
        "ති",
        "යන්න"
      ],
      [
        "උ",
        "නේ"
      ],
      [
        "දැ",
        "නෙ"
      ],
      [
        "යෙන්",
        "ම"
      ],
      [
        "ක",
        "ණ්"
      ],
      [
        "ස්තූ",
        "තියි"
      ],
      [
        "ර",
        "හ"
      ],
      [
        "වු",
        "ණා"
      ],
      [
        "අනි",
        "ත්"
      ],
      [
        "ජී",
        "වත්"
      ],
      [
        "වී",
        "ම"
      ],
      [
        "මා",
        "ර්"
      ],
      [
        "නෙ",
        "මේ"
      ],
      [
        "ප",
        "ත"
      ],
      [
        "ස්",
        "තර"
      ],
      [
        "දෙයක්",
        "ම"
      ],
      [
        "හ",
        "න්"
      ],
      [
        "ව",
        "නවා"
      ],
      [
        "පැ",
        "න"
      ],
      [
        "වේ",
        "වි"
      ],
      [
        "සෙ",
        "ල්ල"
      ],
      [
        "ඇතු",
        "ලට"
      ],
      [
        "එ",
        "ච්චර"
      ],
      [
        "ක",
        "ර්"
      ],
      [
        "ද",
        "රු"
      ],
      [
        "ලි",
        "ය"
      ],
      [
        "හැ",
        "දු"
      ],
      [
        "ඩා",
        "ය"
      ],
      [
        "කරුණා",
        "කරලා"
      ],
      [
        "ඇ",
        "යට"
      ],
      [
        "ස",
        "ඳ"
      ],
      [
        "ප",
        "වු"
      ],
      [
        "ග",
        "ල"
      ],
      [
        "යා",
        "ව"
      ],
      [
        "ජැ",
        "ක්"
      ],
      [
        "ළ",
        "ම"
      ],
      [
        "මා",
        "ත්"
      ],
      [
        "හි",
        "ර"
      ],
      [
        "අන්",
        "ති"
      ],
      [
        "වෙ",
        "නව"
      ],
      [
        "අ",
        "මාරු"
      ],
      [
        "මෙ",
        "න්න"
      ],
      [
        "ර",
        "ස්"
      ],
      [
        "හිත",
        "නවා"
      ],
      [
        "ට්",
        "ට"
      ],
      [
        "අවශ්‍",
        "ය"
      ],
      [
        "මෙ",
        "න්"
      ],
      [
        "ගො",
        "ඩ"
      ],
      [
        "දෙ",
        "විය"
      ],
      [
        "කියල",
        "ද"
      ],
      [
        "ම",
        "ගු"
      ],
      [
        "කො",
        "හේ"
      ],
      [
        "තා",
        "ව"
      ],
      [
        "ඉ",
        "ඩ"
      ],
      [
        "ඉවර",
        "යි"
      ],
      [
        "ළ",
        "ඟ"
      ],
      [
        "ත",
        "වත්"
      ],
      [
        "කිව්",
        "වෙ"
      ],
      [
        "මර",
        "න්න"
      ],
      [
        "කා",
        "ට"
      ],
      [
        "පුලුවන්",
        "ද"
      ],
      [
        "සා",
        "මා"
      ],
      [
        "ටු",
        "යි"
      ],
      [
        "කු",
        "ණු"
      ],
      [
        "i",
        "on"
      ],
      [
        "හොඳි",
        "න්"
      ],
      [
        "ලැ",
        "බෙ"
      ],
      [
        "ඉක්මන",
        "ට"
      ],
      [
        "නැව",
        "ත"
      ],
      [
        "ඉ",
        "දි"
      ],
      [
        "ණ",
        "යක්"
      ],
      [
        "නැ",
        "ගි"
      ],
      [
        "තා",
        "ම"
      ],
      [
        "පු",
        "දු"
      ],
      [
        "මෝ",
        "ඩ"
      ],
      [
        "ඕ",
        "ක"
      ],
      [
        "තිය",
        "න"
      ],
      [
        "ජ",
        "න"
      ],
      [
        "අ",
        "තර"
      ],
      [
        "ප්‍රශ්",
        "නයක්"
      ],
      [
        "ල",
        "යි"
      ],
      [
        "ම",
        "නු"
      ],
      [
        "අ",
        "ලු"
      ],
      [
        "දෙ",
        "වි"
      ],
      [
        "ක",
        "ට්ටි"
      ],
      [
        "තුවක්",
        "කු"
      ],
      [
        "උ",
        "න"
      ],
      [
        "රෙ",
        "යි"
      ],
      [
        "කණ්",
        "ඩාය"
      ],
      [
        "ක්",
        "ස්"
      ],
      [
        "මහ",
        "ත්ත"
      ],
      [
        "වි",
        "සි"
      ],
      [
        "ඔහු",
        "ගේ"
      ],
      [
        "ඔයා",
        "ලට"
      ],
      [
        "න",
        "ට"
      ],
      [
        "ස",
        "ක"
      ],
      [
        "ව",
        "රු"
      ],
      [
        "ඇය",
        "ව"
      ],
      [
        "දන්න",
        "ව"
      ],
      [
        "a",
        "l"
      ],
      [
        "ඔය",
        "ත්"
      ],
      [
        "තේරු",
        "ම්"
      ],
      [
        "ග",
        "න්නේ"
      ],
      [
        "ආ",
        "යෙ"
      ],
      [
        "මු",
        "හු"
      ],
      [
        "බලා",
        "ගෙන"
      ],
      [
        "උඹ",
        "ට"
      ],
      [
        "නැ",
        "ත්ත"
      ],
      [
        "අද",
        "හ"
      ],
      [
        "රි",
        "කා"
      ],
      [
        "දේ",
        "ම"
      ],
      [
        "දො",
        "ර"
      ],
      [
        "දි",
        "ග"
      ],
      [
        "දා",
        "ලා"
      ],
      [
        "ගො",
        "නු"
      ],
      [
        "ම්",
        "ම්"
      ],
      [
        "මි",
        "ය"
      ],
      [
        "දු",
        "ව"
      ],
      [
        "අව",
        "ස්ථා"
      ],
      [
        "ස්",
        "ති"
      ],
      [
        "හ",
        "ර"
      ],
      [
        "ට",
        "ත්"
      ],
      [
        "ග",
        "යක්"
      ],
      [
        "එ",
        "කෙන්"
      ],
      [
        "කර",
        "යි"
      ],
      [
        "ඒ",
        "වගේම"
      ],
      [
        "තු",
        "මා"
      ],
      [
        "ඉ",
        "ස්ස"
      ],
      [
        "කරන්න",
        "ම්"
      ],
      [
        "න්",
        "ව"
      ],
      [
        "N",
        "ame"
      ],
      [
        "ප",
        "ර්"
      ],
      [
        "ල්",
        "ලෝ"
      ],
      [
        "තාත්",
        "තේ"
      ],
      [
        "කි",
        "වු"
      ],
      [
        "තියෙ",
        "නවද"
      ],
      [
        "ල",
        "ඟ"
      ],
      [
        "ක්‍",
        "රම"
      ],
      [
        "ඉක්",
        "ම"
      ],
      [
        "අයි",
        "න්"
      ],
      [
        "බේ",
        "ර"
      ],
      [
        "i",
        "s"
      ],
      [
        "ම",
        "ග"
      ],
      [
        "පැහැ",
        "දි"
      ],
      [
        "කො",
        "ල්ල"
      ],
      [
        "කර",
        "නව"
      ],
      [
        "දි",
        "න"
      ],
      [
        "වි",
        "හි"
      ],
      [
        "දෙවිය",
        "නේ"
      ],
      [
        "ර",
        "යි"
      ],
      [
        "හිත",
        "න්න"
      ],
      [
        "සු",
        "ම්"
      ],
      [
        "l",
        "e"
      ],
      [
        "අ",
        "මතක"
      ],
      [
        "විනා",
        "ශ"
      ],
      [
        "මු",
        "ණ"
      ],
      [
        "ල",
        "ර්"
      ],
      [
        "නි",
        "ර්"
      ],
      [
        "හා",
        "ට"
      ],
      [
        "මො",
        "නව"
      ],
      [
        "i",
        "c"
      ],
      [
        "තිය",
        "නව"
      ],
      [
        "ල",
        "න්"
      ],
      [
        "ල්ලෙ",
        "ක්"
      ],
      [
        "මෙහෙ",
        "ට"
      ],
      [
        "ක",
        "රේ"
      ],
      [
        "ඉ",
        "තිං"
      ],
      [
        "ගා",
        "ව"
      ],
      [
        "-",
        "-"
      ],
      [
        "සි",
        "ද්ධ"
      ],
      [
        "ආද",
        "රෙයි"
      ],
      [
        "වැ",
        "ද"
      ],
      [
        "දැක්",
        "කා"
      ],
      [
        "කර",
        "නවද"
      ],
      [
        "ද්",
        "දි"
      ],
      [
        "ර",
        "න්"
      ],
      [
        "නි",
        "ද"
      ],
      [
        "හැ",
        "ටි"
      ],
      [
        "සහෝ",
        "දර"
      ],
      [
        "ද",
        "ය"
      ],
      [
        "සඳ",
        "හා"
      ],
      [
        "පූ",
        "ර්ණ"
      ],
      [
        "හොදි",
        "න්"
      ],
      [
        "ගි",
        "යේ"
      ],
      [
        "තො",
        "ර"
      ],
      [
        "ජීවි",
        "ත"
      ],
      [
        "ග",
        "ණ"
      ],
      [
        "ප",
        "ති"
      ],
      [
        "තමු",
        "සෙ"
      ],
      [
        "ඇ",
        "ම"
      ],
      [
        "දැ",
        "ම්"
      ],
      [
        "ව",
        "ච"
      ],
      [
        "කෑ",
        "ම"
      ],
      [
        "විනා",
        "ඩි"
      ],
      [
        "වැද",
        "ගත්"
      ],
      [
        "ප",
        "ර"
      ],
      [
        "කර",
        "මු"
      ],
      [
        "හ",
        "ම්"
      ],
      [
        "සැ",
        "ක"
      ],
      [
        "කර",
        "දර"
      ],
      [
        "ත",
        "නින්"
      ],
      [
        "අලු",
        "ත්"
      ],
      [
        "පා",
        "වි"
      ],
      [
        "ය",
        "කට"
      ],
      [
        "ස්",
        "ම"
      ],
      [
        "එක",
        "තු"
      ],
      [
        "ර",
        "ණය"
      ],
      [
        "ෂ",
        "ක"
      ],
      [
        "නැත්",
        "තේ"
      ],
      [
        "මම",
        "යි"
      ],
      [
        "නවත්ත",
        "න්න"
      ],
      [
        "හරි",
        "ම"
      ],
      [
        "දැන්",
        "ම"
      ],
      [
        "එළි",
        "යට"
      ],
      [
        "අව",
        "සා"
      ],
      [
        "ක්‍",
        "රී"
      ],
      [
        "මු",
        "කුත්"
      ],
      [
        "මු",
        "ළු"
      ],
      [
        "ඇ",
        "ත"
      ],
      [
        "රි",
        "ලා"
      ],
      [
        "කෙ",
        "ල්ල"
      ],
      [
        "කෝ",
        "ල්"
      ],
      [
        "ප",
        "ස්ස"
      ],
      [
        "ඇ",
        "ස්"
      ],
      [
        "පාවි",
        "ච්චි"
      ],
      [
        "මේක",
        "ට"
      ],
      [
        "ට",
        "යි"
      ],
      [
        "දව",
        "ස්"
      ],
      [
        "කා",
        "ලෙ"
      ],
      [
        "ජ",
        "ය"
      ],
      [
        "ළ",
        "මයි"
      ],
      [
        "දේ",
        "ශ"
      ],
      [
        "ත",
        "යි"
      ],
      [
        "ස්",
        "ටර්"
      ],
      [
        "ව්‍",
        "යා"
      ],
      [
        "ර්",
        "ථ"
      ],
      [
        "නැත්ත",
        "ම්"
      ],
      [
        "සේ",
        "රම"
      ],
      [
        "කි",
        "යා"
      ],
      [
        "ඉ",
        "ස්"
      ],
      [
        "නි",
        "කන්"
      ],
      [
        "කට්ටි",
        "ය"
      ],
      [
        "හිටි",
        "ය"
      ],
      [
        "වි",
        "ශේ"
      ],
      [
        "විතර",
        "ක්"
      ],
      [
        "r",
        "e"
      ],
      [
        "විදි",
        "හ"
      ],
      [
        "පහ",
        "ර"
      ],
      [
        "අ",
        "රි"
      ],
      [
        "ලෝ",
        "ක"
      ],
      [
        "මිනි",
        "හෙ"
      ],
      [
        "පුදු",
        "ම"
      ],
      [
        "ව",
        "තා"
      ],
      [
        "t",
        "o"
      ],
      [
        "තිබු",
        "නා"
      ],
      [
        "ක",
        "න්න"
      ],
      [
        "පා",
        "රක්"
      ],
      [
        "හැ",
        "ර"
      ],
      [
        "ශ",
        "ක්"
      ],
      [
        "නැති",
        "ව"
      ],
      [
        "ව්",
        "වා"
      ],
      [
        "1",
        "0"
      ],
      [
        "යු",
        "ධ"
      ],
      [
        "ඉදි",
        "රි"
      ],
      [
        "අ",
        "හ්"
      ],
      [
        "පරී",
        "ක්ෂ"
      ],
      [
        "ග",
        "න්"
      ],
      [
        "ද",
        "ක්"
      ],
      [
        "හා",
        "යි"
      ],
      [
        "ව",
        "න්නේ"
      ],
      [
        "තා",
        "මත්"
      ],
      [
        "ලෙ",
        "න්"
      ],
      [
        "ත",
        "මන්"
      ],
      [
        "උත්",
        "සහ"
      ],
      [
        "ව",
        "තුර"
      ],
      [
        "සම්",
        "පූර්ණ"
      ],
      [
        "දු",
        "න්නා"
      ],
      [
        "ඩ",
        "ය"
      ],
      [
        "කර",
        "ගෙන"
      ],
      [
        "e",
        "l"
      ],
      [
        "i",
        "a"
      ],
      [
        "කා",
        "මර"
      ],
      [
        "පි",
        "න්"
      ],
      [
        "ඔවුන්",
        "ට"
      ],
      [
        "වුන",
        "ත්"
      ],
      [
        "දෙ",
        "න"
      ],
      [
        "මෙ",
        "තනින්"
      ],
      [
        "ව",
        "ලා"
      ],
      [
        "දකි",
        "න්න"
      ],
      [
        "මිනි",
        "හා"
      ],
      [
        "ක",
        "ඩ"
      ],
      [
        "ගන්න",
        "ම්"
      ],
      [
        "ස",
        "ටන්"
      ],
      [
        "ක",
        "ළේ"
      ],
      [
        "ජීවි",
        "තේ"
      ],
      [
        "පැහැදි",
        "ලි"
      ],
      [
        "පොරො",
        "න්දු"
      ],
      [
        "බලා",
        "පොරො"
      ],
      [
        "හරියට",
        "ම"
      ],
      [
        "මම",
        "ත්"
      ],
      [
        "සු",
        "භ"
      ],
      [
        "නා",
        "ව"
      ],
      [
        "එන්න",
        "ම්"
      ],
      [
        "අ",
        "න්න"
      ],
      [
        "සැ",
        "ල"
      ],
      [
        "දැන",
        "ටම"
      ],
      [
        "හ",
        "යි"
      ],
      [
        "පි",
        "ටි"
      ],
      [
        "ති",
        "යේ"
      ],
      [
        "මොක",
        "ටද"
      ],
      [
        "හැම",
        "දේම"
      ],
      [
        "ආ",
        "ර"
      ],
      [
        "ඔ",
        "හොම"
      ],
      [
        "ල්",
        "ලු"
      ],
      [
        "දැ",
        "නු"
      ],
      [
        "බි",
        "රි"
      ],
      [
        "කෙ",
        "න"
      ],
      [
        "ක",
        "ණ"
      ],
      [
        "ප",
        "ළ"
      ],
      [
        "තු",
        "න්"
      ],
      [
        "පි",
        "ය"
      ],
      [
        "හ",
        "දන්නේ"
      ],
      [
        "දි",
        "ය"
      ],
      [
        "ග",
        "ම"
      ],
      [
        "උද",
        "වු"
      ],
      [
        "ත",
        "ර්"
      ],
      [
        "ක",
        "ළ"
      ],
      [
        "ලින්",
        "ම"
      ],
      [
        "දෙවි",
        "යන්"
      ],
      [
        "දා",
        "නම්"
      ],
      [
        "සාමා",
        "න්‍ය"
      ],
      [
        "o",
        "m"
      ],
      [
        "අ",
        "හු"
      ],
      [
        "ඇ",
        "ද"
      ],
      [
        "තියා",
        "ගන්න"
      ],
      [
        "සා",
        "හ"
      ],
      [
        "ආ",
        "වෙ"
      ],
      [
        "මගෙ",
        "න්"
      ],
      [
        "S",
        "A"
      ],
      [
        "මැරෙ",
        "න්න"
      ],
      [
        "හිටි",
        "යෙ"
      ],
      [
        "ඉස්ස",
        "ර"
      ],
      [
        "දෙ",
        "යි"
      ],
      [
        "න්",
        "නෑ"
      ],
      [
        "කාර",
        "යෙක්"
      ],
      [
        "මිනිහෙ",
        "ක්"
      ],
      [
        "හෙ",
        "ට"
      ],
      [
        "රි",
        "න්"
      ],
      [
        "හිතු",
        "වේ"
      ],
      [
        "විශේ",
        "ෂ"
      ],
      [
        "මෙහෙ",
        "ම"
      ],
      [
        "දු",
        "ම්"
      ],
      [
        "වි",
        "ද්‍"
      ],
      [
        "හි",
        "තෙ"
      ],
      [
        "පාල",
        "නය"
      ],
      [
        "වි",
        "ත"
      ],
      [
        "අවු",
        "ලක්"
      ],
      [
        "දෙ",
        "න්නෙ"
      ],
      [
        "හෙ",
        "න්න"
      ],
      [
        "හමු",
        "දා"
      ],
      [
        "ය",
        "නව"
      ],
      [
        "මට",
        "ත්"
      ],
      [
        "ර්",
        "ශ"
      ],
      [
        "ත්",
        "තේ"
      ],
      [
        "n",
        "t"
      ],
      [
        "අද",
        "හස්"
      ],
      [
        "පු",
        "ර"
      ],
      [
        "ම",
        "ය"
      ],
      [
        "රා",
        "ධ"
      ],
      [
        "දෙක",
        "ක්"
      ],
      [
        "හි",
        "තා"
      ],
      [
        "a",
        "s"
      ],
      [
        "කිව්",
        "ව"
      ],
      [
        "සා",
        "ක්"
      ],
      [
        "උත්",
        "සාහ"
      ],
      [
        "කිරී",
        "ම"
      ],
      [
        "මු",
        "ද"
      ],
      [
        "ගු",
        "වන්"
      ],
      [
        "බැ",
        "ලු"
      ],
      [
        "ප",
        "යක්"
      ],
      [
        "දා",
        "ගන්න"
      ],
      [
        "උ",
        "ත්ත"
      ],
      [
        "මනු",
        "ස්ස"
      ],
      [
        "ආදර",
        "ය"
      ],
      [
        "බලාපොරො",
        "ත්තු"
      ],
      [
        "කු",
        "ණ"
      ],
      [
        "මී",
        "ට"
      ],
      [
        "සතු",
        "ට"
      ],
      [
        "චා",
        "ර්"
      ],
      [
        "දැක්ක",
        "ද"
      ],
      [
        "o",
        "w"
      ],
      [
        "පැ",
        "ය"
      ],
      [
        "කණ",
        "ගා"
      ],
      [
        "න",
        "යේ"
      ],
      [
        "හො",
        "ර"
      ],
      [
        "පි",
        "යා"
      ],
      [
        "පුළුවන්",
        "ද"
      ],
      [
        "පස්සෙ",
        "න්"
      ],
      [
        "කෙන",
        "කේ"
      ],
      [
        "සෙල්ල",
        "ම්"
      ],
      [
        "මො",
        "කුත්"
      ],
      [
        "ප්",
        "පු"
      ],
      [
        "ලො",
        "ක්"
      ],
      [
        "ක්",
        "ෂා"
      ],
      [
        "වි",
        "න්"
      ],
      [
        "th",
        "e"
      ],
      [
        "i",
        "l"
      ],
      [
        "බ",
        "ර"
      ],
      [
        "පෙ",
        "ර"
      ],
      [
        "ද්",
        "ධි"
      ],
      [
        "U",
        "SA"
      ],
      [
        "දිග",
        "ටම"
      ],
      [
        "හ",
        "දන්න"
      ],
      [
        "පේ",
        "න"
      ],
      [
        "ලෙ",
        "ස"
      ],
      [
        "මා",
        "ස"
      ],
      [
        "බො",
        "හොම"
      ],
      [
        "අ",
        "නා"
      ],
      [
        "පි",
        "ලි"
      ],
      [
        "ද්",
        "දී"
      ],
      [
        "o",
        "l"
      ],
      [
        "ඉ",
        "න්"
      ],
      [
        "a",
        "d"
      ],
      [
        "ඉද",
        "න්"
      ],
      [
        "තොර",
        "තුරු"
      ],
      [
        "පෙ",
        "න්න"
      ],
      [
        "මිනි",
        "හ"
      ],
      [
        "ති",
        "යක්"
      ],
      [
        "ක්",
        "ටර්"
      ],
      [
        "මෙ",
        "ම"
      ],
      [
        "පැ",
        "ටි"
      ],
      [
        "ක",
        "යෙක්"
      ],
      [
        "කො",
        "හ"
      ],
      [
        "ය",
        "ර්"
      ],
      [
        "උ",
        "දේ"
      ],
      [
        "දැනටම",
        "ත්"
      ],
      [
        "අම්",
        "මේ"
      ],
      [
        "ලස්ස",
        "න"
      ],
      [
        "ග",
        "ක්"
      ],
      [
        "ඇ",
        "න්"
      ],
      [
        "ඒ",
        "ව"
      ],
      [
        "සු",
        "දු"
      ],
      [
        "ස්",
        "ව"
      ],
      [
        "වෙලා",
        "වට"
      ],
      [
        "යාළු",
        "වා"
      ],
      [
        "ය",
        "නේ"
      ],
      [
        "ධා",
        "න"
      ],
      [
        "රා",
        "ව"
      ],
      [
        "නවත්",
        "වන්න"
      ],
      [
        "මේ",
        "වා"
      ],
      [
        "දැන",
        "ගෙන"
      ],
      [
        "ඉඳ",
        "න්"
      ],
      [
        "ප",
        "ණි"
      ],
      [
        "ප",
        "ම"
      ],
      [
        "සා",
        "ද"
      ],
      [
        "ති",
        "බෙ"
      ],
      [
        "ආ",
        "ව"
      ],
      [
        "එ",
        "කෙ"
      ],
      [
        "වේ",
        "ද"
      ],
      [
        "අදහ",
        "සක්"
      ],
      [
        "ඩු",
        "ව"
      ],
      [
        "වා",
        "ද"
      ],
      [
        "ත",
        "රු"
      ],
      [
        "රා",
        "ජ"
      ],
      [
        "දෙ",
        "නෙක්"
      ],
      [
        "ඉක්",
        "මන්"
      ],
      [
        "ඔබ",
        "ව"
      ],
      [
        "හ",
        "තර"
      ],
      [
        "හොඳ",
        "ට"
      ],
      [
        "රෙ",
        "න්න"
      ],
      [
        "ඉන්න",
        "ව"
      ],
      [
        "දෙ",
        "න්නේ"
      ],
      [
        "නි",
        "ල"
      ],
      [
        "වි",
        "ස්තර"
      ],
      [
        "ඉ",
        "ල්ල"
      ],
      [
        "හිට",
        "පු"
      ],
      [
        "මහත්ත",
        "යා"
      ],
      [
        "අම්",
        "ම"
      ],
      [
        "ඕ",
        "හ්"
      ],
      [
        "ව",
        "ස"
      ],
      [
        "ජීවි",
        "තය"
      ],
      [
        "ර",
        "ට"
      ],
      [
        "ගහ",
        "න්න"
      ],
      [
        "ත",
        "නි"
      ],
      [
        "ග",
        "න"
      ],
      [
        "අ",
        "ස"
      ],
      [
        "එ",
        "න්නේ"
      ],
      [
        "පොලි",
        "ස්"
      ],
      [
        "මහ",
        "ත්"
      ],
      [
        "ව",
        "ග"
      ],
      [
        "ආයෙ",
        "ත්"
      ],
      [
        "ඉන්න",
        "වද"
      ],
      [
        "ල්ල",
        "ක්"
      ],
      [
        "වැ",
        "රැ"
      ],
      [
        "කු",
        "ට"
      ],
      [
        "සහෝදර",
        "යා"
      ],
      [
        "F",
        "F"
      ],
      [
        "නව",
        "ති"
      ],
      [
        "න්",
        "ගේ"
      ],
      [
        "නි",
        "යෝ"
      ],
      [
        "ප",
        "රණ"
      ],
      [
        "ආරක්",
        "ෂක"
      ],
      [
        "දන්න",
        "වනේ"
      ],
      [
        "ව",
        "ටි"
      ],
      [
        "ප",
        "ටි"
      ],
      [
        "ලක්",
        "ද"
      ],
      [
        "තිබ්",
        "බා"
      ],
      [
        "දු",
        "න්න"
      ],
      [
        "ග",
        "න්නෙ"
      ],
      [
        "බි",
        "ම"
      ],
      [
        "කා",
        "න්"
      ],
      [
        "ද",
        "හ"
      ],
      [
        "ඉක්ම",
        "නින්"
      ],
      [
        "එක",
        "යි"
      ],
      [
        "වෙලා",
        "වෙ"
      ],
      [
        "දු",
        "වන්න"
      ],
      [
        "පැ",
        "මි"
      ],
      [
        "ලෝ",
        "කය"
      ],
      [
        "පො",
        "යි"
      ],
      [
        "2",
        "0"
      ],
      [
        "e",
        "c"
      ],
      [
        "h",
        "er"
      ],
      [
        "අප",
        "ට"
      ],
      [
        "මෙතන",
        "ට"
      ],
      [
        "තැන",
        "ක්"
      ],
      [
        "ප්‍ර",
        "මා"
      ],
      [
        "අනි",
        "වාර්"
      ],
      [
        "බ",
        "ර්"
      ],
      [
        "ත්ම",
        "ක"
      ],
      [
        "ය",
        "ව"
      ],
      [
        "නෙ",
        "වයි"
      ],
      [
        "පරි",
        "ස්ස"
      ],
      [
        "ඇ",
        "ර"
      ],
      [
        "රි",
        "ස්"
      ],
      [
        "තිබ්",
        "බ"
      ],
      [
        "ආ",
        "යේ"
      ],
      [
        "යො",
        "ත්"
      ],
      [
        "w",
        "e"
      ],
      [
        "ක",
        "ථා"
      ],
      [
        "ත්",
        "වය"
      ],
      [
        "ඉ",
        "වත්"
      ],
      [
        "කාල",
        "යක්"
      ],
      [
        "දව",
        "ස"
      ],
      [
        "ම",
        "ගෝ"
      ],
      [
        "කරන්න",
        "ද"
      ],
      [
        "පු",
        "ද්"
      ],
      [
        "ම",
        "ස්"
      ],
      [
        "බ",
        "න්"
      ],
      [
        "තු",
        "ම්"
      ],
      [
        "අ",
        "මු"
      ],
      [
        "ඉ",
        "ගෙන"
      ],
      [
        "කවුරු",
        "හරි"
      ],
      [
        "ඔහු",
        "ගෙ"
      ],
      [
        "බල",
        "මු"
      ],
      [
        "ය",
        "ම්"
      ],
      [
        "පා",
        "ට"
      ],
      [
        "කාල",
        "ය"
      ],
      [
        "පම",
        "ණ"
      ],
      [
        "සි",
        "න්"
      ],
      [
        "සම",
        "ග"
      ],
      [
        "න්",
        "ත"
      ],
      [
        "දි",
        "න්න"
      ],
      [
        "බල",
        "න්"
      ],
      [
        "හිතු",
        "වා"
      ],
      [
        "ප",
        "ය"
      ],
      [
        "ජ",
        "නා"
      ],
      [
        "කොහ",
        "දෙ"
      ],
      [
        "ළ",
        "ට"
      ],
      [
        "ර",
        "යේ"
      ],
      [
        "in",
        "g"
      ],
      [
        "බ",
        "වට"
      ],
      [
        "ල්",
        "ලො"
      ],
      [
        "වාර්",
        "තා"
      ],
      [
        "ඇ",
        "හෙ"
      ],
      [
        "පණි",
        "වි"
      ],
      [
        "ම්",
        "භ"
      ],
      [
        "කි",
        "හි"
      ],
      [
        "වැරැ",
        "ද්ද"
      ],
      [
        "ඉ",
        "හ"
      ],
      [
        "මි",
        "නී"
      ],
      [
        "අං",
        "ක"
      ],
      [
        "කවුරු",
        "ත්"
      ],
      [
        "දෙ",
        "න්නා"
      ],
      [
        "අරි",
        "න්න"
      ],
      [
        "විද්‍",
        "යා"
      ],
      [
        "ඔය",
        "යි"
      ],
      [
        "ගි",
        "න්"
      ],
      [
        "එයාල",
        "ව"
      ],
      [
        "a",
        "c"
      ],
      [
        "ඒක",
        "යි"
      ],
      [
        "කිය",
        "පු"
      ],
      [
        "ඇ",
        "ත්තෙ"
      ],
      [
        "ද",
        "ක්ෂ"
      ],
      [
        "ගත්",
        "තෙ"
      ],
      [
        "තියෙ",
        "නව"
      ],
      [
        "ක",
        "ව්"
      ],
      [
        "කිරී",
        "මට"
      ],
      [
        "ලෑ",
        "ස්ති"
      ],
      [
        "වෙ",
        "ත"
      ],
      [
        "ප්‍",
        "රා"
      ],
      [
        "යුතු",
        "යි"
      ],
      [
        "මි",
        "ලි"
      ],
      [
        "ර",
        "ව"
      ],
      [
        "f",
        "or"
      ],
      [
        "කා",
        "ව"
      ],
      [
        "අයි",
        "ති"
      ],
      [
        "සු",
        "බ"
      ],
      [
        "පස්ස",
        "ට"
      ],
      [
        "ග",
        "නි"
      ],
      [
        "අප",
        "රාධ"
      ],
      [
        "වැ",
        "ටු"
      ],
      [
        "දෙ",
        "නා"
      ],
      [
        "ක්",
        "ලා"
      ],
      [
        "වෙලා",
        "වක්"
      ],
      [
        "යා",
        "න"
      ],
      [
        "හු",
        "ඟ"
      ],
      [
        "ඇවි",
        "ල්ලා"
      ],
      [
        "e",
        "d"
      ],
      [
        "ද",
        "ර්ශ"
      ],
      [
        "ලේ",
        "සි"
      ],
      [
        "කාර",
        "යා"
      ],
      [
        "ආ",
        "පු"
      ],
      [
        "ඇ",
        "ඳු"
      ],
      [
        "..",
        ".."
      ],
      [
        "අ",
        "යට"
      ],
      [
        "කණගා",
        "ටුයි"
      ],
      [
        "අන්ති",
        "ම"
      ],
      [
        "පැත්ත",
        "ට"
      ],
      [
        "ගැ",
        "ල"
      ],
      [
        "ණ්",
        "ඩ"
      ],
      [
        "ඇතු",
        "ලේ"
      ],
      [
        "ත",
        "නියම"
      ],
      [
        "ප",
        "ණ"
      ],
      [
        "නී",
        "ති"
      ],
      [
        "වි",
        "ශා"
      ],
      [
        "ග",
        "නී"
      ],
      [
        "an",
        "d"
      ],
      [
        "දා",
        "නවා"
      ],
      [
        "ත",
        "ල"
      ],
      [
        "සිය",
        "ලු"
      ],
      [
        "ලි",
        "පි"
      ],
      [
        "න",
        "තර"
      ],
      [
        "අල්ල",
        "ගන්න"
      ],
      [
        "ර",
        "හස්"
      ],
      [
        "ම",
        "රු"
      ],
      [
        "මෙ",
        "ච්චර"
      ],
      [
        "වු",
        "ණේ"
      ],
      [
        "ඔ",
        "ලු"
      ],
      [
        "වෙ",
        "ලේ"
      ],
      [
        "තිබු",
        "නේ"
      ],
      [
        "දැ",
        "කලා"
      ],
      [
        "හ",
        "දි"
      ],
      [
        "හැම",
        "දෙයක්ම"
      ],
      [
        "පු",
        "හු"
      ],
      [
        "00",
        "0"
      ],
      [
        "අ",
        "පොයි"
      ],
      [
        "ඕන",
        "ද"
      ],
      [
        "සැ",
        "ලැ"
      ],
      [
        "ති",
        "ක"
      ],
      [
        "කා",
        "ම"
      ],
      [
        "ලි",
        "ක"
      ],
      [
        "දෙ",
        "නු"
      ],
      [
        "රා",
        "ත්‍"
      ],
      [
        "වී",
        "මක්"
      ],
      [
        "a",
        "b"
      ],
      [
        "පුං",
        "චි"
      ],
      [
        "දව",
        "සක්"
      ],
      [
        "සාක්",
        "ෂි"
      ],
      [
        "මයි",
        "කල්"
      ],
      [
        "වැ",
        "ටෙ"
      ],
      [
        "ගැ",
        "හු"
      ],
      [
        "ප්‍",
        "රේ"
      ],
      [
        "ප",
        "ද්ධ"
      ],
      [
        "ගෙ",
        "නා"
      ],
      [
        "කතා",
        "ව"
      ],
      [
        "පැන",
        "ලා"
      ],
      [
        "මා",
        "න"
      ],
      [
        "දා",
        "ල"
      ],
      [
        "දෙන්න",
        "ම්"
      ],
      [
        "ය",
        "වන්න"
      ],
      [
        "කු",
        "රු"
      ],
      [
        "ද්‍",
        "ර"
      ],
      [
        "ය",
        "ය"
      ],
      [
        "හැමෝ",
        "ටම"
      ],
      [
        "හ",
        "දව"
      ],
      [
        "මෙහෙ",
        "න්"
      ],
      [
        "ත",
        "ක්"
      ],
      [
        "ස",
        "මාව"
      ],
      [
        "ල්",
        "ස්"
      ],
      [
        "ප්‍රශ්",
        "න"
      ],
      [
        "හොඳ",
        "ම"
      ],
      [
        "වි",
        "ස්"
      ],
      [
        "ඉ",
        "ති"
      ],
      [
        "වු",
        "නොත්"
      ],
      [
        "u",
        "s"
      ],
      [
        "අ",
        "ධි"
      ],
      [
        "වි",
        "වාහ"
      ],
      [
        "e",
        "t"
      ],
      [
        "*",
        "*"
      ],
      [
        "සූ",
        "දානම්"
      ],
      [
        "තව",
        "මත්"
      ],
      [
        "මෙහෙ",
        "යු"
      ],
      [
        "කාට",
        "වත්"
      ],
      [
        "ම",
        "ඟු"
      ],
      [
        "ති",
        "ස්"
      ],
      [
        "කවුරු",
        "වත්"
      ],
      [
        "වෙ",
        "ච්ච"
      ],
      [
        "ල",
        "ව"
      ],
      [
        "සි",
        "ද්ද"
      ],
      [
        "මත",
        "ක්"
      ],
      [
        "කව",
        "ම"
      ],
      [
        "සො",
        "යා"
      ],
      [
        "තී",
        "රණය"
      ],
      [
        "නිද",
        "හස්"
      ],
      [
        "වි",
        "කාර"
      ],
      [
        "හිතු",
        "වෙ"
      ],
      [
        "සතුට",
        "ක්"
      ],
      [
        "මහ",
        "ත්ම"
      ],
      [
        "හොදි",
        "න්ද"
      ],
      [
        "o",
        "f"
      ],
      [
        "ඔයාගෙ",
        "න්"
      ],
      [
        "හෙ",
        "යි"
      ],
      [
        "යා",
        "නු"
      ],
      [
        "පැ",
        "ත්තෙ"
      ],
      [
        "හිත",
        "නවද"
      ],
      [
        "හුඟ",
        "ක්"
      ],
      [
        "අ",
        "තුරු"
      ],
      [
        "ආර",
        "ම්භ"
      ],
      [
        "තමු",
        "න්"
      ],
      [
        "තමු",
        "සේ"
      ],
      [
        "දු",
        "රක"
      ],
      [
        "ර",
        "ස"
      ],
      [
        "හ",
        "ම"
      ],
      [
        "වාස",
        "නා"
      ],
      [
        "කොහේ",
        "ද"
      ],
      [
        "හෙ",
        "ලෝ"
      ],
      [
        "a",
        "m"
      ],
      [
        "ලැබු",
        "නා"
      ],
      [
        "කා",
        "රි"
      ],
      [
        "ඔයාල",
        "ගේ"
      ],
      [
        "සතු",
        "ටු"
      ],
      [
        "ග",
        "මු"
      ],
      [
        "එ",
        "යි"
      ],
      [
        "ආරක්",
        "ෂි"
      ],
      [
        "ඩ",
        "ර්"
      ],
      [
        "ත",
        "හ"
      ],
      [
        "සි",
        "හි"
      ],
      [
        "ගි",
        "හි"
      ],
      [
        "ඒ",
        "කෙ"
      ],
      [
        "හේ",
        "තුව"
      ],
      [
        "ම්",
        "ස්"
      ],
      [
        "රස්",
        "සා"
      ],
      [
        "හොද",
        "ට"
      ],
      [
        "මෙ",
        "හාට"
      ],
      [
        "ත",
        "ම"
      ],
      [
        "ක",
        "කු"
      ],
      [
        "මහත්ම",
        "යා"
      ],
      [
        "වි",
        "නෝ"
      ],
      [
        "මු",
        "ලින්ම"
      ],
      [
        "පි",
        "හි"
      ],
      [
        "කො",
        "න්"
      ],
      [
        "උ",
        "ස"
      ],
      [
        "ආ",
        "යුධ"
      ],
      [
        "හැටි",
        "යට"
      ],
      [
        "හි",
        "මි"
      ],
      [
        "මැ",
        "රිලා"
      ],
      [
        "ව",
        "ක"
      ],
      [
        "වේ",
        "ග"
      ],
      [
        "ප",
        "න"
      ],
      [
        "පු",
        "රු"
      ],
      [
        "උ",
        "ඹේ"
      ],
      [
        "තු",
        "ම"
      ],
      [
        "තේරු",
        "නා"
      ],
      [
        "ආද",
        "රේ"
      ],
      [
        "වි",
        "වෘ"
      ],
      [
        "අව",
        "සන්"
      ],
      [
        "තෝ",
        "රා"
      ],
      [
        "හො",
        "යන්න"
      ],
      [
        "ඔ",
        "න්න"
      ],
      [
        "කර",
        "ණ"
      ],
      [
        "විහි",
        "ළු"
      ],
      [
        "ඩි",
        "යෝ"
      ],
      [
        "පෙන්",
        "වන්න"
      ],
      [
        "දුර",
        "ටත්"
      ],
      [
        "ඉ",
        "ල"
      ],
      [
        "මෙ",
        "හි"
      ],
      [
        "වැඩි",
        "යි"
      ],
      [
        "දො",
        "ස්තර"
      ],
      [
        "අන",
        "තු"
      ],
      [
        "ප",
        "න්න"
      ],
      [
        "උ",
        "ස්ස"
      ],
      [
        "ස",
        "ති"
      ],
      [
        "උත්ත",
        "ර"
      ],
      [
        "රෙ",
        "ක්"
      ],
      [
        "බ",
        "ඩු"
      ],
      [
        "තො",
        "ත්"
      ],
      [
        "ගෙ",
        "නි"
      ],
      [
        "ල",
        "ද"
      ],
      [
        "හොඳි",
        "න්ද"
      ],
      [
        "බල",
        "ය"
      ],
      [
        "උන",
        "ත්"
      ],
      [
        "පුහු",
        "ණු"
      ],
      [
        "ප",
        "රා"
      ],
      [
        "අයි",
        "යෝ"
      ],
      [
        "මො",
        "හො"
      ],
      [
        "ජි",
        "ත"
      ],
      [
        "ක",
        "න"
      ],
      [
        "දු",
        "රු"
      ],
      [
        "ශක්",
        "ති"
      ],
      [
        "මර",
        "ණ"
      ],
      [
        "බලා",
        "ගන්න"
      ],
      [
        "වැ",
        "නි"
      ],
      [
        "ප",
        "ද"
      ],
      [
        "තත්",
        "වය"
      ],
      [
        "කො",
        "යි"
      ],
      [
        "ගත්",
        "තොත්"
      ],
      [
        "ප",
        "රක්"
      ],
      [
        "පො",
        "ලී"
      ],
      [
        "දි",
        "ලා"
      ],
      [
        "එහෙ",
        "මයි"
      ],
      [
        "පහ",
        "සු"
      ],
      [
        "ප්",
        "ප"
      ],
      [
        "අ",
        "ළු"
      ],
      [
        "තුවක්කු",
        "ව"
      ],
      [
        "ගැන",
        "ද"
      ],
      [
        "ල",
        "යක්"
      ],
      [
        "නිල",
        "ධා"
      ],
      [
        "තව",
        "ම"
      ],
      [
        "සි",
        "යට"
      ],
      [
        "නො",
        "හැකි"
      ],
      [
        "නෙ",
        "වේ"
      ],
      [
        "ගැ",
        "හැ"
      ],
      [
        "පරක්",
        "කු"
      ],
      [
        "නි",
        "කම්"
      ],
      [
        "පු",
        "රා"
      ],
      [
        "තු",
        "වා"
      ],
      [
        "ඇතු",
        "ල්"
      ],
      [
        "කා",
        "ශ"
      ],
      [
        "ලග",
        "ට"
      ],
      [
        "ගැ",
        "න්"
      ],
      [
        "ඉ",
        "තා"
      ],
      [
        "යන්",
        "ට"
      ],
      [
        "ම",
        "හා"
      ],
      [
        "කියන්න",
        "ම්"
      ],
      [
        "අවු",
        "ල්"
      ],
      [
        "දා",
        "න"
      ],
      [
        "නිර්",
        "මා"
      ],
      [
        "බේර",
        "ගන්න"
      ],
      [
        "ව්‍",
        "ය"
      ],
      [
        "නු",
        "ඹ"
      ],
      [
        "එකෙ",
        "ක්"
      ],
      [
        "බෝ",
        "ම්බ"
      ],
      [
        "විසි",
        "න්"
      ],
      [
        "ඉ",
        "තුරු"
      ],
      [
        "ගි",
        "නි"
      ],
      [
        "න්",
        "ස්"
      ],
      [
        "තැන",
        "ට"
      ],
      [
        "කා",
        "ලේ"
      ],
      [
        "ඉල",
        "ක්ක"
      ],
      [
        "ගැනී",
        "ම"
      ],
      [
        "සිය",
        "ළු"
      ],
      [
        "දී",
        "ලා"
      ],
      [
        "දැම්",
        "මා"
      ],
      [
        "ර",
        "ජ"
      ],
      [
        "වි",
        "ල්"
      ],
      [
        "සම",
        "ඟ"
      ],
      [
        "කල්",
        "ප"
      ],
      [
        "ගො",
        "ඩා"
      ],
      [
        "at",
        "her"
      ],
      [
        "ලස්ස",
        "නයි"
      ],
      [
        "අවශ්‍",
        "යයි"
      ],
      [
        "අඩු",
        "ම"
      ],
      [
        "ත",
        "ට්ටු"
      ],
      [
        "ග",
        "ල්"
      ],
      [
        "කැ",
        "මැ"
      ],
      [
        "ළු",
        "ව"
      ],
      [
        "we",
        "ather"
      ],
      [
        "වැ",
        "සි"
      ],
      [
        "හා",
        "ද"
      ],
      [
        "වී",
        "මට"
      ],
      [
        "ඩ",
        "ම්"
      ],
      [
        "හොර",
        "කම්"
      ],
      [
        "අ",
        "භි"
      ],
      [
        "තිබෙ",
        "නවා"
      ],
      [
        "ප",
        "ව"
      ],
      [
        "නැගි",
        "ටි"
      ],
      [
        "තිබු",
        "න"
      ],
      [
        "හෙ",
        "න"
      ],
      [
        "කරුණා",
        "කර"
      ],
      [
        "තැ",
        "න්"
      ],
      [
        "බැ",
        "යි"
      ],
      [
        "ගොඩා",
        "ක්"
      ],
      [
        "y",
        "ou"
      ],
      [
        "a",
        "y"
      ],
      [
        "ග්‍",
        "රහ"
      ],
      [
        "ත",
        "න්"
      ],
      [
        "o",
        "t"
      ],
      [
        "ඒ",
        "කේ"
      ],
      [
        "හැම",
        "දා"
      ],
      [
        "ලැ",
        "යි"
      ],
      [
        "ඇ",
        "ගේ"
      ],
      [
        "t",
        "r"
      ],
      [
        "සට",
        "හ"
      ],
      [
        "කතා",
        "කරන්න"
      ],
      [
        "අනා",
        "ගත"
      ],
      [
        "සන්",
        "සුන්"
      ],
      [
        "ජේ",
        "න්"
      ],
      [
        "මිනි",
        "ත්තු"
      ],
      [
        "දා",
        "ගෙන"
      ],
      [
        "පැ",
        "ත්තේ"
      ],
      [
        "h",
        "e"
      ],
      [
        "අන",
        "තුරු"
      ],
      [
        "ධ්‍",
        "ය"
      ],
      [
        "පි",
        "ටින්"
      ],
      [
        "සා",
        "ර්ථ"
      ],
      [
        "කර",
        "මින්"
      ],
      [
        "හු",
        "ගක්"
      ],
      [
        "තියෙ",
        "න්න"
      ],
      [
        "අ",
        "ස්"
      ],
      [
        "චි",
        "ත්‍ර"
      ],
      [
        "බා",
        "යි"
      ],
      [
        "ස",
        "න්න"
      ],
      [
        "හොයා",
        "ගෙන"
      ],
      [
        "1",
        "2"
      ],
      [
        "ඩො",
        "ලර්"
      ],
      [
        "ලි",
        "යා"
      ],
      [
        "නෙ",
        "වා"
      ],
      [
        "නැත්",
        "තෙ"
      ],
      [
        "හම්",
        "බු"
      ],
      [
        "විශා",
        "ල"
      ],
      [
        "එ",
        "නව"
      ],
      [
        "දෙන්න",
        "ම"
      ],
      [
        "කෙ",
        "ල්ලෙක්"
      ],
      [
        "ස්",
        "ට්"
      ],
      [
        "ගෙදර",
        "ට"
      ],
      [
        "බි",
        "ලා"
      ],
      [
        "බිරි",
        "ඳ"
      ],
      [
        "හැ",
        "බැයි"
      ],
      [
        "හිත",
        "න"
      ],
      [
        "විනෝ",
        "ද"
      ],
      [
        "හා",
        "ර"
      ],
      [
        "සු",
        "ව"
      ],
      [
        "තු",
        "න"
      ],
      [
        "ජ",
        "ර්"
      ],
      [
        "ග",
        "නු"
      ],
      [
        "හි",
        "ස්"
      ],
      [
        "හො",
        "ය"
      ],
      [
        "එ",
        "හේ"
      ],
      [
        "ඔවුන්",
        "ගේ"
      ],
      [
        "උඩ",
        "ට"
      ],
      [
        "වි",
        "රු"
      ],
      [
        "ජි",
        "වත්"
      ],
      [
        "එ",
        "න්නෙ"
      ],
      [
        "විවෘ",
        "ත"
      ],
      [
        "ජ",
        "රා"
      ],
      [
        "වනේ",
        "න"
      ],
      [
        "ඇත්තෙ",
        "න්ම"
      ],
      [
        "කාම",
        "රේ"
      ],
      [
        "me",
        "nt"
      ],
      [
        "කව්",
        "ද"
      ],
      [
        "ඔ",
        "තන"
      ],
      [
        "u",
        "r"
      ],
      [
        "කි",
        "රි"
      ],
      [
        "තු",
        "ල"
      ],
      [
        "s",
        "e"
      ],
      [
        "ක",
        "ට්"
      ],
      [
        "පින්",
        "තූ"
      ],
      [
        "අර",
        "ගන්න"
      ],
      [
        "මුහු",
        "ණ"
      ],
      [
        "අවස්ථා",
        "වක්"
      ],
      [
        "අනි",
        "ක"
      ],
      [
        "කේ",
        "ස්"
      ],
      [
        "ව",
        "ම්"
      ],
      [
        "නවති",
        "න්න"
      ],
      [
        "ඇතු",
        "ල"
      ],
      [
        "ඉද",
        "ලා"
      ],
      [
        "ක",
        "යා"
      ],
      [
        "පි",
        "ටු"
      ],
      [
        "අ",
        "තන"
      ],
      [
        "මිලි",
        "යන"
      ],
      [
        "වු",
        "රු"
      ],
      [
        "සි",
        "ට"
      ],
      [
        "න",
        "යට"
      ],
      [
        "අමාරු",
        "යි"
      ],
      [
        "එයාල",
        "ගේ"
      ],
      [
        "ගි",
        "න්න"
      ],
      [
        "පැ",
        "තුම්"
      ],
      [
        "ද්‍",
        "ය"
      ],
      [
        "ඉස්",
        "කෝ"
      ],
      [
        "අපි",
        "ත්"
      ],
      [
        "ඩ",
        "න්"
      ],
      [
        "ය",
        "මක්"
      ],
      [
        "වන්",
        "ත"
      ],
      [
        "වෙලේ",
        "ම"
      ],
      [
        "තෝ",
        "ර"
      ],
      [
        "විහි",
        "ලු"
      ],
      [
        "තෙ",
        "ක්"
      ],
      [
        "ප",
        "නි"
      ],
      [
        "ඩි",
        "න්"
      ],
      [
        "දු",
        "නා"
      ],
      [
        "වා",
        "ඩි"
      ],
      [
        "භා",
        "වි"
      ],
      [
        "යාලු",
        "වා"
      ],
      [
        "භ",
        "යාන"
      ],
      [
        "ව",
        "න්නෙ"
      ],
      [
        "හි",
        "නා"
      ],
      [
        "ව",
        "රෙන්"
      ],
      [
        "ෆෝ",
        "න්"
      ],
      [
        "5",
        "0"
      ],
      [
        "විශ්වාස",
        "ද"
      ],
      [
        "මොනවා",
        "ද"
      ],
      [
        "දී",
        "ම"
      ],
      [
        "ආ",
        "වර"
      ],
      [
        "නා",
        "යක"
      ],
      [
        "ගා",
        "නක්"
      ],
      [
        "an",
        "s"
      ],
      [
        "අනු",
        "ව"
      ],
      [
        "න",
        "ද"
      ],
      [
        "ක්ලා",
        "ක්"
      ],
      [
        "නි",
        "ශ්"
      ],
      [
        "මිනිස්සු",
        "න්ට"
      ],
      [
        "පරී",
        "ක්ෂා"
      ],
      [
        "මි",
        "ස්ටර්"
      ],
      [
        "ඇය",
        "ගේ"
      ],
      [
        "ත",
        "ට"
      ],
      [
        "පෙ",
        "නු"
      ],
      [
        "න්",
        "සි"
      ],
      [
        "අ",
        "ඳු"
      ],
      [
        "අතුරු",
        "ද"
      ],
      [
        "ප්‍ර",
        "ධාන"
      ],
      [
        "මගු",
        "ලක්ද"
      ],
      [
        "වැ",
        "ටි"
      ],
      [
        "ඇම",
        "රිකා"
      ],
      [
        "සු",
        "ර"
      ],
      [
        "ලෝ",
        "කෙ"
      ],
      [
        "හු",
        "ස්ම"
      ],
      [
        "එය",
        "ත්"
      ],
      [
        "දෙන්නෙ",
        "ක්"
      ],
      [
        "පේ",
        "න්නේ"
      ],
      [
        "නං",
        "ගි"
      ],
      [
        "ත්",
        "ව"
      ],
      [
        "ආ",
        "හ්"
      ],
      [
        "වැරදි",
        "යි"
      ],
      [
        "ග",
        "නින්"
      ],
      [
        "t",
        "ion"
      ],
      [
        "නි",
        "ක"
      ],
      [
        "දෙයි",
        "යනේ"
      ],
      [
        "ඕනෙ",
        "ද"
      ],
      [
        "ම",
        "ද"
      ],
      [
        "ස්",
        "ට"
      ],
      [
        "දු",
        "න්නේ"
      ],
      [
        "කිරී",
        "මක්"
      ],
      [
        "වි",
        "ලි"
      ],
      [
        "ල",
        "යට"
      ],
      [
        "උඹ",
        "ව"
      ],
      [
        "ඉදිරි",
        "යට"
      ],
      [
        "පු",
        "රුදු"
      ],
      [
        "මොනව",
        "හරි"
      ],
      [
        "රෝ",
        "හ"
      ],
      [
        "ගොනු",
        "ව"
      ],
      [
        "ඉඳ",
        "ලා"
      ],
      [
        "ඔ",
        "න"
      ],
      [
        "වි",
        "ස"
      ],
      [
        "ගෙ",
        "යි"
      ],
      [
        "තිය",
        "ලා"
      ],
      [
        "එ",
        "හා"
      ],
      [
        "එච්චර",
        "යි"
      ],
      [
        "ක්‍රී",
        "ය"
      ],
      [
        "ව",
        "ශ"
      ],
      [
        "කැ",
        "ප්"
      ],
      [
        "න",
        "ර්"
      ],
      [
        "3",
        "0"
      ],
      [
        "ඔවුන්",
        "ව"
      ],
      [
        "ඳි",
        "න්න"
      ],
      [
        "මාර්",
        "ග"
      ],
      [
        "ස",
        "හිත"
      ],
      [
        "වු",
        "ණ"
      ],
      [
        "දු",
        "ර්"
      ],
      [
        "සේ",
        "වා"
      ],
      [
        "න්",
        "ක්"
      ],
      [
        "හැ",
        "ක"
      ],
      [
        "හොයා",
        "ගත්තා"
      ],
      [
        "යන්න",
        "ම්"
      ],
      [
        "බො",
        "හෝ"
      ],
      [
        "හදි",
        "සි"
      ],
      [
        "ගැ",
        "හෙන්න"
      ],
      [
        "දෑ",
        "ස"
      ],
      [
        "පැටි",
        "යෝ"
      ],
      [
        "මිනි",
        "සුන්"
      ],
      [
        "මර",
        "ලා"
      ],
      [
        "M",
        "r"
      ],
      [
        "අවසා",
        "න"
      ],
      [
        "ගු",
        "රු"
      ],
      [
        "නි",
        "සයි"
      ],
      [
        "ගො",
        "ල්ලෝ"
      ],
      [
        "මේ",
        "කෙන්"
      ],
      [
        "මැ",
        "ති"
      ],
      [
        "හොද",
        "ම"
      ],
      [
        "තේරෙ",
        "නවා"
      ],
      [
        "කල",
        "බල"
      ],
      [
        "බ",
        "ඩ"
      ],
      [
        "සිය",
        "ල්ල"
      ],
      [
        "එහෙම",
        "ද"
      ],
      [
        "ඔබ",
        "ගේ"
      ],
      [
        "පේ",
        "නවා"
      ],
      [
        "ල්",
        "ඩ්"
      ],
      [
        "කො",
        "ල්ලෝ"
      ],
      [
        "තමන්",
        "ගේ"
      ],
      [
        "බල",
        "නවා"
      ],
      [
        "උ",
        "දෑස"
      ],
      [
        "ගත්ත",
        "ද"
      ],
      [
        "මු",
        "ර"
      ],
      [
        "ජෝ",
        "න්"
      ],
      [
        "ඇ",
        "හැ"
      ],
      [
        "තිබ්",
        "බේ"
      ],
      [
        "ගා",
        "වට"
      ],
      [
        "මා",
        "යා"
      ],
      [
        "බු",
        "ද්ධි"
      ],
      [
        "ප",
        "ට"
      ],
      [
        "හිතා",
        "ගන්න"
      ],
      [
        "මි",
        "යා"
      ],
      [
        "හොඳ",
        "ටම"
      ],
      [
        "මෙ",
        "ය"
      ],
      [
        "න්න",
        "ම්"
      ],
      [
        "ස",
        "ප"
      ],
      [
        "මො",
        "නවත්"
      ],
      [
        "බ",
        "ඳ"
      ],
      [
        "මතක",
        "ද"
      ],
      [
        "තව",
        "දුරටත්"
      ],
      [
        "ක්‍",
        "රි"
      ],
      [
        "ගි",
        "යොත්"
      ],
      [
        "ඇතු",
        "ලෙ"
      ],
      [
        "අල්ල",
        "න්න"
      ],
      [
        "d",
        "e"
      ],
      [
        "දරු",
        "ණු"
      ],
      [
        "ෂ්",
        "ඨ"
      ],
      [
        "ක",
        "ඩා"
      ],
      [
        "ඊ",
        "යේ"
      ],
      [
        "බෝ",
        "ට්ටු"
      ],
      [
        "ස්",
        "ත"
      ],
      [
        "වෙ",
        "මු"
      ],
      [
        "ඕන",
        "ම"
      ],
      [
        "දා",
        "යක"
      ],
      [
        "නු",
        "ත්"
      ],
      [
        "ල",
        "ක"
      ],
      [
        "උදව්",
        "වක්"
      ],
      [
        "කොහෙ",
        "න්ද"
      ],
      [
        "දුරක",
        "ථ"
      ],
      [
        "ව",
        "ගෝ"
      ],
      [
        "අං",
        "ශ"
      ],
      [
        "වෙලා",
        "වේ"
      ],
      [
        "ඕ",
        "නෑ"
      ],
      [
        "කෙනෙක්",
        "ව"
      ],
      [
        "අවු",
        "රු"
      ],
      [
        "කිය",
        "නව"
      ],
      [
        "විරු",
        "ද්ධ"
      ],
      [
        "කාර",
        "ය"
      ],
      [
        "පෙ",
        "ට්ටි"
      ],
      [
        "අ",
        "ල්ලා"
      ],
      [
        "බ",
        "යි"
      ],
      [
        "කොට",
        "සක්"
      ],
      [
        "සතු",
        "ටුයි"
      ],
      [
        "ජ",
        "න්"
      ],
      [
        "මු",
        "ල්"
      ],
      [
        "හද",
        "නවා"
      ],
      [
        "අ",
        "ඩි"
      ],
      [
        "නියෝ",
        "ජිත"
      ],
      [
        "හර",
        "හා"
      ],
      [
        "යු",
        "ද්ධ"
      ],
      [
        "අව",
        "සර"
      ],
      [
        "ක්‍රියා",
        "ත්මක"
      ],
      [
        "ආ",
        "ත්ම"
      ],
      [
        "අ",
        "වං"
      ],
      [
        "ඇ",
        "ලෙ"
      ],
      [
        "ගෙ",
        "න්න"
      ],
      [
        "වී",
        "ර"
      ],
      [
        "යා",
        "වි"
      ],
      [
        "ඩො",
        "ක්ටර්"
      ],
      [
        "එ",
        "දා"
      ],
      [
        "කැප්",
        "ටන්"
      ],
      [
        "ව්",
        "වේ"
      ],
      [
        "හ",
        "ලෝ"
      ],
      [
        "හින්",
        "දා"
      ],
      [
        "වැඩි",
        "ය"
      ],
      [
        "ගිහි",
        "ල්ලා"
      ],
      [
        "තත්",
        "ව"
      ],
      [
        "ඇ",
        "විදි"
      ],
      [
        "දි",
        "න්"
      ],
      [
        "බ",
        "බා"
      ],
      [
        "අමු",
        "තු"
      ],
      [
        "1",
        "9"
      ],
      [
        "වෛ",
        "ද්‍ය"
      ],
      [
        "ලො",
        "ත්"
      ],
      [
        "රං",
        "චි"
      ],
      [
        "නෝ",
        "නා"
      ],
      [
        "හැදු",
        "වා"
      ],
      [
        "බො",
        "න්න"
      ],
      [
        "හ",
        "ඳු"
      ],
      [
        "දු",
        "න්"
      ],
      [
        "ධා",
        "නය"
      ],
      [
        "කතා",
        "වක්"
      ],
      [
        "ර",
        "යට"
      ],
      [
        "කෙ",
        "නෙ"
      ],
      [
        "1",
        "5"
      ],
      [
        "ගන්න",
        "ව"
      ],
      [
        "ඩං",
        "ගු"
      ],
      [
        "ශක්ති",
        "මත්"
      ],
      [
        "අන්ති",
        "මට"
      ],
      [
        "v",
        "e"
      ],
      [
        "ව",
        "ස්තු"
      ],
      [
        "ආ",
        "රංචි"
      ],
      [
        "වච",
        "න"
      ],
      [
        "තරු",
        "ණ"
      ],
      [
        "අයි",
        "යා"
      ],
      [
        "තු",
        "නක්"
      ],
      [
        "පෙ",
        "ම්"
      ],
      [
        "ස්",
        "තුව"
      ],
      [
        "ආ",
        "ච්චි"
      ],
      [
        "එක්ක",
        "ම"
      ],
      [
        "ඩ",
        "යක්"
      ],
      [
        "කැමති",
        "ද"
      ],
      [
        "ඔයාට",
        "ත්"
      ],
      [
        "විශ්වාස",
        "යි"
      ],
      [
        "වු",
        "ම්"
      ],
      [
        "මුද",
        "ල්"
      ],
      [
        "ද",
        "කුණු"
      ],
      [
        "අනි",
        "වා"
      ],
      [
        "සෑ",
        "ම්"
      ],
      [
        "ස්ථා",
        "නය"
      ],
      [
        "හැ",
        "සි"
      ],
      [
        "කර",
        "න්"
      ],
      [
        "ර්",
        "ත"
      ],
      [
        "බැං",
        "කු"
      ],
      [
        "ගැනී",
        "මට"
      ],
      [
        "නි",
        "තර"
      ],
      [
        "බා",
        "ර"
      ],
      [
        "u",
        "n"
      ],
      [
        "අනි",
        "ක්"
      ],
      [
        "at",
        "e"
      ],
      [
        "ම",
        "ර්"
      ],
      [
        "o",
        "p"
      ],
      [
        "උබ",
        "ට"
      ],
      [
        "තියා",
        "ගෙන"
      ],
      [
        "මෙයා",
        "ව"
      ],
      [
        "ෂ්‍",
        "ය"
      ],
      [
        "ගෙනි",
        "යන්න"
      ],
      [
        "ත",
        "ද"
      ],
      [
        "නි",
        "කං"
      ],
      [
        "එක",
        "ත්"
      ],
      [
        "වි",
        "වේ"
      ],
      [
        "බේ",
        "රු"
      ],
      [
        "මා",
        "ර"
      ],
      [
        "හැදු",
        "වේ"
      ],
      [
        "යක්",
        "ද"
      ],
      [
        "ය",
        "නවද"
      ],
      [
        "ද",
        "ම්"
      ],
      [
        "තාත්ත",
        "ට"
      ],
      [
        "රණ",
        "යක්"
      ],
      [
        "අ",
        "තා"
      ],
      [
        "c",
        "on"
      ],
      [
        "වෙන",
        "කම්"
      ],
      [
        "පේ",
        "න්නෙ"
      ],
      [
        "කිව්",
        "වොත්"
      ],
      [
        "ද්",
        "දෙ"
      ],
      [
        "න",
        "ල්"
      ],
      [
        "බෙ",
        "හෙ"
      ],
      [
        "සු",
        "පිරි"
      ],
      [
        "නි",
        "දා"
      ],
      [
        "දැනෙ",
        "නවා"
      ],
      [
        "කෙනෙක්",
        "ට"
      ],
      [
        "පැහැ",
        "ර"
      ],
      [
        "අත",
        "ට"
      ],
      [
        "සැ",
        "න්"
      ],
      [
        "ගොඩ",
        "නැගි"
      ],
      [
        "ඇ",
        "ඳ"
      ],
      [
        "ම",
        "ල්"
      ],
      [
        "බෙ",
        "න්"
      ],
      [
        "කණ්ඩාය",
        "ම"
      ],
      [
        "ස",
        "ල්"
      ],
      [
        "සෑ",
        "හෙන"
      ],
      [
        "රි",
        "යේ"
      ],
      [
        "උ",
        "පන්"
      ],
      [
        "ස",
        "ත්"
      ],
      [
        "දි",
        "වි"
      ],
      [
        "තේරු",
        "ම"
      ],
      [
        "කරා",
        "වි"
      ],
      [
        "හොද",
        "ටම"
      ],
      [
        "රි",
        "ක්"
      ],
      [
        "බ",
        "හි"
      ],
      [
        "ක",
        "ලි"
      ],
      [
        "ලොක්",
        "කා"
      ],
      [
        "ගැ",
        "ට"
      ],
      [
        "ව්‍යා",
        "පෘ"
      ],
      [
        "මිනි",
        "හෝ"
      ],
      [
        "පල",
        "වෙනි"
      ],
      [
        "බ",
        "ස්"
      ],
      [
        "පවු",
        "ල"
      ],
      [
        "ග",
        "ලික"
      ],
      [
        "ද",
        "ම"
      ],
      [
        "ළ",
        "ග"
      ],
      [
        "තිබු",
        "ණා"
      ],
      [
        "හදව",
        "ත"
      ],
      [
        "නි",
        "ව්"
      ],
      [
        "අ",
        "ණ"
      ],
      [
        "ර්",
        "ක්"
      ],
      [
        "ක",
        "ලොත්"
      ],
      [
        "අතා",
        "රි"
      ],
      [
        "රි",
        "යක්"
      ],
      [
        "වෙන",
        "කොට"
      ],
      [
        "තිය",
        "නවද"
      ],
      [
        "ඉ",
        "ව"
      ],
      [
        "නැ",
        "ත"
      ],
      [
        "ඉති",
        "රි"
      ],
      [
        "කා",
        "ටද"
      ],
      [
        "සං",
        "සුන්"
      ],
      [
        "සැල",
        "සුම්"
      ],
      [
        "එ",
        "න්"
      ],
      [
        "පවු",
        "ලේ"
      ],
      [
        "අ",
        "ඩංගු"
      ],
      [
        "ච",
        "න්"
      ],
      [
        "නග",
        "රය"
      ],
      [
        "බි",
        "ය"
      ],
      [
        "ර",
        "යන්"
      ],
      [
        "ඔ",
        "ප්පු"
      ],
      [
        "පුද්",
        "ගල"
      ],
      [
        "ස",
        "හා"
      ],
      [
        "ජි",
        "විත"
      ],
      [
        "පැ",
        "ති"
      ],
      [
        "a",
        "in"
      ],
      [
        "අවස්ථා",
        "ව"
      ],
      [
        "සි",
        "ද්ධි"
      ],
      [
        "i",
        "g"
      ],
      [
        "න්‍‍",
        "න"
      ],
      [
        "ක",
        "සාද"
      ],
      [
        "ර",
        "තු"
      ],
      [
        "ඌ",
        "ව"
      ],
      [
        "තුවා",
        "ල"
      ],
      [
        "වෙලාව",
        "ක"
      ],
      [
        "ප",
        "නය"
      ],
      [
        "දැන",
        "ට"
      ],
      [
        "විදි",
        "ය"
      ],
      [
        "දැක්",
        "කේ"
      ],
      [
        "තේරෙ",
        "න්නේ"
      ],
      [
        "නෑ",
        "නේ"
      ],
      [
        "ග",
        "මන"
      ],
      [
        "නැති",
        "නම්"
      ],
      [
        "කොට",
        "ස්"
      ],
      [
        "ම",
        "ඟ"
      ],
      [
        "ධි",
        "පති"
      ],
      [
        "a",
        "st"
      ],
      [
        "වටි",
        "නා"
      ],
      [
        "එක",
        "ඟ"
      ],
      [
        "i",
        "p"
      ],
      [
        "හද",
        "න්නෙ"
      ],
      [
        "ත",
        "ල්"
      ],
      [
        "තන",
        "ය"
      ],
      [
        "කු",
        "මක්"
      ],
      [
        "නිර්මා",
        "ණය"
      ],
      [
        "C",
        "om"
      ],
      [
        "ප්‍රශ්",
        "ණයක්"
      ],
      [
        "දව",
        "සක"
      ],
      [
        "වෙ",
        "නවද"
      ],
      [
        "උ",
        "ණු"
      ],
      [
        "වී",
        "ම්"
      ],
      [
        "තේරු",
        "ණා"
      ],
      [
        "ක",
        "යක්"
      ],
      [
        "මැ",
        "රි"
      ],
      [
        "ව",
        "ගයක්"
      ],
      [
        "න්",
        "ග්"
      ],
      [
        "උ",
        "නොත්"
      ],
      [
        "අ",
        "ඩ"
      ],
      [
        "ගා",
        "න"
      ],
      [
        "ලේ",
        "ඛ"
      ],
      [
        "රී",
        "න්"
      ],
      [
        "අළු",
        "ත්"
      ],
      [
        "e",
        "y"
      ],
      [
        "ල්",
        "ට්"
      ],
      [
        "ත්‍",
        "ය"
      ],
      [
        "කැම",
        "රා"
      ],
      [
        "සු",
        "ම"
      ],
      [
        "දු",
        "ක්"
      ],
      [
        "ඇත්ත",
        "ම"
      ],
      [
        "ලඟ",
        "ට"
      ],
      [
        "ඇඳු",
        "ම්"
      ],
      [
        "ද්‍ර",
        "ව්‍ය"
      ],
      [
        "කු",
        "ඩා"
      ],
      [
        "බැරි",
        "ද"
      ],
      [
        "උදෑස",
        "නක්"
      ],
      [
        "ය",
        "කෝ"
      ],
      [
        "කිවු",
        "වා"
      ],
      [
        "එ",
        "හාට"
      ],
      [
        "වාහ",
        "නේ"
      ],
      [
        "කරු",
        "වන්"
      ],
      [
        "නා",
        "වක්"
      ],
      [
        "c",
        "h"
      ],
      [
        "බී",
        "ම"
      ],
      [
        "මැ",
        "ඩම්"
      ],
      [
        "රු",
        "ව"
      ],
      [
        "ල",
        "බ"
      ],
      [
        "වෙලාවෙ",
        "ම"
      ],
      [
        "හ්",
        "ම්ම්"
      ],
      [
        "ත්‍",
        "රා"
      ],
      [
        "නු",
        "යි"
      ],
      [
        "කින්",
        "ම"
      ],
      [
        "ඔලු",
        "ව"
      ],
      [
        "සෑ",
        "ම"
      ],
      [
        "සෙ",
        "න්"
      ],
      [
        "හ",
        "ය"
      ],
      [
        "ස්",
        "තියි"
      ],
      [
        "ගේ",
        "න්න"
      ],
      [
        "උ",
        "තුමා"
      ],
      [
        "වේ",
        "වා"
      ],
      [
        "ඔ",
        "ට්ටු"
      ],
      [
        "උන්",
        "ට"
      ],
      [
        "වර්",
        "ග"
      ],
      [
        "හේ",
        "තුවක්"
      ],
      [
        "ශ",
        "බ්"
      ],
      [
        "ඇත්ත",
        "ට"
      ],
      [
        "සතු",
        "ටින්"
      ],
      [
        "පෙ",
        "නෙ"
      ],
      [
        "ස්",
        "වා"
      ],
      [
        "පහ",
        "ල"
      ],
      [
        "කොල්ල",
        "නේ"
      ],
      [
        "එ",
        "කි"
      ],
      [
        "ද්ද",
        "ක්"
      ],
      [
        "සැලැ",
        "ස්ම"
      ],
      [
        "එතන",
        "ට"
      ],
      [
        "කාර",
        "යෝ"
      ],
      [
        "දුර්",
        "වල"
      ],
      [
        "පැත්තෙ",
        "න්"
      ],
      [
        "කිය",
        "නවද"
      ],
      [
        "ප",
        "යි"
      ],
      [
        "වේ",
        "ලා"
      ],
      [
        "තා",
        "ක්ෂ"
      ],
      [
        "ජ",
        "නය"
      ],
      [
        "නො",
        "වේ"
      ],
      [
        "පිරි",
        "සිදු"
      ],
      [
        "කා",
        "රී"
      ],
      [
        "මො",
        "කෝ"
      ],
      [
        "ටි",
        "ය"
      ],
      [
        "සහෝ",
        "ද"
      ],
      [
        "න",
        "මක්"
      ],
      [
        "ක්",
        "සි"
      ],
      [
        "හැ",
        "රී"
      ],
      [
        "ගැල",
        "පෙ"
      ],
      [
        "ඉන්",
        "දි"
      ],
      [
        "වේ",
        "ශ"
      ],
      [
        "නි",
        "යා"
      ],
      [
        "ගහ",
        "නවා"
      ],
      [
        "ගෙ",
        "වන්න"
      ],
      [
        "ඒක",
        "ත්"
      ],
      [
        "ර",
        "ල්"
      ],
      [
        "උන්",
        "ව"
      ],
      [
        "සාර්ථ",
        "ක"
      ],
      [
        "චාර්",
        "ලි"
      ],
      [
        "C",
        "an"
      ],
      [
        "තා",
        "වක්"
      ],
      [
        "ඇලෙ",
        "ක්ස්"
      ],
      [
        "උ",
        "පරි"
      ],
      [
        "c",
        "H"
      ],
      [
        "තෑ",
        "ග්"
      ],
      [
        "නි",
        "ක්"
      ],
      [
        "සුදු",
        "සු"
      ],
      [
        "මැරු",
        "වා"
      ],
      [
        "යා",
        "වක්"
      ],
      [
        "ඉවර",
        "යක්"
      ],
      [
        "හ",
        "දා"
      ],
      [
        "ඔබ",
        "ලා"
      ],
      [
        "අතුරුද",
        "හන්"
      ],
      [
        "අම්",
        "මට"
      ],
      [
        "ලෝ",
        "කේ"
      ],
      [
        "ලැ",
        "ජ්"
      ],
      [
        "පෙන්න",
        "න්න"
      ],
      [
        "ම",
        "ල"
      ],
      [
        "වගේ",
        "ද"
      ],
      [
        "කොට",
        "ස"
      ],
      [
        "යේ",
        "දී"
      ],
      [
        "ළම",
        "යෙක්"
      ],
      [
        "ග",
        "නෙ"
      ],
      [
        "මි",
        "ස්"
      ],
      [
        "වැඩ",
        "සටහ"
      ],
      [
        "ඔයාල",
        "ගෙ"
      ],
      [
        "කිවු",
        "වේ"
      ],
      [
        "ඔයාල",
        "ව"
      ],
      [
        "හැමදා",
        "ම"
      ],
      [
        "පී",
        "ටර්"
      ],
      [
        "සට",
        "හන්"
      ],
      [
        "වා",
        "ව්"
      ],
      [
        "හි",
        "රේ"
      ],
      [
        "තිස්",
        "සෙ"
      ],
      [
        "යි",
        "ද"
      ],
      [
        "පැ",
        "ට"
      ],
      [
        "බෑ",
        "ග්"
      ],
      [
        "මාර්",
        "ගය"
      ],
      [
        "වැරැද්ද",
        "ක්"
      ],
      [
        "දැන",
        "න්"
      ],
      [
        "තහ",
        "වුරු"
      ],
      [
        "වි",
        "දු"
      ],
      [
        "හෙ",
        "න්"
      ],
      [
        "නිතර",
        "ම"
      ],
      [
        "ද",
        "න්නෑ"
      ],
      [
        "පළ",
        "මු"
      ],
      [
        "කිය",
        "වන්න"
      ],
      [
        "න්ෙ",
        "න"
      ],
      [
        "ල",
        "ම"
      ],
      [
        "i",
        "r"
      ],
      [
        "උස",
        "ස්"
      ],
      [
        "ප",
        "ලා"
      ],
      [
        "වි",
        "ම"
      ],
      [
        "වුනා",
        "ද"
      ],
      [
        "ගෙ",
        "නිය"
      ],
      [
        "වැටි",
        "ලා"
      ],
      [
        "නි",
        "ව"
      ],
      [
        "තැන",
        "ම"
      ],
      [
        "d",
        "it"
      ],
      [
        "ග",
        "ණු"
      ],
      [
        "ප්",
        "ල"
      ],
      [
        "ප",
        "වා"
      ],
      [
        "ගා",
        "නේ"
      ],
      [
        "බ්‍",
        "රි"
      ],
      [
        "අ",
        "තේ"
      ],
      [
        "නැගිටි",
        "න්න"
      ],
      [
        "Com",
        "ment"
      ],
      [
        "පැමි",
        "ණි"
      ],
      [
        "මර",
        "නවා"
      ],
      [
        "එක්",
        "කෙනෙක්"
      ],
      [
        "පේ",
        "න්න"
      ],
      [
        "අහ්",
        "හ්"
      ],
      [
        "අල්ල",
        "ගෙන"
      ],
      [
        "හැම",
        "වෙලේම"
      ],
      [
        "ෂ",
        "ණ"
      ],
      [
        "C",
        "h"
      ],
      [
        "එකි",
        "නෙ"
      ],
      [
        "වි",
        "ද"
      ],
      [
        "ටො",
        "ම්"
      ],
      [
        "ළම",
        "යා"
      ],
      [
        "උ",
        "බේ"
      ],
      [
        "ස්",
        "ටී"
      ],
      [
        "හ්",
        "ම්"
      ],
      [
        "ඩු",
        "වක්"
      ],
      [
        "ති",
        "යට"
      ],
      [
        "ශා",
        "ලා"
      ],
      [
        "පො",
        "ත"
      ],
      [
        "වෙ",
        "ල"
      ],
      [
        "දැනෙ",
        "න්නේ"
      ],
      [
        "වෙයි",
        "ද"
      ],
      [
        "දන්නව",
        "නෙ"
      ],
      [
        "නො",
        "කර"
      ],
      [
        "c",
        "e"
      ],
      [
        "ශ",
        "රී"
      ],
      [
        "හා",
        "ස"
      ],
      [
        "දැ",
        "ක"
      ],
      [
        "කාලෙ",
        "කට"
      ],
      [
        "ල්",
        "ලේ"
      ],
      [
        "ට්",
        "ස්"
      ],
      [
        "බැ",
        "ල්ලි"
      ],
      [
        "e",
        "x"
      ],
      [
        "ත්‍",
        "රය"
      ],
      [
        "ටු",
        "ව"
      ],
      [
        "වරු",
        "නි"
      ],
      [
        "කො",
        "ල්ලෙක්"
      ],
      [
        "මූ",
        "ල"
      ],
      [
        "හමු",
        "වෙන්න"
      ],
      [
        "හම්",
        "බෙ"
      ],
      [
        "අහ",
        "ලා"
      ],
      [
        "වතා",
        "වක්"
      ],
      [
        "මතක",
        "යි"
      ],
      [
        "ණි",
        "ය"
      ],
      [
        "පහ",
        "ලට"
      ],
      [
        "බලා",
        "ගන්නම්"
      ],
      [
        "කී",
        "ම"
      ],
      [
        "සි",
        "රු"
      ],
      [
        "සි",
        "ර"
      ],
      [
        "p",
        "l"
      ],
      [
        "සෑ",
        "හෙන්න"
      ],
      [
        "දව",
        "සේ"
      ],
      [
        "බිරි",
        "ද"
      ],
      [
        "අ",
        "ම"
      ],
      [
        "ඔ",
        "ක්ක"
      ],
      [
        "ක",
        "ළු"
      ],
      [
        "ප්‍රශ්",
        "ණ"
      ],
      [
        "පළ",
        "වෙනි"
      ],
      [
        "මෙහෙයු",
        "ම"
      ],
      [
        "ම",
        "දි"
      ],
      [
        "යු",
        "ක්"
      ],
      [
        "නිද",
        "හ"
      ],
      [
        "ක",
        "ද"
      ],
      [
        "වස්තු",
        "වේ"
      ],
      [
        "ප්‍රශ්",
        "නේ"
      ],
      [
        "පොලි",
        "සිය"
      ],
      [
        "ඉ",
        "ප"
      ],
      [
        "ඔහේ",
        "ට"
      ],
      [
        "කරු",
        "නා"
      ],
      [
        "ෂ්",
        "ට"
      ],
      [
        "දෙ",
        "නවද"
      ],
      [
        "මු",
        "ලින්"
      ],
      [
        "අ",
        "පා"
      ],
      [
        "ආ",
        "ර්"
      ],
      [
        "ගණු",
        "දෙනු"
      ],
      [
        "නි",
        "වැරදි"
      ],
      [
        "දෙ",
        "ය"
      ],
      [
        "ල",
        "මයි"
      ],
      [
        "කෙ",
        "ලින්ම"
      ],
      [
        "නිසා",
        "ද"
      ],
      [
        "නේ",
        "න"
      ],
      [
        "වී",
        "මේ"
      ],
      [
        "පෙ",
        "ළ"
      ],
      [
        "අවු",
        "ල"
      ],
      [
        "වෛ",
        "ර"
      ],
      [
        "නව",
        "ට"
      ],
      [
        "ල",
        "යේ"
      ],
      [
        "ව",
        "සර"
      ],
      [
        "න",
        "න්"
      ],
      [
        "ක",
        "වද"
      ],
      [
        "නග",
        "රයේ"
      ],
      [
        "ද",
        "නේ"
      ],
      [
        "චා",
        "ර"
      ],
      [
        "අ",
        "ගය"
      ],
      [
        "කැ",
        "ර"
      ],
      [
        "ලෝ",
        "න්"
      ],
      [
        "ජනා",
        "ධිපති"
      ],
      [
        "මු",
        "ලු"
      ],
      [
        "ග",
        "ම්"
      ],
      [
        "ස්තූ",
        "ති"
      ],
      [
        "ඉස්සර",
        "හට"
      ],
      [
        "ඇහෙ",
        "නවද"
      ],
      [
        "මොනා",
        "හරි"
      ],
      [
        "පැත්ත",
        "කට"
      ],
      [
        "ද",
        "න්නා"
      ],
      [
        "සා",
        "දර"
      ],
      [
        "e",
        "w"
      ],
      [
        "නි",
        "දාගන්න"
      ],
      [
        "වි",
        "ශි"
      ],
      [
        "ද",
        "න්"
      ],
      [
        "ම",
        "චෝ"
      ],
      [
        "නි",
        "සැ"
      ],
      [
        "උනා",
        "ට"
      ],
      [
        "කා",
        "ර්‍"
      ],
      [
        "දෙක",
        "කට"
      ],
      [
        "ඩ",
        "ම්බ"
      ],
      [
        "ගණ",
        "න්"
      ],
      [
        "විස්",
        "වාස"
      ],
      [
        "ආරක්ෂා",
        "ව"
      ],
      [
        "වම",
        "නා"
      ],
      [
        "මේ",
        "කේ"
      ],
      [
        "ස්",
        "ටා"
      ],
      [
        "බෙහෙ",
        "ත්"
      ],
      [
        "කර",
        "ණය"
      ],
      [
        "ad",
        "a"
      ],
      [
        "ෂ",
        "ණය"
      ],
      [
        "එ",
        "හ"
      ],
      [
        "ප්‍ර",
        "දේශ"
      ],
      [
        "බැලු",
        "වා"
      ],
      [
        "කො",
        "ල"
      ],
      [
        "ගැහැ",
        "ණු"
      ],
      [
        "ග",
        "ස්ස"
      ],
      [
        "හද",
        "න"
      ],
      [
        "කො",
        "ල්ලා"
      ],
      [
        "ගෙ",
        "ම"
      ],
      [
        "වර",
        "යා"
      ],
      [
        "දු",
        "න"
      ],
      [
        "පි",
        "පි"
      ],
      [
        "න",
        "ස්"
      ],
      [
        "s",
        "h"
      ],
      [
        "a",
        "g"
      ],
      [
        "තා",
        "වය"
      ],
      [
        "රු",
        "සි"
      ],
      [
        "අය",
        "ව"
      ],
      [
        "හ",
        "හ්"
      ],
      [
        "නු",
        "වා"
      ],
      [
        "වි",
        "ඩ්"
      ],
      [
        "කර",
        "ගත්තා"
      ],
      [
        "ග",
        "ලා"
      ],
      [
        "කරුණා",
        "කරල"
      ],
      [
        "තැන",
        "කට"
      ],
      [
        "ස්",
        "මක්"
      ],
      [
        "ආ",
        "ඩම්බ"
      ],
      [
        "තේරෙ",
        "න්නෙ"
      ],
      [
        "ම",
        "ධ්‍ය"
      ],
      [
        "තුම",
        "නි"
      ],
      [
        "ඉ",
        "ර"
      ],
      [
        "අ",
        "ධ්‍"
      ],
      [
        "ම",
        "චං"
      ],
      [
        "වෙන",
        "ත්"
      ],
      [
        "ක",
        "යන්"
      ],
      [
        "බි",
        "ත්"
      ],
      [
        "භා",
        "විත"
      ],
      [
        "රැ",
        "න්"
      ],
      [
        "ඔයා",
        "ම"
      ],
      [
        "වයි",
        "න්"
      ],
      [
        "සියළු",
        "ම"
      ],
      [
        "හද",
        "ලා"
      ],
      [
        "ඔහ්",
        "හ්"
      ],
      [
        "අදහ",
        "ස"
      ],
      [
        "සි",
        "තිය"
      ],
      [
        "තැන",
        "ක"
      ],
      [
        "සම්පූර්ණ",
        "යෙන්ම"
      ],
      [
        "කු",
        "යි"
      ],
      [
        "1",
        "1"
      ],
      [
        "හැ",
        "ඟී"
      ],
      [
        "බ",
        "ට"
      ],
      [
        "මැරු",
        "ණා"
      ],
      [
        "බල",
        "න"
      ],
      [
        "ම",
        "රා"
      ],
      [
        "උ",
        "පා"
      ],
      [
        "පණිවි",
        "ඩය"
      ],
      [
        "මූ",
        "ණ"
      ],
      [
        "සාදර",
        "යෙන්"
      ],
      [
        "අනිවාර්",
        "ය"
      ],
      [
        "ඒක",
        "නම්"
      ],
      [
        "උ",
        "දා"
      ],
      [
        "ක",
        "ස්"
      ],
      [
        "කියන්න",
        "ද"
      ],
      [
        "ප",
        "ල්"
      ],
      [
        "m",
        "b"
      ],
      [
        "භාවි",
        "තා"
      ],
      [
        "පු",
        "තේ"
      ],
      [
        "පා",
        "ද"
      ],
      [
        "ෂ",
        "ර්"
      ],
      [
        "පහ",
        "ත්"
      ],
      [
        "කරදර",
        "යක්"
      ],
      [
        "ත",
        "ක"
      ],
      [
        "ඊ",
        "ළඟ"
      ],
      [
        "පැ",
        "ර"
      ],
      [
        "ගෞ",
        "රව"
      ],
      [
        "..",
        "\""
      ],
      [
        "r",
        "o"
      ],
      [
        "ත්ත",
        "ක්"
      ],
      [
        "2",
        "00"
      ],
      [
        "පමණ",
        "යි"
      ],
      [
        "a",
        "p"
      ],
      [
        "මයි",
        "ක්"
      ],
      [
        "උත්",
        "ස"
      ],
      [
        "B",
        "I"
      ],
      [
        "u",
        "l"
      ],
      [
        "එ",
        "හි"
      ],
      [
        "ෂි",
        "ත"
      ],
      [
        "එක",
        "ක"
      ],
      [
        "පව",
        "ති"
      ],
      [
        "කල්ප",
        "නා"
      ],
      [
        "න",
        "ට්"
      ],
      [
        "ආ",
        "පසු"
      ],
      [
        "ර",
        "ථ"
      ],
      [
        "ප",
        "වත්"
      ],
      [
        "1",
        "00"
      ],
      [
        "සී",
        "මා"
      ],
      [
        "කියල",
        "යි"
      ],
      [
        "කලා",
        "ද"
      ],
      [
        "වී",
        "ඩියෝ"
      ],
      [
        "එ",
        "ම"
      ],
      [
        "කෙ",
        "ටි"
      ],
      [
        "මැරෙ",
        "නවා"
      ],
      [
        "සං",
        "ගී"
      ],
      [
        "a",
        "k"
      ],
      [
        "රු",
        "නා"
      ],
      [
        "හ",
        "ර්"
      ],
      [
        "තමුසෙ",
        "ට"
      ],
      [
        "කිහි",
        "පයක්"
      ],
      [
        "ඇ",
        "ත්තේ"
      ],
      [
        "එ",
        "නවද"
      ],
      [
        "tr",
        "ans"
      ],
      [
        "A",
        "l"
      ],
      [
        "ක",
        "සා"
      ],
      [
        "අන්ති",
        "මේ"
      ],
      [
        "සං",
        "ඥා"
      ],
      [
        "ප",
        "ත්‍ර"
      ],
      [
        "කරන්න",
        "යි"
      ],
      [
        "යට",
        "ත්"
      ],
      [
        "නෙ",
        "න්"
      ],
      [
        "h",
        "t"
      ],
      [
        "ව",
        "ටේ"
      ],
      [
        "ච්",
        "චා"
      ],
      [
        "ස",
        "ද"
      ],
      [
        "බ",
        "යයි"
      ],
      [
        "වු",
        "ල්"
      ],
      [
        "කාර්",
        "යා"
      ],
      [
        "තත්",
        "ප"
      ],
      [
        "න්",
        "ගෙ"
      ],
      [
        "ම",
        "තු"
      ],
      [
        "ලෑ",
        "ස්තියි"
      ],
      [
        "යො",
        "මු"
      ],
      [
        "පහ",
        "ක්"
      ],
      [
        "ත්‍ර",
        "ස්ත"
      ],
      [
        "පරීක්ෂ",
        "ණ"
      ],
      [
        "බලන්න",
        "ම්"
      ],
      [
        "කව",
        "ද්ද"
      ],
      [
        "වෙන",
        "සක්"
      ],
      [
        "අහ",
        "න්නේ"
      ],
      [
        "n",
        "ame"
      ],
      [
        "මනුස්ස",
        "යෙක්"
      ],
      [
        "ඒ",
        "කි"
      ],
      [
        "දෙ",
        "නව"
      ],
      [
        "වා",
        "සි"
      ],
      [
        "සු",
        "ළු"
      ],
      [
        "අඩංගු",
        "වට"
      ],
      [
        "i",
        "st"
      ],
      [
        "එ",
        "කා"
      ],
      [
        "රු",
        "වා"
      ],
      [
        "ජි",
        "වි"
      ],
      [
        "මෙ",
        "තැන"
      ],
      [
        "ආ",
        "යු"
      ],
      [
        "එන",
        "කම්"
      ],
      [
        "ග",
        "ර්"
      ],
      [
        "බල",
        "න්නේ"
      ],
      [
        "dit",
        "ion"
      ],
      [
        "බ",
        "බෝ"
      ],
      [
        "ස්තු",
        "ති"
      ],
      [
        "ඔ",
        "ත්තු"
      ],
      [
        "in",
        "d"
      ],
      [
        "සප",
        "ත්තු"
      ],
      [
        "ඩු",
        "වේ"
      ],
      [
        "කිහි",
        "ප"
      ],
      [
        "නි",
        "වා"
      ],
      [
        "අ",
        "ශ්"
      ],
      [
        "යා",
        "නය"
      ],
      [
        "මෝඩ",
        "යෙක්"
      ],
      [
        "මා",
        "ළු"
      ],
      [
        "p",
        "h"
      ],
      [
        "?",
        "\""
      ],
      [
        "ක",
        "ඳු"
      ],
      [
        "කණ්ඩාය",
        "මක්"
      ],
      [
        "අ",
        "ට"
      ],
      [
        "පින්තූ",
        "ර"
      ],
      [
        "ඇ",
        "ට"
      ],
      [
        "ඇහු",
        "ම්"
      ],
      [
        "ගනී",
        "වි"
      ],
      [
        "u",
        "t"
      ],
      [
        "Can",
        "ada"
      ],
      [
        "අ",
        "ති"
      ],
      [
        "රං",
        "ග"
      ],
      [
        "නිසැ",
        "කවම"
      ],
      [
        "කර",
        "වන්න"
      ],
      [
        "කාර",
        "ණා"
      ],
      [
        "il",
        "l"
      ],
      [
        "රෙ",
        "හි"
      ],
      [
        "ප්",
        "ලෝන්"
      ],
      [
        "දූ",
        "පත"
      ],
      [
        "පණ",
        "පිටින්"
      ],
      [
        "යාලු",
        "වෙක්"
      ],
      [
        "වර",
        "යෙක්"
      ],
      [
        "න",
        "ගින්න"
      ],
      [
        "at",
        "ion"
      ],
      [
        "මිනිහ",
        "ව"
      ],
      [
        "දි",
        "නවා"
      ],
      [
        "ග්‍",
        "රේ"
      ],
      [
        "ය",
        "හ"
      ],
      [
        "නිර්",
        "භී"
      ],
      [
        "F",
        "BI"
      ],
      [
        "කිරී",
        "මේ"
      ],
      [
        "වච",
        "නයක්"
      ],
      [
        "පැ",
        "න්"
      ],
      [
        "තර",
        "මට"
      ],
      [
        "ක්",
        "ෂේ"
      ],
      [
        "බ",
        "හු"
      ],
      [
        "තර",
        "මේ"
      ],
      [
        "පූ",
        "ර්"
      ],
      [
        "කී",
        "යක්"
      ],
      [
        "ඌ",
        "ට"
      ],
      [
        "ප්‍ර",
        "හා"
      ],
      [
        "මා",
        "මා"
      ],
      [
        "ග",
        "මේ"
      ],
      [
        "ව",
        "නි"
      ],
      [
        "ලැබෙ",
        "න"
      ],
      [
        "වශ",
        "යෙන්"
      ],
      [
        "යා",
        "නා"
      ],
      [
        "ඇතු",
        "ළට"
      ],
      [
        "ඉස්ස",
        "රහ"
      ],
      [
        "වු",
        "ර"
      ],
      [
        "a",
        "v"
      ],
      [
        "ගෑ",
        "නු"
      ],
      [
        "ග",
        "න්නා"
      ],
      [
        "මී",
        "ටර්"
      ],
      [
        "කිරී",
        "ම්"
      ],
      [
        "කිව්",
        "වනේ"
      ],
      [
        "ගො",
        "ල්ල"
      ],
      [
        "හරි",
        "න්න"
      ],
      [
        "දේ",
        "ට"
      ],
      [
        "යි",
        "ඩ්"
      ],
      [
        "ක්",
        "ලෙ"
      ],
      [
        "භා",
        "ර"
      ],
      [
        "තිබු",
        "නෙ"
      ],
      [
        "මහත්",
        "මිය"
      ],
      [
        "රෙ",
        "ඩ්"
      ],
      [
        "con",
        "dition"
      ],
      [
        "තත්",
        "පර"
      ],
      [
        "ගනු",
        "දෙනු"
      ],
      [
        "o",
        "o"
      ],
      [
        "ලි",
        "ස්"
      ],
      [
        "වන්න",
        "ම්"
      ],
      [
        "ආ",
        "ස"
      ],
      [
        "රො",
        "න්"
      ],
      [
        "තර",
        "හ"
      ],
      [
        "පි",
        "යන්"
      ],
      [
        "ඔ",
        "වු"
      ],
      [
        "ඩි",
        "ය"
      ],
      [
        "අනතු",
        "රක්"
      ],
      [
        "ව",
        "රක්"
      ],
      [
        "රො",
        "ත්"
      ],
      [
        "නී",
        "ප"
      ],
      [
        "පු",
        "පුර"
      ],
      [
        "ඇ",
        "දු"
      ],
      [
        "වය",
        "ස"
      ],
      [
        "නිකම්",
        "ම"
      ],
      [
        "ඊ",
        "ලග"
      ],
      [
        "ආරක්ෂි",
        "තයි"
      ],
      [
        "ද්",
        "දේ"
      ],
      [
        "සා",
        "ම"
      ],
      [
        "දි",
        "නය"
      ],
      [
        "අ",
        "ග"
      ],
      [
        "යු",
        "ම්"
      ],
      [
        "trans",
        "l"
      ],
      [
        "ගියා",
        "ම"
      ],
      [
        "ගෞ",
        "ර"
      ],
      [
        "2",
        "4"
      ],
      [
        "හෝ",
        "ට"
      ],
      [
        "සෙ",
        "ල්"
      ],
      [
        "මගු",
        "ල"
      ],
      [
        "for",
        "ec"
      ],
      [
        "forec",
        "ast"
      ],
      [
        "es",
        "s"
      ],
      [
        "ම",
        "ව්"
      ],
      [
        "එ",
        "ල්ල"
      ],
      [
        "පරි",
        "ගණ"
      ],
      [
        "බේ",
        "රා"
      ],
      [
        "නැව",
        "තත්"
      ],
      [
        "වෙනු",
        "වට"
      ],
      [
        "අහ",
        "ගන්න"
      ],
      [
        "අ",
        "ඟ"
      ],
      [
        "මනු",
        "ෂ්‍ය"
      ],
      [
        "දුම්",
        "රිය"
      ],
      [
        "පිළි",
        "බඳ"
      ],
      [
        "බ",
        "හ"
      ],
      [
        "දා",
        "යි"
      ],
      [
        "හි",
        "තේ"
      ],
      [
        "ආවර",
        "ණය"
      ],
      [
        "ලැයි",
        "ස්තු"
      ],
      [
        "එයාල",
        "ගෙ"
      ],
      [
        "බල",
        "ලා"
      ],
      [
        "මෙයා",
        "ට"
      ],
      [
        "හිත",
        "ලා"
      ],
      [
        "රැ",
        "ජි"
      ],
      [
        "ගෙනා",
        "වා"
      ],
      [
        "වි",
        "ලා"
      ],
      [
        "හා",
        "නි"
      ],
      [
        "අහ",
        "නවා"
      ],
      [
        "පෞ",
        "ද්"
      ],
      [
        "ස්",
        "සි"
      ],
      [
        "ආ",
        "හාර"
      ],
      [
        "ටෙ",
        "න්"
      ],
      [
        "උඹ",
        "ලා"
      ],
      [
        "අනාගත",
        "ය"
      ],
      [
        "ග",
        "රු"
      ],
      [
        "චිත්‍ර",
        "පටි"
      ],
      [
        "ආ",
        "වොත්"
      ],
      [
        "සල",
        "කුණු"
      ],
      [
        "o",
        "c"
      ],
      [
        "ඔ",
        "ර"
      ],
      [
        "ක්",
        "ල"
      ],
      [
        "යාළු",
        "වෙක්"
      ],
      [
        "තාත්",
        "තෙ"
      ],
      [
        "වෝ",
        "ල්"
      ],
      [
        "නා",
        "ස්ති"
      ],
      [
        "ඊ",
        "යෙ"
      ],
      [
        "ර",
        "ම්"
      ],
      [
        "පිරි",
        "මි"
      ],
      [
        "විහිළු",
        "වක්"
      ],
      [
        "මර",
        "ණය"
      ],
      [
        "ග",
        "බ"
      ],
      [
        "අන",
        "තුර"
      ],
      [
        "ක්‍රම",
        "යක්"
      ],
      [
        "මුණ",
        "ගැහෙන්න"
      ],
      [
        "ලැජ්",
        "ජා"
      ],
      [
        "මැ",
        "ර"
      ],
      [
        "ප්‍ර",
        "කාශ"
      ],
      [
        "ස්ථා",
        "න"
      ],
      [
        "කරු",
        "වෙක්"
      ],
      [
        "මේ",
        "කෙ"
      ],
      [
        "කු",
        "ළු"
      ],
      [
        "හ",
        "ඩ"
      ],
      [
        "වේ",
        "දි"
      ],
      [
        "දැක්",
        "කෙ"
      ],
      [
        "ඔක්ක",
        "ම"
      ],
      [
        "තේරුනා",
        "ද"
      ],
      [
        "විශ්වාස",
        "ය"
      ],
      [
        "අං",
        "කය"
      ],
      [
        "උපරි",
        "ම"
      ],
      [
        "සියලු",
        "ම"
      ],
      [
        "i",
        "d"
      ],
      [
        "ද",
        "ත්ත"
      ],
      [
        "පරි",
        "වර්"
      ],
      [
        "රස්සා",
        "ව"
      ],
      [
        "භයාන",
        "ක"
      ],
      [
        "ෆි",
        "ල්"
      ],
      [
        "ද",
        "යි"
      ],
      [
        "අ",
        "ද්"
      ],
      [
        "ar",
        "t"
      ],
      [
        "ඔ",
        "ච්චර"
      ],
      [
        "ස",
        "ත්ත"
      ],
      [
        "b",
        "e"
      ],
      [
        "ඔයා",
        "ද"
      ],
      [
        "නි",
        "ල්"
      ],
      [
        "පේ",
        "නවද"
      ],
      [
        "සා",
        "ම්"
      ],
      [
        "ග්‍",
        "රා"
      ],
      [
        "ගැහු",
        "වා"
      ],
      [
        "හිත",
        "න්"
      ],
      [
        "ද",
        "කුණ"
      ],
      [
        "මේ",
        "ව"
      ],
      [
        "ව්",
        "ව"
      ],
      [
        "තිබ්",
        "බෙ"
      ],
      [
        "ප",
        "ස"
      ],
      [
        "විදිහ",
        "ක්"
      ],
      [
        "තිය",
        "න්නේ"
      ],
      [
        "අ",
        "භ්‍"
      ],
      [
        "භා",
        "ෂා"
      ],
      [
        "ක",
        "ළම"
      ],
      [
        "පරි",
        "ක්ෂා"
      ],
      [
        "ස",
        "ද්ද"
      ],
      [
        "අයි",
        "ස්"
      ],
      [
        "මැ",
        "දි"
      ],
      [
        "රා",
        "ජ්‍"
      ],
      [
        "ගෑ",
        "ණු"
      ],
      [
        "කිව්",
        "වද"
      ],
      [
        "ගැනී",
        "මක්"
      ],
      [
        "q",
        "u"
      ],
      [
        "ශ",
        "ය"
      ],
      [
        "හිතෙ",
        "නවා"
      ],
      [
        "ar",
        "e"
      ],
      [
        "දි",
        "ම"
      ],
      [
        "නැත්",
        "ද"
      ],
      [
        "5",
        "ක්"
      ],
      [
        "\"",
        "."
      ],
      [
        "ඉක්මනින්",
        "ම"
      ],
      [
        "විරුද්ධ",
        "ව"
      ],
      [
        "4",
        "0"
      ],
      [
        "ලිපි",
        "නය"
      ],
      [
        "1",
        "3"
      ],
      [
        "ශ්‍",
        "ය"
      ],
      [
        "ලා",
        "නා"
      ],
      [
        "වේ",
        "දී"
      ],
      [
        "අව",
        "ස්"
      ],
      [
        "මි",
        "ල"
      ],
      [
        "ශක්",
        "තිය"
      ],
      [
        "කයි",
        "න්"
      ],
      [
        "මන්",
        "දා"
      ],
      [
        "යාළු",
        "වො"
      ],
      [
        "තුවක්කු",
        "වක්"
      ],
      [
        "මිනී",
        "මැරු"
      ],
      [
        "ග්‍",
        "රී"
      ],
      [
        "ක",
        "රොත්"
      ],
      [
        "ආ",
        "සයි"
      ],
      [
        "පරීක්ෂ",
        "ක"
      ],
      [
        "වි",
        "කුණ"
      ],
      [
        "දෙ",
        "න්"
      ],
      [
        "ගෙ",
        "වල්"
      ],
      [
        "වැඩ",
        "කට"
      ],
      [
        "එක්ක",
        "ගෙන"
      ],
      [
        "ලයි",
        "ට්"
      ],
      [
        "ගැනී",
        "මේ"
      ],
      [
        "ඇතු",
        "ළු"
      ],
      [
        "ණ්",
        "ඩු"
      ],
      [
        "ඕනෙ",
        "ම"
      ],
      [
        "මඟු",
        "ලක්ද"
      ],
      [
        "සි",
        "ක"
      ],
      [
        "දෝ",
        "ෂ"
      ],
      [
        "අනිවාර්",
        "යෙන්ම"
      ],
      [
        "නු",
        "ම්"
      ],
      [
        "පරිස්ස",
        "ම්"
      ],
      [
        "ලෙ",
        "ක්"
      ],
      [
        "හො",
        "යන්නේ"
      ],
      [
        "ලැබෙ",
        "නවා"
      ],
      [
        "පොලි",
        "සියට"
      ],
      [
        "යා",
        "ර්"
      ],
      [
        "සහ",
        "තික"
      ],
      [
        "බි",
        "ල්"
      ],
      [
        "හැකි",
        "යාව"
      ],
      [
        "රෙ",
        "නවා"
      ],
      [
        "බැ",
        "ට"
      ],
      [
        "පිලි",
        "ගන්නවා"
      ],
      [
        "යෝ",
        "ජ"
      ],
      [
        "සත්ත",
        "කින්ම"
      ],
      [
        "ත",
        "යක්"
      ],
      [
        "ගබ",
        "ඩා"
      ],
      [
        "ou",
        "nt"
      ],
      [
        "පෙ",
        "නී"
      ],
      [
        "ට්‍",
        "රක්"
      ],
      [
        "ප",
        "තේ"
      ],
      [
        "J",
        "o"
      ],
      [
        "වර",
        "ද"
      ],
      [
        "ලි",
        "ක්"
      ],
      [
        "හෝ",
        "ව්"
      ],
      [
        "කණ්ඩාය",
        "මේ"
      ],
      [
        "කි",
        "වා"
      ],
      [
        "හොය",
        "ලා"
      ],
      [
        "ප්ල",
        "ගි"
      ],
      [
        "ම්",
        "ම"
      ],
      [
        "තර",
        "ඟ"
      ],
      [
        "පනි",
        "න්න"
      ],
      [
        "රූ",
        "ප"
      ],
      [
        "උන්",
        "නා"
      ],
      [
        "e",
        "m"
      ],
      [
        "ක්‍",
        "රිස්"
      ],
      [
        "ජී",
        "ව"
      ],
      [
        "අ",
        "හිමි"
      ],
      [
        "ඇහුම්",
        "කන්"
      ],
      [
        "දරු",
        "වා"
      ],
      [
        "ප්",
        "ට"
      ],
      [
        "ස",
        "මී"
      ],
      [
        "අ",
        "මත"
      ],
      [
        "t",
        "y"
      ],
      [
        "සෙ",
        "න"
      ],
      [
        "ග",
        "ස්"
      ],
      [
        "සිටි",
        "නවා"
      ],
      [
        "තියෙ",
        "න්"
      ],
      [
        "n",
        "d"
      ],
      [
        "අ",
        "ර්"
      ],
      [
        "cH",
        "FF"
      ],
      [
        "සම්",
        "පු"
      ],
      [
        "න්",
        "ඩ්"
      ],
      [
        "සෙ",
        "ක්"
      ],
      [
        "සා",
        "ධා"
      ],
      [
        "වැඩ",
        "ට"
      ],
      [
        "නැ",
        "වැ"
      ],
      [
        "පිළි",
        "ගන්නවා"
      ],
      [
        "ඇද",
        "ලා"
      ],
      [
        "මේ",
        "න්"
      ],
      [
        "ආ",
        "චාර්"
      ],
      [
        "සී",
        "යා"
      ],
      [
        "මේක",
        "යි"
      ],
      [
        "සුර",
        "කි"
      ],
      [
        "ණි",
        "ක"
      ],
      [
        "බා",
        "ධ"
      ],
      [
        "ව",
        "නු"
      ],
      [
        "න",
        "මයි"
      ],
      [
        "වුනා",
        "ට"
      ],
      [
        "ප",
        "ට්ට"
      ],
      [
        "තිය",
        "නේ"
      ],
      [
        "බි",
        "ම්"
      ],
      [
        "ට්‍",
        "රේ"
      ],
      [
        "ද",
        "ඩය"
      ],
      [
        "ලැයි",
        "ස්තුව"
      ],
      [
        "මිනි",
        "ස්"
      ],
      [
        "විවේ",
        "ක"
      ],
[...]
