{
  "0": "[PAD]",
  "1": "[UNK]",
  "2": "[BOS]",
  "3": "[EOS]",
  "4": "!",
  "5": "\"",
  "6": "#",
  "7": "$",
  "8": "%",
  "9": "&",
  "10": "'",
  "11": "(",
  "12": ")",
  "13": "*",
  "14": "+",
  "15": ",",
  "16": "-",
  "17": ".",
  "18": "/",
  "19": "0",
  "20": "0්",
  "21": "1",
  "22": "1්",
  "23": "2",
  "24": "3",
  "25": "3‍",
  "26": "4",
  "27": "4‍",
  "28": "5",
  "29": "5ෙ",
  "30": "5‍",
  "31": "6",
  "32": "6‍",
  "33": "7",
  "34": "7‍",
  "35": "8",
  "36": "8‍",
  "37": "9",
  "38": ":",
  "39": ";",
  "40": "<",
  "41": "=",
  "42": ">",
  "43": "?",
  "44": "@",
  "45": "A",
  "46": "B",
  "47": "C",
  "48": "D",
  "49": "E",
  "50": "F",
  "51": "G",
  "52": "H",
  "53": "I",
  "54": "J",
  "55": "K",
  "56": "K‌",
  "57": "L",
  "58": "M",
  "59": "N",
  "60": "O",
  "61": "P",
  "62": "Q",
  "63": "R",
  "64": "R‍",
  "65": "S",
  "66": "T",
  "67": "Tෙ",
  "68": "U",
  "69": "V",
  "70": "W",
  "71": "X",
  "72": "Y",
  "73": "Z",
  "74": "[",
  "75": "\\",
  "76": "]",
  "77": "^",
  "78": "_",
  "79": "`",
  "80": "a",
  "81": "b",
  "82": "c",
  "83": "d",
  "84": "e",
  "85": "f",
  "86": "g",
  "87": "h",
  "88": "i",
  "89": "j",
  "90": "k",
  "91": "l",
  "92": "m",
  "93": "n",
  "94": "o",
  "95": "p",
  "96": "q",
  "97": "r",
  "98": "r‍",
  "99": "s",
  "100": "t",
  "101": "u",
  "102": "v",
  "103": "w",
  "104": "x",
  "105": "y",
  "106": "y‍",
  "107": "z",
  "108": "{",
  "109": "}",
  "110": "~",
  "111": "",
  "112": "",
  "113": "¡",
  "114": "£",
  "115": "©",
  "116": "­",
  "117": "®",
  "118": "°",
  "119": "²",
  "120": "³",
  "121": "¹",
  "122": "½",
  "123": "¿",
  "124": "Á",
  "125": "Ç",
  "126": "È",
  "127": "Î",
  "128": "×",
  "129": "Ø",
  "130": "Ý",
  "131": "à",
  "132": "á",
  "133": "â",
  "134": "ã",
  "135": "ä",
  "136": "ç",
  "137": "è",
  "138": "é",
  "139": "ë",
  "140": "í",
  "141": "î",
  "142": "ï",
  "143": "ñ",
  "144": "ó",
  "145": "ô",
  "146": "õ",
  "147": "ö",
  "148": "ø",
  "149": "û",
  "150": "ü",
  "151": "Ā",
  "152": "ā",
  "153": "ň",
  "154": "ő",
  "155": "š",
  "156": "˚",
  "157": "μ",
  "158": "۩",
  "159": "අ",
  "160": "අං",
  "161": "අංෙ",
  "162": "අං‍",
  "163": "අඃ",
  "164": "අා",
  "165": "අැ",
  "166": "අෑ",
  "167": "අි",
  "168": "අෙ",
  "169": "අ‌",
  "170": "අ‍",
  "171": "අ‍ං",
  "172": "අ‍‍",
  "173": "ආ",
  "174": "ආං",
  "175": "ආෙ",
  "176": "ආේ",
  "177": "ආ‍",
  "178": "ඇ",
  "179": "ඇං",
  "180": "ඇඃ",
  "181": "ඇැ",
  "182": "ඇි",
  "183": "ඇෙ",
  "184": "ඇ‍",
  "185": "ඇ‍‍",
  "186": "ඇ‍‍‍‍‍ෙ",
  "187": "ඈ",
  "188": "ඉ",
  "189": "ඉං",
  "190": "ඉ්",
  "191": "ඉා",
  "192": "ඉෙ",
  "193": "ඉ‍",
  "194": "ඊ",
  "195": "ඊ්",
  "196": "ඊෙ",
  "197": "ඊ‍",
  "198": "උ",
  "199": "උං",
  "200": "උ්",
  "201": "උූ",
  "202": "උෙ",
  "203": "උෟ",
  "204": "උ‍",
  "205": "ඌ",
  "206": "ඍ",
  "207": "ඍු",
  "208": "එ",
  "209": "එං",
  "210": "එ්",
  "211": "එ්‍",
  "212": "එා",
  "213": "එු",
  "214": "එෙ",
  "215": "එ‍",
  "216": "එ‍්",
  "217": "ඒ",
  "218": "ඒ්",
  "219": "ඒි",
  "220": "ඒෙ",
  "221": "ඒ‍",
  "222": "ඓ",
  "223": "ඓ්",
  "224": "ඔ",
  "225": "ඔං",
  "226": "ඔ්‍",
  "227": "ඔා",
  "228": "ඔී",
  "229": "ඔු",
  "230": "ඔෙ",
  "231": "ඔෟ",
  "232": "ඔ‍",
  "233": "ඔ‍්",
  "234": "ඕ",
  "235": "ඕං",
  "236": "ඕෙ",
  "237": "ඕ‍",
  "238": "ඖ",
  "239": "ක",
  "240": "කං",
  "241": "ක්",
  "242": "ක්ං",
  "243": "ක්්",
  "244": "ක්්‍",
  "245": "ක්ා",
  "246": "ක්ි",
  "247": "ක්ෙ",
  "248": "ක්‌",
  "249": "ක්‍",
  "250": "ක්‍්",
  "251": "ක්‍‍",
  "252": "කා",
  "253": "කාං",
  "254": "කාං‍‍",
  "255": "කාෙ",
  "256": "කා‍",
  "257": "කැ",
  "258": "කැැ",
  "259": "කැෙ",
  "260": "කැ‍",
  "261": "කෑ",
  "262": "කෑ‍",
  "263": "කි",
  "264": "කිං",
  "265": "කිා",
  "266": "කිි",
  "267": "කිෙ",
  "268": "කි‍",
  "269": "කි‍්‍",
  "270": "කී",
  "271": "කී‍",
  "272": "කු",
  "273": "කුං",
  "274": "කුෙ",
  "275": "කු‍",
  "276": "කු‍්",
  "277": "කූ",
  "278": "කූ‍",
  "279": "කෘ",
  "280": "කෘෘ",
  "281": "කෙ",
  "282": "කෙං",
  "283": "කේ",
  "284": "කො",
  "285": "කෝ",
  "286": "කෙි",
  "287": "කෙු",
  "288": "කෙෙ",
  "289": "කෙේ",
  "290": "කෙො",
  "291": "කෙෝ",
  "292": "කෞ",
  "293": "කෙ‍",
  "294": "කේ",
  "295": "කේ‍",
  "296": "කෛ",
  "297": "කෛා",
  "298": "කො",
  "299": "කොං",
  "300": "කොා",
  "301": "කොෙ",
  "302": "කො‍",
  "303": "කො‍්",
  "304": "කෝ",
  "305": "කෝෙ",
  "306": "කෝ‍",
  "307": "කෞ",
  "308": "කෟ",
  "309": "කෲ",
  "310": "ක‍",
  "311": "ක‍්",
  "312": "ක‍්‍",
  "313": "ක‍ා",
  "314": "ක‍ො",
  "315": "ක‍‍",
  "316": "ඛ",
  "317": "ඛං",
  "318": "ඛ්",
  "319": "ඛ්‍",
  "320": "ඛා",
  "321": "ඛාං",
  "322": "ඛෑ",
  "323": "ඛි",
  "324": "ඛී",
  "325": "ඛු",
  "326": "ඛෙ",
  "327": "ඛේ",
  "328": "ඛෝ",
  "329": "ඛ‍",
  "330": "ග",
  "331": "ගං",
  "332": "ග්",
  "333": "ග්‍",
  "334": "ගා",
  "335": "ගාං",
  "336": "ගාෙ",
  "337": "ගා‍",
  "338": "ගැ",
  "339": "ගැං",
  "340": "ගැෙ",
  "341": "ගැ‍",
  "342": "ගෑ",
  "343": "ගෑ‍",
  "344": "ගි",
  "345": "ගිෙ",
  "346": "ගි‍",
  "347": "ගී",
  "348": "ගී‍",
  "349": "ගු",
  "350": "ගුං",
  "351": "ගු‍",
  "352": "ගූ",
  "353": "ගෘ",
  "354": "ගෙ",
  "355": "ගෙං",
  "356": "ගේ",
  "357": "ගො",
  "358": "ගෙැ",
  "359": "ගෙි",
  "360": "ගෙු",
  "361": "ගෙෙ",
  "362": "ගෙේ",
  "363": "ගෙො",
  "364": "ගෞ",
  "365": "ගෙෳ",
  "366": "ගෙ‍",
  "367": "ගේ",
  "368": "ගේ්",
  "369": "ගේි",
  "370": "ගේේ",
  "371": "ගේ‍",
  "372": "ගෛ",
  "373": "ගො",
  "374": "ගොං",
  "375": "ගො‍",
  "376": "ගෝ",
  "377": "ගෝෙ",
  "378": "ගෝ‍",
  "379": "ගෞ",
  "380": "ගෟ",
  "381": "ගෲ",
  "382": "ග‍",
  "383": "ග‍ා",
  "384": "ග‍ෙ",
  "385": "ග‍‍",
  "386": "ඝ",
  "387": "ඝ්",
  "388": "ඝ්‍",
  "389": "ඝා",
  "390": "ඝා‍",
  "391": "ඝි",
  "392": "ඝී",
  "393": "ඝු",
  "394": "ඝූ",
  "395": "ඝෘ",
  "396": "ඝො",
  "397": "ඝෝ",
  "398": "ඝෝ‍",
  "399": "ඞ",
  "400": "ඞ්",
  "401": "ඞා",
  "402": "ඞු",
  "403": "ඟ",
  "404": "ඟං",
  "405": "ඟ්",
  "406": "ඟා",
  "407": "ඟැ",
  "408": "ඟෑ",
  "409": "ඟි",
  "410": "ඟී",
  "411": "ඟු",
  "412": "ඟෙ",
  "413": "ඟේ",
  "414": "ඟෝ",
  "415": "ච",
  "416": "චං",
  "417": "ච්",
  "418": "ච්්",
  "419": "ච්ා",
  "420": "ච්ෙ",
  "421": "ච්‍",
  "422": "ච්‍‍",
  "423": "චා",
  "424": "චාෙ",
  "425": "චා‍",
  "426": "චැ",
  "427": "චෑ",
  "428": "චෑං",
  "429": "චි",
  "430": "චිං",
  "431": "චි‍",
  "432": "චී",
  "433": "චු",
  "434": "චු‍",
  "435": "චූ",
  "436": "චෙ",
  "437": "චෙං",
  "438": "චේ",
  "439": "චො",
  "440": "චෙ‍",
  "441": "චේ",
  "442": "චො",
  "443": "චො‍්",
  "444": "චෝ",
  "445": "චෞ",
  "446": "ච‍",
  "447": "ඡ",
  "448": "ඡ්",
  "449": "ඡා",
  "450": "ඡි",
  "451": "ඡී",
  "452": "ඡුා",
  "453": "ඡූ",
  "454": "ඡේ",
  "455": "ජ",
  "456": "ජං",
  "457": "ජ්",
  "458": "ජ්ං",
  "459": "ජ්‍",
  "460": "ජ්‍‍",
  "461": "ජා",
  "462": "ජා‍",
  "463": "ජැ",
  "464": "ජැ‍",
  "465": "ජෑ",
  "466": "ජි",
  "467": "ජිං",
  "468": "ජිෙ",
  "469": "ජි‍",
  "470": "ජී",
  "471": "ජී‍",
  "472": "ජු",
  "473": "ජූ",
  "474": "ජෙ",
  "475": "ජේ",
  "476": "ජේ‍",
  "477": "ජො",
  "478": "ජෙි",
  "479": "ජෙු",
  "480": "ජෙෙ",
  "481": "ජෙ‍",
  "482": "ජේ",
  "483": "ජේ‍",
  "484": "ජෛ",
  "485": "ජො",
  "486": "ජොං",
  "487": "ජෝ",
  "488": "ජෝ‍",
  "489": "ජ‍",
  "490": "ජ‍්",
  "491": "ඣ",
  "492": "ඣී",
  "493": "ඣු",
  "494": "ඤ",
  "495": "ඤං",
  "496": "ඤ්",
  "497": "ඤ්‍",
  "498": "ඤා",
  "499": "ඤේ",
  "500": "ඤෝ",
  "501": "ඥ",
  "502": "ඥං",
  "503": "ඥ්",
  "504": "ඥා",
  "505": "ඥෙ",
  "506": "ඦා",
  "507": "ට",
  "508": "ටං",
  "509": "ට්",
  "510": "ට්‌",
  "511": "ට්‍",
  "512": "ට්‍‍",
  "513": "ටා",
  "514": "ටාං",
  "515": "ටැ",
  "516": "ටැං",
  "517": "ටෑ",
  "518": "ටෑං",
  "519": "ටි",
  "520": "ටිං",
  "521": "ටි්",
  "522": "ටිා",
  "523": "ටිි",
  "524": "ටිෙ",
  "525": "ටි‍",
  "526": "ටී",
  "527": "ටී‍",
  "528": "ටු",
  "529": "ටුෙ",
  "530": "ටු‍",
  "531": "ටූ",
  "532": "ටෘ",
  "533": "ටෘෘ",
  "534": "ටෙ",
  "535": "ටේ",
  "536": "ටේ‍",
  "537": "ටො",
  "538": "ටෙි",
  "539": "ටෙු",
  "540": "ටෙෙ",
  "541": "ටෙේ‍",
  "542": "ටේ",
  "543": "ටේ‍",
  "544": "ටෛ",
  "545": "ටො",
  "546": "ටොං",
  "547": "ටෝ",
  "548": "ටෝෙ",
  "549": "ටෝ‍",
  "550": "ටෞ",
  "551": "ටෲ",
  "552": "ට‍",
  "553": "ට‍්‍",
  "554": "ඨ",
  "555": "ඨා",
  "556": "ඨාං",
  "557": "ඨා‍",
  "558": "ඨි",
  "559": "ඨි‍‍",
  "560": "ඨී",
  "561": "ඨු‍‍",
  "562": "ඨෙ",
  "563": "ඨෝ",
  "564": "ඨ‍",
  "565": "ඩ",
  "566": "ඩං",
  "567": "ඩං‍‍",
  "568": "ඩ්",
  "569": "ඩ්්",
  "570": "ඩ්ෙ",
  "571": "ඩ්‍",
  "572": "ඩ්‍‍",
  "573": "ඩා",
  "574": "ඩාං",
  "575": "ඩා‍",
  "576": "ඩැ",
  "577": "ඩෑ",
  "578": "ඩි",
  "579": "ඩිං",
  "580": "ඩිෙ",
  "581": "ඩි‍",
  "582": "ඩි‍්",
  "583": "ඩි‍්‍",
  "584": "ඩී",
  "585": "ඩු",
  "586": "ඩුෙ",
  "587": "ඩුො",
  "588": "ඩු‍",
  "589": "ඩූ",
  "590": "ඩෘ",
  "591": "ඩෙ",
  "592": "ඩෙං",
  "593": "ඩේ",
  "594": "ඩො",
  "595": "ඩෙි",
  "596": "ඩේ",
  "597": "ඩේෙ",
  "598": "ඩේ‍",
  "599": "ඩො",
  "600": "ඩොං",
  "601": "ඩෝ",
  "602": "ඩෝං",
  "603": "ඩෲ",
  "604": "ඩ‍",
  "605": "ඪ",
  "606": "ඪා",
  "607": "ණ",
  "608": "ණං",
  "609": "ණ්",
  "610": "ණ්ෙ",
  "611": "ණ්‍",
  "612": "ණ්‍‍",
  "613": "ණා",
  "614": "ණාං",
  "615": "ණා‍",
  "616": "ණැ",
  "617": "ණෑ",
  "618": "ණි",
  "619": "ණිෙ",
  "620": "ණි‍",
  "621": "ණී",
  "622": "ණීෙ",
  "623": "ණී‍",
  "624": "ණු",
  "625": "ණුං",
  "626": "ණුු",
  "627": "ණුෙ",
  "628": "ණු‍",
  "629": "ණූ",
  "630": "ණෘ",
  "631": "ණෙ",
  "632": "ණේ",
  "633": "ණො",
  "634": "ණෙි",
  "635": "ණෙු",
  "636": "ණෙෙ",
  "637": "ණෙෝ",
  "638": "ණේ",
  "639": "ණො",
  "640": "ණෝ",
  "641": "ණෟ",
  "642": "ණ‍",
  "643": "ඬ",
  "644": "ඬ්",
  "645": "ඬා",
  "646": "ඬැ",
  "647": "ඬි",
  "648": "ඬී",
  "649": "ඬු",
  "650": "ඬූ",
  "651": "ඬෙ",
  "652": "ඬේ",
  "653": "ත",
  "654": "තං",
  "655": "තං‍‍",
  "656": "තඃ",
  "657": "ත්",
  "658": "ත්ං",
  "659": "ත්්",
  "660": "ත්ා",
  "661": "ත්ැ",
  "662": "ත්ෙ",
  "663": "ත්‍",
  "664": "ත්‍ෙ",
  "665": "ත්‍‍",
  "666": "තා",
  "667": "තාං",
  "668": "තා්",
  "669": "තාා",
  "670": "තාෙ",
  "671": "තා‍",
  "672": "තැ",
  "673": "තැෙ",
  "674": "තැ‍",
  "675": "තෑ",
  "676": "ති",
  "677": "තිං",
  "678": "තිං‍",
  "679": "තිං‍‍",
  "680": "ති්",
  "681": "තිා",
  "682": "තිි",
  "683": "තිෙ",
  "684": "ති‍",
  "685": "තී",
  "686": "තීැ",
  "687": "තී‍",
  "688": "තු",
  "689": "තුං",
  "690": "තුෙ",
  "691": "තු‍",
  "692": "තූ",
  "693": "තූ‍",
  "694": "තෘ",
  "695": "තෙ",
  "696": "තේ",
  "697": "තෙු",
  "698": "තෙ‍්",
  "699": "තේ",
  "700": "තේ්",
  "701": "තේ‍",
  "702": "තෛ",
  "703": "තො",
  "704": "තො‍",
  "705": "තෝ",
  "706": "තෝං",
  "707": "තෞ",
  "708": "තෲ",
  "709": "ත‍",
  "710": "ත‍්",
  "711": "ත‍්‍",
  "712": "ත‍ේ",
  "713": "ථ",
  "714": "ථ්",
  "715": "ථ්‍",
  "716": "ථා",
  "717": "ථාං",
  "718": "ථාෙ",
  "719": "ථි",
  "720": "ථී",
  "721": "ථු",
  "722": "ථූ",
  "723": "ථෘ",
  "724": "ථ‍",
  "725": "ද",
  "726": "දං",
  "727": "ද්",
  "728": "ද්්‍",
  "729": "ද්ි",
  "730": "ද්ෙ",
  "731": "ද්‍",
  "732": "ද්‍‍",
  "733": "දා",
  "734": "දාං",
  "735": "දා‍",
  "736": "දැ",
  "737": "දැං",
  "738": "දැෙ",
  "739": "දැ‍",
  "740": "දෑ",
  "741": "දි",
  "742": "දිං",
  "743": "දිං‍",
  "744": "දිං‍‍",
  "745": "දිා",
  "746": "දිී",
  "747": "දිෙ",
  "748": "දි‍",
  "749": "දී",
  "750": "දීං",
  "751": "දී‍",
  "752": "දු",
  "753": "දුං",
  "754": "දුඃ",
  "755": "දුෙ",
  "756": "දු‍",
  "757": "දූ",
  "758": "දූ‍",
  "759": "දෘ",
  "760": "දෙ",
  "761": "දේ",
  "762": "දෙි",
  "763": "දෙී",
  "764": "දෙු",
  "765": "දෙෙ",
  "766": "දෙෙි",
  "767": "දෙෙෙ",
  "768": "දෙේ",
  "769": "දෙො",
  "770": "දෙ‍",
  "771": "දේ",
  "772": "දේං",
  "773": "දේ‍",
  "774": "දෛ",
  "775": "දෛ්",
  "776": "දෛ‍",
  "777": "දො",
  "778": "දොං",
  "779": "දොෙ",
  "780": "දො‍",
  "781": "දෝ",
  "782": "දෝං",
  "783": "දෞ",
  "784": "ද‍",
  "785": "ද‍ෙ",
  "786": "ද‍ේ",
  "787": "ධ",
  "788": "ධ්",
  "789": "ධ්‍",
  "790": "ධා",
  "791": "ධා‍",
  "792": "ධැ",
  "793": "ධි",
  "794": "ධි‍",
  "795": "ධි‍‍",
  "796": "ධී",
  "797": "ධී‍‍",
  "798": "ධු",
  "799": "ධූ",
  "800": "ධෘ",
  "801": "ධෙ",
  "802": "ධේ",
  "803": "ධෛ",
  "804": "ධො",
  "805": "ධෝ",
  "806": "ධ‍",
  "807": "ධ‍්‍",
  "808": "න",
  "809": "නං",
  "810": "නඃ",
  "811": "න්",
  "812": "න්ං",
  "813": "න්ඃ",
  "814": "න්්",
  "815": "න්්‍",
  "816": "න්ා",
  "817": "න්ෙ",
  "818": "න්‍",
  "819": "න්‍ෙ",
  "820": "න්‍‍",
  "821": "න්‍‍‍",
  "822": "න්‍‍‍‍‍",
  "823": "නා",
  "824": "නාං",
  "825": "නාා",
  "826": "නාැ",
  "827": "නාෙ",
  "828": "නා‍",
  "829": "නැ",
  "830": "නැං",
  "831": "නැැ",
  "832": "නැෙ",
  "833": "නැ‍",
  "834": "නැ‍‍",
  "835": "නෑ",
  "836": "නෑෑ",
  "837": "නෑෙ",
  "838": "නෑ‍",
  "839": "නි",
  "840": "නිං",
  "841": "නි්‍",
  "842": "නිා",
  "843": "නිැ",
  "844": "නිි",
  "845": "නිෙ",
  "846": "නි‍",
  "847": "නී",
  "848": "නීි",
  "849": "නී‍",
  "850": "නු",
  "851": "නුං",
  "852": "නුා",
  "853": "නුෙ",
  "854": "නු‍",
  "855": "නූ",
  "856": "නූ‍",
  "857": "නෘ",
  "858": "නෙ",
  "859": "නේ",
  "860": "නො",
  "861": "නෙැ",
  "862": "නෙි",
  "863": "නෙී",
  "864": "නෙු",
  "865": "නෙෙ",
  "866": "නෙෙි",
  "867": "නෙේ",
  "868": "නෞ",
  "869": "නෙ‍",
  "870": "නේ",
  "871": "නේ්",
  "872": "නේෙ",
  "873": "නේ‍",
  "874": "නේ‍්",
  "875": "නෛ",
  "876": "නො",
  "877": "නො‍",
  "878": "නෝ",
  "879": "නෝං",
  "880": "නෝ‍",
  "881": "නෞ",
  "882": "නෟ",
  "883": "න‍",
  "884": "න‍්",
  "885": "න‍්‍",
  "886": "න‍ෙ",
  "887": "න‍ේ",
  "888": "න‍ේ",
  "889": "න‍ො",
  "890": "න‍‍",
  "891": "ඳ",
  "892": "ඳං",
  "893": "ඳ්",
  "894": "ඳ්‍",
  "895": "ඳා",
  "896": "ඳැ",
  "897": "ඳෑ",
  "898": "ඳි",
  "899": "ඳිං",
  "900": "ඳී",
  "901": "ඳු",
  "902": "ඳුං",
  "903": "ඳු‍",
  "904": "ඳූ",
  "905": "ඳෙ",
  "906": "ඳේ",
  "907": "ඳො",
  "908": "ඳෝ",
  "909": "ඳ‍",
  "910": "ප",
  "911": "පං",
  "912": "පං‍",
  "913": "ප්",
  "914": "ප්ෙ",
  "915": "ප්‍",
  "916": "ප්‍‍",
  "917": "පා",
  "918": "පාං",
  "919": "පා‍",
  "920": "පැ",
  "921": "පැං",
  "922": "පැැ",
  "923": "පැු",
  "924": "පැෙ",
  "925": "පැ‍",
  "926": "පෑ",
  "927": "පෑ‍",
  "928": "පි",
  "929": "පිං",
  "930": "පිි",
  "931": "පිෙ",
  "932": "පි‍",
  "933": "පි‍‍",
  "934": "පී",
  "935": "පී‍",
  "936": "පු",
  "937": "පුං",
  "938": "පුං‍",
  "939": "පුං‍‍",
  "940": "පුි",
  "941": "පුු",
  "942": "පුෙ",
  "943": "පු‍",
  "944": "පූ",
  "945": "පූෙ",
  "946": "පූ‍",
  "947": "පෘ",
  "948": "පෙ",
  "949": "පේ",
  "950": "පො",
  "951": "පෙෘ",
  "952": "පෙෙ",
  "953": "පෞ",
  "954": "පෙ‍",
  "955": "පේ",
  "956": "පේ‍",
  "957": "පේ‍්‍",
  "958": "පෛ",
  "959": "පො",
  "960": "පොං",
  "961": "පෝ",
  "962": "පොෙ",
  "963": "පො‍",
  "964": "පෝ",
  "965": "පෝ‍",
  "966": "පෞ",
  "967": "පෟ",
  "968": "පෲ",
  "969": "ප‍",
  "970": "ප‍්‍",
  "971": "ඵ",
  "972": "ඵ්",
  "973": "ඵෑෙ",
  "974": "ඵු",
  "975": "ඵෙ",
  "976": "ඵෝ",
  "977": "ඵ‍",
  "978": "බ",
  "979": "බං",
  "980": "බං‍",
  "981": "බං‍‍",
  "982": "බ්",
  "983": "බ්‍",
  "984": "බ්‍‍",
  "985": "බා",
  "986": "බාං",
  "987": "බාා",
  "988": "බාෙ",
  "989": "බා‍",
  "990": "බැ",
  "991": "බැං",
  "992": "බැ‍",
  "993": "බැ‍‍",
  "994": "බෑ",
  "995": "බෑං",
  "996": "බෑ‍",
  "997": "බි",
  "998": "බිං",
  "999": "බි‍",
  "1000": "බි‍්‍",
  "1001": "බී",
  "1002": "බීෙ",
  "1003": "බී‍",
  "1004": "බු",
  "1005": "බුා",
  "1006": "බුු",
  "1007": "බුෙ",
  "1008": "බු‍",
  "1009": "බූ",
  "1010": "බූ‍",
  "1011": "බෘ",
  "1012": "බෙ",
  "1013": "බෙං",
  "1014": "බේ",
  "1015": "බේ‍",
  "1016": "බො",
  "1017": "බෞ",
  "1018": "බෙ‍",
  "1019": "බේ",
  "1020": "බේං",
  "1021": "බේ‍",
  "1022": "බෛ",
  "1023": "බො",
  "1024": "බොං",
  "1025": "බෝ",
  "1026": "බොෙ",
  "1027": "බො‍",
  "1028": "බෝ",
  "1029": "බෝං",
  "1030": "බෝ‍",
  "1031": "බෞ",
  "1032": "බෲ",
  "1033": "බ‍",
  "1034": "බ‍ා",
  "1035": "බ‍ෲ",
  "1036": "භ",
  "1037": "භං",
  "1038": "භ්",
  "1039": "භ්‍",
  "1040": "භා",
  "1041": "භාං",
  "1042": "භා‍",
  "1043": "භැ",
  "1044": "භි",
  "1045": "භිෙ",
  "1046": "භී",
  "1047": "භු",
  "1048": "භූ",
  "1049": "භූ‍",
  "1050": "භෙ",
  "1051": "භේ",
  "1052": "භෛ",
  "1053": "භො",
  "1054": "භෝ",
  "1055": "භෞ",
  "1056": "භෟ",
  "1057": "භ‍",
  "1058": "ම",
  "1059": "මං",
  "1060": "මං‍",
  "1061": "මං‍‍",
  "1062": "ම්",
  "1063": "ම්ං",
  "1064": "ම්ෙ",
  "1065": "ම්‍",
  "1066": "ම්‍‍",
  "1067": "ම්‍‍‍",
  "1068": "මා",
  "1069": "මාං",
  "1070": "මාං‍‍",
  "1071": "මාෙ",
  "1072": "මා‍",
  "1073": "මැ",
  "1074": "මැං",
  "1075": "මැ්",
  "1076": "මැ‍",
  "1077": "මෑ",
  "1078": "මෑ‍",
  "1079": "මි",
  "1080": "මිං",
  "1081": "මිෙ",
  "1082": "මි‍",
  "1083": "මී",
  "1084": "මීෙ",
  "1085": "මී‍",
  "1086": "මු",
  "1087": "මුං",
  "1088": "මුං‍‍",
  "1089": "මුෙ",
  "1090": "මු‍",
  "1091": "මු‍‍",
  "1092": "මූ",
  "1093": "මූෙ",
  "1094": "මූ‍",
  "1095": "මෘ",
  "1096": "මෙ",
  "1097": "මේ",
  "1098": "මො",
  "1099": "මෙි",
  "1100": "මෙු",
  "1101": "මෙෙ",
  "1102": "මෙෙි",
  "1103": "මෙේ",
  "1104": "මෙෝ",
  "1105": "මෙ‍",
  "1106": "මෙ‍ේ",
  "1107": "මේ",
  "1108": "මේං",
  "1109": "මේී",
  "1110": "මේෙ",
  "1111": "මේේ",
  "1112": "මේ‍",
  "1113": "මො",
  "1114": "මොං",
  "1115": "මොා",
  "1116": "මොෙ",
  "1117": "මො‍",
  "1118": "මෝ",
  "1119": "මෝ‍",
  "1120": "මෞ",
  "1121": "මෟ",
  "1122": "මෳ",
  "1123": "ම‍",
  "1124": "ම‍ෙ",
  "1125": "ම‍‍",
  "1126": "ඹ",
  "1127": "ඹං",
  "1128": "ඹ්",
  "1129": "ඹා",
  "1130": "ඹි",
  "1131": "ඹී",
  "1132": "ඹීී",
  "1133": "ඹු",
  "1134": "ඹු‍‍",
  "1135": "ඹූ",
  "1136": "ඹෙ",
  "1137": "ඹේ",
  "1138": "ඹෞ",
  "1139": "ඹෟ",
  "1140": "ඹ‍",
  "1141": "ය",
  "1142": "යං",
  "1143": "ය්",
  "1144": "ය්‍",
  "1145": "යා",
  "1146": "යාං",
  "1147": "යාඃ",
  "1148": "යාා",
  "1149": "යාාා",
  "1150": "යාි",
  "1151": "යාෙ",
  "1152": "යා‍",
  "1153": "යැ",
  "1154": "යැං",
  "1155": "යැෙ",
  "1156": "යෑ",
  "1157": "යි",
  "1158": "යිං",
  "1159": "යි්‍",
  "1160": "යිි",
  "1161": "යිී",
  "1162": "යිෙ",
  "1163": "යි‍",
  "1164": "යී",
  "1165": "යු",
  "1166": "යුං",
  "1167": "යුෙ",
  "1168": "යු‍",
  "1169": "යූ",
  "1170": "යූං",
  "1171": "යූ‍",
  "1172": "යෙ",
  "1173": "යෙං",
  "1174": "යේ",
  "1175": "යො",
  "1176": "යෙි",
  "1177": "යෙු",
  "1178": "යෙෙි",
  "1179": "යෙෙු",
  "1180": "යෞ",
  "1181": "යෙ‍",
  "1182": "යේ",
  "1183": "යේ‍",
  "1184": "යෛ",
  "1185": "යො",
  "1186": "යොං",
  "1187": "යෝ",
  "1188": "යෝ",
  "1189": "යෝ‍",
  "1190": "යෞ",
  "1191": "ය‍",
  "1192": "ය‍ා",
  "1193": "ය‍ෙ",
  "1194": "ය‍ේ",
  "1195": "ය‍‍",
  "1196": "ය‍‍ෙ",
  "1197": "ය‍‍‍",
  "1198": "ර",
  "1199": "රං",
  "1200": "රං‍",
  "1201": "රං‍‍",
  "1202": "ර්",
  "1203": "ර්ං",
  "1204": "ර්්",
  "1205": "ර්්‍",
  "1206": "ර්ා",
  "1207": "ර්ෙ",
  "1208": "ර්‍",
  "1209": "රා",
  "1210": "රාං",
  "1211": "රාෙ",
  "1212": "රා‍",
  "1213": "රැ",
  "1214": "රැං",
  "1215": "රැු",
  "1216": "රැෙ",
  "1217": "රැ‍",
  "1218": "රැ‍‍",
  "1219": "රෑ",
  "1220": "රෑ‍",
  "1221": "රි",
  "1222": "රිං",
  "1223": "රිං‍‍",
  "1224": "රිි",
  "1225": "රිී",
  "1226": "රිෙ",
  "1227": "රි‍",
  "1228": "රී",
  "1229": "රීී",
  "1230": "රීෙ",
  "1231": "රී‍",
  "1232": "රු",
  "1233": "රුං",
  "1234": "රුං‍‍",
  "1235": "රු්",
  "1236": "රු්‍",
  "1237": "රුා",
  "1238": "රුෙ",
  "1239": "රු‍",
  "1240": "රූ",
  "1241": "රූෙ",
  "1242": "රූ‍",
  "1243": "රෘ",
  "1244": "රෙ",
  "1245": "රෙං",
  "1246": "රේ",
  "1247": "රො",
  "1248": "රො‍",
  "1249": "රෙැ",
  "1250": "රෙි",
  "1251": "රෙී",
  "1252": "රෙු",
  "1253": "රෙෘ",
  "1254": "රෙෙ",
  "1255": "රෙේ",
  "1256": "රෙෙැ",
  "1257": "රෙේ",
  "1258": "රෙො",
  "1259": "රෙෝ",
  "1260": "රෙ‍",
  "1261": "රේ",
  "1262": "රේ්",
  "1263": "රේා",
  "1264": "රේෙ",
  "1265": "රේ‍",
  "1266": "රෛ",
  "1267": "රෛ්",
  "1268": "රො",
  "1269": "රෝ",
  "1270": "රොෙ",
  "1271": "රෝ",
  "1272": "රෝං",
  "1273": "රෝෙ",
  "1274": "රෝ‍",
  "1275": "රෞ",
  "1276": "රෟ",
  "1277": "ර‍",
  "1278": "ර‍්‍",
  "1279": "ර‍ෙ",
  "1280": "ල",
  "1281": "ලං",
  "1282": "ලං‍",
  "1283": "ල්",
  "1284": "ල්ෙ",
  "1285": "ල්‍",
  "1286": "ල්‍‍",
  "1287": "ලා",
  "1288": "ලාං",
  "1289": "ලා්",
  "1290": "ලාා",
  "1291": "ලාෙ",
  "1292": "ලා‍",
  "1293": "ලැ",
  "1294": "ලැෙ",
  "1295": "ලැ‍",
  "1296": "ලෑ",
  "1297": "ලෑ‍",
  "1298": "ලෑ‍‍",
  "1299": "ලි",
  "1300": "ලිං",
  "1301": "ලි්",
  "1302": "ලිෙ",
  "1303": "ලි‍",
  "1304": "ලී",
  "1305": "ලීා",
  "1306": "ලී‍",
  "1307": "ලු",
  "1308": "ලුෙ",
  "1309": "ලු‍",
  "1310": "ලූ",
  "1311": "ලූෙ",
  "1312": "ලූ‍",
  "1313": "ලෙ",
  "1314": "ලේ",
  "1315": "ලො",
  "1316": "ලෝ",
  "1317": "ලෙි",
  "1318": "ලෙී",
  "1319": "ලෙු",
  "1320": "ලෙූ",
  "1321": "ලෙෙ",
  "1322": "ලෙේ",
  "1323": "ලෙේ",
  "1324": "ලෙො",
  "1325": "ලෙෝ",
  "1326": "ලෞ",
  "1327": "ලෙ‍",
  "1328": "ලේ",
  "1329": "ලේා",
  "1330": "ලේ‍",
  "1331": "ලෛ",
  "1332": "ලො",
  "1333": "ලොං",
  "1334": "ලො‍",
  "1335": "ලො‍්",
  "1336": "ලෝ",
  "1337": "ලෝං",
  "1338": "ලෝෙ",
  "1339": "ලෝ‍",
  "1340": "ලෞ",
  "1341": "ල‍",
  "1342": "ල‍ා",
  "1343": "ල‍ෝ",
  "1344": "ල‍‍",
  "1345": "ව",
  "1346": "වං",
  "1347": "වං‍‍",
  "1348": "ව්",
  "1349": "ව්්",
  "1350": "ව්ා",
  "1351": "ව්ෙ",
  "1352": "ව්‍",
  "1353": "ව්‍‍",
  "1354": "වා",
  "1355": "වාං",
  "1356": "වාෙ",
  "1357": "වා‍",
  "1358": "වා‍්",
  "1359": "වැ",
  "1360": "වැං",
  "1361": "වැැ",
  "1362": "වැෙ",
  "1363": "වැ‍",
  "1364": "වෑ",
  "1365": "වෑං",
  "1366": "වි",
  "1367": "විං",
  "1368": "වි්‍",
  "1369": "විෙ",
  "1370": "වි‍",
  "1371": "වි‍‍",
  "1372": "වී",
  "1373": "වී‍",
  "1374": "වු",
  "1375": "වුං",
  "1376": "වුා",
  "1377": "වුු",
  "1378": "වුෙ",
  "1379": "වු‍",
  "1380": "වූ",
  "1381": "වූ‍",
  "1382": "වෘ",
  "1383": "වෘ‍",
  "1384": "වෙ",
  "1385": "වෙං",
  "1386": "වේ",
  "1387": "වො",
  "1388": "වෙැ",
  "1389": "වෙි",
  "1390": "වෙී",
  "1391": "වෙු",
  "1392": "වෙෙ",
  "1393": "වෙේ",
  "1394": "වෙ‍",
  "1395": "වෙ‍‍",
  "1396": "වේ",
  "1397": "වේ‍",
  "1398": "වෛ",
  "1399": "වෛ‍",
  "1400": "වො",
  "1401": "වෝ",
  "1402": "වෟ",
  "1403": "ව‌",
  "1404": "ව‍",
  "1405": "ව‍ා",
  "1406": "ව‍ෙ",
  "1407": "ව‍‍",
  "1408": "ශ",
  "1409": "ශං",
  "1410": "ශ්",
  "1411": "ශ්ං",
  "1412": "ශ්්",
  "1413": "ශ්ා",
  "1414": "ශ්‍",
  "1415": "ශ්‍‍",
  "1416": "ශා",
  "1417": "ශාං",
  "1418": "ශාෙ",
  "1419": "ශා‍",
  "1420": "ශැ",
  "1421": "ශැං",
  "1422": "ශැා",
  "1423": "ශෑ",
  "1424": "ශි",
  "1425": "ශිං",
  "1426": "ශී",
  "1427": "ශීං",
  "1428": "ශී‍්‍",
  "1429": "ශු",
  "1430": "ශු‍",
  "1431": "ශූ",
  "1432": "ශෘ",
  "1433": "ශෘං",
  "1434": "ශෙ",
  "1435": "ශේ",
  "1436": "ශෙි",
  "1437": "ශේ",
  "1438": "ශෛ",
  "1439": "ශො",
  "1440": "ශොං",
  "1441": "ශෝ",
  "1442": "ශෝ",
  "1443": "ශෟ",
  "1444": "ශ‍",
  "1445": "ශ‍්",
  "1446": "ශ‍්‍",
  "1447": "ෂ",
  "1448": "ෂ්",
  "1449": "ෂ්්‍",
  "1450": "ෂ්‍",
  "1451": "ෂා",
  "1452": "ෂාං",
  "1453": "ෂා‍",
  "1454": "ෂැ",
  "1455": "ෂැං",
  "1456": "ෂෑ",
  "1457": "ෂි",
  "1458": "ෂිං",
  "1459": "ෂි‍",
  "1460": "ෂි‍‍",
  "1461": "ෂී",
  "1462": "ෂු",
  "1463": "ෂූ",
  "1464": "ෂෙ",
  "1465": "ෂේ",
  "1466": "ෂො",
  "1467": "ෂේ",
  "1468": "ෂො",
  "1469": "ෂෝ",
  "1470": "ෂ‍",
  "1471": "ස",
  "1472": "සං",
  "1473": "සං‍",
  "1474": "සං‍‍",
  "1475": "ස්",
  "1476": "ස්ං",
  "1477": "ස්්",
  "1478": "ස්ෙ",
  "1479": "ස්‌",
  "1480": "ස්‍",
  "1481": "ස්‍‍",
  "1482": "ස්‍‍‍",
  "1483": "සා",
  "1484": "සාං",
  "1485": "සාා",
  "1486": "සාෙ",
  "1487": "සා‍",
  "1488": "සැ",
  "1489": "සැං",
  "1490": "සැ‍",
  "1491": "සෑ",
  "1492": "සෑ‍",
  "1493": "සි",
  "1494": "සිං",
  "1495": "සිං‍‍",
  "1496": "සිෙ",
  "1497": "සි‍",
  "1498": "සි‍‍",
  "1499": "සී",
  "1500": "සීෙ",
  "1501": "සී‍",
  "1502": "සු",
  "1503": "සුං",
  "1504": "සුු",
  "1505": "සුෙ",
  "1506": "සු‍",
  "1507": "සූ",
  "1508": "සූා",
  "1509": "සූ‍",
  "1510": "සෘ",
  "1511": "සෙ",
  "1512": "සෙං",
  "1513": "සෙං‍‍",
  "1514": "සේ",
  "1515": "සො",
  "1516": "සෙි",
  "1517": "සෙු",
  "1518": "සෙේ",
  "1519": "සෞ",
  "1520": "සෙ‍",
  "1521": "සේ",
  "1522": "සේ‍",
  "1523": "සෛ",
  "1524": "සො",
  "1525": "සොං",
  "1526": "සොෙ",
  "1527": "සො‍",
  "1528": "සෝ",
  "1529": "සෝ‍",
  "1530": "සෞ",
  "1531": "සෟ",
  "1532": "ස‍",
  "1533": "ස‍්",
  "1534": "ස‍්‍",
  "1535": "ස‍ො",
  "1536": "ස‍‍",
  "1537": "හ",
  "1538": "හං",
  "1539": "හං‍‍",
  "1540": "හඃ",
  "1541": "හ්",
  "1542": "හ්ං",
  "1543": "හ්‍",
  "1544": "හා",
  "1545": "හාං",
  "1546": "හාඃ",
  "1547": "හා‍",
  "1548": "හැ",
  "1549": "හැං",
  "1550": "හැංෙ",
  "1551": "හැෙ",
  "1552": "හැ‍",
  "1553": "හැ‍්",
  "1554": "හැ‍ෙ",
  "1555": "හෑ",
  "1556": "හි",
  "1557": "හිං",
  "1558": "හිං‍‍",
  "1559": "හිි",
  "1560": "හිෙ",
  "1561": "හි‍",
  "1562": "හී",
  "1563": "හීං",
  "1564": "හීෙ",
  "1565": "හී‍",
  "1566": "හු",
  "1567": "හුඃ",
  "1568": "හුෙ",
  "1569": "හු‍",
  "1570": "හූ",
  "1571": "හූ‍",
  "1572": "හෘ",
  "1573": "හෙ",
  "1574": "හෙං",
  "1575": "හො",
  "1576": "හෙි",
  "1577": "හෙෘ",
  "1578": "හෙෙ",
  "1579": "හෙෙි",
  "1580": "හෙෙෝ",
  "1581": "හෙේ",
  "1582": "හෙෝ",
  "1583": "හෙ‍",
  "1584": "හෙ‍්",
  "1585": "හේ",
  "1586": "හේ‍",
  "1587": "හෛ",
  "1588": "හෛා",
  "1589": "හො",
  "1590": "හොං",
  "1591": "හොෙ",
  "1592": "හො‍",
  "1593": "හෝ",
  "1594": "හෝ‍",
  "1595": "හෞ",
  "1596": "හෟ",
  "1597": "හ‍",
  "1598": "හ‍‍",
  "1599": "ළ",
  "1600": "ළං",
  "1601": "ළ්",
  "1602": "ළ්‍",
  "1603": "ළා",
  "1604": "ළා‍",
  "1605": "ළැ",
  "1606": "ළෑ",
  "1607": "ළි",
  "1608": "ළිං",
  "1609": "ළිෙ",
  "1610": "ළි‍",
  "1611": "ළී",
  "1612": "ළු",
  "1613": "ළුි",
  "1614": "ළුෙ",
  "1615": "ළු‍",
  "1616": "ළූ",
  "1617": "ළෘ",
  "1618": "ළෙ",
  "1619": "ළො",
  "1620": "ළෙි",
  "1621": "ළෙෙ",
  "1622": "ළෙේ",
  "1623": "ළේ",
  "1624": "ළො",
  "1625": "ළොං",
  "1626": "ළො‍",
  "1627": "ළෝ",
  "1628": "ළ‍",
  "1629": "ළ‍‍",
  "1630": "ෆ",
  "1631": "ෆ්",
  "1632": "ෆ්ි",
  "1633": "ෆ්‍",
  "1634": "ෆ්‍‍",
  "1635": "ෆා",
  "1636": "ෆා‍",
  "1637": "ෆැ",
  "1638": "ෆෑ",
  "1639": "ෆෑං",
  "1640": "ෆි",
  "1641": "ෆිං",
  "1642": "ෆි‍",
  "1643": "ෆී",
  "1644": "ෆු",
  "1645": "ෆූ",
  "1646": "ෆෘ",
  "1647": "ෆෙ",
  "1648": "ෆො",
  "1649": "ෆේ",
  "1650": "ෆේ‍",
  "1651": "ෆො",
  "1652": "ෆෝ",
  "1653": "ෆෞ",
  "1654": "ෆ‍්‍",
  "1655": "ෆ‍ෙ",
  "1656": "ා",
  "1657": "ැ",
  "1658": "ු",
  "1659": "ෙ",
  "1660": "෴",
  "1661": "๑",
  "1662": "​",
  "1663": "‍",
  "1664": "‍‍",
  "1665": "‍‍‍",
  "1666": "–",
  "1667": "—",
  "1668": "‘",
  "1669": "’",
  "1670": "“",
  "1671": "”",
  "1672": "•",
  "1673": "…",
  "1674": "‭",
  "1675": "⁻",
  "1676": "€",
  "1677": "™",
  "1678": "→",
  "1679": "∙",
  "1680": "∞",
  "1681": "≡",
  "1682": "⋆",
  "1683": "⌨",
  "1684": "⏩",
  "1685": "▁",
  "1686": "▁҉",
  "1687": "▁ං",
  "1688": "▁ංී",
  "1689": "▁්",
  "1690": "▁්‍",
  "1691": "▁ා",
  "1692": "▁ැ",
  "1693": "▁ැා",
  "1694": "▁ෑ",
  "1695": "▁ි",
  "1696": "▁ී",
  "1697": "▁ු",
  "1698": "▁ෙ",
  "1699": "▁ො",
  "1700": "▁ේ",
  "1701": "▁ෛ",
  "1702": "▁ො",
  "1703": "▁‌",
  "1704": "▁‍",
  "1705": "▁‍්",
  "1706": "▁‍ෙ",
  "1707": "▁‍‍",
  "1708": "▁‍‍‍",
  "1709": "■",
  "1710": "▬",
  "1711": "►",
  "1712": "◄",
  "1713": "●",
  "1714": "◢",
  "1715": "◣",
  "1716": "★",
  "1717": "☭",
  "1718": "☯",
  "1719": "☺",
  "1720": "☻",
  "1721": "♞",
  "1722": "♠",
  "1723": "♣",
  "1724": "♥",
  "1725": "♦",
  "1726": "♩",
  "1727": "♪",
  "1728": "♫",
  "1729": "♬",
  "1730": "✎",
  "1731": "❃",
  "1732": "❄",
  "1733": "❖",
  "1734": "？",
  "1735": "�",
  "1736": "න්න",
  "1737": "▁ඔ",
  "1738": "▁ම",
  "1739": "▁එ",
  "1740": "▁අ",
  "1741": "▁ක",
  "1742": "▁ඔයා",
  "1743": "..",
  "1744": "▁ඒ",
  "1745": "▁කි",
  "1746": "▁කර",
  "1747": "▁මම",
  "1748": "▁-",
  "1749": "▁වෙ",
  "1750": "▁ඉ",
  "1751": "▁කිය",
  "1752": "▁ඇ",
  "1753": "▁ව",
  "1754": "නවා",
  "1755": "▁ස",
  "1756": "න්නේ",
  "1757": "▁මේ",
  "1758": "▁හ",
  "1759": "▁මට",
  "1760": "▁වි",
  "1761": "...",
  "1762": "▁උ",
  "1763": "▁ති",
  "1764": "▁එයා",
  "1765": "▁නැ",
  "1766": "▁ඒක",
  "1767": "▁ප",
  "1768": "▁මො",
  "1769": "▁අපි",
  "1770": "▁ය",
  "1771": "යක්",
  "1772": "▁ත",
  "1773": "▁එක",
  "1774": "▁ද",
  "1775": "▁දෙ",
  "1776": "▁නෑ",
  "1777": "▁බ",
  "1778": "▁ආ",
  "1779": "▁ග",
  "1780": "▁ඕ",
  "1781": "▁හි",
  "1782": "▁හො",
  "1783": "▁කරන්න",
  "1784": "▁දැ",
  "1785": "නව",
  "1786": "න්නෙ",
  "1787": "▁කො",
  "1788": "▁මෙ",
  "1789": "▁ඔයාට",
  "1790": "▁හරි",
  "1791": "▁කියලා",
  "1792": "▁නි",
  "1793": "▁න",
  "1794": "▁පු",
  "1795": "▁වැ",
  "1796": "යට",
  "1797": "▁හැ",
  "1798": "ත්ත",
  "1799": "▁මොක",
  "1800": "▁ගැ",
  "1801": "▁තියෙ",
  "1802": "ගන්න",
  "1803": "වන්",
  "1804": "▁මගේ",
  "1805": "▁ඉන්න",
  "1806": "▁මා",
  "1807": "වත්",
  "1808": "▁කා",
  "1809": "මයි",
  "1810": "▁මි",
  "1811": "▁පි",
  "1812": "▁ගැන",
  "1813": "▁කෙ",
  "1814": "▁යන්න",
  "1815": "▁වගේ",
  "1816": "ක්ක",
  "1817": "▁මේක",
  "1818": "▁නැහැ",
  "1819": "▁බල",
  "1820": "▁දැන්",
  "1821": "වක්",
  "1822": "▁ප්‍",
  "1823": "ගෙන",
  "1824": "▁?",
  "1825": "▁පැ",
  "1826": "▁ඔහු",
  "1827": "ල්ල",
  "1828": "▁මං",
  "1829": "▁එහෙ",
  "1830": "▁සි",
  "1831": "▁වෙන්න",
  "1832": "▁වෙලා",
  "1833": "▁ගි",
  "1834": "▁හිත",
  "1835": "තර",
  "1836": "නම්",
  "1837": "ටම",
  "1838": "▁.",
  "1839": "▁ගන්න",
  "1840": "ලට",
  "1841": "නවද",
  "1842": "▁ප්‍ර",
  "1843": "▁කැ",
  "1844": "▁දන්න",
  "1845": "▁වු",
  "1846": "▁ඔබ",
  "1847": "කර",
  "1848": "▁අපිට",
  "1849": "▁එක්ක",
  "1850": "▁පො",
  "1851": "▁දේ",
  "1852": "▁ස්",
  "1853": "▁දු",
  "1854": "▁පා",
  "1855": "හොම",
  "1856": "මක්",
  "1857": "▁හොඳ",
  "1858": "▁ල",
  "1859": "▁බැ",
  "1860": "▁මිනි",
  "1861": "▁නෙ",
  "1862": "▁මු",
  "1863": "තන",
  "1864": "▁එපා",
  "1865": "ලින්",
  "1866": "▁ඕන",
  "1867": "▁ඔයාගේ",
  "1868": "▁ගො",
  "1869": "කට",
  "1870": "ද්ද",
  "1871": "▁අර",
  "1872": "▁එන්න",
  "1873": "▁ඒත්",
  "1874": "ඩක්",
  "1875": "▁කතා",
  "1876": "▁තා",
  "1877": "▁ර",
  "1878": "▁පුළු",
  "1879": "▁කියන්න",
  "1880": "▁තමයි",
  "1881": "▁වෙන",
  "1882": "▁මැ",
  "1883": "නය",
  "1884": "▁දෙයක්",
  "1885": "▁නම්",
  "1886": "▁දෙන්න",
  "1887": "▁කියල",
  "1888": "▁...",
  "1889": "▁තිය",
  "1890": "දර",
  "1891": "▁කිව්",
  "1892": "▁දි",
  "1893": "▁කවු",
  "1894": "▁පුළුවන්",
  "1895": "වට",
  "1896": "▁හැම",
  "1897": "▁මොකක්",
  "1898": "▁\"",
  "1899": "▁,",
  "1900": "▁ඔව්",
  "1901": "යෙන්",
  "1902": "▁ගෙ",
  "1903": "▁අව",
  "1904": "▁කොහොම",
  "1905": "▁මොකද",
  "1906": "▁ඕනේ",
  "1907": "▁දා",
  "1908": "ස්ස",
  "1909": "රක්",
  "1910": "වන්න",
  "1911": "▁බලන්න",
  "1912": "▁මාව",
  "1913": "▁එහෙම",
  "1914": "ත්තා",
  "1915": "▁තියෙනවා",
  "1916": "▁ඇයි",
  "1917": "▁ඇත්ත",
  "1918": "▁ඇති",
  "1919": "නෙක්",
  "1920": "යන්",
  "1921": "මට",
  "1922": "▁පෙ",
  "1923": "▁කරනවා",
  "1924": "යෙක්",
  "1925": "▁ඇය",
  "1926": "▁එකක්",
  "1927": "▁නො",
  "1928": "▁කොහොමද",
  "1929": "▁වෙනවා",
  "1930": "වුන්",
  "1931": "▁විදි",
  "1932": "▁සු",
  "1933": "▁මෙහෙ",
  "1934": "▁හොද",
  "1935": "▁සැ",
  "1936": "▁හිටි",
  "1937": "▁නැති",
  "1938": "∙∙",
  "1939": "▁ඔයාගෙ",
  "1940": "▁ටි",
  "1941": "▁!",
  "1942": "▁බෑ",
  "1943": "▁වැඩ",
  "1944": "වෙන්න",
  "1945": "වාස",
  "1946": "▁අහ",
  "1947": "▁කරන්නේ",
  "1948": "▁අපේ",
  "1949": "▁ඔයාව",
  "1950": "▁යා",
  "1951": "ච්ච",
  "1952": "ස්සු",
  "1953": "තින්",
  "1954": "▁විතර",
  "1955": "▁පුලු",
  "1956": "▁දැන",
  "1957": "▁නේ",
  "1958": "▁ටික",
  "1959": "▁උඹ",
  "1960": "▁එයාට",
  "1961": "▁ඔවුන්",
  "1962": "වද",
  "1963": "▁දන්නවා",
  "1964": "▁සහ",
  "1965": "▁ලැ",
  "1966": "මන්",
  "1967": "වර",
  "1968": "වෙන්",
  "1969": "▁තේ",
  "1970": "▁තු",
  "1971": "▁මොකක්ද",
  "1972": "▁කැම",
  "1973": "▁පුලුවන්",
  "1974": "▁කෙනෙක්",
  "1975": "▁සම",
  "1976": "▁තව",
  "1977": "▁ඔය",
  "1978": "▁තැ",
  "1979": "▁අද",
  "1980": "▁මෙතන",
  "1981": "තියි",
  "1982": "▁බො",
  "1983": "▁සා",
  "1984": "ම්බ",
  "1985": "in",
  "1986": "▁හද",
  "1987": "▁සමා",
  "1988": "▁පස්",
  "1989": "▁බි",
  "1990": "වල්",
  "1991": "▁ඉන්නේ",
  "1992": "ණය",
  "1993": "▁1",
  "1994": "▁විශ්",
  "1995": "▁ගොඩක්",
  "1996": "ත්තේ",
  "1997": "▁උද",
  "1998": "▁අයි",
  "1999": "▁හොයා",
  "2000": "▁හා",
  "2001": "▁ජී",
  "2002": "▁ඊ",
  "2003": "▁අවු",
  "2004": "වෙයි",
  "2005": "▁හොඳයි",
  "2006": "▁කිසි",
  "2007": "▁වා",
  "2008": "▁වේ",
  "2009": "න්ද",
  "2010": "කාර",
  "2011": "▁සර්",
  "2012": "▁නිසා",
  "2013": "▁හෙ",
  "2014": "▁කියන්නේ",
  "2015": "හර",
  "2016": "▁නව",
  "2017": "▁බලා",
  "2018": "▁ඉතින්",
  "2019": "▁ඇතු",
  "2020": "▁වල",
  "2021": "▁මහ",
  "2022": "ටන්",
  "2023": "▁විශ්වාස",
  "2024": "තක",
  "2025": "▁කු",
  "2026": "▁ලො",
  "2027": "▁මර",
  "2028": "▁තියෙන්නේ",
  "2029": "▁කරලා",
  "2030": "▁අම්",
  "2031": "ච්චර",
  "2032": "කොට",
  "2033": "▁..",
  "2034": "▁නිය",
  "2035": "▁හේ",
  "2036": "▁කොහෙ",
  "2037": "▁කවුද",
  "2038": "▁ඉන්නවා",
  "2039": "රක",
  "2040": "▁නේද",
  "2041": "▁යනවා",
  "2042": "▁කලින්",
  "2043": "▁ඕනෙ",
  "2044": "කින්",
  "2045": "හරි",
  "2046": "▁කරන",
  "2047": "▁මොනවද",
  "2048": "▁මගෙ",
  "2049": "කෙන්",
  "2050": "▁C",
  "2051": "මත්",
  "2052": "▁එයාව",
  "2053": "▁තැන",
  "2054": "▁තර",
  "2055": "▁ඇත්තටම",
  "2056": "▁උදව්",
  "2057": "▁ජ",
  "2058": "▁ආප",
  "2059": "▁නෙවෙයි",
  "2060": "▁මිනිස්සු",
  "2061": "▁වලට",
  "2062": "▁දව",
  "2063": "තුව",
  "2064": "▁එයාල",
  "2065": "න්ට",
  "2066": "▁ගිහි",
  "2067": "නයක්",
  "2068": "▁ප්‍රශ්",
  "2069": "▁හිතන්නේ",
  "2070": "▁ක්‍",
  "2071": "▁ගා",
  "2072": "an",
  "2073": "▁අනි",
  "2074": "er",
  "2075": "▁යන්නේ",
  "2076": "▁වෙනු",
  "2077": "▁කලා",
  "2078": "▁කව",
  "2079": "▁වෙන්නේ",
  "2080": "ක්ෂ",
  "2081": "▁ඉක්",
  "2082": "ටර්",
  "2083": "▁එකට",
  "2084": "▁තිබු",
  "2085": "▁කෝ",
  "2086": "▁කවුරු",
  "2087": "ල්ලි",
  "2088": "▁කියන",
  "2089": "▁ළ",
  "2090": "▁ඇවි",
  "2091": "▁වගේම",
  "2092": "it",
  "2093": "▁අය",
  "2094": "▁වුනා",
  "2095": "තුරු",
  "2096": "on",
  "2097": "▁විතරයි",
  "2098": "▁ආරක්",
  "2099": "රය",
  "2100": "▁වැඩි",
  "2101": "▁ඒකට",
  "2102": "▁මොන",
  "2103": "▁වඩා",
  "2104": "▁ආපහු",
  "2105": "▁ගෙදර",
  "2106": "▁දේවල්",
  "2107": "▁පේ",
  "2108": "▁(",
  "2109": "▁සං",
  "2110": "▁ක්",
  "2111": "ත්ව",
  "2112": "රුණා",
  "2113": "තිය",
  "2114": "▁හරියට",
  "2115": "▁රා",
  "2116": "ත්තෙ",
  "2117": "▁ටිකක්",
  "2118": "▁යු",
  "2119": "ල්ලා",
  "2120": "▁අල්ල",
  "2121": "ත්තු",
  "2122": "▁ලි",
  "2123": "▁කවදා",
  "2124": "▁වෙනුවෙන්",
  "2125": "ලක්",
  "2126": "කුත්",
  "2127": "නින්",
  "2128": "▁එහෙනම්",
  "2129": "▁හිතු",
  "2130": "▁විදිහ",
  "2131": "▁ගිහින්",
  "2132": "▁ලෝ",
  "2133": "▁හු",
  "2134": "▁කැමති",
  "2135": "න්නා",
  "2136": "සක්",
  "2137": "▁ඉවර",
  "2138": "විත",
  "2139": "▁සෙ",
  "2140": "me",
  "2141": "▁බා",
  "2142": "▁සමාවෙන්න",
  "2143": "▁තියෙන",
  "2144": "▁සමහර",
  "2145": "ද්ධ",
  "2146": "කම්",
  "2147": "▁කරන්නෙ",
  "2148": "රියා",
  "2149": "▁t",
  "2150": "▁තමු",
  "2151": "ගෙන්",
  "2152": "▁එයාගේ",
  "2153": "▁එයාලා",
  "2154": "▁කිව්වා",
  "2155": "00",
  "2156": "▁ඔබට",
  "2157": "▁දන්නේ",
  "2158": "▁කෑ",
  "2159": "▁පහ",
  "2160": "▁ගියා",
  "2161": "▁ඒවා",
  "2162": "▁සතු",
  "2163": "▁කිසිම",
  "2164": "▁අප",
  "2165": "▁ඔක්",
  "2166": "▁2",
  "2167": "ලය",
  "2168": "▁නැද්ද",
  "2169": "සන්",
  "2170": "▁පරි",
  "2171": "▁බැරි",
  "2172": "▁වෙයි",
  "2173": "▁සේ",
  "2174": "මුත්",
  "2175": "වෙලා",
  "2176": "▁ලොකු",
  "2177": "▁එකේ",
  "2178": "මින්",
  "2179": "▁අත",
  "2180": "▁හමු",
  "2181": "මන",
  "2182": "▁බැහැ",
  "2183": "▁කාර්",
  "2184": "▁හැමෝ",
  "2185": "▁ඕනා",
  "2186": "▁එත",
  "2187": "▁මොනා",
  "2188": "▁අහන්න",
  "2189": "▁කියන්නෙ",
  "2190": "▁තමා",
  "2191": "ත්ම",
  "2192": "▁කවදාවත්",
  "2193": "▁වී",
  "2194": "▁නා",
  "2195": "▁කරා",
  "2196": "▁උප",
  "2197": "රුදු",
  "2198": "කන්",
  "2199": "▁දෙක",
  "2200": "▁කොහෙද",
  "2201": "▁එනවා",
  "2202": "▁බේ",
  "2203": "වත",
  "2204": "▁විනා",
  "2205": "▁රැ",
  "2206": "▁තාත්තා",
  "2207": "වම",
  "2208": "යයි",
  "2209": "▁උන්",
  "2210": "▁ඔයාල",
  "2211": "රම",
  "2212": "▁හොදයි",
  "2213": "▁උනා",
  "2214": "▁ගහ",
  "2215": "යක",
  "2216": "▁නැත්",
  "2217": "▁පොඩි",
  "2218": "▁එලි",
  "2219": "▁දෙවි",
  "2220": "▁තේරු",
  "2221": "∙∙∙",
  "2222": "▁නමුත්",
  "2223": "▁පස්සේ",
  "2224": "▁in",
  "2225": "▁නම",
  "2226": "▁මෙයා",
  "2227": "or",
  "2228": "▁තිබ්",
  "2229": "▁යමු",
  "2230": "▁ගේ",
  "2231": "හස්",
  "2232": "▁ඔහ්",
  "2233": "රිය",
  "2234": "▁එතකොට",
  "2235": "▁වෙනස්",
  "2236": "▁ඔක්කො",
  "2237": "▁ඉන්නෙ",
  "2238": "▁හේයි",
  "2239": "▁බෙ",
  "2240": "නිය",
  "2241": "▁එය",
  "2242": "▁කිරී",
  "2243": "නක්",
  "2244": "රදි",
  "2245": "▁අන්",
  "2246": "තුර",
  "2247": "▁සම්",
  "2248": "▁කරුණා",
  "2249": "▁මතක",
  "2250": "▁දාන්න",
  "2251": "▁මොකද්ද",
  "2252": "කය",
  "2253": "▁ඌ",
  "2254": "ත්‍ර",
  "2255": "▁පස්සෙ",
  "2256": "▁ඔයාලා",
  "2257": "ar",
  "2258": "at",
  "2259": "▁දන්නවද",
  "2260": "▁සී",
  "2261": "▁අත්",
  "2262": "මම",
  "2263": "▁ගු",
  "2264": "▁උත්",
  "2265": "▁හිටියේ",
  "2266": "▁කලේ",
  "2267": "ගත්තා",
  "2268": "▁ඔක්කොම",
  "2269": "යින්",
  "2270": "වල",
  "2271": "▁කළා",
  "2272": "▁කරගන්න",
  "2273": "▁සල්ලි",
  "2274": "▁තියෙන්නෙ",
  "2275": "▁තියනවා",
  "2276": "▁කරුණාකර",
  "2277": "▁ඉද",
  "2278": "▁හිතන්නෙ",
  "2279": "මෙයි",
  "2280": "▁හෝ",
  "2281": "▁කෙනා",
  "2282": "▁කල",
  "2283": "▁දන්නව",
  "2284": "▁යන",
  "2285": "▁නැත්නම්",
  "2286": "▁පිට",
  "2287": "▁කී",
  "2288": "▁විදිහට",
  "2289": "▁ආවේ",
  "2290": "පන්",
  "2291": "▁කිව්වේ",
  "2292": "▁නෙමෙයි",
  "2293": "▁රෑ",
  "2294": "▁අවුරුදු",
  "2295": ".\"",
  "2296": "▁අනේ",
  "2297": "▁වුනේ",
  "2298": "▁මොනවා",
  "2299": "ට්ටු",
  "2300": "▁දො",
  "2301": "න්ධ",
  "2302": "▁දැක්",
  "2303": "යනේ",
  "2304": "▁වලින්",
  "2305": "▁සම්බ",
  "2306": "▁පටන්",
  "2307": "රණ",
  "2308": "▁මෝ",
  "2309": "ටද",
  "2310": "ඔයා",
  "2311": "▁එක්",
  "2312": "▁තියා",
  "2313": "▁වෙලාව",
  "2314": "▁සිය",
  "2315": "▁ගත්තා",
  "2316": "▁ලේ",
  "2317": "▁කට",
  "2318": "▁ඒව",
  "2319": "▁ඉඳ",
  "2320": "▁හොය",
  "2321": "▁ඔහේ",
  "2322": "න්ව",
  "2323": "ච්චි",
  "2324": "▁s",
  "2325": "▁හොයාගන්න",
  "2326": "▁බය",
  "2327": "▁නියමයි",
  "2328": "තාව",
  "2329": "▁'",
  "2330": "▁වැඩක්",
  "2331": "▁අම",
  "2332": "▁උබ",
  "2333": "▁කරපු",
  "2334": "▁ආද",
  "2335": "▁දිහා",
  "2336": "▁වෙන්නෙ",
  "2337": "▁ඔබේ",
  "2338": "රෙන්",
  "2339": "▁එකම",
  "2340": "ල්ලෙ",
  "2341": "▁විදියට",
  "2342": "▁ශ",
  "2343": "න්දු",
  "2344": "විට",
  "2345": "▁බෝ",
  "2346": "නත්",
  "2347": "ර්ණ",
  "2348": "▁ඇහු",
  "2349": "▁එතන",
  "2350": "▁එලියට",
  "2351": "▁ජි",
  "2352": "කරන්න",
  "2353": "▁ලෙ",
  "2354": "ගත",
  "2355": "▁ඊට",
  "2356": "▁ඔහුට",
  "2357": "▁අවශ්‍",
  "2358": "▁දන්නෙ",
  "2359": "ගය",
  "2360": "▁පොඩ්",
  "2361": "▁වහ",
  "2362": "▁භා",
  "2363": "▁ස්තු",
  "2364": "▁හොඳි",
  "2365": "වයි",
  "2366": "▁රෝ",
  "2367": "▁ලැබු",
  "2368": "▁තො",
  "2369": "▁♪",
  "2370": "▁ඇවිත්",
  "2371": "▁ස්තූ",
  "2372": "▁අපිව",
  "2373": "▁k",
  "2374": "කල්",
  "2375": "▁ඕනි",
  "2376": "▁ට",
  "2377": "▁මූ",
  "2378": "▁හැමෝම",
  "2379": "▁ඩො",
  "2380": "▁දැනගන්න",
  "2381": "ස්ථා",
  "2382": "▁නවත්ත",
  "2383": "▁යාළු",
  "2384": "▁අඩු",
  "2385": "ගත්",
  "2386": "▁කොට",
  "2387": "ity",
  "2388": "▁හරිද",
  "2389": "ටිය",
  "2390": "▁මැරු",
  "2391": "▁යන්නෙ",
  "2392": "▁වෙඩි",
  "2393": "▁බොරු",
  "2394": "▁මැරෙ",
  "2395": "▁M",
  "2396": "▁නැවත",
  "2397": "▁ජීවිත",
  "2398": "රයක්",
  "2399": "he",
  "2400": "▁අං",
  "2401": "▁වැරදි",
  "2402": "▁සම්බන්ධ",
  "2403": "▁අනු",
  "2404": "න්ම",
  "2405": "▁දී",
  "2406": "ou",
  "2407": "▁අන",
  "2408": "▁ආදර",
  "2409": "▁පරී",
  "2410": "▁අරගෙන",
  "2411": "▁එයාගෙ",
  "2412": "▁සො",
  "2413": "▁නැතුව",
  "2414": "▁City",
  "2415": "▁ජේ",
  "2416": "▁අරන්",
  "2417": "ස්සන",
  "2418": "▁අම්මා",
  "2419": "▁පිළි",
  "2420": "▁හොදි",
  "2421": "▁බව",
  "2422": "▁c",
  "2423": "වෙක්",
  "2424": "▁හිටියා",
  "2425": "es",
  "2426": "▁දකි",
  "2427": "ame",
  "2428": "▁මොනව",
  "2429": "වන",
  "2430": "▁මොනාද",
  "2431": "▁3",
  "2432": "▁කියනවා",
  "2433": "▁මෙහේ",
  "2434": "▁ජැ",
  "2435": "▁පැහැ",
  "2436": "▁ඉක්මන",
  "2437": "▁නරක",
  "2438": "▁කොච්චර",
  "2439": "▁එන",
  "2440": "▁තරම්",
  "2441": "නොත්",
  "2442": "වර්",
  "2443": "වොත්",
  "2444": "▁ප්‍රති",
  "2445": "▁ලස්සන",
  "2446": "ලිය",
  "2447": "▁කැමතියි",
  "2448": "▁කාල",
  "2449": "▁S",
  "2450": "▁මී",
  "2451": "▁වැඩේ",
  "2452": "▁තේරෙ",
  "2453": "▁ඒයි",
  "2454": "▁පොඩ්ඩක්",
  "2455": "▁පාල",
  "2456": "▁හැකි",
  "2457": "▁සෑ",
  "2458": "▁පැත්ත",
  "2459": "▁හම්බ",
  "2460": "ටින්",
  "2461": "▁ලබා",
  "2462": "ටත්",
  "2463": "යෙන්ම",
  "2464": "▁තවත්",
  "2465": "▁පවු",
  "2466": "▁පිස්සු",
  "2467": "▁පොලි",
  "2468": "▁මත",
  "2469": "▁එළි",
  "2470": "▁ඒකෙන්",
  "2471": "න්‍ය",
  "2472": "මාරු",
  "2473": "▁සහෝ",
  "2474": "ගත්ත",
  "2475": "▁ගමන්",
  "2476": "en",
  "2477": "▁දැක්ක",
  "2478": "▁තාත්ත",
  "2479": "ගන්නවා",
  "2480": "▁උනේ",
  "2481": "▁ඉඩ",
  "2482": "ඩාය",
  "2483": "▁ඇයට",
  "2484": "▁යාලු",
  "2485": "▁එත්",
  "2486": "▁නෙමේ",
  "2487": "▁w",
  "2488": "▁කාම",
  "2489": "▁උඩ",
  "2490": "වෙනි",
  "2491": "▁පුතා",
  "2492": "▁අන්ති",
  "2493": "▁ස්තුතියි",
  "2494": "▁ආවා",
  "2495": "▁ක්‍රියා",
  "2496": "▁ඉදි",
  "2497": "▁ආරක්ෂා",
  "2498": "යාව",
  "2499": "▁සමහරවිට",
  "2500": "▁යුතු",
  "2501": "▁එයාලට",
  "2502": "▁ඔහුව",
  "2503": "▁ඕක",
  "2504": "▁ඇතුලට",
  "2505": "▁තෝ",
  "2506": "gm",
  "2507": "▁පැන",
  "2508": "▁කේ",
  "2509": "▁නියම",
  "2510": "▁කණ්",
  "2511": "▁kgm",
  "2512": "▁නග",
  "2513": "▁නී",
  "2514": "▁රි",
  "2515": "පත්",
  "2516": "▁ස්තූතියි",
  "2517": "▁අනිත්",
  "2518": "▁කියලද",
  "2519": "▁කොහේ",
  "2520": "මය",
  "2521": "කරු",
  "2522": "▁ඉක්මනට",
  "2523": "▁මයි",
  "2524": "රව",
  "2525": "is",
  "2526": "▁කමක්",
  "2527": "▁මෝඩ",
  "2528": "කයි",
  "2529": "▁මෙන්න",
  "2530": "▁වෙනව",
  "2531": "▁ලැබෙ",
  "2532": "▁පිරි",
  "2533": "ස්ති",
  "2534": "▁හිතනවා",
  "2535": "▁එච්චර",
  "2536": "වුනා",
  "2537": "▁කරුණාකරලා",
  "2538": "ස්සෙ",
  "2539": "▁තියන්න",
  "2540": "▁මරන්න",
  "2541": "▁හැදු",
  "2542": "ණයක්",
  "2543": "▁කිව්වෙ",
  "2544": "▁දවස",
  "2545": "▁දරු",
  "2546": "▁5",
  "2547": "ට්ට",
  "2548": "▁රො",
  "2549": "සුන්",
  "2550": "▁අමතක",
  "2551": "▁ජැක්",
  "2552": "▁ආයෙ",
  "2553": "ගයක්",
  "2554": "▁ගත්ත",
  "2555": "▁දැනෙ",
  "2556": "▁උත්ස",
  "2557": "▁විහි",
  "2558": "▁අලු",
  "2559": "▁කණ්ඩාය",
  "2560": "▁සන්",
  "2561": "හන්",
  "2562": "▁ඉවරයි",
  "2563": "▁එකෙන්",
  "2564": "▁අතර",
  "2565": "▁ඔයාලට",
  "2566": "කලා",
  "2567": "▁පසු",
  "2568": "▁පාර",
  "2569": "▁තියන",
  "2570": "▁තී",
  "2571": "ස්තර",
  "2572": "▁ජීවත්",
  "2573": "▁අමාරු",
  "2574": "▁වේවි",
  "2575": "▁මාත්",
  "2576": "▁4",
  "2577": "මෙන්",
  "2578": "▁මගු",
  "2579": "▁අවශ්‍ය",
  "2580": "▁අයින්",
  "2581": "▁කාර",
  "2582": "▁ගන්නවා",
  "2583": "▁A",
  "2584": "▁දාලා",
  "2585": "▁ගොඩ",
  "2586": "▁සූ",
  "2587": "ගේම",
  "2588": "▁දිග",
  "2589": "▁ලග",
  "2590": "ටුයි",
  "2591": "▁සෙල්ල",
  "2592": "▁ජා",
  "2593": "▁දුව",
  "2594": "රහ",
  "2595": "▁ඇයව",
  "2596": "වනේ",
  "2597": "▁චා",
  "2598": "සයි",
  "2599": "▁දෙනවා",
  "2600": "▁ඇම",
  "2601": "▁හිතන්න",
  "2602": "රිකා",
  "2603": "▁ජෝ",
  "2604": "al",
  "2605": "▁කෙල්ල",
  "2606": "▁මහත්ත",
  "2607": "▁අදහ",
  "2608": "▁විට",
  "2609": "▁එකතු",
  "2610": "වක්කු",
  "2611": "ලර්",
  "2612": "▁ඉස්ස",
  "2613": "ද්දි",
  "2614": "කම",
  "2615": "ල්ලෝ",
  "2616": "▁හරිම",
  "2617": "▁තමුසෙ",
  "2618": "▁කරනව",
  "2619": "▁හොඳින්",
  "2620": "ත්වය",
  "2621": "සට",
  "2622": "▁සිටි",
  "2623": "පූර්ණ",
  "2624": "▁ජෙ",
  "2625": "▁අවස්ථා",
  "2626": "▁ඔහුගේ",
  "2627": "▁කට්",
  "2628": "▁බලාගෙන",
  "2629": "▁ඉතිං",
  "2630": "Name",
  "2631": "▁චි",
  "2632": "වීම",
  "2633": "න්ත",
  "2634": "▁ස්ථා",
  "2635": "▁ප්‍රශ්නයක්",
  "2636": "▁විය",
  "2637": "▁මාර්",
  "2638": "▁උඹට",
  "2639": "▁දැම්",
  "2640": "ල්ලෙක්",
  "2641": "▁බේර",
  "2642": "ක්ස්",
  "2643": "▁සිදු",
  "2644": "▁තුවක්කු",
  "2645": "▁බ්‍",
  "2646": "▁කරන්නම්",
  "2647": "▁කාට",
  "2648": "▁හැමදේ",
  "2649": "as",
  "2650": "▁පී",
  "2651": "▁හිට",
  "2652": "▁පුදු",
  "2653": "නාව",
  "2654": "▁විනාශ",
  "2655": "තුමා",
  "2656": "▁තේරුම්",
  "2657": "▁තාම",
  "2658": "▁විසි",
  "2659": "ion",
  "2660": "▁කිවු",
  "2661": "▁විනාඩි",
  "2662": "▁පුලුවන්ද",
  "2663": "▁කරල",
  "2664": "▁නිද",
  "2665": "▁තාත්තේ",
  "2666": "තනින්",
  "2667": "▁සඳ",
  "2668": "▁D",
  "2669": "▁පල",
  "2670": "▁ගිය",
  "2671": "▁කෑම",
  "2672": "පත",
  "2673": "▁ප්",
  "2674": "▁පැහැදි",
  "2675": "▁ඉදිරි",
  "2676": "යකට",
  "2677": "රෙයි",
  "2678": "▁මුහු",
  "2679": "▁තියෙනවද",
  "2680": "▁නු",
  "2681": "▁සාමා",
  "2682": "▁ඔයත්",
  "2683": "▁වැද",
  "2684": "▁U",
  "2685": "▁ව්‍",
  "2686": "විච්චි",
  "2687": "▁වුණා",
  "2688": "▁හැටි",
  "2689": "--",
  "2690": "▁මෙහෙට",
  "2691": "le",
  "2692": "▁දවස්",
  "2693": "▁දෙවියනේ",
  "2694": "▁පෙන්",
  "2695": "සර",
  "2696": "ර්ශ",
  "2697": "▁කරදර",
  "2698": "වෙනවා",
  "2699": "▁කළ",
  "2700": "▁වාර්",
  "2701": "රිලා",
  "2702": "▁පාවිච්චි",
  "2703": "▁දැන්ම",
  "2704": "▁නැත්ත",
  "2705": "▁ලෑ",
  "2706": "න්නෑ",
  "2707": "▁අලුත්",
  "2708": "▁සේරම",
  "2709": "ic",
  "2710": "▁බලාගන්න",
  "2711": "ෂක",
  "2712": "▁ගොනු",
  "2713": "සුම්",
  "2714": "පොරො",
  "2715": "▁මිනිහ",
  "2716": "▁තියනව",
  "2717": "විතේ",
  "2718": "▁කරේ",
  "2719": "වනවා",
  "2720": "▁ගියේ",
  "2721": "▁ඉක්ම",
  "2722": "▁විශේ",
  "2723": "▁මිනිහා",
  "2724": "කුණු",
  "2725": "▁නිර්",
  "2726": "පති",
  "2727": "▁හොදින්",
  "2728": "▁හිතුවේ",
  "2729": "තයි",
  "2730": "යර්",
  "2731": "▁දැක්කා",
  "2732": "▁මුකුත්",
  "2733": "▁සහෝදර",
  "2734": "ස්ම",
  "2735": "▁අනිවා",
  "2736": "▁දුර",
  "2737": "▁පත්",
  "2738": "ලික",
  "2739": "▁කරයි",
  "2740": "▁නැතිව",
  "2741": "▁මෙහෙම",
  "2742": "▁රෙ",
  "2743": "▁සල",
  "2744": "▁ඇස්",
  "2745": "▁බලාපොරො",
  "2746": "න්දි",
  "2747": "▁f",
  "2748": "ස්ටර්",
  "2749": "▁මනු",
  "2750": "▁හදන්නේ",
  "2751": "▁සැල",
  "2752": "ක්ෂා",
  "2753": "▁T",
  "2754": "න්ඩ",
  "2755": "▁වර්",
  "2756": "om",
  "2757": "▁සම්පූර්ණ",
  "2758": "ම්ම්",
  "2759": "▁විතරක්",
  "2760": "▁සුභ",
  "2761": "▁කාලය",
  "2762": "සිය",
  "2763": "▁කරමු",
  "2764": "ද්ග",
  "2765": "▁මේකට",
  "2766": "▁සැක",
  "2767": "▁∙∙∙",
  "2768": "▁b",
  "2769": "▁නවත්තන්න",
  "2770": "▁නැත්තේ",
  "2771": "▁ග්‍",
  "2772": "▁ගෑ",
  "2773": "ර්ථ",
  "2774": "▁දකින්න",
  "2775": "▁දොර",
  "2776": "▁අවසා",
  "2777": "ලින්ම",
  "2778": "▁කොල්ල",
  "2779": "▁මෙතනින්",
  "2780": "▁බු",
  "2781": "▁මිනිහෙ",
  "2782": "▁භ",
  "2783": "▁පොරො",
  "2784": "රණය",
  "2785": "ලව",
  "2786": "▁හැමදේම",
  "2787": "▁සඳහා",
  "2788": "▁වෛ",
  "2789": "▁I",
  "2790": "ලයි",
  "2791": "▁ව්‍යා",
  "2792": "▁නිකන්",
  "2793": "හාට",
  "2794": "යන්න",
  "2795": "▁එළියට",
  "2796": "▁ඩි",
  "2797": "▁වච",
  "2798": "▁හම්",
  "2799": "රින්",
  "2800": "නයට",
  "2801": "නයේ",
  "2802": "▁වතුර",
  "2803": "▁තොර",
  "2804": "ව්වා",
  "2805": "▁හිටිය",
  "2806": "▁ගාව",
  "2807": "තය",
  "2808": "රන්",
  "2809": "විය",
  "2810": "▁අස",
  "2811": "▁නෝ",
  "2812": "▁පොරොන්දු",
  "2813": "re",
  "2814": "▁මුළු",
  "2815": "දෙයක්",
  "2816": "ගැනී",
  "2817": "▁ච",
  "2818": "ඩය",
  "2819": "▁හිතෙ",
  "2820": "▁තියාගන්න",
  "2821": "▁උත්සහ",
  "2822": "▁පළ",
  "2823": "▁කල්",
  "2824": "▁පැහැදිලි",
  "2825": "▁ආදරෙයි",
  "2826": "▁සති",
  "2827": "▁දෙකක්",
  "2828": "▁පරීක්ෂ",
  "2829": "▁ඇත",
  "2830": "▁පහර",
  "2831": "▁කෝල්",
  "2832": "නකේ",
  "2833": "▁p",
  "2834": "▁විශේෂ",
  "2835": "▁වැදගත්",
  "2836": "▁හරියටම",
  "2837": "▁මමයි",
  "2838": "ල්ලු",
  "2839": "තික",
  "2840": "▁අන්න",
  "2841": "වෙන",
  "2842": "▁මොකුත්",
  "2843": "▁ඒවගේම",
  "2844": "ia",
  "2845": "▁තිබුනා",
  "2846": "▁a",
  "2847": "▁ළමයි",
  "2848": "▁දුන්නා",
  "2849": "▁ඔහොම",
  "2850": "▁බලාපොරොත්තු",
  "2851": "▁උදේ",
  "2852": "▁හමුදා",
  "2853": "▁ළඟ",
  "2854": "▁දිගටම",
  "2855": "▁ඔවුන්ට",
  "2856": "දානම්",
  "2857": "▁F",
  "2858": "▁අහ්",
  "2859": "බල",
  "2860": "▁ඇද",
  "2861": "න්දා",
  "2862": "පයක්",
  "2863": "▁මිනිහෙක්",
  "2864": "▁වන",
  "2865": "▁මොකටද",
  "2866": "රම්",
  "2867": "▁පැය",
  "2868": "▁කරනවද",
  "2869": "▁රේ",
  "2870": "▁යො",
  "2871": "▁රු",
  "2872": "දින්න",
  "2873": "දය",
  "2874": "▁අරි",
  "2875": "නට",
  "2876": "▁පුළුවන්ද",
  "2877": "▁∙",
  "2878": "▁කාලෙ",
  "2879": "▁10",
  "2880": "▁ආදරය",
  "2881": "▁B",
  "2882": "▁බිරි",
  "2883": "▁කණ",
  "2884": "ස්තු",
  "2885": "▁දෙවියන්",
  "2886": "▁ලු",
  "2887": "▁ලෙස",
  "2888": "▁තමන්",
  "2889": "ප්පු",
  "2890": "▁බී",
  "2891": "▁K",
  "2892": "ධාන",
  "2893": "▁දැනු",
  "2894": "▁හෙට",
  "2895": "▁ශක්",
  "2896": "▁හායි",
  "2897": "▁මග",
  "2898": "▁කට්ටිය",
  "2899": "අපි",
  "2900": "▁තත්",
  "2901": "▁අවුලක්",
  "2902": "▁හිර",
  "2903": "▁ඉදන්",
  "2904": "▁නැගි",
  "2905": "▁කළේ",
  "2906": "▁පාලනය",
  "2907": "▁අහු",
  "2908": "▁පැමි",
  "2909": "▁තාමත්",
  "2910": "nt",
  "2911": "▁නැත්තම්",
  "2912": "▁එන්නම්",
  "2913": "▁හිතා",
  "2914": "▁පිටි",
  "2915": "▁සාක්",
  "2916": "▁P",
  "2917": "▁පෙන්න",
  "2918": "▁හිටියෙ",
  "2919": "▁N",
  "2920": "▁ලඟ",
  "2921": "වය",
  "2922": "ක්ටර්",
  "2923": "▁ගෙන",
  "2924": "▁දැනටම",
  "2925": "▁උත්ත",
  "2926": "දුර",
  "2927": "▁වර",
  "2928": "▁බැලු",
  "2929": "▁මැරෙන්න",
  "2930": "▁උදවු",
  "2931": "ලන්",
  "2932": "නක",
  "2933": "▁හදන්න",
  "2934": "▁ආයු",
  "2935": "රාධ",
  "2936": "▁නිදා",
  "2937": "▁මමත්",
  "2938": "▁d",
  "2939": "▁පිලි",
  "2940": "▁වත්",
  "2941": "▁the",
  "2942": "▁හර",
  "2943": "▁පුදුම",
  "2944": "▁ඈ",
  "2945": "▁කිව්ව",
  "2946": "▁වො",
  "2947": "▁ළම",
  "2948": "කුණ",
  "2949": "ද්ධි",
  "2950": "▁මගෙන්",
  "2951": "▁පස්ස",
  "2952": "▁ජීවිතේ",
  "2953": "හෙන්න",
  "2954": "▁වාහ",
  "2955": "▁ගුවන්",
  "2956": "▁පෙර",
  "2957": "ර්ය",
  "2958": "▁ආවෙ",
  "2959": "▁ගත",
  "2960": "▁ගෙනිය",
  "2961": "▁ලෝක",
  "2962": "▁හොඳට",
  "2963": "▁සිද්ධ",
  "2964": "▁යට",
  "2965": "හම",
  "2966": "▁මටත්",
  "2967": "▁කරගෙන",
  "2968": "ing",
  "2969": "වක",
  "2970": "▁උත්සා",
  "2971": "▁මෙම",
  "2972": "▁රාජ",
  "2973": "රෙන්න",
  "2974": "රයේ",
  "2975": "▁R",
  "2976": "▁මේවා",
  "2977": "▁අම්ම",
  "2978": "▁කන්න",
  "2979": "▁l",
  "2980": "▁6",
  "2981": "ල්ලක්",
  "2982": "▁මුණ",
  "2983": "ස්සේ",
  "2984": "ol",
  "2985": "▁පැටි",
  "2986": "▁පේන",
  "2987": "▁එන්නේ",
  "2988": "▁අමු",
  "2989": "▁සතුට",
  "2990": "▁ට්‍",
  "2991": "දෙන්න",
  "2992": "ද්‍යා",
  "2993": "▁හයි",
  "2994": "▁කෙනකේ",
  "2995": "el",
  "2996": "▁කණගා",
  "2997": "▁උත්සාහ",
  "2998": "▁ගණ",
  "2999": "▁අදහසක්",
  "3000": "▁කවුරුහරි",
  "3001": "නයි",
  "3002": "▁දෙන්නෙ",
  "3003": "ලෙන්",
  "3004": "▁අම්මේ",
  "3005": "යව",
  "3006": "▁ආයෙත්",
  "3007": "▁සෙල්ලම්",
  "3008": "රැද්ද",
  "3009": "▁සටන්",
  "3010": "▁අන්තිම",
  "3011": "▁n",
  "3012": "▁කඩ",
  "3013": "▁පින්",
  "3014": "න්ගේ",
  "3015": "▁කියපු",
  "3016": "න්ට්",
  "3017": "යොත්",
  "3018": "▁වය",
  "3019": "▁සාමාන්‍ය",
  "3020": "වාහ",
  "3021": "il",
  "3022": "▁මහත්තයා",
  "3023": "▁මනුස්ස",
  "3024": "▁තිබ්බා",
  "3025": "▁m",
  "3026": "▁ප්‍රමා",
  "3027": "▁ඉල්ල",
  "3028": "SA",
  "3029": "▁අදහස්",
  "3030": "කුට",
  "3031": "තාවක්",
  "3032": "ගන්",
  "3033": "her",
  "3034": "▁යුතුයි",
  "3035": "▁රස්",
  "3036": "▁ශා",
  "3037": "ගක්",
  "3038": "ගත්තේ",
  "3039": "▁වද",
  "3040": "▁දෙයි",
  "3041": "▁පණි",
  "3042": "▁යනව",
  "3043": "සර්",
  "3044": "▁නවත්",
  "3045": "රයි",
  "3046": "▁දින",
  "3047": "ad",
  "3048": "▁වෙලාවට",
  "3049": "▁පොලිස්",
  "3050": "▁ඉන්නව",
  "3051": "▁ලා",
  "3052": "▁බොහොම",
  "3053": "▁ආයේ",
  "3054": "ද්දී",
  "3055": "▁ආරක්ෂක",
  "3056": "▁දෙයක්ම",
  "3057": "▁කරු",
  "3058": "▁කොහ",
  "3059": "▁කරන්නද",
  "3060": "▁වුනත්",
  "3061": "▁පියා",
  "3062": "▁සමග",
  "3063": "▁ඉක්මන්",
  "3064": "▁කිරීම",
  "3065": "ල්ස්",
  "3066": "▁අයිති",
  "3067": "▁G",
  "3068": "කර්",
  "3069": "▁කාලයක්",
  "3070": "▁මාස",
  "3071": "▁ක්‍රම",
  "3072": "න්ස්",
  "3073": "▁ගෝ",
  "3074": "▁දන්නවනේ",
  "3075": "රාව",
  "3076": "▁තරු",
  "3077": "ow",
  "3078": "▁ලෑස්ති",
  "3079": "වලා",
  "3080": "▁වටි",
  "3081": "▁ඇහෙ",
  "3082": "▁නවත්වන්න",
  "3083": "▁මහත්ම",
  "3084": "▁ඉවත්",
  "3085": "නම",
  "3086": "▁දැනගෙන",
  "3087": "▁වෙත",
  "3088": "▁තනිය",
  "3089": "▁සෝ",
  "3090": "▁නං",
  "3091": "▁මෙච්චර",
  "3092": "▁තිබෙ",
  "3093": "▁පූ",
  "3094": "වන්නේ",
  "3095": "▁නොහැ",
  "3096": "▁නියෝ",
  "3097": "▁ආදරේ",
  "3098": "▁කාටවත්",
  "3099": "▁ඉස්",
  "3100": "▁වෙන්",
  "3101": "▁දැක්කද",
  "3102": "▁කියා",
  "3103": "▁සුදු",
  "3104": "▁නිල",
  "3105": "▁අනා",
  "3106": "▁ඇර",
  "3107": "▁ටෙ",
  "3108": "▁පැත්තෙ",
  "3109": "▁ඊල",
  "3110": "▁ජන",
  "3111": "▁හී",
  "3112": "▁දැනටමත්",
  "3113": "▁නවති",
  "3114": "▁උන",
  "3115": "▁ආව",
  "3116": "කෙක්",
  "3117": "▁තනි",
  "3118": "▁නතර",
  "3119": "▁යාළුවා",
  "3120": "පුංචි",
  "3121": "▁තැනක්",
  "3122": "ටයි",
  "3123": "ෂිත",
  "3124": "▁ඉහ",
  "3125": "▁තිබ්බ",
  "3126": "▁ගැනී",
  "3127": "ත්මක",
  "3128": "▁හිටපු",
  "3129": "▁වැරැද්ද",
  "3130": "▁ගහන්න",
  "3131": "▁වාස",
  "3132": "▁USA",
  "3133": "ණ්ඩ",
  "3134": "▁ගත්තේ",
  "3135": "▁හිතුවා",
  "3136": "▁උනත්",
  "3137": "පය",
  "3138": "▁තොරතුරු",
  "3139": "▁දක්",
  "3140": "▁කූ",
  "3141": "▁ඉතා",
  "3142": "▁විහිළු",
  "3143": "▁ඇඳු",
  "3144": "ලක්ද",
  "3145": "▁ඉන්නවද",
  "3146": "▁පුංචි",
  "3147": "▁කථා",
  "3148": "රකම්",
  "3149": "දේශ",
  "3150": "▁දුන්න",
  "3151": "▁වග",
  "3152": "▁h",
  "3153": "▁විකාර",
  "3154": "FF",
  "3155": "▁ශි",
  "3156": "▁නීති",
  "3157": "පර්",
  "3158": "▁අල්ලගන්න",
  "3159": "▁හතර",
  "3160": "▁පුද්ග",
  "3161": "▁අපට",
  "3162": "වස",
  "3163": "▁බලන්",
  "3164": "▁වෙලාවක්",
  "3165": "දෙනු",
  "3166": "▁පිටිප",
  "3167": "▁ඒකයි",
  "3168": "▁තනියම",
  "3169": "ඒක",
  "3170": "▁පරිස්ස",
  "3171": "▁සිහි",
  "3172": "▁මහත්මයා",
  "3173": "▁o",
  "3174": "ලයක්",
  "3175": "▁ඉගෙන",
  "3176": "▁තෙ",
  "3177": "▁ජීවිතය",
  "3178": "▁අයට",
  "3179": "▁ඉඳන්",
  "3180": "▁බලමු",
  "3181": "▁හොඳම",
  "3182": "▁සට",
  "3183": "▁තියෙනව",
  "3184": "▁හොදට",
  "3185": "▁ලිපි",
  "3186": "▁පරණ",
  "3187": "▁අළු",
  "3188": "▁පණිවි",
  "3189": "රිස්",
  "3190": "▁H",
  "3191": "එයා",
  "3192": "▁ඔබව",
  "3193": "▁කොහදෙ",
  "3194": "us",
  "3195": "▁විශා",
  "3196": "ඩුව",
  "3197": "▁කවුරුවත්",
  "3198": "▁රාත්‍",
  "3199": "පොයි",
  "3200": "කයෙක්",
  "3201": "▁පිහි",
  "3202": "තුම්",
  "3203": "▁ඔහුගෙ",
  "3204": "▁ඒකෙ",
  "3205": "▁මීට",
  "3206": "▁පස්සෙන්",
  "3207": "▁එකයි",
  "3208": "▁ඕහ්",
  "3209": "▁නිදහස්",
  "3210": "▁හදි",
  "3211": "▁කිරීමට",
  "3212": "▁L",
  "3213": "▁ඔලු",
  "3214": "▁ලිය",
  "3215": "▁කොහේද",
  "3216": "▁දූ",
  "3217": "▁සහෝදරයා",
  "3218": "▁එයාලව",
  "3219": "▁සුබ",
  "3220": "හිත",
  "3221": "▁උඹේ",
  "3222": "▁ඇතුලේ",
  "3223": "▁කසා",
  "3224": "▁කවුරුත්",
  "3225": "ධ්‍ය",
  "3226": "▁වුන",
  "3227": "ක්‍රී",
  "3228": "▁වයි",
  "3229": "▁සාක්ෂි",
  "3230": "▁අපරාධ",
  "3231": "▁දැකලා",
  "3232": "▁තවමත්",
  "3233": "▁දෙන්නම්",
  "3234": "▁ඉති",
  "3235": "▁රජ",
  "3236": "▁ඉක්මනින්",
  "3237": "ගන්නේ",
  "3238": "▁තමුන්",
  "3239": "▁මතක්",
  "3240": "et",
  "3241": "▁යවන්න",
  "3242": "▁පාරක්",
  "3243": "ඟක්",
  "3244": "▁බේරගන්න",
  "3245": "▁මිනී",
  "3246": "▁W",
  "3247": "▁අංක",
  "3248": "▁තිබුනේ",
  "3249": "▁මගෝ",
  "3250": "▁තුන්",
  "3251": "▁මුලින්ම",
  "3252": "ක්කා",
  "3253": "▁මාරු",
  "3254": "▁කිහි",
  "3255": "ලියන",
  "3256": "▁වනේ",
  "3257": "▁කම්",
  "3258": "▁සැලැ",
  "3259": "▁y",
  "3260": "▁to",
  "3261": "ල්ලො",
  "3262": "▁ෆෝ",
  "3263": "▁පැනලා",
  "3264": "▁එයි",
  "3265": "▁ඇන්",
  "3266": "▁ටො",
  "3267": "▁%",
  "3268": "▁වූ",
  "3269": "▁ඇවිල්ලා",
  "3270": "▁ආපු",
  "3271": "▁සූදානම්",
  "3272": "න්සි",
  "3273": "▁මයිකල්",
  "3274": "▁දානවා",
  "3275": "ct",
  "3276": "▁පෙන්වන්න",
  "3277": "ed",
  "3278": "කල",
  "3279": "▁නැව",
  "3280": "▁සතුටු",
  "3281": "මණ",
  "3282": "▁E",
  "3283": "▁මඟු",
  "3284": "රයට",
  "3285": "▁ක්ලා",
  "3286": "වරු",
  "3287": "▁මෙතනට",
  "3288": "▁ඩ",
  "3289": "▁ගැල",
  "3290": "▁දවසක්",
  "3291": "ගම",
  "3292": "▁ඇගේ",
  "3293": "කාරයෙක්",
  "3294": "▁විවාහ",
  "3295": "ද්‍ර",
  "3296": "මිය",
  "3297": "රියක්",
  "3298": "▁මැරිලා",
  "3299": "▁විස්තර",
  "3300": "▁මන්",
  "3301": "▁පරක්",
  "3302": "▁ප්‍රශ්න",
  "3303": "▁කණගාටුයි",
  "3304": "▁තුවා",
  "3305": "▁එහෙමයි",
  "3306": "▁මුද",
  "3307": "▁දුරක",
  "3308": "ප්ප",
  "3309": "▁හොයන්න",
  "3310": "000",
  "3311": "▁හැමදෙයක්",
  "3312": "▁දෙන",
  "3313": "▁සයි",
  "3314": "▁O",
  "3315": "▁ඇත්තෙ",
  "3316": "▁ඉස්සර",
  "3317": "▁තියෙන්න",
  "3318": "▁පරක්කු",
  "3319": "▁නෙවේ",
  "3320": "▁දක්ෂ",
  "3321": "▁බිම",
  "3322": "▁පැත්තට",
  "3323": "තියක්",
  "3324": "වලට",
  "3325": "▁ඉල",
  "3326": "ගින්",
  "3327": "▁ගන්නේ",
  "3328": "▁පද්ධ",
  "3329": "▁ගැහු",
  "3330": "▁හැමෝටම",
  "3331": "▁කාන්",
  "3332": "▁ඔන්න",
  "3333": "▁අධි",
  "3334": "▁දෙන්නේ",
  "3335": "▁රහ",
  "3336": "▁අපොයි",
  "3337": "▁ප්‍රා",
  "3338": "▁නැත",
  "3339": "ටුව",
  "3340": "යෝජ",
  "3341": "▁නෙවයි",
  "3342": "▁භයා",
  "3343": "▁සතුටක්",
  "3344": "▁ලස්සනයි",
  "3345": "▁හුඟක්",
  "3346": "▁දෙන්නා",
  "3347": "▁ගෞ",
  "3348": "▁අරින්න",
  "3349": "▁සිං",
  "3350": "රෙක්",
  "3351": "▁මෙහෙන්",
  "3352": "▁මරණ",
  "3353": "▁වගෝ",
  "3354": "▁කකු",
  "3355": "▁ඔයාගෙන්",
  "3356": "▁හ්",
  "3357": "▁ගැනද",
  "3358": "▁කියන්නම්",
  "3359": "▁පරීක්ෂා",
  "3360": "කාශ",
  "3361": "▁බඩු",
  "3362": "▁දහ",
  "3363": "ay",
  "3364": "▁විද්‍යා",
  "3365": "කිය",
  "3366": "and",
  "3367": "කරලා",
  "3368": "▁හෙලෝ",
  "3369": "▁7",
  "3370": "▁බන්",
  "3371": "▁කතාව",
  "3372": "▁ඔයයි",
  "3373": "▁ඉස්සරහ",
  "3374": "යානු",
  "3375": "නන්",
  "3376": "**",
  "3377": "▁යයි",
  "3378": "▁කොයි",
  "3379": "තොත්",
  "3380": "▁සිද්ද",
  "3381": "▁ඉතුරු",
  "3382": "▁රස්සා",
  "3383": "▁විනෝ",
  "3384": "▁මහා",
  "3385": "▁මිය",
  "3386": "▁රහස්",
  "3387": "න්නම්",
  "3388": "▁හොරකම්",
  "3389": "▁හැමදා",
  "3390": "▁අතුරු",
  "3391": "ම්ස්",
  "3392": "▁තමුසේ",
  "3393": "▁ජො",
  "3394": "▁කප",
  "3395": "▁විස",
  "3396": "▁හැමදෙයක්ම",
  "3397": "▁දැම්මා",
  "3398": "▁හේතුව",
  "3399": "ළට",
  "3400": "▁තවම",
  "3401": "▁එක්කෙ",
  "3402": "▁මෙහෙයු",
  "3403": "▁තහ",
  "3404": "▁හොදින්ද",
  "3405": "▁you",
  "3406": "▁වාර්තා",
  "3407": "▁මොනවාද",
  "3408": "▁වැඩියි",
  "3409": "ඩම්",
  "3410": "වින්",
  "3411": "වීමක්",
  "3412": "▁ජය",
  "3413": "▁සියලු",
  "3414": "▁ඇහැ",
  "3415": "▁පණ",
  "3416": "සන්න",
  "3417": "පිරි",
  "3418": "▁කතාකරන්න",
  "3419": "▁උඩට",
  "3420": "am",
  "3421": "සින්",
  "3422": "පුර",
  "3423": "වුරු",
  "3424": "▁ඕනද",
  "3425": "නද",
  "3426": "යන්ට",
  "3427": "▁මොහො",
  "3428": "▁ආයුධ",
  "3429": "▁මරලා",
  "3430": "▁පස්සට",
  "3431": "නාවක්",
  "3432": "▁ඔයාලගේ",
  "3433": "▁වැටු",
  "3434": "▁වෝ",
  "3435": "▁g",
  "3436": "▁විශ්වාසයි",
  "3437": "▁කෙල්ලෙක්",
  "3438": "▁හොඳින්ද",
  "3439": "තිමත්",
  "3440": "▁යම්",
  "3441": "▁වැටෙ",
  "3442": "▁හිතුවෙ",
  "3443": "▁කැමැ",
  "3444": "ot",
  "3445": "▁ෆ්‍",
  "3446": "කරණ",
  "3447": "න්ක්",
  "3448": "ලේම",
  "3449": "▁ලෝකය",
  "3450": "▁ලේසි",
  "3451": "තරම්",
  "3452": "▁තීරණය",
  "3453": "▁හදා",
  "3454": "▁ඩෙ",
  "3455": "▁නැගිටි",
  "3456": "▁ප්‍රධාන",
  "3457": "▁හේතු",
  "3458": "▁වෙච්ච",
  "3459": "රම්භ",
  "3460": "▁නිර්මා",
  "3461": "▁ඒකේ",
  "3462": "▁අවසන්",
  "3463": "▁ඉදලා",
  "3464": "▁තෝරා",
  "3465": "▁ලැබුනා",
  "3466": "▁පර",
  "3467": "▁20",
  "3468": "ව්‍ය",
  "3469": "▁එනව",
  "3470": "▁බලය",
  "3471": "▁වෙලාවෙ",
  "3472": "▁නුඹ",
  "3473": "ර්ලි",
  "3474": "▁මිනිස්සුන්ට",
  "3475": "ජිත",
  "3476": "▁නිකම්",
  "3477": "▁විවෘ",
  "3478": "▁කව්",
  "3479": "▁මිලියන",
  "3480": "තක්",
  "3481": "▁9",
  "3482": "▁ෆි",
  "3483": "▁දිය",
  "3484": "දුරු",
  "3485": "▁ඇමරිකා",
  "3486": "▁කොහෙන්ද",
  "3487": "▁එන්නෙ",
  "3488": "▁වුණේ",
  "3489": "▁යමක්",
  "3490": "ඩාක්",
  "3491": "▁යාලුවා",
  "3492": "▁හැටියට",
  "3493": "▁දොස්තර",
  "3494": "තුම",
  "3495": "▁පුහු",
  "3496": "▁උස",
  "3497": "▁මන",
  "3498": "▁පේනවා",
  "3499": "▁ස්ව",
  "3500": "▁චිත්‍ර",
  "3501": "▁ඩොලර්",
  "3502": "▁ෆ්",
  "3503": "▁අඩි",
  "3504": "ඩින්",
  "3505": "රුවා",
  "3506": "තුරක්",
  "3507": "▁8",
  "3508": "▁බෝම්බ",
  "3509": "▁සමාව",
  "3510": "▁ගෙනා",
  "3511": "▁සොයා",
  "3512": "▁අරගන්න",
  "3513": "▁අභි",
  "3514": "▁පමණ",
  "3515": "▁උත්තර",
  "3516": "▁තිබ්බේ",
  "3517": "▁බර",
  "3518": "බැයි",
  "3519": "ප්‍ර",
  "3520": "සියට",
  "3521": "▁නිලධා",
  "3522": "▁අවුරු",
  "3523": "වෙන්නේ",
  "3524": "▁ඉලක්ක",
  "3525": "▁වෙලාවේ",
  "3526": "▁නංගි",
  "3527": "▁පොලී",
  "3528": "▁ඔන",
  "3529": "▁යන්",
  "3530": "▁අවශ්‍යයි",
  "3531": "▁නොකර",
  "3532": "▁බවට",
  "3533": "ළුව",
  "3534": "▁අවුල්",
  "3535": "▁පාට",
  "3536": "▁J",
  "3537": "තන්",
  "3538": "▁තුවක්කුව",
  "3539": "ලද",
  "3540": "නෙවා",
  "3541": "▁හදවත",
  "3542": "▁හෙයි",
  "3543": "▁පෝ",
  "3544": "▁ආරම්භ",
  "3545": "▁පැත්තේ",
  "3546": "ලක",
  "3547": "▁තෝර",
  "3548": "ගහ",
  "3549": "▁එදා",
  "3550": "▁අනික",
  "3551": "▁ගොඩාක්",
  "3552": "▁ගානක්",
  "3553": "▁හිනා",
  "3554": "▁සියළු",
  "3555": "▁කතාකර",
  "3556": "▁තේරුනා",
  "3557": "▁විශාල",
  "3558": "▁හිතනවද",
  "3559": "▁අනතුරු",
  "3560": "මාව",
  "3561": "▁තියනවද",
  "3562": "▁හැබැයි",
  "3563": "▁මෙහාට",
  "3564": "▁අඳු",
  "3565": "▁විරු",
  "3566": "▁බිරිඳ",
  "3567": "ගිය",
  "3568": "▁ඇතුල්",
  "3569": "▁තත්ප",
  "3570": "▁වරද",
  "3571": "▁වාඩි",
  "3572": "▁ගෞරව",
  "3573": "▁පැටියෝ",
  "3574": "▁කාමරේ",
  "3575": "▁දර්ශ",
  "3576": "ප්ටන්",
  "3577": "▁ඔවුන්ගේ",
  "3578": "▁ජේන්",
  "3579": "තැන",
  "3580": "▁හම්බු",
  "3581": "▁අල්ලන්න",
  "3582": "▁ගෙදරට",
  "3583": "න්ග්",
  "3584": "ධානය",
  "3585": "▁දීලා",
  "3586": "▁අවස්ථාවක්",
  "3587": "▁ඇදු",
  "3588": "▁සන්සුන්",
  "3589": "ඩියෝ",
  "3590": "▁මේකෙන්",
  "3591": "▁පුරා",
  "3592": "▁අයියෝ",
  "3593": "▁විනෝද",
  "3594": "▁තර්",
  "3595": "▁කොල්ලෝ",
  "3596": "▁ගල",
  "3597": "▁වේග",
  "3598": "ment",
  "3599": "▁ඉඳලා",
  "3600": "▁st",
  "3601": "▁විසින්",
  "3602": "▁මුණගැ",
  "3603": "මොක",
  "3604": "▁හොයාගෙන",
  "3605": "▁මිනිත්තු",
  "3606": "▁පෙනු",
  "3607": "▁ඊළ",
  "3608": "▁පුහුණු",
  "3609": "කාරයා",
  "3610": "▁තත්ව",
  "3611": "▁අනුව",
  "3612": "▁12",
  "3613": "▁උස්ස",
  "3614": "වන්ත",
  "3615": "▁වට",
  "3616": "රලා",
  "3617": "▁දුවන්න",
  "3618": "ටියක්",
  "3619": "සක",
  "3620": "▁අල්ලා",
  "3621": "▁විහිලු",
  "3622": "▁කලබල",
  "3623": "▁ඉස්කෝ",
  "3624": "▁පහු",
  "3625": "ස්සි",
  "3626": "▁දෙන්නම",
  "3627": "හිර",
  "3628": "▁ක්ලාක්",
  "3629": "▁ගෙනියන්න",
  "3630": "▁කැප්ටන්",
  "3631": "▁පද",
  "3632": "▁හලෝ",
  "3633": "මාන",
  "3634": "▁හුස්ම",
  "3635": "▁වගෙ",
  "3636": "▁හිතන",
  "3637": "▁කාලේ",
  "3638": "▁තේරෙනවා",
  "3639": "▁....",
  "3640": "▁ගැහැ",
  "3641": "▁සමඟ",
  "3642": "▁වීර",
  "3643": "▁හදන්නෙ",
  "3644": "ක්‍රීය",
  "3645": "▁භූ",
  "3646": "▁විස්",
  "3647": "ro",
  "3648": "▁වතා",
  "3649": "▁එකෙක්",
  "3650": "▁හරහා",
  "3651": "▁රූ",
  "3652": "▁ජිවත්",
  "3653": "▁ඕනෙද",
  "3654": "යුතු",
  "3655": "ලයට",
  "3656": "▁දෙනෙක්",
  "3657": "▁කොන්",
  "3658": "▁කර්",
  "3659": "▁නොහැකි",
  "3660": "▁ඊයේ",
  "3661": "▁ඔවුන්ව",
  "3662": "▁නෑනේ",
  "3663": "තනය",
  "3664": "▁ඔබගේ",
  "3665": "ද්‍ය",
  "3666": "යාට",
  "3667": "ම්ව",
  "3668": "▁ඩේ",
  "3669": "මගේ",
  "3670": "▁බඩ",
  "3671": "▁දුන්නේ",
  "3672": "▁දේශ",
  "3673": "තියේ",
  "3674": "▁අළුත්",
  "3675": "▁බොහෝ",
  "3676": "▁දාල",
  "3677": "▁කුරු",
  "3678": "ඒත්",
  "3679": "▁බ්",
  "3680": "▁පවුල",
  "3681": "▁විවෘත",
  "3682": "▁මහත්",
  "3683": "▁එහා",
  "3684": "▁හැසි",
  "3685": "▁එයාලගේ",
  "3686": "▁හොදම",
  "3687": "▁අපිත්",
  "3688": "▁බුද්ධි",
  "3689": "ab",
  "3690": "▁චෙ",
  "3691": "▁කියනව",
  "3692": "ve",
  "3693": "▁තැනට",
  "3694": "▁දෙයියනේ",
  "3695": "▁සෑම්",
  "3696": "▁මෙය",
  "3697": "එක",
  "3698": "▁තට්ටු",
  "3699": "▁උබට",
  "3700": "▁පැත්තෙන්",
  "3701": "▁පර්",
  "3702": "▁බායි",
  "3703": "කයක්",
  "3704": "▁දුම්",
  "3705": "▁කණ්ඩායම",
  "3706": "▁බෝට්ටු",
  "3707": "කට්",
  "3708": "▁ඕනෑ",
  "3709": "යාවක්",
  "3710": "▁මිස්ටර්",
  "3711": "▁ගුරු",
  "3712": "යන",
  "3713": "▁පරා",
  "3714": "▁ජරා",
  "3715": "▁එච්චරයි",
  "3716": "▁ඩැ",
  "3717": "▁අඩුම",
  "3718": "▁බං",
  "3719": "▁උදව්වක්",
  "3720": "▁ගියොත්",
  "3721": "▁ගොඩනැ",
  "3722": "▁ඩොක්ටර්",
  "3723": "▁බලනවා",
  "3724": "රංචි",
  "3725": "▁හදිසි",
  "3726": "▁Mr",
  "3727": "▁ආහ්",
  "3728": "▁අයියා",
  "3729": "▁of",
  "3730": "▁ශ්‍",
  "3731": "▁ඇත්තෙන්ම",
  "3732": "▁පින්තූ",
  "3733": "▁අසා",
  "3734": "▁තිබෙනවා",
  "3735": "▁එකත්",
  "3736": "▁ෆෝන්",
  "3737": "▁විශ්වාසද",
  "3738": "▁අවසර",
  "3739": "වාද",
  "3740": "▁15",
  "3741": "▁භාවිත",
  "3742": "▁හුගක්",
  "3743": "▁ඉදිරියට",
  "3744": "▁මෙයාව",
  "3745": "ඩංගු",
  "3746": "▁හැමදාම",
  "3747": "▁ජිවිත",
  "3748": "ac",
  "3749": "කයා",
  "3750": "▁මගුලක්ද",
  "3751": "▁නට",
  "3752": "▁ආරංචි",
  "3753": "▁අමුතු",
  "3754": "රල්",
  "3755": "ධිපති",
  "3756": "▁for",
  "3757": "▁ඔතන",
  "3758": "වන්නම්",
  "3759": "වුනේ",
  "3760": "th",
  "3761": "▁දුර්",
  "3762": "▁සද",
  "3763": "ස්ට්",
  "3764": "න්‍‍න",
  "3765": "▁තුල",
  "3766": "▁මුහුණ",
  "3767": "▁තත්වය",
  "3768": "▁ගන්නම්",
  "3769": "▁සියල්ල",
  "3770": "▁කිරි",
  "3771": "▁නවතින්න",
  "3772": "වුම්",
  "3773": "දිලා",
  "3774": "▁දුරකථ",
  "3775": "▁ලෝකෙ",
  "3776": "▁රස",
  "3777": "▁හැං",
  "3778": "▁ධා",
  "3779": "▁තියලා",
  "3780": "▁යුද්ධ",
  "3781": "▁අතන",
  "3782": "දෑස",
  "3783": "ran",
  "3784": "▁ගිනි",
  "3785": "▁තද",
  "3786": "ගන්නෙ",
  "3787": "ur",
  "3788": "▁අතුරුද",
  "3789": "▁බැං",
  "3790": "▁තැන්",
  "3791": "▁තෑ",
  "3792": "▁රට",
  "3793": "▁නිතර",
  "3794": "කව",
  "3795": "▁මෙහි",
  "3796": "තර්",
  "3797": "▁මතකද",
  "3798": "▁වැඩිය",
  "3799": "▁ලයි",
  "3800": "ගනෙ",
  "3801": "▁කතාවක්",
  "3802": "ලයේ",
  "3803": "▁යන්නම්",
  "3804": "eat",
  "3805": "තෙක්",
  "3806": "▁♫",
  "3807": "▁සතුටුයි",
  "3808": "▁තුන",
  "3809": "▁ගේන්න",
  "3810": "නියා",
  "3811": "▁මොනවහරි",
  "3812": "un",
  "3813": "න්ඩ්",
  "3814": "▁තේරුම",
  "3815": "රුව",
  "3816": "▁යැ",
  "3817": "▁උදෑස",
  "3818": "▁පනි",
  "3819": "පනය",
  "3820": "▁පව",
  "3821": "▁තුනක්",
  "3822": "▁ඕනම",
  "3823": "දුරටත්",
  "3824": "▁ඇඳ",
  "3825": "ස්ට",
  "3826": "▁අමාරුයි",
  "3827": "▁සක",
  "3828": "▁ආවර",
  "3829": "▁විරුද්ධ",
  "3830": "▁හොයාගත්තා",
  "3831": "ර්ක්",
  "3832": "▁බාර",
  "3833": "▁නගි",
  "3834": "ලොත්",
  "3835": "▁නියෝජිත",
  "3836": "▁හිස්",
  "3837": "▁නිකං",
  "3838": "▁මත්",
  "3839": "▁ටැ",
  "3840": "වැරදි",
  "3841": "▁යෙ",
  "3842": "▁සර",
  "3843": "▁නැත්තෙ",
  "3844": "දුනා",
  "3845": "▁වශ",
  "3846": "▁බොන්න",
  "3847": "▁පිය",
  "3848": "පාර",
  "3849": "▁හිතාගන්න",
  "3850": "ස්ත",
  "3851": "▁වේද",
  "3852": "▁ඔප්පු",
  "3853": "පිට",
  "3854": "▁වුනොත්",
  "3855": "▁කොටසක්",
  "3856": "▁වෛර",
  "3857": "▁හොඳටම",
  "3858": "▁ඌව",
  "3859": "ද්දෙ",
  "3860": "රියේ",
  "3861": "බර්",
  "3862": "▁තවදුරටත්",
  "3863": "කාව",
  "3864": "▁සැලසුම්",
  "3865": "ec",
  "3866": "▁පැට",
  "3867": "▁නායක",
  "3868": "▁හින්දා",
  "3869": "ලත්",
  "3870": "▁හදනවා",
  "3871": "රීම",
  "3872": "▁තිබුන",
  "3873": "▁පෙට්",
  "3874": "▁කඩා",
  "3875": "▁දෙන්නෙක්",
  "3876": "▁වැඩසට",
  "3877": "▁ම්ම්",
  "3878": "ඔව්",
  "3879": "▁පළමු",
  "3880": "යිස්",
  "3881": "▁ගොනුව",
  "3882": "▁සුර",
  "3883": "▁එහේ",
  "3884": "▁අනිවාර්",
  "3885": "▁අග",
  "3886": "▁අංශ",
  "3887": "කාරය",
  "3888": "▁කොල්ලනේ",
  "3889": "ut",
  "3890": "▁රතු",
  "3891": "▁30",
  "3892": "▁දරුණු",
  "3893": "ද්‍රව්‍ය",
  "3894": "▁කිව්වොත්",
  "3895": "▁මුර",
  "3896": "▁අණ",
  "3897": "▁බලාගන්නම්",
  "3898": "▁තේරෙන්නේ",
  "3899": "▁දන්නෑ",
  "3900": "▁එක්කම",
  "3901": "▁‍අ‍",
  "3902": "▁එහෙමද",
  "3903": "බිලා",
  "3904": "ත්‍රය",
  "3905": "▁සේවා",
  "3906": "▁මුල්",
  "3907": "ගනි",
  "3908": "▁උනොත්",
  "3909": "▁පුරුදු",
  "3910": "▁ක්‍රී",
  "3911": "▁පණිවිඩ",
  "3912": "▁ගිහිල්ලා",
  "3913": "විලි",
  "3914": "▁අනාගත",
  "3915": "සිදු",
  "3916": "නල්",
  "3917": "ගට",
  "3918": "▁මැඩම්",
  "3919": "▁ඇලෙ",
  "3920": "▁රාජකා",
  "3921": "ක්සි",
  "3922": "▁තියාගෙන",
  "3923": "ස්තුවේ",
  "3924": "ඳින්න",
  "3925": "නුත්",
  "3926": "▁නිවැරදි",
  "3927": "ඔයාට",
  "3928": "▁යි",
  "3929": "වෙන්නෙ",
  "3930": "ri",
  "3931": "▁ශක්තිමත්",
  "3932": "▁දැනෙනවා",
  "3933": "▁කොටස",
  "3934": "▁අවසාන",
  "3935": "නුයි",
  "3936": "ෂ්‍ය",
  "3937": "▁වාසනා",
  "3938": "▁පැහැර",
  "3939": "නස්",
  "3940": "▁කන",
  "3941": "ත්‍ය",
  "3942": "▁එයත්",
  "3943": "▁පේන්නේ",
  "3944": "▁ඇත්තට",
  "3945": "▁ඉං",
  "3946": "▁පෙන්නන්න",
  "3947": "▁මොනවත්",
  "3948": "ෂ්ඨ",
  "3949": "▁වගයක්",
  "3950": "ම්ප",
  "3951": "▁හං",
  "3952": "▁බිරිද",
  "3953": "▁පන්",
  "3954": "▁ජූ",
  "3955": "▁ප්‍රශ්ණයක්",
  "3956": "රීන්",
  "3957": "▁මධ්‍ය",
  "3958": "▁විදු",
  "3959": "කවම",
  "3960": "කරනවා",
  "3961": "දනය",
  "3962": "▁විවේ",
  "3963": "▁කොටස්",
  "3964": "▁කොල්ලා",
  "3965": "▁වැටි",
  "3966": "ෂ්ට",
  "3967": "▁බැංකු",
  "3968": "▁උන්ට",
  "3969": "eather",
  "3970": "සය",
  "3971": "මැති",
  "3972": "▁කව්ද",
  "3973": "▁බෙහෙ",
  "3974": "▁අතා",
  "3975": "▁නොවේ",
  "3976": "ර්ත",
  "3977": "▁නැගිටින්න",
  "3978": "▁කාටද",
  "3979": "▁කරමින්",
  "3980": "▁ලගට",
  "3981": "යක්ද",
  "3982": "▁එකා",
  "3983": "▁තර්ජ",
  "3984": "ද්දක්",
  "3985": "වීමට",
  "3986": "▁th",
  "3987": "මද",
  "3988": "▁ගමන",
  "3989": "▁තිබුණා",
  "3990": "▁වුණ",
  "3991": "▁වරෙන්",
  "3992": "▁මූණ",
  "3993": "තට",
  "3994": "▁දැනට",
  "3995": "▁දුක්",
  "3996": "යාගේ",
  "3997": "හෙන",
  "3998": "▁සිට",
  "3999": "▁කරාවි",
  "4000": "cH",
  "4001": "▁කන්",
  "4002": "කරන",
  "4003": "දිය",
  "4004": "▁ඉන්දි",
  "4005": "රික්",
  "4006": "▁ධ",
  "4007": "▁කසාද",
  "4008": "▁අගය",
  "4009": "▁ඇතුලෙ",
  "4010": "▁වෙනකම්",
  "4011": "▁මල්",
  "4012": "▁කැමතිද",
  "4013": "ත්‍රා",
  "4014": "▁හැදුවේ",
  "4015": "▁දවසේ",
  "4016": "▁චිත්‍රප",
  "4017": "පෙන්",
  "4018": "දින්",
  "4019": "▁වෛද්‍ය",
  "4020": "යිද",
  "4021": "▁අඩ",
  "4022": "▁ආස",
  "4023": "▁බබා",
  "4024": "▁තුවාල",
  "4025": "සුම",
  "4026": "වේශ",
  "4027": "▁දවසක",
  "4028": "▁ඔයාලගෙ",
  "4029": "▁කෙනෙක්ව",
  "4030": "▁නිව්",
  "4031": "▁ඔයාටත්",
  "4032": "▁අතාරි",
  "4033": "▁ගනු",
  "4034": "▁පිටු",
  "4035": "කාරී",
  "4036": "▁දැක්කේ",
  "4037": "වුර",
  "4038": "▁උතුමා",
  "4039": "කමක්",
  "4040": "▁ස්වා",
  "4041": "▁බහි",
  "4042": "▁අවස්ථාව",
  "4043": "▁තරුණ",
  "4044": "▁ආරක්ෂිත",
  "4045": "වීම්",
  "4046": "▁මාර්ග",
  "4047": "▁ගත්",
  "4048": "▁උඹව",
  "4049": "▁19",
  "4050": "▁ඔට්ටු",
  "4051": "▁පහලට",
  "4052": "▁වැරදියි",
  "4053": "පිය",
  "4054": "ව්වේ",
  "4055": "▁එකඟ",
  "4056": "▁ඇයගේ",
  "4057": "කරණය",
  "4058": "▁කිරීමක්",
  "4059": "ල්ලේ",
  "4060": "▁වචන",
  "4061": "▁පේන්නෙ",
  "4062": "▁නිර්මාණය",
  "4063": "තම",
  "4064": "▁ස්ටී",
  "4065": "▁නිදාගන්න",
  "4066": "▁මුදල්",
  "4067": "▁මිනිසුන්",
  "4068": "▁මායා",
  "4069": "▁මේව",
  "4070": "▁බැරිද",
  "4071": "▁කවද",
  "4072": "▁එකි",
  "4073": "▁සංඥා",
  "4074": "▁හැදුවා",
  "4075": "▁පලවෙනි",
  "4076": "▁සතුටින්",
  "4077": "▁පුද්ගල",
  "4078": "▁ක්‍රියාත්මක",
  "4079": "▁විදිය",
  "4080": "ate",
  "4081": "▁ගොඩනැගි",
  "4082": "▁ගණු",
  "4083": "▁මුලු",
  "4084": "▁ලොක්කා",
  "4085": "▁එහි",
  "4086": "▁ඉතිරි",
  "4087": "▁නගරය",
  "4088": "▁කරන්",
  "4089": "▁මේකේ",
  "4090": "▁රෝහ",
  "4091": "▁@",
  "4092": "▁හම්බෙ",
  "4093": "ල්ට්",
  "4094": "▁හඳු",
  "4095": "▁එතනට",
  "4096": "▁අනික්",
  "4097": "▁අන්තිමට",
  "4098": "▁ආත්ම",
  "4099": "▁හදලා",
  "4100": "▁දකුණු",
  "4101": "▁මයික්",
  "4102": "▁කැමරා",
  "4103": "ඔබ",
  "4104": "▁[",
  "4105": "ත්ති",
  "4106": "▁යනවද",
  "4107": "බඳ",
  "4108": "▁නිශ්",
  "4109": "▁ලී",
  "4110": "▁දම",
  "4111": "▁නිතරම",
  "4112": "▁ගනි",
  "4113": "▁යොමු",
  "4114": "▁අතේ",
  "4115": "▁දන්නවනෙ",
  "4116": "▁අවං",
  "4117": "ක්කම",
  "4118": "▁නිසයි",
  "4119": "දෙනා",
  "4120": "▁හැර",
  "4121": "▁කෙනෙ",
  "4122": "▁වටිනා",
  "4123": "ගමු",
  "4124": "▁ගැලපෙ",
  "4125": "▁‍ක‍",
  "4126": "ක්‍රම",
  "4127": "os",
  "4128": "▁මිනිහෝ",
  "4129": "▁අතට",
  "4130": "රුනි",
  "4131": "▁මරණය",
  "4132": "▁ඉන්",
  "4133": "▁ජනා",
  "4134": "න්දර",
  "4135": "සික",
  "4136": "▁කළු",
  "4137": "▁මැරුවා",
  "4138": "▁ෆ",
  "4139": "▁සුපිරි",
  "4140": "▁බූ",
  "4141": "කුයි",
  "4142": "▁100",
  "4143": "▁ඔහ්හ්",
  "4144": "ඩංගුවට",
  "4145": "▁වං",
  "4146": "▁වාහනේ",
  "4147": "▁පාස",
  "4148": "▁උඹලා",
  "4149": "▁භයානක",
  "4150": "ගත්තෙ",
  "4151": "ඔහු",
  "4152": "▁ඉවරයක්",
  "4153": "▁සාදර",
  "4154": "▁සප",
  "4155": "▁අති",
  "4156": "▁වේලා",
  "4157": "▁උදෑසනක්",
  "4158": "ඟට",
  "4159": "▁තේරුණා",
  "4160": "▁සම්පූර්ණයෙන්ම",
  "4161": "දායක",
  "4162": "හන",
  "4163": "මස්",
  "4164": "▁දෙපා",
  "4165": "▁රෑට",
  "4166": "▁අස්",
  "4167": "▁ඇඳුම්",
  "4168": "▁පවුලේ",
  "4169": "▁තමන්ගේ",
  "4170": "▁Can",
  "4171": "▁වීම",
  "4172": "▁ටයි",
  "4173": "▁පෞ",
  "4174": "ද්දේ",
  "4175": "▁කරදරයක්",
  "4176": "ග්‍රහ",
  "4177": "▁නිදහ",
  "4178": "▁ලබ",
  "4179": "▁වෙනත්",
  "4180": "▁ප්‍රේ",
  "4181": "▁තැනක",
  "4182": "දීම",
  "4183": "▁තරහ",
  "4184": "▁උණු",
  "4185": "ada",
  "4186": "▁පිරිසිදු",
  "4187": "වමනා",
  "4188": "▁මැරි",
  "4189": "▁කැර",
  "4190": "▁තියේ",
  "4191": "ම්ම",
  "4192": "▁වැර",
  "4193": "▁පෙම්ව",
  "4194": "▁හේතුවක්",
  "4195": "වුන",
  "4196": "▁ඔලුව",
  "4197": "▁සෑම",
  "4198": "▁ඉප",
  "4199": "විතා",
  "4200": "යිල්",
  "4201": "▁ගාවට",
  "4202": "▁ලං",
  "4203": "▁හිරේ",
  "4204": "▁නමක්",
  "4205": "▁තහවුරු",
  "4206": "වුණා",
  "4207": "▁මහත්ව",
  "4208": "▁සෑහෙන්න",
  "4209": "▁උදා",
  "4210": "▁ව්‍යාපෘ",
  "4211": "▁මතකයි",
  "4212": "නවට",
  "4213": "න්ඩර්",
  "4214": "▁සාදරයෙන්",
  "4215": "▁ඒකි",
  "4216": "පිටින්",
  "4217": "▁මොකෝ",
  "4218": "හින්",
  "4219": "▁ජෝන්",
  "4220": "▁තාත්තට",
  "4221": "▁බෑග්",
  "4222": "ණ්ඩු",
  "4223": "▁{",
  "4224": "▁ඔහෙ",
  "4225": "▁වනේන",
  "4226": "දයි",
  "4227": "නර්",
  "4228": "▁කිවුවා",
  "4229": "▁කෙනෙක්ට",
  "4230": "තල",
  "4231": "▁me",
  "4232": "▁ඉදිරිපත්",
  "4233": "▁ගැට",
  "4234": "ey",
  "4235": "▁යෝ",
  "4236": "▁වෙනවද",
  "4237": "ce",
  "4238": "▁පහල",
  "4239": "▁ෂි",
  "4240": "▁වැරැද්දක්",
  "4241": "omment",
  "4242": "▁පැමිණි",
  "4243": "චාර",
  "4244": "කාරයෝ",
  "4245": "▁තෑග්",
  "4246": "▁සුදුසු",
  "4247": "▁විකල්",
  "4248": "▁මොනාහරි",
  "4249": "න්ෙන",
  "4250": "▁ගණුදෙනු",
  "4251": "▁එන්",
  "4252": "▁ගල්",
  "4253": "▁එම",
  "4254": "▁කලොත්",
  "4255": "ain",
  "4256": "▁එකක",
  "4257": "▁හැමවෙ",
  "4258": "▁මරනවා",
  "4259": "▁කාර්ය",
  "4260": "▁අම්මට",
  "4261": "▁ලෝකේ",
  "4262": "▁උන්ව",
  "4263": "▁සුව",
  "4264": "චාර්ය",
  "4265": "▁තරඟ",
  "4266": "▁ක්‍රි",
  "4267": "▁ණය",
  "4268": "▁එනකම්",
  "4269": "▁ඔයාලව",
  "4270": "▁සහතික",
  "4271": "▁පහසු",
  "4272": "▁දත්ත",
  "4273": "▁වෙනකොට",
  "4274": "▁it",
  "4275": "හාර",
  "4276": "▁අදහස",
  "4277": "▁එහාට",
  "4278": "▁weather",
  "4279": "▁චැ",
  "4280": "ගන",
  "4281": "▁ඒකත්",
  "4282": "▁මචං",
  "4283": "වනි",
  "4284": "ප්‍රේ",
  "4285": "▁ළමයෙක්",
  "4286": "▁දුර්වල",
  "4287": "වන්නෙ",
  "4288": "▁වෙලාවක",
  "4289": "▁යාවි",
  "4290": "▁වගේද",
  "4291": "ir",
  "4292": "▁ගනුදෙනු",
  "4293": "▁වෘ",
  "4294": "රුනා",
  "4295": "▁වාව්",
  "4296": "▁විහිළුවක්",
  "4297": "▁නොද",
  "4298": "▁තැනකට",
  "4299": "▁ගණන්",
  "4300": "ෂණය",
  "4301": "දුන",
  "4302": "▁ඊටප",
  "4303": "▁name",
  "4304": "▁ගන්නෙ",
  "4305": "ගල",
  "4306": "▁උපරි",
  "4307": "▁ගෙවන්න",
  "4308": "▁දැක",
  "4309": "▁ගාන",
  "4310": "▁සහා",
  "4311": "Comment",
  "4312": "▁වයස",
  "4313": "▁ආරක්ෂාව",
  "4314": "▁සද්ද",
  "4315": "ගත්තොත්",
  "4316": "▁සහිත",
  "4317": "බඩා",
  "4318": "▁අකු",
  "4319": "▁ඇත්තේ",
  "4320": "▁පළවෙනි",
  "4321": "ag",
  "4322": "කේස්",
  "4323": "▁එකිනෙ",
  "4324": "▁කල්ප",
  "4325": "කඩ",
  "4326": "▁හැමවෙලේම",
  "4327": "රණයක්",
  "4328": "▁ආච්චි",
  "4329": "▁ජනාධිපති",
  "4330": "▁සෑහෙන",
  "4331": "▁කියවන්න",
  "4332": "▁දෙනා",
  "4333": "▁අහලා",
  "4334": "▁පුතේ",
  "4335": "▁ඇත්තම",
  "4336": "▁චී",
  "4337": "ට්ස්",
  "4338": "▁කාර්යා",
  "4339": "▁සමාග",
  "4340": "දෙන",
  "4341": "▁ඈත්",
  "4342": "▁හදන",
  "4343": "ast",
  "4344": "ත්තක්",
  "4345": "▁ලමයි",
  "4346": "▁ගත්තෙ",
  "4347": "▁සැලැස්ම",
  "4348": "නවත්",
  "4349": "▁වටේ",
  "4350": "▁මහන්සි",
  "4351": "▁විශි",
  "4352": "▁පෙළ",
  "4353": "▁එක්කෙනෙක්",
  "4354": "▁තමුසෙට",
  "4355": "▁බැල්ලි",
  "4356": "▁200",
  "4357": "▁ඔබලා",
  "4358": "▁නඩු",
  "4359": "▁බැලුවා",
  "4360": "▁ලූ",
  "4361": "කින්ම",
  "4362": "▁පොත",
  "4363": "▁මෙයාට",
  "4364": "▁ජු",
  "4365": "▁අරමු",
  "4366": "▁පිරිමි",
  "4367": "▁නැවතත්",
  "4368": "නයෙන්",
  "4369": "▁50",
  "4370": "▁හමුවෙන්න",
  "4371": "වැනි",
  "4372": "▁පිටිපස්සෙ",
  "4373": "▁වර්ග",
  "4374": "▁ගනී",
  "4375": "දෙනවා",
  "4376": "▁අතුරුදහන්",
  "4377": "දිම",
  "4378": "▁හොදටම",
  "4379": "▁පැතුම්",
  "4380": "▁නිව",
  "4381": "▁ඇහෙනවද",
  "4382": "▁ෆෙ",
  "4383": "ස්මක්",
  "4384": "▁ආපසු",
  "4385": "▁Canada",
  "4386": "▁එනවද",
  "4387": "▁ටෝ",
  "4388": "▁නෝනා",
  "4389": "▁කිවුවේ",
  "4390": "නෙන්",
  "4391": "▁ගබඩා",
  "4392": "▁ෆො",
  "4393": "ගැනීම",
  "4394": "▁ලැජ්",
  "4395": "ලියා",
  "4396": "▁වශයෙන්",
  "4397": "▁නැතිනම්",
  "4398": "▁ඩ්‍",
  "4399": "ගෙම",
  "4400": "▁උපා",
  "4401": "▁වෙනුවට",
  "4402": "▁ආය",
  "4403": "▁is",
  "4404": "▁කලි",
  "4405": "▁ඇතුල",
  "4406": "▁අහන්නේ",
  "4407": "සත්",
  "4408": "▁වස්තුවේ",
  "4409": "..\"",
  "4410": "▁නවත්ව",
  "4411": "▁දෙනවද",
  "4412": "▁එල්ල",
  "4413": "බර",
  "4414": "▁ප්‍රශ්ණ",
  "4415": "▁හැඟී",
  "4416": "වන්ට",
  "4417": "▁මැරුණා",
  "4418": "සම",
  "4419": "▁යතුරු",
  "4420": "▁ෙහා",
  "4421": "▁හිතේ",
  "4422": "ල්ඩ්",
  "4423": "▁සීමා",
  "4424": "▁මල",
  "4425": "▁අයව",
  "4426": "▁ඇල්",
  "4427": "ර්ථක",
  "4428": "පුරු",
  "4429": "නුම්",
  "4430": "දෙනෙක්",
  "4431": "▁මහත්මිය",
  "4432": "id",
  "4433": "දයක්",
  "4434": "▁කුමක්",
  "4435": "ඩර්",
  "4436": "▁කුඩා",
  "4437": "▁චාර්ලි",
  "4438": "▁ඔක්කම",
  "4439": "▁මඟ",
  "4440": "▁පැත්තකට",
  "4441": "▁ම්",
  "4442": "▁පෙනෙ",
  "4443": "▁ප්‍රශ්නේ",
  "4444": "▁කරන්නයි",
  "4445": "▁බබෝ",
  "4446": "▁උබේ",
  "4447": "▁අට",
  "4448": "▁සිර",
  "4449": "ණට",
  "4450": "යේදී",
  "4451": "▁උසස්",
  "4452": "▁සම්පු",
  "4453": "▁ඔවු",
  "4454": "▁හිතලා",
  "4455": "▁ගිවි",
  "4456": "▁පවති",
  "4457": "රන්න",
  "4458": "▁අයිස්",
  "4459": "▁හාද",
  "4460": "▁කෙලින්ම",
  "4461": "▁ගමු",
  "4462": "ඩම්බ",
  "4463": "▁දන්",
  "4464": "▁හොයාගත්ත",
  "4465": "▁මුලින්",
  "4466": "ද්ගලික",
  "4467": "▁වැඩකට",
  "4468": "දිනවා",
  "4469": "සියා",
  "4470": "ජර්",
  "4471": "▁වෙනි",
  "4472": "පල",
  "4473": "▁පෘ",
  "4474": "▁ඇලෙක්ස්",
  "4475": "▁පහක්",
  "4476": "ගනී",
  "4477": "▁යානය",
  "4478": "▁r",
  "4479": "කිරී",
  "4480": "▁පීටර්",
  "4481": "▁කියන්නද",
  "4482": "මිනි",
  "4483": "▁කරුණාකරල",
  "4484": "st",
  "4485": "▁ස්තූති",
  "4486": "▁ඔහේට",
  "4487": "▁දාගෙන",
  "4488": "න්ගෙ",
  "4489": "em",
  "4490": "▁ලැබෙන",
  "4491": "▁අහකට",
  "4492": "od",
  "4493": "▁Y",
  "4494": "▁ඝා",
  "4495": "▁වසර",
  "4496": "▁එහ",
  "4497": "නකයි",
  "4498": "සල",
  "4499": "නුවා",
  "4500": "ලියට",
  "4501": "▁නයි",
  "4502": "▁Ch",
  "4503": "▁චෝ",
  "4504": "▁සලකුණු",
  "4505": "ගොල්ලෝ",
  "4506": "▁තිබුනෙ",
  "4507": "ස්සෙම",
  "4508": "▁ඔත්තු",
  "4509": "▁ස්ථානය",
  "4510": "රෑන්ක්",
  "4511": "um",
  "4512": "ටික",
  "4513": "▁ඌට",
  "4514": "▁බෙහෙත්",
  "4515": "තයක්",
  "4516": "▁පේනවද",
  "4517": "▁මාළු",
  "4518": "▁දැනන්",
  "4519": "▁ඉස්සරහට",
  "4520": "▁ආඩම්බ",
  "4521": "▁දාගන්න",
  "4522": "▁ලින්",
  "4523": "කීම",
  "4524": "▁ටී",
  "4525": "▁විම",
  "4526": "▁අනිවාර්යෙන්ම",
  "4527": "ගණ",
  "4528": "නික",
  "4529": "▁නිසැ",
  "4530": "▁අර්",
  "4531": "රක්‍",
  "4532": "▁හෝට",
  "4533": "▁ෂෝ",
  "4534": "දම්",
  "4535": "හසු",
  "4536": "▁කල්පනා",
  "4537": "ණක්",
  "4538": "▁ළමයා",
  "4539": "▁ඇප",
  "4540": "වෙමු",
  "4541": "▁බ්‍ර",
  "4542": "▁/",
  "4543": "ew",
  "4544": "▁අනතුරක්",
  "4545": "ජ්‍ය",
  "4546": "තුරේ",
  "4547": "▁කඳු",
  "4548": "ල්ෆ්",
  "4549": "▁මැරෙනවා",
  "4550": "▁ඒකා",
  "4551": "▁විස්වාස",
  "4552": "▁පැර",
  "4553": "▁වැටිලා",
  "4554": "▁හානි",
  "4555": "▁කවද්ද",
  "4556": "ක්ද",
  "4557": "▁කිහිපයක්",
  "4558": "ent",
  "4559": "▁අවි",
  "4560": "▁ඩෝ",
  "4561": "▁සහෝද",
  "4562": "▁දුන්",
  "4563": "▁පහත්",
  "4564": "▁පෙන්ව",
  "4565": "pp",
  "4566": "▁කිට්",
  "4567": "පියන්",
  "4568": "▁බලන්නම්",
  "4569": "▁බයි",
  "4570": "▁පටි",
  "4571": "පස",
  "4572": "ජය",
  "4573": "▁දඩය",
  "4574": "▁හරිය",
  "4575": "▁කණ්ඩායමක්",
  "4576": "ලිස්",
  "4577": "▁ලුහු",
  "4578": "▁නිවා",
  "4579": "▁විකුණ",
  "4580": "ction",
  "4581": "▁සුළු",
  "4582": "ර්ට්",
  "4583": "▁ලැබෙනවා",
  "4584": "▁මගුල",
  "4585": "ච්චා",
  "4586": "▁වෙනසක්",
  "4587": "▁අන්තිමේ",
  "4588": "කින්න",
  "4589": "▁හහ්",
  "4590": "රික",
  "4591": "ලම",
  "4592": "▁විනාඩියක්",
  "4593": "▁මදි",
  "4594": "▁පරිස්සම්",
  "4595": "▁අදා",
  "4596": "ස්තියි",
  "4597": "▁පට",
  "4598": "නේන",
  "4599": "▁මෙහෙයුම",
  "4600": "▁මිනිහව",
  "4601": "▁මරා",
  "4602": "තාවය",
  "4603": "▁ඒකනම්",
  "4604": "▁බයයි",
  "4605": "▁නගින්න",
  "4606": "▁අතින්",
  "4607": "වලින්",
  "4608": "▁හ්ම්ම්",
  "4609": "▁ශක්තිය",
  "4610": "▁හිතන්",
  "4611": "▁හැක",
  "4612": "▁රථ",
  "4613": "▁මේකෙ",
  "4614": "▁con",
  "4615": "▁නිසාද",
  "4616": "මැරු",
  "4617": "▁සංසුන්",
  "4618": "▁ඇහුම්",
  "4619": "▁ග්‍රේ",
  "4620": "▁අයියේ",
  "4621": "▁කරුනා",
  "4622": "▁තාක්ෂ",
  "4623": "▁දැං",
  "4624": "▁සියළුම",
  "4625": "▁කෙටි",
  "4626": "▁ප්‍රදේශ",
  "4627": "▁පොලිසිය",
  "4628": "▁ලක්",
  "4629": "ෂිතයි",
  "4630": "▁‍ම‍",
  "4631": "▁අනිවාර්ය",
  "4632": "▁බස්",
  "4633": "▁අනතුර",
  "4634": "▁මාර",
  "4635": "▁පිපි",
  "4636": "BI",
  "4637": "▁ඇල",
  "4638": "න්ඩි",
  "4639": "ණිය",
  "4640": "▁උපකරණ",
  "4641": "▁අතී",
  "4642": "ist",
  "4643": "ak",
  "4644": "▁විශ්වාසය",
  "4645": "ජන්",
  "4646": "ලවන්න",
  "4647": "if",
  "4648": "▁ලෝකයේ",
  "4649": "oc",
  "4650": "▁ස්තුති",
  "4651": "▁ඔච්චර",
  "4652": "▁අශ්",
  "4653": "▁වෙයිද",
  "4654": "▁සමු",
  "4655": "▁රජු",
  "4656": "▁කෝපි",
  "4657": "▁පරික්ෂා",
  "4658": "තල්",
  "4659": "▁එක්කන්",
  "4660": "රොන්",
  "4661": "▁කිහිප",
  "4662": "▁හැරී",
  "4663": "▁තිබ්බෙ",
  "4664": "▁ක්‍රමයක්",
  "4665": "▁කියලයි",
  "4666": "▁‍එ‍",
  "4667": "▁ෂ",
  "4668": "▁අත්අ",
  "4669": "▁මිස්",
  "4670": "▁V",
  "4671": "හැර",
  "4672": "▁ත්‍ර",
  "4673": "ක්කු",
  "4674": "▁රස්සාව",
  "4675": "▁බ්‍රි",
  "4676": "▁බලන්නේ",
  "4677": "▁කාරයෙක්",
  "4678": "ලට්",
  "4679": "▁ළමය",
  "4680": "වික",
  "4681": "▁සපත්තු",
  "4682": "▁උපන්දි",
  "4683": "▁පරීක්ෂණ",
  "4684": "▁යකෝ",
  "4685": "කරුවන්",
  "4686": "දාන",
  "4687": "මෙට",
  "4688": "▁ඔර",
  "4689": "මියා",
  "4690": "ll",
  "4691": "ig",
  "4692": "▁ප්‍රශ්නෙ",
  "4693": "මික",
  "4694": "▁කරන්නත්",
  "4695": "ගනින්",
  "4696": "▁ශු",
  "4697": "▁ඊලග",
  "4698": "▁ගෑණු",
  "4699": "▁යතුර",
  "4700": "ක්ම",
  "4701": "▁ආර්",
  "4702": "දින",
  "4703": "▁මාර්ගය",
  "4704": "▁භාවිතා",
  "4705": "▁ප්‍රසි",
  "4706": "▁අහ්හ්",
  "4707": "▁යොදා",
  "4708": "▁කාව",
  "4709": "▁දැනෙන්නේ",
  "4710": "ill",
  "4711": "විල්",
  "4712": "▁ලැබී",
  "4713": "▁කුණු",
  "4714": "▁කලාද",
  "4715": "▁on",
  "4716": "▁මෘ",
  "4717": "▁කියනවද",
  "4718": "▁පවා",
  "4719": "▁අල්ලගෙන",
  "4720": "▁අවධානය",
  "4721": "මේන්",
  "4722": "▁පිටත්",
  "4723": "▁මොකක්හරි",
  "4724": "▁බිල්",
  "4725": "තියට",
  "4726": "▁පුපුර",
  "4727": "▁හිතෙනවා",
  "4728": "▁තල්ලු",
  "4729": "▁සිද්ධි",
  "4730": "▁එයාලගෙ",
  "4731": "▁පෞද්ගලික",
  "4732": "▁මැද",
  "4733": "යද",
  "4734": "▁ඊයෙ",
  "4735": "▁නිල්",
  "4736": "ව්ව",
  "4737": "නට්",
  "4738": "▁හොර",
  "4739": "op",
  "4740": "▁යහ",
  "4741": "▁කවුළු",
  "4742": "▁මේකයි",
  "4743": "▁මැර",
  "4744": "▁සියලුම",
  "4745": "▁පණපිටින්",
  "4746": "ess",
  "4747": "ට්ටම",
  "4748": "▁පණිවිඩය",
  "4749": "ත්තුව",
  "4750": "ඩිය",
  "4751": "▁වාර්ථා",
  "4752": "▁මෑ",
  "4753": "▁එක්කගෙන",
  "4754": "▁වේවා",
  "4755": "හට",
  "4756": "▁පිළිගන්නවා",
  "4757": "නේන",
  "4758": "▁ආවරණය",
  "4759": "▁ජෙනී",
  "4760": "▁දෛ",
  "4761": "▁බේරා",
  "4762": "▁කාමරය",
  "4763": "නීප",
  "4764": "▁අහනවා",
  "4765": "▁නැවැ",
  "4766": "▁දකින",
  "4767": "▁හදපු",
  "4768": "වුල්",
  "4769": "▁මෝඩයෙක්",
  "4770": "?\"",
  "4771": "▁කිව්වද",
  "4772": "▁)",
  "4773": "▁සම්පුර්ණ",
  "4774": "ගර්",
  "4775": "▁පිලිගන්නවා",
  "4776": "▁ලඟට",
  "4777": "▁අවුල",
  "4778": "▁කරවන්න",
  "4779": "▁වොට්",
  "4780": "▁බලන",
  "4781": "ගැන",
  "4782": "▁කාලෙකට",
  "4783": "කරල",
  "4784": "▁කොල්ලෙක්",
  "4785": "▁බලලා",
  "4786": "▁නගරයේ",
  "4787": "▁දේම",
  "4788": "යුම්",
  "4789": "▁ගියාම",
  "4790": "▁පුද්ගලික",
  "4791": "▁අඟ",
  "4792": "▁හම්බවෙන්න",
  "4793": "▁කිරීමේ",
  "4794": "▁වතාවක්",
  "4795": "▁දෙකකට",
  "4796": "▁ගහනවා",
  "4797": "▁මෙක",
  "4798": "බ්ද",
  "4799": "ශ්‍ය",
  "4800": "▁ගෙන්න",
  "4801": "▁තත්පර",
  "4802": "ers",
  "4803": "▁දෙම",
  "4804": "▁සම්බන්ද",
  "4805": "▁සිරු",
  "4806": "▁ගෑනු",
  "4807": "▁ඕනෑම",
  "4808": "රියන්",
  "4809": "▁අවස්",
  "4810": "▁අභ්‍",
  "4811": "▁දරුවා",
  "4812": "▁දෝ",
  "4813": "▁{\\",
  "4814": "▁කොහොමත්",
  "4815": "▁පැති",
  "4816": "▁කුමා",
  "4817": "▁එවා",
  "4818": "▁නාස්ති",
  "4819": "▁ආලෝ",
  "4820": "▁රී",
  "4821": "▁රයි",
  "4822": "▁දෙකයි",
  "4823": "▁ඔයාම",
  "4824": "▁දේට",
  "4825": "▁පරිවර්",
  "4826": "▁අපා",
  "4827": "▁තාත්තෙ",
  "4828": "▁FBI",
  "4829": "ලොක්",
  "4830": "▁බැට",
  "4831": "▁ඇඟි",
  "4832": "▁හිමි",
  "4833": "▁ලෑස්තිද",
  "4834": "▁එකකට",
  "4835": "▁ආවොත්",
  "4836": "▁ටොම්",
  "4837": "වැසි",
  "4838": "▁දුක",
  "4839": "▁ප්‍රධා",
  "4840": "▁ගැහැණු",
  "4841": "▁යාලුවෙක්",
  "4842": "▁ලැයි",
  "4843": "කස්",
  "4844": "▁තේරෙන්නෙ",
  "4845": "▁සිටින",
  "4846": "qu",
  "4847": "▁සිටිනවා",
  "4848": "▁වචනයක්",
  "4849": "▁පුර",
  "4850": "▁උපරිම",
  "4851": "▁ෂෙ",
  "4852": "▁ගැන්",
  "4853": "art",
  "4854": "▁බඩගි",
  "4855": "▁මස්",
  "4856": "▁ප්‍රහා",
  "4857": "▁ප්‍රකාශ",
  "4858": "මකට",
  "4859": "▁මාන",
  "4860": "▁මතු",
  "4861": "▁අංකය",
  "4862": "ch",
  "4863": "▁පද්ධතිය",
  "4864": "යුණු",
  "4865": "▁යෝජ",
  "4866": "▁නිකම්ම",
  "4867": "එහෙ",
  "4868": "▁ලොක්",
  "4869": "▁11",
  "4870": "▁ඊළඟ",
  "4871": "▁දෙවෙනි",
  "4872": "nd",
  "4873": "▁බට",
  "4874": "▁හැකියාව",
  "4875": "▁ගෙන්",
  "4876": "▁අධ්‍",
  "4877": "▁ඩා",
  "4878": "▁ගැහුවා",
  "4879": "▁ට්‍රක්",
  "4880": "▁මචෝ",
  "4881": "▁ත්‍රස්ත",
  "4882": "▁ඇට",
  "4883": "▁මාමා",
  "4884": "▁වීඩියෝ",
  "4885": "▁පේන්න",
  "4886": "▁ඉතිහා",
  "4887": "▁ලකේස්",
  "4888": "▁ව්‍යාපා",
  "4889": "▁ගමේ",
  "4890": "▁කිව්වනේ",
  "4891": "dit",
  "4892": "▁තේරුනාද",
  "4893": "බෝවන්",
  "4894": "▁හොයනවා",
  "4895": "▁දෙය",
  "4896": "▁මයිල්ස්",
  "4897": "තුන්",
  "4898": "▁මනුස්සයෙක්",
  "4899": "▁සාම",
  "4900": "▁නිසැකවම",
  "4901": "▁කෙල",
  "4902": "ex",
  "4903": "ටියට",
  "4904": "▁ප්‍රශ්නය",
  "4905": "වීමේ",
  "4906": "▁ඩී",
  "4907": "▁ෆේ",
  "4908": "▁ඇදලා",
  "4909": "▁ඇහුම්කන්",
  "4910": "▁උඩින්",
  "4911": "▁පසුව",
  "4912": "▁යන්ත්‍ර",
  "4913": "▁මෝඩයා",
  "4914": "▁එයාගෙන්",
  "4915": "ee",
  "4916": "▁0",
  "4917": "▁හමුදාව",
  "4918": "▁පිළිබඳ",
  "4919": "රොත්",
  "4920": "රංග",
  "4921": "▁විදියක්",
  "4922": "ල්ම",
  "4923": "▁ඇවිද",
  "4924": "▁තිෙ",
  "4925": "▁අත්සන්",
  "4926": "▁මිනීම",
  "4927": "▁පරිගණ",
  "4928": "▁ගැනීම",
  "4929": "විඩ්",
  "4930": "වනේන",
  "4931": "▁මිනිස්",
  "4932": "රයෙන්",
  "4933": "▁සත්‍ය",
  "4934": "▁මිත්‍ර",
  "4935": "▁මුහුදු",
  "4936": "▁අකුරු",
  "4937": "▁ගම",
  "4938": "▁දැක්කෙ",
  "4939": "හැකි",
  "4940": "▁කාර්‍",
  "4941": "▁—",
  "4942": "ගනේ",
  "4943": "▁විධි",
  "4944": "යනවා",
  "4945": "▁අද්",
  "4946": "▁ප්ල",
  "4947": "▁නොහැක",
  "4948": "▁තුවක්කුවක්",
  "4949": "▁පනින්න",
  "4950": "sl",
  "4951": "▁අක",
  "4952": "▁හ්ම්",
  "4953": "▁දකුණ",
  "4954": "▁වැඩිපුර",
  "4955": "▁දෙනව",
  "4956": "නැති",
  "4957": "▁ලබාගන්න",
  "4958": "▁කීපයක්",
  "4959": "▁ගත්තොත්",
  "4960": "▁කාන්තා",
  "4961": "ඩියා",
  "4962": "▁ප්‍රමාණ",
  "4963": "▁එහෙට",
  "4964": "▁ඉර",
  "4965": "තුමනි",
  "4966": "රස්",
  "4967": "යත්",
  "4968": "▁කටයුතු",
  "4969": "\".",
  "4970": "ත්‍යා",
  "4971": "▁එළ",
  "4972": "▁තියනේ",
  "4973": "ගැන්",
  "4974": "යන්ගේ",
  "4975": "▁නිළ",
  "4976": "▁බර්",
  "4977": "▁වස",
  "4978": "▁දැකල",
  "4979": "▁ගැනීමට",
  "4980": "▁පොලිසියට",
  "4981": "▁දුම්රිය",
  "4982": "ලාව",
  "4983": "im",
  "4984": "පද",
  "4985": "▁උගු",
  "4986": "▁මිනිසා",
  "4987": "▁ඉල්ලු",
  "4988": "▁ඇමරිකානු",
  "4989": "▁වුණත්",
  "4990": "▁ස්වයං",
  "4991": "▁පලයන්",
  "4992": "▁එකෙ",
  "4993": "▁ශරී",
  "4994": "▁විල්",
  "4995": "all",
  "4996": "▁දෙවියන්ට",
  "4997": "▁බාධා",
  "4998": "▁ඔයාද",
  "4999": "▁ආරක්ෂිතයි",
  "5000": "කරගන්න",
  "5001": "▁අත්අඩංගුවට",
  "5002": "▁කෑලි",
  "5003": "▁කියපන්",
  "5004": "▁වෙනකන්",
  "5005": "ටාර්",
  "5006": "රෙනවා",
  "5007": "▁මිල",
  "5008": "▁දක්වා",
  "5009": "නික්",
  "5010": "▁දුන්නෙ",
  "5011": "▁කීප",
  "5012": "ණික",
  "5013": "▁උනාට",
  "5014": "▁පරීක්ෂක",
  "5015": "▁අදින්න",
  "5016": "ev",
  "5017": "):",
  "5018": "▁ඇනා",
  "5019": "▁ඉක්මනටම",
  "5020": "▁එකිනෙකා",
  "5021": "▁බෙන්",
  "5022": "හක්",
  "5023": "මොකද",
  "5024": "▁ජේම්ස්",
  "5025": "▁වොට්සන්",
  "5026": "▁ලක්ෂ",
  "5027": "▁භාෂා",
  "5028": "කාරි",
  "5029": "▁මාගේ",
  "5030": "▁බොත්ත",
  "5031": "▁KD",
  "5032": "ශක",
  "5033": "▁කූපර්",
  "5034": "▁මෙතැන",
  "5035": "▁පොත්",
  "5036": "▁ලිපිනය",
  "5037": "▁පාරෙන්",
  "5038": "▁කෝච්චි",
  "5039": "▁ගෙනත්",
  "5040": "▁ආරක්‍",
  "5041": "ෂණ",
  "5042": "▁13",
  "5043": "ount",
  "5044": "ල්ලී",
  "5045": "▁ගත්තද",
  "5046": "▁කඳ",
  "5047": "▁ඇමතු",
  "5048": "▁v",
  "5049": "▁පවත්",
  "5050": "දන්න",
  "5051": "වහ",
  "5052": "ලෙක්",
  "5053": "▁සැප",
  "5054": "▁ජේක්",
  "5055": "රීසි",
  "5056": "▁සක්‍රීය",
  "5057": "▁සලක",
  "5058": "▁නෑනෙ",
  "5059": "▁තබා",
  "5060": "▁මිනිහට",
  "5061": "▁මුල",
  "5062": "▁වාහන",
  "5063": "▁අපහසු",
  "5064": "▁ප්‍රයෝජ",
  "5065": "▁ස්ථාන",
  "5066": "▁අතරේ",
  "5067": "බිය",
  "5068": "සුව",
  "5069": "දන",
  "5070": "තන්න",
  "5071": "▁විදිහක්",
  "5072": "▁සංගී",
  "5073": "▁කාරණා",
  "5074": "▁ar",
  "5075": "▁කකුල",
  "5076": "▁සාධා",
  "5077": "▁ජෙන",
  "5078": "▁සටහන්",
  "5079": "▁මගින්",
  "5080": "කරා",
  "5081": "▁භාර",
  "5082": "ඩුවක්",
  "5083": "▁දේව",
  "5084": "▁පලා",
  "5085": "cHFF",
  "5086": "▁එකද",
  "5087": "රුවෙක්",
  "5088": "▁බෙදා",
  "5089": "ළින්",
  "5090": "▁හිතාගෙන",
  "5091": "වේදී",
  "5092": "▁ගනන්",
  "5093": "ශය",
  "5094": "▁සිංහ",
  "5095": "▁පෑ",
  "5096": "▁උණ්ඩ",
  "5097": "පතේ",
  "5098": "▁ලෑස්තියි",
  "5099": "▁ක්ලෙ",
  "5100": "▁බරපත",
  "5101": "▁පිවි",
  "5102": "▁අවාස",
  "5103": "▁මැදි",
  "5104": "av",
  "5105": "ටෙන්",
  "5106": "▁වැඩට",
  "5107": "▁වැසි",
  "5108": "▁කණ්ඩායමේ",
  "5109": "▁ක්‍රීඩා",
  "5110": "▁යාළුවො",
  "5111": "▁සැන්",
  "5112": "▁තුළ",
  "5113": "▁උපසි",
  "5114": "▁අහිං",
  "5115": "වාදී",
  "5116": "▁තිස්සේ",
  "5117": "▁මල්ලි",
  "5118": "pe",
  "5119": "පාට",
  "5120": "▁රැකි",
  "5121": "▁දූපත",
  "5122": "▁ප්‍රවේශ",
  "5123": "▁භයානකයි",
  "5124": "ub",
  "5125": "▁බල්ලෙක්",
  "5126": "ගෙයි",
  "5127": "▁ඉව",
  "5128": "▁හොයලා",
  "5129": "▁වනෙ",
  "5130": "▁යුධ",
  "5131": "▁අනුමාන",
  "5132": "▁උවමනා",
  "5133": "ව්වෙ",
  "5134": "▁අතාරින්න",
  "5135": "▁හැරෙන්න",
  "5136": "▁සිතිය",
  "5137": "▁25",
  "5138": "▁සුදානම්",
  "5139": "▁මාමේ",
  "5140": "රියට",
  "5141": "▁ක්‍රිස්",
  "5142": "▁නැහැනේ",
  "5143": "ගන්නා",
  "5144": "යිඩ්",
  "5145": "▁පිළිගන්න",
  "5146": "▁තිබිලා",
  "5147": "▁ඉන්නකොට",
  "5148": "▁මුණගැහෙන්න",
  "5149": "▁ග්",
  "5150": "▁පැනල",
  "5151": "▁රැස්",
  "5152": "යෙදි",
  "5153": "රෙහි",
  "5154": "▁ලිං",
  "5155": "▁යටත්",
  "5156": "▁රාජකාරිය",
  "5157": "▁ගරු",
  "5158": "▁ආසා",
  "5159": "▁මූල",
  "5160": "▁අහගන්න",
  "5161": "▁දැනුම්",
  "5162": "▁එඩ්",
  "5163": "▁යන්නද",
  "5164": "▁මඟුලක්ද",
  "5165": "▁බිඳ",
  "5166": "▁ගානේ",
  "5167": "වේවි",
  "5168": "▁සැලකි",
  "5169": "▁ඵ",
  "5170": "▁උපදෙ",
  "5171": "▁ආසයි",
  "5172": "ල්ලට",
  "5173": "▁හදාගන්න",
  "5174": "▁සාර්ථක",
  "5175": "▁පහුගිය",
  "5176": "▁මිනීමැරු",
  "5177": "▁කෘ",
  "5178": "▁පින්තූර",
  "5179": "▁පිටිපස්සේ",
  "5180": "▁දිනය",
  "5181": "▁වෙලාද",
  "5182": "▁හොයන්නේ",
  "5183": "▁ඉන්නම්",
  "5184": "▁40",
  "5185": "▁re",
  "5186": "▁එළියේ",
  "5187": "▁දවල්",
  "5188": "▁පිස්සුවක්",
  "5189": "▁කිවා",
  "5190": "▁කීයක්",
  "5191": "▁ඇතුළට",
  "5192": "▁වංචා",
  "5193": "▁ඉක්මනින්ම",
  "5194": "▁හිතනව",
  "5195": "▁ඇහුවා",
  "5196": "▁පමණයි",
  "5197": "ind",
  "5198": "▁රිය",
  "5199": "▁කකුල්",
  "5200": "▁වේගය",
  "5201": "ard",
  "5202": "▁චරි",
  "5203": "▁ආයුබෝවන්",
  "5204": "▁විරුද්ධව",
  "5205": "▁චන්",
  "5206": "▁ක්ලෝ",
  "5207": "▁අශ්ව",
  "5208": "▁මිනිසු",
  "5209": "▁මර්",
  "5210": "▁කාඩ්",
  "5211": "▁මහත්වරුනි",
  "5212": "▁ගස්",
  "5213": "▁වැනි",
  "5214": "ation",
  "5215": "රට්",
  "5216": "නුව",
  "5217": "▁පෙනුම",
  "5218": "අපිට",
  "5219": "▁විනි",
  "5220": "▁පණිවිඩයක්",
  "5221": "▁අරං",
  "5222": "▁හිම",
  "5223": "▁සැබෑ",
  "5224": "▁ජිවිතේ",
  "5225": "▁මිනිස්සුන්ව",
  "5226": "▁දන්නවාද",
  "5227": "පාල",
  "5228": "ත්තර",
  "5229": "▁වුනාට",
  "5230": "රියෙක්",
  "5231": "ලික්",
  "5232": "▁දාන",
  "5233": "▁සත්තු",
  "5234": "▁හැගී",
  "5235": "වම්",
  "5236": "▁වෙන්නයි",
  "5237": "තපු",
  "5238": "▁ඇදුම්",
  "5239": "▁වහගන්න",
  "5240": "▁වහන්න",
  "5241": "▁ගහලා",
  "5242": "▁හැමති",
  "5243": "▁කරගත්තා",
  "5244": "නවනේ",
  "5245": "තැනම",
  "5246": "▁හත",
  "5247": "▁ද්‍",
  "5248": "▁අරු",
  "5249": "රාවටම",
  "5250": "ස්සට",
  "5251": "▁උසා",
  "5252": "▁සිත්",
  "5253": "▁දරා",
  "5254": "කාවක්",
  "5255": "ප්ට",
  "5256": "ගල්",
  "5257": "වෙම",
  "5258": "දනා",
  "5259": "...\"",
  "5260": "▁අහි",
  "5261": "▁කියයි",
  "5262": "▁එසේ",
  "5263": "▁වෑ",
  "5264": "ලස්",
  "5265": "▁ඇඟ",
  "5266": "▁and",
  "5267": "▁වරදක්",
  "5268": "▁මගෙත්",
  "5269": "▁අවුරුද්ද",
  "5270": "▁ලැජ්ජා",
  "5271": "ට්ටුව",
  "5272": "ry",
  "5273": "ome",
  "5274": "▁කැඩි",
  "5275": "▁හම්බුනා",
  "5276": "▁පුරාම",
  "5277": "▁ෆිල්",
  "5278": "▁චාර්",
  "5279": "හිටි",
  "5280": "ඇයි",
  "5281": "▁මූලික",
  "5282": "▁ඉංග්‍",
  "5283": "▁කරොත්",
  "5284": "▁තියනෙවා",
  "5285": "▁පමණක්",
  "5286": "▁ඉරි",
  "5287": "▁ඉන්දියා",
  "5288": "▁දය",
  "5289": "ර්ම",
  "5290": "▁ඇතුළ",
  "5291": "▁පන",
  "5292": "▁එවන්න",
  "5293": "▁කඩේ",
  "5294": "▁අනෙක්",
  "5295": "▁සත්ත",
  "5296": "▁KDE",
  "5297": "ලෝන්",
  "5298": "▁භූමි",
  "5299": "▁යේ",
  "5300": "▁ඒකද",
  "5301": "▁රැක",
  "5302": "▁පොලිසි",
  "5303": "▁ඒවි",
  "5304": "තෙන්ට",
  "5305": "▁රැජි",
  "5306": "ha",
  "5307": "කොල්ල",
  "5308": "▁ඇන",
  "5309": "▁වේගයෙන්",
  "5310": "▁කෙනෙකුට",
  "5311": "යන්තර",
  "5312": "▁වහලා",
  "5313": "▁ඇවිල්ල",
  "5314": "▁දැන්මම",
  "5315": "▁ප්‍රමාණය",
  "5316": "▁කෙල්ලේ",
  "5317": "ල්‍ය",
  "5318": "▁ස්කො",
  "5319": "▁තෑග්ගක්",
  "5320": "▁ඉහල",
  "5321": "▁එතනින්",
  "5322": "යාර්",
  "5323": "▁මරු",
  "5324": "▁කුම",
  "5325": "වපු",
  "5326": "▁බොස්",
  "5327": "▁එකග",
  "5328": "▁වැඩේට",
  "5329": "▁හුව",
  "5330": "▁ඉස්සෙ",
  "5331": "▁ලන්ඩ",
  "5332": "▁හයියෙන්",
  "5333": "▁කළම",
  "5334": "▁වගෙයි",
  "5335": "▁ප්‍රො",
  "5336": "▁තමුන්ට",
  "5337": "දුම්",
  "5338": "▁ඇතුළු",
  "5339": "▁දැනගත්තා",
  "5340": "▁පෙල",
  "5341": "▁දෙකම",
  "5342": "නාට",
  "5343": "▁බුද්ධිමත්",
  "5344": "▁16",
  "5345": "▁හෙන්",
  "5346": "▁දත්",
  "5347": "▁ලැබෙන්නේ",
  "5348": "▁ජීවිතයක්",
  "5349": "යුධ",
  "5350": "▁යාළුවෙක්",
  "5351": "▁උල්",
  "5352": "▁ගුහා",
  "5353": "▁යානා",
  "5354": "▁හය",
  "5355": "▁කපි",
  "5356": "▁අගු",
  "5357": "▁සෙබ",
  "5358": "▁forec",
  "5359": "▁forecast",
  "5360": "▁ලැබුන",
  "5361": "▁අප්",
  "5362": "▁සමී",
  "5363": "▁ප්‍රේම්",
  "5364": "▁කාමර",
  "5365": "▁සංචා",
  "5366": "▁කාගෙ",
  "5367": "▁පෙනී",
  "5368": "විලා",
  "5369": "▁ගැනයි",
  "5370": "▁ශී",
  "5371": "▁දාපු",
  "5372": "▁වුනාද",
  "5373": "▁ආරක්ශා",
  "5374": "▁හෙල",
  "5375": "▁ආවම",
  "5376": "කුණක්",
  "5377": "තෙන්",
  "5378": "▁ගෙවල්",
  "5379": "▁මත්ද්‍රව්‍ය",
  "5380": "▁ටිකට්",
  "5381": "▁අනිවාර්යයෙන්ම",
  "5382": "▁ලියා",
  "5383": "▁ඊලඟ",
  "5384": "▁පියවර",
  "5385": "▁තම",
  "5386": "▁නරකයි",
  "5387": "ඩන්",
  "5388": "▁ෂිට්",
  "5389": "▁ලේඛ",
  "5390": "ort",
  "5391": "යෙකු",
  "5392": "▁කිසිවක්",
  "5393": "▁එෙ",
  "5394": "ලංගු",
  "5395": "කයන්",
  "5396": "▁ලොකුම",
  "5397": "▁අනාගතය",
  "5398": "වරයෙක්",
  "5399": "රැසි",
  "5400": "▁අන්තර්",
  "5401": "▁ආවද",
  "5402": "▁ලකුණු",
  "5403": "මේක",
  "5404": "▁tran",
  "5405": "▁හිතෙන",
  "5406": "▁ලම",
  "5407": "\\\\",
  "5408": "▁සයිඩ්",
  "5409": "▁බිමට",
  "5410": "▁ටේ",
  "5411": "කයේ",
  "5412": "▁නින්ද",
  "5413": "▁සදහා",
  "5414": "▁අපෙන්",
  "5415": "▁inf",
  "5416": "▁නීතිය",
  "5417": "▁නිදි",
  "5418": "▁සතිය",
  "5419": "▁24",
  "5420": "▁නමයි",
  "5421": "▁ව්‍යාපෘතිය",
  "5422": "▁සේවය",
  "5423": "▁ගන්නව",
  "5424": "▁ඉස්සරහා",
  "5425": "▁ගෙද",
  "5426": "වකට",
  "5427": "▁සැර",
  "5428": "ඟින්",
  "5429": "▁ගෙනාවා",
  "5430": "▁අහිමි",
  "5431": "ර්ඩ්",
  "5432": "▁කරපන්",
  "5433": "ff",
  "5434": "දැන්",
  "5435": "▁සාක",
  "5436": "ep",
  "5437": "ton",
  "5438": "▁හැමතැනම",
  "5439": "ලැක්",
  "5440": "▁විද්‍",
  "5441": "▁නියමෙට",
  "5442": "▁කලු",
  "5443": "ඔයාගේ",
  "5444": "▁වේගවත්",
  "5445": "ක්ට",
  "5446": "යම්",
  "5447": "▁පාරේ",
  "5448": "▁වෙළ",
  "5449": "▁14",
  "5450": "▁සමාජ",
  "5451": "▁බදින්න",
  "5452": "▁හුවමාරු",
  "5453": "dition",
  "5454": "▁වෝල්",
  "5455": "▁කාළ",
  "5456": "ස්සන්න",
  "5457": "▁ඇවිදින්න",
  "5458": "▁පැනගන්න",
  "5459": "ලගේ",
  "5460": "▁අවධාන",
  "5461": "▁සැකසුම්",
  "5462": "වරයා",
  "5463": "ජන",
  "5464": "▁තරමේ",
  "5465": "▁ප්ලගි",
  "5466": "▁ප්‍රතික්",
  "5467": "▁ඇතුලත",
  "5468": "▁කොහොමහරි",
  "5469": "▁ඉල්ලන්න",
  "5470": "▁සේවක",
  "5471": "▁මෙන",
  "5472": "▁නිර්භී",
  "5473": "▁මැරුවේ",
  "5474": "▁සැරයක්",
  "5475": "▁ගිණු",
  "5476": "▁කාලා",
  "5477": "▁උගේ",
  "5478": "▁හිටියොත්",
  "5479": "▁බවක්",
  "5480": "▁මොන්",
  "5481": "▁මාස්ටර්",
  "5482": "▁නැවැත්තු",
  "5483": "▁සෙල්ලම",
  "5484": "▁කම",
  "5485": "▁බාර්",
  "5486": "▁හෝව්",
  "5487": "▁වලදි",
  "5488": "▁මළ",
  "5489": "▁දාමු",
  "5490": "▁ජීව",
  "5491": "▁කාටහරි",
  "5492": "▁ගැඹු",
  "5493": "▁be",
  "5494": "▁අමතර",
  "5495": "▁X",
  "5496": "හරින්න",
  "5497": "▁නටන්න",
  "5498": "▁නිෂ්",
  "5499": "සියක්",
  "5500": "▁නැත්තං",
  "5501": "▁සීයා",
  "5502": "▁කියවන්නේ",
  "5503": "▁පෙන්නේ",
  "5504": "▁ඇහුනා",
  "5505": "▁මැක්",
  "5506": "න්‍යා",
  "5507": "▁ජරාව",
  "5508": "▁ආකාර",
  "5509": "▁හෙලි",
  "5510": "▁හැමවෙලා",
  "5511": "▁වීරයෙක්",
  "5512": "ul",
  "5513": "▁සංකී",
  "5514": "ස්ථ",
  "5515": "▁කාන්තාව",
  "5516": "▁විවේක",
  "5517": "නන්න",
  "5518": "▁ඉලක්කය",
  "5519": "▁ළඟට",
  "5520": "▁නැත්ද",
  "5521": "▁Al",
  "5522": "▁ශෝ",
  "5523": "▁වුනාම",
  "5524": "▁හෝම්ස්",
  "5525": "සියානු",
  "5526": "▁Jo",
  "5527": "▁ඕනෙම",
  "5528": "▁ඔළු",
  "5529": "ong",
  "5530": "▁ගේම්",
  "5531": "තාන්",
  "5532": "න්‍‍නේ",
  "5533": "▁රටා",
  "5534": "▁මනුෂ්‍ය",
  "5535": "▁කිරීම්",
  "5536": "සල්",
  "5537": "▁සදා",
  "5538": "▁හැකියි",
  "5539": "▁ජාතික",
  "5540": "▁නියමු",
  "5541": "▁ආචාර්ය",
  "5542": "▁වැඩකර",
  "5543": "▁ක්‍රියාව",
  "5544": "▁අයත්",
  "5545": "▁ඔවුන්ගෙ",
  "5546": "▁ඔහේගේ",
  "5547": "▁පොලීසිය",
  "5548": "▁නැටු",
  "5549": "රට",
  "5550": "▁රාක්ෂ",
  "5551": "▁නැත්තන්",
  "5552": "දලා",
  "5553": "▁මොහොත",
  "5554": "මෙරිකා",
  "5555": "▁රාත්‍රියක්",
  "5556": "▁තර්ජනය",
  "5557": "▁බහ",
  "5558": "▁කැඩු",
  "5559": "▁හඳුනා",
  "5560": "යක්ම",
  "5561": "▁දැම්ම",
  "5562": "▁ආහාර",
  "5563": "ණොත්",
  "5564": "▁ග්‍රහ",
  "5565": "▁යටතේ",
  "5566": "▁රොබෝ",
  "5567": "▁හැංගි",
  "5568": "▁ගනින්",
  "5569": "වුවා",
  "5570": "▁මක",
  "5571": "▁රාහු",
  "5572": "▁ලානා",
  "5573": "▁කොළ",
  "5574": "රූප",
  "5575": "බද",
  "5576": "▁බෙල්",
  "5577": "ජික්",
  "5578": "▁සැලැස්මක්",
  "5579": "▁විනාස",
  "5580": "ෂේප",
  "5581": "▁ප්‍රාර්ථ",
  "5582": "▁ජිම්",
  "5583": "▁ලැබීම",
  "5584": "වෙල",
  "5585": "▁කසාදෙ",
  "5586": "▁හිටියද",
  "5587": "▁ක්ල",
  "5588": "▁චැපී",
  "5589": "ග්‍රා",
  "5590": "▁හරිනේ",
  "5591": "ස්ව",
  "5592": "▁ඉඳල",
  "5593": "වන්තයි",
  "5594": "▁තිබුණ",
  "5595": "▁උණුසුම්",
  "5596": "▁අයිතිය",
  "5597": "ගික",
  "5598": "▁කොල්ලො",
  "5599": "▁condition",
  "5600": "▁සුරකින්න",
  "5601": "▁හොයාගත්තේ",
  "5602": "ගැනීමට",
  "5603": "▁ලැබුනේ",
  "5604": "▁‍ඔ‍",
  "5605": "▁වෙලාවෙම",
  "5606": "▁නිව්යෝ",
  "5607": "▁තරග",
  "5608": "▁දකුණට",
  "5609": "▁දෙමව්",
  "5610": "▁විදුලි",
  "5611": "▁විශ්ව",
  "5612": "▁නුබ",
  "5613": "▁ලැයිස්තු",
  "5614": "▁රඟ",
  "5615": "▁ප්ලෝන්",
  "5616": "චන්",
  "5617": "▁කුඩු",
  "5618": "▁වතාව",
  "5619": "සාද",
  "5620": "▁වියදම්",
  "5621": "▁ඇදගෙන",
  "5622": "▁විකි",
  "5623": "▁ඉංග්‍රීසි",
  "5624": "▁දඩයම්",
  "5625": "▁නිළධා",
  "5626": "▁සමාන",
  "5627": "▁‍ත‍",
  "5628": "▁අවසානය",
  "5629": "▁සැතපු",
  "5630": "▁හමුවීම",
  "5631": "ගලා",
  "5632": "▁කුළු",
  "5633": "▁මටයි",
  "5634": "මීට",
  "5635": "▁ඔනේ",
  "5636": "▁කේස්",
  "5637": "දීමක්",
  "5638": "▁මට්ටම",
  "5639": "ල්ලෙන්",
  "5640": "▁වතාවට",
  "5641": "පූර්",
  "5642": "▁පන්න",
  "5643": "දර්ශ",
  "5644": "කරුවෙක්",
  "5645": "▁තෙල්",
  "5646": "▁සම්බන්ධයක්",
  "5647": "▁නාකි",
  "5648": "▁පාත්",
  "5649": "▁තුරු",
  "5650": "pt",
  "5651": "කලේ",
  "5652": "▁කටවහ",
  "5653": "ට්නි",
  "5654": "▁උනාද",
  "5655": "විද",
  "5656": "▁කුණා",
  "5657": "▁ජේසු",
  "5658": "▁හුරු",
  "5659": "▁බලවත්",
  "5660": "▁හෙන්රි",
  "5661": "▁එන්ජි",
  "5662": "▁ප්‍රසිද්ධ",
  "5663": "▁transl",
  "5664": "▁ගෙදරින්",
  "5665": "▁නැවතු",
  "5666": "ණීය",
  "5667": "▁හැදුවෙ",
  "5668": "▁අප්‍",
  "5669": "කටම",
  "5670": "ert",
  "5671": "▁සමාගම",
  "5672": "▁කොහෙත්ම",
  "5673": "▁හැඩ",
  "5674": "ත්තිය",
  "5675": "හටම",
  "5676": "යකින්",
  "5677": "▁උපසිරැසි",
  "5678": "▁වැට",
  "5679": "ob",
  "5680": "▁සත්තකින්ම",
  "5681": "▁පටන්ගන්න",
  "5682": "▁දේකට",
  "5683": "▁දිවි",
  "5684": "ea",
  "5685": "▁ලැබෙයි",
  "5686": "න්ගෙන්",
  "5687": "▁රාහුල්",
  "5688": "▁කෑමට",
  "5689": "ඥයෙක්",
  "5690": "▁අහල",
  "5691": "▁යක්ෂ",
  "5692": "ack",
  "5693": "▁18",
  "5694": "▁සභා",
  "5695": "▁ෆැ",
  "5696": "▁සරල",
  "5697": "දුව",
  "5698": "▁පවුලක්",
  "5699": "▁කවදාවත්ම",
  "5700": "වෙනව",
  "5701": "▁වෙර",
  "5702": "▁පැමිණෙ",
  "5703": "▁කිවුවෙ",
  "5704": "දට",
  "5705": "ක්ශ",
  "5706": "▁**",
  "5707": "ගමනය",
  "5708": "▁පට්ට",
  "5709": "▁දුරකථන",
  "5710": "▁ස්ටීව්",
  "5711": "▁වෙයන්",
  "5712": "▁ඇත්තද",
  "5713": "සම්",
  "5714": "රාජ්",
  "5715": "▁උනන්දු",
  "5716": "▁නිකන්ම",
  "5717": "▁පරිස්සමින්",
  "5718": "▁මායි",
  "5719": "▁he",
  "5720": "▁කැප",
  "5721": "▁වැල",
  "5722": "▁මණ්ඩ",
  "5723": "▁දැකපු",
  "5724": "▁හීන",
  "5725": "යටම",
  "5726": "▁රූප",
  "5727": "▁නැගිට",
  "5728": "▁වම්",
  "5729": "▁එක්කද",
  "5730": "▁හසු",
  "5731": "▁info",
  "5732": "ගොල්ල",
  "5733": "▁දුන්නොත්",
  "5734": "▁මැක්ස්",
  "5735": "▁වහනවා",
  "5736": "▁ඇරොන්",
  "5737": "ණෙනි",
  "5738": "▁පූජ",
  "5739": "▁හෙමින්",
  "5740": "යුගෝ",
  "5741": "න්දේ",
  "5742": "ල්දා",
  "5743": "▁ඇරලා",
  "5744": "▁පෘථි",
  "5745": "▁අධ්‍යක්",
  "5746": "▁සිහින",
  "5747": "ලීස්",
  "5748": "▁අතෑ",
  "5749": "▁නොවන",
  "5750": "▁ආරංචියක්",
  "5751": "▁බල්ලා",
  "5752": "▁ෙකාෙ",
  "5753": "▁ඒකම",
  "5754": "▁පිස්සුද",
  "5755": "▁are",
  "5756": "▁සුවඳ",
  "5757": "▁පෙට්ටි",
  "5758": "▁බලන්නකෝ",
  "5759": "කමට",
  "5760": "▁ප්‍රවෘ",
  "5761": "▁ඇමතුමක්",
  "5762": "▁උණ",
  "5763": "▁ලැබුණා",
  "5764": "ම්බර්",
  "5765": "▁හාර්ත",
  "5766": "▁මට්ට",
  "5767": "▁ඇහෙනවා",
  "5768": "තව",
  "5769": "▁කියෙ",
  "5770": "▁or",
  "5771": "▁වඩාත්",
  "5772": "රාම",
  "5773": "▁නරකම",
  "5774": "▁දිනන්න",
  "5775": "▁ප්‍රියා",
  "5776": "▁අමුතුයි",
  "5777": "▁තියනේනෙ",
  "5778": "සීම",
  "5779": "▁දැනගත්ත",
  "5780": "▁පයින්",
  "5781": "▁බැරිවුනා",
  "5782": "▁ඇරෙන්න",
  "5783": "▁උම",
  "5784": "▁තේරුමක්",
  "5785": "▁උතුමාණ",
  "5786": "▁00",
  "5787": "▁වීමට",
  "5788": "rit",
  "5789": "▁අහන්නෙ",
  "5790": "▁කොල",
  "5791": "සහ",
  "5792": "▁බැඳ",
  "5793": "hn",
  "5794": "▁වරක්",
  "5795": "▁මුද්‍",
  "5796": "▁තුන්වෙනි",
  "5797": "▁මනස",
  "5798": "▁හදව",
  "5799": "▁වැටෙන්න",
  "5800": "▁කොහෙවත්",
  "5801": "▁ලියන්න",
  "5802": "▁ඉක්මණට",
  "5803": "ත්තෙන්",
  "5804": "▁වෙන්නත්",
  "5805": "▁බිස්",
  "5806": "මත",
  "5807": "හත්",
  "5808": "▁මුන",
  "5809": "▁පූජා",
  "5810": "▁ඊටපස්සේ",
  "5811": "▁අසමත්",
  "5812": "▁නැතිවෙලා",
  "5813": "▁අරක",
  "5814": "▁අවංක",
  "5815": "▁නර්",
  "5816": "▁දමන්න",
  "5817": "▁ද්‍රෝ",
  "5818": "▁එල්",
  "5819": "▁හින්ද",
  "5820": "▁මාලි",
  "5821": "කටද",
  "5822": "▁පුදුමයි",
  "5823": "▁පඩි",
  "5824": "▁මෙතැ",
  "5825": "▁ආරාධ",
  "5826": "▁රත්ත",
  "5827": "▁ප්ලේ",
  "5828": "▁මැරෙන",
  "5829": "▁ඔලි",
  "5830": "දෙන්",
  "5831": "▁ඇල්ලු",
  "5832": "▁තහනම්",
  "5833": "eg",
  "5834": "▁රැගෙන",
  "5835": "▁කැමැත්ත",
  "5836": "▁සම්බන්ධයෙන්",
  "5837": "▁පද්ධති",
  "5838": "▁ජේසන්",
  "5839": "▁හැමතිස්සෙම",
  "5840": "කෙනෙක්",
  "5841": "පාරක්",
  "5842": "▁හවුල්",
  "5843": "▁තරමට",
  "5844": "▁හට",
  "5845": "▁අහගෙන",
  "5846": "හල්",
  "5847": "▁දෙවියන්ගේ",
  "5848": "▁පත",
  "5849": "▁තියන්නේ",
  "5850": "▁වේදනා",
  "5851": "▁ක්‍රමය",
  "5852": "වාගෙන",
  "5853": "▁අවසානයේ",
  "5854": "▁ඔළුව",
  "5855": "▁හොයන",
  "5856": "▁විෂ",
  "5857": "▁වීදුරු",
  "5858": "වාදි",
  "5859": "▁නොමැ",
  "5860": "▁කණ්ඩායම්",
  "5861": "හාම",
  "5862": "▁කැත",
  "5863": "▁තාත්තගේ",
  "5864": "සයක්",
  "5865": "දුනේ",
  "5866": "ම්බෙ",
  "5867": "▁කාමරයට",
  "5868": "▁බලපන්",
  "5869": "▁හිරවෙලා",
  "5870": "▁කැලේ",
  "5871": "▁5ක්",
  "5872": "▁මැජික්",
  "5873": "▁දෛවය",
  "5874": "▁ගණි",
  "5875": "▁ඇහුවේ",
  "5876": "▁පිං",
  "5877": "▁බාගයක්",
  "5878": "▁හිතෙන්නේ",
  "5879": "▁පහළට",
  "5880": "න්ති",
  "5881": "▁ඩේවිඩ්",
  "5882": "▁චු",
  "5883": "▁පියාඹ",
  "5884": "▁එක්කෝ",
  "5885": "▁'%",
  "5886": "▁ගැනම",
  "5887": "▁මොලේ",
  "5888": "▁තැනම",
  "5889": "▁ඕනදෙ",
  "5890": "▁ලෙඩ",
  "5891": "ai",
  "5892": "ian",
  "5893": "▁ගොවි",
  "5894": "▁සමහ",
  "5895": "▁ඔස්",
  "5896": "▁කරාද",
  "5897": "▁කද",
  "5898": "▁වැටුනා",
  "5899": "▁අවදි",
  "5900": "▁අදාල",
  "5901": "▁ගලව",
  "5902": "▁උසාවි",
  "5903": "ගියා",
  "5904": "▁බොරුවක්",
  "5905": "▁කේට්",
  "5906": "▁හරවන්න",
  "5907": "නෙම්",
  "5908": "▁යන්නයි",
  "5909": "▁ගිහිං",
  "5910": "▁අන්ධ",
  "5911": "▁ශාලා",
  "5912": "▁කමි",
  "5913": "▁පලි",
  "5914": "▁පිස්",
  "5915": "▁මෙයාගේ",
  "5916": "යම",
  "5917": "▁තීරණයක්",
  "5918": "කෝම",
  "5919": "▁විකාරයක්",
  "5920": "▁මානසික",
  "5921": "▁කණගාටු",
  "5922": "▁බොබ්",
  "5923": "▁ස්වභා",
  "5924": "▁දැඩි",
  "5925": "▁මෙනවිය",
  "5926": "▁කුමක්ද",
  "5927": ").",
  "5928": "▁වචනය",
  "5929": "රෙක්ට",
  "5930": "ang",
  "5931": "න‍වා",
  "5932": "බායි",
  "5933": "▁චො",
  "5934": "▁ගෘ",
  "5935": "▁කොටු",
  "5936": "▁උතුරු",
  "5937": "▁සහයක",
  "5938": "▁පහළ",
  "5939": "▁පල්ලි",
  "5940": "▁වික්",
  "5941": "▁පොලීසියට",
  "5942": "▁හදිස්සි",
  "5943": "▁පුතාව",
  "5944": "▁පරිශී",
  "5945": "▁සදහටම",
  "5946": "▁ඇඳුම",
  "5947": "000ක්",
  "5948": "▁මතකය",
  "5949": "▁මගහැ",
  "5950": "ඔවුන්",
  "5951": "▁ඔරලෝ",
  "5952": "▁දිගු",
  "5953": "∙∙∙∙",
  "5954": "ඩුවේ",
  "5955": "▁මරපු",
  "5956": "▁හතරක්",
  "5957": "\"?",
  "5958": "▁රසා",
  "5959": "▁දේවි",
  "5960": "▁17",
  "5961": "ලයෙන්",
  "5962": "Qu",
  "5963": "▁එයින්",
  "5964": "▁විහිලුවක්",
  "5965": "▁වෙමු",
  "5966": "▁චෙක්",
  "5967": "▁පොදු",
  "5968": "▁කනගා",
  "5969": "▁එයට",
  "5970": "▁තුනයි",
  "5971": "▁නගරෙ",
  "5972": "▁ලැබිලා",
  "5973": "▁මංකොල්ල",
  "5974": "▁උනාම",
  "5975": "▁පලමු",
  "5976": "▁ස්ථාපනය",
  "5977": "▁ස්ප",
  "5978": "▁කුකු",
  "5979": "▁සැමියා",
  "5980": "▁කාගේ",
  "5981": "▁ඉස්කෝප්ප",
  "5982": "▁කෙවින්",
  "5983": "ල්දාදු",
  "5984": "▁බේරෙන්න",
  "5985": "▁සුන්දර",
  "5986": "▁දෙන්නට",
  "5987": "තාවයක්",
  "5988": "චර",
  "5989": "▁හොල්",
  "5990": "▁ඇහුනද",
  "5991": "▁ඇමෙරිකා",
  "5992": "▁ගන්",
  "5993": "▁දැනෙන්නෙ",
  "5994": "▁ලො",
  "5995": "▁තාත්තව",
  "5996": "▁නයිට්",
  "5997": "▁බඳින්න",
  "5998": "▁‍ඇ‍",
  "5999": "▁ලැබේ",
  "6000": "▁ඒජ",
  "6001": "▁වේදනාව",
  "6002": "▁දක්ෂයි",
  "6003": "සුමක්",
  "6004": "▁උපන්",
  "6005": "▁පල්ලෙ",
  "6006": "ටවත්",
  "6007": "▁බල්ල",
  "6008": "▁ලියලා",
  "6009": "▁සකසන්න",
  "6010": "▁ඇමති",
  "6011": "IA",
  "6012": "▁ඉටු",
  "6013": "▁සහය",
  "6014": "▁දහස්",
  "6015": "▁නාමය",
  "6016": "යෙකුට",
  "6017": "▁සතියේ",
  "6018": "▁වගේමයි",
  "6019": "ට්‍රේ",
  "6020": "▁සැතපුම්",
  "6021": "▁ජින්",
  "6022": "▁බලප",
  "6023": "▁කාරයා",
  "6024": "▁ඉහළ",
  "6025": "▁වික්ටර්",
  "6026": "▁සාමාන්‍යයෙන්",
  "6027": "කීමක්",
  "6028": "▁හාදයා",
  "6029": "▁නවත්තනවා",
  "6030": "▁දෝෂ",
  "6031": "▁ආව්",
  "6032": "▁වැඩසටහ",
  "6033": "▁කොහෙටද",
  "6034": "▁කටු",
  "6035": "▁ගහගෙන",
  "6036": "කාලික",
  "6037": "බට්",
  "6038": "▁සංවි",
  "6039": "▁තියනෙ",
  "6040": "න්නද",
  "6041": "out",
  "6042": "▁අඳුර",
  "6043": "▁එරෙහි",
  "6044": "ත්‍රි",
  "6045": "▁පැහැදිළි",
  "6046": "▁වගෝම",
  "6047": "හෙන්",
  "6048": "න්ත්",
  "6049": "▁ඒවට",
  "6050": "▁සහායක",
  "6051": "▁විදිහේ",
  "6052": "▁මොඩි",
  "6053": "▁අල්ලගත්තා",
  "6054": "▁විකු",
  "6055": "▁දවසෙ",
  "6056": "▁සිප",
  "6057": "වුනොත්",
  "6058": "▁නොවෙයි",
  "6059": "▁ආයි",
  "6060": "▁නැතිවුනා",
  "6061": "ell",
  "6062": "▁බටහිර",
  "6063": "▁නැවති",
  "6064": "නින්ම",
  "6065": "▁මනුස්සයා",
  "6066": "▁නැඟි",
  "6067": "▁ඉද්දි",
  "6068": "▁වෙනස",
  "6069": "▁පාරවල්",
  "6070": "▁පාලක",
  "6071": "සරය",
  "6072": "ටික්",
  "6073": "▁තදින්",
  "6074": "▁බියර්",
  "6075": "▁වතාවේ",
  "6076": "තියෙ",
  "6077": "බන්",
  "6078": "▁ගෞරවය",
  "6079": "▁ඉමු",
  "6080": "▁පොර",
  "6081": "▁ඉල්ලා",
  "6082": "▁දුරටත්",
  "6083": "▁සළ",
  "6084": ":%",
  "6085": "▁මේකත්",
  "6086": "▁com",
  "6087": "▁ගහන",
  "6088": "▁රග",
  "6089": "▁සින",
  "6090": "▁තමුසෙගෙ",
  "6091": "▁ප්‍රධානියා",
  "6092": "▁ජයග්‍රහ",
  "6093": "▁නිදහස",
  "6094": "▁අහිංසක",
  "6095": "▁චූ",
  "6096": "▁දෘ",
  "6097": "▁සින්දු",
  "6098": "ධනය",
  "6099": "▁තත්පරයක්",
  "6100": "▁යොද",
  "6101": "▁පීඩ",
  "6102": "▁බේරු",
  "6103": "▁පැව",
  "6104": "▁ගෙනි",
  "6105": "▁ගඳ",
  "6106": "▁වැඩියෙන්",
  "6107": "▁තබ",
  "6108": "▁වෙස්",
  "6109": "▁වාසනාව",
  "6110": "ගන්වන්න",
  "6111": "▁ආයතන",
  "6112": "▁හිටගෙන",
  "6113": "▁බාධ",
  "6114": "▁දුරකථනය",
  "6115": "▁වෙලේම",
  "6116": "▁ආඩම්බර",
  "6117": "▁කියමු",
  "6118": "▁හීනයක්",
  "6119": "▁ආවට",
  "6120": "▁යෝජනා",
  "6121": "▁හූ",
  "6122": "මිත",
  "6123": "ගැනීමේ",
  "6124": "▁සීමාව",
  "6125": "▁ඩ්‍රයි",
  "6126": "▁බහින්න",
  "6127": "▁ඛා",
  "6128": "▁තමන්ගෙ",
  "6129": "සෙල්",
  "6130": "▁තෝමස්",
  "6131": "here",
  "6132": "▁හැමවෙලාවෙම",
  "6133": "▁බඩගිනි",
  "6134": "▁2ක්",
  "6135": "▁this",
  "6136": "▁ඩිරෙක්ට",
  "6137": "ච්ඡා",
  "6138": "▁අත්දැ",
  "6139": "ect",
  "6140": "▁ඇඟිලි",
  "6141": "▁උත්සව",
  "6142": "▁පරක්කුයි",
  "6143": "▁‍කි‍",
  "6144": "▁මාධ්‍ය",
  "6145": "තාන්‍ය",
  "6146": "▁තරහා",
  "6147": "▁බිත්ති",
  "6148": "▁තෝරාගන්න",
  "6149": "ක්ෂණ",
  "6150": "▁එමි",
  "6151": "▁හඬ",
  "6152": "▁ඉස්කෝලෙ",
  "6153": "▁ජස්",
  "6154": "▁සොල්දාදු",
  "6155": "▁ලැයිස්",
  "6156": "මන්ඩ්",
  "6157": "▁සේරා",
  "6158": "▁ඝ",
  "6159": "▁හර්ලි",
  "6160": "විස්",
  "6161": "▁නැතත්",
  "6162": "▁මෘදු",
  "6163": "න්තය",
  "6164": "▁රිද",
  "6165": "▁ඔෆි",
  "6166": "▁St",
  "6167": "▁මිසයි",
  "6168": "▁රෙඩ්",
  "6169": "▁මධ්‍යස්ථා",
  "6170": "▁වර්ණ",
  "6171": "▁නිම",
  "6172": "▁මෝඩයෝ",
  "6173": "▁පරිස්සමෙන්",
  "6174": "▁කරගන්නවා",
  "6175": "හ්හ්",
  "6176": "මේන්තු",
  "6177": "▁පපු",
  "6178": "▁දිල්ලි",
  "6179": "▁සාධාරණ",
  "6180": "▁උපදෙස්",
  "6181": "▁ලැයිස්තුව",
  "6182": "▁උපදේශ",
  "6183": "▁පහත",
  "6184": "▁විසඳ",
  "6185": "ගන්ව",
  "6186": "▁හරිග",
  "6187": "▁බෙල්ල",
  "6188": "▁අප්‍රිකා",
  "6189": "▁ප්ලගින",
  "6190": "▁10ක්",
  "6191": "▁පං",
  "6192": "යෝග",
  "6193": "▁වෙද්දි",
  "6194": "▁500",
  "6195": "කම්පා",
  "6196": "විච්",
  "6197": "▁කීවේ",
  "6198": "▁යාළුවෝ",
  "6199": "▁රාජ්‍ය",
  "6200": "▁නොදැ",
  "6201": "ත්‍රී",
  "6202": "NA",
  "6203": "▁මොඩියු",
  "6204": "රෙන",
  "6205": "▁කෙල්ලව",
  "6206": "▁මන්දි",
  "6207": "▁එහනෙම්",
  "6208": "▁අතු",
  "6209": "▁ගෑනි",
  "6210": "▁ෙසා",
  "6211": "▁පුතාට",
  "6212": "▁ප්ර",
  "6213": "▁මඟුල",
  "6214": "▁සග",
  "6215": "▁රෙද්ද",
  "6216": "▁John",
  "6217": "▁බහු",
  "6218": "▁දනේන",
  "6219": "▁පිටපත්",
  "6220": "▁මචන්",
  "6221": "▁ජෝර්",
  "6222": "▁සෙන",
  "6223": "▁පාරෙ",
  "6224": "▁නගර",
  "6225": "ත්වයක්",
  "6226": "▁පැහැදිලියි",
  "6227": "▁සෙල්",
  "6228": "▁හෑ",
  "6229": "▁එනකන්",
  "6230": "▁මැරුනා",
  "6231": "man",
  "6232": "▁ප්‍රතික්ෂේප",
  "6233": "යය",
  "6234": "ගැනීමක්",
  "6235": "▁පරිශීලක",
  "6236": "ස්තුව",
  "6237": "▁හිතුනා",
  "6238": "▁ද්‍රව්‍ය",
  "6239": "▁දැම්මේ",
  "6240": "ht",
  "6241": "▁කබ",
  "6242": "▁පෙනෙන",
  "6243": "▁නිහ",
  "6244": "▁කෝටි",
  "6245": "▁නැගෙන",
  "6246": "ගාව",
  "6247": "▁රහසක්",
  "6248": "▁දේශපාල",
  "6249": "ඩෙන්",
  "6250": "න්සන්",
  "6251": "▁බෝට්ටුව",
  "6252": "▁ගලවන්න",
  "6253": "▁ඉල්ලී",
  "6254": "යාම",
  "6255": "▁කන්ද",
  "6256": "▁මොකා",
  "6257": "▁රුවිත",
  "6258": "▁තෝරන්න",
  "6259": "▁වටිනවා",
  "6260": "▁කෙළ",
  "6261": "▁දන්නා",
  "6262": "▁සංකීර්ණ",
  "6263": "ළොත්",
  "6264": "▁විකල්ප",
  "6265": "▁පිටින්",
  "6266": "ර්ලොක්",
  "6267": "▁දෙන්නටම",
  "6268": "▁දෙපාර්ත",
  "6269": "▁හැංගිලා",
  "6270": "මුඛ",
  "6271": "▁තිබෙන",
  "6272": "▁කෙනාව",
  "6273": "▁රාත්‍රියේ",
  "6274": "න්ෙන්",
  "6275": "▁උරු",
  "6276": "කයට",
  "6277": "▁ගම්",
  "6278": "▁ගියාද",
  "6279": "▁දුවව",
  "6280": "▁දෙවිය",
  "6281": "end",
  "6282": "▁අසනීප",
  "6283": "▁අඬ",
  "6284": "▁මැරුණ",
  "6285": "▁දුරට",
  "6286": "eb",
  "6287": "හද",
  "6288": "▁ගමන්ම",
  "6289": "▁මැරෙයි",
  "6290": "▁පාහර",
  "6291": "▁අදුර",
  "6292": "▁සේව",
  "6293": "▁ඉඩදෙන්න",
  "6294": "▁දඬු",
  "6295": "▁නපුරු",
  "6296": "▁pro",
  "6297": "rance",
  "6298": "▁නායකයා",
  "6299": "▁ස්ථි",
  "6300": "▁හන්ට්",
  "6301": "ලිලා",
  "6302": "▁ඉඳගන්න",
  "6303": "▁කරනු",
  "6304": "▁නියෝග",
  "6305": "ජනය",
  "6306": "▁You",
  "6307": "කෘති",
  "6308": "▁අල්",
  "6309": "▁ඉඳගෙන",
  "6310": "හිලා",
  "6311": "කාරයො",
  "6312": "▁තප්ප",
  "6313": "▁වළ",
  "6314": "ගෙදර",
  "6315": "est",
  "6316": "▁රණ්ඩු",
  "6317": "▁වැටෙනවා",
  "6318": "රයා",
  "6319": "▁වැඩසටහන",
  "6320": "▁හිතෙන්නෙ",
  "6321": "▁හිතුව",
  "6322": "▁ව්‍යාපාර",
  "6323": "▁ගී",
  "6324": "▁කේක්",
  "6325": "▁පාස්",
  "6326": "tt",
  "6327": "▁මිල්",
  "6328": "▁බොත්තම",
  "6329": "▁නහ",
  "6330": "▁කියව",
  "6331": "▁ඉදගන්න",
  "6332": "▁වයසක",
  "6333": "▁දානව",
  "6334": "▁බලපෑ",
  "6335": "රීමක්",
  "6336": "▁අම්මව",
  "6337": "▁හැතැ",
  "6338": "▁යකඩ",
  "6339": "න්නයි",
  "6340": "▁කිසිදෙයක්",
  "6341": "▁ආයෙමත්",
  "6342": "▁බහලු",
  "6343": "▁මීටර්",
  "6344": "▁න්‍ය",
  "6345": "▁සැම",
  "6346": "▁ගිණි",
  "6347": "▁දියුණු",
  "6348": "▁කොන්දේ",
  "6349": "▁යුද්ධය",
  "6350": "▁දෑ",
  "6351": "ap",
  "6352": "▁බිහි",
  "6353": "▁ස්ටේ",
  "6354": "යේදි",
  "6355": "▁පුපු",
  "6356": "▁ඉරා",
  "6357": "▁රැව",
  "6358": "▁සංකේ",
  "6359": "▁සද්දේ",
  "6360": "▁]",
  "6361": "▁ලන්ඩන්",
  "6362": "▁සේවාදායක",
  "6363": "▁පැන්",
  "6364": "ies",
  "6365": "▁නාම",
  "6366": "▁රේඩියෝ",
  "6367": "▁දැනුනා",
  "6368": "▁හැංගෙ",
  "6369": "▁එල",
  "6370": "▁ඒවගේ",
  "6371": "ear",
  "6372": "තයෙක්",
  "6373": "▁‍ව‍",
  "6374": "▁ඇග",
  "6375": "▁තියන්",
  "6376": "▁අවශ්",
  "6377": "▁ඡ",
  "6378": "▁ෆ්‍රෑන්ක්",
  "6379": "▁කිවේ",
  "6380": "itle",
  "6381": "▁මහතා",
  "6382": "▁ෆිල්ම්",
  "6383": "▁කියලවත්",
  "6384": "▁හඩ",
  "6385": "▁පිටිපස්සෙන්",
  "6386": "▁අයගේ",
  "6387": "▁බො",
  "6388": "විටම",
  "6389": "▁හිස",
  "6390": "▁බයවෙන්න",
  "6391": "▁රස්සාවක්",
  "6392": "▁සාමාජි",
  "6393": "▁යනකොට",
  "6394": "▁පමන",
  "6395": "▁එහෙත්",
  "6396": "▁මුන්",
  "6397": "අපේ",
  "6398": "▁හොරෙන්",
  "6399": "▁රිච",
  "6400": "ype",
  "6401": "▁ph",
  "6402": "යුක්",
  "6403": "දිවි",
  "6404": "▁විරෝ",
  "6405": "නිසා",
  "6406": "කොත්",
  "6407": "පල්ලා",
  "6408": "▁CIA",
  "6409": "▁ලොක්ක",
  "6410": "▁තිබුණේ",
  "6411": "▁තියල",
  "6412": "▁මොහොතේ",
  "6413": "▁ජනතාව",
  "6414": "▁වල්",
  "6415": "▁ඔයාටයි",
  "6416": "▁විවාහය",
  "6417": "▁අකමැති",
  "6418": "▁ප්‍රමාණවත්",
  "6419": "පැතුම්",
  "6420": "▁දුපත",
  "6421": "▁තියේවි",
  "6422": "▁හැදිලා",
  "6423": "▁ආත්මය",
  "6424": "ල්පි",
  "6425": "▁දීල",
  "6426": "▁මයො",
  "6427": "▁එතැන",
  "6428": "▁පාරට",
  "6429": "▁බනි",
  "6430": "මාර්",
  "6431": "▁වාර්තාව",
  "6432": "▁වෙන්නම්",
  "6433": "▁මොළ",
  "6434": "ගමන්",
  "6435": "▁Th",
  "6436": "යන්ව",
  "6437": "▁වගකි",
  "6438": "මෝන්",
  "6439": "▁වනේනෙ",
  "6440": "▁පුළුවනි",
  "6441": "පිරිතා",
  "6442": "▁දිනා",
  "6443": "▁කවුළුව",
  "6444": "▁මෙන්",
  "6445": "▁දෙමා",
  "6446": "ටීම",
  "6447": "▁ගනීවි",
  "6448": "▁කවදද",
  "6449": "▁නොමැති",
  "6450": "▁වර්‍",
  "6451": "▁ඔයාගෝ",
  "6452": "බහු",
  "6453": "▁පවුලෙ",
  "6454": "▁තත්වයට",
  "6455": "▁හිරි",
  "6456": "ගොල්ලො",
  "6457": "▁උර",
  "6458": "▁හිතුවද",
  "6459": "io",
  "6460": "▁නාවික",
  "6461": "ලුයි",
  "6462": "▁ලයිට්",
  "6463": "▁නැතිවෙයි",
  "6464": "▁කීවා",
  "6465": "▁තත්වෙ",
  "6466": "▁කේත",
  "6467": "▁කනවා",
  "6468": "▁බරපතල",
  "6469": "ජන්ට්",
  "6470": "▁ගියාට",
  "6471": "▁හැකියාවක්",
  "6472": "▁දෙකෙන්",
  "6473": "▁තේරුම්ගන්න",
  "6474": "▁තුමා",
  "6475": "▁වන්නේ",
  "6476": "▁ඉල්ලනවා",
  "6477": "නිමි",
  "6478": "දෙයි",
  "6479": "▁සන්නි",
  "6480": "▁යකා",
  "6481": "▁සැකයක්",
  "6482": "▁The",
  "6483": "▁මනුස්සයෝ",
  "6484": "▁පිටුව",
  "6485": "▁can",
  "6486": "▁නුඹේ",
  "6487": "▁ඊලඟට",
  "6488": "දිංචි",
  "6489": "ly",
  "6490": "▁කැමතිම",
  "6491": "▁සිග",
  "6492": "▁කුලියට",
  "6493": "තයා",
  "6494": "▁වලදී",
  "6495": "▁සිතු",
  "6496": "▁හියුගෝ",
  "6497": "▁මන්ද",
  "6498": "▁ම්ම්ම්",
  "6499": "▁ඔහේව",
  "6500": "▁ෙවන්න",
  "6501": "▁භය",
  "6502": "▁sh",
  "6503": "▁ප්‍රතිකාර",
  "6504": "ඩයක්",
  "6505": "▁මස්සි",
  "6506": "▁පොළ",
  "6507": "ගාරය",
  "6508": "▁මුල්ම",
  "6509": "▁මහත්තයෝ",
  "6510": "▁විභා",
  "6511": "▁අක්‍රීය",
  "6512": "▁ලියු",
  "6513": "▁රන්",
  "6514": "▁එනකොට",
  "6515": "!\"",
  "6516": "▁මනමා",
  "6517": "▁දෙන්නද",
  "6518": "ive",
  "6519": "▁අවදා",
  "6520": "▁කෙනාට",
  "6521": "හයි",
  "6522": "▁ඇතුළත්",
  "6523": "bo",
  "6524": "▁පයි",
  "6525": "▁අයේ",
  "6526": "ගත්තු",
  "6527": "▁කපලා",
  "6528": "▁ජාන",
  "6529": "age",
  "6530": "සෙක්",
  "6531": "ජිනේ",
  "6532": "▁ලස්සනට",
  "6533": "▁ආසන්න",
  "6534": "▁ෂ්",
  "6535": "ord",
  "6536": "▁මව",
  "6537": "▁නොවෙන්න",
  "6538": "▁ඉම්",
  "6539": "ලන්ඩ්",
  "6540": "▁අවලංගු",
  "6541": "▁ලුහුබ",
  "6542": "▁එකක්ද",
  "6543": "▁ආරාධනා",
  "6544": "▁දර්ශනය",
  "6545": "▁කැමරාව",
  "6546": "▁wh",
  "6547": "▁දුවට",
  "6548": "▁ෙව",
  "6549": "▁අත්ත",
  "6550": "▁ලූතර්",
  "6551": "▁සියදිවි",
  "6552": "ත්ෙත",
  "6553": "▁බීම",
  "6554": "▁දිගේ",
  "6555": "▁බිය",
  "6556": "▁ශේ",
  "6557": "▁ඉවස",
  "6558": "▁Sh",
  "6559": "▁සන්ධ්‍",
  "6560": "▁චෝදනා",
  "6561": "▁පුවරු",
  "6562": "▁බෲ",
  "6563": "▁කෑල්ලක්",
  "6564": "▁තේරෙනවද",
  "6565": "▁වෙලාවකට",
  "6566": "▁මොනවාහරි",
  "6567": "▁කබා",
  "6568": "රිෆ්",
  "6569": "පන",
  "6570": "ipp",
  "6571": "▁ගින්න",
  "6572": "වේද",
  "6573": "▁කෙල්ලෝ",
  "6574": "▁සයිමන්",
  "6575": "▁ආකාරය",
  "6576": "▁කෙන්ට්",
  "6577": "▁ගැනත්",
  "6578": "ශ්ච",
  "6579": "▁පක්ෂ",
  "6580": "▁වෑන්",
  "6581": "ගනියි",
  "6582": "▁ක්ලෝයි",
  "6583": "හල",
  "6584": "▁ඇන්ජ",
  "6585": "▁දිවුර",
  "6586": "▁ෆොටෝ",
  "6587": "▁හිතට",
  "6588": "▁චිත්‍රපටි",
  "6589": "▁එහෙනං",
  "6590": "න්ටර්",
  "6591": "▁නිවාස",
  "6592": "indow",
  "6593": "▁සෙන්",
  "6594": "▁ගන්නද",
  "6595": "ග්‍රාහ",
  "6596": "▁වායු",
  "6597": "oo",
  "6598": "▁එලියේ",
  "6599": "▁ධෛ",
  "6600": "▁බලයක්",
  "6601": "▁වරෙ",
  "6602": "ye",
  "6603": "▁දැනෙන",
  "6604": "▁මාටින්",
  "6605": "▁කලෝ",
  "6606": "▁බ්‍රිතාන්‍ය",
  "6607": "▁මේකද",
  "6608": "▁වාසනාවන්ත",
  "6609": "▁වාසනාවන්තයි",
  "6610": "▁ඔහුත්",
  "6611": "▁කලෙ",
  "6612": "▁සෞ",
  "6613": "▁your",
  "6614": "▁ගියෙ",
  "6615": "▁ඔයාත්",
  "6616": "▁ශ්‍රේ",
  "6617": "▁නෝනාව",
  "6618": "▁වෝල්ටර්",
  "6619": "▁උස්සන්න",
  "6620": "▁පුරු",
  "6621": "▁මොනවගේ",
  "6622": "▁කෝට්",
  "6623": "▁යං",
  "6624": "▁කින්",
  "6625": "▁මරල",
  "6626": "▁සිත",
  "6627": "▁ඔබතුමා",
  "6628": "එහෙම",
  "6629": "ලීන",
  "6630": "▁මොකවත්",
  "6631": "නවනම්",
  "6632": "▁එකක්ම",
  "6633": "▁න්‍යෂ්",
  "6634": "▁මචේ",
  "6635": "▁කටහ",
  "6636": "▁ශාප",
  "6637": "▁ඊටපස්සෙ",
  "6638": "▁තිස්සෙ",
  "6639": "▁පෙම්වතා",
  "6640": "▁උන්ගේ",
  "6641": "▁ලැබෙන්න",
  "6642": "▁රටේ",
  "6643": "▁ප්‍රාර්ථනා",
  "6644": "▁ගිහිල්ල",
  "6645": "▁රව",
  "6646": "▁ඇගි",
  "6647": "▁හැරි",
  "6648": "▁ස්වාමි",
  "6649": "▁කහ",
  "6650": "▁ඉස්පිරිතා",
  "6651": "▁ප්‍රතිචාර",
  "6652": "▁වැදග",
  "6653": "▁සොයන්න",
  "6654": "▁මටම",
  "6655": "▁නැගෙනහිර",
  "6656": "▁පුච්ච",
  "6657": "▁මේඩ",
  "6658": "ass",
  "6659": "▁විදිහටම",
  "6660": "▁වුනු",
  "6661": "ටුවක්",
  "6662": "▁ට්",
  "6663": "▁කැඩිලා",
  "6664": "ධාර",
  "6665": "ake",
  "6666": "▁ජනේ",
  "6667": "ද්දන්න",
  "6668": "▁බෝම්බයක්",
  "6669": "▁මාවත්",
  "6670": "▁බයවෙලා",
  "6671": "▁රත්‍ර",
  "6672": "▁ඔයාවත්",
  "6673": "විම",
  "6674": "රාදා",
  "6675": "▁දැක්කම",
  "6676": "රෙන්නේ",
  "6677": "හැම",
  "6678": "▁උන්නේ",
  "6679": "▁හමුවෙමු",
  "6680": "▁ගෙනාවේ",
  "6681": "▁සෙල්ලමක්",
  "6682": "▁විශ්වාසයක්",
  "6683": "▁දික්ක",
  "6684": "▁star",
  "6685": "▁ඉඳී",
  "6686": "▁අවස්තාවක්",
  "6687": "▁ජල",
  "6688": "ලන්න",
  "6689": "▁කාන්තාවක්",
  "6690": "▁සීනු",
  "6691": "▁පිටවෙන්න",
  "6692": "▁සද්දෙ",
  "6693": "සිල්",
  "6694": "▁ජීවිතයේ",
  "6695": "▁නොමැත",
  "6696": "ක්‍ෂ",
  "6697": "බෝධ",
  "6698": "▁මනෝ",
  "6699": "▁කලාට",
  "6700": "gin",
  "6701": "▁ආරක්‍ෂිත",
  "6702": "▁ස්කොට්",
  "6703": "▁නවතිනවා",
  "6704": "▁මොන්රෝ",
  "6705": "▁දැක්කොත්",
  "6706": "▁මිනිසුන්ට",
  "6707": "▁අසරණ",
  "6708": "නාපති",
  "6709": "▁උගන්න",
  "6710": "නියක්",
  "6711": "▁–",
  "6712": "▁එකකින්",
  "6713": "▁ලැබෙන්නෙ",
  "6714": "▁චාලි",
  "6715": "▁ඕවා",
  "6716": "▁මුදු",
  "6717": "▁රහස",
  "6718": "▁ගොඩනැගිල්ල",
  "6719": "▁රාජා",
  "6720": "ම්බි",
  "6721": "▁ගන",
  "6722": "▁කලාබර",
  "6723": "▁කෙනෙක්ද",
  "6724": "▁3ක්",
  "6725": "▁ඒකනේ",
  "6726": "▁වමට",
  "6727": "▁පටිගත",
  "6728": "▁ප්‍රං",
  "6729": "රුවන්",
  "6730": "ලියට්",
  "6731": "▁ගොල්ලෝ",
  "6732": "▁දෙවල්",
  "6733": "ie",
  "6734": "▁ඒගොල්ලෝ",
  "6735": "▁ලැහැ",
  "6736": "▁සමූ",
  "6737": "▁ටැං",
  "6738": "▁සහෝදරිය",
  "6739": "ප්පි",
  "6740": "▁කෙසේ",
  "6741": "▁යුරෝ",
  "6742": "▁මන්දා",
  "6743": "බ්ස්",
  "6744": "ද්දා",
  "6745": "▁බලන්නෙ",
  "6746": "▁ඇයත්",
  "6747": "se",
  "6748": "11",
  "6749": "▁පොලීසි",
  "6750": "ans",
  "6751": "▁උං",
  "6752": "ළුවා",
  "6753": "▁වේලායුධ",
  "6754": "▁යාලුවෝ",
  "6755": "▁මිනිත්තුවක්",
  "6756": "▁සාද",
  "6757": "▁ඉඳි",
  "6758": "▁ජනපද",
  "6759": "▁තත්වයක්",
  "6760": "▁තීර",
  "6761": "▁ඕෙ",
  "6762": "▁ගණනක්",
  "6763": "නිස්",
  "6764": "▁නසා",
  "6765": "ove",
  "6766": "▁ප්ලේන්",
  "6767": "වකේ",
  "6768": "▁පැරණි",
  "6769": "▁කලින්ම",
  "6770": "කිසි",
  "6771": "▁රණ",
  "6772": "ld",
  "6773": "කූල",
  "6774": "▁සුරැ",
  "6775": "▁ගාණක්",
  "6776": "▁ගමනක්",
  "6777": "▁ඇපල්",
  "6778": "▁කෙලින්",
  "6779": "▁ප්‍රශ්ණය",
  "6780": "▁නික්",
  "6781": "▁දරුවෙක්",
  "6782": "▁චිත්‍රපට",
  "6783": "▁වේගෙන්",
  "6784": "▁ව්",
  "6785": "iz",
  "6786": "▁ඉගැන්",
  "6787": "▁වනෙවා",
  "6788": "වුම",
  "6789": "▁පිටසක්",
  "6790": "▁අක්",
  "6791": "දුම",
  "6792": "▁ඔක්කොටම",
  "6793": "▁රත්‍රන්",
  "6794": "▁වෙන්නද",
  "6795": "▁පවුල්",
  "6796": "රෙඩ්",
  "6797": "▁උපාධි",
  "6798": "▁title",
  "6799": "▁New",
  "6800": "න්ධන",
  "6801": "▁හැකියා",
  "6802": "ට්ටි",
  "6803": "▁මගුල්",
  "6804": "▁සැරේ",
  "6805": "▁කරනකොට",
  "6806": "▁සහගත",
  "6807": "▁කෙල්ලො",
  "6808": "▁කර්මා",
  "6809": "පතක්",
  "6810": "▁අරිනවා",
  "6811": "▁වහගෙන",
  "6812": "ලෙන්න",
  "6813": "ඇය",
  "6814": "▁පාර්",
  "6815": "arl",
  "6816": "▁වෙමින්",
  "6817": "▁ඇදුම",
  "6818": "▁අවාසනා",
  "6819": "වගේ",
  "6820": "▁නොක",
  "6821": "▁රුසියානු",
  "6822": "▁ද්",
  "6823": "▁බේ",
  "6824": "▁මහෙෙ",
  "6825": "▁මෙහෙයුම්",
  "6826": "▁නත්ත",
  "6827": "හොඳ",
  "6828": "▁නගරයට",
  "6829": "▁වේදි",
  "6830": "▁යැව්වා",
  "6831": "▁කරද",
  "6832": "පදය",
  "6833": "▁මගේම",
  "6834": "▁වැඩිහිටි",
  "6835": "▁ඇත්තක්",
  "6836": "▁අනව",
  "6837": "▁කෑගහ",
  "6838": "▁වෙබ්",
  "6839": "▁තියෙයි",
  "6840": "▁චෞ",
  "6841": "▁කූඩු",
  "6842": "▁රජය",
  "6843": "▁වනු",
  "6844": "▁දෙපාරක්",
  "6845": "▁ඩය",
  "6846": "▁හෙලිකො",
  "6847": "වාදය",
  "6848": "▁බෙලා",
  "6849": "▁දොරවල්",
  "6850": "▁සාප්පු",
  "6851": "▁අධ්‍යක්ෂක",
  "6852": "▁මාලු",
  "6853": "රුයි",
  "6854": "▁ඉවත",
  "6855": "▁එකනේ",
  "6856": "▁කීයද",
  "6857": "▁හෙන",
  "6858": "▁කාල්",
  "6859": "▁ඛාන්",
  "6860": "▁ඔෆිස්",
  "6861": "▁හැමෝවම",
  "6862": "▁නූ",
  "6863": "ඉන්න",
  "6864": "▁රාත්‍රිය",
  "6865": "ව්ස්",
  "6866": "▁විදුලිය",
  "6867": "▁උන්නා",
  "6868": "▁කෑල්ල",
  "6869": "▁translate",
  "6870": "▁යුක්",
  "6871": "වෙල්",
  "6872": "තරා",
  "6873": "නැහැ",
  "6874": "ගත්තද",
  "6875": "▁ඩු",
  "6876": "▁ජීවි",
  "6877": "▁විධානය",
  "6878": "▁නිලධාරියෙක්",
  "6879": "▁හාහ්",
  "6880": "▁දෙයක්ද",
  "6881": "▁කෙලව",
  "6882": "▁අනුකම්පා",
  "6883": "▁නිකී",
  "6884": "▁නර",
  "6885": "න්නෙක්",
  "6886": "යකේ",
  "6887": "පල්",
  "6888": "▁මොඩියුලය",
  "6889": "සිගත",
  "6890": "සුරු",
  "6891": "▁එරෙහිව",
  "6892": "▁වහන්",
  "6893": "දින්නේ",
  "6894": "▁ඔක්සි",
  "6895": "▁ෆී",
  "6896": "▁කීයට",
  "6897": "▁තේරුණාද",
  "6898": "රුවේ",
  "6899": "▁කාවවත්",
  "6900": "ෂින්",
  "6901": "මැලි",
  "6902": "▁දර්ශන",
  "6903": "▁අතුරුදන්",
  "6904": "▁හතු",
  "6905": "වක්ද",
  "6906": "▁විදියටම",
  "6907": "නෙත්",
  "6908": "▁මේකනම්",
  "6909": "කවු",
  "6910": "▁ආලෝකය",
  "6911": "▁වාසු",
  "6912": "▁අල්ලලා",
  "6913": "උඹ",
  "6914": "▁අනතුරේ",
  "6915": "▁‍කො‍",
  "6916": "විල්ල",
  "6917": "▁උදාහර",
  "6918": "▁කෞ",
  "6919": "හේයි",
  "6920": "▁දකු",
  "6921": "වනය",
  "6922": "sia",
  "6923": "▁යනු",
  "6924": "▁වාඩිවෙන්න",
  "6925": "▁මූන",
  "6926": "▁වයින්",
  "6927": "රහිත",
  "6928": "රෝන්",
  "6929": "▁අතරින්",
  "6930": "නකොට",
  "6931": "▁සෙට්",
  "6932": "▁ලඟා",
  "6933": "▁සටන",
  "6934": "▁කළොත්",
  "6935": "▁කාරණය",
  "6936": "ith",
  "6937": "කිරීම",
  "6938": "▁විද්‍යාව",
  "6939": "▁බෝම්බය",
  "6940": "▁ජලය",
  "6941": "▁කමෝන්",
  "6942": "▁ස්ටා",
  "6943": "tr",
  "6944": "▁වැදගත්ම",
  "6945": "▁කඳවුර",
  "6946": "▁මැරිල",
  "6947": "▁හවස",
  "6948": "▁එකපාර",
  "6949": "තුවක්",
  "6950": "▁අන්ද",
  "6951": "▁රවට්ට",
  "6952": "▁හොයාගන්නවා",
  "6953": "▁Reg",
  "6954": "▁ලැස්ති",
  "6955": "▁නිව්යෝක්",
  "6956": "රියාටි",
  "6957": "▁කට්ටියක්",
  "6958": "▁‍ත‍මා",
  "6959": "හොමද",
  "6960": "▁තේරෙනව",
  "6961": "▁නිර්භීත",
  "6962": "ption",
  "6963": "▁මතකයන්",
  "6964": "orn",
  "6965": "▁පෘථිවි",
  "6966": "▁ප්‍රවාහ",
  "6967": "පුවා",
  "6968": "▁රෝග",
  "6969": "චල්",
  "6970": "▁ජෙනරල්",
  "6971": "▁අරමුණ",
  "6972": "▁ඊලගට",
  "6973": "▁බඳි",
  "6974": "▁ඡා",
  "6975": "▁හෘ",
  "6976": "▁දයකෝ",
  "6977": "ගැනීම්",
  "6978": "▁සිටින්න",
  "6979": "මාන්",
  "6980": "▁පැවැ",
  "6981": "▁_",
  "6982": "▁රහසිගත",
  "6983": "▁පෙට්ටිය",
  "6984": "▁දනේ",
  "6985": "▁රිචඩ්",
  "6986": "▁Region",
  "6987": "▁තීරණ",
  "6988": "▁එරික්",
  "6989": "▁නිරී",
  "6990": "පාද",
  "6991": "▁ඉංජිනේ",
  "6992": "▁ජං",
  "6993": "▁තාත්තයි",
  "6994": "▁දහයක්",
  "6995": "▁ඉතාමත්",
  "6996": "▁කාමරේට",
  "6997": "▁ආක්‍රම",
  "6998": "▁වෙලේ",
  "6999": "දර්",
  "7000": "වරණය",
  "7001": "▁ඔෙ",
  "7002": "▁අතීතය",
  "7003": "රනවා",
  "7004": "▁තරම",
  "7005": "▁රාජධා",
  "7006": "▁විද",
  "7007": "කාරයි",
  "7008": "▁වාහනය",
  "7009": "ර්ථකයි",
  "7010": "ජනක",
  "7011": "▁චන්ද්‍",
  "7012": "උනා",
  "7013": "▁එම්",
  "7014": "▁මචේචර",
  "7015": "▁අවශ්ය",
  "7016": "බිම",
  "7017": "▁ලොකුයි",
  "7018": "ජනා",
  "7019": "▁ගං",
  "7020": "▁තාව",
  "7021": "▁අතරමං",
  "7022": "සිටි",
  "7023": "▁--",
  "7024": "▁සතෙක්",
  "7025": "▁ගවේශ",
  "7026": "▁හොයන්නෙ",
  "7027": "▁නිශ්ශ",
  "7028": "▁දෙමු",
  "7029": "▁කාමරයේ",
  "7030": "▁මධ්‍යම",
  "7031": "▁දවසට",
  "7032": "▁වාදනය",
  "7033": "▁උතුමාණෙනි",
  "7034": "▁කැමැත්තෙන්",
  "7035": "▁යන්ත",
  "7036": "▁මොරියාටි",
  "7037": "යෙක්ව",
  "7038": "▁ලබන",
  "7039": "▁පොතක්",
  "7040": "▁ගෞරවයක්",
  "7041": "▁වැස්ස",
  "7042": "▁අනන්‍ය",
  "7043": "▁කාරයෝ",
  "7044": "▁Name",
  "7045": "▁මරණයට",
  "7046": "▁අනුගමනය",
  "7047": "▁තියෙනවාද",
  "7048": "▁දෙවැනි",
  "7049": "▁එක්කෙනා",
  "7050": "ප්ස්",
  "7051": "▁පැහැදිලිවම",
  "7052": "▁කපන්න",
  "7053": "▁ස්ථානයට",
  "7054": "▁මිට",
  "7055": "▁කිහිපයකට",
  "7056": "▁\"%",
  "7057": "▁දෙන්නයි",
  "7058": "▁පිහිටු",
  "7059": "fs",
  "7060": "▁එං",
  "7061": "▁පෙන්වන්නම්",
  "7062": "▁පරිවර්තනය",
  "7063": "▁තෑග්ග",
  "7064": "▁ඒජන්ත",
  "7065": "▁නඩුව",
  "7066": "▁ඇබ්",
  "7067": "▁ඔයාටම",
  "7068": "▁කදු",
  "7069": "▁දිශා",
  "7070": "▁කේතය",
  "7071": "▁බෙරී",
  "7072": "▁සහති",
  "7073": "නමුත්",
  "7074": "▁බ්ලැක්",
  "7075": "▁නොමි",
  "7076": "▁මරයි",
  "7077": "▁හිරු",
  "7078": "ස්ටෝ",
  "7079": "කිත්",
  "7080": "▁පෙම්වතිය",
  "7081": "▁සීතල",
  "7082": "▁‍වෙ‍",
  "7083": "ෂන්",
  "7084": "රන",
  "7085": "ary",
  "7086": "▁වැදිලා",
  "7087": "රේට",
  "7088": "▁තාත්තගෙ",
  "7089": "▁cl",
  "7090": "▁පවස",
  "7091": "15",
  "7092": "▁හොරෙක්",
  "7093": "reat",
  "7094": "ස්ලා",
  "7095": "ussia",
  "7096": "▁පසුගිය",
  "7097": "▁පත්ත",
  "7098": "▁සුද්ද",
  "7099": "ase",
  "7100": "සස්",
  "7101": "▁අනතු",
  "7102": "▁විශ්‍",
  "7103": "▁විදියේ",
  "7104": "▁රජයේ",
  "7105": "▁පුතෙක්",
  "7106": "▁හිතපු",
  "7107": "▁අවේ",
  "7108": "සාස්",
  "7109": "ip",
  "7110": "වෙයන්",
  "7111": "▁උඹලට",
  "7112": "▁වන්න",
  "7113": "ery",
  "7114": "ඇත්ත",
  "7115": "▁කොහා",
  "7116": "ener",
  "7117": "▁‍උ‍",
  "7118": "▁වලි",
  "7119": "▁පර්යේ",
  "7120": "▁වහාම",
  "7121": "නෙකුට",
  "7122": "▁දායි",
  "7123": "තයේ",
  "7124": "ප්ත",
  "7125": "▁ශැ",
  "7126": "▁මෙවල",
  "7127": "යාගන්න",
  "7128": "▁විකල්පයක්",
  "7129": "ලගෙ",
  "7130": "▁කිවුව",
  "7131": "▁දීපු",
  "7132": "▁නමින්",
  "7133": "▁හානියක්",
  "7134": "▁තන",
  "7135": "▁ප්‍රතිඵ",
  "7136": "වුනත්",
  "7137": "▁සාකච්ඡා",
  "7138": "සිස්",
  "7139": "බිල",
  "7140": "▁සිටියා",
  "7141": "ගුණ",
  "7142": "▁විට්නි",
  "7143": "ක්ෂණය",
  "7144": "ock",
  "7145": "▁හොරක",
  "7146": "▁ගියපු",
  "7147": "▁ශබ්",
  "7148": "වීන්",
  "7149": "▁ඒවගෝ",
  "7150": "▁‍කි‍ය‍",
  "7151": "▁කර්මාන්ත",
  "7152": "▁මොකෙක්",
  "7153": "▁ස්කෝ",
  "7154": "▁මාර්ගයක්",
  "7155": "▁ෂර්ලොක්",
  "7156": "▁තට්ටුවේ",
  "7157": "▁කැලෑ",
  "7158": "▁රේචල්",
  "7159": "▁පේනව",
  "7160": "▁හැංගෙන්න",
  "7161": "▁තුනකට",
  "7162": "වෙදි",
  "7163": "ash",
  "7164": "කිරීම්",
  "7165": "ලූවන්",
  "7166": "▁සිරාවටම",
  "7167": "▁ඩයි",
  "7168": "නීය",
  "7169": "▁සවන්",
  "7170": "▁ෆ්රෑන්ක්",
  "7171": "▁පුදුමයක්",
  "7172": "▁එවුන්",
  "7173": "▁පරම්",
  "7174": "▁le",
  "7175": "▁වෙඩිතිය",
  "7176": "▁අඳුන",
  "7177": "▁22",
  "7178": "▁විවේකයක්",
  "7179": "▁මියා",
  "7180": "▁ඔනෙ",
  "7181": "1cHFF",
  "7182": "an0",
  "7183": "▁නොකි",
  "7184": "ස්සෙක්",
  "7185": "▁කෙහෙ",
  "7186": "▁මෙෙ",
  "7187": "▁බිම්",
  "7188": "▁ට්‍රේ",
  "7189": "▁වැරදියට",
  "7190": "▁අපගේ",
  "7191": "මාන්‍ය",
  "7192": "කරගෙන",
  "7193": "▁වුවමනා",
  "7194": "▁pl",
  "7195": "▁සංඛ්‍",
  "7196": "▁සතියක්",
  "7197": "ts",
  "7198": "▁යමුද",
  "7199": "▁හයක්",
  "7200": "▁ලේසියි",
  "7201": "▁සංස්",
  "7202": "වුමක්",
  "7203": "▁කැරකෙ",
  "7204": "▁එයයි",
  "7205": "▁පත්‍ර",
  "7206": "▁.\"",
  "7207": "▁‍නේ",
  "7208": "▁my",
  "7209": "▁ඝාතනය",
  "7210": "▁තමුන්ගේ",
  "7211": "▁ළමයින්ට",
  "7212": "▁මෑන්",
  "7213": "▁කළින්",
  "7214": "b3",
  "7215": "▁සමීප",
  "7216": "▁අඩුවෙන්",
  "7217": "▁මුකුත්ම",
  "7218": "රුම්",
  "7219": "▁ගැහෙන්න",
  "7220": "▁හැදි",
  "7221": "▁යානයේ",
  "7222": "ලේඛ",
  "7223": "▁පව්",
  "7224": "▁60",
  "7225": "▁that",
  "7226": "▁තිර",
  "7227": "▁නෙවෙයිද",
  "7228": "▁බෝත",
  "7229": "▁දුරස්ථ",
  "7230": "▁බොරුවට",
  "7231": "හරිද",
  "7232": "AN",
  "7233": "▁අතහැ",
  "7234": "▁බිස්නස්",
  "7235": "▁වැඩිම",
  "7236": "▁මොඩ",
  "7237": "▁දීපන්",
  "7238": "▁තේරුනේ",
  "7239": "▁නීතී",
  "7240": "▁ඕනේද",
  "7241": "▁ජර්",
  "7242": "පියල්",
  "7243": "▁not",
  "7244": "▁කඩුව",
  "7245": "▁පච්ච",
  "7246": "▁ඉන්ධන",
  "7247": "▁ඇඳුමක්",
  "7248": "▁අමන",
  "7249": "▁කරද්දි",
  "7250": "▁එව්වා",
  "7251": "▁නොදන්නා",
  "7252": "▁බීලා",
  "7253": "▁කාරණාව",
  "7254": "▁ඉතිහාස",
  "7255": "▁සැහැ",
  "7256": "▁රෝස",
  "7257": "▁ජොබ්",
  "7258": "▁සිටිය",
  "7259": "බලා",
  "7260": "▁කම්ප",
  "7261": "▁කළාද",
  "7262": "බල්",
  "7263": "න්වා",
  "7264": "ශීලී",
  "7265": "තයට",
  "7266": "▁හැක්",
  "7267": "▁ජාතියේ",
  "7268": "▁රැල්ෆ්",
  "7269": "▁සෘ",
  "7270": "▁ඊටත්",
  "7271": "▁ක්ලාර්ක්",
  "7272": "▁දීම",
  "7273": "▁නාන",
  "7274": "▁පුද්ගලයෙක්",
  "7275": "▁එකෝ",
  "7276": "▁අවම",
  "7277": "▁පුලූවන්",
  "7278": "▁අම්මයි",
  "7279": "▁කාරය",
  "7280": "▁විශිෂ්ට",
  "7281": "▁අල්ලන්",
  "7282": "චර්",
  "7283": "▁පවුලට",
  "7284": "▁//",
  "7285": "▁දක්වන්න",
  "7286": "▁පෙරනිමි",
  "7287": "▁ෙන",
  "7288": "▁ක්‍ර",
  "7289": "▁අහන",
  "7290": "බොත්",
  "7291": "ලෝක",
  "7292": "▁ඔයි",
  "7293": "▁අඳුරු",
  "7294": "▁වැදුනා",
  "7295": "▁වෙතට",
  "7296": "▁එලිය",
  "7297": "▁දුරින්",
  "7298": "▁නිවස",
  "7299": "▁=",
  "7300": "▁විමර්ශ",
  "7301": "▁පිටත",
  "7302": "ස්සා",
  "7303": "▁කරුනාකරල",
  "7304": "▁සන්නිවේ",
  "7305": "▁ටර්",
  "7306": "▁කරන්නෑ",
  "7307": "▁ගන්නවද",
  "7308": "අයි",
  "7309": "▁නරක්",
  "7310": "▁‍ප‍",
  "7311": "කරණයක්",
  "7312": "▁රොබ්",
  "7313": "▁ඔහුගෙන්",
  "7314": "▁පැහැරගෙන",
  "7315": "▁∙∙",
  "7316": "▁දකිනවා",
  "7317": "ah",
  "7318": "සබෙ",
  "7319": "▁උහ්",
  "7320": "▁පථ",
  "7321": "▁මෙක්සි",
  "7322": "▁විශේෂයෙන්ම",
  "7323": "▁කිට්ටු",
  "7324": "▁ටා",
  "7325": "ඥයා",
  "7326": "▁එකක්වත්",
  "7327": "▁ගැන්වීම",
  "7328": "▁කණ්ඩායමට",
  "7329": "▁ලැබේවි",
  "7330": "▁ඔතනින්",
  "7331": "▁කියනවනම්",
  "7332": "▁ලියුම්",
  "7333": "▁ඔලුවට",
  "7334": "▁DNA",
  "7335": "▁කතාකරන්නේ",
  "7336": "▁ඉරණ",
  "7337": "abel",
  "7338": "▁රැන්",
  "7339": "▁‍අ",
  "7340": "▁පළි",
  "7341": "▁ග්‍රෙ",
  "7342": "1cHFF0",
  "7343": "▁බිලී",
  "7344": "යේම",
  "7345": "▁ජංගම",
  "7346": "▁පුද්ගලයා",
  "7347": "▁බාග",
  "7348": "බව",
  "7349": "▁කොලු",
  "7350": "AR",
  "7351": "▁සිරුර",
  "7352": "▁state",
  "7353": "▁අමතන්න",
  "7354": "▁උමං",
  "7355": "දිසි",
  "7356": "▁හිටියත්",
  "7357": "▁htt",
  "7358": "▁http",
  "7359": "▁එමිලි",
  "7360": "▁සිගරට්",
  "7361": "▁රුධි",
  "7362": "▁වේලායුධම්",
  "7363": "▁කට්ට",
  "7364": "▁කපිතාන්",
  "7365": "▁අවුරුද්දේ",
  "7366": "▁උන්ගෙ",
  "7367": "▁චාර්ල්ස්",
  "7368": "▁මොහු",
  "7369": "▁දෙවියනි",
  "7370": "▁ගිලන්",
  "7371": "▁කොහාටද",
  "7372": "▁රේස්",
  "7373": "▁කිලෝ",
  "7374": "erman",
  "7375": "ලන",
  "7376": "▁වීදි",
  "7377": "▁නොවී",
  "7378": "▁ඔක්සිජන්",
  "7379": "▁අන්තර්ජා",
  "7380": "▁කැසි",
  "7381": "▁සකස්",
  "7382": "▁an",
  "7383": "▁සේප්පු",
  "7384": "▁පාළු",
  "7385": "_C",
  "7386": "දායි",
  "7387": "වුනු",
  "7388": "ම්හා",
  "7389": "▁අඩුයි",
  "7390": "▁වරු",
  "7391": "▁මහත්තය",
  "7392": "▁අහුවුනා",
  "7393": "▁කයි",
  "7394": "▁ඇයගෙ",
  "7395": "▁ගත්තු",
  "7396": "▁බෝල",
  "7397": "▁කව්රු",
  "7398": "▁කියන්නකෝ",
  "7399": "සන",
  "7400": "▁සන්ධ්‍යාවක්",
  "7401": "▁කරුනාකරලා",
  "7402": "ප්ටි",
  "7403": "▁මාසෙ",
  "7404": "▁බැට්",
  "7405": "▁මට්ටමේ",
  "7406": "▁කවදාහරි",
  "7407": "▁දෙවියෝ",
  "7408": "යෙම",
  "7409": "▁ත්",
  "7410": "ණයට",
  "7411": "රුණු",
  "7412": "▁තිස්සෙම",
  "7413": "ෆර්",
  "7414": "▁ඔහෙට",
  "7415": "▁තිබ",
  "7416": "▁ගමට",
  "7417": "▁අභ්‍යන්තර",
  "7418": "▁බයික්",
  "7419": "▁ප්‍රතිපත්",
  "7420": "▁වම",
  "7421": "▁සොහො",
  "7422": "▁වෙන්නෑ",
  "7423": "▁වීර්",
  "7424": "▁නිවැරදියි",
  "7425": "▁මරණවා",
  "7426": "▁කබඩි",
  "7427": "▁චීන",
  "7428": "ඩ්ස්",
  "7429": "▁ඇමරිකාව",
  "7430": "▁සමාවනේන",
  "7431": "▁එක්සත්",
  "7432": "▁පරීක්ෂණයක්",
  "7433": "ලකට",
  "7434": "▁ගෑණි",
  "7435": "cHFFFF",
  "7436": "▁හරියයි",
  "7437": "▁උබව",
  "7438": "▁පිරිලා",
  "7439": "▁සීසර්",
  "7440": "▁ප්‍රංශ",
  "7441": "ject",
  "7442": "▁action",
  "7443": "▁ඡායා",
  "7444": "▁නෙවි",
  "7445": "▁මුනගැ",
  "7446": "ක්‍රිය",
  "7447": "▁තියේද",
  "7448": "වුණ",
  "7449": "▁ඇතුලත්",
  "7450": "▁කඩන්න",
  "7451": "▁කෙලි",
  "7452": "▁යාවත්",
  "7453": "3cHFFFF",
  "7454": "3cHFFFFFF",
  "7455": "▁පැයකට",
  "7456": "▁වශයෙන්ම",
  "7457": "▁ද්‍රෝහි",
  "7458": "▁ස්වො",
  "7459": "වනව",
  "7460": "ක්‍රියා",
  "7461": "▁ඥා",
  "7462": "▁බලාපොරොත්තුව",
  "7463": "▁සලකුණක්",
  "7464": "▁තුලින්",
  "7465": "▁අමා",
  "7466": "▁තිබ්බොත්",
  "7467": "▁සම්භ",
  "7468": "50",
  "7469": "▁අධිරා",
  "7470": "සෙන",
  "7471": "සෙන්",
  "7472": "▁ඇත්",
  "7473": "▁නිවාඩු",
  "7474": "▁අවංකවම",
  "7475": "▁මහාචාර්ය",
  "7476": "▁මිත්‍රයා",
  "7477": "▁ඉක්මණි",
  "7478": "▁අල්ලාගෙන",
  "7479": "▁ටොමී",
  "7480": "▁වීමක්",
  "7481": "▁කරාට",
  "7482": "▁දුරක්",
  "7483": "▁mon",
  "7484": "▁ලැබුණ",
  "7485": "▁තොරතුරක්",
  "7486": "▁මිනිහකේ",
  "7487": "▁ආයුධය",
  "7488": "▁සාක්කු",
  "7489": "▁විතරද",
  "7490": "▁ඈත",
  "7491": "▁ඉස්කෝලේ",
  "7492": "▁යද්දි",
  "7493": "ච්චරක්",
  "7494": "▁තානාපති",
  "7495": "▁යටින්",
  "7496": "▁මෙහෙය",
  "7497": "ඩ්නි",
  "7498": "▁අනකේ",
  "7499": "▁ළග",
  "7500": "ස්තා",
  "7501": "▁ආදරයි",
  "7502": "▁බදු",
  "7503": "ත්මකයි",
  "7504": "▁අවධා",
  "7505": "▁බ්‍රැ",
  "7506": "▁උගන්වන්න",
  "7507": "▁විශිෂ්ඨ",
  "7508": "▁දෙකකින්",
  "7509": "කුගේ",
  "7510": "▁කළමණා",
  "7511": "තකොට",
  "7512": "ක්‍රි",
  "7513": "▁රජතුමා",
  "7514": "▁ගණනය",
  "7515": "දෙනාම",
  "7516": "▁සැහැල්ලු",
  "7517": "▁ගානකට",
  "7518": "▁ඕනනම්",
  "7519": "කීම්",
  "7520": "ශිර්",
  "7521": "▁නැනේ",
  "7522": "▁ඔබෙ",
  "7523": "▁ඇමතුම",
  "7524": "▁නිආ",
  "7525": "▁හැඟීම්",
  "7526": "▁රෝස්",
  "7527": "▁මමම",
  "7528": "▁විලා",
  "7529": "▁ක්ලික්",
  "7530": "▁කර්නල්",
  "7531": "▁ගැනි",
  "7532": "▁පරිගණක",
  "7533": "▁රාත්‍රී",
  "7534": "▁but",
  "7535": "▁:",
  "7536": "ගාර",
  "7537": "▁මැති",
  "7538": "▁දුරකතන",
  "7539": "▁පාඩ",
  "7540": "දක්",
  "7541": "▁ජුලියට්",
  "7542": "▁සාජන්ට්",
  "7543": "▁සතා",
  "7544": "▁කාවද",
  "7545": "එන්න",
  "7546": "▁න්‍යෂ්ටික",
  "7547": "▁කරනවාද",
  "7548": "▁රාජු",
  "7549": "▁රියදු",
  "7550": "▁ටෙක්",
  "7551": "▁කැමැත්තක්",
  "7552": "▁නාට්‍",
  "7553": "▁count",
  "7554": "ick",
  "7555": "▁හම්බවුනා",
  "7556": "එයාට",
  "7557": "up",
  "7558": "▁වාද",
  "7559": "▁ක්ලෙයර්",
  "7560": "▁කපා",
  "7561": "ලිමත්",
  "7562": "▁බොබී",
  "7563": "ක්ෂි",
  "7564": "▁කෙල්ලට",
  "7565": "▁ආයුධයක්",
  "7566": "▁වට්ට",
  "7567": "පට",
  "7568": "▁අසු",
  "7569": "▁පරිදි",
  "7570": "වහම",
  "7571": "දෙන්නේ",
  "7572": "▁ශබ්ද",
  "7573": "nu",
  "7574": "▁4ක්",
  "7575": "▁චන්ද්‍රිකා",
  "7576": "▁හොරා",
  "7577": "▁ගහන්නේ",
  "7578": "කරපු",
  "7579": "▁වැළ",
  "7580": "▁Ar",
  "7581": "▁එමෙ",
  "7582": "▁කොලේ",
  "7583": "▁will",
  "7584": "▁උබලා",
  "7585": "කයින්",
  "7586": "▁අත්වැ",
  "7587": "පරා",
  "7588": "▁සනීප",
  "7589": "▁මෙතෙන්ට",
  "7590": "▁පොඩ්ඩ",
  "7591": "▁අපෝ",
  "7592": "වේදි",
  "7593": "▁ඩිරෙක්ටරිය",
  "7594": "own",
  "7595": "▁කෙනෙක්ම",
  "7596": "▁එලියෙ",
  "7597": "▁පීනන්න",
  "7598": "▁දුපතේ",
  "7599": "▁පුරව",
  "7600": "az",
  "7601": "▁‍ඉ",
  "7602": "▁විවර",
  "7603": "රෙන්නෙ",
  "7604": "ෂ්ටයි",
  "7605": "▁ප්‍රමාද",
  "7606": "▁ගැහුවේ",
  "7607": "රීම්",
  "7608": "▁දාන්නේ",
  "7609": "▁වෙනකල්",
  "7610": "▁ගණුදෙනුවක්",
  "7611": "▁ඔක්කෝම",
  "7612": "▁මිලදී",
  "7613": "▁පැමිණී",
  "7614": "ant",
  "7615": "▁අසල්",
  "7616": "ම්ප්",
  "7617": "▁පාලකය",
  "7618": "▁මහත්වරු",
  "7619": ",.",
  "7620": "කරුවා",
  "7621": "ල්විල්",
  "7622": "මුද",
  "7623": "▁වගකීමක්",
  "7624": "▁මේරි",
  "7625": "▁300",
  "7626": "▁කරත්",
  "7627": "▁විශ්ලේ",
  "7628": "රයන්",
  "7629": "▁මොකුත්ම",
  "7630": "▁වීරයා",
  "7631": "▁රෝහලේ",
  "7632": "▁ෆ්‍රැ",
  "7633": "ත්වයට",
  "7634": "▁වීමේ",
  "7635": "▁හොරු",
  "7636": "වර්ඩ්",
  "7637": "▁පැයක්",
  "7638": "▁ගනියි",
  "7639": "mb",
  "7640": "▁දෙමව්පි",
  "7641": "▁නොහැකියි",
  "7642": "og",
  "7643": "ස්කෝ",
  "7644": "ලියක්",
  "7645": "▁මිනිහගේ",
  "7646": "ave",
  "7647": "▁‍ති‍",
  "7648": "වාගන්න",
  "7649": "▁අයගෙන්",
  "7650": "▁එහෙමනම්",
  "7651": "▁යනකම්",
  "7652": "▁ඇලි",
  "7653": "ter",
  "7654": "ව්වොත්",
  "7655": "න්දෙ",
  "7656": "රයකට",
  "7657": "▁මිතුර",
  "7658": "රයෙක්",
  "7659": "▁බැලුවේ",
  "7660": "▁නැවතිලා",
  "7661": "▁ප්‍රයෝජනවත්",
  "7662": "▁wor",
  "7663": "▁පවතින",
  "7664": "▁නිකුත්",
  "7665": "මානය",
  "7666": "▁ආරක්ශක",
  "7667": "▁අල්ලනවා",
  "7668": "▁නිමවන්න",
  "7669": "රාල්",
  "7670": "▁කනගාටුයි",
  "7671": "▁සිද්ධිය",
  "7672": "▁ඇඳගෙන",
  "7673": "▁හරව",
  "7674": "▁භාගයක්",
  "7675": "▁ෆ්ලෑ",
  "7676": "▁ඇනී",
  "7677": "▁යාලුවො",
  "7678": "ග්ස්",
  "7679": "දම",
  "7680": "▁හැන්",
  "7681": "▁දෙකේ",
  "7682": "▁ස්වොයර්",
  "7683": "▁ගන්නයි",
  "7684": "▁ශිෂ්‍ය",
  "7685": "▁මාං",
  "7686": "පයකින්",
  "7687": "▁සමාගමේ",
  "7688": "▁ණයයි",
  "7689": "▁නිදාගෙන",
  "7690": "ණ්ඩය",
  "7691": "▁හැඟීමක්",
  "7692": "වාන්",
  "7693": "▁සැත්",
  "7694": "▁කාලයේ",
  "7695": "▁බැල්ලිගෙ",
  "7696": "▁වස්තුව",
  "7697": "▁කල්ලි",
  "7698": "▁ගාණ",
  "7699": "▁විල",
  "7700": "▁නිලධාරියා",
  "7701": "මෙක්",
  "7702": "▁සජී",
  "7703": "▁නැව්",
  "7704": "▁හිටියනම්",
  "7705": "▁වනේනේ",
  "7706": "▁ශ්",
  "7707": "▁ස්ථිර",
  "7708": "▁මෙයාලා",
  "7709": "▁ඒත්තු",
  "7710": "▁කන්ඩාය",
  "7711": "විල්ලක්",
  "7712": "ines",
  "7713": "කද",
  "7714": "▁පිරිසක්",
  "7715": "▁sub",
  "7716": "▁පසුපස",
  "7717": "▁තැබී",
  "7718": "▁ෂෝන්",
  "7719": "▁සිංදු",
  "7720": "▁ඇලිස්",
  "7721": "▁ඉදිරියේ",
  "7722": "▁පොහො",
  "7723": "▁තොරා",
  "7724": "▁ගත්තට",
  "7725": "▁vi",
  "7726": "▁ගෑස්",
  "7727": "▁පාටයි",
  "7728": "▁label",
  "7729": "▁වගකීම",
  "7730": "▁බදා",
  "7731": "▁$",
  "7732": "▁නොපෙ",
  "7733": "\",",
  "7734": "▁අරගත්තා",
  "7735": "▁අක්කා",
  "7736": "ළඟ",
  "7737": "▁පින්තූරයක්",
  "7738": "▁නාද",
  "7739": "▁ඉස්සෙල්ල",
  "7740": "▁ෙකා",
  "7741": "▁ගොදුරු",
  "7742": "▁හොඳද",
  "7743": "අර",
  "7744": "▁දැක්කනේ",
  "7745": "▁දඩුව",
  "7746": "▁ප්‍රාණ",
  "7747": "▁අව්",
  "7748": "▁ලද",
  "7749": "▁අවුරුද්දක්",
  "7750": "▁සහයෝ",
  "7751": "▁දේපල",
  "7752": "▁ජාවා",
  "7753": "▁දරාගන්න",
  "7754": "▁අවබෝධ",
  "7755": "▁අතරෙ",
  "7756": "▁ගණන",
  "7757": "▁ආත්",
  "7758": "▁සම්පූර්ණයෙන්",
  "7759": "▁මිතු",
  "7760": "▁‍එ",
  "7761": "▁උදේට",
  "7762": "▁අර්ථ",
  "7763": "▁කෝවි",
  "7764": "කරයි",
  "7765": "▁පිළිබඳව",
  "7766": "▁col",
  "7767": "▁භාෂාව",
  "7768": "▁with",
  "7769": "▁‍මො‍",
  "7770": "▁වැටුන",
  "7771": "▁සිත්ගන්නා",
  "7772": "▁හදල",
  "7773": "▁කරගත්ත",
  "7774": "▁අපරා",
  "7775": "▁වහල",
  "7776": "▁උන්නෙ",
  "7777": "ඉතින්",
  "7778": "▁හුර",
  "7779": "▁හම",
  "7780": "▁ගුඩ්",
  "7781": "▁තිබුණෙ",
  "7782": "▁හංග",
  "7783": "ck",
  "7784": "▁හෘද",
  "7785": "▁කියලත්",
  "7786": "▁වලක්",
  "7787": "▁මිසයිල",
  "7788": "▁තාත්තාගේ",
  "7789": "▁නවත්වනවා",
  "7790": "▁ඇවිදගෙන",
  "7791": "▁ඉතිහාසය",
  "7792": "▁අන්තිමේදි",
  "7793": "▁රෑම",
  "7794": "▁සංඥාව",
  "7795": "▁උණා",
  "7796": "පිත",
  "7797": "නේද",
  "7798": "▁විශ්‍රාම",
  "7799": "▁හර්",
  "7800": "▁යන්ත්‍රයක්",
  "7801": "▁තරගය",
  "7802": "▁පෙන",
  "7803": "▁සිටී",
  "7804": "▁එස්",
  "7805": "▁ඡන්ද",
  "7806": "▁සම්බන්ධය",
  "7807": "▁do",
  "7808": "▁ප්‍රථ",
  "7809": "▁සන්න",
  "7810": "▁දියමන්",
  "7811": "▁ඛ",
  "7812": "▁හොදද",
  "7813": "▁අංශක",
  "7814": "▁සිහිය",
  "7815": "▁ඕකට",
  "7816": "▁මාතෘ",
  "7817": "▁පුවත්",
  "7818": "▁අපරාධයක්",
  "7819": "▁එලව",
  "7820": "▁ඉන්නයි",
  "7821": "▁කෑමක්",
  "7822": "▁අවට",
  "7823": "▁දමා",
  "7824": "▁නියෝජිතයෙක්",
  "7825": "▁ආශිර්",
  "7826": "▁විධියට",
  "7827": "▁රිදෙනවා",
  "7828": "▁හිතන්නෑ",
  "7829": "▁Dr",
  "7830": "ප්පෙ",
  "7831": "හදා",
  "7832": "▁ගියත්",
  "7833": "▁යන්ත්‍රය",
  "7834": "▁සහාය",
  "7835": "▁ප්‍රිය",
  "7836": "▁සාරා",
  "7837": "වාහි",
  "7838": "ico",
  "7839": "▁ගැලපෙන",
  "7840": "▁එලවන්න",
  "7841": "▁great",
  "7842": "▁Count",
  "7843": "our",
  "7844": "▁පැහැදිලිව",
  "7845": "▁කන්නේ",
  "7846": "▁ජොනී",
  "7847": "▁භට",
  "7848": "▁වැඩසටහන්",
  "7849": "▁රොබට්",
  "7850": "▁අපේක්ෂා",
  "7851": "කින්ද",
  "7852": "▁ඇහුන",
  "7853": "විද්‍යා",
  "7854": "▁පියව",
  "7855": "▁ඇහුවෙ",
  "7856": "▁බිත්තර",
  "7857": "කාමී",
  "7858": "▁මෙයාගෙ",
  "7859": "ik",
  "7860": "▁දැමී",
  "7861": "▁පාසලේ",
  "7862": "▁ස්ට්‍",
  "7863": "▁කියු",
  "7864": "▁සුරංග",
  "7865": "▁ඒවාට",
  "7866": "▁‍මේ",
  "7867": "▁කාලෙක",
  "7868": "▁ඔලිවර්",
  "7869": "▁නෝනාවරුනි",
  "7870": "පන්න",
  "7871": "කාශය",
  "7872": "▁......",
  "7873": "▁stat",
  "7874": "▁ත්‍යා",
  "7875": "එපා",
  "7876": "▁ඉදගෙන",
  "7877": "▁නැඟිටි",
  "7878": "▁රැන්චෝ",
  "7879": "යකටම",
  "7880": "▁දෙකක",
  "7881": "▁ගහපන්",
  "7882": "▁පෙති",
  "7883": "▁.....",
  "7884": "▁ඔයට",
  "7885": "▁එක්තරා",
  "7886": "ස්සුවා",
  "7887": "▁මගුලේ",
  "7888": "▁විලිය",
  "7889": "කාන්ත්",
  "7890": "▁ආදරෙන්",
  "7891": "▁චෞද්",
  "7892": "▁දණ",
  "7893": "ich",
  "7894": "▁මේජර්",
  "7895": "▁අපූ",
  "7896": "▁ටේලර්",
  "7897": "▁අනතුරුදායක",
  "7898": "ශීය",
  "7899": "▁ලෝකයට",
  "7900": "▁සමහරු",
  "7901": "▁සම්ප්‍රේ",
  "7902": "▁හරින්න",
  "7903": "ෆ්ට්",
  "7904": "▁සතියකට",
  "7905": "▁සබ්",
  "7906": "▁මෙයාල",
  "7907": "▁කට්ටියම",
  "7908": "▁පරන",
  "7909": "එල්",
  "7910": "▁පිලිගන්න",
  "7911": "▁හැමො",
  "7912": "ච්චු",
  "7913": "▁සම්පුර්ණයෙන්ම",
  "7914": "▁හැමෝගෙම",
  "7915": "▁පරීක්ෂණය",
  "7916": "▁ඉස්සෙල්ලා",
  "7917": "▁කතාකරන්නෙ",
  "7918": "▁වතු",
  "7919": "▁window",
  "7920": "▁වෙල",
  "7921": "▁මිනීමැරුම්",
  "7922": "▁උන්න",
  "7923": "▁උත්තරයක්",
  "7924": "▁දුන්නද",
  "7925": "විශේ",
  "7926": "▁අහපු",
  "7927": "RL",
  "7928": "වෙච්ච",
  "7929": "lease",
  "7930": "▁භෞ",
  "7931": "නෙට්",
  "7932": "▁සද්දයක්",
  "7933": "රෙස්",
  "7934": "▁මගුලක්",
  "7935": "▁එඩී",
  "7936": "▁හදුනා",
  "7937": "▁ආරක්ෂාවට",
  "7938": "▁ෂෙරිෆ්",
  "7939": "▁විකුණන්න",
  "7940": "▁දුවනවා",
  "7941": "▁ඒවගෝම",
  "7942": "▁වැඩත",
  "7943": "▁හොයාගත්තෙ",
  "7944": "▁හරී",
  "7945": "ගැනි",
  "7946": "▁මුද්ද",
  "7947": "▁රාජකී",
  "7948": "වගන්න",
  "7949": "▁කළමනා",
  "7950": "▁රත්",
  "7951": "pl",
  "7952": "තිනන්",
  "7953": "▁අපිටත්",
  "7954": "▁පාසල්",
  "7955": "▁ලැජ්ජ",
  "7956": "ෆීල්ඩ්",
  "7957": "▁ඩැනිය",
  "7958": "▁දෙපාර්තමේන්තු",
  "7959": "▁අත්‍",
  "7960": "ගම්",
  "7961": "▁පිටසක්වල",
  "7962": "▁ඉදල",
  "7963": "▁සලකා",
  "7964": "▁ආදරයක්",
  "7965": "▁අඳි",
  "7966": "▁සතුරන්",
  "7967": "ර්ඝ",
  "7968": "▁ආහා",
  "7969": "▁පත්තු",
  "7970": "▁කියවනවා",
  "7971": "ero",
  "7972": "▁පැතික",
  "7973": "▁සීයේ",
  "7974": "▁ශරීරය",
  "7975": "▁ප්‍රමාණයක්",
  "7976": "▁බැද",
  "7977": "▁දඟ",
  "7978": "ත්‍යානු",
  "7979": "යන්ගෙන්",
  "7980": "▁මරන්නේ",
  "7981": "▁උතුර",
  "7982": "ජලී",
  "7983": "▁ස්ටි",
  "7984": "▁හදවතේ",
  "7985": "▁ඔස",
  "7986": "▁Z",
  "7987": "uk",
  "7988": "▁ආචාර",
  "7989": "▁වනෙු",
  "7990": "▁It",
  "7991": "▁තරඟය",
  "7992": "▁වොල්",
  "7993": "▁ධාවන",
  "7994": "ලනවා",
  "7995": "▁පරාජය",
  "7996": "▁බාත්",
  "7997": "▁තියෙනවනම්",
  "7998": "ඩුවා",
  "7999": "▁එවිට",
  "8000": "▁හමුදාවේ",
  "8001": "▁ගැනීමේ",
  "8002": "▁කරවනවා",
  "8003": "කයකේ",
  "8004": "වකින්",
  "8005": "▁පීට්",
  "8006": "වනැ",
  "8007": "▁තර්ජනයක්",
  "8008": "▁ස්ථානයේ",
  "8009": "▁වර්ත",
  "8010": "▁ලිපිගො",
  "8011": "ටුප",
  "8012": "▁අවන්",
  "8013": "ලාස්",
  "8014": "▁23",
  "8015": "▁මටනම්",
  "8016": "▁ඉරණම",
  "8017": "ermany",
  "8018": "වාදියෙක්",
  "8019": "මර්",
  "8020": "▁ඈතට",
  "8021": "▁වෙහෙ",
  "8022": "▁තමුසෙව",
  "8023": "▁කලාම",
  "8024": "▁හෙලවෙන්න",
  "8025": "▁තුලට",
  "8026": "▁හැබෑ",
  "8027": "▁ඕනවට",
  "8028": "රේවි",
  "8029": "▁එක්කගනෙ",
  "8030": "ම්මා",
  "8031": "මොකක්",
  "8032": "▁වසා",
  "8033": "▁අම්මගේ",
  "8034": "නැද්ද",
  "8035": "▁වැඩකරන",
  "8036": "▁සුරංගනා",
  "8037": "▁විශාල්",
  "8038": "▁වැරද්දක්",
  "8039": "▁දයි",
  "8040": "▁අන්තිමේදී",
  "8041": "▁නොවැ",
  "8042": "▁ලැහැස්ති",
  "8043": "ext",
  "8044": "▁සාක්ෂියක්",
  "8045": "▁ප්‍රහාරයක්",
  "8046": "▁ආරක්ශි",
  "8047": "▁දැනෙන්න",
  "8048": "▁කලත්",
  "8049": "▁කිව",
  "8050": "▁අංකයක්",
  "8051": "▁දවසම",
  "8052": "▁Charl",
  "8053": "▁දැනගත්තේ",
  "8054": "▁හෝටලේ",
  "8055": "▁ඩග්",
  "8056": "▁දරුවන්",
  "8057": "පන්දු",
  "8058": "▁සභාපති",
  "8059": "iv",
  "8060": "නියේ",
  "8061": "▁ජරාවක්",
  "8062": "▁එකතුවෙලා",
  "8063": "▁වාරය",
  "8064": "▁නන්දු",
  "8065": "isc",
  "8066": "▁කාර්‍ය",
  "8067": "▁යද්දී",
  "8068": "▁හෙල්ලෙ",
  "8069": "▁ජීවතුන්",
  "8070": "▁එහෙදි",
  "8071": "▁Country",
  "8072": "ව්වද",
  "8073": "▁වුණොත්",
  "8074": "▁වාසි",
  "8075": "▁how",
  "8076": "▁කරද්දී",
  "8077": "▁ලියාප",
  "8078": "▁ඇමතුම්",
  "8079": "▁පින්තුර",
  "8080": "▁බහලුම",
  "8081": "▁gr",
  "8082": "▁වදවෙන්න",
  "8083": "▁අනිවාරෙන්",
  "8084": "▁මාරයි",
  "8085": "▁පිංතූ",
  "8086": "බ්බ",
  "8087": "▁සම්බන්ධයි",
  "8088": "තාවට",
  "8089": "▁z",
  "8090": "▁හොල්මන්",
  "8091": "▁තාත්තාට",
  "8092": "▁රුපියල්",
  "8093": "▁දරුවෝ",
  "8094": "▁බවයි",
  "8095": "▁මගුලෙ",
  "8096": "පමණ",
  "8097": "▁පැකේ",
  "8098": "▁පාඩුවේ",
  "8099": "▁ටිකයි",
  "8100": "කයෝ",
  "8101": "▁සැලසුම",
  "8102": "▁නිමැ",
  "8103": "▁තේර",
  "8104": "0ක්",
  "8105": "▁‍ඔ‍යා‍",
  "8106": "▁ඉහලට",
  "8107": "එතකොට",
  "8108": "ලම්",
  "8109": "▁නිවසට",
  "8110": "රියෙ",
  "8111": "සුන",
  "8112": "මහ",
  "8113": "▁එව්වේ",
  "8114": "▁කාත්",
  "8115": "▁පීඩනය",
  "8116": "▁කාමරයක්",
  "8117": "▁බලං",
  "8118": "▁අවා",
  "8119": "▁තනියෙන්",
  "8120": "▁ෆේන්",
  "8121": "▁හැගීම්",
  "8122": "ලෙනවා",
  "8123": "▁කොල්",
  "8124": "▁ඔරලෝසුව",
  "8125": "▁විසඳු",
  "8126": "▁සඟ",
  "8127": "ගයේ",
  "8128": "▁ම‍",
  "8129": "▁brit",
  "8130": "▁britain",
  "8131": "▁britain_",
  "8132": "▁counties",
  "8133": "▁ලවු",
  "8134": "සුන්ව",
  "8135": "▁සැකයි",
  "8136": "▁රගපා",
  "8137": "▁බැංකුව",
  "8138": "▁හයියක්",
  "8139": "ark",
  "8140": "▁හම්බවෙමු",
  "8141": "▁අධිරාජ්‍ය",
  "8142": "හිතයි",
  "8143": "▁නිකමට",
  "8144": "▁ශිල්පි",
  "8145": "▁රඳ",
  "8146": "▁item",
  "8147": "▁හම්බෙන්න",
  "8148": "ටල්",
  "8149": "▁නවත්තගන්න",
  "8150": "▁සියල්ලම",
  "8151": "▁හදු",
  "8152": "▁මිසක්",
  "8153": "▁සඳහන්",
  "8154": "▁මොනතරම්",
  "8155": "▁ගින්දර",
  "8156": "දිද",
  "8157": "▁පුදුමා",
  "8158": "▁20ක්",
  "8159": "▁වටිනාකම",
  "8160": "▁වකු",
  "8161": "▁නැගී",
  "8162": "▁වැටෙන",
  "8163": "▁උපකරණය",
  "8164": "▁ටෝනි",
  "8165": "▁තිෙයනවා",
  "8166": "▁යූ",
  "8167": "▁වේවිද",
  "8168": "▁වෙනම",
  "8169": "▁තක්ක",
  "8170": "ත්තෙක්",
  "8171": "AT",
  "8172": "▁ජෙම්",
  "8173": "▁කියන්",
  "8174": "▁අයිතියක්",
  "8175": "▁යෝධ",
  "8176": "▁දායක",
  "8177": "▁නවත්තලා",
  "8178": "▁තිබේ",
  "8179": "▁france",
  "8180": "යවකාශ",
  "8181": "▁දුෂ්ට",
  "8182": "▁පුරාවටම",
  "8183": "විදි",
  "8184": "▁ඉඳීවි",
  "8185": "▁බෝට්ටුවක්",
  "8186": "▁නැන්දේ",
  "8187": "▁රසායන",
  "8188": "ගනීවි",
  "8189": "▁දීප්",
  "8190": "වුණු",
  "8191": "▁සංගීතය",
  "8192": "▁‍ක‍ර",
  "8193": "ප්පත්",
  "8194": "▁රයන්",
  "8195": "ine",
  "8196": "කොහොමද",
  "8197": "▁us",
  "8198": "▁කරුණු",
  "8199": "▁සාමය",
  "8200": "▁ට්‍රැ",
  "8201": "▁ලින්කන්",
  "8202": "▁කනෙ",
  "8203": "▁ඉඩක්",
  "8204": "▁ගොඩක්ම",
  "8205": "ද්ධා",
  "8206": "▁ලගින්",
  "8207": "▁බනේ",
  "8208": "▁කාර්යාලය",
  "8209": "යෙක්ද",
  "8210": "▁රත්තරං",
  "8211": "▁දෙසට",
  "8212": "▁බිලියන",
  "8213": "▁යවනවා",
  "8214": "කන",
  "8215": "action",
  "8216": "ගානේ",
  "8217": "▁දේශප්‍රේ",
  "8218": "▁පරාද",
  "8219": "▁අපෙ",
  "8220": "▁දවසකට",
  "8221": "▁වින්",
  "8222": "▁අධ්‍ය",
  "8223": "▁අනිවාර්යෙන්",
  "8224": "▁කියාවි",
  "8225": "_N",
  "8226": "▁ඔබත්",
  "8227": "ilipp",
  "8228": "de",
  "8229": "▁අක්ක",
  "8230": "▁පුටු",
  "8231": "▁මේකා",
  "8232": "▁හම්බුනේ",
  "8233": "▁කොච්චරක්",
  "8234": "▁රාජ්",
  "8235": "▁සතුව",
  "8236": "සියාව",
  "8237": "▁දූපතට",
  "8238": "කිරි",
  "8239": "න්දර්",
  "8240": "▁ජීවිතයට",
  "8241": "bia",
  "8242": "▁ෂා",
  "8243": "▁දිස්",
  "8244": "▁ඔයාලත්",
  "8245": "▁ජනප්‍",
  "8246": "▁සිකු",
  "8247": "▁කෝච්චිය",
  "8248": "▁දකින්නේ",
  "8249": "▁කොහෙන්",
  "8250": "ලෙට",
  "8251": "▁වත්කම්",
  "8252": "▁අංකල්",
  "8253": "▁ඊළඟට",
  "8254": "වමනාවක්",
  "8255": "▁චාල්ස්",
  "8256": "▁ඔයගොල්ලෝ",
  "8257": "යෙත්",
  "8258": "මෙහෙ",
  "8259": "▁පොලිසියේ",
  "8260": "ස්සක්",
  "8261": "▁එන්නකෝ",
  "8262": "▁නිශ්ශබ්ද",
  "8263": "▁විවි",
  "8264": "▁ගැටළු",
  "8265": "ලාට",
  "8266": "▁ඉතාම",
  "8267": "▁හිතල",
  "8268": "▁තරමක්",
  "8269": "▁අධික",
  "8270": "▁Cal",
  "8271": "▁මුදා",
  "8272": "කවුද",
  "8273": "▁ලේසියෙන්",
  "8274": "න්‍යයි",
  "8275": "බෝල්",
  "8276": "▁ch",
  "8277": "▁පෙන්නුවා",
  "8278": "▁ශයිඩ්",
  "8279": "▁එකිනෙකාට",
  "8280": "සීමට",
  "8281": "▁බ්‍රයන්",
  "8282": "▁ක්‍රමලේඛ",
  "8283": "▁පිළිතුරු",
  "8284": "▁සටනක්",
  "8285": "යස්",
  "8286": "▁කුමරිය",
  "8287": "▁ළමයින්ව",
  "8288": "▁නොනැ",
  "8289": "▁තොරව",
  "8290": "▁තෝරගන්න",
  "8291": "ix",
  "8292": "▁පණිවු",
  "8293": "මොකක්ද",
  "8294": "කාරක",
  "8295": "▁කපටි",
  "8296": "▁අයිය",
  "8297": "▁සාම්ප",
  "8298": "▁ග්‍රී",
  "8299": "▁නිලධාරී",
  "8300": "▁උල්කා",
  "8301": "නියර්",
  "8302": "▁‍ඉ‍",
  "8303": "පරි",
  "8304": "▁සිම්",
  "8305": "න්නට",
  "8306": "▁මිනිස්සුන්ගේ",
  "8307": "▁ස්ථානයක්",
  "8308": "▁බලු",
  "8309": "▁හම්බවෙලා",
  "8310": "▁ඔබේ",
  "8311": "▁සහභා",
  "8312": "▁හයෙි",
  "8313": "වටත්",
  "8314": "චිත",
  "8315": "▁හැච්",
  "8316": "▁මණ්ඩලය",
  "8317": "▁වාතය",
  "8318": "▁ක්ලබ්",
  "8319": "▁කීපයකට",
  "8320": "▁තාවකාලික",
  "8321": "land",
  "8322": "▁කැමතී",
  "8323": "▁***",
  "8324": "▁පන්ති",
  "8325": "▁ස්ටාර්",
  "8326": "ania",
  "8327": "▁වසන්",
  "8328": "ime",
  "8329": "▁දිව",
  "8330": "▁සැලැස්",
  "8331": "▁වටින",
  "8332": "රෑන්ඩ්",
  "8333": "▁ගනුදෙනුව",
  "8334": "▁කැරලි",
  "8335": "▁අංග",
  "8336": "▁කමා",
  "8337": "හිට",
  "8338": "වගේම",
  "8339": "ank",
  "8340": "▁වෙළඳ",
  "8341": "▁පිසා",
  "8342": "▁ක්ලෙයාර්",
  "8343": "▁උරහි",
  "8344": "▁අසි",
  "8345": "▁වතුරට",
  "8346": "▁සපය",
  "8347": "▁වැදු",
  "8348": "▁ඇගිලි",
  "8349": "කටත්",
  "8350": "▁ලෝගන්",
  "8351": "▁සැමි",
  "8352": "▁month",
  "8353": "බලන්න",
  "8354": "▁නැතිවෙන්න",
  "8355": "▁පත්තර",
  "8356": "▁මගෙයි",
  "8357": "රුවක්",
  "8358": "▁ගැලපෙනවා",
  "8359": "▁ඔලුවේ",
  "8360": "▁ලවුඩා",
  "8361": "▁අවදාන",
  "8362": "▁කුලී",
  "8363": "ස්සන්",
  "8364": "▁රෙස්",
  "8365": "▁නවා",
  "8366": "▁කෑවා",
  "8367": "▁ඕනලු",
  "8368": "▁දික්කසාද",
  "8369": "ණ්ඩි",
  "8370": "▁දොරෙන්",
  "8371": "▁තමුන්ගෙ",
  "8372": "▁පාපන්දු",
  "8373": "▁සැඟ",
  "8374": "▁ආරක්ෂිතව",
  "8375": "▁රැකියාව",
  "8376": "▁පිටතට",
  "8377": "▁කියලාද",
  "8378": "▁නොම",
  "8379": "රු‍දී‍",
  "8380": "i1",
  "8381": "▁මැරුව",
  "8382": "▁ඵල",
  "8383": "▁ෙහාදයි",
  "8384": "වස්",
  "8385": "▁එකේදි",
  "8386": "▁කොන්දේසි",
  "8387": "මන්ත්‍ර",
  "8388": "▁ෆු",
  "8389": "▁නිමැවුම්",
  "8390": "▁පාටි",
  "8391": "තලා",
  "8392": "ett",
  "8393": "▁තේරෙන්",
  "8394": "▁රහිත",
  "8395": "▁වන්දි",
  "8396": "වසම්",
  "8397": "▁උෂ්",
  "8398": "▁21",
  "8399": "▁සැළ",
  "8400": "▁නැගිටිනවා",
  "8401": "▁හැමේ",
  "8402": "රල්ඩ්",
  "8403": "▁කාර්යබහු",
  "8404": "▁ගිවිසුම",
  "8405": "▁ගෙයක්",
  "8406": "▁Oh",
  "8407": "▁විච",
  "8408": "▁go",
  "8409": "▁මිනිසෙක්",
  "8410": "▁මින්",
  "8411": "▁ශීත",
  "8412": "▁ටිකකින්",
  "8413": "▁එකපාරක්",
  "8414": "▁සේ",
  "8415": "▁සම්පත්",
  "8416": "▁කැඳ",
  "8417": "▁කරදරේ",
  "8418": "▁වහන්සේ",
  "8419": "▁ඉගෙනගන්න",
  "8420": "රති",
  "8421": "▁වයර්",
  "8422": "න්තු",
  "8423": "කාරියක්",
  "8424": "▁සුභපැතුම්",
  "8425": "▁ලොස්",
  "8426": "නුවේ",
  "8427": "▁ලුතිනන්",
  "8428": "▁හැනා",
  "8429": "මිත්",
  "8430": "old",
  "8431": "▁ග්‍රහලෝ",
  "8432": "▁දහය",
  "8433": "▁මෙතනම",
  "8434": "ilippines",
  "8435": "▁ප්‍රශ්නයක්ද",
  "8436": "▁ගණුදෙනුව",
  "8437": "▁රමෝ",
  "8438": "▁‍ක‍ර‍",
  "8439": "▁බොන",
  "8440": "▁ප්‍රවෘත්ති",
  "8441": "▁නෙමී",
  "8442": "▁අවසානයි",
  "8443": "▁කැමැති",
  "8444": "▁නුඹට",
  "8445": "▁සැලකිල්ලක්",
  "8446": "▁මරන",
  "8447": "▁ජයි",
  "8448": "▁අවස්තාව",
  "8449": "ශක්",
  "8450": "පෝට්",
  "8451": "▁නිදහසේ",
  "8452": "▁යුද්ධයක්",
  "8453": "නෙන",
  "8454": "යන්නේ",
  "8455": "▁බැරිවෙයි",
  "8456": "▁අල්ලගත්ත",
  "8457": "▁අමන්",
  "8458": "▁කොටි",
  "8459": "හෙනවා",
  "8460": "ure",
  "8461": "▁ඔන්",
  "8462": "▁ලෝක්",
  "8463": "හනක්",
  "8464": "ගෙන්ම",
  "8465": "▁ඩ්‍රයිව්",
  "8466": "▁ගිවිස",
  "8467": "▁භෞතික",
  "8468": "▁පිරික්",
  "8469": "▁එන්ජින්",
  "8470": "▁සම්බන්ධතා",
  "8471": "ඩියක්",
  "8472": "one",
  "8473": "▁එකකුත්",
  "8474": "▁අමාරුවෙන්",
  "8475": "කාරිය",
  "8476": "▁යන්තම්",
  "8477": "ව්‍යා",
  "8478": "▁*",
  "8479": "▁නංගිව",
  "8480": "▁ආදරණීය",
  "8481": "ask",
  "8482": "කෝල්",
  "8483": "▁වැසිකි",
  "8484": "▁දුෂ්",
  "8485": "▁දැනෙනව",
  "8486": "▁බ්‍රේ",
  "8487": "▁තීන්දු",
  "8488": "▁පුලුවන්නම්",
  "8489": "▁ආශා",
  "8490": "▁හැසිරීම",
  "8491": "▁තියාගන්නවා",
  "8492": "▁හැදුව",
  "8493": "▁ලැබුණු",
  "8494": "▁දෙවන",
  "8495": "▁වැඩු",
  "8496": "කරන්නේ",
  "8497": "▁මිසිස්",
  "8498": "▁ලෝකෙට",
  "8499": "▁උතුමාණනි",
  "8500": "▁#",
  "8501": "▁ඇණ",
  "8502": "▁චාරි",
  "8503": "▁යුනි",
  "8504": "ණියක්",
  "8505": "▁පරාජිත",
  "8506": "ung",
  "8507": "▁ෆ්ලෑෂ්",
  "8508": "▁විදිහකට",
  "8509": "▁බේස්",
  "8510": "▁බූරු",
  "8511": "නොන්",
  "8512": "▁අසාර්ථකයි",
  "8513": "ක්ලා",
  "8514": "▁චිකා",
  "8515": "▁අභියෝග",
  "8516": "නැතුව",
  "8517": "▁බොහෝම",
  "8518": "▁ගොස්",
  "8519": "ඔයාගෙ",
  "8520": "_R",
  "8521": "▁මොහොතක්",
  "8522": "▁ෂැ",
  "8523": "▁e",
  "8524": "▁රාජකීය",
  "8525": "▁100ක්",
  "8526": "▁ගොඩනැගිලි",
  "8527": "eneric",
  "8528": "▁ගේට්ටුව",
  "8529": "හන්න",
  "8530": "▁අවහිර",
  "8531": "per",
  "8532": "ound",
  "8533": "කාලීන",
  "8534": "ලියන්",
  "8535": "ail",
  "8536": "▁කොල්ලට",
  "8537": "▁ඇතුලු",
  "8538": "▁හඳ",
  "8539": "තීන්",
  "8540": "තත්",
  "8541": "▁අංශය",
  "8542": "▁ෙවන",
  "8543": "▁මුණගැහු",
  "8544": "▁කෙනෙක්ගේ",
  "8545": "----",
  "8546": "▁ජිවිතය",
  "8547": "▁අතෑරලා",
  "8548": "▁තාක්ෂණය",
  "8549": "▁පෙන්නන්නම්",
  "8550": "▁හිල්",
  "8551": "▁ඉපදුනේ",
  "8552": "▁හමුදාවක්",
  "8553": "▁වඳු",
  "8554": "ට්ටක්",
  "8555": "වරයි",
  "8556": "▁අසාමාන්‍ය",
  "8557": "▁ගඟ",
  "8558": "▁යහපත්",
  "8559": "ද්‍රා",
  "8560": "▁ගිම්හා",
  "8561": "▁ලියාපදිංචි",
  "8562": "▁අධිකරණ",
  "8563": "▁නිර්මාණ",
  "8564": "▁වෙල්ස්",
  "8565": "මිට",
  "8566": "▁පින්ටු",
  "8567": "▁philippines",
  "8568": "▁උගන්ව",
  "8569": "න්තර",
  "8570": "▁ෙවලා",
  "8571": "▁ලයින්",
  "8572": "▁සිංහම්",
  "8573": "▁‍වේ‍",
  "8574": "▁ධාවනය",
  "8575": "▁විසන්",
  "8576": "▁ඉස්සරහින්",
  "8577": "රව්",
  "8578": "▁ඒකක",
  "8579": "▁බේරිලා",
  "8580": "▁බැලුවොත්",
  "8581": "නැත්",
  "8582": "▁කිව්වම",
  "8583": "පව",
  "8584": "▁දෙයකට",
  "8585": "ල්ව",
  "8586": "▁මෙවලම්",
  "8587": "ight",
  "8588": "▁ගිණුම්",
  "8589": "▁පදවන්න",
  "8590": "enericName",
  "8591": "ire",
  "8592": "කාර්",
  "8593": "▁වෙනුවනේ",
  "8594": "▁ඇරල",
  "8595": "▁කරයිද",
  "8596": "▁ගත්තම",
  "8597": "▁චෑ",
  "8598": "▁ගෝවා",
  "8599": "▁ගහල",
  "8600": "▁දැනගත්තොත්",
  "8601": "▁කෙල්ලෙ",
  "8602": "▁ඉන්දියානු",
  "8603": "▁දිනයක්",
  "8604": "▁ලිංගික",
  "8605": "▁කියෙව්වා",
  "8606": "▁මහත",
  "8607": "▁බේරගත්තා",
  "8608": "ile",
  "8609": "▁දුප්පත්",
  "8610": "▁අප්‍ර",
  "8611": "▁වාසනාවක්",
  "8612": "▁බැඳලා",
  "8613": "▁විප්",
  "8614": "කියලා",
  "8615": "▁දිගා",
  "8616": "▁ෆයිල්",
  "8617": "▁30ක්",
  "8618": "සමහර",
  "8619": "▁ඊළගට",
  "8620": "දෙක",
  "8621": "▁ක්ලේ",
  "8622": "▁මුද්‍රණය",
  "8623": "▁අකමැ",
  "8624": "▁හැමදේටම",
  "8625": "▁ජයග්‍රහණය",
  "8626": "▁ට්‍රි",
  "8627": "▁රසවත්",
  "8628": "▁Wh",
  "8629": "▁ඩේව්",
  "8630": "▁හැමවිටම",
  "8631": "▁බයගු",
  "8632": "කර්ශ",
  "8633": "▁රෙඩින්",
  "8634": "▁මුම්",
  "8635": "▁හෙමීට",
  "8636": "▁වෙන්නැති",
  "8637": "▁ජෝර්ජ්",
  "8638": "▁වැඩෙ",
  "8639": "නියෙ",
  "8640": "▁ලැබුවා",
  "8641": "▁ටෙක්සාස්",
  "8642": "▁නගරේ",
  "8643": "▁ඇහෙන්නේ",
  "8644": "▁වස්තු",
  "8645": "▁රැයක්",
  "8646": "▁බලකා",
  "8647": "ට්ටෝ",
  "8648": "GenericName",
  "8649": "▁ස්ටෙ",
  "8650": "▁යාම",
  "8651": "▁අහන්නද",
  "8652": "▁දඬුවම්",
  "8653": "▁රෝගි",
  "8654": "▁some",
  "8655": "▁බලාගන්නවා",
  "8656": "▁ගානෙ",
  "8657": "▁කවුරැ",
  "8658": "▁පවතිනවා",
  "8659": "▁වේදිකා",
  "8660": "ගෙට",
  "8661": "තික්",
  "8662": "▁බේරුවා",
  "8663": "වුල",
  "8664": "▁වාසියක්",
  "8665": "▁එයාලත්",
  "8666": "ප්‍රා",
  "8667": "▁උඹල",
  "8668": "▁කොතන",
  "8669": "▁දිලා",
  "8670": "හාස",
  "8671": "▁හෑන්ක්",
  "8672": "රුම",
  "8673": "▁නගරයක්",
  "8674": "▁දියත්",
  "8675": "▁උත්සවය",
  "8676": "▁වර්ගය",
  "8677": "▁බෙක්",
  "8678": "▁පිටුපස",
  "8679": "▁කම්මැලි",
  "8680": "▁නිරා",
  "8681": "හාන්",
  "8682": "මනක්",
  "8683": "▁දරුව",
  "8684": "▁ටැංකි",
  "8685": "ust",
  "8686": "චාරය",
  "8687": "▁රඟපා",
  "8688": "▁sy",
  "8689": "▁ඩිං",
  "8690": "ගිහින්",
  "8691": "▁පාලන",
  "8692": "▁රමෝනා",
  "8693": "▁ධෛර්ය",
  "8694": "නිකා",
  "8695": "▁අගුළු",
  "8696": "▁කිසිදු",
  "8697": "ME",
  "8698": "▁නොවෙන",
  "8699": "▁කරන්නම",
  "8700": "▁ඉන්නවනම්",
  "8701": "▁‍ග‍",
  "8702": "▁බබ්",
  "8703": "▁අවුරුද්දෙ",
  "8704": "▁පාපො",
  "8705": "▁නැවේ",
  "8706": "▁පුළුවන්නේ",
  "8707": "ඩ්‍රා",
  "8708": "▁තැටි",
  "8709": "▁මස්සිනා",
  "8710": "න්කර්",
  "8711": "මෑන්",
  "8712": "▁තිරය",
  "8713": "▁දියමන්ති",
  "8714": "▁ක්ෂේ",
  "8715": "බින්",
  "8716": "▁පාද",
  "8717": "▁ෂික්",
  "8718": "▁බලනව",
  "8719": "නයක",
  "8720": "▁වෙද්දී",
  "8721": "▁ලේඛන",
  "8722": "අව",
  "8723": "වුස්",
  "8724": "▁හෙලිකොප්ට",
  "8725": "▁සලස්",
  "8726": "▁නම්බර්",
  "8727": "▁උඹත්",
  "8728": "යකම",
  "8729": "▁ගෙනියනවා",
  "8730": "තම්",
  "8731": "▁කොහේවත්",
  "8732": "බුව",
  "8733": "▁ආදා",
  "8734": "▁පන්තියේ",
  "8735": "▁අරමුද",
  "8736": "▁කුණාටුව",
  "8737": "▁තෝරාගත්",
  "8738": "▁නොදන්න",
  "8739": "මනින්ම",
  "8740": "රගෙන",
  "8741": "▁ඒයා",
  "8742": "පසු",
  "8743": "කතා",
  "8744": "▁කෞතු",
  "8745": "▁යමින්",
  "8746": "▁ස්කයි",
  "8747": "ug",
  "8748": "▁අතක්",
  "8749": "▁ගේනවා",
  "8750": "▁තරංග",
  "8751": "ib",
  "8752": "කෙනක්",
  "8753": "දෙව්",
  "8754": "නුවර",
  "8755": "▁අල",
  "8756": "▁සෝදිසි",
  "8757": "▁ප්‍ර‍",
  "8758": "▁හැඳු",
  "8759": "පෙක්ටර්",
  "8760": "බුන්",
  "8761": "▁‍බ‍",
  "8762": "දා‍ල",
  "8763": "▁විනිශ්ච",
  "8764": "▁ව්‍යාජ",
  "8765": "▁පක්ෂපා",
  "8766": "▁‍ආ‍",
  "8767": "▁රං",
  "8768": "▁රෙඩින්ටන්",
  "8769": "බයි",
  "8770": "▁ත්‍රස්තවාදී",
  "8771": "▁වැලි",
  "8772": "▁ලමයෙක්",
  "8773": "▁සරා",
  "8774": "▁කාර්‍යා",
  "8775": "▁වාඩිවෙලා",
  "8776": "▁නීනා",
  "8777": "▁ඉවසන්න",
  "8778": "▁හාදු",
  "8779": "▁බලන්නකො",
  "8780": "▁ෙවනවා",
  "8781": "▁තාර",
  "8782": "ස්ක්",
  "8783": "▁රූපවාහි",
  "8784": "▁සිග්",
  "8785": "▁අපායට",
  "8786": "ඩියේ",
  "8787": "ක්‍ර",
  "8788": "▁සමානයි",
  "8789": "ශ්‍රය",
  "8790": "▁මල්ල",
  "8791": "▁අදාළ",
  "8792": "▁එහෙමත්",
  "8793": "▁සුළුයි",
  "8794": "▁button",
  "8795": "▁අපව",
  "8796": "▁පොතේ",
  "8797": "▁මේසෙ",
  "8798": "නෙයි",
  "8799": "▁ජීවිතේට",
  "8800": "▁බැටරි",
  "8801": "▁අභ්‍යවකාශ",
  "8802": "▁විදින්න",
  "8803": "▁මෝඩයි",
  "8804": "▁ජෝයි",
  "8805": "▁සමත්",
  "8806": "▁කේන්ති",
  "8807": "රාජු",
  "8808": "▁අමුත්ත",
  "8809": "▁ඇහුණා",
  "8810": "▁වගේනේ",
  "8811": "▁කියනදේ",
  "8812": "වියක්",
  "8813": "බෙක්",
  "8814": "ගොඩක්",
  "8815": "▁න්",
  "8816": "පසින්",
  "8817": "cri",
  "8818": "▁අංජලී",
  "8819": "▁වර්ධනය",
  "8820": "▁දූපතේ",
  "8821": "ode",
  "8822": "▁ප්‍රථි",
  "8823": "▁ජැනට්",
  "8824": "ත්‍යන්තර",
  "8825": "▁යටි",
  "8826": "▁නොවි",
  "8827": "▁වචනේ",
  "8828": "▁අදුරු",
  "8829": "▁එයාලගෙන්",
  "8830": "▁දිලි",
  "8831": "▁ලැයිස්තුවක්",
  "8832": "▁ඩූ",
  "8833": "▁වටහා",
  "8834": "සන්ට",
  "8835": "▁රෙදි",
  "8836": "▁පර්ස්",
  "8837": "ටෙල්",
  "8838": "▁සම්බන්ධව",
  "8839": "▁‍ග",
  "8840": "▁සතුටෙන්",
  "8841": "වෙලාවට",
  "8842": "▁ෙක",
  "8843": "කින",
  "8844": "කලට්",
  "8845": "▁සාදයක්",
  "8846": "▁ඔට්ටුවක්",
  "8847": "▁හිරේට",
  "8848": "▁අදුන",
  "8849": "▁දැනුවත්",
  "8850": "රුනේ",
  "8851": "▁දර",
  "8852": "▁සැන",
  "8853": "▁යාත්‍රා",
  "8854": "▁ගහපු",
  "8855": "රාවට",
  "8856": "▁ඇන්ඩි",
  "8857": "▁උගුලක්",
  "8858": "▁කඩවසම්",
  "8859": "ලුත්",
  "8860": "▁ඔටු",
  "8861": "▁ශෙ",
  "8862": "▁යයිද",
  "8863": "▁ගොන්",
  "8864": "▁සම්පූර්",
  "8865": "▁ජෝන්ස්",
  "8866": "▁යාළුවනේ",
  "8867": "▁දුකයි",
  "8868": "සලකා",
  "8869": "orm",
  "8870": "▁ටෙඩ්",
  "8871": "▁පෘතු",
  "8872": "ish",
  "8873": "▁නිෂ්පා",
  "8874": "මේල්",
  "8875": "▁බ්‍රහස්",
  "8876": "▁කුකුල්",
  "8877": "▁යාමට",
  "8878": "▁හමුවෙලා",
  "8879": "වෙකු",
  "8880": "▁අනුමත",
  "8881": "▁ඇහුණ",
  "8882": "ලයා",
  "8883": "▁අමත",
  "8884": "▁පූජක",
  "8885": "▁ගොඩන",
  "8886": "▁ටිකකට",
  "8887": "▁රෝහලට",
  "8888": "▁‍නෑ",
  "8889": "▁ගලවලා",
  "8890": "ර්‍ය",
  "8891": "▁නීමෝ",
  "8892": "ov",
  "8893": "රහස්",
  "8894": "එකක්",
  "8895": "▁අරුශ්",
  "8896": "▁පරිපූර්ණ",
  "8897": "▁ලැබ්",
  "8898": "▁Germany",
  "8899": "▁වසන්න",
  "8900": "තැන්",
  "8901": "▁පල්ලෙහාට",
  "8902": "▁ඕෙන්",
  "8903": "▁වනෙුවනේ",
  "8904": "▁ආයා",
  "8905": "▁කඩාගෙන",
  "8906": "▁දාන්නම්",
  "8907": "mbol",
  "8908": "යුත්",
  "8909": "ස්ගේ",
  "8910": "නීම",
  "8911": "▁බැරිනම්",
  "8912": "ශ්වාස",
  "8913": "ss",
  "8914": "▁ඕනිද",
  "8915": "ෆික්",
  "8916": "▁වධ",
  "8917": "▁දුවේ",
  "8918": "▁ෂු",
  "8919": "ක්කද",
  "8920": "▁අරක්කු",
  "8921": "▁නෑදෑ",
  "8922": "▁ඝාතක",
  "8923": "▁වාර්තාවක්",
  "8924": "▁කිමි",
  "8925": "ණුව",
  "8926": "දානමින්",
  "8927": "▁කැන්",
  "8928": "▁ඊතන්",
  "8929": "▁නිති",
  "8930": "▁තේමා",
  "8931": "▁ලුහුබැ",
  "8932": "▁සෙනසු",
  "8933": "▁දෙන්නව",
  "8934": "▁ප්‍රතික්‍රියා",
  "8935": "che",
  "8936": "▁මකන්න",
  "8937": "▁කට්ටියට",
  "8938": "▁ඒගැන",
  "8939": "▁ඔබන්න",
  "8940": "▁තිබුණු",
  "8941": "▁wat",
  "8942": "▁උත්තරේ",
  "8943": "▁දෙමව්පියන්",
  "8944": "දුවා",
  "8945": "▁42",
  "8946": "මනි",
  "8947": "▁සීත",
  "8948": "▁විද්‍යාඥ",
  "8949": "▁ඒකිව",
  "8950": "▁කියවෙන්නේ",
  "8951": "ne",
  "8952": "▁නොමිලේ",
  "8953": "▁අම්මගෙ",
  "8954": "▁සම්මුඛ",
  "8955": "▁පියාසර",
  "8956": "▁බලාපොරොත්තුවෙන්",
  "8957": "▁බොනවා",
  "8958": "▁හත්",
  "8959": "▁උඔ",
  "8960": "▁හරිගස්සන්න",
  "8961": "▁බහිනවා",
  "8962": "▁හරියේ",
  "8963": "▁බිද",
  "8964": "▁හිට්",
  "8965": "▁පතු",
  "8966": "▁මැරුණු",
  "8967": "▁හැප්පු",
  "8968": "කටු",
  "8969": "▁හොයාගත්තද",
  "8970": "ගස්",
  "8971": "ට්‍රො",
  "8972": "▁ගහගන්න",
  "8973": "▁අවුරුද්දකට",
  "8974": "▁අරා",
  "8975": "▁‍කි‍ය‍ලා",
  "8976": "▁සන්නද්ධ",
  "8977": "▁ගලා",
  "8978": "▁දඩුවම්",
  "8979": "▁නිලධාරි",
  "8980": "12",
  "8981": "▁දෙමාපියන්",
  "8982": "▁සිග්නල්",
  "8983": "ගන්තු",
  "8984": "▁පරම්පරා",
  "8985": "▁වලටත්",
  "8986": "▁සවි",
  "8987": "▁බැදලා",
  "8988": "▁ජාතිය",
  "8989": "▁යාලුවනේ",
  "8990": "▁ප්‍රච",
  "8991": "▁නැවැත්තුවා",
  "8992": "▁ගැළ",
  "8993": "▁හැකිද",
  "8994": "▁සිරක",
  "8995": "▁පෙට්ටියක්",
  "8996": "▁බන්ධ",
  "8997": "▁පාලම",
  "8998": "ඳිලා",
  "8999": "▁ආරංචිය",
  "9000": "ලයින්",
  "9001": "▁කැල",
  "9002": "▁හමුදාවට",
  "9003": "▁අභිප්‍රේ",
  "9004": "ස්සලා",
  "9005": "▁අහස",
  "9006": "▁පුරවන්න",
  "9007": "▁‍හ‍",
  "9008": "කණ්",
  "9009": "▁Qu",
  "9010": "ory",
  "9011": "▁කවුරුන්",
  "9012": "ලොස්",
  "9013": "▁නෝර්",
  "9014": "▁පරික්ෂ",
  "9015": "▁‍ම‍රු‍දී‍",
  "9016": "▁ඉම්මි",
  "9017": "▁ඉන්නද",
  "9018": "නාඩ්",
  "9019": "සලා",
  "9020": "▁එෙහම",
  "9021": "▁උනු",
  "9022": "▁උපකාර",
  "9023": "ලිකා",
  "9024": "▁පැමිණිලි",
  "9025": "▁හොයාගන්නම්",
  "9026": "orea",
  "9027": "ක්ශා",
  "9028": "▁සතුන්",
  "9029": "▁50ක්",
  "9030": "▁මෙහෙයුමක්",
  "9031": "▁හමුවුනා",
  "9032": "▁කුස්සි",
  "9033": "මේන්තුව",
  "9034": "▁වගකියන්න",
  "9035": "▁දම්",
  "9036": "න්ස්පෙක්ටර්",
  "9037": "▁ප්‍රදර්ශ",
  "9038": "▁෴",
  "9039": "▁ගවේ",
  "9040": "▁පැවැත්",
  "9041": "▁සිඩ්නි",
  "9042": ",\"",
  "9043": "රවය",
  "9044": "▁කුහර",
  "9045": "නාත්මක",
  "9046": "රාන්",
  "9047": "▁බලාපොරොත්තුවක්",
  "9048": "▁වර්ගයක්",
  "9049": "▁ප්‍රී",
  "9050": "▁URL",
  "9051": "▁සත්",
  "9052": "▁විරහිත",
  "9053": "▁අවවාද",
  "9054": "▁පරිවර්ථ",
  "9055": "▁අද්සර්",
  "9056": "ර්මා",
  "9057": "▁ජස්ටින්",
  "9058": "▁දැම්මෙ",
  "9059": "▁දුටු",
  "9060": "▁පර්යන්",
  "9061": "▁හැකියාවන්",
  "9062": "▁කරනවට",
  "9063": "box",
  "9064": "▁හිටපන්",
  "9065": "▁කඩන්",
  "9066": "▁ශරීර",
  "9067": "▁උද්‍යා",
  "9068": "▁ආයෝජ",
  "9069": "▁කනෙකෝ",
  "9070": "▁චරිතය",
  "9071": "ෆන්",
  "9072": "▁පිටිපස්සට",
  "9073": "ගාරයේ",
  "9074": "▁ෆ්‍රෙ",
  "9075": "▁නොසලකා",
  "9076": "▁ස්ම්",
  "9077": "▁වුනානම්",
  "9078": "▁ළමයකේ",
  "9079": "▁රාජකාරි",
  "9080": "▁බලපා",
  "9081": "▁කැල්",
  "9082": "▁කදවුර",
  "9083": "▁ජයිකාන්ත්",
  "9084": "ළුවන්",
  "9085": "පාත",
  "9086": "ධක",
  "9087": "▁කැළ",
  "9088": "▁බිත්තිය",
  "9089": "▁සංවාද",
  "9090": "▁අලි",
  "9091": "▁විකුන",
  "9092": "oss",
  "9093": "▁ග්‍රීන්",
  "9094": "▁ගැටලු",
  "9095": "▁ශක්ති",
  "9096": "▁සේර",
  "9097": "යන්ගෙ",
  "9098": "▁ජාත්‍යන්තර",
  "9099": "ments",
  "9100": "ලියේ",
  "9101": "ගත්තට",
  "9102": "ලීන්",
  "9103": "▁අසාර්ථක",
  "9104": "▁ඊවෝ",
  "9105": "▁අහං",
  "9106": "▁සුවද",
  "9107": "▁උපකරණයක්",
  "9108": "▁මිනිම",
  "9109": "▁හැරිලා",
  "9110": "▁දික්",
  "9111": "▁උපද",
  "9112": "▁සුප්",
  "9113": "▁සංඛ්‍යා",
  "9114": "▁සිද්දි",
  "9115": "▁ක්ෂ",
  "9116": "▁පඩිපෙ",
  "9117": "▁ඇතිවෙලා",
  "9118": "▁ගෙනල්ලා",
  "9119": "ප්ටර්",
  "9120": "▁ඔබෙන්",
  "9121": "▁හරියන්නේ",
  "9122": "ළින්ම",
  "9123": "▁ඝාතන",
  "9124": "▁යමං",
  "9125": "▁ප්‍රහාර",
  "9126": "▁එකනම්",
  "9127": "▁ඔළුවට",
  "9128": "▁යාඥා",
  "9129": "▁චිකාගෝ",
  "9130": "▁අඟහ",
  "9131": "▁දිවුරනවා",
  "9132": "▁බැහැලා",
  "9133": "▁අතරතුර",
  "9134": "▁කාරෙ",
  "9135": "▁පිළිවෙ",
  "9136": "ශීලි",
  "9137": "සරයක්",
  "9138": "▁රික්",
  "9139": "▁හිනාවෙන්න",
  "9140": "▁ඔක",
  "9141": "භාව",
  "9142": "▁ගෙවනවා",
  "9143": "කෘතිය",
  "9144": "ර්ව",
  "9145": "▁‍ඕ‍",
  "9146": "න්වලා",
  "9147": "▁උත්සහා",
  "9148": "▁ඔයාගෙම",
  "9149": "▁ලැබුනද",
  "9150": "▁ජීන්",
  "9151": "▁සෞඛ්‍",
  "9152": "▁all",
  "9153": "▁පසුතැ",
  "9154": "ශ්‍ර",
  "9155": "ator",
  "9156": "▁ආන්",
  "9157": "▁පැටියේ",
  "9158": "▁යුතුය",
  "9159": "▁ඉවරද",
  "9160": "▁ලියකිය",
  "9161": "▁මොනහරි",
  "9162": "▁හෙල්ලෙන්න",
  "9163": "▁විශිෂ්ටයි",
  "9164": "රියෝ",
  "9165": "▁තට්ටුවට",
  "9166": "▁ආසන",
  "9167": "▁ඉල්ලන්නේ",
  "9168": "▁කරැ",
  "9169": "ina",
  "9170": "▁හොඳක්",
  "9171": "අද",
  "9172": "බලි",
  "9173": "▁තැනින්",
  "9174": "▁රසි",
  "9175": "▁මුරණ්ඩු",
  "9176": "ගොල්ලන්ට",
  "9177": "▁ex",
  "9178": "පැත්ත",
  "9179": "වරුන්",
  "9180": "▁දෙකට",
  "9181": "▁දවස්වල",
  "9182": "▁රැකියා",
  "9183": "▁සම්පූර්ණයි",
  "9184": "▁දන්වන්න",
  "9185": "▁කරගත්තේ",
  "9186": "▁කිව්වත්",
  "9187": "▁වැඩතල",
  "9188": "quer",
  "9189": "▁අඳින්න",
  "9190": "▁සෝපා",
  "9191": "▁org",
  "9192": "▁199",
  "9193": "▁රෝගී",
  "9194": "▁උත්තරය",
  "9195": "▁තණ",
  "9196": "▁ලුසී",
  "9197": "way",
  "9198": "▁දැමු",
  "9199": "▁සුන්",
  "9200": "වුණේ",
  "9201": "▁තියන්නෙ",
  "9202": "▁යෑ",
  "9203": "බැහි",
  "9204": "▁එවන්",
  "9205": "▁කාලි",
  "9206": "කළ",
  "9207": "ලභ",
  "9208": "▁මහජන",
  "9209": "▁එතෙන්ට",
  "9210": "▁පැළ",
  "9211": "▁වදින්න",
  "9212": "▁සිහිනය",
  "9213": "▁ස්නා",
  "9214": "▁ආතල්",
  "9215": "වුවේ",
  "9216": "▁තරුව",
  "9217": "▁ශූ",
  "9218": "▁මර්ෆ්",
  "9219": "nam",
  "9220": "▁ඔරලො",
  "9221": "▁ආගන්තු",
  "9222": "▁ජේක",
  "9223": "▁6ක්",
  "9224": "▁කපිතන්",
  "9225": "▁හංගන්න",
  "9226": "▁පිර",
  "9227": "▁බාධකය",
  "9228": "▁බලකො",
  "9229": "▁දිහාවට",
  "9230": "▁වෙළා",
  "9231": "▁විකිරණ",
  "9232": "දාන්න",
  "9233": "නේවි",
  "9234": "▁පිසාච",
  "9235": "▁නැටුම්",
  "9236": "▁නිහඩ",
  "9237": "iforn",
  "9238": "ifornia",
  "9239": "▁නියමිත",
  "9240": "▁රසකැ",
  "9241": "▁තමුන්ව",
  "9242": "▁කතාකලා",
  "9243": "▁දැනෙනවද",
  "9244": "▁පරදි",
  "9245": "▁දිනේ",
  "9246": "▁බලපත්‍රය",
  "9247": "▁හදවත්",
  "9248": "▁පෙන්වනවා",
  "9249": "ලෙන",
  "9250": "▁ඇගෙ",
  "9251": "▁මව්",
  "9252": "▁තත්ත්වය",
  "9253": "▁අවාසනාව",
  "9254": "▁සාම්",
  "9255": "▁එච්චරම",
  "9256": "30",
  "9257": "▁මානව",
  "9258": "▁වැඩකරන්න",
  "9259": "▁දන",
  "9260": "▁රාමු",
  "9261": "හම්",
  "9262": "onquer",
  "9263": "onqueror",
  "9264": "▁TV",
  "9265": "▁අගනුවර",
  "9266": "▁මෘදුකාං",
  "9267": "ක්ව",
  "9268": "▁Charles",
  "9269": "▁සලකන්න",
  "9270": "▁ඌන්",
  "9271": "▁තාක්",
  "9272": "▁වදේ",
  "9273": "▁අවසරය",
  "9274": "▁මිලි",
  "9275": "▁ලාභ",
  "9276": "▁තබන්න",
  "9277": "කවත්",
  "9278": "ගානෙ",
  "9279": "▁ස්ටෝ",
  "9280": "▁සමලිං",
  "9281": "▁එක්කො",
  "9282": "▁කියවලා",
  "9283": "▁විසින්ම",
  "9284": "▁කිව්වට",
  "9285": "▁කොතරම්",
  "9286": "▁Con",
  "9287": "සිම්",
  "9288": "▁නැතිවෙනවා",
  "9289": "▁ගෙවන්නේ",
  "9290": "10",
  "9291": "▁ශුද්ධ",
  "9292": "▁ගර්",
  "9293": "▁කීර්",
  "9294": "▁අන්ජු",
  "9295": "▁අන්ජුටා",
  "9296": "▁බලෙන්",
  "9297": "▁ඩොග්",
  "9298": "▁දැනුනේ",
  "9299": "▁පිටිපස්ස",
  "9300": "▁ආරක්ෂ",
  "9301": "▁ස්මා",
  "9302": "able",
  "9303": "▁මඟුලේ",
  "9304": "▁විවිධ",
  "9305": "ario",
  "9306": "කදි",
  "9307": "▁ඉල්ලුවා",
  "9308": "▁දැම්මො",
  "9309": "▁එලිස්",
  "9310": "▁දැන්වත්",
  "9311": "▁වෙල්ට්",
  "9312": "▁පවතී",
  "9313": "▁වතාවෙ",
  "9314": "▁ටැබ",
  "9315": "ඊට",
  "9316": "▁45",
  "9317": "▁සරලයි",
  "9318": "▁කරගන්නේ",
  "9319": "දුන්නා",
  "9320": "▁දිගින්",
  "9321": "▁පැතිකඩ",
  "9322": "▁නමෙේ",
  "9323": "▁තියන්නම්",
  "9324": "▁ජනප්‍රිය",
  "9325": "▁එච්චරද",
  "9326": "▁ලෝහ",
  "9327": "▁එළිය",
  "9328": "▁කොපි",
  "9329": "ලෙස",
  "9330": "▁මෙතැනින්",
  "9331": "▁කරුවන්",
  "9332": "ලනය",
  "9333": "▁සංඥාවක්",
  "9334": "▁world",
  "9335": "▁පොල",
  "9336": "▁කාලෙකින්",
  "9337": "▁බිං",
  "9338": "▁මැරුනේ",
  "9339": "රොව්",
  "9340": "▁පොරොන්දුවක්",
  "9341": "key",
  "9342": "▁මේකි",
  "9343": "▁එෙහ",
  "9344": "▁පාටිය",
  "9345": "▁ලමය",
  "9346": "▁මාර්ක්",
  "9347": "▁අම්මෝ",
  "9348": "▁වොල්ට්",
  "9349": "▁ආයිත්",
  "9350": "▁නිදන",
  "9351": "සමා",
  "9352": "▁සිටින්නේ",
  "9353": "▁තැපැ",
  "9354": "▁subject",
  "9355": "▁ප්‍රෙ",
  "9356": "▁පල්ලෙහා",
  "9357": "▁ආශිර්වාද",
  "9358": "▁ගනුදෙනුවක්",
  "9359": "▁අනෙ",
  "9360": "කාට",
  "9361": "වාසි",
  "9362": "▁කැට්",
  "9363": "▁එද්දි",
  "9364": "▁රත්තරන්",
  "9365": "▁පුපුරවන්න",
  "9366": "▁පාන්දර",
  "9367": "▁පැන්නා",
  "9368": "▁මාම",
  "9369": "),",
  "9370": "▁කෙස්",
  "9371": "▁ඇලිසන්",
  "9372": "▁දෙන්",
  "9373": "▁අදි",
  "9374": "▁නොව",
  "9375": "කව්",
  "9376": "▁සංගීත",
  "9377": "▁ගති",
  "9378": "▁පොලිසියෙන්",
  "9379": "▁සුපර්",
  "9380": "▁එන්නත්",
  "9381": "▁ධාරක",
  "9382": "▁there",
  "9383": "▁එල්ලි",
  "9384": "▁ඇහුනේ",
  "9385": "▁සිල්",
  "9386": "▁මමද",
  "9387": "බිම්",
  "9388": "▁උපාය",
  "9389": "▁එකටම",
  "9390": "▁ගානට",
  "9391": "▁වයෙි",
  "9392": "▁වලා",
  "9393": "▁ෙකෙනක්",
  "9394": "▁අෑ",
  "9395": "▁අපහු",
  "9396": "▁රිං",
  "9397": "▁ලොකු",
  "9398": "▁අග්",
  "9399": "වැල්",
  "9400": "▁ගන්නා",
  "9401": "▁ක්‍රීඩ",
  "9402": "විමක්",
  "9403": "ග්‍රට්",
  "9404": "▁දුවන",
  "9405": "▁යමන්",
  "9406": "▁නවය",
  "9407": "පෙන",
  "9408": "▁තනිවම",
  "9409": "ඔබේ",
  "9410": "▁මෙතෙක්",
  "9411": "ගිකව",
  "9412": "▁දුවගේ",
  "9413": "▁කොමි",
  "9414": "හව",
  "9415": "▁කාර්යාලයට",
  "9416": "▁California",
  "9417": "යමු",
  "9418": "▁කිරීමෙන්",
  "9419": "▁හැප්පෙ",
  "9420": "ග්‍ර",
  "9421": "▁ආකර්",
  "9422": "▁බුන්",
  "9423": "▁ඉදී",
  "9424": "▁බැටරිය",
  "9425": "▁පිහියක්",
  "9426": "රගන්න",
  "9427": "ලුවා",
  "9428": "▁ඔරලෝසු",
  "9429": "පිටල්",
  "9430": "▁අසල්වැසි",
  "9431": "▁ගලක්",
  "9432": "▁ඇත්තටමද",
  "9433": "▁මනා",
  "9434": "▁එන්නද",
  "9435": "▁පරෙ",
  "9436": "▁එහායින්",
  "9437": "▁ලුයිස්",
  "9438": "▁එරිකා",
  "9439": "▁සලකු",
  "9440": "▁ඔබයි",
  "9441": "▁තුනකින්",
  "9442": "රල",
  "9443": "▁හුදෙ",
  "9444": "▁හුරතල්",
  "9445": "▁විලියම්",
  "9446": "▁පැමිණ",
  "9447": "▁වෙයින්",
  "9448": "ලයිට්",
  "9449": "▁වසරේ",
  "9450": "▁කීන්",
  "9451": "යනය",
  "9452": "▁කඩදා",
  "9453": "▁කේන්",
  "9454": "▁දාපන්",
  "9455": "▁අහෝ",
  "9456": "▁පියවරක්",
  "9457": "▁කාලකන්",
  "9458": "▁මැදිහත්",
  "9459": "න්‍‍න‍",
  "9460": "පටි",
  "9461": "▁බිඳවැ",
  "9462": "රිෂ්",
  "9463": "වඩා",
  "9464": "▁පාරි",
  "9465": "දුමක්",
  "9466": "▁හුගා",
  "9467": "▁අයු",
  "9468": "▁සමූහ",
  "9469": "ver",
  "9470": "▁පළා",
  "9471": "▁සමාගම්",
  "9472": "▁ගැහැනු",
  "9473": "▁ab",
  "9474": "▁පාඩමක්",
  "9475": "ත්තෙන්ම",
  "9476": "▁අරගන්නවා",
  "9477": "▁ග්‍රේස්",
  "9478": "▁උද්",
  "9479": "යක්‍",
  "9480": "▁ඇන්ඩෲ",
  "9481": "▁ලඟින්",
  "9482": "▁‍ඔ‍යා",
  "9483": "▁ගැනීමක්",
  "9484": "▁Mar",
  "9485": "▁ටීවී",
  "9486": "▁මේස",
  "9487": "▁හිතමු",
  "9488": "▁කොන්ඩේ",
  "9489": "▁කොලේජ්",
  "9490": "▁සොරකම්",
  "9491": "▁ලව්",
  "9492": "▁j",
  "9493": "▁ලොයිඩ්",
  "9494": "▁ඔල්",
  "9495": "▁හාදය",
  "9496": "▁හිතාගන්නවත්",
  "9497": "▁කවදහරි",
  "9498": "▁සංචාරය",
  "9499": "▁මූව",
  "9500": "සුවා",
  "9501": "▁un",
  "9502": "පුරුදු",
  "9503": "onia",
  "9504": "▁හිතුවට",
  "9505": "▁නිර්දේශ",
  "9506": "▁උඹෙ",
  "9507": "▁මගුලයි",
  "9508": "▁අවශ්‍යය",
  "9509": "▁උෂ්ණ",
  "9510": "▁ඩැනියල්",
  "9511": "▁කතාකරනවා",
  "9512": "▁මුහුද",
  "9513": "ලාගේ",
  "9514": "▁සැකකරු",
  "9515": "භාවය",
  "9516": "▁මඩ",
  "9517": "▁විකා",
  "9518": "▁යානයක්",
  "9519": "▁දෙනාම",
  "9520": "'.",
  "9521": "▁රොනී",
  "9522": "▁පැටියො",
  "9523": "▁ළඟා",
  "9524": "▁ගැඹුරු",
  "9525": "▁අද්භූ",
  "9526": "▁එවන්නම්",
  "9527": "▁උපන්දිනේ",
  "9528": "ලව්",
  "9529": "ook",
  "9530": "ond",
  "9531": "▁ඇබ්බැහි",
  "9532": "▁පාපොච්චා",
  "9533": "▁කටෝ",
  "9534": "▁කතන්",
  "9535": "▁කතන්දර",
  "9536": "ස්‍ය",
  "9537": "කුල්",
  "9538": "▁ශක්තියක්",
  "9539": "▁දොරටු",
  "9540": "▁කියලනේ",
  "9541": "▁ඩිලන්",
  "9542": "කදී",
  "9543": "▁ඩොරති",
  "9544": "▁නඟි",
  "9545": "▁දිහාට",
  "9546": "▁දිව්‍ය",
  "9547": "▁අනිවාරෙන්ම",
  "9548": "▁මොහොතකට",
  "9549": "▁එලා",
  "9550": "▁තර්ජන",
  "9551": "▁කෙලී",
  "9552": "▁ආපිට",
  "9553": "▁අඟු",
  "9554": "▁හැමදාටම",
  "9555": "▁නිදො",
  "9556": "▁ආඩම්බරයි",
  "9557": "▁කෞතුකා",
  "9558": "▁දේව්",
  "9559": "▁නෝවා",
  "9560": "▁පහයි",
  "9561": "▁බලල",
  "9562": "▁මිනිය",
  "9563": "▁ෙකාෙහා",
  "9564": "▁එකපාරටම",
  "9565": "▁අස්සේ",
  "9566": "▁කරෝ",
  "9567": "▁කැඩෙ",
  "9568": "▁වලෙේ",
  "9569": "▁නින්",
  "9570": "▁ආණ්ඩු",
  "9571": "තුමන්",
  "9572": "▁මාර්ගයේ",
  "9573": "▁ඉන්ස්පෙක්ටර්",
  "9574": "හොත්",
  "9575": "▁මේවගේ",
  "9576": "▁‍වේ‍දා‍ල",
  "9577": "▁උදෙ",
  "9578": "▁බබ්ලූ",
  "9579": "▁පද්ධතියේ",
  "9580": "කරන්නෙ",
  "9581": "වනම්",
  "9582": "▁ඉන්නවනේ",
  "9583": "▁ලැප්",
  "9584": "▁ජනාධිපතිතුමා",
  "9585": "▁තරහින්",
  "9586": "▁හුස්මක්",
  "9587": "▁හරියන",
  "9588": "▁මඟහැ",
  "9589": "▁තෑගි",
  "9590": "▁පැත්තකින්",
  "9591": "▁සීනි",
  "9592": "▁දිව්",
  "9593": "▁මිනිත්තුව",
  "9594": "▁සාදය",
  "9595": "▁වෘත්",
  "9596": "▁ඕයි",
  "9597": "වියනි",
  "9598": "▁කොලින්",
  "9599": "▁රැජිණ",
  "9600": "▁Ont",
  "9601": "හායි",
  "9602": "ගුවා",
  "9603": "▁ගැබ්",
  "9604": "▁Ok",
  "9605": "▁වේදනාවක්",
  "9606": "▁සූසන්",
  "9607": "▁හොදක්",
  "9608": "▁අඩංගුවට",
  "9609": "▁සොය",
  "9610": "OL",
  "9611": "_H",
  "9612": "▁පීඩා",
  "9613": "▁ගැනවත්",
  "9614": "න්වන",
  "9615": "▁උපක්‍රම",
  "9616": "sh",
  "9617": "▁Br",
  "9618": "▁බිලා",
  "9619": "▁මැරුවෙ",
  "9620": "▁ගැණු",
  "9621": "▁යාලුව",
  "9622": "ටෝරියා",
  "9623": "ලැන්",
  "9624": "▁ආදේශ",
  "9625": "▁වකුග",
  "9626": "▁පතනවා",
  "9627": "වුඩ්",
  "9628": "▁\"...",
  "9629": "▁යුක්තිය",
  "9630": "▁මූලා",
  "9631": "▁ඩොන්",
  "9632": "▁මමී",
  "9633": "▁ස්ටීවන්",
  "9634": "බාධ",
  "9635": "aw",
  "9636": "▁Sp",
  "9637": "▁නැග්",
  "9638": "ස්තුතියි",
  "9639": "▁බැඳී",
  "9640": "වේවා",
  "9641": "▁ගුටි",
  "9642": "▁මාංචු",
  "9643": "▁වසං",
  "9644": "ගුව",
  "9645": "▁ෙකාෙහාමද",
  "9646": "යාවි",
  "9647": "▁Ontario",
  "9648": "▁පිටුවහල්",
  "9649": "ric",
  "9650": "▁කියවන්නෙ",
  "9651": "▁පොහොසත්",
  "9652": "▁90",
  "9653": "▁ග්‍රෙග්",
  "9654": "▁වාසනාවට",
  "9655": "▁සාජන්",
  "9656": "▁අලුත්ම",
  "9657": "▁තාත්තත්",
  "9658": "▁ලියකියවිලි",
  "9659": "▁ඔයානම්",
  "9660": "▁කරනවනම්",
  "9661": "▁ස්ම්ල්විල්",
  "9662": "▁පහසුවෙන්",
  "9663": "▁ගිලි",
  "9664": "▁ක්ලි",
  "9665": "▁රොක්",
  "9666": "▁ඉන්දියාවේ",
  "9667": "▁වාන",
  "9668": "▁කලෙි",
  "9669": "▁ශ්‍රේෂ්ඨ",
  "9670": "▁කීයටද",
  "9671": "▁නිපද",
  "9672": "▁සිකුරාදා",
  "9673": "▁රසකැවිලි",
  "9674": "▁චොකලට්",
  "9675": "earch",
  "9676": "▁මෙලෝ",
  "9677": "▁එකේදී",
  "9678": "▁වේල්ල",
  "9679": "▁වැරදීමක්",
  "9680": "▁මැරිච්ච",
  "9681": "▁විරුද්ද",
  "9682": "▁බල්ලෝ",
  "9683": "▁ස්පා",
  "9684": "▁ග්‍රා",
  "9685": "▁වහපන්",
  "9686": "රවන්න",
  "9687": "▁අවුලෙන්",
  "9688": "▁නැගලා",
  "9689": "▁අංශයේ",
  "9690": "▁සාමන්‍ය",
  "9691": "▁Un",
  "9692": "▁ලබාදෙන්න",
  "9693": "▁නිම්",
  "9694": "ach",
  "9695": "නාඩි",
  "9696": "▁බයෙන්",
  "9697": "▁ඔහොමම",
  "9698": "▁දැම්මොත්",
  "9699": "▁ඇඳේ",
  "9700": "▁නැවක්",
  "9701": "▁අතහරින්න",
  "9702": "▁තරගයක්",
  "9703": "▁වාහනයක්",
  "9704": "කුරු",
  "9705": "▁කවර",
  "9706": "▁බැහැර",
  "9707": "▁මුම්බායි",
  "9708": "▁යන්නට",
  "9709": "▁දුර්ලභ",
  "9710": "ඩ්ඩක්",
  "9711": "▁කාර්යාලයේ",
  "9712": "▁සිවිල්",
  "9713": "ෂය",
  "9714": "▁කටේ",
  "9715": "▁කුරුල්ල",
  "9716": "▁අවසානයක්",
  "9717": "▁ස්නායු",
  "9718": "▁දොරක්",
  "9719": "▁as",
  "9720": "▁පොරොන්දුව",
  "9721": "▁චාරිකා",
  "9722": "▁බලපත්‍ර",
  "9723": "▁මාලිගා",
  "9724": "යිනේ",
  "9725": "▁ඇදුමක්",
  "9726": "සුදු",
  "9727": "▁යෙදුම්",
  "9728": "▁ව්‍යාපාරයක්",
  "9729": "▁කෙල්ලනේ",
  "9730": "▁සිතියමක්",
  "9731": "▁Konqueror",
  "9732": "▁කාටවත්ම",
  "9733": "▁උත්තමා",
  "9734": "▁ආත්මා",
  "9735": "▁අඩවි",
  "9736": "▁උදෑසන",
  "9737": "▁‍ස‍",
  "9738": "ions",
  "9739": "න්ඩා",
  "9740": "▁නැගිටලා",
  "9741": "▁හදවතට",
  "9742": "▁කොල්ලව",
  "9743": "ඔහ්",
  "9744": "▁වෙළද",
  "9745": "රිකන්",
  "9746": "▁ලෝකයක්",
  "9747": "ළුවෙක්",
  "9748": "▁ළමයව",
  "9749": "තුමිය",
  "9750": "▁තෙක්",
  "9751": "▁මෙහ",
  "9752": "ස්ථානය",
  "9753": "මගෙ",
  "9754": "තුමණි",
  "9755": "ශාලා",
  "9756": "නාර්",
  "9757": "▁ටිකත්",
  "9758": "▁මිතුරන්",
  "9759": "▁හදවතින්",
  "9760": "▁ඵ්",
  "9761": "▁තොපි",
  "9762": "ටියන්",
  "9763": "▁පතුර",
  "9764": "▁දාම",
  "9765": "▁ඒවායේ",
  "9766": "තීය",
  "9767": "▁මතුපිට",
  "9768": "▁ක්‍රියාකාරී",
  "9769": "මුහු",
  "9770": "▁ලැජ්ජාවක්",
  "9771": "▁තඩි",
  "9772": "▁ඇඳට",
  "9773": "▁russia",
  "9774": "▁russia_",
  "9775": "ලීම",
  "9776": "▁දුන්නට",
  "9777": "▁පෝල්",
  "9778": "tle",
  "9779": "▁රාක්ෂයෙක්",
  "9780": "▁කිරිම",
  "9781": "▁ඩෑ",
  "9782": "▁විචල්‍ය",
  "9783": "හොදයි",
  "9784": "▁තැපැල්",
  "9785": "▁හිතයි",
  "9786": "ස්තකා",
  "9787": "මේදී",
  "9788": "▁යවලා",
  "9789": "කිරීමක්",
  "9790": "▁ටූ",
  "9791": "▁මැරුන",
  "9792": "ම්පි",
  "9793": "▁අල්ලන",
  "9794": "▁කසාදේ",
  "9795": "▁සීනුව",
  "9796": "▁දෙයින්",
  "9797": "▁අහුවෙලා",
  "9798": "▁උපන්දිනයක්",
  "9799": "▁බෘ",
  "9800": "we",
  "9801": "▁මොකට",
  "9802": "▁by",
  "9803": "▁උඩු",
  "9804": "▁එක්කයි",
  "9805": "▁රිද්දන්න",
  "9806": "▁විනිසුරු",
  "9807": "▁බබෙක්",
  "9808": "▁සිනමා",
  "9809": "▁ජෙරී",
  "9810": "▁සළකුණු",
  "9811": "▁නොකරන",
  "9812": "▁ජේකබ්",
  "9813": "▁විධාන",
  "9814": "▁සත්ව",
  "9815": "▁ස්කෑ",
  "9816": "▁රෝද",
  "9817": "▁අස්සෙ",
  "9818": "ක්‍රේ",
  "9819": "▁ඇහුවොත්",
  "9820": "▁ප්‍රදේශය",
  "9821": "මොන",
  "9822": "type",
  "9823": "▁හිං",
  "9824": "_A",
  "9825": "▁Please",
  "9826": "▁විද්‍යුත්",
  "9827": "▁වෙනවට",
  "9828": "▁උදවුවක්",
  "9829": "▁චාලට්",
  "9830": "▁තාත්තාව",
  "9831": "ට්‍රෝ",
  "9832": "තයෝ",
  "9833": "▁type",
  "9834": "▁‍වි‍",
  "9835": "▁ප්‍රමුඛ",
  "9836": "▁උස්සගෙන",
  "9837": "▁වයසට",
  "9838": "▁ආර්යන්",
  "9839": "▁ලින්ඩා",
  "9840": "▁සිතුව",
  "9841": "▁ස්පර්ශ",
  "9842": "▁ඡායාරූප",
  "9843": "▁මෙහිදී",
  "9844": "▁ක්‍රියාවක්",
  "9845": "▁ත්‍රස්තවාදියෙක්",
  "9846": "▁සංග්‍රහ",
  "9847": "▁මිනිහෙක්ව",
  "9848": "▁පොලිස්කාරයෙක්",
  "9849": "▁love",
  "9850": "▁ro",
  "9851": "ළුම",
  "9852": "▁අවදානම",
  "9853": "▁හොයාගන්නේ",
  "9854": "▁පරිගණකය",
  "9855": "ඩීන්",
  "9856": "▁උදාහරණයක්",
  "9857": "▁අමුත්තෙක්",
  "9858": "▁නහය",
  "9859": "▁දාන්නෙ",
  "9860": "▁එතරම්",
  "9861": "▁ලොව",
  "9862": "▁හුගාක්",
  "9863": "▁එපැ",
  "9864": "තුහ",
  "9865": "▁එක්කං",
  "9866": "▁උසයි",
  "9867": "ණ්ඩුව",
  "9868": "▁කඩලා",
  "9869": "▁සේවාව",
  "9870": "▁චෑන්ග්",
  "9871": "▁ජිවිතයක්",
  "9872": "▁මෙක්සිකෝ",
  "9873": "▁ලෝකෙම",
  "9874": "▁ප්‍රහාරය",
  "9875": "▁පිහිය",
  "9876": "▁තොට",
  "9877": "න්ටයින්",
  "9878": "▁විලවුන්",
  "9879": "▁ඉදන්ද",
  "9880": "▁ක්‍රිෂ්",
  "9881": "▁කැලි",
  "9882": "▁සංජේ",
  "9883": "ත්තම්",
  "9884": "▁හරියන්නෙ",
  "9885": "▁ජෙනරාල්",
  "9886": "▁නියමුවා",
  "9887": "▁සේනා",
  "9888": "▁සජීවී",
  "9889": "▁න්‍යා",
  "9890": "▁කොන්ත්‍රා",
  "9891": "▁බලයන්",
  "9892": "▁ඇතිවෙන්න",
  "9893": "▁ඕෆ්",
  "9894": "▁ඇතුලෙන්",
  "9895": "▁මුගේ",
  "9896": "▁ගානක",
  "9897": "▁පන්තිය",
  "9898": "▁කිව්වනෙ",
  "9899": "කාරකම්",
  "9900": "▁පර්සි",
  "9901": "▁වර්තමාන",
  "9902": "▁කූඩුව",
  "9903": "▁රිද්ද",
  "9904": "▁තල්ම",
  "9905": "▁ඌරු",
  "9906": "▁අනාථ",
  "9907": "erb",
  "9908": "▁ගෙනාව",
  "9909": "▁යටට",
  "9910": "ඩරල්",
  "9911": "▁පිහිට",
  "9912": "▁සහයෝගය",
  "9913": "▁වෙනස්කම්",
  "9914": "▁ප්ලාස්",
  "9915": "අනේ",
  "9916": "▁අවශ්‍යද",
  "9917": "ටිස්",
  "9918": "▁ඒකකය",
  "9919": "▁දඩයක්",
  "9920": "▁රටට",
  "9921": "▁වෙල්",
  "9922": "වර්ටන්",
  "9923": "▁ස්ටාෆ්",
  "9924": "▁කලිනුත්",
  "9925": "▁ෙසායා",
  "9926": "▁එකඟයි",
  "9927": "▁තිෙය",
  "9928": "▁සමි",
  "9929": "▁පුස්තකා",
  "9930": "▁චේ",
  "9931": "▁ගනිමු",
  "9932": "යිඩර්",
  "9933": "▁යාළුවන්",
  "9934": "▁අඩංගු",
  "9935": "▁මෙෙහ",
  "9936": "▁ඇදල",
  "9937": "▁ඉදියි",
  "9938": "▁ආසියා",
  "9939": "PD",
  "9940": "00ක්",
  "9941": "▁ඊළග",
  "9942": "▁ඕව",
  "9943": "▁ධාවක",
  "9944": "▁සමරන්න",
  "9945": "▁අහසේ",
  "9946": "▁නෑනා",
  "9947": "▁ප්‍රතිවි",
  "9948": "▁status",
  "9949": "▁දෙන්නකෝ",
  "9950": "තමා",
  "9951": "මෙන්න",
  "9952": "▁සංචාරක",
  "9953": "ප්‍රදායි",
  "9954": "▁රථය",
  "9955": "වෙමින්",
  "9956": "▁නාට්‍ය",
  "9957": "ර්කි",
  "9958": "▁යන්නම",
  "9959": "▁විදිහෙ",
  "9960": "▁යුත්තේ",
  "9961": "▁පිටට",
  "9962": "▁සර්ව",
  "9963": "ඔබට",
  "9964": "_P",
  "9965": "▁හැමේම",
  "9966": "ගමෙ",
  "9967": "▁ෙකාෙහද",
  "9968": "▁හැසිරෙන්න",
  "9969": "▁අවධානයෙන්",
  "9970": "▁මෙහෙමයි",
  "9971": "▁අධ්‍යා",
  "9972": "▁හැරෙනවා",
  "9973": "▁නිවසේ",
  "9974": "▁සැග",
  "9975": "▁කැස්",
  "9976": "menu",
  "9977": "▁කියවෙන්නෙ",
  "9978": "ටාව",
  "9979": "▁අෙ",
  "9980": "▁අයගෙ",
  "9981": "▁ඩන්",
  "9982": "▁සුවිශේ",
  "9983": "▁සෛ",
  "9984": "මොකද්ද",
  "9985": "▁මවා",
  "9986": "▁උදුර",
  "9987": "▁ඇවිදිනවා",
  "9988": "▁කෝකි",
  "9989": "කරුණා",
  "9990": "▁සූදානමින්",
  "9991": "▁ඉදිරියෙන්",
  "9992": "▁රාම්",
  "9993": "▁සිතියම",
  "9994": "▁පාටියක්",
  "9995": "▁උස්",
  "9996": "▁රණශූ",
  "9997": "▁සංවිධා",
  "9998": "▁ගොල්ල",
  "9999": "▁අහපන්",
  "10000": "▁අඩියක්",
  "10001": "▁නැතිද",
  "10002": "▁ළමයට",
  "10003": "▁ඇල්ලුවා",
  "10004": "▁නොලැ",
  "10005": "▁කෙනකේට",
  "10006": "▁ධර්ම",
  "10007": "▁වටේට",
  "10008": "▁සුරි",
  "10009": "▁ශත",
  "10010": "▁දුර්වලයි",
  "10011": "▁ඇදන්",
  "10012": "▁අතහැර",
  "10013": "▁හැරිස්",
  "10014": "ber",
  "10015": "▁ගතියක්",
  "10016": "▁කිං",
  "10017": "_B",
  "10018": "▁ජාල",
  "10019": "▁ස්වයංක්‍රීය",
  "10020": "▁ඉගන",
  "10021": "▁ආවරණයක්",
  "10022": "▁කොපමණ",
  "10023": "▁කලයුතු",
  "10024": "▁සහිතයි",
  "10025": "විත්",
  "10026": "▁ජයග්‍රාහ",
  "10027": "▁තැන්පත්",
  "10028": "rain",
  "10029": "▁නිර",
  "10030": "රෙව්වා",
  "10031": "▁කිවුවොත්",
  "10032": "▁දරුණුයි",
  "10033": "▁අතහැරලා",
  "10034": "▁සීල්",
  "10035": "▁රයිලි",
  "10036": "▁අත්දැකීම්",
  "10037": "▁තේමාව",
  "10038": "▁කමාන්ඩර්",
  "10039": "▁අනතුරක",
  "10040": "හොද",
  "10041": "▁බේස්බෝල්",
  "10042": "▁ඩියුක්",
  "10043": "▁සවු",
  "10044": "▁හෙළි",
  "10045": "▁දාන්නද",
  "10046": "▁මිලිය",
  "10047": "▁තුවාලයක්",
  "10048": "▁ආධු",
  "10049": "ace",
  "10050": "ණාත්මක",
  "10051": "සනක්",
  "10052": "▁දෙස",
  "10053": "▁කලිසම",
  "10054": "▁බොන්නේ",
  "10055": "▁නික",
  "10056": "▁දෙවනි",
  "10057": "▁බහා",
  "10058": "▁ක්ලයො",
  "10059": "යර්ස්",
  "10060": "ma",
  "10061": "▁රේණු",
  "10062": "▁ඩෝරි",
  "10063": "▁බලනවද",
  "10064": "▁මියගියා",
  "10065": "▁තප්පර",
  "10066": "▁නැන්ද",
  "10067": "ච්ච්",
  "10068": "_S",
  "10069": "ඹුරු",
  "10070": "▁කුතුහ",
  "10071": "▁කරාම",
  "10072": "මීටර්",
  "10073": "▁ලෝකයම",
  "10074": "▁අරූ",
  "10075": "ශයක්",
  "10076": ",...",
  "10077": "▁සහජ",
  "10078": "▁පරීක්ශ",
  "10079": "▁ක්‍රමලේඛය",
  "10080": "▁හමා",
  "10081": "▁තිබිල",
  "10082": "▁අතැ",
  "10083": "▁සහයකයා",
  "10084": "▁about",
  "10085": "▁බාරගන්න",
  "10086": "▁හමුවෙන්නම්",
  "10087": "▁ජීවිතේම",
  "10088": "▁ළමා",
  "10089": "▁කුලු",
  "10090": "▁Col",
  "10091": "▁හෙව්වා",
  "10092": "ච්චෙ",
  "10093": "▁ශැනොන්",
  "10094": "▁එහෙමම",
  "10095": "කාමි",
  "10096": "▁දිනු",
  "10097": "ටස්",
  "10098": "ස්තූ",
  "10099": "කොහෙ",
  "10100": "▁ආයතනය",
  "10101": "▁ලීසා",
  "10102": "▁මොළේ",
  "10103": "▁එමෙන්ම",
  "10104": "▁subjects",
  "10105": "▁මමනම්",
  "10106": "haw",
  "10107": "රන්ස්",
  "10108": "▁ප්‍රශ්ණෙ",
  "10109": "▁ටැක්සි",
  "10110": "▁හතුර",
  "10111": "▁මෘග",
  "10112": "▁එතනදි",
  "10113": "▁රටාව",
  "10114": "▁class",
  "10115": "▁පිරිස",
  "10116": "▁වගෝද",
  "10117": "▁චුට්ටක්",
  "10118": "▁එපැයි",
  "10119": "▁බිත්",
  "10120": "යෝන්",
  "10121": "▁මෙහේට",
  "10122": "▁හමුවක්",
  "10123": "▁කෙනාගේ",
  "10124": "▁ඔයිට",
  "10125": "ජිප්",
  "10126": "▁ආදරවන්ත",
  "10127": "▁උෙ",
  "10128": "▁ස්ටීෆන්",
  "10129": "▁al",
  "10130": "▁මොනවටද",
  "10131": "▁වුණාම",
  "10132": "යුම",
  "10133": "▁එවනවා",
  "10134": "▁පේළි",
  "10135": "▁පුළුවන්නම්",
  "10136": "▁විකට",
  "10137": "▁තුන්දෙනෙක්",
  "10138": "ත්‍‍ත‍",
  "10139": "ම්බේ",
  "10140": "▁සැලසුමක්",
  "10141": "යෙක්ට",
  "10142": "▁සබඳ",
  "10143": "▁ශ්‍රෙක්",
  "10144": "▁අරගනෙ",
  "10145": "▁විධා",
  "10146": "▁කලාප",
  "10147": "▁inmenu",
  "10148": "▁රසාය",
  "10149": "▁විසන්ධි",
  "10150": "▁කාර්තික්",
  "10151": "▁පෑන්",
  "10152": "▁මුහුන",
  "10153": "▁ලියපු",
  "10154": "▁උයන්න",
  "10155": "ය‍ට",
  "10156": "▁පිස්සෙක්",
  "10157": "▁මොකාද",
  "10158": "▁බේරාගන්න",
  "10159": "▁සදාකාලික",
  "10160": "▁මෝටර්",
  "10161": "▁කුරුල්ලෙක්",
  "10162": "▁ඩයින",
  "10163": "▁උපකල්",
  "10164": "බාද්",
  "10165": "▁ජස්මින්",
  "10166": "නාම",
  "10167": "do",
  "10168": "▁පරිත්‍යා",
  "10169": "▁ගේන්නම්",
  "10170": "▁උදව්ව",
  "10171": "▁මැක්සි",
  "10172": "▁ෆා",
  "10173": "▁කලිස",
  "10174": "▁ඔනි",
  "10175": "▁‍රැ",
  "10176": "අනි",
  "10177": "▁හොයල",
  "10178": "ට්ටා",
  "10179": "▁මුහුණු",
  "10180": "▁fr",
  "10181": "▁ආකාරයට",
  "10182": "▁see",
  "10183": "▁එවලා",
  "10184": "▁තාක්ෂණික",
  "10185": "වෙනවද",
  "10186": "මීන්",
  "10187": "ඩාර්",
  "10188": "දෙනව",
  "10189": "▁චීස්",
  "10190": "▁නැන්දා",
  "10191": "ද්දට",
  "10192": "▁කෙහෙල්ම",
  "10193": "▁නුව",
  "10194": "▁ඔබලාට",
  "10195": "▁පැටියා",
  "10196": "▁නගරයෙන්",
  "10197": "▁සිරුරු",
  "10198": "▁120",
  "10199": "▁ඉගි",
  "10200": "▁සාමාන්‍යයි",
  "10201": "▁වැඩසටහනක්",
  "10202": "▁සමගින්",
  "10203": "▁නඩුවක්",
  "10204": "▁ඇවිදින",
  "10205": "තමු",
  "10206": "කරනව",
  "10207": "▁නෙමේද",
  "10208": "▁බන්ද",
  "10209": "▁ශශී",
  "10210": "ගාඩ්",
  "10211": "▁කඩු",
  "10212": "▁ආරක්ෂාවක්",
  "10213": "▁දනේන",
  "10214": "▁ස්ථාවර",
  "10215": "▁ඉඩම්",
  "10216": "▁යහ්හ්",
  "10217": "***",
  "10218": "▁සාකච්චා",
  "10219": "▁පැටවුන්",
  "10220": "▁දුෂ්කර",
  "10221": "▁දෙව",
  "10222": "හ්ම්ම්",
  "10223": "▁කළමණාකරු",
  "10224": "▁යානයට",
  "10225": "▁හැදෙන්න",
  "10226": "▁අවදානමක්",
  "10227": "▁ඇතිද",
  "10228": "▁අහන්",
  "10229": "පැන්",
  "10230": "▁කඳවු",
  "10231": "▁තරුවක්",
  "10232": "▁ඒවගෙන්",
  "10233": "▁කාන්දු",
  "10234": "▁සවා",
  "10235": "▁ලේන්",
  "10236": "▁have",
  "10237": "▁සටහන",
  "10238": "▁මවු",
  "10239": "▁පැමිණෙන්න",
  "10240": "▁ලමයා",
  "10241": "හිරි",
  "10242": "▁තුන්දෙනා",
  "10243": "▁දෙයයි",
  "10244": "▁ආදරයෙන්",
  "10245": "▁වික්ටෝරියා",
  "10246": "▁සමහරවෙලාවට",
  "10247": "▁කතාබ",
  "10248": "cH00",
  "10249": "මක",
  "10250": "▁මරන්නද",
  "10251": "▁රටක",
  "10252": "▁ටේප්",
  "10253": "▁මැරෙන්නේ",
  "10254": "▁චෝටා",
  "10255": "▁මාසයක්",
  "10256": "▁විනෝදයක්",
  "10257": "▁තියෙද්දි",
  "10258": "▁විශ්වා",
  "10259": "රෑම්",
  "10260": "▁ඩික්",
  "10261": "▁වෙනුවෙන්ද",
  "10262": "▁32",
  "10263": "▁බෑනා",
  "10264": "▁උරුම",
  "10265": "▁ඕස්",
  "10266": "▁තක්",
  "10267": "▁හොයාගමු",
  "10268": "‍අ‍",
  "10269": "ඩයි",
  "10270": "▁ඇමී",
  "10271": "▁සොයාගන්න",
  "10272": "▁කාරණයක්",
  "10273": "තාවයට",
  "10274": "කාම",
  "10275": "▁රීඩ්",
  "10276": "ත්මික",
  "10277": "▁පිළිබද",
  "10278": "අරි",
  "10279": "▁වසංගත",
  "10280": "▁අයිතිකාරයා",
  "10281": "▁ඔවුන්ගෙන්",
  "10282": "▁මධු",
  "10283": "▁වෙලත්",
  "10284": "▁ලෝරි",
  "10285": "▁විසඳන්න",
  "10286": "▁අර්ල්",
  "10287": "▁හැඳුනුම්",
  "10288": "▁පුහුණුව",
  "10289": "▁පාඩු",
  "10290": "▁විදිහක",
  "10291": "▁අරෙ",
  "10292": "▁කවි",
  "10293": "▁පරාජිතයෙක්",
  "10294": "▁නිකො",
  "10295": "▁ආරක්ෂකයින්",
  "10296": "▁මියගිය",
  "10297": "▁බාබා",
  "10298": "▁මේවට",
  "10299": "▁ප්‍රභ",
  "10300": "▁අම්මත්",
  "10301": "▁විරෝධ",
  "10302": "▁යථා",
  "10303": "▁පර්යේෂණ",
  "10304": "▁මාසේ",
  "10305": "▁කරහන්",
  "10306": "▁ෙතා",
  "10307": "▁අජේ",
  "10308": "▁මරණයේ",
  "10309": "වමු",
  "10310": "▁කුටි",
  "10311": "ක්‍ය",
  "10312": "යටත්",
  "10313": "කක්",
  "10314": "▁එල්ලිලා",
  "10315": "▁චිකිත්",
  "10316": "▁ඇස",
  "10317": "මානු",
  "10318": "▁ඉඟි",
  "10319": "▁ආපස්සට",
  "10320": "▁බෝම්බෙ",
  "10321": "▁ඔයගේ",
  "10322": "▁waters",
  "10323": "▁waters_",
  "10324": "▁මුළුමනින්ම",
  "10325": "▁ගන්වන්න",
  "10326": "▁පාන්",
  "10327": "▁දේප",
  "10328": "▁තමන්ට",
  "10329": "ize",
  "10330": "දෙන්නෙ",
  "10331": "හෙක්",
  "10332": "▁ගමනා",
  "10333": "▁අයිතම",
  "10334": "▁උතුරට",
  "10335": "▁උදව්වට",
  "10336": "▁විකුණු",
  "10337": "▁ලුහුබඳි",
  "10338": "▁නිව්යෝර්ක්",
  "10339": "වත්‍",
  "10340": "▁ප්‍රි",
  "10341": "▁සහතිකයි",
  "10342": "▁කැමතිනම්",
  "10343": "ink",
  "10344": "දුරට",
  "10345": "▁සැලකිලිමත්",
  "10346": "▁ඇලන්",
  "10347": "▁‍නැ‍",
  "10348": "▁කොකා",
  "10349": "▁කන්නෙ",
  "10350": "▁ලියුමක්",
  "10351": "▁cam",
  "10352": "▁විකෘති",
  "10353": "▁26",
  "10354": "▁මෝදී",
  "10355": "▁dep",
  "10356": "▁දකින්නෙ",
  "10357": "▁උතුම්",
  "10358": "▁කැට්නස්",
  "10359": "ඩාන්",
  "10360": "▁ඇඟිල්ල",
  "10361": "▁ඩොක්",
  "10362": "▁ලයිසන්",
  "10363": "▁දක්වනවා",
  "10364": "▁ඉතිහාසයේ",
  "10365": "▁නර්සින්",
  "10366": "▁‍වැ‍",
  "10367": "▁සැපයුම්",
  "10368": "▁ස්ටු",
  "10369": "නිලා",
  "10370": "▁ඊස්ටර්",
  "10371": "▁අවාසනාවට",
  "10372": "රූම්",
  "10373": "▁ච්",
  "10374": "▁මුහුදට",
  "10375": "යෙකුගේ",
  "10376": "▁මායාවක්",
  "10377": "සහගත",
  "10378": "▁රෝම",
  "10379": "▁මතකයක්",
  "10380": "▁නැගිට්ට",
  "10381": "▁අමුත්",
  "10382": "දේශි",
  "10383": "ගොඩ",
  "10384": "දීම්",
  "10385": "▁ලේකම්",
  "10386": "▁ඩොක්ට",
  "10387": "▁ජාවාරම්",
  "10388": "▁එව්වෙ",
  "10389": "කොටම",
  "10390": "▁පහරක්",
  "10391": "▁වුවත්",
  "10392": "▁ෂර්ට්",
  "10393": "▁බඳ",
  "10394": "▁කරමුද",
  "10395": "▁පුපුරව",
  "10396": "▁යාවත්කාලීන",
  "10397": "▁හතරයි",
  "10398": "තමයි",
  "10399": "▁ප්‍රදේශයේ",
  "10400": "▁කැසී",
  "10401": "▁ඇලෙක්",
  "10402": "▁පද්ධතියක්",
  "10403": "▁කැපු",
  "10404": "ණෙන්",
  "10405": "iss",
  "10406": "▁පෙම්",
  "10407": "සුවේ",
  "10408": "රුන",
  "10409": "ana",
  "10410": "▁පදනම්",
  "10411": "▁උස්සලා",
  "10412": "ගැහු",
  "10413": "▁ප්‍රවේ",
  "10414": "▁හම්බවුනේ",
  "10415": "▁ආරම්භයක්",
  "10416": "▁හප",
  "10417": "\\\\\\\\",
  "10418": "▁කොන්ඩ",
  "10419": "▁ෙවයි",
  "10420": "hen",
  "10421": "වශ",
  "10422": "▁අහිංස",
  "10423": "▁එකපා",
  "10424": "▁සුරැකීම",
  "10425": "▁සැලකු",
  "10426": "▁මැලේ",
  "10427": "▁ඇඟේ",
  "10428": "▁නොකිය",
  "10429": "පත්‍ර",
  "10430": "▁විදියකට",
  "10431": "escri",
  "10432": "▁ආලෝක",
  "10433": "▁මිනිස්සුන්ගෙ",
  "10434": "▁විප්ලව",
  "10435": "▁කිස්",
  "10436": "▁මාකස්",
  "10437": "▁දුකක්",
  "10438": "▁හරස්",
  "10439": "▁චිප්",
  "10440": "▁want",
  "10441": "▁‍මි‍",
  "10442": "ge",
  "10443": "ටෝබෝ",
  "10444": "▁ක්ලේයර්",
  "10445": "▁පෙනුමක්",
  "10446": "▁කොටසේ",
  "10447": "දියි",
  "10448": "▁‍වෙ",
  "10449": "▁මිනීමරුවෙක්",
  "10450": "▁අටක්",
  "10451": "▁මිල්වර්ටන්",
  "10452": "▁තමුසෙලා",
  "10453": "▁ඔයානේ",
  "10454": "▁උනානම්",
  "10455": "▁කලෙක්ටර්",
  "10456": "▁ඇතිනේ",
  "10457": "කවුරු",
  "10458": "▁කුළුණ",
  "10459": "▁බැලුවෙ",
  "10460": "lic",
  "10461": "▁සුරාජ්",
  "10462": "▁දෛව",
  "10463": "රාට",
  "10464": "▁හෙණ",
  "10465": "▁ලබනවා",
  "10466": "▁චෞද්රි",
  "10467": "▁මරන්නයි",
  "10468": "සිරු",
  "10469": "▁විශේෂයෙන්",
  "10470": "▁ආවත්",
  "10471": "▁පාරටම",
  "10472": "▁රඟපෑ",
  "10473": "▁කලබ",
  "10474": "▁වැඩක",
  "10475": "RS",
  "10476": "▁ඕකෙන්",
  "10477": "▁ක්ලයොර්",
  "10478": "▁අඩිය",
  "10479": "▁අපූරු",
  "10480": "▁බුද්ධිම",
  "10481": "▁හරක්",
  "10482": "වෙකුට",
  "10483": "චාරයක්",
  "10484": "ක්‍ෂා",
  "10485": "▁ගේට්ටු",
  "10486": "▁ස්කෝෆීල්ඩ්",
  "10487": "▁ආත",
  "10488": "▁විඳ",
  "10489": "▁ළගට",
  "10490": "▁බැලුවම",
  "10491": "▁මාර්‍",
  "10492": "යගෙ",
  "10493": "▁උගෙ",
  "10494": "හෙයි",
  "10495": "▁රොජර්",
  "10496": "▁ලුවිස්",
  "10497": "▁ප්‍රජා",
  "10498": "▁ඉංජිනේරු",
  "10499": "▁තිරණය",
  "10500": "▁ඇරියා",
  "10501": "▁භාණ්ඩ",
  "10502": "▁පදක්ක",
  "10503": "නාද",
  "10504": "▁මැරෙන්නයි",
  "10505": "▁‍දෙ‍",
  "10506": "▁අත්හදා",
  "10507": "now",
  "10508": "▁සන්තෝ",
  "10509": "▁ඒගොල්ලො",
  "10510": "▁ඩෙල්",
  "10511": "▁සිතුවිලි",
  "10512": "▁කියවන",
  "10513": "▁සංවිධානය",
  "10514": "▁පටන්ගමු",
  "10515": "▁ලිසී",
  "10516": "▁වචනෙ",
  "10517": "▁පත්වෙලා",
  "10518": "ner",
  "10519": "ගයි",
  "10520": "තිහා",
  "10521": "▁එතක",
  "10522": "▁කතාවට",
  "10523": "▁(%",
  "10524": "▁ඇවැසි",
  "10525": "▁ඇලඩීන්",
  "10526": "ප්‍රදායික",
  "10527": "දුන්",
  "10528": "ර්ථය",
  "10529": "▁රැහැ",
  "10530": "▁tur",
  "10531": "▁පරීක්ෂකයෙක්",
  "10532": "කරගත්තා",
  "10533": "▁අඩුමතර",
  "10534": "▁සම්භන්ද",
  "10535": "▁සුරක්",
  "10536": "▁නමට",
  "10537": "▁සිද්ධා",
  "10538": "▁ප්‍රචණ්ඩ",
  "10539": "▁kde",
  "10540": "▁කාලගු",
  "10541": "▁යාලුවන්",
  "10542": "ක්‍රීයව",
  "10543": "දුනු",
  "10544": "▁රැවටි",
  "10545": "▁සංකේත",
  "10546": "▁කාරයො",
  "10547": "▁දොස්",
  "10548": "▁මොක්කද",
  "10549": "වඩ්",
  "10550": "▁ආවහම",
  "10551": "▁මෙහෙදි",
  "10552": "▁දහයයි",
  "10553": "ම්බර",
  "10554": "▁භාවිතය",
  "10555": "▁මෙයාලට",
  "10556": "▁එහමයි",
  "10557": "▁ඉල්ලන",
  "10558": "▁ඉහලින්",
  "10559": "▁පැද",
  "10560": "▁සමාෙ",
  "10561": "▁රාකේ",
  "10562": "පාක",
  "10563": "▁70",
  "10564": "ele",
  "10565": "▁බොරු",
  "10566": "▁බලනකොට",
  "10567": "කානු",
  "10568": "▁කොණ්",
  "10569": "න්තයේ",
  "10570": "▁නගරා",
  "10571": "බස්",
  "10572": "▁සිටියේ",
  "10573": "▁කැන",
  "10574": "▁මහන්සියි",
  "10575": "▁සෙවනැ",
  "10576": "▁ගෙවන",
  "10577": "▁අතාරිනවා",
  "10578": "▁මොවුන්",
  "10579": "▁කපු",
  "10580": "▁දිනුවා",
  "10581": "▁ෂේ",
  "10582": "▁සෙවුම්",
  "10583": "▁ව්‍යාපාරය",
  "10584": "▁ලිපිගොනු",
  "10585": "▁වටිනාකමක්",
  "10586": "කුළු",
  "10587": "සුයි",
  "10588": "▁අත්හැ",
  "10589": "▁හයිය",
  "10590": "▁බෙදාගන්න",
  "10591": "▁නිවේ",
  "10592": "▁සම්පූර්න",
  "10593": "නිෆර්",
  "10594": "▁පහරදෙන්න",
  "10595": "▁ගහක්",
  "10596": "▁සහිතව",
  "10597": "▁at",
  "10598": "▁ටොන්",
  "10599": "පර",
  "10600": "▁දැනෙයි",
  "10601": "මියෝ",
  "10602": "▁ගොනුවක්",
  "10603": "▁සන්නිවේදනය",
  "10604": "weather",
  "10605": "▁බල්",
  "10606": "▁නොකරන්න",
  "10607": "▁කරැණා",
  "10608": "▁නිලධාරීන්",
  "10609": "▁විශේෂිත",
  "10610": "කොම",
  "10611": "බෝංචි",
  "10612": "ට්න්",
  "10613": "▁දීප්තිමත්",
  "10614": "▁තරමටම",
  "10615": "▁සමාෙවන්න",
  "10616": "▁ද්වි",
  "10617": "▁අන්ත",
  "10618": "▁කඩදාසි",
  "10619": "▁මොකෙක්ද",
  "10620": "කයො",
  "10621": "▁මූට",
  "10622": "▁හිරගෙදර",
  "10623": "▁ගුහාව",
  "10624": "▁තොල්",
  "10625": "▁වටෙන්",
  "10626": "▁රෝයි",
  "10627": "ones",
  "10628": "▁මූණට",
  "10629": "▁පසුම්",
  "10630": "▁එයාටත්",
  "10631": "▁ද්‍රෝහී",
  "10632": "▁ඇන්ජලීස්",
  "10633": "▁හොයාගත්තොත්",
  "10634": "▁ප්‍රථම",
  "10635": "නයකට",
  "10636": "▁බොරුව",
  "10637": "▁සංදර්ශ",
  "10638": "▁ගැටු",
  "10639": "▁උපාං",
[...]
