#version: 0.2
č Ċ
Ġ t
. čĊ
h e
o u
Ġ a
i n
r e
Ġ w
Ġ s
h a
o n
Ġ y
Ġy ou
Ġ m
Ġt he
i s
Ġ b
e r
l l
Ġ d
in g
i t
Ġ c
? čĊ
Ġt o
a n
Ġ f
Ġ g
o r
ha t
v e
Ġ l
Ġ I
e n
Ġ n
' s
o w
e d
Ġ p
o m
Ġ o
e s
n d
o t
e t
Ġ he
a r
. .
s t
a t
! čĊ
Ġt h
Ġ h
a y
Ġ ha
Ġ in
Ġ it
Ġo f
' t
l e
Ġm e
a s
Ġb e
Y ou
Ġ on
Ġ is
i d
g h
Ġt hat
Ġ k
Ġ u
l d
Ġw e
i m
i c
u t
a c
s e
a l
k e
Ġa nd
Ġ e
gh t
v er
ou t
o o
Ġd o
r i
T he
om e
a d
Ġf or
Ġyou r
i ll
Ġ re
Ġth is
a m
H e
Ġs t
i r
' re
Ġha ve
W e
u st
Ġm y
Ġg o
Ġa re
Ġk n
Ġn ot
' m
i on
Ġl i
Ġa n
l y
it h
r o
Ġkn ow
Ġw as
W hat
e e
en t
Ġw ith
Ġc an
ou ld
.. .čĊ
Ġ S
a ll
Ġ j
Ġn e
he r
h o
an t
Ġd on
e c
u r
.. .
Ġhe re
h ing
Ġw hat
Ġg et
i f
Ġ M
I t
e a
Ġh im
a ke
Ġ C
p p
Ġ out
ac k
' ll
on e
t er
r y
o p
c h
Ġa ll
u n
Ġa b
c e
Ġ A
Ġa s
Ġu p
Ġj ust
ou r
ri ght
i l
an d
ha n
oo k
N o
Ġli ke
r a
e ll
Ġw ant
c k
Ġs h
Ġa t
Ġ T
Ġd id
in k
i ve
Ġw ill
oo d
Ġ right
Ġab out
in d
Ġg ot
A nd
Ġthe re
Ġ D
n a
i ght
ver y
h y
r om
Ġw or
Ġs o
o re
Ġ B
Ġu s
g e
Ġ G
i e
Ġhe r
he re
Ġon e
a u
ar t
Ġan y
o d
Ġn o
es s
Ġs u
' ve
Ġ r
Ġthe y
Ġth ink
Ġl o
a in
ow n
Ġs a
Ġ L
u s
en d
Ġa l
Ġs ee
is t
Ġn ow
T hat
Ġ W
am e
Ġf rom
Ġd e
es t
at e
Ġb ut
he n
Ġb ack
Ġne ed
Ġm an
Ġ P
Ġc om
i g
Ġ if
a b
a st
Ġp l
Ġ H
im e
all y
c t
k ay
Ġ R
o l
Ġs ome
Ġh is
o s
h is
at ion
Ġthe m
Ġw ho
Ġgo ing
B ut
er s
on na
O h
on g
a k
Ġg onna
as e
r ou
u l
u m
n t
Ġs ay
e m
a re
e ar
Ġs he
ic e
in e
Ġ or
Ġ J
Ġc on
Ġc ome
Ġw ould
Ġg u
The y
Ġt ime
Ġ -
Ġe x
Ġ You
ea h
ec t
q u
al k
He y
e l
ot her
Ġwe re
f e
Ġ our
ar d
S o
Ġl ook
T his
w ay
Ġt ell
Ġs p
Ġbe en
Ġ F
Ġp ro
Ġha s
u re
ic k
t hing
ac e
om et
a p
Ġha pp
or t
" čĊ
Ġa g
Ġto o
Ġt r
Ġ O
Ġt ake
Ġ N
Ġg ood
Ġd own
ve n
Ġof f
id e
. .čĊ
Ġa m
We ll
Ġe very
Ġc ould
Ġth ing
le ase
Ġ v
Y eah
u ck
i re
H ow
I f
Ġw ay
it t
Ġha d
The re
au se
omet hing
l p
Ġ K
Ġ E
b le
Ġw hen
a g
Ġin t
Ġh ow
h i
Ġsh ould
ou s
Ġt alk
Ġk ill
re s
S he
Ġp e
Ġc l
Ġdid n
Ġc all
Ġwor k
Ġb y
Ġl et
op le
Ġhapp en
o ve
C ome
Ġs omething
l f
it y
Ġgu y
W hy
re at
' d
, čĊ
Ġm ake
Ġon ly
han k
Ġme an
nd er
Ġlo ve
a ge
a it
D o
ee p
Ġd ay
u d
Ġo ver
Ġb r
b er
Ġb l
Ġpe ople
Ġm ore
t h
Ġf ind
ou nd
f f
Ġne ver
Ġl e
Y es
Ġb o
o se
Ġhe lp
v ing
Ġs e
i es
Ġdo es
w o
t her
re e
Ġsa id
p l
Ġl ea
ac t
or ry
Ġ What
Ġw hy
re d
on d
is s
od y
Ġw here
Ġ en
D on
M y
Ġ qu
e w
p t
Ġo kay
Ġ ro
Ġg ive
Ġthe n
Ġs c
. "čĊ
at her
A ll
Ġdo ing
t ing
ad y
itt le
Ġu nder
Ġre ally
as s
Ġs ir
Ġbe c
b e
ri end
n ing
u e
o st
L et
W here
Ġ He
W ho
u ll
p er
Ġl ittle
N ow
se lf
o b
a ve
Ġag ain
ir st
m ent
Ġli fe
Ġb et
Ġu n
f ter
Ġas k
u ch
it e
Ġint o
o ld
Ġe ven
is h
S t
Ġt wo
ĠI t
Ġy ear
Ġp r
L ook
ha r
O kay
n e
i z
ad e
rou nd
Ġ No
f ore
f t
Ġ "
N ot
g et
Ġbe l
Ġo ther
J ust
Ġm uch
Ġ very
ou ght
ou gh
Ġn ame
ir l
ur n
n y
an g
Ġ im
ee l
Ġha nd
or d
ac h
Ġany thing
e p
ar k
Ġthe se
Ġa way
Ġt ry
b ody
Ġa r
Ġc ar
A re
Ġf riend
Ġs ec
r ow
Ġc han
G et
Ġthe ir
Ġ We
Ġre m
Ġst ill
d ay
Ġg irl
is e
Ġh ome
Ġbe fore
Ġk eep
Ġne w
one y
0 0
Ġw r
i a
Ġsu re
Ġl ong
I s
Ġw on
Ġt han
Ġw at
res s
Ġs orry
Ġf irst
o ll
Ġf eel
Ġto ld
ist en
Ġ '
You r
Ġa fter
Ġa c
ĠS t
Ġp re
ay be
ie ve
an s
o g
Ġm in
t y
I n
or m
a il
Ġw ait
Ġp lease
Ġ V
h ic
Ġm ust
or y
Ġth ought
Ġhappen ed
Ġf l
w e
Ġf ather
Ġ The
Ġyear s
Ġc are
Ġn ight
: čĊ
Ġk id
Ġl ast
st and
Ġbec ause
Ġcom ing
an ce
oo l
ion s
e ver
Ġd is
Ġlea ve
Ġs on
i p
i ly
Ġpl ace
i le
Ġcon t
s p
Ġp ut
i ous
Ġguy s
Ġp art
o ck
x t
Ġs m
Ġst art
p en
Ġa d
Ġm ade
Ġa ct
u g
ab le
Ġbo y
ĠG od
Ġpl an
in t
Ġhe ll
Ġst op
he d
ou se
ou nt
au ght
Ġdon e
Ġre al
ig n
Ġbel ieve
Ġwor ld
s ide
Ġe ver
Ġwe ll
ak ing
Ġr un
a v
os s
way s
G o
ĠM r
Ġa round
Ġf uck
ar y
on s
Ġunder stand
Ġt e
Ġli ve
Ġhe ad
Ġc he
P lease
Ġdoes n
Ġmin ut
Ġe l
i al
ri ed
W hen
D id
Ġst ay
en ce
T hank
Ġm ove
at h
Ġb u
Ġc r
Ġ id
Ġle ft
Ġbet ter
o c
a w
Ġt ra
re n
S h
rou gh
Ġm oney
Ġevery thing
Ġthing s
C an
Ġc ame
Ġth ose
p ort
hic h
u p
Ġhe ar
ic t
Ġsh ow
Ġf ound
Ġde ad
Ġas s
Ġl ot
t a
at ed
Ġf am
Ġsome one
Ġth rough
em ber
Ġal ways
Ġcom p
i x
Ġwr ong
Ġb ig
Ġ own
Ġm at
The n
y e
Ġp er
m m
Ġm ar
Ġd r
u b
Ġnot hing
Ġg reat
Ġp h
Ġb ad
Ġel se
Ġsu pp
f ul
Ġtalk ing
Ġme et
is ter
Ġc our
Ġbr other
i ke
Ġp o
ec ause
Ġg r
an k
â Ļ
Ġs ur
Ġa pp
G ood
i v
Ġm iss
i an
n g
Ġpl ay
o y
Ġh ouse
Ġat t
u ally
Ġwant ed
Ġs ho
Ġ U
ĠT hat
Ġlook ing
Ġget ting
i ed
ble m
Ġo ld
Ġk ind
Ġre c
Ġs ha
Ġs er
E very
Ġd ec
Ġha r
ot h
Ġis n
Ġc le
Ġtry ing
l es
Ġm other
Ġj ob
- -
on t
an na
Ġm ight
Ġm om
if e
Ġpro blem
ab y
Ġp ol
ers on
Ġman y
i ble
in ce
Ġst r
F or
Ġ ra
Ġf ine
Ġm on
Ġ Oh
Ġbe ing
Ġc o
Ġac c
Ġto day
as h
a h
B ecause
Ġs ame
Ġd ie
p le
Ġfam ily
Ġsa w
Ġen ough
ow er
ak es
Ġu se
t ain
Ġgot ta
Ġkill ed
or s
Ġth ree
ĠC ome
s s
Ġ end
Ġ Yeah
Ġd ad
o h
Ġsa ve
Ġs w
d y
Ġb us
Ġcom m
Ġan other
e k
Ġrem ember
Ġtoo k
s o
âĻ ª
Ġd if
ut h
ation s
Ġm ay
d er
Ġyour self
Ġse en
ĠA nd
Ġs l
Ġt urn
Ġhe art
Ġb it
Ġd es
m an
Ġbr ing
Ġh ur
Ġp erson
im es
re t
Ġm ind
at ch
u h
O n
i gh
Ġwith out
he s
Ã ¶
Ġany one
pp ed
Ġo pen
Ġday s
Ġne xt
Ġh our
Ġc hi
i ld
Ġ ent
Ġw ar
m er
re ak
os ed
p s
He re
op e
ll o
Ġlo st
Ġw anna
at ing
m y
re ady
Ġg one
Ġl isten
aught er
re st
n er
T h
Ġf in
Ġ Hey
or row
ĠH ow
Ġcour se
re nt
Ġf un
Ġro om
a ir
e y
Ġqu est
T ell
Ġg un
or ning
Ġw ent
get her
l and
Ġal ready
re am
Ġ Yes
r u
ea k
Ġsay ing
M aybe
Ġm et
Ġd ri
Ġkn ew
w here
u se
Ġs et
Ġsec ond
Ġb aby
Ġus ed
Ġag o
il es
O ne
a j
Ġ Y
oll ow
Ġre ady
am n
Ġw hich
m s
Ġm en
Ġid ea
as on
f orm
T ake
Ġm o
Ġb est
A s
Ġh old
Ġwor d
ar s
Ġwe ek
l ess
en s
g g
Ġmat ter
p e
id ent
T o
Ġc h
Ġchi ld
a x
A l
Ġd aughter
y es
Ġto gether
it ion
ve l
ĠD on
Ġwas n
ĠC l
ĠC h
S ome
ic al
Ġfriend s
Ġc ra
Ġf ew
hi le
Ġre st
ot t
Ġt hank
le ep
at er
ing s
Ġn um
c le
Ġin side
Ġsh it
Ġh it
Ġhe ard
in s
Ġhar d
Ġminut es
Ġcall ed
iz e
en se
Ġw ife
S ir
Ġwat er
Ġy Ã¶
a ut
Ġph one
ir d
Ġal so
Ġdif fe
t he
ĠL et
ast er
Ġwould n
nt il
Ġf ar
Ġre s
Ġm orning
Ġwho le
Ġw om
Ġp rom
z y
Ġf ight
Ġn ice
Ġy et
are d
Ġc ho
Ġf r
Ġw alk
Ġs ister
oh n
ĠW hy
Ġe m
Ġto w
Ġpre t
an c
Ġc ount
y ing
Ġc ha
in ess
Ġm ost
M r
Ġpol ice
W ait
Ġon ce
Ġf ire
Ġgu ess
Ġy eah
Ġal one
Ġs ign
ct or
m ed
Ġsu ch
u ff
Ġb oth
E x
Ġf ace
ĠT his
Ġevery one
Ġsa fe
Ġche ck
ul t
Ġp ass
ĠS he
i k
i b
n ess
j ect
Ġe yes
i ent
B e
Ġso on
Ġde al
ve s
re w
Ġ i
Ġfuck ing
c ess
Ġhur t
Ġu h
Ġs it
Ġtr ust
ar l
Ġm ess
Ġre l
Ġy es
Ġt er
A n
Ġbl ood
t o
Ġst and
Ġg ave
Ġpr ot
ĠO kay
Ġp ay
Ġs y
Ġto m
Ġknow s
g er
Ġf ollow
ro p
Ġh um
ud e
le ct
ĠD o
as y
Ġhand s
or n
Ġchan ge
Ġm aybe
Ġg l
i er
Ġdo or
Ġre t
Ġwor ry
l t
S ee
d d
A ny
Ġw hile
Ġs leep
Ġre sp
Ġcon f
Ġcom pl
act ly
Ġsay s
G ive
1 0
ro l
et s
Ġc ase
c hing
Ġwant s
h ind
O r
Ġex p
a z
Ġp ower
ĠJ ack
l ic
Ġmon th
Ġmean s
Ġmy self
ce pt
Ġtom orrow
s w
a pp
c ome
Ġb reak
Ġu ntil
ĠD ad
Ġsh ot
Ġhave n
St op
ĠT hank
ĠW here
L isten
He llo
om b
Ġcl ose
is on
al s
d ing
U h
Ġal ive
Ġpo int
H ave
Ġ They
Ġhapp y
Ġwork ing
d e
' čĊ
ĠG o
us h
t on
Ġb ro
it s
p r
et e
un t
Ġcould n
ig ure
Ġbe aut
ĠB r
ut e
Ġc or
an y
Ġe v
i et
Ġsp eak
Ġt aking
Ġ %
ang er
Ġp oss
ve d
Ġex pl
ĠW ho
ĠyÃ¶ u
ĠS o
it her
g ed
Ġbe hind
Ġre ad
Ġ (
Ġsupp osed
ĠA ll
Ġminut e
Ġs ince
Ġsp ec
c use
he ad
Ġtr uth
C l
Ġ hat
Ġask ed
R e
we et
Ġpret ty
ab ly
Ġchan ce
am p
Ġc ou
n ot
s on
S orry
Ġthink ing
Ġl ate
Ġin st
ĠG et
Ġact ually
A t
ver s
u c
Ġh ope
ĠN ot
Ġde f
Ġit s
at es
e v
ro ss
Ġin c
Ġl uck
Ġsho ot
W ith
Ġp ick
Ġf ive
e x
ĠI s
Ġim p
Ġcle ar
Ġbus iness
un g
ĠS h
Ġs end
ĠB ut
R ight
u nd
or k
ent s
Ġs k
Ġin ter
B r
Ġw ind
Ġli ght
Ġnum ber
Ġc op
en c
Ġd ream
if ul
ve nt
am es
Ġj o
l ed
Ġs ide
o le
a i
Ġhour s
an e
ard s
Ġan sw
Ġwat ch
on ight
Ġs ound
Ġh uh
is ed
Ġt ou
g r
Ġtr ue
ĠA n
um p
Ġm ur
Ġd est
L ike
Ġb ody
Ġwom an
Ġdr ink
l come
Ġbu ild
er y
Ġs ent
Ġtra in
at t
Ġle ad
ĠJ ust
are nt
ĠJ ohn
Ġquest ion
n ed
Ġdiffe rent
Ġex actly
Ġc har
D ad
Ġe ach
Ġcra zy
2 0
Ġf e
) čĊ
st em
m ore
ch ool
Ġf our
Ġte am
Ġde ath
ap tain
Ġre ason
Ġprot ect
Ġlea st
Ġm ill
b s
Ġ âĻª
Ġf all
Ġf ile
Ġb ook
Ġyour s
i o
b ably
Ġp ull
i ate
Ġtell ing
ĠI n
u al
rou ght
ct ion
Ġd et
Ġm ine
we en
Ġkid s
in es
e en
Ġ Well
e al
Ġa ir
er ing
Ġm ist
e rest
H i
Ġm ed
ĠO K
Ġwait ing
Ġf ull
Ġl ater
an ge
Ġbeaut iful
Ġh igh
M ove
U n
y a
Ġst ory
ak en
Ġd ied
Ġg en
Ġe at
Ġin v
Ġp ain
Ġf ree
ur ity
Ġg ame
Ġm akes
Ġst uff
ĠC har
Ġv is
Ġt ri
Ġc ut
Ġh on
out h
f ect
Ġb rought
Ġt imes
Ġf igure
an a
Ġtr ans
Q u
it al
Ġb ra
Ġs chool
in c
b y
A N
W ill
ic ha
Ġw ish
Ġcon s
ha m
Ġme m
Ġbe g
Ġm aking
Ġp at
* *
Ġf ore
Ġl ear
Ġad d
Ġa p
Ġstart ed
Ġc oll
au lt
if t
The se
Ġt onight
l o
ire d
Ġh ot
icha el
Ġin form
Ġle g
Ġcom es
m a
l i
Ġim port
Ġw in
s h
Not hing
Ġbec ome
Ġbet ween
Ġis land
Ġa in
es c
O f
Ġ ...
od e
ie ld
Ġlook s
He lp
un ch
Ġf ood
Ġget s
E R
ic a
Ġc ity
id d
Ġt rou
Ġ ri
Ġ There
Ġcont rol
Ġgr and
Ġmom ent
Ġatt ack
- l
Ġsec ret
Ġex t
Ġsc ared
it ed
Ġagain st
m e
H is
Ġfor g
b and
Ġsy stem
Ġrun ning
Ġw ond
Ġfor get
Ġd ire
Ġdis c
m ost
Ġa w
us s
y ou
Ġc ur
Ġe asy
l ing
p h
O ur
ĠM y
ent ion
Ġp res
Ġfr ont
Ġdo g
Ġha ving
Ġout side
Ġab le
Ġmonth s
ious ly
Ġask ing
hi p
Ġhum an
_ čĊ
Ġl ine
Ġl and
Ġf ast
o ot
Ġany more
Ġmar ried
Ġd anger
I N
Ġent ire
Ġha lf
Ġt ried
os p
Ġimport ant
ne y
Ġlo ck
a le
Ġnew s
Ġcan not
Ġs weet
f ra
ar ing
ĠA l
ĠP lease
Ġl aw
Ġprom ise
v ice
Ġint erest
ow s
us band
K eep
Ġd ra
ar ly
Ġwhat ever
Ġk ey
Ġw h
Ġde p
Ġs n
b r
ĠG ood
Ġre port
Ġp ri
ie w
Ġd ist
e ad
Ġneed s
Ġh usband
m en
Ġs ing
Ġare n
H old
O U
ol og
re et
er a
r or
Ġin s
i ec
Ġp ap
Ġlive s
oo se
Ġtow n
se l
Ġb omb
G od
il ity
Ġyou ng
itt ing
Ġsu b
Ġa head
un k
Ġs im
fra id
om m
Ġgirl s
re en
Ġf ix
Ġf act
c hed
Ġtou ch
Ġlo se
Ġb ed
l ie
Ġpart y
y s
ag es
er al
R em
Ġ ve
Ġs ix
Ġlo c
Ġgo es
Ġen g
Ġpro bably
ie f
Ġd i
a id
ar ry
w ard
Ġt est
A fter
ĠR e
Ġw all
ĠC an
Ġqu ite
E ven
ot s
Ġd amn
Ġret urn
Ġt aken
le x
Ġsur v
Ġlea ving
at ive
d u
er t
Ġa fraid
Ġsm all
Ġbl ack
Ġtr ack
Ġoff ic
at or
Ġre g
Ġ esc
e red
Ġwe ap
i ving
Ġb ull
1 5
Ġm ad
st er
Ġansw er
à ¶
ic s
ot e
Ġtrou ble
Ġplan e
in ed
id ence
Ġ Z
Ġmill ion
G u
à ·
Ġposs ible
ĠS c
on y
Ġp ast
Ġb ag
il t
- h
up id
ap e
Ġmist ake
if ic
Ġsec urity
e f
ĠA re
ure s
Ġp arent
art h
l er
Ġoff ice
P ro
ĠM om
A R
Ġo b
ĠG r
Ġcle an
- I
Ġcount ry
Ġhappen ing
ir th
ĠL ook
Ġf ell
ĠA r
M e
G ot
Ġb ar
Ġor der
ĠT H
it ch
ren ce
C h
Ġdo ctor
Ġcomp any
r act
Ġexp ect
ĠM ar
b o
Ġsh ip
osp ital
Ġg ra
ro y
Ġd ou
Ġc atch
On ly
en ny
ĠD r
Ġbo at
Ġsh ut
Ġfeel ing
Ġcou ple
Ġb reat
W hich
Ġhappen s
Ġk ing
al m
am a
Ġli e
Do es
sp ect
Ġp os
Ġst ep
r ist
in a
Ġhe y
o k
in al
f er
ĠT h
pp ing
ĠYou r
ĠN ew
Ġal ong
Ġf av
o or
Ġsee ms
Ġspec ial
St ay
o ke
Ġc ool
Ġqu ick
Every thing
iz ed
Ġl ess
Thank s
- b
Ġe ye
e pt
1 2
Ġgo d
al t
gr am
Ġal most
ĠI nd
et er
u le
i ence
-- čĊ
ĠF r
3 0
um b
Ġf ly
Ġp iec
T wo
T r
ri age
on es
Ġparent s
Ġv ill
er tain
Ex cuse
Ġc ell
ent le
Ġb oss
Ġb ud
Ġcompl ete
ĠC ha
Ġcl os
Ġm ark
ĠB l
M om
Ġt w
Ġb irth
is hed
W ould
- čĊ
ull y
Ġh ospital
Ġre p
Ġde ar
Ġcho ice
ĠA mer
Ġinform ation
N e
Ġcall ing
A m
Ġhe ro
Ġstr ong
ed ding
Ġs ick
Ġmo ving
Ġf ool
ĠL ord
Ġbit ch
Ġbe at
Ġm ag
re ed
Ġs ear
Ġexpl ain
Ġst ud
n o
Ġother s
- in
Ġe ither
ic ally
Ġre d
as k
b ers
Ġdri ve
Ġsome body
Ġf ail
it ies
... ?čĊ
Ġp ict
c c
omet imes
ro om
ec h
Ġg round
n ect
Ġboy s
Ġhim self
Ġst upid
ĠS p
O K
Ġ ...čĊ
ĠâĻª čĊ
Ġf ut
ĠS am
sel ves
ĠB e
Ġr is
ĠI f
- c
Ġf oot
P ut
Ġcl ass
00 0
Ġst ra
Ġt ill
Ġth ough
pt ion
Ġper fect
Ġc ol
F uck
Ġhat e
Ġd in
a ire
ĠS ha
Ġevery body
J ack
s y
P e
ĠN ow
Ġto p
S ay
Ġwind ow
le as
Ġshould n
Sh it
' am
Ġex per
Ġsave d
Ġt em
c es
5 0
art ment
ar r
O pen
Ġpro f
A ct
ast e
u es
ar get
Ġst ation
id ing
Ġro b
ĠF or
id ed
er n
Ġre qu
Ġc ap
Ġfut ure
Ġmar riage
W ow
Ġwond er
Ġc am
Ġfun ny
ir t
Ġgive n
B y
S e
Ġha ng
ĠP r
C ould
Ġr ad
. 'čĊ
Ġwor th
Ġl ist
Ġweek s
enc y
Ġsh ort
Ġex c
ĠD id
s ing
Ġbu y
ver n
ar i
iss ion
Ġp ack
Ġc reat
Ġbo x
Ġbuild ing
Ġsur pr
C he
Ġchild ren
Ġli ving
Ġro ad
en e
Ġc aught
Ġdest roy
id er
Ġrec ord
Ġd ark
o e
ant s
u ation
t hat
ho se
M an
Ġt y
u ri
Ġco ver
Ġo per
Ġph ot
Ġcon c
ĠCl ark
g es
Ġst o
k es
is ion
g ing
Ġpro per
r ic
" ?čĊ
" I
ve st
c o
Ġs ense
S p
ac es
P re
Ġsee m
g o
n ow
Ġcont act
Ġme ant
i ot
t en
Ġs ort
F irst
Ġ !čĊ
Ġun cle
ut ion
Ġdis app
Ġmess age
Ġneed ed
m p
B l
ea ve
F rom
Ġser ious
Ġ [
ĠU n
D r
ter s
Ġdire ct
f ic
N ice
i or
Ġro ck
b t
Ġb ank
Ġp ress
Sh ut
Ġsha ll
Ġchan ged
ill e
el t
â Ģ
1 00
id es
- s
Ġacc ident
Ġplay ing
S ha
ra p
ort h
Ġmur der
Ġin d
] čĊ
S omething
Ġcomm and
c ed
Ġpr ison
Ġmeet ing
Ġresp ect
Ġquest ions
Every one
g y
Ġwork s
Ġs un
if ied
ĠM ichael
Ġb ur
ff ect
E n
Ġlear n
ter n
Ġso l
ĠA m
le y
ĠP ro
Ġso ld
ul ar
Ġdanger ous
Ġv al
Ġf il
Ġall ow
uth or
oo f
P er
Ġm il
ĠW ill
Ġw he
ou l
Ġword s
Ġp ar
Ġmiss ing
S c
Ġbud dy
C har
ur ing
C on
Ġus ing
1 9
r at
Ġm a
Ġfor m
ic h
Ġsome where
Ġknow n
Ġris k
Ġany where
Ġb all
Ġg iving
Ġp ur
S ure
y er
A b
Ġwat ching
j oy
Ġd rop
et h
Ġb ird
c hes
Ġf ear
Ġ z
idd le
Some one
Ġf ault
We lcome
Who a
Ġg entle
Ġon es
- f
Ġfe et
Ġc ertain
air s
Ġg ift
re ad
f ully
ĠB en
C all
Ġsl ow
Ġlong er
Ġst eal
Ġth row
a ur
Ġwork ed
Ġpro ject
U m
ort un
z e
Ġsurv ive
Ġfav or
Ġor d
ha ps
Sh ow
Ġt arget
ĠS ir
Ġmar ry
Ġsu per
Ġar rest
H er
Ġk ept
Ġt en
ĠM an
e ed
Ġc ode
und red
Ġha ir
ĠSt op
Ġsee ing
Pe ople
Ġbl ow
n el
Ġany body
Ġstra ight
it or
in y
am ed
Ġim ag
T hose
Ġne ar
ill y
Ġen em
ĠHe llo
Ġd ress
um e
re ct
Ġr an
ĠCh rist
Ġar ri
Ġbeg in
Ġl ying
-l aw
A T
ess ion
ĠE x
V ery
l ock
Ġm od
it ing
Ġhand le
Ġany way
g ent
Ġst ate
Ġst ick
Br other
Ġcare ful
ment s
g an
ĠH i
Ġc ook
ol ute
Ġpiec e
Ġd ro
Ġde l
oo per
Ġu m
Ġk iss
Ġqu iet
Ġsupp ort
Ġac cept
Ġpro gram
ation al
Ġt akes
Ġcon nect
- t
es us
Ġde m
ff ee
Ġth reat
L L
Ġmo v
- d
Ġs ell
What ever
? "čĊ
b ed
Ġar t
Ġc ross
ĠR ight
ff ic
rou p
Ġl ady
ound s
ub lic
Ġcar ry
Ġthank s
Ġc ry
om ing
Ġwor ried
ĠChar lie
Ġwere n
Ġan g
ow ers
ar on
W as
Ġweap on
R un
Ġf elt
Ġw edding
k ing
ure d
n ie
Ġh or
I T
Ġturn ed
Ġin vest
Ġlove d
P l
b ut
Ġbirth day
2 00
er c
Ġg row
o ver
M ake
ous and
re c
Ġm ach
Ġadd ress
ug g
Ġv ict
Ġev idence
ĠG u
O N
- m
Ġ $
Ġf iles
Ġgo ld
Ġc ent
\ \
Ġbel ong
M ay
o int
at ure
Ġd eep
Act ually
Ġh undred
Ġdin ner
ĠO ne
Ġgo vern
Ġd ance
Ġb urn
Ġfin ish
Ġpe ace
Ġse at
A r
Ġresp ons
al i
G reat
o f
G r
Ġc e
ke y
Ġt reat
v iously
w ork
N ever
A h
Ġh oney
Ġfin ally
ha l
ist s
Ġsecond s
Ġsm art
Ġad v
Ġa v
Ġpos ition
ear s
Ġsp end
Ġb orn
Ġperson al
ĠD e
Ġre f
Ġsm ell
w hat
Ġn orm
Ġk ick
ou n
Ġm is
ag er
E N
Ġc amp
C ause
Ġh ide
Ġfl ight
in ite
Ġt re
Ġrem ain
or ies
ĠThank s
Ġl au
Ġd ate
Ġ ..
us ed
ĠW ait
ac y
Ġh op
IN G
k en
No body
Ġtr uck
Ġsing le
Ġkill ing
a ven
Ġh ost
Ġvill age
Ġth ousand
v iew
Ġm us
Ġcon d
olute ly
Ġwe ird
i us
Ġsto pped
Ġcomp ut
Ġluck y
Ġkid ding
az ing
Ġan im
Ġc ost
ut y
Ġd are
Ġpict ure
Ġ .čĊ
ect ive
Ġle vel
ĠT o
m it
Ġfore ver
H mm
Ġcon v
Ġ ed
Ġd ude
ul es
Ġo pp
ap a
ĠC he
Ġco ffee
Ġdr ug
Ġh ist
t t
ir m
ter day
Ġbro ke
ad ies
E S
Ġmiss ed
Ġter ri
1 1
Ġw ake
ĠR o
Ġjo in
Ġto t
Ġd am
Ġac ross
Look s
Ġcont in
c ause
Ġwe lcome
ut s
ag ed
r ay
Ġv o
p a
Ġid ent
B ye
L eave
Ġm outh
Ġsu it
med iate
ĠA s
ĠT om
Ġmiss ion
ĠS ing
Ġt ick
Ġsha re
ĠC aptain
Ġdec ided
Ġm ain
Ġapp ro
oss ible
Ġb ri
Ġf ield
Ġr id
Ġst ar
Ġb ase
Ġsign al
Ġb at
k s
Ġdou bt
Ġf air
D amn
ĠS e
Ġim mediate
e or
if y
Th ree
ate ly
Ġsit uation
ĠE ng
Ġpre p
Ġj ump
b it
res ident
ic es
ĠK ing
er ve
Ġf ill
Ġno body
Th ink
Ġto r
ĠT r
ĠO r
Ġb ott
Ġwe ar
Ġs qu
pp er
Ġstand ing
Ġm iddle
g u
T ry
ac hed
ĠThe n
Ġgovern ment
ĠM e
Ġse lect
ic an
Ġwith in
Ġt ech
Ġwh ite
Ġlook ed
av y
On ce
inite ly
Ġl ab
Ġpri v
qu e
l ight
Ġe lect
at ur
Ġsound s
Ġs itting
Ġr ide
Ġpap er
4 0
Ġfl oor
og n
Ġthink s
Ġp ost
c um
ce ll
âĻ «
ĠY OU
r on
Ġcour t
rou d
Ġare a
l in
Ġst ri
Rem ember
ount ain
el f
at a
il i
m ing
Did n
Ġa ut
Ġinst ead
Ġhon or
Ġ ..čĊ
l ine
Ġbra in
Ġf ish
r al
ri es
Ġesc ape
Ġin f
Ġbu ilt
Ġre ach
od ay
l ish
Ġcl ot
h ow
Ġ ow
Ġeng ine
Ġc at
Ġacc ess
Ġplan et
Ġmur de
ad es
Ġis s
Ġb le
Ġc ir
Ġre ce
Ġinv ol
Ġcr ash
W atch
re ate
ar n
i ally
A S
ĠS ay
Ġar m
Ġcomput er
ĠTH E
Ġon to
Ġcop s
O R
Ġhas n
Ġpres ent
Ġsear ch
Ġc alm
ĠT ake
Ġacc ount
Ġfollow ing
our ce
ĠS orry
Ġsu gg
Ġsugg est
Ġsu spect
Ġdiffe rence
er v
F ind
ul ations
Ġf ing
un e
i ant
Ġc old
s ed
he l
Ġeven ing
Ġe le
Ġsp ace
Ġbus y
n ight
Ġwor se
Ġang ry
in ation
Ġap olog
Ġcall s
Ġgl ad
Ġ er
Ġen joy
Ġsim ple
Ġp leas
ur ry
ail s
Sh ould
Ġe ight
ou d
ond s
Ġoff er
Ġhist ory
oc ke
Ġs oul
Ġ ir
a ld
Ġgentle men
Ġ Qu
Ġcr ime
Ġte ac
Ġde v
T om
Every body
Ġst reet
ĠHe re
Ġgun s
P r
Ġmem ory
it ary
Ġm iles
ĠW h
ĠA lex
t op
Ġsw ear
id ge
Ġapp rec
t le
an i
Ġp roud
Ġdif fic
F ine
ong rat
k ed
Ġter ror
Ġt ight
om p
Ġe as
ĠG ive
Ġlock ed
Ġid iot
ang u
g n
Ġam azing
omm and
Ġab s
Ġtra vel
ove red
f et
Ġcor rect
Ġbe ar
ĠE very
Ġ Q
el s
Ġbro ken
Ġmag ic
j a
Ġl im
Ġm ot
Ġe qu
ĠT ell
Ġpro p
Ġal right
Ġa ge
C le
Ġcur rent
Ġvict im
att le
N ew
Ġra in
Ġb re
Ġbo ard
Ġe arly
Ġwom en
Ġse ven
Ġin n
Ġde li
Ġc as
ent ly
Ġh ung
Ġar my
Ġfor ward
c ious
ĠM on
B ack
j ust
ac ed
M ar
Ġrec ogn
c ri
ho l
Ġb as
Ġp ath
Ġcomplete ly
i ver
t s
ĠW hen
Ġcl ub
o v
Ġp ark
Ġp op
Ġl ow
ir ty
' Cause
Ġbe ha
ĠE m
ĠM iss
Ġex am
g ency
ĠO n
Ġvis it
ĠY ork
Ġc ard
Ġj ud
re m
app y
it ive
Ġord ers
Ġtalk ed
Ġp aid
Ġhon est
Ġr ather
Ġch ick
D E
ĠMr s
Ġb ill
Ġdra w
Ġr u
Ġ ice
Ġbut ton
Ġcomm un
' .čĊ
ĠA b
Ġg roup
ĠM art
Ġy a
w ise
a ff
Ġrem ove
Ġyes terday
O M
Ġsp ent
Ġgen er
H uh
Ġp al
Ġmat ch
Ġstr ange
s es
Ġr ing
u k
Ġimp ossible
Ġe vent
Ġheart s
Ġhot el
Ġrad io
Ġne ck
Ġte xt
Ġmach ine
Ġvo ice
Ġimmediate ly
Ġte ach
b or
o ly
Ġp ublic
ĠL e
Ġnum bers
ĠP resident
ĠR am
Ġv an
it ness
Ġforg ive
S on
Ġs al
n i
. "
J ohn
ĠS ar
Ġs at
M ichael
Ġcl osed
e ge
Ġpat ient
Ġnorm al
Ġpl ug
Ġbl ock
Ġclot hes
Ġt ree
ur y
k y
T urn
ore d
ĠF l
Ġkid na
m ission
B I
i am
ro ll
Ġc ow
ho le
Ġv i
Ġex ist
Ġst uck
Ġlo ad
Ġro ll
Al right
end ed
Ġforg ot
Che ck
Ab out
Ġdi am
Ġquick ly
Ġfe ed
e ve
har d
Gu ys
b ye
Ġdiffic ult
Ġo cc
Ġm ention
Ġdes ign
am b
** **
Ġenem y
K ill
Ġoffic er
Ġclos er
u el
Ã ©
Ġl a
Ġv ide
ĠInd ia
Ġinn oc
r ange
Ġr ace
Ġc ust
ho st
g th
Ġmov ie
Is n
av id
ib ility
ĠFr ank
ĠO f
A pp
z z
Ġe mer
Ġd ying
Ġinvest ig
Ġdo ll
Ġs ong
Ġfight ing
Ġrequ est
Ġn amed
- up
Ġpro cess
Ġs elf
e er
1 3
f or
ĠR aj
S ave
a im
y le
Ġwr ite
Ġbl ue
Ġcam era
c her
Ġr ules
" .čĊ
arl ing
Ġpro ve
at ic
b all
Ġh un
Ġs ad
Ġch oose
Ġd ig
" The
Ġs ometimes
Ġwe ak
Ġwe aring
Ġc ash
ent y
ĠS ee
ra b
in cess
Ġty pe
Ġs ea
i ans
o on
T ime
f riend
al a
oo p
Ġchar ge
S ince
C aptain
v al
ĠB ell
Ġag ree
Ġloc ation
ĠM ay
in i
Ġm aster
Ġlau gh
ĠC ol
I C
Ġst ole
Ġs har
T oday
it er
2 4
g ue
ĠL ex
Ġe arth
Ġcont ain
Ġag ent
Ġdream s
du ct
Ġpr ay
Ġgra b
Ġse x
p ar
W h
et t
Ġfor ce
Ġw ood
pt y
hy s
pl ay
he art
Ġkill er
ĠE l
Ġj ail
Ġbe ach
Ġsu mm
u nder
m es
ĠM ove
ĠR ed
op y
S it
Ġs il
Ġo k
ick s
Ġsu c
' ?čĊ
ĠE arth
Ġwho a
Ġatt ention
S am
ĠS m
Ġrem ind
Ġbl ind
O ver
Ġr out
Ġreal ize
Ġimp ress
Ġg ang
Ġh iding
Ġcr im
Ġl ar
Ġres c
1 6
Ġkey s
ĠCl aire
Ġlisten ing
g round
Ġdec ision
ro g
ĠB ob
Ġwalk ing
Ġser vice
Ġmus ic
Ġsupp ose
Ġsc ene
Ġext ra
Ġt ur
s et
Ġgu est
ĠNot hing
vel op
Ġp ot
Ġm ir
ir lf
irlf riend
T H
u ge
o om
ĠK ate
aw yer
om pl
en eral
Ġf ur
Ġrel ations
res h
Ġhead ing
at son
Ġl ay
ict or
na ble
Br ing
Ġf re
Ġu r
Ġinterest ed
Ġhelp ing
Ġprom ised
Ġp un
Ġh ole
Ġlove s
Ġcoll ege
aj or
ru pt
ĠG ot
ond on
Ġdef initely
ĠC on
R E
ic ul
Be fore
Ġimag ine
- p
Ġbreat h
I S
Ġact iv
Ġd iv
ĠA ny
Ġb other
c ha
Ġgl ass
l s
st airs
l an
es e
Ġhur ry
end ing
ĠR uss
.. ..
ĠD el
Ġwhe ther
Ġapprec iate
r is
ĠyÃ¶ ur
ess or
Ġsw ord
ber t
ar m
Ġf ac
ra v
Ġcl ient
Ġe ffect
itt ed
han ge
- w
Ġhold ing
l et
oc us
Ġs ac
ad d
ĠS im
O ut
Ġb ath
Ġbec ame
Ġ X
Ġ /
Ġp en
Sha ll
t hen
-h mm
Ġn one
o x
D e
p or
Ġcl im
Ġo h
Ġpro v
F r
Ġinnoc ent
Ġpo or
L ast
pl oy
Ġm ate
ver t
ongrat ulations
ĠS y
C ha
Per haps
2 5
ĠD an
Ġs ight
Ġn ames
Ġli ed
sh it
Ġdri ving
Ġev il
an j
em pt
Ġproblem s
ire s
Ġj ung
h il
Ġbull et
ĠT V
Ġrece ive
bo ard
at s
Ġt able
ar ter
in ary
Ġsp eed
m b
Ġfigure d
Ġc rew
Ġth ird
Ġow e
Ġa ff
Ġvi ol
S m
ĠT e
angu age
D ude
Ġdisc uss
Ġg irlfriend
Ġcar s
Ġve hic
Ġhung ry
w ill
k a
ĠD ev
ĠH ar
Ġevery where
er o
Ġun c
Ġt ired
Ġvide o
Ġjung le
s er
I A
M a
ter y
M ore
ĠE n
ic ated
lo ad
ĠSh ut
Ġput ting
Ġsurpr ise
ĠL ondon
Ġn ine
ce an
S ec
Ne xt
Ġsho p
o ff
end s
u ke
Ġhelp ed
d om
ol ice
Ġv ir
er ry
v ious
g ar
Ġf aster
Ġtem ple
Ġf reak
Ġdiam onds
Ġp ush
Ġth r
O ther
Ġre se
Ġp sy
ea red
Ġj ack
le br
Ġst e
ar b
f ort
dd en
S er
S ometimes
Ġper form
Ġsp ot
ren ch
Ġd uring
Ġc ause
h ood
ar ch
ĠM in
as hed
Ġgu ard
m ond
ri ff
is hing
c he
al ent
ĠL uc
Ġfor t
M iss
ĠK han
ĠM a
Ġsu dden
a ith
Ġsk y
v i
Ġcoll ect
ain t
Ġweap ons
Ġg reen
Ġw itness
Ġan t
Ġf at
pl ace
In st
ĠH old
Some body
ic ate
r an
st ood
g ress
Ġblood y
u pp
f r
ell ig
Ġm ap
Ġfeel s
ĠF BI
il ing
5 00
Ġor gan
Ġri ver
arl ier
Ġw aste
it ions
Ġfur ther
m in
Ġn orth
D is
ar a
Ġfail ed
Ġt un
Ġpass ed
c l
Ġt ea
Ġsc rew
Ġd uty
art y
Ġdec ide
1 8
Ġa uthor
Ġsleep ing
ĠAmer ican
ĠP e
ĠM ike
Ġpull ed
Se lect
Ġdestroy ed
in ct
Ġcomm on
Ġit self
Ġli ked
g est
Ġmed ic
k n
Ġl t
og er
ĠP ri
Ġlead er
ĠM c
! "čĊ
n ers
u ild
Ġso ft
ic ed
Ġj our
Ġmil itary
Ġup on
al f
itt en
es p
Ġtot ally
Ġsu ff
Ġinvol ved
Ġce lebr
Ġrel ax
Ġc reate
ot ion
Tr ust
Ġs ite
t ime
ri e
Ġterri ble
k top
Ġbig ger
pp ie
fet y
ĠM or
F ather
Ġh y
Ġdri ver
int s
os h
Ġse par
ĠEng lish
Ġs we
ĠM aybe
Ġm ut
Ġm ountain
Ġtech n
v an
lo e
Ġne cess
Ġfin ished
Ġcou n
Ġc aptain
ld er
Ġst orm
ra g
ĠC ity
... "čĊ
ĠU h
Ġpl ant
Ġd ata
en ed
Ġcl aim
Ġpr act
ĠH ave
re g
ren gth
L ove
A L
B et
Ġor ig
Ġhe al
c er
Ġg ate
Ġfing er
Ġem pty
Ġkeep ing
ce ed
ec k
- What
Ġnot e
Ġlive d
ĠB ye
Ġpr ice
U p
om es
J esus
Ġdra g
and a
ĠK eep
Ġgive s
Ġsk in
ĠS er
er gy
ill s
ip e
Ġallow ed
Ġlo sing
Ġsm ile
Ġwill ing
Ġboy friend
ven ge
Ġpick ed
For get
Ġatt empt
r am
Ġsp ir
Ġmove d
Ġjo ke
c ent
Ġy ell
ru ct
ĠL ocke
Ġass ist
y al
ur ch
Cl ark
Ġmo on
âĢ ĵ
id s
Ġemer gency
U se
H urry
Ã¶ u
Ġv ac
With out
Ġgo dd
Ġ _
it ude
Ġs ize
ĠF ather
ir a
ev in
Ġ "čĊ
Ġc ast
Ġar ms
Ġapp lic
Ġphot o
.. "čĊ
v ille
Ġe ating
M other
Ġv iew
Ġmed ical
ĠD es
al y
Ġr ich
Ġhad n
Ġs ens
es ome
Un cle
A dd
pt ions
p ose
ĠSay id
Ġstart ing
s c
S w
, "
Ġst at
M mm
er m
O W
g en
Ġway s
Ġcon vers
Ġcop y
Ġc ave
Ġteac her
d o
if f
Ġfin al
Ġun less
Ġkn ock
1 4
om as
Ġcom b
Ġdr unk
u per
Ġcol or
em ent
Ġap artment
Ġli kes
and s
T e
Ġo bs
Ġb uck
im ent
Ġem b
Ġex cept
idd en
ge ant
ĠS ure
ĠL ana
Ġf aith
Ġc ab
. S
Ġre b
Ġfil m
ib ly
ĠW atson
om an
ive s
Ġour selves
g ain
t han
ic ide
Ġsu ck
is ing
Ġproper ty
Ġst ore
ĠL isten
ord ing
Ġk it
ĠN e
Ġpart ner
Ġbra ve
Ġpo ison
Ġplan ning
Ġab ove
ĠP eter
Ġl unch
Ġs ake
Ġleave s
ie l
es ides
Ġst rength
Ġre pe
f ather
Ġf it
d a
E l
L e
E d
Ġcr ack
Ġm ask
Ġl anguage
Ġpriv ate
Ġtrans fer
Ġthem selves
o id
Ġsa fety
Ġex ec
ic y
en n
ĠJ ames
Ġsp l
y n
Ġwonder ful
Ġrespons ible
Ġkeep s
Ġtow ards
on ed
Ġhop ing
Ġchan ges
ĠM iles
Ġres ult
Ġdad dy
ĠM ad
anc es
Ġshow ed
ĠDad dy
D ev
f ace
Ġ ]čĊ
ĠBr it
Ġe arlier
Ġpl ans
o ad
ri f
as c
Ġb attle
ĠB ecause
u ed
Rem ove
Ġcond ition
Ġl adies
Ġu nd
l ow
Ġt aught
re r
Ġact ion
ĠR s
ĠS ome
Ġne igh
Ġinterest ing
is es
F ive
c an
r ing
ĠC ooper
Ġsw im
olog y
Ġpol it
Ġf ake
w ord
w ell
p han
Ġh uge
I m
ĠA t
Ġmurde red
Ġhead ed
ĠAmer ica
Ġt ab
E m
au l
Ġd arling
Ġp an
Ġdo ors
H as
j i
R el
ard en
du ce
ĠChar les
... .čĊ
ĠGr and
Ġopp ortun
M m
Ġf ate
Ġen c
Ġth ief
C opy
Ġup set
Ġex cuse
- You
ge l
ol mes
Ġlet ter
Ġarri ved
E asy
Any way
H appy
" You
en ry
s en
ĠQ ue
bs olutely
l u
un ny
ĠH arry
ay s
Ġfavor ite
C ont
Ġh unt
u ro
Ġte le
no on
Ġread ing
Ġsho ck
Ġkn ife
Ġsc ream
Ġint ro
1 7
Ġw ound
Ġb en
Ġlear ned
he t
al c
ah ul
b ing
Ġcra p
Ġo ption
Ġap art
Ġsn ow
ol en
Ġb ab
H ang
in ing
Ġesc ap
ĠA h
Ġcreat ed
Ġrelations hip
f ast
Ġsu sp
Ġs ource
St ill
Ġtor t
Ġv ol
ĠP at
Ġbegin ning
Ġcor ner
Ġcon st
O k
H oney
t his
r ate
hi k
ear ch
Ġde velop
Ġtw ice
Ġtri p
ĠT O
Ġfollow ed
ĠA aron
St art
is m
Ġwor st
ĠP ar
g in
Ġt ough
Ġs outh
Ġ ]
ĠP l
Ġim m
Ġcons ider
Ġsa ving
Ġbelieve d
it es
iv al
Ġh ig
Ġterror ist
Ġpower ful
Ġfly ing
D el
Ġact ing
Ġ ill
Ġre act
Ġf resh
Ġvehic le
Ġre ached
Ġpl aces
Ġp owers
Ġinst all
Ġg host
N A
y ond
Ġbe ll
- ha
Ġval ue
Ġinc l
Ġwood s
Ġst olen
ĠE d
Ġdep artment
Ġc up
Ġc hat
ĠA ir
ĠL ike
Ġp il
Ġe ar
ĠEx cuse
Ġbe yond
Dad dy
Ġam b
Ġfell ow
Ġcontin ue
Ġansw ers
Ġne g
Ġr ule
ast ic
Ġp hys
Ġair port
Ġlove ly
Ġ &
ĠRe ally
Ġgot ten
Ġb ast
Ġn atur
Ġpress ure
f ortun
Ġb ought
ons ense
Ġpain ting
Ġof ten
Re ady
as ed
Ġno se
Ġexper ience
Any thing
a a
Ġh i
ĠSha w
Ġspeak ing
C K
ail ed
Ġhar m
ĠO ver
uck er
Ġanim als
x y
Ġsm oke
om ed
ens ion
c hen
ur ley
att oo
Ġw ild
Ġam ong
Ġan n
Ġde vice
Ġaw are
ĠJ enny
ĠW alt
Ġsp ades
Ġd en
ĠBl ack
Ġbath room
ol ution
f essor
ic ense
b ack
Ġf reed
Ġins ane
- A
od ies
Ġra ise
Ġbl ess
Ġha ll
ail able
ĠB ab
Ġl ord
Ġpleas ure
Ġc ute
Ġc iv
al ter
Ġg as
Ġend s
ĠG reat
Ġsweet heart
c ho
Ġset ting
T alk
g re
ĠG eor
' S
Ġ ~
Ġnecess ary
Ġb ug
Ġw ast
or ing
Ġar range
Char lie
ĠM ax
W ant
ha i
Ġint ellig
as hing
Ġdes erve
Ġdes cri
Ġwr itten
Ġinter view
Ġp us
Ġdo cum
6 0
Ġcust om
Ġd ue
Ġp ock
Ġstay ing
. A
Ġinter n
Ġgodd amn
Ġsha d
Ġp iss
H a
Ġe gg
fe rence
ic hard
Ġreal ized
Ġf ocus
Ġpart ic
Ġtun nel
Ġknow ing
Ġso c
An other
v a
ĠC arl
Ġbet ray
Ġsuc cess
Ġli ft
M ost
Ġli es
ĠA d
Ġen ergy
ak er
Ġsp are
Ġopportun ity
Does n
Ġrese arch
ĠDel hi
Ġdest iny
Ġrecogn ize
ĠR a
in o
Ġsw itch
Ġtell s
Ġpr incess
ĠMart in
et ective
ĠM ark
En ough
Ġdro pped
Re ally
O w
Ġr oof
B aby
Ġass hole
Ġbreat he
ĠF red
ĠH is
ve y
ac hel
Ġhell o
ll en
P apa
Ġwr ote
ĠBr other
- y
Ġdou ble
Ġplay ed
U nder
Ġb unch
k i
ĠHe lp
Ġafter noon
ĠS w
G H
The ir
c y
ri ll
Ġsho es
Ġwe ight
P ull
e es
Ġp red
ec ially
re l
ĠJ ake
im p
T oo
spect or
Ġmark et
Ġal i
Gr and
og an
r ish
Ġsurpr ised
Ġshoot ing
Ġcont ract
ott en
Ġm or
Ġhear ing
Ġpur pose
ĠW ith
Ġb are
icul ous
ĠA gent
Ġloc al
Ġpr oof
E LL
ĠM s
end er
Ġbook s
Ġopen ed
Are n
ĠC han
¦ čĊ
âĢ ¦čĊ
Ġad vice
Ġcap t
re me
Ġ ign
Ġsh irt
ĠC ar
Ġm id
arent ly
Ġhead s
Ġqu it
Ġconvers ation
ho d
Ġhor se
Ġc red
Ġlet ting
Ġdet ails
Ġapp ear
Ġh ol
kn own
ĠQue en
Ġb odies
Ġcam er
ĠJ o
Ġbull shit
Ġcl ock
Ġst ars
Ġattack ed
ho ot
As k
E D
Ġlo ss
C ongratulations
Ġent er
on a
Ġphot og
Ġsc are
led ge
Ġexpl os
k er
Ġabs olutely
Ġsp oke
ul ation
Ġus ually
ĠD avid
Ġhe avy
her lock
ict ion
A lex
Ġfall ing
Cl ose
Ġble ed
Ġfeel ings
Ġour s
Ġo dd
Ġf an
ind ow
C H
re y
l or
Ġconnect ion
Ġcrim inal
ĠM od
Ġser iously
Ġsend ing
Ġt our
Ġn u
ic o
Ġtri gg
ĠM other
ĠJ oe
A w
i pp
Ġdisapp ear
u ly
Ġrout e
Ġse ver
Ġser v
St and
i pped
Ġdoll ars
i ers
y an
Ġt ax
Ġnot iced
Ġman ager
Ġs and
Ġn on
Ġtrain ing
Ġs am
Ġiss ue
d own
er r
Ġag reed
Ġwho se
ĠSing h
C ol
Ġg ames
ĠM ur
Ġh ired
ent ial
Ġt attoo
Ġlaw yer
Ġwar m
it z
ĠR ay
Ġc au
M ax
S ame
re ck
Ġper mission
Ġstart s
F ollow
Ġclub s
Ġf le
S ing
ĠT wo
Ġfind ing
fe red
Ġwar ri
old er
anc y
Ġselect ed
I nd
ĠS ec
T hing
ra ph
el ay
Ġsec ure
Ġbreak fast
or a
ĠJ ul
Ġbre aking
ĠJ esus
ĠBrit ish
ĠM et
Ġmon ster
ac hing
Ġc ro
ak h
Ġtick et
Ġconf irm
ag g
At t
Ġcheck ed
Ġqu een
E T
S y
Ġha ck
Ġr ound
M ike
Ġf ed
us ion
Ġit em
ĠC IA
Ġbl ame
S weet
Ġjud ge
p ect
w are
Ġbrother s
age ment
Ġun it
Ġbird s
Ġspir it
as ure
r ation
Ġser ve
oll y
one l
Ġresc ue
Ġd umb
Ġdrug s
ines e
ug o
Ġd irty
Ġa ffect
Ġl oose
ĠV ictor
ĠJ im
S im
F our
ee z
Ġra ised
U S
ĠM aj
Ġdeli ver
Ġwond ering
e ven
Ġtr ick
Ġanim al
ro e
Ġ' čĊ
Ġbr idge
Ġdis play
Ġwar ning
Ġne ither
Ġsp read
ord er
are n
Ġrem ote
z en
Al ways
Any one
ĠB ack
b ook
Ġin j
Ġn ur
Ġup stairs
O O
g ive
Ġas ide
Ġcom fort
Ġob ject
Ġrun s
cell ent
Ġc ock
Ġte eth
Ġem ploy
Ġhat ch
en g
ar ant
Ġpre gn
ve ill
Ġfix ed
elay ud
ĠR en
Ġkit chen
im ate
um my
Ġ est
u f
iz ing
Ġin fect
Ġn ature
ĠR ob
Ġbel ow
Ġpict ures
Ġf ol
reet ings
Ġfire d
Ġpap a
Ġrid iculous
Ġlo g
Ġset tle
l ott
v ir
Ġav ailable
Ġhe ld
Ġd ry
ĠL ove
ĠM aster
om in
al ed
Ġre v
ad am
ik a
Ġt ail
ĠN ik
id ay
ad a
u x
ĠF uck
Ġo cean
Cl aire
ha ry
oun ce
ac le
ĠC ent
Ġorig inal
ĠF rench
Ġsu icide
F in
Ġim age
Ġd ies
Ġjust ice
We re
Ġd ial
P ick
Pro bably
ĠA na
Ġpap ers
V E
ru ction
Ġclear ly
Ġtra p
gg ing
; čĊ
Ġstri ke
B AR
H oly
et ic
Ġpri est
Ġun i
Ġwalk ed
ĠS awyer
elayud ham
Ġgreat est
Ġmatter s
z a
enc es
gg ed
g a
Ġt aste
oc ol
ret ty
l ies
ict ed
Ġapolog ize
Ġchar ac
Ġarrest ed
- No
ak ed
k o
-b ye
Ġp et
Ġgen ius
ul f
ĠM m
g al
Ġoper ation
Ġcamer as
Ġh idden
Ġpre fer
Ġse es
Ġbe er
en a
ĠSt ay
Ġmet ers
Ġob viously
Ġchick en
ĠM ac
the y
Ġoffic ial
ĠH olmes
Ġsever al
Ġwh om
ĠE r
ĠC ont
and u
Ġsear ching
Tom orrow
... !čĊ
m ark
- to
cle ar
i um
Ġunder stood
Un less
ress ed
w ith
Ġlight s
c us
Ġst ories
Ġtr ad
Ġf und
Ġ- -
Ġcry ing
Ġn et
an ny
a f
ĠF ine
Ġturn s
ag n
Ġbring ing
C are
is hes
Ġmad am
Ġass ume
Ġdog s
z ing
Ġfore st
Ġper haps
IT T
ĠH uh
n on
ect ion
ĠP apa
Ġass ign
Ġm ass
Ġsecret s
il ed
Ġr at
Ġl ed
Ġn onsense
Ġnow here
W he
ĠW ar
Gu ess
Ġtrigg er
Ġl icense
Ġsc ient
ĠE ll
un ior
ĠG eneral
he m
ur t
G l
n s
Ġreceive d
ĠC ommand
Cle ar
Ġpack age
B oy
K ate
Ġbott le
S end
Ġwall s
Ġinc red
Ġsurvive d
Ġvir us
Ġsub ject
Ġcha llen
Ġbat tery
Ġl oud
Ġrec ently
Con f
Ġst aring
O oh
Ġd anc
ĠA ust
Ġdisapp eared
lott e
il s
fr ica
Ġrespons ibility
ap t
Ġad mit
Ġm ix
Ġfreed om
ĠCh loe
Ġescap ed
R ed
He ad
Ġ ide
ĠK at
Ġc ous
Ġdrink ing
Ġdirect ory
Ġbott om
Ġbig gest
à· Ĭ
Ġbast ard
un ty
h h
Ġking dom
Ġter m
us ing
p es
iz ation
ub b
Ġstr anger
j ay
ĠT ed
ĠP ut
Ġche m
Ġs na
Ġext reme
Ġexc ited
ic ious
Ġgrand pa
Ġeas ily
S ar
Ġam ount
ĠK ent
Ġpil ot
Ġfam ous
Ġnatur al
Ġher self
Ġinc ident
d on
Ġn or
ad in
S ounds
est y
Ġp ants
Ġstud y
L ong
um an
Ġsc hed
ĠS un
Ġ' %
A aron
ect or
uri ous
u it
Ġa unt
Ġfam ili
Ġtra pped
Ġaw esome
w ar
and er
ĠC all
Ġvictim s
er man
ĠS outh
as m
Ġhun ting
l ike
Ġsome how
U ntil
ir ing
Ġpre c
Ġc art
Ġjour ney
Ġm erc
Ġsc reen
T w
L A
S earch
Ġt all
Ġch urch
Ġpro gress
Ġdirect ly
ĠW ay
Ġmil k
as ons
Ġpres ident
a ik
" He
lic op
ĠMin ister
p ly
ra w
B en
B el
Ġsur veill
O T
h ouse
and y
D ear
Ġev ac
ĠJ e
Ġin de
D own
Ġre ve
ĠB o
ĠMon roe
I nt
ic ation
Ġsha me
ĠL au
Ġpiec es
Bet ter
ĠK DE
Ġapp ears
op s
L adies
Ġleg s
ĠK evin
Fr ank
Ġm ajor
ĠA pp
Ġsat ell
Ġt ank
av a
Ġthousand s
Ġbeaut y
ĠT y
Ġpregn ant
Ġhum ans
Ġsudden ly
een u
if orm
Ġrecord s
ĠA N
Ġsc ience
it ney
Ġpay ing
Ġeas ier
Ġshow s
Ġe ff
et ed
r it
Ġmem ories
Thing s
it le
arr ass
Ġst ock
L E
Ġper cent
ĠSt ates
w ood
our ces
Ġrem em
Ġtur ning
ire ct
or ld
Ġcomp an
Ġcha ir
B ab
Ġnot ice
it iz
B esides
pl es
Ġp age
ol is
Ġcha mp
Ġb ow
Ġlar ge
B ell
A mer
' all
Ġne arly
Ġc overed
Ġl ines
ig er
Ġ ver
Ġsold ier
Ġo p
e g
erv ous
Ġmean ing
Ġsp y
all ey
ĠH igh
Ġfind s
ru it
Ġstay ed
Ġfamili ar
R ad
Ġsh ift
ĠH enry
ack s
Ġdist ance
ĠInd ian
Ġc row
H igh
ĠRuss ian
C or
B oth
Ġpock et
ĠP h
Ġlo ver
Ġforg otten
pen s
al ity
Ġad m
ffic er
A M
ĠR on
i arty
Ġl s
R ec
Ġab and
Ġstr ugg
Ġsc an
A d
Ġprof ile
ĠM il
im um
Ġin it
A bsolutely
Ġsim ply
Ġpoint s
R aj
Ġbelong s
Ġhe licop
Ġfill ed
M ust
Ġst aff
ĠUn ited
f ord
i ance
Ġfl owers
Ġdist ur
Ġf ont
Ġn ervous
Ġcl ick
Ġ vers
Ġincl ud
um ber
Ġg ar
d ate
ra in
Mr s
p ed
Ġcomp et
b ar
Ġh ook
ĠWho a
Ġkidna pped
w ho
Ġresp ond
Ġprof ession
ĠV as
Rel ax
d en
ee ch
Ġun its
Ġcha in
us an
c a
Ġcap able
ĠPri ya
Ġemb arrass
Sp eak
ind a
Ġt ape
ĠW ow
er g
Ġenem ies
E A
Ġs le
Ġu nt
Ġfar m
Ġstat us
Ġapplic ation
ri an
Ġsumm er
uro pe
Y o
ĠW est
st ers
Ġeff ort
Ġpain t
C ommand
Ġb ust
F ire
v ior
ĠB ill
Ġbring s
ĠL uthor
Ġwhe el
ick y
ip s
ri ve
Ġciv il
M aster
it a
ĠS han
il ities
ĠC ole
Ġcomm it
Ġcas es
3 00
Ġbreat hing
Ġdes ert
Ġdam age
Ġconc er
Ġcous in
D rop
ĠC or
Ġout ta
Ġgr ad
Ġtrack ing
Ġprot ocol
Ġst ab
Ġa ud
Pl ay
Ġ ille
Ġs in
-y ear
Ġatt ract
Ġshow ing
U T
L ight
Ġbu ried
ĠB ig
2 3
ter ing
' T
Ġo il
ct ors
Ġfl at
ĠD NA
St ep
ĠM ill
ri b
f ucker
Ġmin ister
Ġmill ions
Ġmedic ine
Ġse ason
N one
R am
Ġem otion
Ex actly
T en
Ġe ars
E r
at han
be red
ant ic
m as
I R
Ġb and
ĠJ ac
I M
iet y
Ġan ger
ĠM ex
Ġstep s
Ġdire ction
Ġst yle
Ġgrand father
Ġconv ince
Ġhang ing
Ġst age
I D
iver se
p ut
Ġw ave
il ty
A cc
Ġm ile
ĠC oll
P ri
ed s
ou g
b oy
al ph
Ġm ob
Ġgr own
Ġbare ly
ĠSm all
ĠUn cle
Ġb orrow
or se
Ġbut t
Ġposs ibly
Ġown er
Ġwind ows
ĠSar ah
L ittle
Ġwall et
- B
B uild
Ġhe aven
M orning
Ġinc re
C ut
Ġto ol
Ġintellig ence
Ġ" %
O L
c han
Ġcompl icated
Ġcertain ly
Ġwho ever
C han
Ġtr uly
Ġprep ared
C ur
R oger
Ġth ro
row s
Ġc y
Ġw et
ĠCha ppie
Ġcare fully
b ur
. D
at hy
Ġtre es
He ll
Ġspec ific
J enny
Ġun iform
um ent
ant age
Ġble w
Ġcho se
j u
an et
Ġche st
Ġneigh bor
Ġplug ins
m ber
Ġs illy
Ġf ought
i od
m ar
Â ¶
ĠM E
ĠCha nd
Ġsurveill ance
rop olis
ĠO ut
edding ton
rom ise
ĠH unt
ec ial
Ġnu clear
ĠC ap
ĠB arry
C alm
aw n
pr ints
Ġsol ve
A ah
" Oh
P olice
ĠR ichard
rif ice
ĠW H
Whe ther
l a
r ant
Ġocc ur
id a
Ġconc ern
Ġhapp iness
Ġcare s
S ix
ra ft
ĠB ur
Who ever
Ġp ig
Ġknow ledge
n al
Ġexpect ed
ĠD or
ra h
ĠSt ep
Ġdet ective
Ġsee med
ĠC o
Ġshe ll
L ord
Ġe lder
Other wise
ĠP rem
Ġd ump
ul ate
Ġgu ards
Ġcred it
Ġtr ade
C ar
Ġt ie
l en
Ġhe at
li ver
ĠMom my
em o
ĠDo es
ĠSt eve
Ġinvestig ation
Ġconf used
Ġbri ll
Ġclos ing
oy d
Ġass oc
M on
F l
Ġf uel
ĠM al
Ġsur round
Good bye
Ġlot s
Ġdri ll
'm on
Ġin vent
ri k
Ġsp o
Ġfol ks
F ree
Ġre pl
E ither
Ġsh out
ap er
ĠW all
Ġfuck ed
M AN
ĠS anj
uck y
Ġpass port
Ġfull y
Ġdisapp oint
k in
all ow
Ġproper ly
Ġsac rifice
Ġnight s
Ġbuck s
d uc
ĠO w
L ife
Ġl ap
Ġhands ome
ast y
Ġbl ast
im eter
W ake
ĠS eenu
Ġb right
Ġdiv or
Ġlaugh ing
h in
Ġg iant
Ġconcer ned
ĠH er
Ġpull ing
Ġdef ense
Ġl akh
Ġfor ced
Ġcomm itted
op t
ĠG reg
Ġend ed
Ġrock s
u ct
Ġgood bye
Ġra re
ell y
Ġlo yal
ĠF ire
Ġch ief
Ġl at
ill ed
Say id
Ġconv inc
b el
Ġt alent
t ies
ud he
Ġhelicop ter
C o
Ġbleed ing
Ġwat ched
Ġl ink
L ock
Ġdress ed
Ġru ined
Ġmove s
ĠN ice
c on
v in
ĠI D
ition al
Ġav oid
ĠMaj esty
Ġm ood
ĠH urley
Ġexam ple
Ġdesign ed
Ġun s
ĠE than
Sh h
as ion
Ġt ear
et ch
ress ion
Ġthought s
Ġrob ot
Ġp ort
O b
Ġtalk s
Ġlike ly
ard on
Ġball s
ĠCh inese
Ġf aces
Ġb ike
ur ance
i ation
fortun ately
Ġident ity
ĠV elayudham
W ork
Ġrepe at
2 2
Ġdon t
S hoot
ig are
igare tt
9 0
a es
Ġex it
Ġpat tern
Ġla unch
Ġmark s
J o
A ut
il a
Ġbri ef
B ig
ĠF ar
int u
ĠR ad
umb ai
An j
Ġwarri or
ay lor
Ġal ert
T y
S ur
re nd
ic ans
ĠL ittle
Ġun iverse
ang ers
ĠSt reet
es h
Ġas leep
Ġcelebr ate
ha w
ĠA nt
Ġmurde rer
Ġer ror
Ġc ake
Ġre venge
ĠL iz
Ġsold iers
st on
ol n
ip ment
Ġbut ter
ad s
Ġr ush
Ġact ive
Ġhig her
ri ble
R I
Ġrel ative
Ġf em
Ġdire ctor
w ards
it ation
ag o
all i
Ġuse less
Ġcare er
Ġex act
F ile
i est
Ġs en
Ġor de
Ġcent er
Ġw ire
ĠO ur
Ġrest aur
mb ol
Ġ rom
Ġcarry ing
ĠMet ropolis
Ġsp eech
Ġreg ret
Ġmess ages
inc oln
Ġm ent
ĠO N
Ġon line
Ġp ool
Ġdist ract
ĠR ep
Ġyell ow
u be
Ġlead s
Ġt im
Ġh itting
Ġe p
W on
ut en
M s
c ol
Ġw ha
A Y
Ġreturn ed
` t
at ors
ĠJ ason
Th ough
Ġr ac
Ġsc r
Ġthe ory
ir med
AN D
ond er
Ġp ill
ĠP ark
E ver
Ġre lease
Ġdec k
Ġcompl ain
Pre m
Ġfac ility
any a
ĠT ime
e in
ĠI T
Ġv ault
he st
ĠN ight
ĠL eave
re ets
Ġreport s
ly n
Ġmem ber
se c
ĠR oy
ĠWh ite
o es
ĠTh omas
Ġb ite
Ġw his
O S
ĠFor ce
Ġpl enty
Ġpol icy
Ġc ards
Ġc itiz
ĠJ ane
ĠChrist mas
Ġassist ant
Ġmov ies
ess ed
ac on
ĠL ady
Ġdis k
Ġtra ffic
Ġtow er
her n
ur u
Ġb oo
. I
Ġapp oint
az e
ĠH ank
Ġdis p
Ġgr ade
Ġz ero
Ġequ ipment
ĠR ahul
Ġimp ro
Ġwar n
Ġbill ion
Ġcour age
Ġan c
Ġir on
Ġg ri
Ġopen ing
am m
Ġtick ets
xy gen
ĠW hich
Ġcheck ing
Ġpass word
am ing
ab led
P retty
Ġplan ned
Ġconnect ed
Inst all
Ġspl it
H it
Bl ood
Ġsp ell
Ġmir acle
Ġele v
Ġexper t
J ul
n es
eal ous
A D
ĠB E
" We
M ama
Ġco inc
s hi
l im
is co
R ep
er k
t here
Ġc ream
Ġf ant
Ġtra il
Ġclim b
het ic
Ġli ar
Ġd a
Ġwr iting
F eel
Ġben ef
Ġcur se
ĠM ary
Char les
Ġshow er
Ġr ange
Ġpart s
Ġe ast
s a
Ġgu ilty
Ġpick ing
Ġille gal
P D
qu er
Ġb i
dd ie
ord in
on ment
Ġlet s
ho p
- Yes
Ġsto pping
Ġoffic ers
Ġw est
Ġkick ed
Ġb an
Ġhurt s
ĠDo ctor
Ġh ug
Ġre asons
ha b
Ġst reets
ch ieve
Ġuse ful
ĠD oc
M ark
c ast
here d
Ġ #
Ġpal ace
Ġre nt
Ġshe l
th ough
Th ought
ol f
Ġtest s
J ake
al es
Ġfun ction
Ġbrill iant
Ġfall en
- old
Ġpr int
T onight
ĠPro fessor
- st
re ne
igh s
D ef
Ġar med
Ġaff ord
A gent
J oe
Ġreal ity
Ġintro duce
ĠSmall ville
i ya
Ġt ap
en ing
Ġtrain ed
Ġexpect ing
vir onment
Ġincred ible
Ġmem bers
Ġrob ber
Ġsweet ie
Ġtechn ology
Ġtot al
Ex cept
Ġter ms
Ġhigh ly
ĠWay ne
Ġf ulf
- a
am il
Ġpri or
ific ation
Ġpark ing
out s
r ong
ha nd
Ġj oy
ĠEm ily
Ġd ick
r ated
ĠS herlock
ĠM umbai
ĠI N
Ġcab in
ant a
ip le
ĠS ol
ĠW il
Ġent ered
Ġn uts
Ġdes k
ĠRo bert
Ġfl ash
Ġbe ating
Ġatt end
Ġent r
S et
ri er
ĠS und
ĠP al
- It
" My
Ġag re
Ġplug in
ac hes
ĠV ery
il ar
ĠBl ue
4 5
N orm
al se
ĠR em
Ġwhen ever
g ree
Ġm ail
Ġdes per
Ġthro at
E ach
4 2
K ab
Ġaut om
Ġth rew
ĠL ou
Ġfav our
Ġc igarett
ho ld
Ġass ass
Ġt ask
Ġweek end
aes ar
H ad
Ġp in
Ġyour selves
ob b
Ġt iny
ĠJ in
ud hary
Ġp ers
Ġgen eral
Ġe h
i ated
ĠC omm
Ġno ise
Ġby e
H ope
Ġs omet
ĠIn tern
Ġtem per
ĠC ass
Ġmention ed
ĠWill iam
Ġad opt
Ġsur face
ĠU S
Ġa chieve
Ġcharac ter
Ġorde red
Ġgar age
d ers
Ġcr ashed
is ions
Ġo ptions
Ġcont roll
Ġsa il
It s
Ġru in
Pre viously
ĠH mm
Ġadv antage
A ss
Ġm ic
ger y
E M
V ER
Ġde fe
ĠAn ge
ĠC al
er ial
Ġiss ues
ren ces
y Ã¶u
ĠS now
are t
Ġacc ompl
gre es
omed ay
g ly
Ġfun eral
Ġstrong er
G eneral
Ġcons ult
u ate
Ġag ents
Ġacc ording
Ġbag s
os c
Ġold er
Qu ick
ĠSc ott
ĠS uper
Ġprison er
y our
Ġgu arant
. C
u zz
Ġman aged
ok en
Ġcir cum
ink ing
Ġentire ly
ĠAn na
Ġsell ing
Ġcrow d
uten ant
" Let
Ġra ft
Do ctor
ul ed
Ġremem bered
ĠN orth
Ġmom ents
Ġdem on
Ġg rew
I d
Ġl ake
Ġpartic ular
Ġbe ast
Ġfor mer
Ġjob s
Ġsurv iv
Ġfl ood
Ġpos itive
ĠT w
Ġr ub
Ġm ult
ĠA frica
Ġt itle
Ġr ough
ĠW as
Ġless on
7 0
o oth
ĠEvery thing
- g
ĠH ouse
ĠO pen
Ġcoun ter
ab les
B ad
ul a
ĠM ars
Ġperson ally
Ġus er
Ġexc hange
Ġp ee
Ġback up
Ġsh r
ĠG reen
ĠR ome
ha s
ĠB et
Ġman age
Ġdel ay
Ġk il
Ġwar ned
Ġt ent
Ġbeha vior
2 1
ĠPar is
ĠG erman
I L
Ġre leas
ĠA ct
w hy
is a
ĠR eddington
Ġpret end
Ġl f
ĠH ugo
Ġdes er
ĠC y
ĠD am
ri pt
ang ed
Ġshad ow
ĠH arr
Ġtrust ed
Ġbur y
Ġbl ank
m are
ry an
Ġal arm
iec e
m other
Ġg arden
ar row
ce l
For give
or ter
ur ation
ĠBob by
Ġscrew ed
G reetings
us hed
Ġb ound
Ġsteal ing
Ġop in
Ser iously
s hip
Ġnet work
Ġfam il
Ġwait ed
20 1
ĠGeor ge
. ,
is ible
Ġsign ed
Ġg ear
OM E
R A
add i
art hik
Ġphotog raph
re k
Ġelect ric
Ġs ou
Ġde grees
ac he
S low
C omp
ĠP hil
Ġrestaur ant
ons cious
Ġsh own
ab eth
Ġass um
Ġdrink s
ĠSh it
Ġw id
ĠO ther
Ġshould er
b ug
Ġg uts
Ġremain s
Ġpun ish
Ġwas h
. m
Ġdet ail
an o
Ġconf irmed
Ġdr own
hi ld
Ġsc ar
ĠI S
Ġgra v
Ġkill s
F red
Ġdark ness
ĠL a
Ġfoot age
Ġt ears
Ġb al
Ġright s
Ġsatell ite
Ġfl o
c lock
Ġw ine
is c
ĠW atch
res ent
Ġ esp
Ġpract ice
ĠGo a
R es
Ġ ?čĊ
ĠD ay
w in
ill a
ĠD etective
Ġcast le
ĠAl right
m iss
Ġtrack s
Care ful
Ġstud ent
ĠF rom
Ġsn eak
See ms
d id
Ġpre vent
Ġfl ower
So on
ĠD ep
Ġst ood
Ġe arn
ĠT aylor
H on
f ield
ust ing
A gain
Ġprov ide
Ġdocum ent
Ġmon key
ĠO F
aught y
Ġre ward
ant ed
Ġed uc
Ġgod s
Ġser ved
P S
Ġw reck
Ġb order
P at
Ġpro duct
Ġrec omm
Ġser geant
Ġheal th
Ġwe ather
Ġgrand ma
u a
om s
Ġdo ctors
ĠM at
Ġsy n
Ġj u
ĠT ex
Ġkind a
Ġshot s
ĠR alph
Ġcomfort able
Ġsoon er
Ġv ote
Ġsm ok
Ġc ree
w hen
Ġt ag
a fe
g le
Ġg ain
Ġdet erm
Ġsha ke
Ġtort ure
ĠW alter
Ġtrans port
Ġfamil ies
ï ¬
ĠK een
Ġcir c
S ub
se y
entle men
ĠMor iarty
use um
Ġa st
Ġg ather
Ġo xygen
sp ir
ud es
at ab
th ur
ain e
Ġwast ing
in ting
ĠM mm
Ġr ate
Ġbec oming
Ġcircum st
anc ho
Ġme chan
Ġst one
T ill
Ġm ouse
if ty
Ġt ied
ĠW orld
Ġtrou b
ĠAn n
Mom my
ĠWh itney
Ġextreme ly
Ġother wise
Ġord inary
W hile
Ġt ong
R o
Ġmot or
g aret
j ack
Ġinter rupt
asm ine
Ġdanc ing
U s
Y et
Ġdem and
Ġdes ktop
ke ys
Sar ah
' ,
Y Ã¶u
' M
ĠSt ar
" Your
oo ps
S un
ĠC le
un ction
Ġp ir
Ġen s
ĠP olice
Ġdef end
ĠIs land
m ate
= =
K now
Ġpre cious
Ġhard ly
à¶ ±
it ches
iv a
- n
mm y
Ġcow ard
Ġmag n
an ish
in ter
ĠF iles
Ġa im
is hal
ĠR un
ove d
ĠM ake
Ġuni que
Ġpur s
pens ive
ĠC r
' I
. B
ar ies
B ea
ĠAr my
Ġj am
am in
E at
Ġob vious
at hi
M ind
Ġexec ut
ĠE aster
Ġfore ign
alt hy
ĠAN D
D avid
Ġj ew
Ġamb ul
C E
Ġfriends hip
Amer ica
c raft
ĠT er
ĠR ain
Ġmet al
Ġcan cer
ank s
Ġbull ets
Ġcoinc idence
oo ja
ge on
Al most
App arently
ĠAmer icans
' clock
Ġl iter
Ġmon itor
Ġst ret
Ġ )čĊ
Ġar ch
Ġsupp ly
ĠE ast
side red
Ġbel t
Ġali en
Ġcro res
Ġb ones
Ġhar der
Ġnight mare
Ġprop os
8 0
S ister
ick ed
Ġburn ed
Ġsl ave
ad em
um m
Ġcho sen
Ġnur se
Ġsol ution
Ġbec omes
D es
ar ush
Ġsc ore
Ġconvinc ed
Ġcr own
B oss
Ġmother fucker
Ġbeg an
ĠGr ace
Ġdev il
Ġbas ed
ri fic
Ġwhere ver
ER E
Ġd ome
Ġvis ion
Ġart ist
Ġr ot
Ch oose
Fuck ing
Ġmod el
ĠP re
Ġbomb s
Ġfuck in
Inst ead
c il
Ġli br
ĠF irst
Ġp air
Ġph ones
Ġor phan
Bel ieve
i ots
y m
Ġjo ined
N ame
ar ily
K itt
Ġcurrent ly
ĠChe ck
Ġresult s
et a
aj u
Ġperfect ly
ĠI m
Ġlo ser
Ġchan nel
Ġn ation
aik ant
Ġr ise
Ġpr ince
ĠFl ash
ur a
Ġbed room
Ġpass ing
Ġli ps
in als
Ġopin ion
he y
Ġsure ly
Ġinv ited
- ass
Sec urity
A nt
U nable
Ġbro ad
am ma
Ġrobber y
Ġmat erial
Ġprotect ion
ur s
Ġleg al
iz abeth
Ġchi p
Me et
. '
ac her
ĠL incoln
ĠV ik
ot hy
Ġc ooper
ĠT ony
Ġtou ched
ic on
Ġshar p
S uch
st it
Ġcr imes
Ġw oke
C oming
Ġgreat er
or ge
Ġun p
Ġh omes
ĠS omething
Ġv amp
form ation
ĠSim on
ha v
ĠS it
Ġcho pper
Ġg room
C hange
es ter
il et
ut ter
Ġstop s
ĠN ever
le v
ĠPr ince
Ġw ishes
Ġhundred s
Ġdial og
atur day
hol og
ĠE urope
ri g
Ġof fered
Ġgr id
ĠK night
Ġprep are
. E
ap an
im al
M in
our t
ĠTom my
ĠP aul
y lan
Ġar r
Ġc orn
ot ed
Ġal t
ĠSt ate
ĠCh ief
Ġst airs
ĠG en
ur ning
Ġins ist
ĠO k
Ġbur ning
P eter
c ase
Ġf older
Ġp unch
us es
Ġguest s
Ġ *
Ġsc ary
Ġyoung er
- T
Ġdes p
Ġfair y
ĠD uke
ĠBell a
Ġlakh s
Ġbab ies
} čĊ
Ġf ishing
ĠCha udhary
d amn
Ġmed al
` s
Ġlead ing
Ġcon sidered
Ġhor rible
Ġinst inct
Ġaband oned
r ict
Ġb one
R en
Ġimpress ed
Ġeng aged
G rab
Ġcust ody
Ġr up
n am
Ġs ession
Ġme al
Ġmis under
Ġcompet ition
Ġmy st
ĠH appy
z har
Ġspec ies
Ġsepar ate
hic ago
ĠSe an
Ġr um
Ġswe at
Ġv irt
ry pt
Sing ham
Ġprofession al
N ah
Ġpart ners
ph one
Ġengine er
Ġu gly
Ġmed ia
Ġu t
ate ful
ĠP et
ĠV eer
anc ed
M adam
Ġab ility
ĠR ey
ĠCommand er
Ġambul ance
Ġdec l
Ġphot os
ĠDes ktop
W alk
Ġmur ders
J ason
j o
ĠG and
P ass
ĠS el
Ġsign s
Ġexplos ion
ar ian
Ġur gent
E ng
Ġcomp lex
Ġmach ines
Ġass ure
Ġh o
ĠT ri
Ġact ions
Ġco ordin
d ney
Ġgrow ing
k ins
Ġex pensive
Ġtr ace
Ġcor rupt
bo x
Ġfing ers
I GH
Ġj ealous
ĠH a
ort ed
han t
ars ing
vers ity
l m
ĠC amp
Ġaw ake
t r
Ġchan ging
Ġdo zen
ĠD ec
ĠL y
ĠOn ly
Ġmo le
ĠH y
Ġm ort
Ġfl ag
Ġha bit
Ġjo king
Ġeng agement
Ġident ify
Ġp it
Ġsmell s
Ġtong ue
ĠI nt
ant ly
col ate
Ġf ro
Ġdeli very
A P
b ec
u able
Ġs ection
Ġr ow
Ġback ground
ab ad
stand ing
Ġco ast
Ġfoot ball
Ġm um
Ġp ub
Ġco at
os it
Ġload ed
irect ory
Ġshe riff
Bl ack
- Yeah
L oad
Who se
Ġtri al
ĠRe ady
at ar
m ail
ĠE v
Ġsee k
ott ed
Ġremove d
ĠTex as
ea u
Ġc age
Ġlo an
g s
Ġn aughty
ĠNo body
Ġpres ence
l oyd
im us
Ġreg ular
Ġl one
" l
W indow
Ġinclud ing
ĠChrist ian
Ġl ower
B o
os es
Ġlet ters
sp ecially
atab ase
Ġhur ting
Ġf alse
ĠM ama
ĠS har
ĠS ur
ĠB y
iv id
M en
Ġ à¶
ĠG l
isten ce
he w
Ġsh y
ĠR oger
Kab addi
Ġdec isions
H ard
ro ad
Ġson s
Ġl ack
Ġgra ve
ĠN orm
Ġli qu
ount y
vent ure
Ġfall s
Ġcha sing
J ai
Ġdes ire
Ġtw ist
Ġcau sed
Ġchem ical
ĠB at
ĠF el
ru ce
C ons
F riend
ess age
Ġk itt
Ġun f
Ġhe ight
ay a
Ġdet ect
Ġcell s
b b
P h
im in
Ġpot ential
Y OU
G irl
t ell
Ġsystem s
ĠD un
Ġsp oken
Acc ording
Ġt ip
Ġc urious
ĠTh ree
ut a
Ġwin ter
Ġbr ide
Ġbad ly
Ġsur gery
ud y
Ġdec ent
Ġagre ement
ĠD om
St eve
Ġsing ing
Ġshe d
re nder
Ġhow ever
Ġstate ment
Ġmod ule
ompl ete
udhe era
Ġro le
Ġus ual
ĠGrand pa
S uper
ie utenant
Ġguess ing
ĠS on
p ass
an n
ĠL os
Ġs ed
Ġsuff er
Ġvers ion
ĠS al
Ġpro ced
om ach
C r
H ands
om en
ĠJohn ny
Ġarri ve
Ġbo ot
ĠChar lotte
ĠJac ob
Ġd ust
and om
am y
ĠL i
Th omas
-t ime
ag ers
pp y
ĠF is
Ġbelieve s
ĠD oug
Ġ ought
ĠH ind
Ġchan ces
ile y
L ana
G en
Ġcr it
Ġclean ing
Ġsoft ware
Ġst omach
Cha ppie
Ġf ruit
ure au
Ġpl at
ĠBr and
J ames
g ard
Ġentr ance
ag le
ĠWe lcome
Ġcle ared
Ġd ise
ĠPr ime
i pping
Ġatt itude
Ġide as
" ,
M iles
Ġc oc
Ġl amp
" And
ian a
re ll
Ġper imeter
ĠEng land
Ġshel ter
H ome
Ne ither
B ob
L ocke
ĠH on
Ġdeal ing
Ġinst ruct
S awyer
Ġg arb
Ġrel ig
Ġp upp
ĠC hen
B est
ĠL ab
ĠV er
Ġcircumst ances
re v
Ġfort une
V ictor
ĠS H
ĠT ur
Ġro pe
Ġpol ic
Ġat e
ac c
ea gue
Ġpl ate
Ġdec e
Ġmountain s
Ġmix ed
Ġreleas ed
ol t
Ġt iger
Ġb id
ist an
im ents
hat t
al p
a pped
itt i
Ġcreat ure
G entlemen
Ġen vironment
19 9
Ġchallen ge
Ġro yal
Ġlim it
e z
Ġde lic
ĠS en
Ġslow ly
Ġfem ale
Ġst ress
ĠV inc
ĠK ill
Ġp y
Ġj unk
ĠB ea
Ġre ject
Ġqu al
Ġins urance
Al so
ist ic
G eor
O ff
E v
Blood y
C ooper
c oming
L uc
Ġcent ury
Ġneg ot
ond ay
se qu
ick et
ĠAn j
Ġthreat ened
W alt
Ġb oring
s he
v able
Ġdro ve
Ġegg s
Ġtre asure
alent ine
H ar
Ġsh ield
ig uration
ĠGu ard
ĠS hi
Ġdrag on
p lease
v ision
ĠA ut
Ġconc ent
Ġwe b
Ġchar ges
ĠS et
1 20
ĠN ia
Ġm ax
Ġaw ful
M art
Ġappro ach
ct ic
ash ion
Ġesp ecially
R O
U N
Ġunder ground
R ob
ĠJ une
Ġsn ake
c ut
Ġm ale
Any body
Ġbra ins
m o
Ġsha pe
Ġhy p
ard a
Ġviol ence
Ġcor por
M ur
Ġsw ing
Ex cellent
2 6
ag ger
Ġmon sters
Wh oo
Ġ et
Ġsp in
Ġreg ist
Ġcrim inals
ol a
Ġconf ident
Ġsetting s
ĠAust ral
Ġim ages
Ġbu ying
K n
ain a
O ld
Ġtr unk
r ite
Ġdescri ption
ud d
Ġfact ory
Ġed ge
C atch
Ġpro ceed
Ġunder w
Ġmind s
Ġappoint ment
Ġp ink
Ġb unk
ire ctor
Ġhit s
ern ard
Ġdo in
Ġland s
ing u
Ġgo in
Ġfail ure
Ġn ational
Ġmyst ery
N or
Ġpan ic
Grand pa
ĠSp ecial
an iel
Ġjack et
Ġwat ers
Ġfl ow
Ġsoc iety
w w
Ġf right
Ġn aked
Ġres ources
ĠM and
Ġinde ed
Ġme at
Ġc ult
ind er
ĠW alk
Ġqu arter
Ġsurviv ors
Ġl aid
Ġdo c
Ġr it
Ġp ure
Ġcount ing
Ġlevel s
Ġtr icks
ass y
Cle an
Ġperform ance
Ġdisc overed
Qu iet
Ch rist
Ġtreat ed
on quer
ĠD a
Ġval uable
o very
Ġcan dy
ĠShan non
ag ine
Ġcond itions
Ġfed eral
ĠK ap
Ġth irst
Ġd awn
- se
M o
E specially
Ġitem s
ve re
el ia
Ġsil ent
Se ven
Ġlibr ary
Ġh ous
od es
ĠDe ath
ip ed
Ġdig ging
Ġphys ical
R et
Ġm ode
Ġcon ference
ag ue
Ġviol ent
id ering
ĠGr ay
Ġpsy cho
Ġc alc
Ġchild hood
du ction
En joy
Ġsuff ering
Ġdesper ate
onquer or
ĠShe riff
Ġcir cle
Ġto ilet
ĠB or
, "čĊ
c ing
ĠS T
Ġclass ified
Ġsu gar
ĠCent ral
Ġelev ator
, I
p ing
if er
ab ility
Ġret ire
L D
ĠB aby
- e
ĠAm anda
ĠAnge les
Ġbel oved
a ving
t own
as ha
à· ı
Ġint end
Ġwar rant
of ield
Ġp ounds
Ġper iod
Ġprotect ing
Ġpatient s
% s
d ess
ĠThe se
Pre p
ĠF air
ance l
Ġ âĢĵ
Ġjump ed
Ġguarant ee
H ail
Ġtreat ment
Ġc ore
Ġann ounce
W alter
ĠV an
ĠS uri
Ġactiv ated
ĠMex ico
un o
B ri
J e
Ġf irm
us ual
ell e
ĠCol onel
C arl
Ġnot es
ĠVas u
is f
Ġbe gging
ra zy
ard o
Ġsched ule
- and
D est
Ġw and
ol ved
. R
Ġgu ide
og rap
ĠDan iel
Ġmet hod
Ġche ek
R ay
Ġw ings
Ġs omeday
er lin
ĠT or
ag ing
Ġfre aking
yn am
Ġgarb age
k ar
ĠS aturday
Ġcha se
st orm
Ġcommun ity
Ġcra w
Ġfl u
ver se
Ġme lt
Ġscient ist
Ġche f
Ġdep ends
Ġblow ing
Ġcave s
ĠS usan
Ġact ual
Ġdef ault
Ġmir ror
- He
Ġm ama
Ġp iz
Ġcl ue
Ġfr ame
rav o
w ich
Ġsk ills
for ce
ce ler
ĠAn nie
Ġevent s
Ġdocum ents
Cur rent
Ġrequ ire
Ġkid ney
H aven
Un fortunately
Ġmain tain
_ BAR
ĠU m
Ġinfect ed
Fin ally
Ġthrow ing
tt p
Del ete
Ġd ed
ĠWell s
Se an
Ġwh ist
Could n
os aur
Ġgentle man
Ġsyn c
Ġu nable
A p
L au
Ġfor ces
ick ing
Ġent ry
R L
Ġdet on
Ġdown stairs
Ġad ult
Ġsl ight
Ġtrans l
Ġanc ient
ĠE ddie
Ġbetray ed
g un
at ically
Ġopp os
Ġbab e
g usting
ve ll
Ġeat en
Ġem p
Ġvol unt
Ġw ing
Ġsle pt
Ġup date
Ġac qu
ĠCont rol
Ġche at
ĠFr anc
Ob viously
Ġh ors
ĠR yan
Ġres ist
T er
ĠD ark
Ġthem e
ĠAnd rew
Ġpus hing
Ġthe rap
hank ar
ĠT urn
Ġnew sp
ĠGreg son
L ex
Ġrequ ired
Ġset t
Sec ond
Ġme re
C reate
ĠJ ay
ĠR ose
A in
R ahul
ore t
aw s
it ors
Ġn andu
Ġse w
ri ots
em on
Ġun known
Ġrec over
Ġmist akes
un z
2 7
Ġstay s
ĠAl adin
Ġsuc ceed
" ..
Ġbu ff
Ġpsy ch
Ġan aly
Ġr iding
Ġput s
Ġunderstand ing
ĠJul iet
M ight
" What
ĠP o
Ġm aid
Ġf ancy
Ġlaw s
ive red
ĠR iver
Ġleg end
Ġele phan
Ġlat est
E ight
e gr
Ġsm ooth
Ġsafe ly
Ġexper i
it i
ag on
Ġli fet
ian c
V eer
ĠP enny
Ġvill ain
Ġsou p
ri a
Ġevent ually
- th
Ġex ists
ip al
it ter
Ġinv ite
K DE
ord inary
Ġrec ent
D ead
f ire
Ġcon duct
ĠTH AT
Ġmet eor
Ġsim ilar
ĠMay a
ĠP er
Ġscream ing
Ġmid night
Ġint ention
Ġbal ance
ĠH anna
- That
I P
ĠH as
Ġcle ver
M ine
. T
ĠH E
b reak
ĠE ven
Ġliter ally
Ġserv ices
Ġarr anged
ene ath
P oor
Ġimpress ive
Ġw ide
Ġu lt
ain ed
OO D
C omm
Ġgr ateful
S ign
- one
Ġd er
ĠL A
Ġri g
sw er
Ġlate ly
Ġbase ment
ver ton
Ġcho colate
ĠW ood
ĠH ang
Ġed itor
od ed
Ġrob bed
Ġb ang
Ġansw ering
an ing
ĠB a
Ġde gree
Ġodd s
Ġal co
Ġex istence
Ġdise ase
le ad
c holog
Ġcross ed
Ġtou ching
ol ves
Ġsp ring
Ġwound ed
Ġp ages
ir y
ra q
Ġsurv ival
Tr ans
Ġassass in
Ġpiss ed
Ġc al
ha med
ĠC hicago
ĠW ould
Ġcl oud
ĠP op
el u
Ġf ra
om i
Ġprior ity
p se
as ing
ĠW id
ert ific
Ġim pl
Ġvac ation
Ġpr inc
Ġgood ness
ĠU nder
T ER
ĠAny thing
ĠVictor ia
9 9
r id
Ġexp ress
D etective
Ġcook ing
Ġactiv ity
Ġrup ees
st able
Ġplay er
Ġcomm ission
g ment
Ġaccept ed
Ġas hamed
Ġfl esh
gg sy
Ġblack mail
Sim on
Ġw ise
Ġas hes
Ġro ot
cept ion
-h uh
? "
Ġsu its
Ġoff ering
ĠAn gel
Un known
gy pt
Ġinj ured
Ġhelp s
ens ive
ieve s
Ġind ivid
av i
Ġperson nel
na i
Ġvis ual
Ġexper iment
ra k
art s
N OW
ĠH or
ĠA v
ĠAl ice
W ater
e b
ĠT al
Ġsa fer
ĠF ro
Dr ink
ar an
uri es
Ġselect ion
Ġpus hed
ĠJ ai
Ġbeat en
ĠE asy
Ġz one
\\ {
I mp
our ke
um s
ĠO b
Ġstand ard
. O
Ġsam ple
N ik
os a
Ġimp act
ĠG ar
ob al
Ġya ar
t ake
ĠL ane
ĠK rish
f all
ĠG ru
Ġland ing
Go ing
J im
Ġd irt
Ġth in
eng ers
ar ters
- We
ĠA tt
Ġhost age
4 00
H arry
Ġre view
Ġel op
enc ed
n is
ĠD har
act ive
on se
Ġtem por
z ed
Ġhe lm
ĠC omp
Al though
Ġpop ular
Y PD
ĠR el
Ġwin ning
AR S
Ġm er
Ne ed
ĠMod ule
ĠStep hen
Ġex erc
ĠF ish
Ġtr ash
est ival
ĠSy dney
ec il
Ġfre qu
Ġrec all
Ġfree zing
o ye
Ġhe althy
Ġteac hing
ĠH it
ĠF ive
Ġrev olution
6 4
D ep
Ġn est
Ġdel ivered
4 8
an ch
Ġin qu
ut ala
Ġinter rog
Che ers
ĠTed dy
ĠW indow
Conf igure
Ġrom antic
Ġyou th
Ġag ency
Ġneighbor hood
Â Ŀ
ha d
am i
Ġesc ort
Ġd im
Ġf ianc
Ġr andom
ĠIntern et
el ve
ĠApp le
Ġ .
Ġbr and
Ġdistur b
ĠSund ay
Ġf old
ĠF ile
ĠTe am
t or
Ġresc ued
M or
A LL
D or
in ja
ĠO liver
K E
ho e
Ġde bt
Ġsc en
ĠR achel
per or
ĠLou is
Ġc ure
Ġre place
our s
Ġdr ama
C over
Ġ !
Cl ass
Ġwin ner
Sw itch
Ġsoc ial
Ġac celer
Ġsister s
Ġcreat ures
Ġche ese
Ġre fer
ĠS an
or age
Ġso ber
ĠH urry
ep end
Ġrep resent
Ġjour nal
oc ation
" ...
Ġb eneath
Ġglass es
at in
ĠN ame
ad or
Ġst ations
ĠE nd
Ġsm ugg
P ar
he me
Ġs an
Ġcigarett e
ĠM onday
fe rences
Look ing
Ġsy mbol
Ġins ult
Ġcommun ication
Ġneigh b
ang o
ĠSec urity
n iss
i per
ic ons
ver age
ro ke
ig ning
iz van
Ġteam s
Ġgen etic
Under stand
Ġc ub
Ġan gel
Ġar g
ĠFr iday
How ever
Ġgr ass
Ġapp l
ĠJ aikant
Ġsupp lies
Ġsl ip
-f ive
V as
n u
Ġe ld
r as
Ġt rop
Ġr ude
Ġche ating
Ġob l
Ġhig hest
Ġocc asion
M any
Be ing
ĠM ach
Ġlone ly
I F
Ġevery day
W H
Ġun usual
Ġinstall ed
n ome
Ġask s
Ch loe
Ġbase ball
Ġign ore
Ġd om
ĠSh h
ĠLuc y
osc ow
3 5
v y
ĠW ashing
alk ing
ĠV ir
Ġsur render
ĠZ oe
ĠWashing ton
ut iful
Ġship s
aur a
Ġamong st
ĠH ome
Ġg ay
ĠS P
ĠB ang
Le ft
ÂĿ s
W ar
Ġ ,
Ġth ieves
Ġprotect ed
ĠJ ones
Ġid iots
Ġmob ile
Ġl am
Ġsl ap
ham p
ĠD amn
ĠEvery one
Ġweak ness
C y
Ġve get
Ġswim ming
in n
L ady
ik o
ve mber
act ion
M oney
im b
ĠA ss
ĠSt even
ĠM us
ĠD ef
ĠR ick
Ġextra ordinary
Ġsent ence
Ġmen u
ens ed
F ull
R on
s we
ĠR ourke
Ġcho ices
F le
Ġh ob
ĠSt ark
F ailed
K iss
K evin
T ra
it ched
ĠA c
Ġcontain s
A na
ĠS qu
ĠMar garet
Ġblock s
- sh
ard ing
ĠO fficer
ĠS E
ĠRo om
ĠSing ham
Ġrequest ed
Ġauthor ity
Ġt on
ĠCh ina
gg y
Ġd ive
erv ation
Ġmiss ile
Ġstud ents
ous ly
Ġpolit ic
Ġcons cious
Ġroad s
or ney
Tw enty
E ll
Pro gram
Ġli f
ate g
Ġvict ory
Ġsuspect s
Ġcitiz ens
M il
Ġin spector
Ġd atabase
A ye
Ġrel ated
Ġdin osaur
Ġsqu are
ĠAb out
Ġpiz za
" This
An na
Ġplant ed
Ġstr uct
Ġlap top
Ġref used
T ot
uck ing
Ġdep th
l ist
ic ations
ĠR oman
ĠN ic
ud ge
Ġl ad
ĠPe ople
Ġcommand er
Ġdivor ce
ĠK ITT
reat he
ock ing
l ers
Ġdo ck
Ġst ake
Ġse aled
o ard
Ġret urning
ett e
Ġhol es
Ġg ates
ĠM o
Ġwho re
Ġpray ers
Jul iet
Ġm useum
Ġc ities
Ġcomp rom
co ver
Ġmess ed
Ġemotion al
Ġaff air
Ġsurround ed
T S
w as
se e
ĠJ osh
Th row
Ġri f
B u
im ately
ĠMan ager
**** ****
Ġh mm
ud dy
Ġbr own
A c
ĠG al
r r
Ġp atch
al th
Ġlo b
Ġpass engers
- L
\\ \\{
ĠFis cher
ĠG ra
Ġh om
Ġgold en
i y
Ġab oard
ĠAnd y
Ġplay s
Ġattack s
Ġext ract
- of
re ya
Ġan ni
Get ting
ĠSc ofield
ĠLe vel
Ġauthor ities
Ġno ble
Ġdr one
Ġpolit ics
or i
om a
Ġri p
Gu y
ĠP ort
Ġlar gest
ug s
st one
Ġa unty
ĠN ick
ven ue
Ġdeal er
ac ing
ĠU p
L a
Ġpsy cholog
at o
Ġreve al
Ġcomb at
ap s
Ġs ides
Ġp ul
ĠD own
ĠL ake
Ġcon sequ
Ġapp ly
Ġexc iting
f l
Ġlo ving
Ġpr im
Ġgrav ity
S anj
ĠI raq
ru ption
ĠO cean
Pr int
Ġd ea
ul ting
Ġoper ating
Ġquiet ly
Ġhors es
Ġal tern
Ġinf lu
Ġsil ver
S aid
ĠE gypt
ĠSt ation
Ġoffic ially
- k
ot ions
i ac
Em ily
ĠLau da
K at
Ġsc ent
ĠSome one
15 0
ĠSer geant
z o
ĠC ould
akes h
s ir
Ġdr ones
Ġra b
Ġshort ly
ion a
ree ze
Ġlea k
Ġsqu ad
ĠN avy
Ġbeg un
bur g
Ġbenef it
ast ian
ĠJ apan
Ġneck l
Ġjew el
ur ai
ĠJ ed
When ever
Ġd ating
ul ated
Al adin
ĠPro ject
ĠPal mer
Ġcompan ion
7 5
Ġs ink
Ġsat isf
Ġ- čĊ
Ġse qu
r un
Ġhe ir
hi a
ĠTr ans
Ġeffect ive
Ġp ier
God damn
K ing
Ġpl ain
Im agine
Ġdefe at
ertific ate
at i
ues day
ĠChan g
ĠB illy
ech n
" Singham
Ġkind s
Be en
Ġcoll ap
ĠDes mond
ĠC alm
Ġlear ning
Ġtax i
- F
- How
ook ie
Ġtow ard
bel ie
ĠB ar
Ġresp onse
Ġsol ved
ĠHarr is
rev or
Ġpolic em
ud i
ies el
Ġk arthik
iv ity
Hon est
B ull
Ġto ast
ĠN ag
Ġstr angers
app ing
Ġswe ets
ĠA f
Ġpop ulation
Ġlifet ime
ha se
Ġd ynam
Ġp ump
ĠA p
ĠH ot
ĠE rik
à¶ Ń
Ġform al
O fficer
Ġfool ish
Ġtransfer red
ook s
Ġfont s
Ġtab let
E nd
ĠM ir
H alf
ĠK en
enn ifer
ubb orn
Ġw ra
Ġseat s
ĠRo han
Ġser ver
Ġear ned
Anj uta
U CK
Should n
Ġneg ative
Ġsp ort
Ġun n
P ush
Ġh id
Ġcl an
ĠDid n
K ITT
if th
Ġun ex
Re ad
Ġghost s
Ġassign ment
Ġoccur red
v ate
Ġw olf
h ra
ĠC as
ĠJ on
Ġlead ers
Ġmist aken
h ot
j amin
el and
ost er
Ġint ent
Ġsac rific
hi b
Ġb ars
R achel
d ed
ĠS il
Ġest ab
- the
Ġbel ie
Ġsm arter
Ġvis iting
Ġbl own
E nable
P ay
ĠB oy
P art
Try ing
ĠM ic
ra ise
Ġpre y
Ġent ertain
Ġpl aced
Ġsl ipped
Ġgrand mother
P romise
Ġf ever
Ġsa v
Ġapplic ations
Ġdisappoint ed
duc ed
Ġhous es
ĠA lp
r um
ĠN YPD
Ġpr ide
Ġche ap
Ġbas ically
Ġinv isible
b ecause
ĠM ajor
ĠF orm
ĠN ort
Ġsc ript
Ġcar ried
b i
b ound
Ġent ering
Ġcha p
Ġreact ion
ĠKap oor
et ry
ĠD ave
Ġmom my
Ġthr own
ĠChen nai
ĠR ock
ĠIs n
ĠSh ow
ĠRaj u
Cont rol
Ġterm inal
ĠS um
Ġd ent
Ġf rag
Ġp ills
K id
in ity
Ġhuman ity
Z oom
pl oye
vers ary
Ġstrugg le
ploye es
Z oe
ot a
ĠT ab
Ġcom in
Ġcar go
Ġfool s
H and
ĠG un
ĠR es
Ġeffect s
Ġg ut
Would n
ist ry
Ġant i
ĠC H
av al
a omi
Ġbo ots
Ġappro aching
ur al
ive d
Ġexpl an
ou ch
Ġn ut
Ġmy ster
Ġphotog rap
ĠHow ard
Ġstand s
Ġ( %
Ġdest ruction
iv ate
Ġun like
Ġb read
- S
r ad
Ġb ump
Ġass ault
he ro
Ġlim its
- off
Ġhome work
Ġden y
Ġsuccess ful
ĠG uru
Ġcl own
Ġpre vious
Ġapp arently
Ġser ies
L ea
i pl
ri ot
asc al
ĠMil verton
orn s
Ġgift s
Ġbeha lf
St upid
Can not
Ġdro pping
N ope
ust eau
ĠD iv
Ġsm iling
Ġpass ion
Prep are
ĠN arsing
Ġstr uck
Ġw ins
ĠD ar
ĠH ob
Ġbeg ins
pect ed
Ġoff ense
hi ps
mp athy
om fort
ho les
hol as
Ġb ask
P intu
Ġman ip
iz ard
AN K
ob y
Pri ya
Ġelop ed
E P
Y ep
iz es
Ġra il
Ġmost ly
Ġt ub
Ġl ion
Ġrep air
Ġhero es
Ġorgan ization
J ane
Ġposs ibility
au s
ĠS eth
Ġroom s
Ġpay ment
Ġtattoo s
C T
m ons
Ġb hai
ĠH all
lyn n
A A
Ġw ipe
ĠD irector
br ace
Ġref use
C ool
Ġf art
ĠAr thur
t e
Ġw ow
Ġcr is
Ġhost ile
Att ention
ĠM ed
Ġment al
Ġpo inting
ĠT uesday
in ner
ag ne
Ġland ed
ĠHigh ness
D ec
in er
ĠSh ould
ĠI ran
ĠT en
ĠD en
Ġtr oops
ĠM u
ĠRuss ians
- R
ĠA ryan
H urley
ak i
W onder
u ing
Ġm al
Ġn asty
Ġst eel
Ġup load
ink y
it o
ight s
arn es
Ġfant astic
G L
uff s
ĠEvery body
t i
in st
ĠD ick
ĠSt and
ha ra
Ġsu f
19 7
ĠRam ona
e at
u ce
el ess
alp ana
j ob
Ġhe ck
2 8
ĠS ch
F ort
it ate
en ger
ĠTr ust
Ġda ily
" A
ĠT ry
Ġsp otted
Ġprof essor
Ġ ï¬
ting s
S ource
Ġplan es
Ġcapt ured
Ġinstruct ions
J in
s m
Ġbl ade
zz le
Ġwha le
Ġsuf fered
g ative
Ġ ess
Ġb ail
Ġvac c
ĠO ff
ĠJust in
Ġind ust
it ol
or able
Ġne p
ĠK onqueror
Ġste ady
Ġfor b
Ġdec or
S il
ĠJ unior
Ġshout ing
erc y
Ġs orrow
Pro fessor
v is
Ġper f
ĠNik i
ir aju
- M
U R
Ġpat rol
G un
Ġf ilt
ad ay
ĠW ater
ick en
Ġtra vell
u ction
Ġbr ush
ĠB eck
Ġwalk s
% čĊ
it able
Ġher s
ĠP ooja
Ġex ha
Ġcomprom ised
Ġin sp
Qu ite
un ting
Ġpass es
Ġcons idering
Ġstud ying
Ġpleas ed
in ating
Ġpl us
ĠJ er
Ġhapp ily
Ġem otions
ha ve
Ġto y
ay er
as hes
Ġcan t
us ive
Ġcost s
Ġcost ume
Ġintern ational
Ġdeser ves
us p
ĠR ing
Ġval ues
Ġhop ed
Ġenjoy ing
ĠMur ph
at an
at ory
pe ed
u pl
I E
S upp
Ġst ubborn
Ġbreak s
ĠF ind
- on
Ġhun ter
uf act
J osh
D am
Ġt end
Ġhero in
ON E
ĠJe an
es tern
Ġre ck
belie vable
M em
Ġla un
F ar
on ent
Ġmess ing
Ġrecomm end
f ish
m i
rop ri
à· Ģ
Ġjud gment
Ġshar k
Ġcapt ure
ĠO ld
Ġproced ure
Ġh ire
as es
ust ed
ĠT el
Ġpack ed
ĠP ete
Ġpri ze
Ġpriv acy
Ġkidna p
ac ific
Ġro se
E than
ut ch
ĠJ en
Ġpun ished
Ġnep hew
ĠB rian
ĠK ore
Ġexplan ation
Ġall ows
ĠHe len
Ġr ounds
ĠGu y
a way
under storm
Ġoppos ite
7 7
= \\\\{
ugg al
ĠI rene
and ra
ĠCh urch
een a
ĠBr ing
Ġleg acy
Ġp ipe
Ġdis gusting
uss y
Ġhost ages
AS A
Ġmot ion
N O
ĠD O
Ġequ al
Ġfre ight
Ġman if
ĠE ric
ah l
ĠD ude
ree k
se ct
ĠPro gram
ĠSw an
K ind
r s
En ter
ĠMod i
Ġsomet ime
R ock
Ġsusp icious
Ġt ast
in us
Ġpret ending
f it
Ġv ar
az z
ĠEl izabeth
Ġex cellent
man n
ĠJ asmine
Ġcomb ination
p oint
Ġtrans mission
Ġmult iple
ony m
Ġb ait
Ġre verse
Ġbill s
Ġhy d
t in
ab e
Ġem ployees
Ġthreat ening
R a
Ġpat hetic
Ġreport ed
rag on
Ġcomp ass
leas ure
Ġoper ations
h ttp
Ġmove ment
f ile
um es
Ġsub way
Ġrequ ires
F aster
Ġa x
ĠL ib
ĠSha shi
Ġsepar ated
Ġtim ing
u ary
Ġ ==
Ġass et
ĠOther s
Ġsoul s
um n
ĠMill er
ĠD is
Ġadd ed
Ġgrand son
ĠBen n
ĠAustral ia
Ġcut ting
Ġadd ict
Ġz omb
Ġspo il
C hild
ĠN OT
Ġeng ines
ffic ient
Ġreact or
Geor ge
ĠWid more
C ass
Ġadv ance
Ġstret ch
Ġexerc ise
He avy
ĠL loyd
- E
Ġser ial
h ony
- W
Ġatt orney
à· ĥ
Ġgener ation
Ġm ath
Ġf etch
ĠA w
ĠSp ider
Sm all
b astian
Ġinform ed
Ġneckl ace
Ġm ug
Ġkn ees
us iness
Ġse al
Ġmust n
oun ter
Ġcorrect ed
Ġbre ach
ĠP ull
em p
Ġch ill
l ord
ec ess
ĠP an
ĠVinc ent
ĠAv atar
Ġhelm et
n ame
p ai
ĠA ye
ĠJ ose
Ġche er
Ġdifferent ly
Ġcons c
min ist
Ġwast ed
Grand ma
Ġme asure
Ġmed s
Ġtarget s
Ġrit ual
be y
Ġrec ru
ĠLuc ia
Ġpolit ical
N ia
Ġexp osed
Ġcreat ing
Ġstick s
Ġspend ing
ap ers
uc ed
Ġprop ose
Ġrecord ed
ee ze
Ġra id
ĠA my
rou ps
ĠSanj ay
Ã ±
Ã Ń
' And
Ġw a
Ġdown load
Ġsuper hero
S herlock
Ġb ond
all s
ag s
Ġhand ed
Ġfriend ly
Ġdis aster
g l
H unt
ĠK aren
Ġcow boy
Honest ly
Ġg reed
ad ed
ĠS ub
ĠM oscow
ĠN or
Ġpart icul
aut ion
Ġsex y
Gl ad
Ġpropos al
um a
Pro ject
Ġsword s
Ġp ow
ĠB ruce
ol i
IGH T
ut ation
ĠA jay
ĠP lan
Ġint egr
Ġg amb
Ġb att
est ion
d ad
Ġaccount s
gar h
Ġ Â¶
Ġcr ush
ĠPr incess
Ġserv ant
Ġhe s
Ġl ect
Ġfight s
Ġad venture
esc ri
Ġman ufact
Ġfr ust
Ġbeha ve
Ġocc up
Pr ot
ĠWH AT
Ġg est
at ures
ĠA S
Ġinvent ed
Ġliqu or
3 2
L i
ac les
ĠF ull
Ġstud ied
H anna
O H
p y
ĠC ong
Ġche que
Ġce rem
Ġwhist le
ha y
ĠC rew
ĠF our
Ġunder cover
oret to
ĠCl ub
Ġlight ning
Ġelect ion
) .čĊ
Ġf oc
Ġnear by
ĠRep ublic
Ġju ice
B ravo
F ound
ĠA ng
Ġhonest ly
ĠWhat ever
Ġte en
à· Ĵ
Ġche ss
Ġbl ond
Ġcomp ound
Ġcor pse
Ġfour th
ĠCap itol
Ġsit es
Ġscr atch
Ġalco hol
Ġn ig
ab ri
Ġhon our
Sy stem
H im
Ġclient s
Ġtra itor
Re g
m itted
Ġkn ee
ĠB omb
Ġus es
Ġgr ace
Ġroll ing
ĠG irl
is er
m osp
ĠK NOW
f rom
Ġor g
Ġrout ine
Ġconsequ ences
H enry
st op
os ing
L iz
m ates
Oh h
ĠSp ir
t hy
ĠM orning
Ġsp ons
Ġinter cept
S al
Ġany time
iz er
ĠAnj ali
i en
Ġt act
An swer
-ha nd
Ġdescri be
Ġrif le
9 11
ĠA bsolutely
ĠE ve
à¶ »
Ġinvol ve
Bell a
Ġf ence
ut her
Ġprison ers
Ġcoun cil
ĠB ay
Ġcon ce
Ġpr ints
ĠCl ass
omfort able
ic ing
res pect
Ġgo al
ĠK ey
Ġpur se
Ġmod ern
vent ion
Ġknock ed
k ind
ot y
ĠSt u
Ġunderw ear
Y a
he nd
Ġbr ows
Ġpart ies
Ġkiss ed
ĠMach iraju
i pper
Ġto ss
han ia
ĠSing hania
L ogan
Ġw itch
ha ll
ĠB ra
Ġrec on
M al
ĠO oh
ĠK arl
Ġdream ing
ĠColl ector
4 7
P ete
T A
d ia
Ġsen ior
er ation
Ġclos est
Boy s
ĠN emo
Ġbel ief
Ġper man
Ġche ated
Was n
Ġnorm ally
Ġgener ator
Ġmerc y
Bea utiful
D ri
Ġp uzz
ĠV iew
Ġcook ies
Ġhol iday
Ġhe n
Ġde b
ĠP intu
d ogan
Ġset s
ĠD ylan
am s
st ick
4 9
R est
Ġbeing s
Ġtw ins
C aesar
Ġ eter
ĠN ational
John ny
ĠBo one
m oon
ĠV alentine
H ot
w a
is hi
Ġf ox
or aj
ie ur
ons ieur
Ġbeat s
" Don
4 3
H ank
Ġinv itation
bug ger
Ġens ure
e very
w hile
Ġcan cell
all ed
uck les
Ġthreat s
Ġcas ino
ĠHy der
ĠAut ob
ĠB ernard
re p
ĠD eep
ĠF ore
Ġqu ant
Ġtw enty
Ġind epend
ĠM essage
ĠF OR
Yes terday
ĠFrank lin
Free ze
Ġth rill
ĠP ak
Ġeld ers
P o
et ers
ho re
ys is
Ġtele vision
Ġembarrass ed
Id iot
Ġb esides
ĠNe xt
Ġcha mber
Ġfac ing
Ġmyster ious
ĠP ercy
Cont act
Ġcom ment
oc ate
US T
Ġsha red
Ġassign ed
M akes
Ġcap ital
Ġsuck s
Ġg al
Ġpat ience
i at
ly mp
Ġmeant ime
Ġcontin ues
Ġinit ial
B reathe
Ġt ension
Ġact or
Ġsho re
Ġhat ed
Ġfell a
Ġfulf ill
g ues
en i
ĠS n
Per fect
o ja
Ġd omin
Ġf rog
ĠGo vern
' RE
Ġre ar
Ġmanif est
b ly
ĠA ah
ĠL aw
Ġpe an
Ġemploy ee
nome o
Ġw iped
Ġy ards
Ġf asc
Ġo gre
pl ain
Ġfix ing
Ġdevelop ed
een amma
B reak
ĠH im
ik es
ĠSh rek
L ost
ĠSt one
Ġatt ached
Ġde er
Ġret ired
Ġimag ination
ĠL isa
Ġsmok ing
ĠHe ll
ĠS hankar
F ight
ord s
Ġchar ged
Ġf ashion
N umber
ar is
Ġcomm erc
ĠCh itti
Ġsusp ended
as er
ost on
Ġar gue
ĠTh ink
un ning
M ary
ĠB arb
ĠBat man
Ġj et
if orn
ter ies
ĠA fter
Ġbo ar
-h oo
Ġarm or
Ġtravel ing
fortun ate
ĠCass ie
force ment
y ard
ĠJ ew
Ġcur sed
Ch ief
adem y
Ġfra ud
m aster
ri but
Ġan swe
Ġpur cha
Ġsumm it
TH E
Ġanswe red
ĠS ky
op h
Ġad just
Ġpassport s
Ġfoc used
Ġo ath
ĠJ an
ĠBur rows
p et
Ġmus cle
Ġfle et
" But
F all
as im
Ġspeak s
Ġrep orter
Ġkil omet
Ġo pt
ĠN az
mark s
ĠLove ly
Ġexec ute
ĠAt l
Ġcl ip
Ġp ie
enc ing
Ġgener ous
Ġcoordin ates
Ġbo om
Ġbox es
u als
Ġb on
ĠJack son
pr int
A ng
C ent
ĠI d
Ġcan cel
ĠM ind
ĠP ind
os ition
J ump
Ġcom a
ĠH ud
Ġun ite
Ġvis ited
Ġty pes
hik re
Ġrelative s
he lp
ĠM ore
Ġtrust ing
Re al
Sc an
Ġfro zen
M L
Ġall erg
our se
ĠB ri
Ġro gue
n ic
Ġw rap
ri al
Ġcon cept
ug ust
S l
Ġf estival
et y
Ġu na
ĠA T
ĠA arush
Ġring ing
ĠTe xt
ĠB erlin
ic le
Ġshar ing
Ġst orage
ab el
Tr ue
ĠLook s
( s
Ġsp r
- de
on ica
Ġf ans
Ġbe es
ĠN ash
rig inal
Ġab duct
Ġbroad cast
B ill
D rive
ĠB ank
ĠDep artment
ĠNo vember
Ġchar m
Ġbri be
N ine
Ġw ore
Ġcan did
ĠF ace
All ow
ĠU ng
Ġsk ull
Ġsol id
Ġm ud
ĠJ anet
ili ans
Ġsal es
Ġpred ict
Ġunn ecess
C razy
V ishal
Ġb ot
or ough
Ġsp ark
Ġdem ons
con om
Ġrab bit
S han
it ar
Ġbe ard
Ġautom atically
Ġbe e
ĠA zhar
Ġfl ies
Ġmat ches
the w
Ġbuild ings
C am
Ġy ard
ĠC aesar
Ġcon spir
ĠN ad
Ġtheir s
Ġele ment
Ġtunnel s
Girl s
O TH
U gh
Ġa irl
Ġinflu ence
8 15
at re
ĠT amil
ĠU RL
ĠDor othy
S E
ĠRay mond
hen t
if ying
re my
Ġf u
IC E
or ious
Ġconf idence
Ġshr ink
Ġfin anc
ĠK yle
S ol
Ġth read
ia h
IT H
ĠGu ys
Gr ace
Ġhoney moon
Ġjoin ing
M ed
uck s
Ġbr u
ĠHar old
ĠLiz zy
b ott
r ical
Ġl mmy
ĠAr m
Ġwhis per
E xt
W anna
n ik
ĠA g
ĠH ill
itt y
ber g
Ġposs ess
Ġrob ots
Ġimpro ve
m ir
en gth
Ġbe ars
ĠS hikre
ĠG ib
Ġpl astic
ĠEm peror
r ick
ĠC arly
ĠH oney
Sh ort
Ġapp le
ĠIn ter
Ġeffort s
Ġpunish ment
ĠL and
um ps
ock s
ign ed
Ġbur nt
ĠEn ough
Ed it
Ġincre ase
" if
Do c
Ġel imin
Ġwave s
O liver
z ard
Ġl it
Ġremain ing
Ġunc omfortable
ĠC are
Ġpark ed
ac ity
es ide
Ġbe ans
Ġconf usion
Ġme as
ĠDam u
s ion
Ġ ing
Ġsett led
it ect
ro c
M ill
ĠH ope
Mart in
Ġang le
Ġv ari
ĠCon nie
Ã ¨
ĠW ade
" When
P ort
Ġdr um
n old
lf red
Ġpl ot
Ġpre m
Ġtra ged
Ġstr ang
Ġcompl eted
J ac
Ġag gress
Ġph il
ift een
Ġcommun icate
ĠSet tings
V al
ĠN ina
-m ail
Ġpoison ed
Ġali ens
Ġtool s
M ad
ĠT em
od i
Ġqu ality
Ġun stable
Ġsk ill
b ot
Ġpl ants
ĠO ct
ĠShe p
Ġrep utation
Ġtechn ically
Ġdevelop ment
Ġintellig ent
Ġto oth
Ġcr uel
ĠU se
Ġreve aled
Ġpy ram
ĠT it
ist ics
I LL
ĠG roup
Ġstr ict
S T
Ġb ored
Ġf aint
ke ep
ĠRa o
Ġdis gu
Ġconf iguration
mer gency
ook ed
F unny
h us
Ġli ber
Ġfact s
res p
bo at
Ġarri val
Ġevac uate
Ġloyal ty
Ġs alt
Ġat mosp
Ġmis er
T arget
ess ler
Ġsc heme
Ġfinger prints
Ġsome place
Ġdown town
c les
Ġd ign
Ġp anc
ĠP ur
ĠO ptions
Ġprof it
Ġadv anced
Ġimpress ion
Bab lu
ĠHud son
" No
S P
en pai
pp ers
ell ing
Ġloc ate
ative s
ĠDhar ma
" For
it ching
Ġc re
ch id
ĠL ogan
ap i
Ġun fortunate
In ter
Ġcare d
Ġdraw n
Ġcerem ony
Ġof the
aught ers
ĠAll en
Ġreg ister
k now
ĠB har
Ġde ploy
She riff
Ġacc used
Ġrad iation
Ġterror ists
ĠRel ax
Ġarg ument
ĠHot el
Ġsur geon
Ġcontrol s
Ġclaim s
Ġmisunder standing
Ġfianc Ã©
p ower
ĠV arda
Ġtherap y
Ġend ing
pr ise
Ġself ish
ĠSer vice
Ġdep art
Ġn ap
erest ing
Ġarrange ment
Ġgo ons
iss a
Ġimag ined
Be hind
Ġofficial s
And rew
ak a
Ġund erest
Ġg roups
at hered
Ġdeterm ine
H m
M ag
ul u
Ġident ified
Ġcommerc ial
Ġt ale
ĠC ir
ĠW ind
Ġthreat en
Ġdivor ced
" It
l ished
Ġgu ilt
iforn ia
Ġt ies
Ġl oop
Ġha mm
mar ine
r ont
ĠT oo
ĠB arnes
ard ner
Ġbar gain
uk o
Ġcompan ies
ĠHyder abad
D one
le ment
ens ions
ĠRem ember
Ġtempor ary
P hil
Ġg ym
ir o
Ġsw allow
To gether
Ġlau nd
Ġsil ence
Ġtemper ature
As ia
Al ice
ĠUn i
Ġelectric ity
K ey
Ġr ack
T op
Ġplay ers
Ġlisten ed
Ġdri vers
ĠBen jamin
Ġsens itive
C ole
R esp
ĠD et
ĠSy nd
lev ant
Ġth ick
ab or
Ġshock ed
Ġf iring
Ġsay in
ig u
Ġthirst y
aur av
2 9
Ġun lock
N orth
Ġb ureau
y ers
Ġh oly
ne ath
Ġres ort
F ocus
S ound
Ġg e
ĠT ha
ist ent
ĠEll is
w ater
Ġto x
ĠS O
ĠD ragon
Th irty
Bl ue
ĠUng li
ak sh
d ies
and ini
Ġdes c
Ġty p
High light
Er ror
" L
" Come
L ucky
is her
Ġp a
Ġhe av
Ġwe ars
ĠC ast
ĠHe ad
Up date
ropri ate
D aniel
Ġl un
st ep
Ġme l
ĠH A
ĠR izvan
Ġrec overed
Ġdep osit
B illy
b ro
ĠD ear
ĠE ver
Ġown s
Ġkidna pping
ĠSm ith
Ġwas hed
Ġr ats
Ġcon ven
Ġpos itions
Ġinvestig ate
eg as
ĠRey es
N ick
Ġsho e
Ġsign ature
-h our
Ġterri f
ĠFl or
Ġunc onscious
Ġsand wich
Ġvamp ire
ĠS weet
Ġtow el
Say s
M od
Ġdep end
ĠSp anish
ĠEr dogan
- Oh
et ho
Ġrock et
Ġindivid ual
Ġcons um
Ġdest ro
Ġcustom er
Ã ¡
Ġr ings
ĠR akesh
Ġarch itect
int on
Ġair craft
re aking
Ġpro ved
e xt
m ake
Ġis ol
ĠA gn
Ġ- -čĊ
Ġunder neath
Ġdeath s
AN S
Col onel
Ġlock er
-c l
ĠJo an
Ġfilt hy
Ġd iss
ĠO l
Ġch oo
Ġdra gged
Ġtrack ed
Ġshad ows
Ġbelie ving
b l
d irectory
u ated
ri l
ave d
Ġ' ...
Ġpriv ile
Ġjewel ry
S A
Ġf are
Ġser ving
F air
P resident
ĠS u
Ġdri ves
Some where
ĠShi va
Ġpar ole
ĠMe hra
Ġann oy
ĠWil son
T ony
k ok
v ation
ĠM oon
Ġcha os
ĠIn spector
ĠMar cus
Ġdraw ing
ĠJed i
Ġparticul arly
L ieutenant
Ġe go
St ate
ĠRe g
Ġmot ive
ĠRen u
Lea ving
g ers
Ġworld s
Ġfle w
ur d
Ġas h
ĠJohn son
Ġsear ched
Ġer r
Ġassum ed
ĠHon or
Ġsho pping
abri el
ron ic
Ġhigh way
G reen
p hy
Ġint el
L ES
ĠT ower
Ġpir ate
ot ic
ĠM en
ĠC oop
od ka
ĠCha utala
T ed
W ay
Ġg all
ĠM oose
ĠD uggal
Ġr ice
Ġdist ress
Ġprep aring
Ġthr one
Chan ce
- sp
Ġh ill
ĠT oretto
Ġse vere
Ġdi ary
Ġtreat ing
Ġgrab bed
3 6
R ichard
ĠF og
Ġshould ers
Ġhalf way
E O
ing o
Ġn ail
ar med
ĠW ild
AN T
OM AN
Other s
Ġcancell ed
L ou
Ġcor ruption
OU LD
ĠCrew es
Ġfor th
ug u
Ġcompl iment
Ġremind s
. P
. ?čĊ
Ġf ifty
ist ol
aut as
Ġintern al
Ġdea f
u um
ar io
Ġconf ess
D eep
ĠL ong
hav garh
Ġappl ied
A uthor
Ġprec ise
Ġadopt ed
le ya
ĠB unny
az a
Ġlear nt
Ġcent ral
etho ven
ĠG ro
Ġsl apped
us hing
Ġchamp agne
Ġmax imum
Ġsh h
r ot
enc ies
Ġsha res
ĠWalk er
W atson
Ġstud ies
Ġassoc iate
ĠTer i
M aking
ĠV et
av or
Ġaw ait
Ġsomet hin
- Hey
d i
l ife
Ġt ensed
ĠC arter
ub a
Pre vious
C al
Ġd ish
ĠRon an
B ase
Ġg ig
ell er
Ġra p
Ġpost ed
Ġblock ed
Ġp ant
Ġh ood
ĠC D
Ġcoll eague
agg ins
ĠS and
ĠC am
ĠG e
Ġra pe
Ġadv ised
ĠSim mons
ĠSec ret
Ġelder man
Ġplat form
T old
ĠV egas
Ġtri es
à¶ ¸
Ġfil ed
Ġdelic ious
B arry
a fter
ĠT alk
ĠD ur
Ġeduc ation
orge ous
E h
Ġj erk
ab outs
Ġbr anch
Ġinterest s
Ġfle e
Ġconsc ience
D om
ĠK n
ĠAlex ander
ab ber
Ġhat es
Ġfin est
Ġmight y
Ġmag az
ĠP ol
_ _
Ġcontain ment
Ġmechan ic
Ġp ip
ĠC oming
ach in
Ġdis gr
Ġsub c
Ð µ
Ġorig in
ĠGerman y
T ook
Ġe ase
ma an
ĠHind i
P ack
Ġs em
ĠL u
Ġdist rict
Ġwith d
Ġab use
Ġsa le
ĠOw en
S leep
ĠD ate
Ġrad ar
Ġconfirm ation
Ġgri ef
Ġdecl ared
Ġanni versary
C R
on ly
Ġsent iment
Ġve st
go ing
Ġtalent ed
unz io
Ġstruct ure
=\\\\{ @
- D
ĠB as
ĠL ast
ĠChe ster
Ġenjoy ed
3 3
D ance
S ham
ĠN ar
Ġcl iff
unt s
eez us
Ġrepl aced
b al
as se
Ġv ul
Ġgr ay
Ġdeep er
Ġexist ed
ĠMex ican
Ġf ug
ĠS a
ĠC ourt
Ġtest ing
Ġtest ed
ĠN E
St ick
Ġpol ite
Ġc ertificate
ĠE N
ĠMar udheera
Ġfl are
Ġgl o
Ġsecret ary
st o
ĠLab s
ĠS l
ĠF in
ly ing
Ġcas ual
Ġdev ices
Ġre aching
Ġwr ist
ĠT ool
v o
Ġcol ors
gu ard
Ġretire ment
he ast
ĠL ight
ĠE OL
Ġform at
ĠRuss ia
B ro
r d
it als
ĠL ang
Where ver
âĻª čĊ
ĠGeor g
R yan
s or
om atic
Ġher d
Ġproper ties
AS E
Ġpath s
ĠFair y
F ore
P U
qu es
Ġloc ated
ugg age
Ġstar ving
ĠDan ny
ĠKat niss
Anj ali
ĠC ool
Ġshe ep
qu is
ĠF lynn
ĠD rive
Ġbl ows
Ġdam aged
Ġreb uild
Ġaud ience
.. 'čĊ
Ġin ch
ea ble
ĠA ri
Ġwor ries
um ble
Ġreal ise
Ġpain ful
Ġterri bly
r ack
ĠP ear
iv ated
Ġopen s
Ġgl ow
Ġpaper work
D ate
ĠH ard
ee m
ĠC opy
ell ow
ĠE agle
Ġref lect
M at
on er
war f
Ġcitiz en
g han
Ġdisc har
Ġbe acon
M ajor
ĠL inda
Ġb ind
ri eve
H E
Ġconf ession
up iter
vers ion
m ans
ĠH art
ian o
Ġlaw yers
Got ta
Ġtraged y
S now
b rew
ĠS ave
ĠB el
ĠSt ill
Ġcomp ared
j ah
Ġf ert
Ġwor thy
Ġv ital
ous se
Ġiss ued
Ġpleas ant
AL E
Add ress
w an
Ã ¼
at ched
ĠM Y
ĠA gain
Ġwant ing
Ġsp ect
Ġstr ate
IC K
Ġtrad itional
Ġs ari
Ġc odes
Ġj ury
ĠM ont
Ġrem ark
Ġstr ing
Ġposs ession
ĠCon f
Ġpupp y
Ġf ifth
ink s
Ġv alley
Ġbelong ed
ĠJul ia
Ġhob by
C OM
W rong
Ġl ength
Ġn erve
Ġbe aring
out hern
ĠV ic
Ġgl obal
Ġboat s
Ġfool ed
Ġfil ms
ĠEx actly
agg ie
Ġregist ered
H ugo
S ud
e per
Ġb ald
acc i
L Y
a ign
w on
ĠL ock
Ġintro duced
Ġconst ruction
Ġb eside
ĠCl ose
Ġconf igure
Ġshoot er
ĠF ox
Ġkid do
Ġrac ing
r icted
ou ille
ĠS C
19 8
Ġsam ples
i ary
Ġtort ured
Ġmass ive
ĠK al
cri pt
R ain
ĠF iona
Ġcho p
Ġcha sed
Ġexc l
Ġload ing
Luc y
at al
Ġwe alth
ant ha
Ġchi ps
al ian
ĠJ erry
ĠE mm
Ġint ense
V ari
am ily
form ed
Ġsmall er
-h m
ĠChe f
rib ution
ĠCal ifornia
D em
J on
Ġd aughters
Ġp up
ic ating
Ġclear ance
Ġdi pl
Ġcharac ters
Quick ly
i ates
n or
nd u
ĠB on
ĠP ot
ĠN ASA
Ġcompl aint
just ice
De ath
Ġassist ance
D ay
o ber
re al
Ġan al
os ity
qu est
Ġra ge
Ġrespond ing
rib ute
bec ca
- C
c om
Ġk ings
Ġad minist
Ġwond ered
Char lotte
Ġinf ilt
Ġengine ering
Ġvehic les
ĠUni versity
. L
Ġout fit
Ġwor n
ĠG usteau
Ġsm iles
Ġhum ili
Ġst ing
ĠM el
ĠB ase
Ġsha king
Ġinst it
Ġoper ate
Ġstri p
Ġwarri ors
Ġgo sh
Ġor ange
à· Ķ
Ġnewsp aper
T O
Ġcoc on
ĠG PS
ĠF ollow
Ġobs essed
Ġsal ary
Ġw olves
Pl us
Ġret reat
g ot
ĠC ecil
Ġall ey
stit ute
S outh
Ġm ister
ad o
Ġsp aces
ĠSt art
Ġapp eared
EN T
Ġide al
5 5
U GH
ĠS ame
Ġim per
ĠSt ig
Ġdr am
Ġfigure s
Ġam mo
Ġfield s
Ġmedic ation
Ġexplos ives
M ade
r ide
ed nes
Ġin ner
He ard
Ġacc ur
ES T
Cor rect
ednes day
Ġp orn
ĠA rab
ĠK y
ĠSar oja
Ġmor on
Ġth orough
ĠP ick
ĠN ation
ĠFr ance
Ġbell y
Ġwa ist
Ġstrate gy
h ul
Ġd ates
ĠS ix
ĠH ans
Ġsw itched
ĠCan ada
Ġdel ete
p arent
Ġb um
ĠS utter
ĠR at
be at
Ġcheck s
Ġden ied
ĠF ib
ĠF ountain
ĠO z
Ġdro ps
Ġdynam ite
Ġconspir acy
B at
Ġhe ist
ĠS ister
Ġprom otion
Ġvill ages
ĠMad havgarh
D uke
W oman
l ook
ap h
Ġunex pected
Ġcol ony
ĠB ook
imp y
Ġappro val
Ġarrange ments
Ġworth less
- out
Ġp our
all as
ĠBomb ay
Ġp eel
Ġsna p
" O
In f
Ġcy cle
Ġan onym
, we
E vent
ok i
ĠEr ica
2 50
Ġpro b
* čĊ
Ġm amm
Ġcan d
ant astic
Ġas p
el ine
ellig ence
Bo one
Friend s
ĠH orse
Ġhelp less
ĠSy stem
Ġl uggage
ĠJ ess
Ġmem or
Ġdamn ed
Ġpolicem an
D arling
k u
o z
Ġw is
Ġcl ar
Ġdis abled
-l ike
ĠEm b
Ġste pped
Ġpyram id
G onna
h u
Ġg reet
her it
ĠM ia
Ġsw eep
Ġcrit ical
hoe be
ĠL o
Ġgu itar
Ġkill ers
Ġsc ound
Ġcontact s
A unt
N ic
ĠI rish
ĠL ost
ĠR os
Ġass holes
Ġcooper ate
ĠK ick
Ġwhere abouts
Tom my
Ġant ib
Ġaffect ed
Ġbutt ons
Current ly
Ġrec overy
ĠTh or
ĠSynd icate
I ON
Ġa ce
ĠH o
ĠYOU R
Ġinfect ion
ĠF itz
-A ss
ĠG host
ĠF ed
Ġmet res
Ġbo ld
Ġfor s
Ġm aker
ĠN aina
OR E
Ġforgive ness
ĠK ings
Ġsign ific
Ġman kind
ĠK adam
S aw
un i
vert ed
M ir
ĠG rey
ĠFar aday
D eal
Ġst ones
ĠB oston
Ġcl in
erm inal
ĠMus lim
ĠF older
Ġmother s
olog ical
Ġdel ight
W rite
ĠG O
Ġexpl ore
oun ced
Ġir rit
Ġdesp ite
- man
g ood
Ġsh ine
Qu it
ĠSp eak
Ġris ing
Ġrecord ing
Ġfeed ing
Ġbother ing
err ard
Ġblank et
D ou
Ġp oll
ĠT ra
Ġpl ague
ĠK elly
Ġlock down
ĠCarl os
ĠNag ar
Ġlaund ry
- Come
g age
Ġ icon
Ġwork er
ĠY ep
Ġpat riots
rav ind
rend a
Ġconcent rate
A ir
d am
l ay
You ng
ĠT rent
Ġem brace
Ġexplain ed
ĠGand alf
F igure
ĠD EA
Ġrel ieve
Pro blem
Ġexper iments
Ġcris is
' You
C ompl
Ġpo etry
ĠBr ook
Sc ott
Ġstick ing
Ġclean ed
Int eresting
, what
oo s
g i
Ġ x
ib ilities
Ġlab or
'M alley
w ait
Ġw ounds
T aking
Ġattack ing
H olmes
ĠN ell
Ġfell as
ĠRon nie
- N
N ina
ĠS her
ĠD em
ĠG ame
Ġsong s
Kn ock
T ur
Ġb end
om ali
im an
um ents
Ġv ast
itt ee
Ġthrough out
Ġrel ief
Ġpersonal ity
h s
en ri
Ġe conom
Ġup d
ĠD ON
Ġpl ates
rog en
Ġphotograph s
b a
g ic
ac o
ĠS ea
end ar
ĠH ay
ĠZ oom
ĠBe ans
Per iod
ousse au
ĠG aj
Ġfr ank
Ġaut o
Ġexperi enced
Ġre ception
ĠA ugust
ĠH oly
ĠR iva
Re place
Ġbat teries
Ġinde x
ĠTy ler
Ġembarrass ing
Ġsequ ence
ĠShep hard
V ict
ing er
Ġe ager
Ġan x
ĠA li
Ġob st
Ro han
Ġrelig ion
Ġm r
ĠB ee
Ġag es
ud ing
Ġdi agn
Ġbless ed
ĠW AS
Ġact s
Ġbas ic
ĠRed dy
Ġreb els
ĠSome body
P ower
m ble
Ġen abled
In side
ĠV en
Im port
- mm
r m
Ġ vent
ĠW ant
Ġdis respect
w hich
ĠSim ran
Be at
A arush
ew is
Ġst amp
pt imus
Ġco ff
ird s
qu arters
An nie
ai ge
sh ot
Ġsupport ed
Ġce iling
Ġdign ity
Ġto ler
ic ia
Ġst ash
ĠS anta
Ġj unior
Ġr hy
In c
ĠV ishal
Ġclim bing
Ġdrag ons
Ġsubc onscious
Ġe vey
ĠL ine
ĠH aw
Ġprot oty
lic ation
Ġreport ing
Ġbur st
Ġnegot iate
N E
P erson
Ġth umb
Ġh orn
oy le
Ġexp ose
Ġfast est
Ġwhe els
Ġconsult ant
B urn
P ER
Ġb reed
Ġhelp ful
Ġatt ach
Ġan k
Ġj e
... '
ĠG errard
Ġsc rap
St e
Ġfl ed
Ġgr ant
ĠLe on
ĠEn nis
Sweet heart
ubb ish
Command er
Ġgrad uation
Ġdemon st
ĠAnn unzio
t wo
ans as
à¶± à·Ĭ
Ġacceler ator
" She
- oh
- what
C ount
Ġt asty
ĠB oth
Ġinter face
att ered
Ġbook ed
Ġapolog ies
ĠLuc a
Ġrepe ated
Ġaband on
Ġstrugg ling
Load ing
ograp hy
B as
Ġso ck
Ġaw k
Sure ly
- he
z er
Ġf its
et he
our age
Ġbit ches
Qu estion
Ġvacc ine
I VE
u z
Ġp ed
Ġre nder
ent ine
less ly
Ġrel ation
Ġbank s
W all
d in
er ves
Ġf ond
Ġsp it
Ġgr anted
olog ist
ĠD ou
Ġex pen
** čĊ
Ġd upl
ave s
rypt on
th rough
Ġgo lf
Ġincl ude
ĠMur phy
" ...čĊ
Ġg athered
Ġint ended
Ġim pr
Ġbl amed
iv ia
Ġra ising
Ġcau sing
v t
Ġs igning
Ġst ates
Ġpr ick
Ġstuff ed
Sha ke
Ġsac red
ĠBl u
Under stood
A frica
F ix
In it
Ġunderstand s
Ġcr ushed
Ġacc omp
Ġfight er
Ġpress ing
Wh itney
Ġperf ume
8 00
Ġa id
ic ity
Ġrisk s
Ġstab bed
Ġelephan t
B ec
X X
ĠI p
Ġen forcement
ush ka
ĠAutob ots
ĠEmb assy
D ist
S n
Ġf iance
Ġin spect
Ġso il
ĠE ye
ub o
Ġburn s
Ġspir its
J a
Ġn arrow
ry n
ĠN aomi
Ġpr ank
Ġbust ed
x imately
Ġs ke
ot ing
Ġout break
Ġtrans mit
ĠDoes n
or ra
od d
ud der
Ġsurpr ises
Ġaut og
ĠKrish na
ĠC ross
ĠP am
Ġbad ge
ertain ly
6 00
Ġall eg
Ġter rit
ĠSe ven
Ġterrit ory
ĠM id
Ġbomb ing
Ġconc l
- it
Ġforget ting
B ra
ĠT ina
ĠD allas
arant ine
T em
J unior
V iew
ĠV ar
ha ir
Ġquestion ing
escri ption
" and
t hi
Ġget tin
ĠNo ah
Ġchar ity
Ġscient ific
J anet
op en
ĠG ene
Ġno on
" Why
L ower
Ġd ull
ut es
ri ke
Ġcan ce
os op
Ġar rog
Ġsound ed
Ġsort s
Ġevac uation
D ER
o ak
ĠN ardo
Ġsched uled
Ġinsist ed
res a
av ig
Ġdiscuss ion
Ġpract ically
Ġfug itive
A C
f lies
Ġa verage
Ġa uction
ĠC hamp
ĠA unt
Ġsc re
Ġsign als
Ġclos et
Ġpress ed
Ġcorrect ly
hem at
usp icious
W OMAN
Ġf ee
am ani
Ġen han
Ġhun ger
Ha ving
ĠSel vi
Ġfreight er
( c
C ancel
a ah
l am
on acci
Ġhop es
Ġaffect ion
' !čĊ
B eck
on nect
Ġp enny
Ġcontroll er
m ist
Ġcollect ion
F ear
J une
R s
S ho
W ha
ac ter
Ġre hab
ĠS andy
Ġgl itch
Ġpar ad
Ġsuit able
ĠDev i
ĠPl ay
Ġworry ing
Ġcol umn
Ġvill agers
Ġsal ad
Aw esome
Ġcomp romise
ĠMar ine
Ġbask et
ĠW ol
Ġhold s
- you
Bri en
Ġunderest imate
ĠComm ission
Ġfright ened
op sy
ig an
ĠN O
Ġclaim ed
Ġfavour ite
et ing
Ġbe ep
ee red
ĠC at
Ġr ic
ĠL ing
Ġcross ing
Ġcat ching
Ġimm ort
S k
T echn
Ġst are
qu id
Ġcomp ete
Ġco ach
Res et
Ġlob by
J EM
ad ing
ust er
ĠTr acy
Ġmic ro
ĠBet ter
Ġprim ary
Ġmiser able
Ġwithd raw
Ġto ys
or r
ĠC ounty
ĠD oyle
ĠP itt
Ġv ic
ĠE van
Ġter min
Ġapolog ise
C ou
b ow
Ã ł
Ġ )
Ġn ort
ust y
ĠSha d
Te xt
enn is
Ġto e
Ġn it
ĠC isco
ab ul
Ġdef in
Kill ing
Ġmethod s
ĠOcean ic
Ġpanc akes
B il
r ating
Ð ¾
ust om
Ġnot hin
ab ama
ĠE ggsy
ait lin
Ġse iz
ĠV alley
Ġmark ed
Ġcol our
ĠFor get
Ah h
Ġwitness es
Ġexec ution
Ġchat ter
Ġcheek s
et work
ist ory
hi bit
ĠAs gard
Ġadm ire
Ġaggress ive
Ð °
Ġre he
if ies
ea st
un j
ĠK now
oll ar
Ġdis ag
Ġad orable
Ġstud io
ĠMon keys
Ġjam med
Ġgamb ling
Ġg ro
ĠT hose
pr oof
Ġcamp aign
ĠL inus
Ġpro duc
ott on
Ġkick ing
Ġpock ets
Aut o
as a
ol ve
M ac
S usan
Ġm aze
B rian
Ġaut hent
ĠH olly
Ġar ctic
In coming
ĠWall ace
' Brien
is le
Ġpar an
ow ed
ĠD og
Ġri pped
Ġatmosp here
Ġtort uring
ĠSteven s
- O
B ar
ra ined
Ġav o
Ser geant
Ġauthor ized
' .
S u
Ġwe bs
ri p
Ġsp ray
Ġpro s
Ġsk etch
Con vert
Ġdoll ar
ĠM ath
ook ing
Ġmiss iles
Ġjo int
Ġrep ro
ĠCent er
Cons ider
Ġï¬ ģ
b orn
t ail
Ġp istol
Ġst ream
ĠR ango
ĠJ ennifer
Ġmin i
Ġtra uma
ĠPe eta
Ġbunk er
J ay
it ated
oo gle
ort hy
ug in
Ġass es
Ġconf l
Fin ish
rell a
b ble
Ġkn ots
ĠS hen
ra ight
Ġlo vers
ret t
Ġcount s
Ex plain
-s enpai
Ġappro ve
Ġappear ance
Fle ur
H y
Ġp ussy
Ġin justice
ĠS ant
au ser
Ġtr aced
Mar udheera
' The
h m
Ġg orgeous
Ġdon key
Ġen vel
ĠNot e
arr ish
Ġsuit case
ĠGot ham
Ġannounce ment
Ġenvel ope
- gr
V er
ic ip
ĠL og
Ġrest ricted
Ġtest ify
oud hary
ĠTy pe
Ram ona
Ġvul ner
op ard
ell ed
Ġso ap
ĠB al
ĠK enny
App le
- And
C ho
i ge
ĠS ana
Cl ick
Ġcover ing
rill ic
Rep ort
Def initely
Ġantib iot
Ġw ig
em et
in ction
ĠBe at
ĠK el
ĠR eal
per ties
Ġun ion
ask a
Ġdestro ying
IS H
Ġwon t
Ġu pper
Ġf og
Ġn ic
P ress
Ġs ire
am an
ĠH am
C oll
r ary
at itude
Ġj ur
if ting
ĠB il
Ġr ul
Ġal ike
- Where
A CK
g ro
er re
ĠH aven
ĠO lymp
Ġval id
Ġ.. ?čĊ
Ġcomput ers
ĠMart y
Ġemploy er
Ġmere ly
Ġinterrog ation
OH N
- Okay
b an
am my
Ġchamp ion
Victor ia
P leasure
b ear
Ġs ust
Ġli p
Ġr ascal
So ld
Or der
Ġproject s
Ġbas is
Ġtele phone
Ġest ate
Ġtrad ition
" In
D OU
Ġl n
ass es
ĠV ill
Ġmad ness
Ġciv ilians
ĠRoy al
ĠJose ph
A lp
N ight
ĠC ho
ĠL arry
ĠR iya
Ġpen gu
Ġfreak ed
Ġsatell ites
Ġtroub les
Ġemp ire
Ġallerg ic
W in
f old
p ot
un a
ink er
ĠP R
ath ryn
Ġdisc over
B oom
ou red
Ġs ources
on ies
Ġm ast
Ġbar n
Ġdeep ly
ĠFib onacci
o ons
Ġnice ly
Ġev olution
p ress
ĠT revor
Ġar gu
Th rough
Ġdirect ions
Ġtank s
Sud den
ed ge
es se
ĠWe b
Ġfulf illed
emet ery
ĠY ash
Ġcreat ive
ĠC ur
Ġcons ent
Ġinstinct s
ĠC ut
Ġqu e
Ġlar ger
Ġw aking
ĠA lfred
ĠD omin
ĠL ewis
pen cer
Ġcult ure
Ġp iano
V D
z nik
ot ch
ĠJ ar
Ġhand ling
In s
Ġtra ins
Ġcount y
Ġwra pped
ĠPind aris
Ġanonym ous
K ids
L ots
am as
ĠH ospital
Ġpack ing
iam i
Ġpray er
ĠMand ira
ĠCong ress
ĠI ris
Ġn ick
Ġcont est
ĠSc reen
ĠFr an
Ġbur den
ĠRo ad
ĠQu ick
Ġprov ided
Ġwid th
ĠSpir it
M ain
M ummy
U L
il izer
est ruct
ĠR essler
Ġpol ar
Ġinvest ment
Ġbast ards
Ġadm itted
elu jah
A zhar
B less
c ard
Ġa venge
Ġp hase
Ġre in
ĠW ednesday
og i
Dis play
Ġawk ward
S har
Ġgo on
ĠL eland
ĠK e
Ġsc aring
rypt ed
ĠPet erson
Ġslight ly
ĠBang kok
, the
i i
u ine
w alk
er ved
Ġc ad
Ġp itch
Ġth under
al ing
Ġr ite
ect ed
Ġcommand s
ĠM P
ĠT own
à¶ º
ĠRaj at
Ġnote book
Ġd ug
-b l
Ġnatur ally
ingu ini
ĠBrook lyn
K rish
R oll
Ġfree ze
Ġv ows
ĠSt at
ific ations
Ġcommun ications
ĠDec ept
r ise
s ers
w at
ĠM A
Ġhand led
r ase
hatt an
Ġro d
Ġpo em
Ġbr ut
Ġpolitic ians
- Why
ass ador
Ġfat al
Ġconscious ness
ĠGra iman
Ġtravell ing
D uring
Ġw izard
Ġd iet
Ġvamp ires
Ġfinanc ial
E urope
P ath
ĠCh ris
Ġinc hes
Ġdest ination
Me an
ĠSha h
Int o
Ġ ves
Ġa h
on ia
ĠC ongratulations
ĠP it
Ġpro duce
ĠU day
Ġconf using
Ġves sel
% .čĊ
S ens
Ġc ong
am ar
Ġinst ance
ĠEv os
Shan non
H ide
ĠM ountain
ĠT oday
ĠB reak
ĠW OOD
Ġlea f
ĠU P
Ġdec ept
Ġuni versity
Ġcigarett es
Ġcorrupt ed
E mm
Ġm our
Ġthe atre
ĠT A
Ġday light
gg s
Ġpay s
Ġspec ified
ĠBab a
ĠAct ually
F ast
Ġst able
ĠT han
ĠB hai
Ġres idence
ĠRe becca
irm ary
Te am
ĠBab u
Ġbug s
ĠRen autas
and ed
ĠR io
ĠBr ad
Ne gative
Ġtem pt
Ġprep ar
ĠKhan na
Ġprotocol s
" They
G old
id ers
ĠM ag
ĠL aura
ĠF ord
Ġpro xy
Ġover w
Ġlim ited
br idge
Ġdou b
Ġless ons
Ġtruck s
Ġcrack ed
Ġmag ical
Ġcart el
Ġprop osed
Ġaccompl ice
Ġdream ed
Ġ iz
Ġs ack
Ġm art
Ġret rieve
Ġt iss
ĠM ist
ĠDe on
Mor iarty
Ġestab lish
- be
Ġp ity
ul ator
el son
Ġd rew
es y
ale b
Ġs ins
ĠB ad
Ġeng age
Ġreturn s
Ġreg ion
Sm art
ĠCar ver
Ġm all
And y
ĠO riginal
Ġv odka
Ġres ource
ĠB aggins
ĠF ort
Ġcou ch
Ġclass es
ĠGu ess
Ġobject s
Ġpurs uit
ĠInt elligence
Ġmaid en
- Thank
B on
w ant
Ġc ongratulations
Ġha unt
ac hi
ĠP ower
Ġsl ipp
Ġset up
Ġeat s
à¶ ļ
ĠPr inc
dess a
aksh mi
ĠD ead
ĠW ITH
ons ider
iv an
ĠBr own
ric an
May a
Ġsuspect ed
Ġcontain ed
ĠRay na
ĠFro st
Ġhamm er
L iesel
M ult
Ã ¾
Ġb reeze
Ġn iece
ĠG old
ĠW on
ĠH an
ĠH un
oc al
Ġrep ay
ĠSha ll
Ġfear s
Ġcent uries
Ġbot hered
Ġwis dom
DOU G
P ardon
ec ha
ĠA mm
Ġcr icket
arl et
als h
Ġball oon
sc reen
Ġmerc en
Speak ing
Ell is
m pt
Ġdis miss
ĠIn iti
Ġconfident ial
Ġobl ig
Ġsacrific ed
" .
r acy
Ġb achel
er ate
im me
ĠW itch
ul ating
ĠO x
Ġac id
Ġjo kes
Ġtri be
Ġfore ns
Tr acy
Ġstrong ly
Ġpresent ation
De bugger
C A
ĠF ra
Ġtalk in
Ġyell ing
Ġfound ation
Ġapolog y
6 5
M uch
he ll
ĠC obb
ĠP en
ĠGo ines
Ġact ed
Ġrece iving
Ġstat ue
Ġover night
ĠEurope an
Ġsuggest ing
Ġdiv ision
A g
m und
Ġhum or
ĠMar ia
Ġtech ni
ha ana
Ġsl ipper
oun cil
F ish
H uman
l ove
l ines
p ath
ck now
ul ty
ĠGen ius
Ġsan ct
H um
M um
V ir
Ġb ay
Ġd un
Ġin come
ĠN ate
ĠE nder
ĠWh oo
Ġlect ure
F ew
N ear
ĠP retty
Ġconf essed
ĠGo vt
ĠOr b
Ġvir gin
Ind eed
H ence
L ater
ing ton
Ġab ort
ĠN ev
Ġext inct
Ġprop he
S pl
Ġbr ake
Ġres ign
Ġinf o
Ġamb ush
Ty pe
ĠGand hi
Ġpul se
u its
ec e
Ġdem ands
val id
- P
c uts
Ġl ust
Ġhar vest
ĠAl ison
Ġarri ving
Ġbott les
Turn s
Ġvar ious
Ġpean ut
" There
M S
Ġo bey
ho lic
ĠA M
Ġneed le
ret e
Ġgen uine
Sp ecial
Ġsuggest ion
ĠSar a
Ed ward
ghan istan
He ar
Ġmay or
Ġterri fic
Ġhand c
ĠOn ce
Ġattempt ed
Ġanc est
Ġfant asy
Ġeduc ated
M and
j ee
t ty
Ġw arden
ĠSc oo
Ġprogram s
Ġdisgu ise
D ylan
l ets
Ġre n
Ġfill ing
Wh ite
uc cess
Ġteacher s
Rem ind
b on
Ġab ilities
Event ually
ollow ay
ĠColl ins
Ġflood ed
B ook
b urn
Ġl aughter
Ġve ins
Ġgrow s
ĠSe bastian
F itz
G R
O ptions
ĠS ince
ĠK ale
ĠSt an
ĠAr row
Ġtre ason
Ġwand ering
Ġphil osop
D a
S qu
is hop
Ġk ung
ad av
ĠC ount
ink le
ĠG ardner
Ġr ookie
ĠF ree
ĠThe a
Al ready
ĠTH IS
let on
Ġcance led
Ġn ative
ac ement
ĠC EO
Ġman ner
ak am
Ġhack ed
ĠPark er
Ġprototy pe
in th
ĠD ist
ĠP api
St aff
Ġcr ashing
Ġphys ics
Rad he
Cor p
amil ton
Ġpuzz le
ĠPur cell
ĠCast le
B arb
F ool
Ġp ile
ar c
ut ral
ob ile
Ġass ets
Ġmar ch
Ġconf ront
Tr uth
Ġcollect or
ĠAc ademy
ĠHA VE
" All
et al
ĠM ister
ĠB i
ĠCan ad
aa a
Ġdump ed
Ġcollap se
Period s
' ..
, and
Ġd ummy
Ġas se
ĠB ane
ult ure
Ġbra kes
Ġve y
ĠBe era
Ġhist or
Ġjump ing
Ġsens es
Ġincred ibly
ancel ot
Bull shit
" S
u ous
Ġs au
ea ux
Ġexc uses
Ġdeser ved
Ġcorpor ate
Ġpow der
I mmy
pp le
ren ouille
Ġreason able
à¶ ľ
Ġident ification
Ġtechn ical
Ġill usion
S at
ĠM em
ore s
nt hia
Ġsc um
Ġfl ip
Ġsend s
Ġtri g
Ġclim ate
ĠPri vate
Ġexcept ion
Dev i
Ġbow l
Child ren
Cass ie
entine l
Ġsc rat
Ex ec
Ġl od
Ġvis itor
Ġha n
Ġdistur bing
ific ent
Ġassoc iated
osit ory
Ġparan oid
Ġg ross
im ize
Ġbless ings
u ating
Ġha b
ĠR od
Ġclose ly
Ġleg it
ĠQu ant
Ġt res
Ġinv asion
Ġlaw n
Ġflight s
ĠHart ley
F ifty
Ġun fortunately
Ġhor iz
Ġmut ants
ĠFace book
Val ue
ĠWind ows
i xt
ent ed
ĠB all
Ġhon ored
Ġtarget ing
Ġtroub led
Ġexecut ed
Ġalt ered
- Man
D ar
Ġc in
ĠS hoot
em a
Ġsc oot
tern al
Ġvol ume
spir ation
urs day
ateg ory
Ġscound rel
E arth
a ac
Ġt one
Ġw icked
er d
Ġth irty
her s
ĠH amilton
hi as
Not e
In spector
Ġdeal t
att hias
Ġaw ard
ĠSanj ana
Ġdistract ed
Vas u
, you
4 1
D ave
F orm
M AR
ĠB ull
Ġsa f
Ġv ow
Ġclass ic
ĠON E
Cou ple
ĠWOOD S
l al
l ings
ĠA C
ĠB ond
ĠW ake
ĠJ a
Ġpass enger
Ġground s
Con nect
ipp y
Ġreject ed
ĠLib by
Ġ== čĊ
Ġglo be
Sudden ly
I rene
v ise
in ue
Ġb unny
Ġp ac
ers ion
Ġcr u
Ġpo le
Ġgl ory
Ġfail s
Ġappro ximately
Sweet ie
Fred dy
R ose
v iet
Ġwe igh
Ġj i
Ġpro ven
ĠK ar
ĠIs abel
ĠNew s
Ġdoubt s
Ġsex ual
Ġsam urai
ĠS k
all ing
ĠC ode
ĠGod dess
With in
Ġtab s
Ġcocon ut
ĠA P
th ree
ĠJack ie
Ġb ul
Ġshow ers
ĠNic holas
ier ce
ĠRick man
-f our
Ġv ig
ĠIn formation
Ġexam s
ocking jay
r ina
ĠW onder
ĠP a
ĠR om
ress ing
Ġele ments
p ol
Ġl angu
ust le
un s
Ġown ed
Ġtor n
E ddie
Ġb ounty
Ġf aced
Ġwe ep
Ġrad ius
work s
ĠWh it
ĠPitt man
ĠM um
ĠC AN
ĠT a
us ions
Ġad apt
Ġelse where
az aki
Ġinter fe
Des mond
iy azaki
ĠSum mit
nold s
f ia
Ġt ack
Ġin ha
Ġin ject
ro d
ĠS id
ĠB ible
Ġapp ropriate
ru zz
Ġres ident
Ġet c
ruzz i
" How
Ġt ire
Ġf o
ee le
qu ila
ĠSt eele
Ġi will
Ġvis ible
Ch inese
Ġkiss ing
Ġhost iles
Ġir re
Ġcustom ers
Col or
Ġgri p
Ġelephan ts
Tot al
Ġmamm oth
- uh
Ġt ide
Ġd uck
an qu
ter m
ĠL uke
Ġpro sec
ort ez
Ġsc hol
ĠBr uno
Ġsn atch
Ġhonest y
ĠAb hay
ĠShar k
ĠNorm al
Ġgreed y
Ġindepend ent
- Get
B ur
om uk
ke l
ge red
ĠW alsh
ep omuk
Ġown ers
Ġvisit ors
ĠHar vey
Ġpartic ip
ĠBack ground
Ġwha ck
Prot ect
b ie
Ġa pe
Ġw oo
Ġp ound
ell s
od or
est ed
ĠJ ava
ĠY o
ĠAs k
Ġelect rical
Rep eat
Ġrum ors
ĠPear l
Ġthe ft
is ode
ve z
ai y
L IN
Ġall iance
Ġlo ses
ĠW in
Ġint r
Ġwind s
ĠBe ach
ĠVik tor
L ive
i able
Ġp od
Ġse ed
Ġreg arding
ads haw
Ġintent ions
- Who
K alpana
Ġt ips
id y
ad ays
Ġre form
ob s
Ġmin imum
ĠSuper man
Ġw ires
or p
ĠL inguini
land s
udhe er
F ont
Ġ Ð
G e
Ġsu ite
ĠHarr ison
6 1
S ort
H ANK
Ġ âĢ
ĠAnt hony
s k
ĠR iley
Ġfollow s
ĠIn st
Ġtop ic
El izabeth
Ġst ored
Ġpro duction
Ġfl avor
ĠCor por
ĠNorm an
" P
Ġt ons
he im
Ġp ra
Ġdo omed
ĠL I
ul i
Ġsurpr ising
Ġlab el
Ow en
Ġprefer red
ĠGeorg ia
j ju
Ġp unk
ĠG reetings
ase y
Ġun armed
Ġmeet s
ĠY as
Ġem ail
Ġdef ined
-l ooking
br other
Ġrep ly
Ġvol can
ĠJim my
g or
i ber
Ġt ube
Ġp ardon
Ġpeace ful
Ġneighb ors
-hand ed
- ray
C arly
G as
g as
Ġn a
ot o
Ġare as
Ġhere by
ĠT ang
ĠSt orm
Ġhead ache
Ġtra gic
Ġsho ps
Ġdisc overy
Ġpar aly
Ġknock ing
Has n
Ġaccompl ish
Wonder ful
Ġbrows er
Ġremark able
g at
Ġg ap
il ot
Ġfuck er
Br and
cher s
C ustom
D ie
a ver
b ou
re es
Ġf use
Ġan ten
ĠP K
ab out
ĠE arl
ions hip
cc er
Ġdig ital
Ġphys ic
ĠMat thew
Ġut ter
ĠIniti ative
H or
u ja
w r
Ġc ough
Ġfor ms
ĠS earch
Ġj eep
Ġsee king
ĠF ab
Ġcont ents
ĠDo ver
Ġloc ations
ĠQu iet
Ġvulner able
S el
W omen
l as
Ġc ri
Ġfor the
Ġdeal s
OU GH
Ar thur
Ġlim b
Ġsna kes
Ġrelig ious
. K
E rik
W ord
Ġthe rm
Ġback s
Sc rew
Ġf ru
ĠKeep er
' D
ĠA dd
ĠMe era
Ġdis order
Sc ript
Ġhe h
-- --
Ġt its
F R
Ġman agement
Ġprom oted
D ory
U nd
Ġj in
ĠK ab
Ġgr atitude
ĠPr ison
- H
- But
Ġf urn
Ġp or
ĠD ub
ĠL eah
Raj u
ĠA LL
arr ison
Ġdiam ond
Ġeter n
W E
Ġg ently
am ent
ĠM iami
ĠR an
um ed
ous y
ĠSt ein
Ġass ess
br as
ĠRe znik
ĠAr maan
ĠMar ines
Ġrisk y
ĠAny one
Ġobs ession
Ġspread ing
Ġcree py
Ġchemical s
ĠFro do
" As
G P
S ant
Ġw ives
Ġg am
ot es
ar ms
Ġbe an
Ġfather s
Ġdis able
Ġel ope
Ġshot gun
Ġdi ab
ĠSp arrow
Ġboard ing
Ġassum ing
Ġrecomm ended
D ue
Ġb ark
il ize
ĠL ily
ĠL ucky
ĠN andini
Ġcar ries
ĠThe me
Some how
head s
Ġsub marine
Ġind icate
Ġer ased
sc ar
Ġattract ive
Ġnightmare s
B M
V elayudham
i pt
Ġw agon
Ġm ig
Ġr ubbish
ĠU s
hes on
sen ia
Ret urn
ĠOct ober
Ġclin ic
- Are
3 1
f ly
ĠD ory
ĠL eague
ob ra
Ġgl ove
Ġinc omplete
Ġpsych iat
Ġdom ain
- head
F ace
p o
u v
Ġc aution
ut er
ĠC hat
fe rent
ob bs
Just in
av an
Ġsub st
Ġbar rier
Ġfrequ ency
- Don
z il
ĠI ce
Ġp eak
Ġre ass
Ġqu ote
Ġacc ent
Er ica
allow een
Ġcontroll ed
Ġdeterm ined
Gen ius
D inner
d ie
ĠB anks
Ġman sion
Ġcha ins
esp ite
ĠMars hal
Ġm ac
Ġn od
ĠD ent
Ġrun way
Ġcat s
ac el
am eters
Ġr idd
Ġbr acel
Ġri vers
Ġdisp atch
w ide
Ġconst ant
Cy rillic
ĠBenn et
ĠK rypton
Ġmon keys
tr l
" Dear
- go
A ction
ist ant
" If
V S
t es
ec or
ĠF eb
Ġsha ft
Ġdress ing
B A
U day
ĠC om
St eal
Ġsw orn
anc ing
ĠBen ji
Ġperform ed
- Let
Ġhe m
ea gues
Ġhar sh
Ġdri ven
Ġfar mer
Ġcoll ar
Ġcoll eagues
Ġbud dies
Ġcontin ued
ĠCol or
ww w
- K
K ELL
ĠD rop
ĠP ont
Bl ow
gn ore
sc ape
ĠPh ill
Ġtres pass
E ggsy
v ous
Ġc ried
ĠG re
Ġno vel
est s
ren cy
Ġroom mate
Ġschool s
19 6
Ġmarry ing
Ġcollect ing
Ġinj uries
Ġconven ient
Ġp hen
Ġre un
ĠS U
ĠM er
Ġso da
Do ing
Ġar row
ĠY adav
IS T
Ġpan el
Ġspecific ally
Ġult imate
ĠDiv ision
Ġinsp ired
Ġheav ily
P op
t hank
w ire
om ber
ĠB uild
ĠG ain
ear n
ĠN ora
Ġmet a
Ġrest ore
Ġspeak er
Ġcir cus
ELL A
ĠDor ian
Def ault
ĠDep uty
ĠCle ar
ipl ine
inst ein
Ġexcl usive
" Hey
W id
n ies
w h
id el
al o
Ġup gr
ĠT anya
ol ph
Ġsp ite
Ġse ated
Ġhand ful
ĠSt ew
Ġco in
Ġsim pl
Ġreg ard
Ġart s
tt e
Ġinf irmary
che ck
Ġcoun sel
ĠFranc is
ĠTel ugu
atal ie
" !čĊ
s ch
al ty
Ġgo at
ĠC atch
ch ild
ĠB rah
ĠP and
Do cum
St range
ang a
Ġmin or
Ġter r
Ġsurv iving
ĠMan n
ĠMart ha
Ġshar ks
Ġsatisf ied
Ġchap ter
ĠÂ¶ čĊ
-mm m
Ġin bound
ĠV is
Ġson ar
Ġart icle
Ġsubject s
ĠA W
ig o
ĠH ari
ĠE mp
Ġen qu
Ġgr anny
Ġfire s
ĠSo viet
Ġorgan ize
C ertainly
G host
_ Install
ĠC reat
- Just
Ġf ig
out e
ro v
Ġrest ra
Ġst ir
ĠB ureau
Ġr ans
Ġimm une
ĠHanna h
Ġsl it
ern ame
Ġinvestig ating
Ġprinc ipal
ĠIt alian
Ġmut ant
ĠW ing
Al one
Ġp arl
ess a
Ġaut opsy
ĠVet hal
UGH S
Ġshe et
Ġse eds
ĠJe ff
ĠRey nolds
Ġtox ic
E arl
L aura
w oman
om al
Ġwe ed
Ġre nd
ĠInd ust
Ġcre ation
Ġpros per
D oug
E ast
Ġr ancho
ol m
ĠDon ald
ĠAr k
CK D
Dor othy
Ġess ential
Ġexha usted
Ġcandid ate
bras ax
J OHN
Ġ Ã
ĠI mp
ell ets
ĠE ight
ĠTh ursday
ĠPr ad
Ġrecogn ition
icks haw
=\\\\{@ }čĊ
S an
it ia
ĠD oss
ĠB ass
Ġsu bs
ĠL ee
ĠR ec
ĠF ont
Ġlea p
Ġcont ent
Ġbu zz
Ġdist inct
Ġtw elve
Ġpeace fully
Ġaltern ative
Mem ory
P oss
W est
c row
Ġwas hing
ĠS at
Ġne are
Ġout er
Ġdep os
ĠBe ethoven
Ġbur gl
Ġbell s
ĠBab lu
ĠCall ie
ĠDoc ument
ĠMat heson
ĠJer sey
B uddy
P a
Ġc os
ĠC ou
us er
ĠR ub
Ġescap ing
Ġpers u
Ġpir ates
A leya
T ouch
ĠN athan
har m
oc ated
Ġdest ined
Ġdisc onnect
Ġskin ny
Ġast ron
Ġblond e
ĠCare ful
- re
ha z
ĠA venue
Ġsy mpt
Ġhost el
Ġmask s
Ġspirit ual
ĠFuck ing
Ġdrown ed
Ġspin ning
Ġdeton ate
Ġfasc inating
Ġantibiot ics
Ġf el
Ġor bit
ail a
ĠBr adshaw
Ġoper ational
Ġqual ified
Ġphotograp her
Ġspons or
ry ption
ĠA L
oll o
Ġrain ing
ĠPlan et
Ġran ch
M ission
Ġp lead
Ġinj ury
ough by
z one
Ġb in
ĠChe ers
L inda
ĠS ully
Ġblue prints
S H
c up
p at
p ost
ra j
ĠL O
Ġarri ves
Ġthr ust
Ġcivil ian
ac ock
Ġfl ame
Ġexp ression
Ġref using
Ġsqu eeze
Ġvan ished
Ġfort un
Dor ian
Ġfrag ile
' Con
Ġin sect
ĠM iddle
pt ic
Ġev al
Ġadv ise
Ġenc ounter
ĠGreen e
Ġvolunt eer
ĠPot ter
C ourt
G roup
_ Help
or ca
ut ies
ĠS chool
ide o
uck le
ĠK urt
Ġsm ashed
Ġsl ide
Ġcap s
Ġrespect ed
Ġprogram med
Ġvirt ual
F antastic
M ason
f a
k h
y l
z ens
ha j
Ġc able
ĠS ho
Ġal though
ars hip
Ġexpl ode
Ġdep ression
Pre view
Ġpar ade
Pl an
cell or
Ġabs olute
Bet ween
ĠGovern ment
Jac ob
J ar
L o
c ade
Ġf east
Ġso ccer
ĠG ale
ĠP arrish
og s
In formation
Ġvo ices
Ġfeed s
Ġpoison ing
ĠWith out
ĠBo ard
ĠJapan ese
ĠPak istan
M ia
ĠL iam
Ġrequest ing
Ġbuck et
Ġemb assy
Ġtall er
hant om
ĠVir gin
ĠFlor ida
Ġconfl ict
Ġtrig gered
P raise
U ser
r idge
Ġm ol
Ġp anda
ĠA cc
ĠT im
Ġsp ill
Ġbet s
Ġcra ft
Ġchar t
Ġdist ant
Ne ha
sy l
reck les
Norm al
Ġ ven
Ġl ung
Ġso b
ĠH and
Ġte x
Ġexp ed
Ġfe ather
OU T
Ġextract ion
w ind
ren al
Ġmod ified
" lf
l by
Ġp ond
ĠJ UST
ĠK rav
Ġcook ie
-sh irt
Ġk in
L ocation
Ġc emetery
Ġfund ing
Ġnig ger
Ġ {
E ric
Ġdo se
Ġj elly
J asmine
ĠF il
Br uno
ĠBab ji
Work ing
Ġy o
Ġwor ship
ĠK im
Ġcomp artment
in ea
ĠIt s
ĠV al
Ġattract ed
Ã± or
Ġpip es
Ã ¸
Ġm os
ing ly
ve rend
ĠP aige
ig gin
Ġtou g
Ġreg ain
Ġabduct ed
- This
E L
E yes
M essage
ĠB attle
au lder
ĠH ail
ord on
ned y
Ġrecogn ized
Ġcelebr ating
Ġcontroll ing
Ġmort al
Ġgest ure
ĠCir cus
G one
U M
o ice
Ġn ails
ĠT op
ud a
red ict
av ier
Mo ving
ĠMind y
Ġlangu ages
m ant
m ight
Ġbe gg
Ġst alking
ĠW ork
ak in
th rop
Ġsc out
Ġfl ames
oss i
so le
Ġfin ance
ĠJust ice
ead man
Ġfoot prints
Man ny
ĠRa illy
ĠJon athan
ĠAlp ha
F amily
Ã ³
Ġt u
ĠE lement
à· Ļ
Ġbud get
ric h
Ġconnect ions
ĠTom orrow
Ġclaim ing
ĠGrand ma
Ġadopt ion
ĠJen kins
herit ance
- le
r ac
er ra
Ġl y
Ġre duce
Ġthere fore
ĠD ri
Ġal p
ĠN ine
ress ive
ub ali
Ġold est
ax i
Rem ote
Ġexplain s
Sha w
Ġcry st
Sec ret
Ġmut ual
Ġdialog ue
C ap
R uss
S umm
S peed
Ġs ch
ess ert
ĠH alloween
Ġper mit
Ġmar ri
Ġcop ies
idd ick
Ġincre asing
Ġsail or
Ġtransl ate
ĠAf ghanistan
- They
M ister
N OME
S co
Ġm ount
ĠF ound
Ġmake up
Ġbo oth
Ġpo ly
ib i
Give n
Ġchar ming
Ġconc rete
ĠHar per
Ġmor gue
Ġnewsp apers
Ġforb idden
ĠEve rest
A round
ĠL ev
ĠP age
Ġcra z
ĠRam se
ĠCo ast
- Hi
D et
Ġp ix
as p
Ġj og
ĠP ush
ĠK ee
ĠMor an
Ġdirector ies
Ġ vert
Ġt ales
Ġc otton
ĠD aren
ĠP acific
ĠR ev
Ġbl abber
Ġun ited
In cl
ows ki
ĠBl ock
. M
p ective
Ġelect ronic
erv ices
Ġha st
re ls
Ġcap acity
Ġlist ed
Ġdent ist
Ġdi version
Ġbl ah
Ġhead quarters
Ġcamp us
ĠC ouncil
ĠL ieutenant
Don ald
ax y
Ġgen e
Ġimportant ly
AS T
Ġwhis key
Ġimpr ison
k ill
Ġprom ises
Le vel
Ġhunt ed
Ġmanufact ure
U r
Ġh ik
ro s
ch ief
ey ond
ĠAll ah
Ġcur sor
Ġsn atched
ĠAm b
Ġcourt esy
alf unction
Ġpartners hip
G B
r ator
it ure
Ġin spiration
and all
ct ions
ĠNo va
Ġhand y
Ġmet er
Ġcount ries
Ġcook ed
Ġblock ing
Ġfund s
Ġprec inct
Ġremem bers
ĠRad ha
Ġpill ow
ĠStu art
Ġcoff in
L uck
S C
S U
f ar
p ers
er ick
Ġo ps
Ġbe gged
ĠD iana
rou s
Ġres et
Ġsn ack
ĠBl ood
Ġconst ruct
Ġrom ance
Us ually
' But
C om
L ess
N emo
b es
ĠC ortez
Ġqu arters
Ġro pes
ari ans
-t wo
Dis able
Ġcau ses
Ġresist ance
Ġl ions
Ġp ing
Ġj er
ĠM AN
ĠM olly
ell ion
Ġde eds
ĠJ ill
Ġste am
Dest roy
Sanj ay
0 5
C e
M er
M us
N am
V an
Ġt ense
om y
Ġin put
ic ates
ĠS pr
ĠB row
Ġlo gin
ĠP sy
ud rey
Ġdis hes
oc racy
Ġapp eal
Ġob tain
atur al
Kill ed
Ġactiv ate
Vict ory
Ġbachel or
ou st
Ġa uspicious
Ġc af
Ġf ry
ar ge
ro ck
if ferent
ĠA k
hy am
ĠB u
est ic
ang le
Your s
Ġshut ting
Am azing
ĠQu ill
Mar cus
De velop
Ġaud io
W oo
ee k
Ġdep uty
à¶ ½
ĠZ od
Me aning
Ġdetect ed
Ġmagaz ine
Sco field
3 7
V is
g hed
um bs
Ġdeliver ing
Ġmeas ures
P y
ĠA RE
Ġr uled
Ġlet hal
Ġsit s
vent h
Ġsun rise
Ġdescri bed
g ant
ise y
Ġ* čĊ
Ġrans om
, no
M eenamma
at ter
Ġth y
Ġbar r
Rel oad
- Hello
Ġ venge
Ġsc ale
-th ree
Ġshift s
Ġcent re
Ġbit ter
ĠY ear
ĠVer ma
ĠM ockingjay
Ġdeli ber
C ode
Ġben ch
Ġf ame
ĠM all
ĠH olloway
Ġpattern s
ĠTor ch
V arda
w ara
We b
ĠC PU
ĠB eezus
ĠF light
Ġsha ck
ĠOr chid
Ġhall way
Ġgather ing
t able
Ġ :
ou ston
Ġha ul
Ġst roke
ĠE yes
ĠE ko
ott om
-f ace
Ġattempt ing
ĠCar rie
Ġdisappoint ment
ĠG nomeo
ĠH off
Ġsec ured
ren ade
Ġreb el
Ġnegot i
Ġwebs ite
: %
D M
E van
S afe
l k
Ġb olt
Ġb omber
Ġd agger
ĠM useum
ĠM eena
ĠSt aff
Ġkey board
ĠAr ctic
Ġremind ed
Ġconcern s
Sub ject
Ren u
Ġfold ers
Ġkilomet ers
ĠA ren
ĠB ec
ĠW al
ĠR ag
os is
Ġcon sole
Ġsp oon
ber ry
ĠTH ERE
Ġstrong est
Ġshort cut
Em pty
Ġcock s
ĠHor ace
Ġinqu iry
Ġpolitic ian
Ġintegr ity
ĠGain es
' LL
Ġm and
st ar
Ġha m
Ġst air
ĠC andy
Ġus age
Ġrec ipe
Ġend ure
Ġfr amed
Ġland lord
ĠRe ed
Bl ock
ĠCar ol
ĠNik hil
Bab e
Ġincre ased
Ġtwist ed
Ġder ail
- G
- ho
0 1
D ig
ve tte
ke eper
au gh
ĠR anger
ĠJ uly
ud io
Ġpr ime
Ġmin t
Ġfr idge
Ġpoint ed
Ġsince re
Ġbusiness es
15 4
Ġdev ast
ĠSol o
Ġslave s
ĠOb ject
Ġdefin ition
Ġprophe cy
) .
6 6
P ol
S en
Ġe cho
Ġsp ared
ap unz
ĠK itt
Ġadd itional
ered ith
Ġbuy er
ĠLe ft
Ġprov ides
ĠNort on
ĠSecret ary
apunz el
g ian
m on
Ġl ane
ĠI M
Ġp m
ĠS entinel
ĠD ie
ĠB enny
Ġsp ots
ĠSe lect
Ġvac uum
Ġlog ic
Ġlad der
OTH ER
Ġoverw hel
- an
R udy
f ight
z t
ut or
St ar
ip her
Ġcontact ed
Ġant icip
ĠLy don
ĠKrav id
oo oo
AR D
Ġorgan ized
Ġscare s
Ġurgent ly
Ġdisturb ance
ĠKee fe
E mergency
F ro
S a
Ġman ners
Ġsw ore
ĠMan hattan
ĠDev on
Ġp ace
Ġdec ade
ĠPro perties
ES E
Ġprecise ly
ani um
T ough
Ġd udes
ĠTw itter
Ġdiscuss ed
Ġalt itude
ube y
Ġhes itate
ĠCommission er
L ift
O ops
R oy
it is
ick ers
og a
Ġcomm itting
Cle arly
Ġroll ed
Ġfol k
Ġarch ive
- Is
R alph
i as
p iece
r up
Ġn anny
ĠM ason
Ġup side
Ġover d
Ġbl uff
Ġsc roll
Ġfight ers
-d o
Ġkil os
Ġtoler ate
L og
ac ious
ĠS iv
ĠK ong
Ġfe ature
ĠSam antha
iction ary
Ġvers us
ĠTem pl
A men
F ood
Ġa cknow
ha k
os er
So oraj
ĠN arn
ĠK ai
In v
Al ong
Ġcur rency
-d own
Ġbat s
Ġblind fold
Ġdram atic
Ġsignific ant
B usiness
D ark
P ark
j our
Ġd ict
ĠS ait
ĠR ancho
Ġro am
St raight
Ġsy mpathy
ale m
uri osity
ĠCol ony
Ġgodd ess
Sim ple
ĠHorse men
haj ini
M ith
S ON
Y as
Ġs way
Ġp i
im ah
ĠS au
Ġus ers
ĠF un
ĠE xt
Ġser um
Al t
Ġpres cri
Gu ard
ĠMar iko
ern el
Pl ace
Ġapprec iated
Ġdiscuss ing
Ġflo ors
S and
b ait
Ġf ifteen
Ġf isher
Ġl ou
at ha
ĠS achin
Ġback yard
Ġex its
Ġsl ay
Ġcor rid
Con nie
Ġconv oy
-up s
Ġmap s
Ġconvers ations
Ġtap es
Ron nie
Ġsentiment al
Ġanal ysis
Alp ha
Ġneare st
G uru
b u
... "
ĠM ain
ĠC hild
og ue
Ġfl our
Ġsho ve
app i
Ġz oo
Mar garet
Ġbreath s
Hope fully
ĠShar ma
igu erra
K ING
W AT
ha mm
ĠS ize
Ġv ain
Ġbet ting
Ġcr uc
Pro f
Ġsick ness
Ġris es
Ġtext ed
Ro bert
. J
Q ue
j un
l on
Ġbe ef
ĠT imes
Ġtr aces
ĠN one
iz zy
Ġph rase
Ġleg ally
ĠSc out
ĠMay or
apt ist
Ġhandc uffs
ĠEmp ire
B ased
ha ppy
ĠM ine
Ġr ang
Wait ing
Ġrefer ring
on ce
at oes
Ġcl icks
Ġinst ant
Ġbro ker
Ġvenge ance
Ġrisk ed
Ã ¢
ĠO bs
Ġdef ect
ĠJo es
os al
os itive
Ġfree ly
Co ffee
Ġw ret
et es
Ġbless ing
Ġautom atic
Ġspaces hip
Ġtiss ue
ha ble
ĠA brasax
ĠP ope
ress ler
ĠJe remy
Cent ral
" To
C ell
D i
F iles
Ġc her
ur g
ĠR oss
Ġcon vention
Ġover ride
Ġrecogn ise
Ġcoc aine
Mag ic
ecor vo
z ins
Ġto re
im ony
ĠR ead
Ġint act
ĠCh un
Ġcur tain
Ġappro ved
) ?
, then
N ora
W at
W ind
b alt
h k
j ing
u ations
is d
Ġf oul
Ġl ousy
Ġr otten
Ġcom et
ĠO S
ĠK um
Ġfr anc
ĠSh ort
Ġcut s
Ch itti
Ġmark er
Ġoper a
ett ina
Ġant id
Ġmut ation
ĠMal ays
Ġclip board
mir al
C ross
L loyd
Ġsh red
ĠB oss
ĠW ANT
Ġpo ker
Ġsecret ly
Got ya
Ġsal v
Ġpig s
hand av
Ġcorpor ation
Ġcalc ulations
Ġlun atic
Mean while
' He
C ourse
I G
W il
he ck
is hant
Ġl ure
as ma
ad el
Ġman ual
ĠH auser
ĠK ansas
sp ace
Th ief
Ġcou ples
Ġisland s
Ġve nd
Char ge
Ġscient ists
Red o
Ġcrit ic
Bu y
Ġinterfe re
A unty
D raw
H ans
is k
it ement
Ġdo zens
Ġkn ight
ĠM aggie
Ġpo ke
Ġjo ker
ĠZ amani
Ġdel eted
Ġbre ached
ĠFel ix
Ġzomb ie
ĠElement ary
l ad
un ity
ĠD C
Ġtr uce
Ġmis ery
Ġvir al
ĠFred dy
ĠLi ber
Ġterrif ied
Ġasse mb
( C
- day
L ist
Ġc ape
Ġe c
ĠG abriel
Ġform ula
3 4
P en
s ome
Ġe fficient
if ier
ak ers
Ġinterrupt ing
Ġtast es
- There
F ortun
F resh
j e
he el
ĠS udheer
ĠM ust
ĠP enn
ph ine
Ġblack out
ram s
Ġparad ise
ĠYash ida
s lo
ĠI b
ĠF IR
ern and
ĠPat rick
Ġwor m
urt is
ĠHolly wood
Ġsh ipping
Ġbl end
ĠWill oughby
ĠVer onica
on ents
Ġguess ed
Ġmagic ian
P aul
Ġsh ining
Ġrepe ating
Ġsurround ing
Ġcraw l
I ce
Ġt une
Ġout s
Ġinv al
ani elle
Ġdefe ated
Ġgal axy
L ow
s ay
Ġt it
Ġt ar
is hy
ĠB art
Ġlife boat
ĠSc ot
Ġdiffic ulty
err ari
Ġsorrow s
E ko
L ay
T P
ve ster
Ġh ip
ĠE p
Ġcomm ittee
Ġsuper ior
ĠRaj a
ĠJo ey
Ġscan ning
Ġchannel s
Ġdelic ate
ĠQuant ico
Ġvig il
T ask
g li
an ner
ĠM ud
ĠH ands
ol k
em y
If you
Ġbl oss
ĠHe ctor
iz z
Ġmother f
Ġesc al
Ġpot ato
Ġheal ing
ĠKen nedy
Ġhab its
P oint
o kay
Ġd ough
Ġl end
ĠI I
Ġo l
un u
Ġal ter
Ġsp ine
ĠF eel
ĠV ice
For ward
Ġco vers
anc he
Ġpoint less
Will iam
Ġadd iction
era ld
Pe ace
Ġvide os
Ġdiv ine
Ġsusp ic
Ġdefend ant
Ġcloud s
Ġperman ently
step s
U sed
Ġs iding
Ġha il
Ġfor med
ĠS low
ĠM un
Ġso re
Ġex cess
Ġcl oth
get s
anc er
Ġdef ending
ĠSee ker
eck er
ĠCarl a
ĠAp ril
Ġsport s
ĠLaw rence
bear d
D espite
c ular
w ould
Ġw ard
Ġc aste
ĠT ARS
Ġv ice
orm ous
Ġfin ishing
Ġprom pt
ĠWell er
Ġfore head
ĠEng ine
Ġengine ers
Ġgener ations
ĠTe j
yn n
Ġanaly ze
Ġcasual ties
unj ab
G and
K han
b ian
p ro
Ġw akes
Ġb ass
We ar
ĠA y
Ġv ia
ĠK athryn
th ink
Ġdri zzle
Ġhard ware
Ġdist ribut
-s afe
Her o
ĠCreat or
" "čĊ
. H
R an
he ver
ĠS A
ĠS atan
av s
Ġquick er
ĠInd ians
Ġru ining
ĠLuc as
Feel ing
Christ ian
sm ith
ĠDecept icons
3 8
ĠM erc
Ġfr act
ern s
ten ance
Pr incess
Ġund one
Ġconst antly
Slow ly
Ġtransmit ter
syl van
renal ine
j ad
Ġf ist
ĠS ervices
Ġche w
Ġinter val
ĠMon ica
Ġthrill ed
- St
b ling
Ġw ander
ĠD ance
ĠD impy
Ġzomb ies
ĠG il
Ġdraw er
ĠUn ion
Start ing
ames h
ĠC ove
are r
Ġh osp
Ġthat s
Ġun believable
- Do
F el
_ P
b lock
g iving
Th understorm
Ġm ary
Ġan ge
ĠM oses
il ized
Ġbaby s
An n
Rec ent
Jo ey
ĠHit ler
ĠKings man
Ġborrow ed
L ib
d aughter
i que
Ġto ps
ĠG ang
ĠR udy
ber le
Ġnew ly
Ġsur g
Ġpass age
ilt s
Ġdin er
Ġmor al
Ġoccup ied
Ġprivile ge
ĠMen u
isd iction
( .
( \\
) 'čĊ
+ \\
+ directory
+ )'čĊ
- My
: \\
[ \\
] )?
i ative
Ġm alfunction
Ġf ried
ic hes
ly de
ĠA sh
ĠL iesel
um or
ĠF UCK
ather ine
Ġun load
Ġdead ly
Ġexp and
Ġpat riot
Ġcur ry
Ġstra w
ĠJac q
(. +)'čĊ
(\\ [\\
+\\ ])?
+\\])? :\\
K night
Ġb apt
Ġc uffs
Ġst atic
ĠC ham
ĠA men
ĠW CKD
Ġmat ching
Ġgang ster
Ġmut ton
Tw elve
Ġunf air
hatt ered
Sanj ana
Sil ence
Ġpurcha se
Ġarrog ant
redict able
Ġantid ote
7 2
m ind
ĠS aint
el a
ĠK emp
Ġcl oak
ave l
Ġapp et
Got cha
Ġrob bers
Ġfil ter
Ġactiv ities
fr ame
Sw im
ĠMur ali
Ġcivil ization
ĠSen ator
Ġdim ension
ĠGib son
ĠTit us
Ġdisgr ace
ĠKy lie
Compl eted
gor ith
d ict
Ġt ying
an es
ĠM ouse
ĠH ait
ĠK alpana
res lin
ret ion
uff y
ĠBr ick
Ġfact or
Ġexc itement
Ġsol ar
Ġce ase
ĠKing dom
Ġabs or
amb ar
Ġpray ed
Ġpot ent
ĠGot ya
Ġtab les
Ġserv ants
Ġheaven s
ĠChand u
Jo an
Des ktop
Pass word
Ġsau ce
ou che
Ġm ardon
Ġf eared
ĠC od
ĠA unty
Ġr amp
Ġcom ed
ĠO m
ĠHe aven
Ġsm ash
Ġad vert
Ġdec ides
ĠCl au
Ġrest less
Re ed
à¶ ´
IC IA
Ġfac ial
Ind ia
Ġlink ed
Ġbatt les
ĠBarb ie
ĠCou rier
- Good
A jay
L ori
c ans
u i
Ġs or
Ġl ndu
ĠM echa
Ġat om
ame l
ĠF reckles
oc key
Ġra ped
Cl imb
Ġtrans form
Ġext inction
Pr ince
ĠEd ward
Ġfed s
Ġadult s
Nik i
Ac cept
K arl
T ha
m aker
ĠI C
.. ...
ĠB umble
ĠW ang
ĠF le
St at
Ġsmall est
-f ree
ĠSer iously
Att ack
ĠRen nie
Ġannoy ing
C hamp
ic it
ĠM ost
av ana
Ġvis a
Ġviol ation
Ġrecover ing
ĠS peed
qu et
Ġwork ers
Ġexpl oded
Ġgovern or
Mand ira
Ġabs ence
Ġpers pective
ĠGr id
Ġmagn ificent
Ġunlike ly
B us
anc hes
Ġres ume
re hend
Ġright ful
0 2
Ġl oo
Ġst ressed
Ġab orted
ident ified
Ġsleep s
Ġhat red
Ġshut tle
19 5
Ġpen et
rill iant
Fort y
r ument
Ġm ummy
Ġc unning
ĠB ro
ul arly
Ġsp ider
Ġqu arantine
Ġcomp are
Ġmeet ings
Ġorgan ic
Ġlog s
Ġcirc uit
Ġscen es
Ġfrust rated
erre ro
zins ky
- J
Ġin ev
Ġif you
Ġrec l
ale k
Ġsn iff
ĠSqu ad
ĠAgn es
Ġaccur ate
Techn ically
T ag
l vester
m ont
Ġh ive
id al
ill es
Ġst ain
ess ions
Ġr ash
ĠN ur
Ġlong est
Ġinter ference
Ġbody guard
sh ine
Ġslow ing
ĠEl ise
Ġpil ots
ilar ious
Nic holas
Ġaccomp any
ĠAlfred o
E nder
G ru
s l
Ġw itches
Ġp ale
im o
ĠD ale
Ġbl ink
Ġhope fully
AN G
** *čĊ
ĠAl most
Ġground ed
ongrat s
Ġpred ators
agn ar
Ġbrief case
miss ions
Ġindust rial
Ġtyp ical
akam ura
- All
B renda
M ont
P K
P acific
e ous
i os
Ġ icons
on i
it led
or ation
Ġre aches
ĠS ighs
ĠD est
ĠG rab
end a
Ġal gorith
ĠP ath
Ġover come
Ġmar s
Ġtri ple
ok ing
arr ick
Ġrelations hips
Ġill ness
Ġphys ically
ĠAust en
stit ution
Ġparaly zed
b ul
i ors
on ing
ĠM ount
ĠC L
Ġpro ves
Ġv ag
ag en
act or
Ġexp ressed
Ġgen es
ma id
Ġri gged
Ġbed time
Sm ile
Ġste pping
Sy mbol
ĠRob in
Pri est
Ġdelay ed
miss ive
Imp ossible
Ġanx ious
Ġimmort al
ĠShad ow
. l
B omb
L and
f oot
Ġw ed
an z
Ġst am
Ġan ts
Ġne utral
ĠC O
ĠC ru
ĠG ary
end ers
um atic
ĠJ udge
ĠE instein
Ġra w
Ġrel ay
Re quest
Ġlight er
Ġbar bar
Ġtre m
ĠEl ves
Ġchem istry
ĠCr ane
I V
J ose
p ent
Ġf iddle
ĠP y
Ġcon ver
Ġar rows
Ġhear s
Ġrec ruit
Ġscream s
Ġobject ive
ĠWood s
Ġupload ed
Ġreck less
s is
Ġp ane
Ġsleep y
Ġremote ly
Jo in
Norm ally
M et
v as
ĠB and
ĠG len
ĠJ os
ĠN eed
Ġer ase
ov v
Ġaff airs
ĠVas ee
ĠChand rak
Li ar
ing ili
Ġf er
ut ed
Ġinstit ution
am u
IN D
Ġl ame
ĠPe ach
Ġp ork
Ġsight s
G al
Ġb ung
ear ing
Ġex hib
ĠChar u
Ġnick name
ĠB oo
qu al
Ġsp icy
ĠN elson
St even
ĠOr der
Bell ick
-se ven
Ġt a
Ġp eep
et her
ad u
Ġgoing to
Ġcor ps
Ġpack s
Ġtor ch
Sec ure
Ġacqu aint
ĠFull er
Ġdesc end
Ġjur isdiction
Ġhoriz on
Ġetern ity
ĠPont ecorvo
- by
B eyond
Ġt ender
Ġa er
Ġs hattered
Ġh unch
le ans
Ġne at
op es
ĠT oby
ĠP hoebe
ĠO dessa
Ġper pet
pe red
Ġdra in
-c ont
-m ails
ĠOr leans
Ġpost er
Ġpun ched
ĠIndust ries
alek ith
" Shake
A haana
R S
Ġs oph
Ġd ip
it ha
ic us
ĠM onsieur
ĠB usiness
ig s
ĠN an
iz a
ĠV iet
Ġmat t
Ġsha ve
Ġgl orious
Ġdep ressed
-s ix
Ġaccident s
ald ua
Ġhy br
Ġmic row
ixt een
) ,
- z
0 9
4 6
R om
T axi
Ġt roll
Ġwe l
ri or
Ġst inking
Ġkn ives
ĠD E
ĠD ol
ĠH enri
Ġoff line
Ġpo king
ĠSo oraj
aid en
-m in
Ġappro ached
Ġcock tail
ĠPh illy
Ġcirc les
Ġmort gage
ĠTur tle
Dou ble
Ġancest ors
B ang
M ic
Ġn ano
le ast
ĠA ravind
ĠD rew
od ing
ĠH ad
Ġtr ump
Ġtom b
ĠAn other
-h uman
Ġmir acles
OW N
El ise
alc olm
ĠDun can
ĠAf rican
ĠNort hern
Ġunnecess arily
Ġastron aut
handav am
F un
c at
w ick
Ġh oo
Ġas c
ĠT ok
ĠG onna
au can
ard in
res ne
Ġro ast
Ġad vent
ĠU k
ĠAn ushka
Ġclean er
Ġstra in
Ġform ation
Ġrece ipt
Ġapolog izing
ĠRam lal
Ġfort ress
uf resne
Ġwreck age
B a
O uch
P un
V ersion
e ors
Ġg au
Ġis this
ĠM ission
un an
ĠA B
ĠB aj
ast a
ĠH orn
ĠH orns
ĠJ u
Ġv ib
Ġsl aughter
Ġmet eors
Un believable
Sp ec
Ġstar ve
Ġclot hing
Ġboo st
Ġopt im
Ġrelieve d
Ġanten na
T or
Ġf oster
Ġst y
ĠL en
ĠJ ester
Ġreal ised
Even ing
Ġbenef its
ĠDa ily
Tot ally
Ġperman ent
it ters
Ġha y
ĠS ounds
Ġro de
à¶ §
ric ane
add le
Max imum
Ġdisplay ed
rain ian
Ġjunk ie
Ġshield s
Ġrap id
Ġworld wide
ens ity
Ch icken
ĠAm it
Ġdesign er
amb a
Ġfru its
aptist e
' VE
Ġd warf
ĠP ad
act ed
Act ivate
ĠWol ff
b our
Ġm ock
Ġinc oming
Ġl em
Ġf ierce
Ġm ild
U D
Ġ Â
ĠH ero
Ġfl ank
ub by
vis or
O i
He brew
Ġair pl
umb led
bed ded
P ur
Ġb oun
out heast
ĠR ousseau
ap id
Ġadd ition
-b oy
Ġjin x
" lt
ĠS OME
ĠO ptimus
ĠE M
Ġsun shine
cha ir
Ġisol ated
' This
B ruce
Ġw are
Ġc ul
Ġf uss
Ġn uke
ĠC razy
ĠH iro
Ġoff ers
uck ed
act us
Ġsc old
ĠTe resa
ĠAd am
Ġscan ner
Ġcraw ling
Ġunnecess ary
B E
C arry
E le
n in
is p
Ġd il
Ġc uriosity
Ġn an
om on
ast rop
os ure
ru ary
Ġsy nt
Re lease
ĠTh irty
Ġspecial ist
Ġir is
Ġvan ish
Ġexist ing
Ġexplos ive
Ġnur ses
Gen er
Dep uty
ĠBil bo
-min ute
" That
ant on
and al
Ġex hibit
ĠN akamura
Ġint he
Ġint im
Ġad ding
Ġend less
Ġdif f
-m ile
Ġremain ed
ĠChan cellor
Ġvari able
Ġclar ity
ĠDou gy
ĠFran ck
A are
E nt
R od
t ed
Ġy ank
Ġb ha
Ġp ec
ar gh
Ġdon or
Ġtr anqu
ĠN ope
ĠN SA
ĠK ree
ĠE as
Let s
Ġbad ass
Ġsha m
See ing
Ġgen et
ĠAm elia
Ġopp onent
OR Y
off rey
Ġhi jack
Ġpartic le
Ġhack er
Ġmotor cy
Ġquant um
B or
B ee
B UT
M c
S I
Ġw rench
Ġst unt
Ġj umps
ĠR O
Ġass ured
Ġhum ble
Ġread ings
Ġpres ents
ĠAl ways
Ġbull y
Ġhor osc
Ġvirt ually
Ġerr and
Jon athan
K elly
S anta
Ġd izzy
ĠS ie
ch or
ĠT hi
Ġany how
Ġoff ended
hic hever
Ġbit s
ient s
An anya
Ġexplain ing
ĠEn ter
ira o
ĠSanj u
War ning
ĠBra zil
sylvan ia
R avi
Ġf urious
ĠH al
ĠH IM
ĠN umber
ans on
Ġfl ows
ool s
Ġcr ates
ens es
Ġthank ing
ĠAl b
osh ni
Ġsuccess fully
ĠDiv ya
Ġchoo sing
G aurav
c ons
r ice
ĠL ion
ĠSt acks
Ġdec ades
the se
r c
en ch
Ġfor ged
ĠS av
ĠO R
ass o
ĠMad ras
Ġcl ues
reed om
b ag
x ie
ith vi
Ġconc ert
Ġfors aken
Ġd ot
Ġl att
ter son
hy d
ĠW iggin
um ing
ĠJ upiter
li hood
cl ip
ĠTal on
Ġmart ial
A ust
H undred
O l
ic orn
Ġbit es
Ġent ries
Ġmod els
erg mans
hus i
Ġliber ty
im at
ĠO UT
Ġover board
ific ial
Ġalong side
Ġmot el
ĠBrit ain
W O
re ction
ĠH ook
ress es
lo v
Im age
Head er
Ġwheel chair
Ġhom icide
Ġtechni que
U mm
h ma
p ool
Ġt at
Ġt al
Ġp alm
Ġre ign
Ġst alk
ĠG reek
Ġsu nd
Ġr ickshaw
ĠL ann
ab alli
ĠR icky
ĠO per
ĠK as
lf are
Ġun w
Ġar tery
Ġhar ass
Ġcor resp
Ġimp ul
Ġins ulting
ĠSp ain
Ġimm ig
ĠIntern ational
ĠDub ai
Ġhybr id
3 9
C ame
L isa
M olly
M eena
N onsense
T a
Y ay
Ġw ished
Ġp ear
Ġre ef
ĠG erry
ĠP orter
Ġdis arm
Ġmat ched
Ġmat hemat
Pro ceed
Ch ris
Ġdou che
Ġsun light
Wh om
Ġlay ing
Ġinstall ation
Ġsettle ment
Ġdies el
Ġment or
Ġcomplain ts
Ġank le
Ġavo iding
Ã¾ i
, that
A k
R ip
w est
Ġb arry
out ing
Ġdo pe
ĠM eredith
ĠD eal
Ġsp ying
ĠK h
Ġun in
Ġfl aw
Ġrec onsider
-- ?čĊ
Ġfe es
Ġleg ion
-s chool
Ġbill ions
ĠAb ruzzi
Ġremind er
Ġrese ar
18 0
Ġinterview s
Rad io
ĠRome o
Ġcooper ation
Bob by
ĠFranc isco
ĠOff ice
Sham e
Ġfert ilizer
Ġrehe ars
! "
C omplete
't he
ak os
Ġch im
Ġdisc ard
Ġsub missive
ĠCha vez
Char u
Ġaddress es
Ġaccount ed
App lication
Ġenc rypted
Ġtax es
anet akos
Car rie
Ġflo at
ĠBa ah
Ġdepth s
Ġaltern ate
ĠNad ia
ĠGib bs
Ste ady
Ġburgl ar
Ġlou der
- no
C ard
F light
M arry
V ik
Ġd well
Ġp awn
Ġp appi
as amy
id ance
Ġmy th
ĠM ouche
and ar
Ġal ibi
ĠJ atin
Ġhapp ier
Ġse asons
ull en
Ġbu bble
Ġsl am
Run ning
ĠRo ber
Ġexam ine
uk la
Ġcelebr ation
ĠAir port
Ġintern et
Ġaud ition
ĠForm ula
hend ra
ĠGaj ender
Ġrepeated ly
ĠMouche bou
G nomeo
H an
Ġthe ories
Ġme als
ĠS ippy
No ah
Ġr am
Ġover s
Ġheart beat
Ġdra gging
ok es
ĠSp ace
Ġaccident ally
Ġteac hes
ĠSar ge
Ġcommit ment
Ġflo ating
Lau da
Ġtrop ical
Ġargu ing
Ġsympt oms
Ġtex ting
D iv
H ari
p it
Ġfor cing
ion e
Ġsu e
Th or
Ġdi aper
Ġdem o
Ġpop up
ĠCy nthia
ĠKore a
Ġdeb ate
orra ine
ĠIM F
ingili ya
R Y
Ġl ic
ĠJ esse
Ġcar pet
Ġfav ors
ĠWilliam s
ĠWin ston
ĠH ung
ĠJ udes
ĠAl aska
Ġcat ches
IM E
-k un
Resp ect
7 00
ĠB P
Ġdupl icate
Ġm es
ond u
Ġsk ies
ĠUnder stand
Ġhosp itals
Ġshe lf
Ġtarget ed
(s ighs
T revor
th m
per ial
ĠAn anya
al zone
ĠC VS
ĠW at
Ġsens or
Te acher
Light s
Ġdrown ing
J ennifer
Y ears
ĠM eenamma
Ġr ally
Ġgood s
Ġover he
Ġbreak through
ĠGood bye
Head ing
Ġinit iated
ĠIran ian
ĠLI KE
- Not
E arlier
W M
Ġdis rupt
Ġkind ly
ĠBe am
Ġmouth s
Ġattract ion
Ġshell s
Ġproduct s
Ġwhisper ing
Ġpour ing
P s
v ia
w iches
Ġb ent
Ġd aw
st as
ĠS ri
ĠC ons
ĠD one
ĠG ames
Ġdr ank
Ġsupp er
Pro file
Ġclos es
ĠKat ie
ĠRad io
Ġtroub ling
Ġproced ures
ĠBenn ett
Ġphilosop hy
ĠLann ister
M el
P enny
Ġp ic
Ġin mates
ac hy
ĠC elia
ĠC asey
Ġall y
ĠF reeze
uck ers
Don key
Ġdead line
Ġcomp onent
Ġra ins
ĠBe an
Ġcol ored
Ġinvest ed
Ġrequest s
Ġwarm th
Head s
Ġclick ing
Ġcomplain ing
Ġrum or
Ġut ility
Ġpsycholog y
5 1
D anny
c s
Ġli king
ĠC obra
And re
ĠD ennis
Ġman e
ĠR osa
ak u
Ġpe as
ond or
Now here
Ġch it
Ġrest ing
Ġri val
irth day
Ġcool er
Ġfil ming
Ġallow ing
ĠDe an
Ġcost umes
rav is
war ves
Ġdece it
Ġdecor ated
-W ing
Ġfrank ly
Ġschol arship
- term
. s
D O
S O
T ri
_ Build
_ Clean
k ish
Ġst ink
ĠM ode
Ġr uth
end ous
Ġde port
ĠP unjab
ĠR avi
res ents
act s
Ġmon itors
Ġinc or
Ġchick s
Ġprocess ing
Ed itor
Ġpet rol
Ġspo iled
ĠLi quid
Kat niss
Ġtact ical
Lou is
L ead
Ġs ang
Ġb ore
Ġd essert
Ġl ick
Ġre levant
ĠM ess
Ġbut cher
ĠP ost
ab ric
ĠF e
ap as
har ge
ĠV IP
ĠU RI
Ġtrans p
ĠAl an
Sc reen
TH ING
US E
Sur prise
Feel s
Ray mond
Ġdipl om
5 2
G O
G ame
V ol
Ġc ows
The m
Ġst eep
ĠM oney
ĠK wan
Ġsha de
ier re
Ġsk irt
Pro v
Ġjud ging
App ro
cha d
vi our
-n ew
ĠKore an
D ick
Ġs ector
Ġn erves
ay an
ri ety
am ous
ĠS ad
ĠG aurav
Ġnow adays
Ġbr ick
Ġse ize
Ġsupp l
Ġmillion aire
ĠPr ot
Ġlau ghed
Ġtur tle
Ġpaint ed
ĠCor rect
Ġscore s
Ġelimin ate
Ġhumili ated
T V
t ight
ant ing
Ġra v
An im
Ġbra very
inc ible
ĠCha ir
ĠPro bably
ĠSe attle
Ġobs ervation
ĠWar ren
Ġautog en
- r
ĠK am
Ġmiss ions
Ġdeal ers
Ġclear ing
ĠBlack well
ĠS ide
AS S
ĠGro ot
ĠFed eral
Ġsens ors
ĠAtl antic
Ġbr anches
ĠRep ort
Ġrhy thm
k an
Ġc ue
Ġforest s
Ġsurviv or
'Con ner
J aikant
Ġw ink
Ġe clip
ĠB ressler
ĠP ink
ag he
Ġpar as
Ġtreat s
Miss ing
Ġobs erve
hus hi
Ġs ung
ĠM ass
Ġpro spect
Do or
ud ed
ang al
ia z
Ġwar s
Un like
à¶ ¯
En tering
Ġhall uc
Ġdistur bed
athy a
Ġpill ars
Je remy
S um
T IN
Ġt in
Ġt ang
im ension
ĠG ordon
Ġby pass
lic es
Ġbeha ving
Ġsepar ately
Ġmechan ical
ez vous
Lau gh
ĠLing es
ĠJar rah
A my
J eez
P A
_ Save
f ers
ĠS aldua
ell a
rom agn
ĠB ans
ĠG OT
ĠV i
Ġcont ext
Ġhar bor
ĠCh oudhary
ult z
Ġabs urd
Ġbother s
ĠSure sh
ĠMax imus
Ġpred ator
Ġdanc er
Ġrepl acement
Ġorphan age
Ġflu id
ĠBart ok
ilts kin
Ġinev itable
stas ia
- The
G iving
h ur
l aw
w all
Ġh ike
ac cept
ĠC ra
Ġup s
ĠT ech
ĠB ACK
Ġr oo
Ġover re
Ġsc ope
ĠV elu
ĠThe ir
ĠU N
Ġhar med
pr ot
Ġexpl o
Ġtou ches
ĠSp ec
Ġoper ative
Ġdam sel
ĠAs ano
Ġattempt s
Ġlift ed
agg art
Ġspo ilt
ĠGen ie
Nik ki
Ġrecru its
asim ha
Ġsanct uary
might y
Ġfranc s
Ġsoph ist
" Always
B O
L iam
L earn
k ers
m ay
Ġt ipped
it w
Ġn om
Ġst im
ĠM I
ĠC alc
ĠD in
ĠW ise
ĠW anted
AR E
Ġprof its
Sc ared
ĠDe velop
Ġcomb ined
Ind ian
ĠCor ps
ĠRem y
ograp hic
ĠWood ward
Ġsmugg ling
Ġdinosaur s
ĠAng ie
-head ed
ĠBrick ton
Ġmotorcy cle
ĠBaah ubali
6 8
B alli
H all
L anguage
M ut
O per
f il
y o
ac ular
ill o
Ġst ew
em en
Ġcar riage
Ġpre view
Ġstr ings
Ġmet aph
pe ople
ĠCl ar
Ġprom ising
ĠIs aac
Ġbook marks
Ġdisc retion
Ġbar bec
ES S
ĠCon nect
Ġfac ilities
Ġenc ryption
Ġign oring
ĠEll ison
Ġinclud ed
Ġgrad uate
Ġunp redictable
ĠHob bs
Ġfare well
Bil al
Ġirre levant
ĠBrow ser
G A
L arry
b one
l ar
Ġn avig
ot ics
st ein
Ġsa bot
ven ile
ord ers
Ġacc using
Ġinst antly
inc hel
Ġdisc o
OK I
Sp read
ĠPro cess
rat ors
Ġmain tenance
Ġtor ped
bor ne
asc als
Ġign or
Care y
Raj a
Ġimpro vise
ĠBrand t
Nor rie
Ġtherap ist
Ġsav age
Dri ver
eni han
inchel ow
w al
y ya
on ne
Ġd read
Ġk een
ent ation
all u
Ġj ar
ĠJ oy
ĠK adem
00 7
Ġdiffe rences
Ġlock ing
Ġhop eless
Out side
Ġwitness ed
Alex ander
ga ard
ĠDor jee
oes gaard
ĠEv o
Cam era
Ġexpen ses
ĠKadem an
b les
im ated
Ġab used
Ġcon j
ap ons
to gether
ane ous
Ġlock s
Ġdel usion
Ġlay out
Cha utala
Ġtour ists
Ġrare ly
Ġscen ario
Incl uding
S ky
T ab
ĠG ET
ĠW rong
Ġdis l
Ġexp end
du ctor
19 4
Ġed ited
Ġfart her
Ġforb id
G row
ĠR amesh
Ġprotect ive
A B
Ġopp osed
Ġlo sers
Ġconvinc ing
Ġh ush
Ġpublic ity
em ption
Ġsp illed
Ġnum er
Ã ¤
Ġun identified
Ġquestion ed
Ġbre ast
Ġrit uals
C D
L at
Ġw ield
is ance
Ġc ord
Ġf itting
Ġab road
Ġsa ver
Ġpre ity
Ġgl imp
unt u
Ġlearn s
Ġinclud es
Ġpub lished
Je an
hair ava
Ġbrut al
ĠAmb assador
Ġglimp se
B reaking
D ro
b out
f air
Ġw ip
Ġthe ater
Ġn arc
Ġh ilarious
ĠB aker
ĠG U
ĠW ard
ĠK it
Ġen vy
Sh rek
Ġres ur
ĠGood win
Ġmod est
Ġsand wiches
Ġpill ar
Ġachieve d
Ġpurs uing
ĠOl ivia
K aulder
ll y
Ġf aked
Ġp enc
ĠS ally
ĠH ouston
Ġse as
Ex per
ĠWell ington
Ġimport ance
sh ire
Ġri ot
-c alled
Ġgift ed
erv ations
Ġste ering
Ġpainting s
OS EP
Ġpsycho path
Ġelimin ated
ĠFab ious
OSEP H
- end
B al
L ie
S ad
Ġt ires
Ġl aser
Ġgo anna
Ġout put
ack ing
ĠA ko
ĠA jju
ra ge
Ġbut ler
ĠP ass
Ġbl oom
Ġsc otch
ang ar
Ġres ervation
Ġvis its
Ġext ension
Ġrep resents
Ġlay ers
Dis c
Ġsuck er
Ġstore s
ĠWH O
Ġcabin et
ĠSen ate
Mur ph
ĠAngel a
Ġpsychiat rist
ĠDri zzle
c hange
o ir
t oo
u u
z ona
Ġ vel
an ic
Ġf bi
He len
Ġst eer
ĠC uba
Ġneed les
ĠP ent
ĠP ia
ol ving
ĠO scar
ĠK ay
ĠK ubo
ord an
int o
Ġhar ness
enc er
Ġdisc ount
Ġbank er
En emy
Ġkiss es
Ġconv iction
Ġinvestig ator
Ġfreak s
Ġpoison ous
Ġtattoo ed
ĠEll ie
Ġver dict
Ġneighb our
Ġestab lished
Ted dy
- sec
A gn
P al
Ġb un
Ġc alf
ĠS ud
ĠS leep
all on
... ?
ĠC hange
ĠT ree
Ġlook in
Ġun happy
Ġra hul
Cl ot
ĠSh owers
att les
Ġdet ailed
Ġshort cuts
Ġdem ocracy
Ġmisunder stood
Ġhen ce
Ġglove s
ĠTok yo
U sing
et ha
Ġha w
Ġbe head
Ġis the
Ġk ar
ic ient
ir an
ore n
ĠL ea
ĠW ally
em ents
Ġbo il
Ġstr ay
ah u
Al b
ĠCh in
Ġtw in
Ġcover age
ffic ial
Ġdrug ged
Ġpen alty
Ġwilling ly
Start ed
Ġadm ir
Ġacqu ired
Ġveget arian
Summ ary
N ar
b ird
Ġin k
se ll
ĠR oshni
Ġsp ook
ign ment
Ġtra ps
uth rie
Ġcoll abor
Ġsub mitted
ĠMar ch
Put ting
Ġow ed
Ġtravel ed
Ġlim o
Ġanaly st
R oman
Ġy g
Ġm op
ĠS oc
ĠB ud
ĠL oad
ĠJ ude
Ġbl aming
Ġplan ets
Go vern
Ġspec ify
Ġtrack er
ept ember
Ġaccept ing
Ar k
Ġinf inite
Ġcock pit
Ġconcent ration
Ġdepart ure
ĠRev olution
V e
ĠR E
Ġwait er
Ġpick up
ĠZ ero
Ġpresent ed
Ġindust ry
ĠJen na
" Life
Ġpract icing
rah im
ĠShi v
Ġbusiness man
Ġflow ing
ĠC ad
Ġred uced
am ie
Ġmass age
W itness
Ġst oy
ĠGeor ges
- kn
Y ea
i ants
Ġ _čĊ
Ġon board
ĠW u
Ġter rain
ich igan
ĠGot ta
anj ana
ĠIm perial
iry ani
re ced
Ġp ose
Ġp oop
ĠS pencer
Ġsc ars
Ġafter life
Ġent husi
ĠCh ow
Ġinform ant
Ġpract ical
Most ly
Ġmarket ing
Fl ash
Ever ly
Ġunp reced
Liz zy
Mill ions
Ġrend ezvous
Ġunpreced ented
D iana
G ene
z ie
Ġhe els
ry s
ĠA st
ra el
ĠT et
ĠT ate
au ji
Ġr ay
Ġam bit
ĠE at
Ġinst rument
ĠSc ully
-d estruct
hel an
ĠNe ha
ĠChand ni
Ġens l
Ġliqu id
Ġdece ased
rett el
' l
A y
D en
I gnore
T ower
Ġm ike
ĠI an
as ena
Ġst akes
all a
od a
ĠW oman
ĠF ight
uck oo
Do g
St orm
Ġpr on
Ġmin us
Ġspec s
Cl u
Ġswe ating
ĠAd miral
ĠWar rior
Pri vate
Ġassoc iates
Ġcomplain ed
ĠComm it
Dam u
- Well
B ettina
C at
N aina
R oom
S ara
l ong
ad ium
ĠS ometimes
Ġj unction
ĠM ossi
ĠC ind
ĠD ig
ĠD ID
ĠB road
ĠL J
ĠL ife
ĠK aran
Ġro aming
Ġac res
Ġmon k
ical s
Ġext ort
Ġpack ages
-s an
Ġpar ach
CH ER
Ty ler
Sens ational
Ġprepar ation
B ernard
D an
G erry
J ess
N ate
N ardo
R at
T ie
T erminal
r ust
r us
Ġb atch
Ġh int
ad er
Ġre tain
Ġst unning
ĠC abe
ind ed
ĠB ox
ĠL orca
ĠR iddick
qu ake
Ġoff s
ont o
Ã¶ ur
aj nu
Ġprot est
Ġprotect s
ĠGr anny
-d ollar
Ġperform ing
Ġstorm s
ĠSec ond
Ġmass ac
Ġbound aries
Ġcommission er
Ra ise
ĠGovern or
Vari ables
Ġdelight ed
Ġdismiss ed
ĠDist rict
- In
4 4
6 7
P ooja
Ġs ib
en ess
ent ry
ĠS inja
Ġsh iny
ĠG R
ul ge
Ġbu ys
Ġlot tery
Ġstr ateg
ĠLet ty
de en
Re f
ĠSh reya
Ġinv iting
OU N
ĠTh ought
-b ased
-c ub
Se bastian
-f or
AT H
-m ill
Ġfair ly
light en
IC A
Ġrese mb
El se
hh h
Ram se
Ġaccompl ished
Dest ination
Ġlaun ched
ĠMath ura
ĠBrad ley
ĠCanad ian
apas vi
R eddington
Ġt ak
Ġw rest
Ġyou will
am alli
ĠS end
ant e
ĠW arden
ĠP inchelow
ĠR est
ul in
Ġwr iter
Al u
Ġtrust s
ĠSh ukla
Ġins ulin
Ġbomb ed
ĠTH EN
-b it
Ar t
Ġpen is
Ġcollect ed
Im ple
Ġscr ub
RA CE
aval amalli
Ġmour n
Ġbracel et
" J
a are
f orth
Ġp le
le g
ĠA man
ĠT ung
ĠG uthrie
Ġr udder
Sh reya
Ġcomm s
Ġaw fully
Sp are
Ġequ ally
Ġtext s
Jul ia
Ġpurs ue
Eng ine
Ġtrop hy
aval ry
Ġinfilt rate
ĠPrinc ipal
ĠFra ida
uccess fully
aiy ur
ĠMouchebou me
' They
L y
p hic
w ari
re ase
en na
Ġj ohn
ĠP LA
ol as
St r
ump ing
Ġdisc l
ĠLook ing
Ġrespect able
Le g
Ġhyp ot
B ass
W ent
Ġdon it
ĠN at
ix on
ĠBr ooks
ĠEx press
Ġpot atoes
Love ly
Ġet hic
Ġsob riety
, m
Ġdifficult ies
ĠChandrak ala
ĠChair man
L ine
Ġvirt ue
Ġimpl ant
Ġd ated
il o
ĠF errari
Ġra ju
Ġnot ion
act ing
Ġdisp osal
g ins
v ard
ĠD VD
are ly
Ġmess enger
Ġcons istent
Ar rest
Ġpray ing
Ġmagn etic
Ġcorresp ond
P et
Ġ omen
Ġn inja
oo ke
Ġst un
Ġan est
ĠH AD
ĠE R
ag ram
ss am
Ġart ificial
ĠHigh way
ĠSH E
UN T
Ell ie
Ġmicrow ave
9 8
F ed
H app
Ġb io
ĠS ign
ĠD irectory
Ġro ar
Ġfl aming
Good win
Ġremember ing
ĠRe verend
ĠAm ar
bor g
LA UGHS
ĠSil ver
ĠDar hk
Ġslipp ers
A mm
D ial
O P
S ever
v als
Ġm arty
Ġg renade
Ġo x
im a
us hes
ĠW izard
ĠW estern
ĠJ al
Ġsp ies
Ġag enda
Ġv om
ĠSt e
az ed
IN E
ale ya
Ġbar rel
no x
Ġoper atives
Ġinit iate
Ġtim er
Ġbillion aire
Ġban ana
ĠIsland s
Dep ends
Ġpolicem en
Ġbon us
- o
L oose
p hia
t om
Ġs hat
Ġb onds
Ġh ustle
Ġback wards
pl ate
ĠAnd re
Ġtri pped
rec iate
Ġow l
Te j
Dev il
ĠMark us
Ġscr amb
Ġbi ological
Ġboot y
Mur der
ĠHall elujah
Ġeter nal
quis ite
Ġsust ain
adel phia
Ġsophist icated
% d
- op
- So
B ank
N aomi
S aving
W ish
[ S
z zy
Ġs ory
Ġd ared
Ġf ax
Ġp aw
am ination
Ġdon ation
ĠB uddy
ĠL ancelot
ĠR oll
em i
Ġpr inter
Ġsur f
Good night
Ġent itled
Ġdri ft
de ous
amp a
Ġdem ol
uro s
itz er
Ġdrill ing
ĠCal throp
Ġvillain s
Ġdecept ion
ĠDocument ation
Ġintim id
C isco
R ever
R oma
Ġb acter
Ġg het
Ġp aj
al ore
ĠB er
ĠL uther
us k
ĠO s
ire z
Ġsw ell
Ġsy mp
rat ic
-t ra
Ġgrow th
ĠDe acon
Ġmis be
Ġrelax ed
Ġswe ater
Ġhack ing
Ġsna pped
ĠShan e
Ġep isode
Ġexecut ive
Ġentertain ment
Ġï¬ Ĥ
Ġbarbec ue
Ġghet to
0 4
S uri
b ee
Ġ >
Ġf t
Ġp harm
ad ia
ĠG renouille
Ġshe er
Ġcon vert
Ġbo ards
ob ody
Ġwar head
ĠShe lby
ier ra
ĠBr uch
Ġinc omp
ĠMar c
Ġmor phine
Ġchallen ging
Ġver ify
nes ia
Id ent
Ġje opard
Ġdisag ree
- so
. )čĊ
J apan
R ome
S ent
b et
Ġc ongrat
ul pt
Ġsc ulpt
ne ver
ĠGod damn
App ly
ĠMad am
Ġcock ro
Ġregist ration
ĠSqu are
- She
M ail
p ret
he llo
it ent
et ion
se ven
ĠP oint
mer ing
Ġsub tle
Ġstar board
Ġpengu ins
ĠScoo by
Exec ut
m ine
Ġb er
ar o
id ays
Ġdef ine
ĠTH ING
ĠFor give
Col in
Ph one
Ġveget ables
Ġupgr ade
ĠF inn
Fro do
w it
ream s
ures hi
ov ie
Ġded icated
Ġinval id
ĠW E
hi ka
Ġval ve
-de f
M ess
i vers
Ġd uties
Ġc a
ur ries
ĠA ether
ĠT ess
ĠB itch
St rike
10 1
Mar iko
ĠLe g
Ġprocess ion
Ġintention ally
ĠTrans l
77 7
Ã¨ s
Ġacknow ledge
Ġbung al
l ast
ing e
Ġwe lfare
ĠC au
ack ed
ĠT erminal
ĠB ac
Ġr ank
Ġsa iling
ĠR ea
ĠK ira
av ya
Ġrec ip
Ġdes cent
Ġcha lices
Ġrespect s
Gr ant
Ġradio active
Ġclim bed
Dis abled
Ġscrew ing
ĠPat riots
Ġnu isance
ĠAna kin
Bab u
ï¬ Ĥ
Ġpsycholog ical
Person al
Ġrul er
KELL ER
ĠPrad eep
B rilliant
C I
F il
T ried
T oby
g us
Ġdo lp
ĠB urn
ĠK omali
Ġun e
ĠV aucan
Ġfell ows
Ġtre mb
ron ics
Ġstri kes
Pr ison
16 0
-p ro
rav ity
Ġcro re
ĠKat ia
ĠVik ing
Ġlaun ching
Ġpredict able
ĠCur rent
Ġhaunt ed
Docum ents
ĠKum ar
" '
A ang
A ryan
B ug
C ops
J upiter
K aren
P osition
W ild
l est
u pt
an ov
or ters
ow ard
Ġwe althy
ĠE VER
ĠGod s
oy a
Ġcou p
ĠZ anetakos
Act ive
Ġhonor able
Ġreb ellion
Ġign ored
Ġtail or
Ġdecl are
ĠTri be
WH AT
Ġthorough ly
Ġscoot er
Ġmars hal
ĠViet nam
B it
M ud
R izvan
d le
t an
t ra
t urn
t aking
Ġd ried
Ġc akes
st an
ĠS outhern
ĠA udrey
ĠT odd
na p
Ġr aces
ĠW inter
ang i
aw a
ĠDon nie
Be era
Ġcons ume
Ġdisc ipline
ĠyÃ¶ur self
Ass hole
Ġcorn ers
Ġult imately
Imp ressive
ĠAtl anta
ĠAri zona
Ġcorrid or
B S
G reg
T ML
d ale
r ath
s ive
Ġg um
Ġn arr
ar ia
st he
Ġth ou
ant h
ĠM aced
ĠM iyazaki
ear ching
ĠJ ag
ang s
Ġid le
the m
Ġfire works
ib o
Ġsn acks
Ġve ntil
umb ling
Bl u
Ġinnoc ence
Ġmaster mind
TH AT
ĠMa hendra
Ġenc ourage
Cont inue
Want ed
yan ar
Ġstrugg led
-g il
Ġseiz ure
" ?
' :
. V
E sc
L ily
S ch
_ Add
r ations
r ants
Ġ era
ha agen
Ġto es
as ures
im ination
oo h
Ġnot ed
ith i
ĠS em
ĠD ufresne
na user
ist ance
Ġdream t
Sp ider
Ġconv icted
Ġbeha viour
Cha nd
Ġchallen ged
IGH S
ĠLi ar
ĠAustral ian
à¶Ń à·Ĭ
Ġairl ine
Ġdischar ge
Inf o
Ġcand les
Ver onica
Ġprosec ution
sch nauser
ĠLev i
ĠBruch schnauser
' She
' know
A rab
F ra
o ving
s ighs
Ġf abric
.. ?čĊ
ĠM oesgaard
ĠC AA
ge i
ĠR V
ĠF ix
ap ore
ud er
Ġover head
ond a
Ġact ors
Ġres erve
Ġev olved
Ġdef ensive
Ġow es
roll ed
fr ont
Ġunlock ed
ĠMel issa
' ?
, d
L J
n et
ĠI ron
ĠK asim
Ġcar n
int osh
Ġtra ff
aster n
Ġmad man
ĠZ one
Ġcol ours
Ġpar ameters
-d ate
Ġstri pped
Ġsumm oned
ĠHar ford
ĠEn c
Ġpet ty
ĠMac intosh
Ġpupp et
Ġded uct
ĠFin ish
ĠPenn sylvania
ĠG ott
ĠV olt
Ġid ol
Ġsho vel
Ġposs essed
Ġsk ip
Ġenc our
ĠMaj nu
ĠLau rie
Har old
Ġflare s
op hil
Ġbro om
Us ername
ow en
ty pe
19 3
ĠQue ens
Ġdra ft
ĠY up
ep ar
Ġrel oad
Ġfil th
B hai
ĠL ank
Ġint ell
ĠCh icken
Ġdeliber ately
" Since
- Can
D escription
Ġp imp
im s
ĠM ichigan
pl ant
Ġreal m
Ġhead er
oth s
Ġlisten s
ĠIn f
ĠSha ft
Ġchoo ses
- Go
E lect
_ Select
c i
v ika
Ġt read
Ġs essions
ĠB ald
ĠL ater
ag les
Ġwind sh
Ġorder ing
Sha shi
Ġsun set
Ġref uses
Ġrent al
ĠGreen wich
Ġsed ative
Ġdomin ant
Ġfortun ate
Ġairpl ane
imat ech
Ġwindsh ield
G E
Y e
g ie
r ome
Ġa qu
Ġw aving
Ġp ad
ĠS aw
ĠM err
Ġwell s
Ġcr ank
Ġthank ed
Ġcha ined
OU R
Ġtest imony
Ġtrad ed
Co ach
Ġiron ic
Ant hony
apid us
Y up
b ury
e ight
Ġp ia
Ġbe ers
ee med
ent in
ĠM ummy
pp s
Ġall ies
ĠB aron
ĠP A
ĠR ich
og gle
Ġcont ra
Ġpay back
Ġret ard
ĠWho se
Ġpull s
Ġaw hile
Ġexpect ations
ĠBe fore
Ġprof ound
Ġty re
co on
Ġcat astrop
Ġcommun icating
add ock
Ġsuck ed
ĠBo oth
Ġdistract ion
ĠEaster n
ĠKnight s
Ġmelt down
ĠSE AL
UCK LES
Ġhyd rogen
" With
G ave
H ur
H op
I O
L ate
R ule
l age
m ity
Ġc ategory
Ġg oose
Ġl add
ĠD aw
Ġso lo
ĠB ravo
ĠG arrick
um mond
Ġpro c
Ġsc aven
Ġwait ress
we ight
Ġper p
ater al
An ge
Ġsn iper
Ġmil itia
Ġrid ge
Ġelect romagn
Ġdev otion
Ġjud ges
ĠX avier
Ġwreck ed
ĠGal vin
Ġupd ated
ĠVirgin ia
Ġmane u
Ġruth less
' nt
) :čĊ
- ve
/ directory
I mm
I ris
L aw
M ount
b ell
l ix
l asses
r ane
v s
Ġm old
er als
it ra
le m
ic les
ood les
ist inct
est one
ig her
ab ling
ĠR ever
Ġpart ial
air o
Ġmo ist
Ġrest room
Ġsit uations
ai ries
Ġins ight
Ġreg ards
ĠMar ie
Ġoper ator
Ġbat he
Mar riage
RE AM
ĠEr ror
IL D
à¶Ń à·Ķ
Ġspect acular
Near ly
Ġpaj amas
G NOME
T est
Ġb inary
Ġd ia
Ġin active
Ġst inks
ĠD utch
od ar
Ġsu fficient
Ġde act
ast ers
ĠH ug
ĠH ER
ĠN OW
Ġover l
Ġro ses
ment ed
Ġafter wards
av is
ĠU gh
Ġacc us
az ar
Uh h
Ġsuper v
ĠMan ny
Think ing
Ġstri king
Ġsuggest s
Ġimm unity
Rad ha
Ġboo ze
ĠVinc iguerra
Ġblackmail ing
Ġpier ce
Ġcheer lead
Ġforens ic
Ġassess ment
ĠCod ex
- ex
C ook
H ouse
V inc
r t
t age
he e
Ġs ought
Ġe y
ĠB est
end ra
ĠK ali
pl ed
Ġhand wr
Ġfl attered
Ġcor ne
Ġsing ular
Ġsol itary
ĠMan agement
Ġpublic ly
ĠPri est
Ġcrack s
Ġund o
ĠAd ler
Aw w
Ġinvent ion
Eng lish
Ġrecru ited
abor ate
Ġcaps ule
Ġm aj
Ġb ounce
Ġf ou
Ġl ux
Ġo d
Ġde ed
Ġor chid
hi es
Ġun l
ĠV ol
Ġsw ap
uff ed
ĠAl abama
Ġpar cel
Ġconv ict
Ġfre el
Ġbullet proof
Ġcub s
Ġbump ed
Ġteen ager
Ġmarri ages
Ġcruc ial
9 5
S omeday
Ġd itch
ĠT hing
ĠH u
aught ered
Ġmar vel
à· Ħ
Del hi
Ġgrad uated
Ġtent h
Ġmonitor ing
Ġdischar ged
J ava
K urt
ar am
ĠP M
Ġnecess arily
Ġhan h
im age
S elf
ĠW ISH
Ġposs ibilities
Ġcard iac
E agle
Ġgr ades
rr rr
" Just
How ard
Ġcle arer
u an
ate l
xt rot
Ġintell ect
S eal
ĠL ist
ah ir
Ġem bedded
omb ie
more d
ĠAl u
Ġemotion ally
Ġrail road
/ thing
K el
W or
m ia
ou dy
Ġh ott
ĠO VER
Ġvis ions
Ġrep ository
bers ole
Ġref uge
Ġjew els
Ġpup il
Ġtrespass ing
Ġmos qu
B ody
H ost
i op
Ġre el
Ġjust ify
ap se
ĠE lf
res den
Ġcomp onents
Ġmar ine
Ġwar ming
Ġfr own
Me era
Ġtreat y
cl ub
CT V
Ġbrows ing
ĠFree zing
N etwork
V ar
p atch
t een
he er
Ġd ictionary
or ous
Ġl ined
ĠI P
ĠS upp
ĠC aitlin
Ġr ushed
ak di
Ġor ient
Ġcon vey
fe w
Ġtell in
ĠF alls
ap ole
Ġdec oy
Ġgun shot
Ġexp ired
ĠBr idge
ĠSc arlet
ĠGu errero
Ġprice less
Ġpiss ing
Ġpriest s
ĠRichard s
ĠPer haps
Ġsalv age
apole on
C ecil
J odi
V o
Ġa ye
Ġw ager
at ore
ĠM es
ĠM ant
ĠD u
ĠP leasure
ĠR hys
Ġex ceed
ĠN ICK
ĠK rag
Ġbr ace
ĠSt anton
Ġstr anded
oh inder
Ġent ers
Ġfun ctions
ĠDr ummond
Ġfear less
Ġsell s
May day
Ġvo id
Ġelect ions
bor o
ĠBell ick
ĠDev ika
Ġbrave ly
Ġdevelop ing
Stand ing
mar ines
Ty balt
ĠFel icity
ĠKarl a
ĠBas il
Vari able
Ġasp ir
ĠSher man
Init ial
ĠRan vir
ĠFeb ruary
ĠPhill ips
- way
- Am
B oo
H ONE
K it
V en
d ig
Ġd ime
ing ing
en ame
ĠS up
ĠM oo
Ġsh ook
ĠG ulf
ĠG hul
Ġlo gging
ĠL it
ĠL ori
ĠP inky
ab ilities
ĠE go
Do ctors
Ġen able
ĠV oice
Ġnight fall
ĠCl u
Ġmess y
ump el
Ġfe atures
Ġbar b
ok ed
ĠNew ton
oul son
Ġlaugh s
ĠNik ki
Ġhook ed
ĠColl ege
Ġmic rop
ĠPre ferences
Ġcraw led
Ġsucceed ed
Ġweakness es
Ġfrust ration
Ext ra
Ġstrict ly
Ġrack et
ĠVic inity
Ġcad ets
Ġgam ble
-le vel
rane an
, will
L incoln
N G
T im
at oli
all el
Ġsh itty
ĠT arget
Ġdid nt
ĠH m
em ploy
Ġqu ar
Ġdr ums
ĠY ellow
Ġfar han
Ġprot ein
Br it
Ġdisc r
Ġpres erve
Ġve w
Ġshort s
Ġdeep est
Ġinvol ving
uk hs
Ġsal ute
gar an
Ġconst it
ĠBlack beard
Know ing
ĠVik ings
Ren ai
ĠBri ggs
ĠJess up
Figure d
Person ally
Ġnort heast
Ġbegg ar
Ġbha gat
ukhs ar
' cause
F ly
M atthias
T iny
Ġs outhern
se en
ĠS ab
Ġat least
Ġcom pens
ĠN ancy
th on
Ġstart up
Ġrun nin
Ġch imp
Ġhum ve
ĠBe ret
Ġrespons ibilities
Ġmus cles
Ġla zy
AL ICIA
ĠDec ember
ĠBor is
Ap olog
ĠPer fect
ĠAss oc
abul ous
Ġcri pple
Russ ian
Ġtorped o
Vinc ent
F iona
P ret
r ade
Ġg rill
ri gg
ant o
St ig
Ġbit ing
ĠAr t
-d a
Ġequ ation
Fr anc
ĠDev lin
Ġinterview ed
Raj at
Ġfarm ers
Ġexpert ise
Ġdesper ately
isc illa
Ġkitt y
Ġprinc iple
ĠNad u
Fortun ately
U nt
i ri
ha le
.. !čĊ
ĠA lt
Ġgu idance
ĠK ipp
Ġcl aw
As h
ĠCh uck
Ġtow ers
Ġexpl oring
Ġhor ror
Ġforgive n
Ġremind ing
Ġthr ashed
Ġunt ie
Ġflash light
Bas ically
ĠSie bert
ĠKipp s
G abriel
V irt
i hara
ent al
Ġj olly
um athi
Ġjournal ist
Ġhorosc ope
an im
Ġcan y
rif ied
ĠRoy ce
ĠSt range
Gr ay
ĠQ ureshi
g on
u wait
Ġab using
Ġ om
ow gli
ĠWe re
Ġpar se
Ġadv is
Ġcree k
Ġtransport ed
Ġoccasion al
C IA
ish ra
Ġsk i
à· Ŀ
ĠJul ie
Mon key
B enny
N at
on io
Ġj an
ĠB UT
Ġarm our
Ġsusp end
Ġep ic
ĠTw enty
-cl ass
ĠNarn ia
ĠChow k
N ort
in j
Ġy e
Ġd ice
Ġh ttp
Ġcan non
ĠG ate
That s
ol o
Ġever t
ĠCl ick
Ġnum b
uc re
Ġsing er
sel s
aur ice
Ġast hma
Ġindivid uals
ĠNev ille
Form er
Und o
Ġhem orr
Ġsurg ical
Ġbungal ow
L iving
N ell
P AR
R andall
f i
Ġt ed
ha vi
or ient
Ġp raise
ar in
Ġh t
Ġe ve
Ġsh itting
Ġany ways
est yle
ĠH err
em s
Ġcl aws
per ing
Ġcar ing
ĠV eng
oc ity
ream ing
Ġhard est
the ir
Ġdress es
Ġheal ed
alc ony
Ġled ger
itiz ens
Ġbust ing
Ġfem ales
ĠTal bott
Ġinsult ed
Ġcompass ion
Ġbru ises
ĠVar un
ĠVeng ador
C abe
D umb
F F
J an
R os
T rain
V ideo
e rella
n own
in ated
ha e
Ġd int
Ġl amb
Ġin heritance
Ġk ate
ut ta
ĠS afe
ĠC ASE
un iper
il ess
ell o
ĠD h
ĠB lo
ĠG one
Ġr ides
ĠH az
ak ir
ine z
ap able
Ġgun fire
Ġcra ving
Ġread s
unk nown
Ġfoot steps
Ġcam ps
Ġbank rupt
Ġrisk ing
ĠDel ta
rie ving
Dev on
Ġcup c
ĠMur ug
Ġbuff er
ĠComp any
Ġmanip ulate
ĠAg ra
Ġgall ery
ĠSpr ing
Ġadvent ures
Ġpenc il
Ġbarb arians
/ one
L ocal
P G
P R
S uit
h ire
m at
Ġ =
Ġc uc
Ġc ries
Ġf airies
ĠI F
le e
ĠS ound
ive ly
ĠP ym
ĠR aven
ĠR ahl
ĠR agnar
Ġv icious
Ġover run
th ought
Ġle ather
Ġqu ad
Ġsc ra
Ġtri als
Ġspecial ty
-c heck
Ab by
ĠMan i
Ġimag inary
Ġneg lect
Ram ses
Ġinvent ory
Ġpin ned
Ġscar f
Ev il
Ġrevolution ary
ĠAw esome
aza ar
parent s
Ġseiz ures
Ġna ive
Ġfuse lage
Ġoffs hore
F older
H istory
K ick
L OKI
P ray
S eth
S unny
a al
i ol
t it
Ġs ip
ve red
ĠB ear
au g
Ġal b
Ġcom ic
ul us
nt on
ĠF riend
ĠN atalie
Ġse vered
ĠSt ra
Ġad renaline
ug ar
Ġcr ook
Ġco ven
Ġweek ends
Al i
Ġthank ful
anc cho
dd as
Ġ( ?
ield s
Ġext ensive
En c
Con st
Call ing
Ġinf l
iter ally
Frank lin
Ġrac er
Ġcrowd ed
Cr ash
Ġinvolve ment
Ġenhan ce
Ġrein force
ĠOx ford
Ġpi geon
Gand alf
Ġmetaph or
- night
K im
L arge
M oses
N eck
T ar
e us
v ailable
Ġs our
st ate
Ġre ly
Ġan chor
ĠC over
Ġr ates
ig en
ab elle
ĠE y
og y
Ġcount down
Me ans
Ġhero ine
-c ream
Ġtre acher
Ġhy per
Play ing
Ġsmok ed
ĠHind u
Ġbelief s
ĠArab ic
Ġalleg iance
Ġhistor ic
Ġbarr acks
ĠDie go
Ġtrem endous
I r
S us
ac ul
ri ya
ĠC reek
ĠW ERE
ĠE mergency
ĠHe h
Ġsl aughtered
Ġcons ulting
Acc ount
Ġfro st
Ġuna ware
Que en
Japan ese
ĠVolt uri
" Without
D Y
L S
b uf
f s
is ons
ri o
ant ern
ĠC urtis
Ġab und
ĠL icense
ĠR IGHT
ak s
ĠN imah
Ġdec omp
Th ird
Ġcho ke
Ex p
Ġlie utenant
Ġbuck le
Sim ran
keep ing
Ġre wind
ry ing
Ġpl edge
ĠLion el
E mpathy
m ade
ĠP ublic
az ir
Ġburn er
ĠNik ita
_ File
m us
m ove
Ġmagn et
Mind y
ill ian
Ġhome land
Ġmanip ulated
t ron
Ġm un
ĠY ard
ĠTur key
Ġre jo
Ġcomp ile
omb at
Ġreg ularly
Ġsuper visor
Ġdesert ed
G RO
ill ain
il arly
Ġneed n
ĠK ind
Ġse Ã±or
Qu inton
uss ion
ĠGr ant
Ġmurder ing
ĠQu inton
Ġmajor ity
Ġcree p
-E bersole
Ġfurn iture
, ...
B EN
J ones
P and
Ġw ishing
ĠC CTV
ĠD ata
ĠW att
ĠJ em
Ġsp ear
Ġtr ay
pl os
Al an
Ġsix th
ĠPat na
Amer ican
Ġcal endar
resp ons
" So
. G
K senia
M u
S ex
W arden
b ad
m l
Ġt ux
Ġre ference
Ġst all
ĠM ott
ĠC ape
Ġsh ifting
Ġwor ms
iss ors
Ġbel ts
Ġmat es
Ġblood s
ma ids
fra red
Ġsub ur
ĠCan on
ĠBl ade
Ġsun ny
ĠThanks giving
ĠPe ggy
hod hara
Ġinit iative
ĠPhil adelphia
udd le
Ġvolunt eered
Ġlif estyle
Ġfrag ments
ĠBans al
. -
G ather
s orry
s ix
z ier
ĠI van
se ction
ĠD ain
ĠB R
ĠL akshmi
Ġlast s
sp eed
Ġrun away
ek all
uth ors
ott le
Ġsub mit
Ġmad hu
Bl ind
ali ber
ĠTr ue
Ġtele cast
Ġear ning
Ġpred icted
Ġban ished
imb atore
ĠInter pol
"For s
ĠfiancÃ© e
aka aran
ĠNar asimha
ALE X
Ġdiagn ost
Ġmercen aries
Ġcin ema
ĠSait o
Ġsung lasses
accept able
, but
- Ma
A fraid
K ai
M id
ll or
ing le
Ġc ents
Ġn ailed
Ġth ug
Ġdo s
ad har
Ġst eak
Ġst ashed
Ġnot ify
ĠC M
ĠC ard
ra ham
ĠT WO
ĠL over
ap or
Ġwat ches
Ġpo pped
Ġmiss es
Ġsl o
ĠDon key
Ġchance llor
uc ation
ĠAn swer
Ġchar ade
Rem ain
Ġkick s
iam ent
Ġcelebr ity
Ġtrick y
ĠPh one
Ġbutter fly
Ġcomplex ion
ĠSal as
iti ating
Ġdom estic
ĠBang alore
ĠEver deen
Ġresign ation
Jar rod
Sever al
à¶Ńà·Ķ à¶¸
adhar anga
T ig
c orn
f ell
i ator
Ġ Ñ
in ations
Ġb amb
Ġb ikes
Ġp ension
Ġth us
Ġh ockey
He art
ĠD ag
ĠB alt
ĠB irthday
ist ani
ĠP ay
Ġcom ments
ĠR ama
Ġam igo
ĠK omb
ĠK DM
ĠIt aly
ĠV ish
Ġcr ad
Ġser ves
Ġrest ored
ĠDo or
Ġdef ended
-l uck
br ush
ĠTh understorm
Ġcover t
Ġproject ions
Ġsmell ed
ĠAs lan
Ġarm ies
ĠRaj jo
Ġdiv ide
ĠEd mund
hem ina
Ġkitt ens
Ġinqu ire
rum ents
Ġcandid ates
ĠCD C
ĠStig man
ĠJess ica
ĠNagar aju
ĠKomb an
C ertificate
H o
T re
b elt
Ġd icks
Ġg utter
Ġl es
Ġth umbs
as per
ad itional
He l
ir ting
Ġcan n
ĠM alcolm
ĠG erald
ĠP arl
are os
ĠF ernand
Ġhand ler
Ġper vert
ank er
Ġdes ires
Ġlight ing
Ġext rem
Ġcross es
ON G
Ġcond ol
ĠRam irez
ĠEn joy
Ġguard ian
Ġpan icked
Ġclock smith
ential s
ĠMac ho
Ġassass ination
Ġtitle bar
anks ha
Ġbuff alo
ĠGar vey
Ġanni hil
ĠFore st
ĠNaz i
ĠThor nton
ĠAmm ulu
ĠAB OUT
I con
S hi
Ġt apped
Ġs ings
ĠI ll
ot ta
ar se
ĠL ink
oc ent
Ġsupp ress
uff icient
Re gard
Ġgra phic
ĠTr ace
ipp i
Ġpin ch
Ġpers ons
Ġmaterial s
ĠLab eaux
ĠTur bo
ĠTor o
ĠRat hod
uz uri
Mult iple
Ġmercen ary
1 12
C ir
C obb
n uts
Ġne ur
ĠG iant
ĠW reck
Ġman ually
so ever
Ġhur ricane
Ġopen ly
Ġaccess ed
ĠTHE Y
Ġrain bow
ĠMother fucker
Ġvar iety
Ġexpen se
Ġbul b
" Who
F at
S ully
d ar
or ial
ĠF R
ump h
Ġcreat es
Ġtight er
ov an
RE E
Free zing
Ġpropos ing
ĠSur ya
rak ash
Jim my
ĠSE E
Wall ace
Sho ck
Ġauthent ic
ĠIb rahim
J ud
J oy
m od
ĠP ress
ĠN icky
sh ould
Ġbed s
lie b
De acon
fr itz
ĠVan owen
ĠAlb any
ĠL at
ĠV amp
ill am
Ġlod ged
ĠC trl
R iya
R ancho
Ġapp rehend
Ġe agle
Ġkill ings
ĠInst all
s i
ĠL ead
ĠP oll
ĠJ orge
lo ise
ĠHill ary
Key s
Ġrecl aim
Aust ral
_ Print
Ġw ax
ho b
ĠM ishra
ĠT err
ĠW y
ud ents
Ġnight club
Ġdis mant
Sh ot
Ġem br
Ġconf use
ex ter
ĠSh ir
ĠZ eal
Ġcol on
Ġcook s
ĠNe gro
Ġsaving s
Ġlink s
Ġport al
Ġunex pl
Ġange ls
" Now
M ach
T Y
c ape
m aybe
Ġw ired
Ġkn ights
Ġj esus
ĠC art
ĠB an
ist rate
Ġor ang
Ġfl aps
mm a
app a
ĠIs rael
Ġbook ing
Ġdin ing
Ġrob bing
Ġcolor ful
ĠConf iguration
- ne
C rap
D irector
g irl
m al
m ill
n ine
Ġf ade
st al
ic ian
ĠS ell
ĠC ab
Ġall e
ĠB unty
ĠL atin
ĠR over
os ave
sp eak
Ġsha ving
Ġem peror
Ġforget s
Ch ill
Ġcell ular
Brother s
Max imus
Ġsle e
ĠRad zinsky
Ġdemand ed
Ġdesp air
Hard ly
ĠSch ultz
ĠAS AP
à¶» à·Ĭ
Ġinha ler
Develop er
ĠKrag le
7 8
D irectory
G RE
G usteau
M onsieur
N epomuk
ĠI will
at on
im eters
Ġne ural
ĠC ry
ĠG as
Ġlo gged
Ġman iac
ĠP romise
Ġpl umb
ĠK ir
Ġbo iling
Ġen mity
ull ivan
In itiating
Ġper il
Al ison
Ġstand by
not hing
Ġinc on
Ġdet ector
Ġtri ps
Ġtrans formed
ĠGr unts
Man i
Ġappro aches
Ġelect ed
Ġprocess or
IC H
Ġgirlfriend s
Ġguard ing
Miss ed
Ġyell ed
Follow ing
Ġgenius es
Ġtear ing
Ġtag s
Ġquant ities
Ġpean uts
ĠBhar ath
Ġmel ting
ĠDur ga
ĠKn ock
Fore ver
Ġsock s
Ġscre ec
Ġenhan ced
ĠStat us
9 6
B ear
M ars
T inker
c ient
s omething
u er
Ã £
Ġm uff
ar ct
ar ah
Ġbe am
im ized
am ora
Ġst adium
ch in
ĠT ho
ĠD J
ĠD warf
Ġr ays
ĠH ost
ĠN ah
ĠK iss
In valid
Ġreal istic
aw k
Ġatt ending
Ġser vers
Ġmom s
aj a
Ġres olution
Ġfollow ers
Ġinst ruments
Ġsim ulation
12 5
irt een
ĠUn less
Ġmot iv
App reciate
ĠSy mbol
Ġharm less
Stand ard
Ġemploy ed
Tw ice
Ob ject
ĠLady ship
lim ited
Ġshr imp
Men u
Ġunderw ater
Ġkidney s
Ġtact ics
Ġspr ink
Ġdish on
Ġproduc er
ĠVill age
Ġphen omen
Ġalp ha
Luck ily
Ġappet ite
ĠClar ke
Ġbamb oo
C actus
D rag
G RACE
L O
S ize
f are
y ster
Ġm oust
Ġb isc
Ġf iction
Ġp est
id ia
ut ney
se id
The a
ĠM ith
ĠM ord
ĠG oogle
em aker
act ic
Ġsc oop
Ġun re
Ġhome less
ĠY a
Ġfew er
ush room
ph ones
IN K
Ġoffic es
ĠSc heme
Ġboss es
ced es
Ġart ists
ousand s
Ġpost p
ĠTell er
ĠAb hi
Im lay
Ġchair man
Chan g
Cons idering
Ġalco holic
Ġsmugg le
Ġbarbar ian
Vik tor
ĠSud an
" but
- Thanks
V alentine
ha ke
as ions
ro be
ĠS in
ong s
ĠK arthik
ĠSt eadman
Ġmove ments
Ġres id
10 8
Re venge
no v
ari um
ĠX andar
ĠSer ver
Ġvol tage
Conf irm
AM P
Ġfunction ing
Ġsew er
Ac cess
Ġsacrific es
Ġtravell ed
Ġsaf est
Ġenqu iry
Ġcongrat ulate
anccho ddas
- j
C ra
C reat
C ute
H alt
P an
Z ip
g ence
o ah
p re
Ġp ent
Ġbe friend
ĠB us
ĠL ance
ĠH alf
ĠYou ng
act ions
Ġte asing
ĠOh h
aur us
Ġsupport s
Ar m
ĠDev ice
OO PER
Ġchamp ions
ĠPal ace
ĠPre view
ĠDa anish
Ġindepend ence
Ġmand atory
Arab ic
A f
D un
D anger
P hoebe
Ġl ens
Ġp end
ĠH oll
ĠR et
Ġapp rent
vent y
Ġadv ocate
do es
Ġreb oot
Sy dney
bb ie
Sat ell
Ġlung s
S ni
r iss
ĠH end
be fore
Ġblabber ing
Ġsuppl ied
- ...
P ink
f ive
ĠD emon
ĠW itness
ang ing
Ġshoot s
Ser ver
ĠAir b
Krish na
itent iary
Ġlo ans
Ġsa ree
Ġcon quer
Ġz oom
Ġappoint ed
Ġcar bon
Ġw ag
Ġcell ar
Ġcollap sed
Ġwret ched
S aint
et ta
ĠP atel
Ġsen ate
w ad
an ne
Ġr ug
ĠH uman
ĠK id
Ġra bb
Ġfail ing
ĠPro ctor
Ġz ip
Ġpost ers
Ġign ition
ĠSn ake
ĠBi har
- run
A man
P E
P ract
S uck
T ak
er i
om my
st ruct
ch ron
Ġsp lin
Ġinto x
Ġfl ick
Ġel ite
ĠRam sey
-w ho
Ġmisunder stand
Ġexperi encing
-How e
Ġbru ise
Ġupd ates
Ġvic inity
Ġnort hern
Ġpengu in
" Our
" Jai
B itch
d og
d ont
i ples
p ri
p ea
Ã ĩ
Ġfor ty
ĠS omal
Ġlo ft
ist a
ĠP helan
um ans
ĠF all
Ġpe acock
Br ace
Ġgrand daughter
ĠAm berle
ĠAs ia
ani ard
Ġtight s
Ġlim bs
Ġfinger print
Ġsoc iop
Ġhol ed
ĠJo han
CH UCKLES
Down load
ĠCr own
ĠPet ra
Ev ac
Ġfright en
Ġconduct ing
Tem per
Ġeclip se
' That
E E
E w
I ll
S hankar
_ Copy
Ġm m
is y
Ġl ac
Ġsh orter
ĠT aggart
ĠT rettel
ĠB ug
ĠG ammy
ĠW ick
ĠH obb
ĠF eds
Ġpro stitute
ĠN ed
ĠN apoleon
St u
Ġtry in
mer ald
Al abama
Ġcha m
als amy
ane ously
Un ited
Ġexpect s
-c han
Ġcol onel
Ġrecord er
Ġsuggest ed
Ġearth quake
Cha ndu
ĠEn vironment
Ġfreak y
Ġfund ed
Cor por
ĠAnj uta
ĠGuard ia
ashion ed
Ġdent al
Ġrail way
Dam mit
ĠDomin ic
Ġlegit imate
Ġpic nic
ĠMoo re
- ey
B row
H ook
N arsing
l via
v ial
Ġt ant
Ġw it
on f
Ġl ads
at handavam
Ġof you
ri ev
ĠC aleb
ĠT ar
ĠD er
ĠR and
ĠR aul
ĠK GB
ĠE L
ber n
Ġac ademy
og raph
ĠU ntil
Ġdec imal
Ġpret ended
Ġext end
Ġpres um
Ġcool ing
ĠSam my
kes h
Ġsteal th
Ġident ities
ĠMiss iss
Ġroll s
Ġmaster piece
Ġsusp ension
Ġcustom s
Ġclock s
ĠIndian a
à·ı à¶´
Ġdebt s
Ġrefer red
ĠSE C
à·ĥ à¶Ńà·Ķà¶¸
ĠPan em
ĠTool bar
Ġautog raph
ĠCorpor al
Ġcul pr
Ġple a
"Fors aken
à·ıà¶´ à·ĥà¶Ńà·Ķà¶¸
, it
F BI
J ed
K ent
j an
j ar
j orn
n um
Ð ¸
Ġc oded
Ġg reetings
ar cer
Ġh ut
ay as
Ġha zard
ĠD atabase
hy me
ĠL ena
Ġback ed
ĠP avalamalli
ĠH istory
ia o
ĠV ict
Ġfl ush
ict ures
Ġch illy
ĠDr ink
Per mission
Ġsuper b
Ġdro ids
ON D
ĠMor se
ĠMor gan
Ġcup s
rel ated
lor ia
ĠAna stasia
Ġdanc ed
Sur v
ĠWil hemina
ĠCy bert
ĠCle o
ĠInt o
ĠDoug las
ĠSpir its
ĠDet ails
Ġterrif ying
ĠNE VER
Mat thew
Ġinfilt rated
Ġmemor ial
Barb ie
Ġalgorith m
Ġcondol ences
Ġmoust ache
" Like
' H
- ah
A ravind
D aughter
F unction
K ubo
M aggie
R osa
R apunzel
v at
Ġa ku
Ġp hantom
Ġo af
ar ming
Ġth rive
ri x
Ġli ars
ĠT as
rom ethe
ĠG hajini
ĠP ant
ĠP ellets
Ġv ial
pl ified
ever ly
Ġsl opes
vers mann
Am anda
Ġhang ed
ĠAm jad
Ġum b
Ġchick ens
Ġpun ishing
ĠyÃ¶ur s
Ma isey
Ġgreen house
Add itional
ĠMad ame
ĠBab ii
ĠAust in
Rec ently
Ġuniform s
-st op
Id iots
Ġbeast s
Ġplain s
Ġphotograp hy
Fitz ie
Ġeval uation
Ġincomp et
" that
1 10
L ing
L aaa
P resent
p ian
Ġf aking
Ġre open
ĠM ot
ĠW heel
ĠH imal
ĠF A
ick in
ap ata
Ġen ormous
Ġel aborate
Ġper mitted
Ġsur rend
Ġrest art
Ġcount ed
Qu ill
Ġbag gage
Ab ort
Ġsmart est
Ġref lex
Ġtravel s
Wh ist
Gl obal
Ġprec ision
Ġrup ee
ĠCas pian
ĠEN COM
Bat tery
ĠLo is
Ġgro cer
Ġcryst als
ĠBaj irao
Ġsurrend ered
A ri
M agn
b un
m ap
y eah
Ġc attle
Ġal together
Ġshe ets
ount ered
up s
Ġres olve
Ġfire power
Ġmill ig
Ġtrans action
Ġyoung est
ĠFor ces
Ġdev oted
Ġprocess ed
Sm ells
Ġenc ountered
sen al
Ġcustom ize
Ġdetective s
Ġsett ling
ĠMem orial
ĠSA ID
. **čĊ
I B
i gel
p in
Ġc avalry
Ġp ending
am ine
ter ior
ĠO din
ĠN AT
iv il
Che tty
Per cy
Ġille g
B eezus
Ġn ations
ive nd
ĠF estival
Ġbid ding
Ġanticip ate
Ġmes mer
ĠGott lieb
ĠA eg
ĠMil itary
Ġmagaz ines
us cript
A H
R ise
il er
ĠEmm et
o xtrot
he ther
Ġshock ing
Ġpsycholog ist
-F i
- Stop
e ering
ce iver
Ġas pect
Ġbar ric
Ġident ifying
ĠMir anda
Ġvari ables
Ġdiab etes
B ER
R ing
R ather
V ika
_ e
Ġl id
ĠD iaz
ĠP oly
ib al
At l
Ġcontain ing
ĠEd itor
Ġmid st
Ġpul p
Ġimmig ration
Austral ia
F ox
N ur
O ptimus
P arty
T ech
r oo
Ġ q
er ving
ĠG erm
Ġr ation
um ns
Ġex otic
ĠN a
ĠN iger
ag an
Ġsc am
ĠV ince
ĠV lad
Ġsl im
Ġsign atures
Ġpay ments
Ġmed als
Ġsub stitute
Ġred emption
AT E
Ġbelong ings
-p ound
Ġsens ible
Ġcand le
ĠOlymp us
Ġcorps es
Ġware house
Ġmathemat ical
- Sir
- Wait
F O
F ifteen
R U
S S
S und
S eenu
W estern
z og
Ġt ens
Ġd azz
Ġc uckoo
se a
all ur
Ġj aw
ĠW OR
ab ol
ĠH OU
Ġra ils
Ġco aster
aj i
Ġcho res
Ġfire flies
Un s
ĠAl mighty
Ġve t
-b reed
ĠWait ing
Ġguard ed
Ġshirt s
ĠCont act
ĠHer mes
ĠLou ise
Ġqual ities
Ap ril
ĠDef initely
ĠPit ambar
ĠTa ha
Ġpor ch
Ġincor rect
- ch
F ate
G ee
H obbs
J orge
M ot
S ending
r ine
Ġs inking
Ġs outheast
Ġb alcony
Ġf erry
im m
Ġat roc
ĠB in
ĠB ir
ĠW anna
Ġsp itting
ĠN ana
Ġbl iss
Ġsc andal
Ġsc issors
Ġche aper
ps on
ott o
ib an
ĠGo ing
Ġsim ult
Ġhero ic
ĠPr imatech
Ġsol ving
Ġbas es
Ġhun ters
Ġunc les
Ġview s
Ġobs c
Ġann ounced
vey ard
ĠLau gh
Ġmurderer s
ï¬ ģ
Ġflu ids
Ġarg uments
ĠDef ense
Ġgest ures
ĠCir cle
Ġbureau c
Dem ons
ĠWonder ful
Ġterr ace
Ġsincere ly
Ġtal ents
Ġparach ute
" Papa
7 6
C hat
C ity
F ol
F eed
M ouse
R akesh
T han
U k
Z ach
g ling
m ens
Ġt an
Ġt ig
Ġd orm
as i
ri ef
He h
ĠC up
ie g
ĠF ood
Ġam m
Ġnew est
Ġpo et
Ġsur ge
Ġbus es
Ġdest ruct
Ġtrans missions
Ġmem o
Ġins ert
Ġir ony
Ġsil k
Sm iley
Mother fucker
Ġdevelop ers
Ġamb ition
nes ota
ĠMary land
ĠCass andra
Dest iny
Ter rible
Ġtempor arily
Fle ece
Ġdownload ed
ĠNor way
Ġdeb rief
Ġfaint ed
ĠSand ers
Ġdistrict s
ĠChamp ak
ĠClau dia
Ġroo ft
Agn es
arct ica
- or
G ift
H ung
L u
O VER
b irds
Ġ Ä
Ġw hi
Ġc ages
or f
Ġst er
her ited
ĠM ah
ĠC arn
ĠD arling
ight ed
ĠB reslin
Ġif s
Ġex ile
Ġsp inal
ĠF U
All ister
ĠWe ather
Ġdis pose
Ġbu bb
Ġcomp at
Ġch utney
Ġinc arcer
alm on
Ġred eem
ĠBe ing
-s c
Ġthrow s
Pl ugin
Ġpop corn
ĠAny body
Ġchat ting
Ġtour ist
Ġwid ow
Ġtub es
ĠBon nie
rac eable
Wat ching
Ġreinforce ments
" :
' No
- pl
B ow
C arter
F ill
F ell
R ide
v ar
z i
ĠI G
Ġo ak
id get
The me
ro it
ĠB renda
end id
ĠH ERE
Ġcon sp
Ġex quisite
ĠO p
ĠN epomuk
pl oad
ĠHe ather
Ġhand ing
oll um
ĠSt ory
Ġte ase
dd ing
Ġdef ence
Ġvis hal
Ġve il
LL Y
heart ed
ĠMin ho
Sw ap
Ġann ual
ĠChan nel
Ġcro ps
Ġbutter flies
Ġliter ature
Ġalt ar
ĠBrand on
Ġlegend ary
Ġtoss ed
Ġvolcan o
ĠAcc ount
Ġprescri ption
B har
B orn
B ane
C old
Ġb ik
Ġst itches
ĠS iva
Ġwhat soever
ĠD obbs
ĠD avis
ĠB ol
Ġsp ac
Ġpro be
ĠN etwork
Ġam nesia
ump y
Ġchar ts
Ġur ge
Ġlog ical
ĠJew el
ĠLu is
Ġcomed y
Ġrapid ly
Ġdelusion al
Ġneighbour hood
Ġhandwr iting
ĠTrace ur
G imme
P ost
S pr
ha ri
Ġd u
Ġe astern
ĠD ollar
ĠP in
ol ine
oc he
oc co
Ġplay ground
à· ļ
ĠSec ure
ĠEll iot
ĠCass idy
Ġlam ps
Ġing red
Ġalleg ations
ĠLiber ty
K al
Ġk amu
Ġkn eel
ĠS ig
ĠC ost
ĠYou th
Ġv itals
à· Ĳ
Ġcal ib
Ġli zard
Ġcant een
ap est
ĠU ser
Ġprogram ming
ĠSh ift
r ors
v oy
ĠR as
Ġmis c
ĠAss istant
S epar
c as
Ġover time
Ġmar sh
Ġcompl eting
Ġdra st
Ġrespond ed
Ġreck on
ĠCom tron
ĠScot land
Ġrabb its
C ash
P ositive
ĠM as
ĠM ika
Ġacc use
Mo ab
ĠDen ver
" God
_ Search
Ġl ining
Ġhe el
ĠD resden
ĠP art
Ġpro duced
ob i
Ġun icorn
Ġwalk ie
ets cape
Ġtrans plant
Ġgain ing
Bra ve
ĠGold en
ĠStan ley
ĠWat ney
' Am
P ity
T ight
T ARS
W ELL
_ Open
b illy
h im
j ud
r in
Ġd ash
Ġd aring
Ġp ager
Ġre inst
ĠT oto
ĠB hairava
ĠL oki
ĠP icky
ak k
Ġpre st
Ġdis orient
oc a
Ġhouse hold
Ġgun man
ru z
Ġch in
Ġcou rier
ph us
Ġconc ussion
Ġgener ate
Ġfit zie
with out
Ben ji
Ġbi ology
Ass uming
Ret reat
ĠMir ror
Ġmal vika
hall a
ĠDeep thi
Ġpurcha sed
Ġdipl omatic
Ġbeep ing
Court ney
Ġenthusi asm
ĠRea gan
Ġincon ven
" D
H ay
H enri
J ew
S andy
S pencer
T hai
W orth
d oor
Ġt ucked
in um
Ġy og
Ġb orders
am ple
He ight
ĠS AY
ĠS athya
ĠM LA
ĠC ord
ch y
ch uckles
ĠD um
ĠB h
Ġsa kes
ĠW OULD
ort ex
per ty
Ġun att
Ġcr ust
iv ai
ru ly
ĠCl ay
Ġres ched
Ġpay roll
Cl oser
ĠIn quis
ĠChar lest
inc es
Ġtown s
Ġrep ublic
-f ashioned
what ever
Ġcontin ent
Ġinvol ves
Ġequ ations
ĠMark ridge
Ġcamer aman
eez ar
Ġwarning s
Ġemploy ment
Ġtrad itions
Comp ile
Min ho
RL F
ĠOb ama
Ġax e
ĠId iot
Ġprem ises
ĠLing aa
ĠFound ation
Ġloo sen
ĠHook er
Ġextort ion
ĠMant lo
Ġhemorr ha
ĠInquis itor
0 8
L ING
N andini
S earching
b orns
g ars
h um
n an
p ter
t oday
Ġs ect
Ġm ushroom
it ational
Ġc rop
en ough
Ġp oo
Ġp ony
om aly
Ġan omaly
ho s
ĠD up
Ġthink in
Ġneed ing
ĠR ukhsar
um er
ĠK ash
Ġbl aring
Ġun employ
Ġwr ites
ĠV allon
Ġpo inter
Ġgr acious
Ġcle ars
aut am
Re ese
Ġtri vial
Ġcoll ateral
Ġgrand parents
Ġdist ingu
Ġve ter
ĠTh ird
-in ch
tt i
irm ative
Ġemer ald
off s
ĠSw itch
Ġpred iction
OS E
ĠAnn athandavam
Ġdesktop s
ĠDark seid
Ġdim ensions
ĠPort land
Ġrecommend ation
ĠAgn i
ĠTang aballi
Ġdistinct ive
ĠDol an
Ġtrump ets
Ġpear ls
ĠLevi athan
ĠMurug an
Fol ks
' It
- ?čĊ
A udio
B ay
B ottom
F rench
L ot
M erry
T E
T aylor
U AD
W orse
d ling
s hank
Ġb icy
ĠI v
ow kes
Ġp airs
Ġp andu
Ġh ills
gh u
ĠS asha
ĠC ah
Ġsh ipped
ĠT ravis
ĠT apasvi
ĠB ow
ĠP erk
Ġcon qu
ĠF aster
ĠF owkes
Ġint ake
Ġse ized
ew ey
og en
av ius
Ġstr ung
Ġacc omm
Ġres ulting
Ġfr ames
arl in
Ġcor on
ĠAn ne
IN CE
Ġdist ribute
umb aya
Act ing
Ġsil ently
ĠX ML
Cha udhary
Ġsens ation
ĠNe il
ĠAh h
ĠNik ol
Ġprec aution
AM E
Ġelev ators
ĠDam odar
Ġju venile
hatt u
ĠEgypt ian
ĠHob bit
ĠBhar athi
ĠOl son
Ġsubst ant
Hall elujah
Ġscreec hing
UAD escription
ĠPerk ins
Ġaccomm od
" Every
8 9
B ingo
L iterally
T ube
c od
l ink
Ġa ston
Ġthe sis
ow ing
Ġp u
Ġh ollow
as ant
Ġk de
im its
Ġan th
ĠS WAT
il st
ĠD AR
ĠB ent
ĠH IS
ĠF er
ven ko
Ġqu itting
Ġmin ing
Ġrun ner
ins ka
Ġgl ue
ĠGet ting
ĠAn atoli
Ġfast en
-c ent
Pl asma
Ġterror ism
Ġsal vation
John son
Ġthr ash
ĠPat ty
Ġdisappear ance
ĠCont in
EA KING
Ġsle eper
Ġsneak ing
Eng age
ĠSan ct
Vas ee
ĠVir aj
Ġtast ed
Ġteen age
Ġdepend ent
Ġdemonst rate
Ġscre ens
Ġforens ics
Ġphysic ist
Ġven om
Ġhik ers
Sen ator
Ġgau ge
angar oo
Ġunl ucky
ĠParl iament
romethe us
" Tonight
G aj
S id
U G
f y
y stem
it ji
Ġc ement
Ġn ause
st ream
Ġwe e
ri ers
Ġfor k
Ġst ench
ĠM att
ĠT ul
ĠB ed
hi er
Ġle an
ath on
Ġgr oo
Ġgr asp
Ġsw arm
ĠY vette
Pro cess
ĠGr asse
Ġpar amed
Ah hh
Ġcamp ing
Ġsqu ir
Ġweak er
Ġur ine
Ġdiv ided
Ġmask ed
Ġver ge
Ġlf you
ĠDun ham
Ġdock ing
ĠTem ple
estruct ible
ĠWitch craft
ĠSk ye
ĠShark bait
Nam aste
Ġpotent ially
' ka
G U
R EN
S IGHS
t alk
Ġm i
gh dad
Ġcan vas
ho k
ĠA leya
Ġso le
ĠL EA
ĠR udi
are crow
ĠJ AP
oc ious
Ġdet er
Ġcoll ision
Ġwin ners
Ġwond ers
Ġeng lish
Ġlist s
Find ing
Ġkidna pper
Ġinvestig ated
Ġblind ed
min ent
El aine
ĠLy cans
ĠBor by
Carl a
Ġrequire ments
ĠComp uter
ĠJan uary
Wid th
Ġcraz iest
Virt ual
Ġapprent ice
ĠJAP AN
' ...
- Right
S orted
p ack
r ates
Ġc rem
Ġmet ro
ĠDon ovan
pr ises
Br ad
umb ers
Ġsmell ing
Ġrout es
ino is
ĠMark et
ĠInt el
ĠAp ollo
Ġpuzz les
Ġfisher man
S illy
Ġdo d
ĠS eptember
ĠE le
zy k
Be ethoven
Ġsupposed ly
Ġmed ium
Ch oudhary
ĠSha ggy
Ġali as
Ġtool bar
Ġdece ived
Ġexperi ences
rc zyk
ĠAeg is
ĠBl ake
war am
ĠP ic
S achin
Ġman uscript
Ã© s
ĠD ubey
ew are
Ġtrans ceiver
ĠInd ex
Ġlab s
aa aa
Ġsched ul
Ġimprison ed
F oot
ĠJ ur
Ġacc ord
Ġsave s
ins on
Ġri bs
Ġpres ume
Ġprov iding
Fr iday
Ġobs ess
Ġbetray al
Ġcontract or
Ġevac uated
ĠSund ays
Ġconsult ed
-e ight
Ġpier ced
Ġpenet rate
ĠLank a
Ġorang ut
" Get
- V
- work
B er
O riginal
ĠM ORE
ĠC hi
ĠG y
ĠL amb
ĠH ab
ĠO uch
Ġv oted
ĠK ents
Ġpe pper
ish ment
Ġhand over
Ġfl urries
Ġsm iled
Ġmo ons
omm un
Ġreg ulations
AL K
US A
Ġassass ins
ĠIm lay
Ġsew ing
Mil itary
sir is
ĠSub ject
Ġawait s
ĠCat aleya
heim er
" "
- Your
6 2
G ang
K enny
K ES
P age
T s
T ags
W ade
b led
w rite
in ning
ha vior
Ġd y
Ġg y
Ġh omet
Ġin land
We ren
Ġli a
ĠM atthias
Ġall ergy
ĠA gree
ind i
Ġlo go
ak ov
qu een
Ġover se
th ouse
Ġlea gue
Ġqu ack
Just ice
Th reat
An u
An gel
Ġstand ards
IN TO
AR Y
Ġgra veyard
Ġless er
ĠSam ar
Ġworks hop
ĠNe ither
Ġtrigg ers
Ġelder ly
Ġboo bs
ĠSol omon
Ġflood ing
Ġbid der
Carl os
Supp osed
Ðµ Ñ
HE Y
Inc red
Ġinsect s
Ġhomet own
" Look
K aran
M un
N ancy
P UT
c ore
it an
ow ards
ed o
Ġst ack
Ġst ature
ir ms
ĠS ullivan
ĠA in
ĠD M
ĠD i
ĠD OWN
ĠB eth
ĠG OOD
ĠW ars
Ġlook out
ĠN eck
If s
ĠE X
Ġcl erk
Ġsc attered
old ers
ĠV ickers
av de
Ġcomp ar
Ġsw amp
Ġsy rup
Ġmist ress
Ġcur few
19 0
-f oot
-m ade
ov al
iff s
ĠWall aby
Ġrent ed
Ġblackmail er
Ġintercept ed
ĠBarb ara
ĠLeon ard
uli ar
Ġcounsel or
Ġfeather s
Ġbluff ing
ĠHait i
-cont rol
Ġpron ounce
ĠBlo om
Ġyog urt
B ast
C ongrats
F ur
N ana
P hys
P iece
V R
a o
c har
i ency
Ã ¯
on in
Ġm ichael
Ġm ales
ĠI Q
st rong
im il
ic ode
ri gan
am ant
ĠC OULD
ĠT anner
ĠB oom
ĠN u
ĠK oz
Ġmin istry
Ġfl irting
ile e
Ġsha kes
Ġrest ed
ins ki
Ġface book
als a
Ġvis ibility
ĠGr unting
rist o
ĠTh om
Ġvill a
Am elia
Ġind ulge
ffect ive
Ġord in
Ġmain frame
ĠTr ash
Ġcat al
.... ....
Ġimm ense
Ġtrick ed
LE Y
Ġshift ed
Ġgrav itational
Ġmole cular
Ġpolic ies
Ġton ic
Ġpow ered
ĠBon zo
Ġgreet ing
Import ant
yl um
Ġsham eless
Ġmassac re
Ġmarty r
Ġslo ppy
ĠKash mir
5 7
A ria
C op
J ob
P LE
_ Update
l n
Ġw estern
Ġm ice
is elle
Ġd ots
Ġc ot
en stein
ow der
Ġo g
Ġin hal
ic able
Ġst roll
ion age
Ġwhat s
Ġout rage
il k
ĠB io
ĠL ange
ĠH oo
Ġsc avs
Ġyear n
Ġhand les
ĠSt yle
Ġche ers
Ġbus h
Ġsl ice
Be ans
Ġinv incible
alt z
Ġstate ments
Ġmain land
Ġarm ory
OR N
ĠEm ir
ĠAb by
Ġroll er
Ġsad ness
che mist
Ġtun ed
Sing le
ĠMal hot
ĠUS A
ĠPhil ip
Min ister
Ġfianc ee
Ġjournal ism
Ġclown s
Ġpac emaker
Ġcru ise
ĠBec ca
ĠWoods man
obody ne
Ġhumve es
Brow se
D ur
D irect
K S
R ascal
Ġy ield
Ġd angers
Ġd ucks
Ġon wards
id on
Ġout run
Ġab duction
ĠJ r
ĠO ak
ĠO ishi
Ġbo ll
pl aced
Ġmat ure
Th ousands
uff er
Ġrep airs
Ġpar al
Ġhair y
Ġspend s
Ġprocess es
Ġagree ing
Ġpig gy
Ġblast ed
Ġrub bed
Ġrub bing
Ġunf old
-e ye
ĠPak istani
Ġpup ils
Ġtherm al
ĠVasee garan
Ġbacter ia
Ġcarn ival
ĠEy wa
' My
- air
M ex
Ġs unk
ĠI r
en ching
as ive
Ġre venue
We apons
Ġwait in
Ġsl ipping
Ġsent enced
Ġland mark
Ġdisapp ears
Sc arlet
uk h
ring e
ĠPat riot
Ġest imate
Aut omatic
Ġdemand ing
Ġeld est
Bu ilt
Ġregard less
Ġdeport ed
Ġcorne red
Ġfou nder
' How
D D
t itle
Ġto ken
et le
ar ama
ri ly
ch ie
ĠT ELL
Ġbr ides
Ġim minent
ey es
Ġspl ash
Ġfocus ing
Ġprepar ations
ĠCru ces
Ġsty les
Ġtraff icking
Ġmarvel ous
w ang
ĠR iz
Ġact ress
Ġgrand dad
Ġaw aken
Sp ace
ĠCol son
Ġtun es
Ġroyal ty
n ia
ĠTHE M
hod as
ĠF reedom
ĠTri xie
et on
ĠRas ool
- Shut
r n
ĠH ong
Fl int
ĠVethal a
E vey
r ics
ĠJ ob
Ġpro x
Ġhapp iest
Ġar mored
ĠRe f
Ġorder ly
Ġsurvive s
De on
ĠHar vard
Ġhall s
Same er
ĠTurn er
ĠJay e
Ġfrequ encies
ĠShould n
ĠHay es
Ġexhib ition
H OW
M alekith
b us
n at
p erson
Ġt ents
Ġf end
st ock
ĠR up
ĠJ am
Ġcon ting
ĠF alzone
Ġad mission
Ġpat ron
light s
Ġexam ined
Ġscan ned
Ps st
" Leave
- me
G ib
S ire
T icket
m ax
Ġp ellets
Ġnot orious
ĠM aurice
ĠA ge
ra ine
ĠG RE
Ġman aging
Ġpl ight
um way
em an
ĠE h
Ġcl am
ĠNo v
man ned
az on
ĠSh umway
Ġpain ter
Ġleg ends
Pre ferences
Con cent
Ġaccount able
Ġbeha ved
ĠCon nor
Dis patch
Ġsuck ing
ĠPl us
Del ta
Ġdistract ing
ĠGuard ian
Ġsew ers
Ġconduct ed
Ġbang ing
Ġsav ages
Ġorg ans
Ġdeploy ed
Ġcocks ucker
Ġacquaint ance
Ġsociop ath
, s
. U
H orse
K ali
d el
f ting
g ones
h or
Ġa isle
Ġd up
Ġd rought
Ġl emon
Ġn i
le ash
ut ions
We ird
ĠA ff
ĠB ishop
ge y
ĠL am
ĠL ester
Ġsee ks
Ġde br
ĠP avel
ol ent
ĠF ool
omet ric
ĠN ardin
Ġbl unt
Let ty
we re
Ġtra ject
Ġra z
Ġsw ift
ĠLet icia
Ġcha l
Ġsk illed
ĠAl bert
Ġgra pe
Mom ent
Ab hay
Ġfear ing
Ġsuper iors
Ġcond em
ĠLe h
ĠMay fair
ĠDan ish
ĠBab e
ĠMother land
Ġpregn ancy
ĠRon al
Mon ster
Ġdistract ions
Ġban ned
ĠSuper star
RA W
Soon er
Walk ing
Ġheight s
Ġdece ive
Ġquarter back
Comm it
ĠMir az
ĠMic key
ĠMu lder
à·ĥ à·Ĭ
Ġsem ester
Ġglow ing
Ġfors ake
Ġdelight ful
Ġje ans
ĠPent agon
Ġmaneu ver
pea re
Ġdebr is
- gen
C ough
G ross
K onqueror
L icense
W ood
c rys
h ill
l isten
l ance
m id
m outh
p oses
Ġt weet
Ġc ope
ĠS IM
ĠC ON
ĠC hop
Ġas ylum
ĠB alli
Ġr ational
Ġal um
Ġman agers
ine ph
ĠF a
Ġtr ink
ĠE TA
ound ed
ny a
ang ee
ĠV O
Ġmust ache
Ġad amant
Ġsur vey
ĠU K
oth uk
Ġsl ut
Ġem pt
ev ie
ĠAn illo
Ġdi ving
rist ina
Ġsick le
Pe eta
Ġoper ated
Pre c
Ġind icates
ĠPro file
Ġaccount ing
**** ***čĊ
Ġopportun ities
Talk ing
ĠEll crys
Cur se
Six ty
Mon roe
Aut om
Aut ob
ĠOther wise
Ap art
Ġlif ting
ĠSister s
Ġric her
Ġtermin ate
ĠHun ter
Ġdepos ited
ĠRag hav
ĠMalays ian
Ġmatt ress
Ġpec uliar
Ġresemb lance
ĠDaw son
ĠTho othuk
-ey ed
Ġsimult aneously
ĠCharlest own
ineph rine
ĠThoothuk udi
, k
9 00
C amp
C alc
D ifferent
G reek
I AN
N ishant
b irth
n ut
t ter
w ear
is en
er oy
it ations
id o
Ġe arl
ĠS amp
ĠC airo
Ġright ly
Ġright eous
Ġr ascals
ĠL inc
ĠH ooper
ĠR usty
Ġpro ving
Ġtr am
ĠK un
ĠK ov
ĠE li
Ġbl ur
iz ations
Ġ' -čĊ
ĠSt ick
In tern
ail or
iv able
Ġatt ended
Ġch uckles
Ġfire wood
Ġret ro
uc ing
ual ity
ĠAl chemist
ĠAr nold
ĠPro v
ĠEx cellent
Ġinvest ors
Ġcontin u
Ġtick ing
ĠQu ince
ĠFl oyd
add am
ĠMin nesota
ĠSer gei
back s
Ġchallen ges
Ġmeaning ful
ĠWas n
Ġprevent ing
Ray na
ĠPort ug
hot ri
ĠVet ri
=\\\\{@ }
ĠEmm a
Ġaccomp an
Ġque ens
Steal ing
idel ines
ĠBass am
Pol it
Lib by
Jose ph
ĠPunjab i
ĠSad ov
prot ected
itw icky
ĠLit venko
Ġcham bers
ĠMississ ippi
ĠAgni hotri
ĠCah ill
Ġearl iest
B aah
J OSEPH
L aren
W his
b as
d ro
k op
Ġt el
Ġg ag
ar re
Ġof your
Ġk au
ut t
Ġli ver
ĠM D
ĠT erry
Ġr att
Ġal ison
ĠP ed
ĠJ obs
Ġex fil
ick er
ĠO ri
Ġv ile
ĠK ot
Ġen list
Ġqu ot
ĠWe ibo
ĠSt ones
Ġmust er
Ġte quila
Ġcr ashes
Ġcount less
Ġsk ipping
Ġsent iments
ction ed
ef ario
ĠAmer ika
Man us
-s ook
ĠAm azing
Ġbri bes
ades h
Ġboard ed
ĠAb lix
iam ond
Ġtur key
De unan
ĠDev il
Ġchamp ionship
Ġuns uccessfully
Ġrestaur ants
Ġregret s
Ġtrail er
ĠSol aiyur
Meet ing
nam on
Trans l
Ġwra pping
ĠForm ics
Ġhes itation
Ġdomin ate
Ġairl ock
Ġeconom ic
Ġevey one
ĠCat holic
ĠScoo b
Ġren ew
Hasn at
Ġbuzz ing
Mus ic
ĠSelect ion
Ġblindfold ed
ĠMaced onia
ĠSem ak
mens ch
ĠBio k
ĠAblix a
, Michael
- To
B C
F ield
L ines
S atan
_ _čĊ
t il
Å Ł
he et
Ġb itten
Ġh ose
Ġbe ak
ld ing
ĠS uch
ec raft
ĠT ully
ĠD ian
ĠG ould
ĠL aila
ĠK senia
Ġbr at
Ġle opard
ose idon
pt ical
Ġro ots
irst y
In n
ĠU din
Ġrel iable
Ġcur ve
Ch in
ĠMar co
Ġind estructible
Ġfil ing
ĠChe mist
Ġpop s
Ġcontain er
Ġgang s
Ġexcept ions
Ġblank ets
ĠIm age
Ġobl ast
La unch
ĠHob art
ĠPind ari
ĠCourt ney
ĠChamp ion
ĠKel ty
wh ite
Ġfel ony
Ġoverwhel med
ĠTempl ar
onne gan
Ġpharm acy
ĠLover boy
Ġmillig rams
ĠUdin ov
/ Date
Ġm erry
id iot
ĠH etal
But ton
are well
Ġreal izes
Ġhead line
iv ian
Ġfire arm
Ġpay check
Ġdist ribution
vest ig
ĠAs ian
off roy
Ġvac ant
Ġcred entials
Ġslight est
ĠNic olas
ĠMic hel
Ġinspect ion
Sant os
ĠBrah min
Ġdepos its
Ġhaw k
ĠNat asha
ĠBeret s
ĠJAPAN ESE
- Did
4 50
C trl
P ublic
a unt
Ġf abulous
ĠI V
Ġare na
her d
ĠC ulture
In ner
Ġdis o
Ġsw itches
Ġwom b
Ġbreak er
Ġreg roup
Ġred und
arr ing
amb ay
Use less
ĠMad rczyk
ĠOut is
Ġcany on
C aitlin
I K
Ġsa iled
Ġcon ductor
ĠGu illam
Ġignor ant
ĠRamesh waram
T reat
es i
ĠT i
Ġkn ot
Ġconcl usion
Ġconfidential ity
w ife
-be ing
ĠC ough
ĠA z
Ġman ned
ul ars
Ġbl og
ster dam
Sk ip
" Love
P EN
T ul
c are
Ġg iants
Ġst aged
ch i
Ġlo ot
ĠW i
Ġde bug
Ġde hyd
Ġpro cl
Ġbr icks
Ġdis qual
Ġsort ed
col ates
Ġanti que
Prot ocol
Ġspons ors
ĠFore ver
C LA
_ Full
g room
Ġyou t
is hable
at ient
Ġe agles
ĠD anielle
um bo
ĠF u
There fore
Ġro ster
ne x
Ġsm ack
Ġapp end
Every where
Ġdec ree
ik i
Be hold
Ġbull s
leas ed
ĠPr ada
iver ing
Check ing
ball s
ĠCol umb
cl ass
Ġhy m
ĠOver kill
ĠShan g
Ġoccur rence
Ġlack ing
UN TS
MAR TIN
ĠâĢ Ķ
GRO ANS
' A
C ase
R ich
_ Close
c ott
Ġd arn
Ġc aut
ĠT ami
ĠP res
Ġsay a
og w
Ġcont ribute
Ġsw itching
ru ctor
Ġcool est
Ġhang ar
Ġhost ing
Ġsqu at
Ġdig s
ett i
cha e
Ġjack ass
ĠPat terson
ĠKat hy
Ġcous ins
raw ford
ĠCr ash
Ġcoordin ate
Ġawait ing
à¶±à·Ĭ à¶±
Ġdun geon
Ġreun ion
Ġthrust ers
Ġted dy
Ġalle ged
Nur se
( T
5 6
C itizens
E as
H aut
L ondon
N athan
S ession
d est
p age
ha way
Ġto ll
an ut
Ġf iber
Ġo ven
ic ians
ic idal
Ġe ffic
ri ger
Ġnot ified
Ġdon ate
ĠT aking
ĠB asha
art an
ist ically
ig ger
ĠH ills
ĠR ai
ĠN andu
ĠN inth
Ġlea ked
ĠHe ads
Ġun o
Ġun gr
Ġmin ions
Ġmin eral
Sh ift
Ġgr ind
Ġco pper
ah iti
Ġch unk
Ġrel ate
Ġspec im
ER S
Ġri pe
Ġreg en
ĠZ et
ĠInd eed
Che ese
kes peare
ĠUn it
Ġball oons
Ġdoubt ed
Ġjud ged
ĠRam on
TH ERE
Ġthr ottle
arch y
che st
Ġdisplay s
Ġspread s
uf us
Ġimpro ved
amm u
Ġmail box
Ġpers istent
ĠAtt ention
swe go
Ġannoy ed
Tur kish
Ġeconom y
ethe less
Init iate
ĠDomin ican
Ġinha bit
Ġboun cing
Ġungr ateful
B ox
B uzz
I cons
K ar
M erlin
W et
g uments
Ġ iced
re asing
Ġs aint
Ġs almon
Ġm im
Ġf et
Ġf res
Ġn avy
im ming
Ġre vers
Ġst ung
Ġat h
ĠT hai
ood le
Ġso fa
ĠG ondor
ĠP HONE
ĠH atch
fe ren
ĠF oster
Ġam use
ous es
ull ey
Ġpr ices
iz zard
Ġbu nd
ps y
ens itive
uff le
ĠShe ll
arl ic
Ġgl am
Ġcompl iments
vent een
Ġcons ulate
-l ife
-h ouse
ĠTh row
-b lock
Tr ack
Ġrock ing
Ġpur ple
Ġpur poses
aur on
-m inded
Ġpost s
ĠSm art
Ġlay er
ĠLuc ian
Ġintern ship
ĠCarl o
ĠAN Y
Ġscan ners
erg art
OL D
AD A
Ġrough ly
Ġwid get
ĠSel v
ĠLy can
Ġswing ing
Je ff
Tra ffic
ĠMo ira
ĠBoy s
Ġentertain ing
Ġconce aled
ĠHaw k
Ġdisag re
hm ur
Emm et
Ġhistor ical
Ġparticip ate
ĠKab ir
Ġsimpl er
Ġparl or
Poss ibly
Ġfract ure
Ent ire
Ġscramb led
ĠWinter fell
B ELLA
D ennis
G ina
P IC
f our
f fe
h t
h ran
Ġ ?
Ġt ha
Ġs urn
on gh
Ġm ong
Ġthe e
st age
Ġk eel
ke red
ĠS aving
ĠC ub
ĠT aj
ĠD ial
ĠB L
ĠL ET
Ġal arms
ĠP ra
Ġpro port
ag rid
Ġra ided
Ġch lor
Ġjo e
Ġext ensions
Ġloc als
ĠZ ampa
ĠMar vin
Ġexper ts
Ġform ally
Ġform ality
aur s
Ġpath way
Ġexam iner
ĠX XX
ĠDev asena
Ġcrack ing
Ġnur sing
af ari
Ġassign ments
Ġincident s
Ġunt raceable
ĠRep eat
nam ent
Ġmelt ed
Ġtransl ation
every thing
Ġallerg ies
ĠBel ieve
Sn ake
Sel ene
Ġbark ing
Ġabsor b
ĠMess ages
ĠProt ection
Ġdeact ivate
ĠThing s
Ġplumb ing
ĠHimal ayas
Ġdestruct ive
ĠMalhot ra
A bs
G ardner
G renouille
H ush
K ay
L ancelot
P ad
R ick
R esc
T al
Y ellow
c rack
r ond
w alking
it us
Ġn inth
Ġin herited
ld o
Ġe ject
Ġre ferences
ro ot
ho da
our ne
il izing
ĠD odi
Ġr ushing
ĠH erm
ĠN g
Ġbo b
Ġbo ast
ans ion
ip ers
ĠU t
Ġdec iding
Ġfin als
Ġfr ickin
Ġdoor step
ĠBr anson
ĠSo on
Ġbuild s
-c ross
Ġtem ples
Ġdirect ed
AT ION
Ġaccept able
Ġseat belt
ĠTr uman
Ġcow ards
Ġemer ge
Ġgrab bing
ĠEl rond
Ġresc uing
ls a
Cont ents
Ġill iter
Ġaffect s
Ġver min
Ġhelicop ters
ĠON LY
Ġdialog ues
Sign al
Ġintegr ated
Hence forth
Ġvert ical
Ġlux ury
Ġparamed ics
Ġboll ocks
- ed
C OOPER
F arewell
J u
O ct
h one
z es
Ġd an
Ġc yn
Ġout l
ĠA D
ĠP ith
ĠR D
ĠR oute
ĠJ eez
ĠE s
Where as
Ġprotect or
AT TER
Ġaccount ant
Ġmir acul
reg on
onel iness
veill ance
Ġpercent age
Ad v
ĠWH EN
Ġstret cher
Bo at
Ġinstruct ed
Ġhyp not
ĠBa ghdad
Ġtrop hies
Ġstrang le
-bl ood
ĠAdd ress
ĠStew art
Ġexped ition
Ġsch iz
Ġexpend able
- Dad
- El
5 8
P ir
P ain
c al
p ay
Â º
at he
ĠS eed
ĠHe m
ĠHe brew
Ġcar rier
Ġinter pret
Ġsix ty
Ġma fia
Ġcast ing
Ġcivil ized
Ġthro ats
ĠWas im
Ġcalc ulated
Ġsmooth ly
ĠDen mark
-gr and
Ġdoub led
ĠEnter prises
Unt ie
T imes
n eck
Ġn erd
ed iate
his h
Ġcont amin
ĠJohn s
Ġdi apers
ĠEd gar
Ram sey
haw ne
ĠOF F
Ġpub lish
Ġdeton ated
ĠSat urn
ĠHung arian
Ġa f
Ġh ull
Ġwho res
Ġle ash
ĠGal en
Ġ... ?čĊ
ITT LE
ĠB arts
Ġlive lihood
w ave
Â °
Ġb iryani
reat h
ĠDo e
Ġtur f
ĠPe pper
R usty
T ea
ĠM agn
Ġqu arry
Ġun for
ĠPr ithvi
Ġobst acle
E mb
H al
M iyazaki
T erry
W orld
d ain
l op
ha st
er as
Ġl inea
ot os
Ġbe aches
oo o
It em
ĠT roy
ĠD amp
au d
ist ing
ers h
Ġam ate
ber y
orm al
Ġdis dain
Th under
Ġrel apse
ĠSp read
Ġstick y
Ġsupport ing
Dis gusting
Ġjudge ment
rad ition
Ġinitial s
Ġrepro gram
ĠKab addi
ĠWu jing
Wor st
Ġembr aced
Ġlinea ge
ĠDamp ier
" Dance
) ?čĊ
+ `
H ate
I RE
L osing
O B
f ering
ha gen
Ġf ishy
Ġg nome
ed a
Ġha v
le ave
Ġe uros
Ġst oop
What s
ĠS na
ĠS oul
ĠA R
il and
ĠG ob
ĠP arty
ĠJ ump
ĠF at
ĠE ssam
Ġsc he
Ġchan t
ĠSt udents
Ġgr an
ĠY ogi
omb ly
Ġinst ructor
ai ja
Ġdet ection
Ġbra vest
Ġshut down
Ġcol umns
ĠMichael s
Ġmod ules
Ġlau nder
Ġsqu eez
agg ot
Ġtrad ing
Ġunt o
ĠCor vin
Ġcy cles
Ġhyp oc
Ġgrace ful
Ġarchitect ure
Ġirrit ated
Ġavo ided
Ġrul ing
Win ston
ĠPsy ch
Fel icity
ĠCind erella
Ġstun ned
Ġventil ation
ĠZeal and
ĠSomal ia
Ġresched ule
+` (.+)'čĊ
aija an
' Your
+ Entering
B LE
F aith
G h
M es
O lymp
R ough
Z aya
_ Remove
a ired
f irst
ed ly
Ġit to
ĠC lyde
op les
ĠD ream
ĠB ergmans
Ġr anks
ĠR ekall
are s
Ġor chest
ap on
ĠE cho
Ġse als
Ġsc ram
Ġdec ency
Ġco al
Ġcha lk
Ġbreak down
Ġsn oop
Ġve in
Ġdi verted
arr ot
Ġshort y
Ġval et
AT ER
Ġang les
IT E
Ar maan
Ġref riger
Ġopp ose
Ġlim estone
Check mate
zz a
ĠDev help
vi ets
Dis k
Ġfaith ful
Dev ice
ĠPl ugin
ĠChan ges
Fin ished
Ġdial ed
Rad hika
Ġgrad ually
Ġcy borg
con nect
Ġsyn chron
Ġtransport ation
Ġpy j
Ġneighb ours
ĠCould n
Ġbroadcast ing
Med ic
thi op
ĠAmm i
ĠYas hodhara
ĠImp ossible
ĠBlood y
Ġsuspic ion
isp here
Ġvom it
ĠBac era
ĠDh ina
Ġtraject ory
Ġraz or
" M
" Please
" Con
+ Leaving
- .čĊ
- Con
C as
G osh
H am
L inc
M erc
N on
O s
O ANS
P sy
S ide
m et
o vers
Ġ `
Ġw hichever
ha il
Ġb anged
Ġg arlic
Ġo st
ut ure
Ġre asse
... !"čĊ
ĠC row
il an
Ġgot cha
ĠB reathe
ĠB IG
ĠG ul
Ġr ating
os hi
ĠN ishant
Ġam azed
ĠK od
Ġcall er
Ġby gones
ud ent
In put
Ġph oned
Ġkind ness
ek a
Ġsl ower
Al ive
aut ions
arl a
ĠDo ing
Cl ena
Un h
Ġblack m
Ġob ed
Ch uckles
Am ar
Ġtem p
Ġty ping
Ġcas ually
ĠAb bott
ĠLe ese
ĠCol in
Ġtur t
Ġcomb ust
Ġspl itting
Ġpan els
ĠMark s
hav ani
Hard er
ĠChen g
Ġwand ered
Ġwhist ling
ĠDef ault
aus ible
GL OANS
Ġexha ust
Reg ular
ĠAutob ot
Ang ie
Scan ning
Ġimprove ments
ĠAllen ford
Ġbum per
Mir anda
-he h
Ġarrog ance
Ġrehab il
ĠThan os
ĠBrown ing
Ġpeak s
ĠBuild ing
Ġdevast ating
Ġconvention al
Ġbloods hed
ĠMord or
Clena han
" Can
' (.+)'čĊ
+ '(.+)'čĊ
- int
. !čĊ
9 1
A way
B i
B all
E cho
I rish
K a
N atalie
W ing
W arm
m itting
m uel
re land
Ġs arah
ing ale
it ivity
Ġl ass
Ġp ets
ot ech
ver ty
ad as
He ather
ĠS us
ĠS ort
Ġne uro
ĠM ohinder
ĠD U
Ġso dding
ĠB ag
od us
ig uel
ĠJ uniper
Ġbl izzard
iss ions
Ġsc umb
Ġunder way
fore st
Ġcont rad
Ġcont ribution
oc aly
Ġmar ching
Ġgreat ness
Ġpo verty
Ġco ins
ple asant
Ġres erves
Ġres ervations
Ex port
Ġimport ed
ĠYour s
Ġind ia
-m ailed
Gr imes
EN D
Ġtre nd
Ġdam mit
ĠSing apore
Ġstar ved
Ġvi be
Ġur chin
Out standing
ĠSy lvester
Ġjack pot
rie j
Dev ika
war an
Ġcompan ionship
Ġcy cl
Ġbright er
Ġwha les
Ġachieve ment
ĠHor ik
Ġinterrog ate
******** ****
ĠAlp ert
ĠId ent
ĠNE ED
Ġprob ation
Ġanx iety
ĠVen ky
Bec ca
Ġdoub ting
ĠCanad ians
Ġweigh ing
Det ails
Ġhijack ed
Ġsund own
Ġtig ers
Bhar athi
Ġanth ony
, why
A st
C O
O dd
S ea
Y S
Y ah
f ree
k c
w orthy
ll ie
Ġc rib
Ġf ishes
Ġg aps
or ity
Ġst ern
ir der
ĠS ierra
Ġj aws
Ġne u
ell ope
ĠP ist
ĠN unu
ĠN efario
ĠK es
She ll
ach t
air y
ĠY e
uc ated
ĠSh ire
me ans
Ġland scape
Ġwh ilst
br ook
Ġmad ame
ĠSc outs
ĠCha ri
Am b
Ġclass room
Ġcol onies
Ġprof iles
Ġtor ment
Ġsuggest ions
Ġmoon light
Ġcomb ine
ĠPar as
ĠMaj um
Gl en
Gl ory
Rec e
ĠCo imbatore
Ġdefense less
Jo han
Ġda emon
Ġprior ities
ĠCy rus
Ġpsych ic
ĠView er
ĠBhar at
ĠDet roit
Ġprivile ges
Ġreflect ion
Ġimper fect
Ġdiagn osis
Bil bo
hell e
Ġrehears al
Ġfreel ancer
ĠFernand o
otta i
Regard less
" Here
' you
- gu
- Jenny
L eland
O cc
U RE
U pload
c omp
j ump
o inting
ou fl
Ġb aked
Ġd uration
Ġg rey
or al
Ġp ies
et o
id eaux
He aven
ĠS op
ĠC BI
Ġout come
ĠA lic
ĠT res
ĠB udd
ĠG ret
ĠG entlemen
Ġr v
ĠW ILL
rou kh
ĠE sc
ment ation
Ġpre viously
ĠThe ophil
pen et
ĠAnd erson
gg ie
Ġsy ringe
Ġinst ruction
Ġpain s
Ġsim ulations
Ġdi vert
Ġfool ing
Jack ie
Ġcam oufl
Sp ent
ĠQ U
Ġexam ples
Ġru ins
-w ife
Sm oke
Ġthr ashing
Te resa
Install ation
Ġhug ging
Ġdocument ation
Ġcrown ed
Ġorphan s
Ġformal ities
Ġdecor ation
Ġaddict s
"L ive
Mod ule
Ġadminist rator
olph in
ĠRober ts
Ġbun nies
Roman ian
Ġmisbe ha
ĠBiok ernel
ĠAlic ia
ĠTheophil us
u ilt
Ġt arn
Ġt utor
Ġs aus
Ġp ooja
le era
ho en
ĠM ild
ĠA ICA
il itary
ĠT arr
ĠL as
Ġcom bo
ol ete
ond ition
ne ed
Ġad ore
Ġcr ooked
Be gin
ĠAn slo
Ġri bb
Ġclos ure
Ġshall ow
ĠAm ira
Ġpar allel
-m ilitary
Ġele gant
Ġview ers
Ġobs olete
ĠAh med
Ġhol idays
Ġstock s
IR L
Work s
lim inary
Ġprint ed
Ġrub ble
Ġobl iv
ĠHome land
ĠFin ally
ĠBeat les
Ġfig uring
Ġdisconnect ed
Satell ite
P aste
T odd
c reat
r inn
Ġo oh
ĠC ris
ĠT ucker
ĠT rain
Th us
ĠY avana
ĠThere sa
ĠSha k
cha ble
Ġjoy stick
ĠLA PD
upl icate
ĠEmm ett
Sni pp
Ġgrocer ies
ediate ly
Ġe aves
ĠD od
ame la
Ġgr udge
agn hild
Bass am
Y ES
ĠC aine
---- ----
Ġag ed
ĠMa fia
ĠZ ombie
Ron an
Li quid
6 3
B attle
B eware
_ d
b ach
Ġg re
-l ine
âĢ Ķ
ĠPro blem
arb ucks
Ġlap s
. N
L ake
h uman
l ins
w orth
Ġt ails
Ġc ob
ly ph
ĠM IT
ĠD AY
ĠB ottom
ig ail
ĠF ifth
Ġint ends
Ġmar ched
Ġwar mer
ey ti
To ky
Ġcho colates
Ġtom ato
me et
Gu ards
Ġbar ren
Ġstra p
ĠMay day
Dis card
Ġescap es
ĠSw agger
Ġagre es
Ġcree ps
Ġexecut able
ĠPet ers
Ġassault ed
Med ical
ĠLO VE
Ġfisher men
Ġcher ry
Ġbabys itter
Hundred s
Ġexplo it
Fed eral
Nort hern
ĠLead er
eyti ri
Toky o
" Take
' Har
/ Variables
C aleb
H iding
K en
S her
S ick
W ond
_ Redo
f ound
Ġthe at
Ġd itched
Ġg er
Ġin mate
Ġon going
id dy
Ġst iff
ĠP hys
fe it
Ġtr oop
ĠK eller
Ġcl amp
Ġbl ed
eel s
Ġcour thouse
ĠU b
Ġmom ma
ars on
Ġsk ipped
Ġtrans ition
Ġadd icted
Ġhusband s
omm ission
Ġbird ie
gu in
Ġselect ive
aff y
gue z
-w ide
Ġvac ate
Rel ations
CH AR
ET ER
Sy lvester
Conf iguration
apt ors
Ġevac uating
ĠChand ler
Ġdump ing
Ġgrav y
Ġaim ing
ĠSal man
ĠSen ior
-se ek
-L ynn
Ġhumili ating
Ġirrit ating
GR UNTS
urg ents
Ġimpul se
Ġunexpl ained
ĠGerm ans
ĠNiger ia
Ġoverse as
' If
, they
- that
- range
3 50
F ord
H uge
I I
L P
P ia
P oll
Q U
T agger
V ic
b aby
c ass
g ies
k bait
w l
Ġt amar
it udes
Ġg ents
Ġp uri
et ary
Ġhe ed
at ile
at ics
Ġth igh
Ġin frared
ill i
ĠC ore
ĠT ook
ĠD imension
ĠP arent
ĠR hod
Ġtime line
So ft
ĠN ec
ĠK in
ud s
Who le
Ġun acceptable
Look ed
Ġnew born
Ġmen us
ars ha
Ex c
unt il
Ġcor ro
Ġdet ention
lo or
Ġext ended
Ġsn eeze
Ġbar ge
Dr inking
Ġconnect ing
ĠGu ards
ĠCol omb
Ġpun ct
Ġcrew s
Ġdrunk ard
Ġcapt ive
ĠLau rel
Ġbow ling
ĠAct ions
ĠLa unch
Ren ame
IF F
ĠStand ing
Ġstrang led
Ġisol ation
Ġhill billy
Ġmicro ch
ĠPhill ip
Ġtoug hest
Ġmount ed
Ġshred ded
Ġlatt e
Sum mer
Ġnumer ous
à¶»à·Ĭ à·
PUT ER
ĠDM V
Fur ther
ĠVO ICE
Ġblackm ailed
Tagger t
" From
- lt
5 9
D impy
K ir
P in
R iley
R umor
U RI
Z ero
h ower
m om
p aper
u y
z ards
Ġ venue
Ġw al
it tering
Ġl ava
ed die
Ġth understorm
Ġha l
Ġis that
im ir
Ġgo als
ĠS ak
ĠM os
Ġab st
il iate
han s
ĠT iny
ĠT iger
ĠB hat
ĠB og
Ġsu itor
Ġr iddle
us cious
Ġde odor
ĠO ps
Ġtake out
Ġoff ensive
Ġam ends
ĠE merald
Ġbl ades
Ġdoes nt
iz arre
Ġim ple
Ġfriend lies
Ġmar row
Ġmar ries
Ġgr am
Ġapp arent
Ġcomm end
Ġwar lord
Ġdri p
Ġdri pping
ĠY emen
Ġbest owed
Ġfar ming
Ġres olved
Ġrel ent
An ushka
Ġgl ance
Ġconf isc
Ġdef amed
Ġsent ences
Ġattack er
ĠRe ese
Ġlie ge
Ġperfect ion
ĠSha kespeare
Che ster
Ġarrest ing
ray ne
Ġpriv ately
Ġru pt
iter ranean
cl ops
Sw ear
ĠMad urai
Ġprec autions
Ġpub l
-k now
oph ren
Mod ified
Ġherd s
Ġprob ability
Ġtermin ated
Ġoblig ed
Ġscrat ches
Ġsaf ari
Ġutter ly
ĠArk low
-z ero
Gener ally
ĠCalc utta
Ġnarc otics
ergart en
Ġturt les
Ġdeodor ant
, there
C AR
F ail
G ar
L orraine
O ye
T ang
b ra
k men
m ic
in ate
is al
Ġb rew
Ġd ub
ed ing
ot hel
.. ...čĊ
Ġh over
Ġk angaroo
ri gu
Ġgo ss
Ġnot ifications
ĠM atch
ĠM OM
ĠM IS
ĠA ria
Ġup right
na gar
Ġlo vable
ĠL ed
ĠP ack
ĠR ex
ĠR hyme
ul k
Ġag encies
ĠO il
Ġtake off
Ġv ot
ĠE mpathy
Ġcl ans
Ġwork in
ting er
iz ont
Ġcar rot
Ġkeep er
Sh hh
port s
Ġsha ved
Ġsha ped
Ġra g
Ġsw ipe
Ġsl apping
hes is
ars i
Ġch ur
Ġair borne
Un icode
Ġpres umed
Ġhospital ity
Ġstation ed
Sha d
-law s
-m aking
Ġrain forest
vi jay
aint ed
ĠPar ithi
Ġimm ers
Ġinstall ing
Ġdial ysis
Ġhook s
Build ing
Ġassoc iation
hold ers
Ġbal anced
Pat hetic
Ġcircumst ance
Ġjealous y
Geor gian
Ter rific
Ġcub es
Kid na
GL EN
uther ford
Ġconsum ption
Ġflee ing
Ġdiab etic
Ġsubs cri
Ġoverd ue
Ġgenet ically
ĠDevelop ment
Ġvel ocity
Ġspook y
-mill imeter
Rever se
ĠAssoc iation
ĠWheel er
Whist le
Ġbubb les
ĠFer ris
" One
- we
- Tell
L I
P M
P uja
T el
T ex
[ IN
\ /
] :čĊ
_ \/
s im
Å ı
Ġ ll
Ġt um
in ety
re ally
Ġg em
ed d
al ion
ĠM any
ĠC C
un ition
ink owski
Ġwor y
ĠB ore
ĠW hile
est o
ĠP LE
Ġpl uck
ĠH OW
act ory
Ġpr isons
get t
ĠWe is
Ġbu rial
Ġwar fare
ĠY et
Ġem ily
Any time
ĠBr ooke
ĠSo ames
Ġtrans formation
Ġgrand child
ĠAl bi
Ġve ctor
After noon
ster hase
Ġstep father
Dr ugs
hal a
Ġgener ally
Ġspeed ing
Ġtele com
Ġcontract ed
Ġflat ter
-B aptiste
Ġblast s
Ġbrief ed
Ġep ile
Ġfulf il
Bea uty
Ġcalc ulate
Ġexperiment al
oph ie
ĠCare y
-sp ace
Ġpolite ly
ĠRos en
hemat ics
ĠKe amy
CA USE
ĠNev ada
Ġhast e
Ġflour ish
Ġec st
Ġconqu ered
" in
C hicago
p arty
Ġt amp
Ġs ane
ha o
nd ra
ar aj
at ivity
Ġin app
Ġj azz
Ġdon ated
if ully
ce ans
ĠD rey
Ġcom fy
ĠR esp
ĠF re
ven ir
Ġint imate
Ġse venth
Ġsc outs
Ġrem oving
ans y
Ġper m
Ġapp lies
att ack
ĠIn side
Ġdep ri
ĠBl aze
Ġty res
Ġmod ify
Ar men
Ġcourt s
Sm ooth
Ġpan icking
-ha lf
ĠMax well
Ġloss es
Ġuni vers
Ġsin ner
Ġcy ber
Mur de
Second ly
Ġveget able
Ana kin
ĠBook marks
ĠNathan iel
haz i
gant ua
Mith ra
Champ ak
ĠUk rainian
ĠKam al
ĠTHING S
Ġod or
Ġtreacher ous
Ġcrad le
ĠIll inois
m ings
s ub
Ġa aron
Ġb a
Ġb ou
ĠL ear
ĠK ur
Ġdec ay
Ġfront ier
ror ist
ok er
Ġpar ano
Ġplug ged
De bug
ĠMor occo
Ġmechan ism
ĠMed ia
Rock et
Cent er
Ġmeas ured
Ġconfigure d
Ġreass uring
ĠFle et
Ġfer ocious
ĠHoll and
Ġingred ients
hoen ix
Ġparano ia
- White
T ick
h ino
Ġf i
al co
ĠC ivil
Ġwall ets
Ġstraight en
Ġlord s
Ġelectric ian
Ġbrown stone
orp ion
Ġranch hodas
ĠVamp ire
Ġa al
ĠD y
ret ti
Ġviol ated
ĠDes ign
Ġleaders hip
ĠBud apest
ĠL ITTLE
Ġty ran
g ad
C her
Me ow
ĠT ill
o a
ĠL apidus
ord ic
Ġfr action
Pro ve
che on
Ġsuff ice
Ġimmort ality
ĠCau cas
B irds
O z
R essler
_ Previous
Ġd ung
Ġk ernel
im ity
ic ruz
ĠC old
ĠT aken
Ġsu cc
ĠL AST
ĠH ur
ĠV el
Ġcont rary
ĠBr uni
li Ã¨s
ĠAr ch
ari os
Ġcommand ing
Con stable
Ġmain ly
Ġgener ic
Ã© liÃ¨s
Ġincre ases
ĠLu iz
ĠBil al
Ag reed
Inv isible
Witness es
riev ous
Ġprox imity
/ B
C ast
G erman
L es
N ational
P L
P arent
R ub
_ New
r ons
in os
it oes
et ition
Ġin ver
le en
Ġst ashes
ĠS omali
Ġr anger
ĠH ol
ĠH aze
ĠR ita
But ter
Ġam ul
ĠE loise
Ġun manned
Ġwr ath
Ġsm ashing
ub untu
Ġgr as
ĠTH AN
bo ards
arr is
Ġsun ni
Ġball et
ĠChrist y
ĠChe eni
Ġtot em
ĠMon itor
Ġsal iva
Ġdry ing
-T hi
Ġcorpor ations
Ġsymbol s
Hanna h
Ġdisgr aced
Ġdemonst ration
Ġpra ising
ĠWork s
Ġcurtain s
Ġbloss om
umbled ore
ĠLinges wara
Ġsuperv illain
-who a
ĠHOU SE
B right
D escri
F RAW
G OOD
K avya
T ong
V N
e le
h man
l ake
p are
Ġd ile
Ġf aggot
Ġg oo
Ġp ave
st y
at able
le c
ro at
ry ff
ĠA uthor
ĠT able
ĠB ush
ĠB auji
ĠG ill
ĠP ardon
ĠH ogw
ĠR umpel
ĠR ivai
el ner
Ġsp un
ĠF E
ber ger
Ġun leash
Ġcar cass
Ġcont ribut
Ġrun es
av rou
ss en
Ġinter fering
Ġdra ined
olog ne
Ne in
Say ing
Ġkidna ppers
Ġdoll s
rab ha
ĠCon st
ĠMin ions
Ġshad es
hem atic
Ġcy l
Lock ett
Ġ# čĊ
ĠPre pare
Ġà¶ ¶
Ġclown fish
Sol id
ĠArm strong
ĠTha iland
open hagen
Ġnic kel
Spl it
Ġexclusive ly
ĠCham ber
-kn ock
Ġambit ious
-def ense
Ġdiscr imination
Ġdos age
Ġculpr it
Ġprest ige
Concent rate
Ġhym ns
- en
8 8
A ff
B an
B ald
H TML
I LE
J ude
K yle
K inda
L IE
M arty
N ASA
P res
S ak
Z Z
_ '
d es
f initely
i ji
o ch
Ġ ounce
Ġw hip
Ġb izarre
gh roo
He ctor
ro se
ant es
un ghroo
ra pped
ĠT est
na val
art ing
ain s
ĠL eezar
ĠH agrid
ĠJ ules
ĠN ant
Ġcl unk
ound ing
Ġnew borns
orm ammu
Ġfl og
we ets
Ġcomp elled
Ġhar p
Ġcomm ence
Ġsl ack
ĠDad a
Ġtruth ful
Ġfe ud
more land
Ġmed dling
Ġpain ing
Ġext ent
Ġdi vers
Open ing
Ġprof iling
Ġallow ance
uthor ized
Ar am
Ġav atar
ĠMe h
Ġstri ps
Pr im
Ġdraw s
ĠMart inez
Ġdig its
14 7
Ġpartic les
ĠWar angal
Bel oved
Mon ica
Ġattend ant
ĠDay al
ĠAtt icus
Ġmer maid
Ġrepresent ed
ĠEgypt ians
azz oni
ĠLib rary
Ġmanufact ured
ĠTha deous
Lou ise
Sham bu
Ġadminist ered
ĠMath ur
ĠVill ain
Vir gin
uv raj
ĠMer cedes
far az
Ġcaf Ã©
Ġstair well
Ran vir
ĠSquad ron
Ġwel coming
Complete ly
Oper ation
ĠEVER Y
Ġelectromagn etic
Ġcupc ake
ĠRand olph
ĠEL M
ĠNikol ai
Ġcompar ison
ĠThom pson
ocaly pse
" Those
" Sing
" Whistle
' What
- Bye
0 3
A im
D ol
D ied
H ovv
P ak
p ur
p owder
Ĩ à¶»
Ġw age
Ġm ant
ing an
Ġc ens
Ġl itter
en ance
at cher
Ġh ier
ay e
le ague
Ġre ct
ir angee
Ġnot icing
ĠS umm
her ic
ĠT re
ĠT ir
ĠB old
ĠB ender
ĠG autam
ĠP av
ig ar
ĠR H
ul ates
Ġex iled
Ġwere w
Ġpro dig
Well er
Ġle verage
Ġsc ofield
be er
per se
ob ias
har t
Ġnew er
Is abel
Ġmin imal
Ġad orn
Ġper ce
ah lan
Ġsw am
Ġfun erals
ĠShe k
Ġconf irms
Ġspec ulation
Ġsk ate
ĠAr bor
Ġgra ves
ĠBe league
ĠBen g
Ġimag ining
Ġident ical
ĠSe ason
Ġabs ent
Ġequ ipped
Ġbas hed
Ġunc overed
ĠDes am
ĠAt kins
Em ail
Ġden ying
Ġmor ons
akh s
Att empt
Chan nel
Ġuns aved
Ġep inephrine
Ġelev ated
Jul ie
Ġtemper atures
Ġmechan ics
Ġpir an
ĠGl obodyne
Cr ime
ĠJacob s
Ġlaws uit
Ġprinc iples
-sh ot
Ġnut ri
ĠAg ents
Phil ip
ĠVen k
XX X
ĠSant ana
ĠBhai yya
ĠHun ley
Ġoverwhel ming
hamm ad
Ġassemb ly
Ġwel c
Ġsabot aged
REAM S
Ġcuc umber
Ġphenomen on
Stu art
à·ıà¶´à·ĥà¶Ńà·Ķà¶¸ à¶±à·Ĭ
ieg ler
Ġbicy cle
Ġog res
ĠSadov aja
ĠLed ger
ĠBeleague red
" Whether
A V
F ake
G EN
H ill
O FF
R ound
T anya
g om
k illed
l augh
m ayer
r ancho
s ki
on nie
is ha
Ġd imin
Ġg ender
Ġn icked
Ġp oured
Ġh oses
ould er
ĠC ot
Ġab uses
Ġas cent
ĠT ong
ĠD al
na il
ĠB it
ĠL ara
ist ered
ĠP I
ĠP ac
ĠP asta
ĠR ush
ĠR andy
ĠR apunzel
Ġsome what
Ġor b
Ġex ternal
qu ire
So c
Ġsp erm
ĠO regon
ven y
Ġv ague
ĠE PIC
Ġro gues
All an
In active
xt on
Ġad s
ren g
port ant
oy s
Ġmay day
Ġdes igning
ott mayer
Ġtrust worthy
Ġexp osure
Ġposs um
Ġinter vention
no vation
Bl ast
Ġcommand eer
oul ette
Show ers
ĠMan ual
Ar my
Gr ad
ĠDe veny
Ġstrange ly
Son ar
ĠFrank enstein
Ġfre ck
Fr ont
ĠTe hran
Ġcommon ly
Te ach
yn c
Ġwast eland
ĠChan chad
ĠMet ro
Ġcro cod
mar ried
Sur pr
Ġesp ionage
Ġcirc uits
ĠTri ple
ĠFel cher
Lau rel
ĠRel oad
Fall ing
ĠBri areos
ĠArm our
keep ers
ĠReg ion
Emm ett
Ġlod ge
Ġridd les
Ġalp hab
Ġincreasing ly
ĠAy yanar
Rip ley
aku za
ĠSoc ial
Ven ky
Franc is
ĠDain ard
ĠCybert ron
Uk rainian
" Sp
A lfred
C art
E VER
S au
i very
l icted
Ġs el
Ġd ense
Ġd ual
Ġl oneliness
Ġn and
Ġp am
as ad
Ġst reak
Ġj ingiliya
Ġout standing
ĠB ha
ĠB attles
ĠL enihan
Ġback end
ĠR ab
ĠJ ind
Ġwork out
Ġun har
uth u
Ġwar rants
land o
An ne
unt zy
Ġcor oner
Ġdet ained
eter boro
Act ions
Ġpost ing
Ser vice
word s
CK ET
Ġmeaning less
ĠMil ton
-B us
Kab ir
Ġplat ter
Ġoppos ition
Ġpopular ity
Ġax is
ĠNaz is
Ġswallow ed
ĠKel vin
Wind ows
Ġmotherf uckers
Ġdistribut ing
Ġresear ching
vs ky
ĠDag gett
oche ster
Mex ico
-blood ed
ĠPist one
ĠMajum dar
Ġcamoufl age
Ġunhar med
I DE
K y
S in
W r
Ġ venture
Ġt am
Ġg or
Ġp es
id iculous
ĠH odor
ak at
ul um
Ġqu ota
Ġrec ess
Al co
Ġfr aming
ĠAr cade
ĠAr jun
Ġship ment
Ġsuper vision
ald o
Ġdig it
Ġintro duction
Ġband its
ĠFar han
hand ise
Ġast rol
Kat ie
Ġpump ing
Ġcri pp
ĠAW AY
ĠPsy che
Appro aching
vat ron
- est
1 40
G AS
M iddle
O cean
R ousseau
X i
ĠC ause
ĠC OW
ĠA x
ĠB under
own ed
ĠL E
el ing
Ġpre ced
Ġdangerous ly
Ġsumm on
Ġkilomet res
je et
Sky ler
ĠLat if
W itch
Ã ĸ
ind eer
Ġback pack
Ġqu ery
be an
ĠHe art
Ġfl ashes
ĠY ah
ĠY ondu
Ġmess es
itor ies
Ġpier cing
upp y
ĠPol icy
Ġmast ers
ĠIC U
Ġsymp athi
en y
Sil ent
Ġimp erson
R um
or ia
id ences
ic ipal
ĠDay ton
" Do
- Two
P H
p ia
Ġn ud
ĠM ack
Ġsa vior
oc cup
-t r
Ġbri g
Att ach
Mart ha
Ġric hest
Ġtit anium
Ġdrast ic
- Sure
D utch
M aker
X Y
l ient
z heimer
Ġs izes
Ġl ent
Ġre vel
ent o
ĠG rievous
ĠO mar
ĠN inja
Ġbl oke
Ġcont ag
Ġret ribution
az er
Ġfore tell
olog ies
ĠMar go
Tr ash
ĠAm azon
Ġtight en
ĠSim ple
rif ying
Ġmile post
Ġscen arios
ĠGirl s
Ġprem ium
Ġbreed ing
Ġque ue
Ġtechni ques
Ġprosper ity
Ġouts ider
ĠLeg ion
Ġorangut ans
t ree
Ġ @
Ġt umor
in is
Ġn ag
Ġn odes
at ap
Ġha lt
al iate
ri guez
ad onna
ad alla
all ows
ĠC rawford
ĠT rees
ĠB ast
ĠB less
Ġlo s
Ġv otes
Ġcl uster
th s
St ab
Ġcomp os
Ġrec y
Ġweek ly
ens en
Ġfire wall
Ġret aliate
Ġfree way
Qu arter
Ġhot els
me an
Ġeng in
15 5
ĠTh rough
Ġdestroy er
Ġball istics
ĠEx cept
Ġdem ise
Pl aces
ĠChe val
Mar ia
for ward
ala had
16 6
ET A
ĠCo ach
Ġfunction al
Ant onio
Sold iers
ĠFont s
Ġmotherf ucking
ĠÂ £
Ġparas ites
Ġrecip ient
Ġhott est
Ġsplin ter
Ġinver ter
, who
C ong
D VD
D anielle
J er
M onday
S ac
S ucre
T oggle
_ Reset
n ar
p m
v ail
an allur
Ġg oof
or gan
Ġo o
st his
Ġh orns
Ġst ages
ro vers
ĠS ith
Ġj eez
ho ff
ec a
ur l
hing en
ĠC upid
pp el
ce rer
ĠG ard
ĠG loria
ĠL anguage
ĠL uthors
Ġman h
ig hed
Ġif we
ĠR EA
Ġex ting
Ġex port
Ġpro st
itt in
Ġim mer
Is aac
Ġmin es
Ġcont rovers
iv ities
ĠU r
Ġsw an
ru kh
ĠSo viets
uc es
Ġside ways
ĠAn and
Ġfour teen
Ġmist ook
ĠMar ion
ok o
Ġfut ile
Ġbox ed
-s ha
ĠEx cell
Ġaccept ance
ffic ers
Ġed ition
roll ing
Ġsumm its
ĠAny way
Ġswe pt
ĠEd it
ĠHer b
Sur round
haw at
ĠAnt on
Ġrelative ly
ĠComm ittee
Ġmult i
Ġpee k
Hon or
Ġenvironment al
Tra vel
echn ology
Ġnig ga
Ġstrang est
Resp ond
Ġimper ative
ĠShad ows
Ġnit rogen
Ġinject ed
Ġpra ised
FR ANK
Ġcryst al
ĠBec ky
Ġderail er
ĠMalays ia
Ġexcess ive
Ġensl aved
Ġdolp hin
ĠGas ps
Corpor al
Ġunatt ended
Ġlia ison
FRAW LEY
Ġdile mma
ĠHogw arts
Ġexting u
Ġimmer se
ĠExcell ency
" Yes
' We
- v
F T
F ORE
J am
N a
P ot
R ox
T ruly
d rop
g reat
o ise
re bor
Ġw ool
Ġw iser
Ġs amba
er in
ing ham
Ġc aliber
Ġg eek
Ġn oodles
Ġp uff
st a
st alk
Ġh iring
id ges
ut ing
ut ers
Ġli ability
ĠM i
ĠM IL
ĠC ull
Ġout post
ĠT ag
ĠD ook
ĠB rent
ĠB ird
Ġpl ausible
ĠR ace
ĠR av
ick le
Ġle ver
get own
Ġar se
Ġwait s
Ġcont amination
oc abul
Ġpol es
Ġra ven
rest on
ĠHow ie
ident ly
ĠCl aus
Ġtow els
ult ures
Ġcompl ication
Ġlight ly
ĠIn c
Ġinv ade
Ġtrans f
Ġwh oop
ĠRe place
Ch ina
IT Y
Ġmis lead
Ġinf amous
Ġer upt
Ġeas iest
Ġmot ivated
Ġprop ag
Cle ver
Back ground
-p art
Ġthr ice
Ġboyfriend s
Ġamb assador
Ġest im
ĠCent re
Ben jamin
Ġshr ine
ĠCle an
Ġcoordin ated
Ġflag s
AP I
à·ı à·ĥà·Ĭ
ĠRes istance
à·ĥ à¶»à·Ĭà·
Ġconsum ed
Ġrebuild ing
COM PUTER
Ġvic ar
ĠPR INCE
Ġresource ful
Task s
Request ing
Ġca vern
Law rence
Ġalb um
Ġsubur bs
ĠCry stal
ĠLaugh ing
isen hower
Ġtamar ind
Ĩà¶» à·ıà·ĥà·Ĭ
à·ĥà¶»à·Ĭà· Ĩà¶»à·ıà·ĥà·Ĭ
C ost
C ock
G it
K arthik
K uzuri
M A
S AM
S OL
T akes
W ong
W ren
Y ING
l ma
t ower
w orld
y ss
Ġt rench
Ġs not
Ġs ixteen
Ġyou to
Ġd ow
an ity
Ġth ugs
ac s
se illes
al in
ver b
ad illa
ill ers
Ġre wards
am o
Ġli zards
ĠS S
ĠA ction
han y
ĠG L
Ġr oulette
ĠL in
ĠP au
Ġpl un
qu iet
ort em
Ġbr andy
pl an
act ical
Ġqu ake
iz ers
In form
ta h
Ġcomp osition
Ġper ception
Ġph ony
Ġsw ind
Ġcompl ications
omb ies
ĠSo x
Ġwatch tower
Ġtri ang
-l a
Ġins ists
ĠSc rew
ĠMar seilles
Ġfail ures
Ġcreat or
Ġbox ing
Ġseem ingly
Ġuncle ar
Ġdel usions
Mar ch
aff le
Sm ell
Ġste als
che t
Ġorgan izations
Ġled ge
Bab a
IR D
IM P
Ġbrief ing
ĠFar roukh
Sur render
Ġment ally
-n ine
ĠPre vious
Gun s
Ġinsp ire
Ġmanufact uring
Ġoccup ation
Ġsales man
ĠURL s
Base ball
Ġaccur acy
Sk ye
Ġcad et
Ġresident s
Ġape x
Ġsubst ance
KELL Y
ĠAW OL
Ġrestra int
Ġrestra ining
ĠEp isode
Ġgenet ics
Ref resh
Esc a
Ġpostp one
Ġsurn ame
Ġscumb ag
) :
- U
- is
A aah
C OME
D od
F UL
H atch
J erry
T hi
_ Name
b uild
t hose
re hen
is ms
ot he
et rack
ke e
Ġan em
ro pe
Ġcan al
ĠS ector
ĠC op
ĠC ullen
ra vel
ĠD uc
ĠB O
ĠP ul
Ġpl acing
ĠN OR
Ġgood night
ire ction
pl ing
St uff
Ġar senal
ĠV era
ĠThe m
iv alent
Ġend anger
Ġpret t
Ġreason ing
Ġri ots
-l imits
Ġwh ining
Ġins cri
Ġmad ly
ract ion
Ġpos ing
ues e
Man ager
Ġind ication
Ġcertain ty
ĠDe bbie
Ġinf ant
Ġocc asions
Ġdesign ated
Save d
Sam my
Sam antha
ĠDev ices
Ġreb uilt
Ġscream ed
Ġseason al
Ġoccur s
Ġdesc ending
Ġrender ing
ĠQuick ly
Connect ion
Ġcru iser
Ġpod s
ĠCra ig
Leg end
[S ighs
azar us
Ġcheerlead er
ĠFR OM
-sc ale
ĠHerm ione
ĠPLE ASE
Ġecst asy
Ġinapp ropriate
Armen ian
gom ery
reng then
C hen
Â £
â Ĥ
Ġo ceans
Ġin fer
ut ton
ĠS eller
ĠT eterboro
ĠD warves
Ġso ar
ĠL es
ĠL antern
ĠH us
ĠR ider
ĠR ancchoddas
ol id
Ġag ony
get arian
oc ratic
Ġper ish
Ġrec ite
Ġdec ks
les h
ont aneous
ater n
ĠIs abelle
Ġdet ach
-h ow
Ġcook er
Ġcontract s
jack et
Ġmole c
Ġqual ify
Ġdeton ation
Ġfra gr
ĠTal os
Ġfold ed
ĠEnd urance
Ġsequ el
hara oh
Ġargu ed
Ġintr uder
Ġdevast ated
Ġcompens ation
ĠEdmund s
Jud ging
Ġamm unition
Ġspac ecraft
âĤ ¬
' Course
, this
B rought
C PU
M ass
P I
S usp
e rer
Ġ :čĊ
an as
st e
ĠM ON
ĠC any
Ġr ust
ĠL orraine
ud o
ob o
Ġ' ."čĊ
ĠV s
ip board
oy al
Ġsha mp
Ġbeaut ifully
Ġinter ven
-s m
ĠRam al
ĠCon ver
Jo ong
Ġcoast line
ĠBea st
break able
Ġrepresent ative
ĠAc cess
see ing
Ġreflect s
Ġridd led
Ġpersu aded
Rod ney
- type
C ord
Ġb out
Ġh m
ĠG aby
ĠSc an
Mar ion
ĠJul ian
dam mit
Shar p
Ġscrat ching
-tra umatic
Snipp et
" Go
ik h
ĠPic asso
Ġfl ushed
Ġtyran ny
__ __
Ġc afe
ident ally
Ġbug ged
Ġhow l
ĠSh ota
Ġgen ie
Am it
Ġroad block
ĠVis ual
% A
G ill
N avig
j ira
in ni
ĠM R
ĠM alli
ĠM Ã©liÃ¨s
ĠD iet
Ġr ud
ĠF oxtrot
ĠSt arbucks
Ġcame l
up a
Ġtruth fully
ĠCan osa
ok in
Am ahl
Ġmis fortun
Ġcondition ing
duc ing
ĠHor us
ĠAT M
Ġlatt es
Ġmisfortun e
" An
B ergmans
C au
G oogle
G hajini
P am
Ġg uru
ĠI rina
na ils
ĠG ina
art ed
ĠH ood
ĠR oth
ud u
Ġlive ly
Sh r
As b
Al icia
Ġgl ac
Ġexpl oration
Ġinc iner
Ġinv aded
ĠSc ience
Pro perty
Ġmag istrate
Ġred irect
ĠSp aniard
Ġz ahir
Ġdel ta
erv atory
Ġglad ly
ĠAlex andra
Cle o
ĠLe ito
ĠFl int
Ġkil o
Rest ore
ĠSky ler
Mill er
Ġestablish ment
want to
Wid get
Ġsynt hetic
Amm i
ĠSupp ort
ĠCart a
" Well
' Then
- Look
5 4
6 9
D ata
L in
N elson
P ast
R u
S enpai
T an
V end
b ew
b oth
c ould
g ate
h ist
n h
in ished
Ġl ur
Ġp aws
st iltskin
ay ed
Ġre ap
ĠS kin
ĠM icky
ĠC ook
ĠC ash
ĠC openhagen
ĠD urai
ĠD SP
ĠR anjana
Ġthem es
Ġpro stitution
Ġtr ashed
ag a
Ġbo iled
ull ed
oll ect
ĠSt o
ĠV air
Ġsl ain
Ex ample
Ġgl ittering
ets uko
app ear
Ġsk ins
ĠRe hman
ract ed
Ġgod father
Ġsick er
Ġshort age
Ġexc ommun
Ġty phus
Ġdirect ors
âĢ Ŀ
Ġstraight forward
Ġdro id
-t ech
Pr ithvi
Ġvisit ation
Ġdraw ers
IC T
Em ir
ĠPl ug
Ġpred ic
asm us
Ġprogress ive
ĠApp arently
bur ger
Ġalert ed
Ġrobber ies
Norm an
ĠDam on
Ġrot ting
ĠHon our
ĠUnder stood
Ġfrequ ent
Ġappl ause
IF E
Ġdea rest
Ġdynam ic
Dri ving
Ġfrog s
Med ia
ĠGe zza
Ġmicro sc
Coll ins
ĠYas uko
ĠFil m
Ġtoug her
Yas uno
Ġtranqu ilizer
Ġparas ite
ĠHobb es
'Am ico
Ġpyj amas
ommission ed
- Please
- Take
- Par
A rif
A argh
C ind
C rew
D NA
D uggal
H oor
K akdi
M ode
M ajnu
O m
P iss
P aige
P ETER
R ishi
T ap
d r
h on
h ink
n andu
r ani
t ry
Ã ĺ
ou p
Ġa wo
on ic
Ġy ep
er ness
it ory
Ġc unt
Ġf lex
ĠI BM
ĠI reland
Ġo ct
Ġk m
ad ine
ill ery
ro st
Ġj a
Ġj ets
ĠC ors
ĠC omplete
ra ven
ĠD uty
Ġno blem
ĠL ope
ĠP ers
ĠP hantom
ĠR ail
ĠR andall
ĠE nt
ĠE lect
Ġpe oples
Ġbr inj
Ġbo gey
ĠHe ar
ach im
Ġcar ve
Ġfl ute
Ġhead lines
Ġsho ved
Ġsw ab
Ġbus hes
so ft
Ġsl ips
Ġcho pped
ĠShe ila
Ġmill enn
Our s
ĠGood night
men u
ched uled
Ġloc ally
ĠZ elner
Ch uck
Ne igh
Ġcommand os
Ġbur gers
En nis
Ġele ven
Mar ines
Ġsex ually
ĠDan ni
Ġsight ings
ĠNe gative
Ġill usions
Ġhi bern
ĠShaw shank
Ġwild erness
ĠFred erick
ĠComm un
Ġassum ption
egr ated
ĠOb viously
TS B
ĠTrans port
ĠTel marines
ĠDis play
ĠNor ris
ĠGirl house
ĠReg azzoni
ĠLo an
ĠThor in
Ġric hes
Ġlip stick
Ġmast ered
Ġcong ress
Ġtempt ed
ĠLO OK
fight ers
Ġvend or
ĠFUCK IN
Clot aire
Ġanest hetic
ĠJal adharanga
ĠPoll achi
Ġslee ves
ĠPoly akov
Autom atically
ryff ind
ĠCull ens
ĠLope z
" On
" the
" Or
' ight
( Smiley
. :
C ategory
J ordan
K athryn
L ink
M ort
M ord
R ules
S chool
S hip
T R
W ords
Y Ã¶ur
[ On
b bs
f ix
n as
n ance
t aker
w his
y Ã¶ur
~ čĊ
ľ %
Ġw ider
Ġw oken
Ġm onsieur
is ure
Ġc ured
Ġf ib
Ġp arrot
om er
.. _
Ġh orm
Ġwe irder
ic cup
se mble
Ġst omp
ĠS ham
ĠS ugar
ĠS addam
ĠC A
ĠC e
ĠC ell
Ġout d
op ilot
ĠA ang
ĠA gency
ĠA quila
ĠT inker
ĠD ru
ĠD ahl
Ġso d
ĠB alem
ĠG in
ĠG ON
Ġback ing
ĠP ig
ig l
ase o
em ic
ĠJ offrey
ĠF irangee
ĠN et
Ġv ocabul
Ġcl er
Ġle isure
red it
ĠHe ights
ang ini
Ġim penet
Ġchan ting
Ġad jour
ub ilee
Ġplay list
Ġatt ic
Ġheart less
Ġsecond ary
ĠY ea
Ġhard core
ik hail
Or ders
Ġside walk
Ġchar ging
Ġair space
Ġfree zer
Ġhon oured
Ġsweet est
Ġbomb ers
ĠSc ulley
-h umans
Ġstupid ity
-c on
Ġdisapp ointing
rec y
-m on
Ġaut umn
Ġprop ane
ĠMon key
ĠSm iley
ĠSim plified
Ġclim bers
ĠTe acher
Ġunc ertain
che ster
ĠMa hal
18 7
ĠPri x
Te le
iment ary
Ġund et
Ġenc hant
Ġscare crow
Ġtour s
olly wood
US H
ĠCont inue
ĠWar ner
Ġmerc iless
Ġcompet itive
Ġsin ned
ĠCo haagen
Car ol
ĠRad hem
Ġshel ves
Set up
ĠBet ty
Ġreleas es
ĠVik rant
ĠDesktop s
Eng land
Bri ggs
ĠSaturday s
Ġbask ets
Ġconce aling
Ġthread s
bl ack
Ġfert ile
Dem be
ĠHans en
Ġexplore rs
-gr ade
Cho colate
Report s
gro ve
Emm a
Exec ute
ĠPa alsamy
Ġmammoth s
Bur rows
Ġphysic ian
ĠMatthew s
Ġcraz ier
Ġwret ch
Ġramp age
anz ai
-z oom
Ele ven
Ele phan
Anim als
ĠLinges waran
Ġnavig ate
ĠBald ini
Ġcatastrop hic
ĠMes akaaran
Ġdiagnost ics
-ne gative
Ġumb rella
ĠBent ham
ĠSamp angi
Ġeffic iency
Ġnutri ents
ĠGON NA
" Off
, where
8 5
B arnes
D ays
D AY
J yn
L ET
M is
O dessa
V EN
W A
_ T
c r
c ant
g les
r ar
y land
Ġ <
Ġb ounds
it ored
Ġc uz
Ġc ipher
Ġg own
Ġp au
es is
ic ho
ac r
ri ving
Ġre ed
Ġst agg
ir ation
Ġan na
Ġwith stand
ĠM alekith
ry e
ch io
ĠA de
ra ble
ĠB re
ĠB usan
ĠB rig
ĠB hattu
ĠG ol
ĠL uck
ĠL adies
Ġman go
ĠP oss
Ġcom rade
ĠR aiden
ĠR utherford
are z
ĠJ ordan
ĠK EN
ĠE vent
ĠE versmann
Ġover look
Ġbl ames
ĠWhat s
Ġsc our
Ġun pleasant
Are a
og ol
ons ign
oc chio
Ġmar athon
ax man
Ġsleep walking
Ġtrans parent
AN I
Ġsweet er
ĠZ uko
ĠMom ose
ĠTH OUGH
ĠSha da
Ġhang s
Ġexc han
Ġfavor ites
Ġcry pt
Ġce real
Ġhost s
ĠTo gether
Ġbat hing
ĠTr aditional
ili pp
Ġaccess ory
Ġoffer ings
ĠQu ite
Ġbear ings
New s
ĠEm ile
Ã© e
Fr an
Ġcast les
Ġsnow fl
ĠPl ace
Fin n
ubb les
Ġprofession als
Ġminister s
Chan ces
ĠHank a
Ġscar ce
ĠRain a
umm kop
ĠCamp o
Ġjournal ists
Cy nthia
Ġsatisf ying
Ġheav ier
Ġconven ience
ĠLock ett
Beck et
ĠMA KE
ĠStew maker
Ġmol ten
Py thon
ĠObject ion
Ġassemb led
Ġadvert is
ĠFle ming
ĠNan u
ĠEas wari
Mel issa
Ġintimid ating
stan bul
ĠHug hes
Ġaspir in
igen ous
ĠCord ero
Ġparal ysis
Autob ots
ĠZet rov
ĠMild ew
ĠRH IB
ummkop f
' ..čĊ
B aron
D omin
J al
J ules
L ar
S utter
Y emi
[ P
b ows
k ush
z el
Ġt id
Ġa ust
Ġa erial
Ġm ule
Ġl air
ĠI mm
Ġp als
Ġp onies
Ġth w
Ġk et
ac ham
ent h
Ġas hore
our nal
ĠB ern
ĠG h
ĠG ollum
Ġbut ts
ĠP uja
ĠR ochester
ong men
ĠN ixon
Ġoff end
Ġv antage
ĠK amar
ĠK erns
ag i
Ġcl one
Ġpre liminary
ĠV ine
Ġdis sect
ily n
Ġass ail
Ġsw ears
Ġsl ash
ru ecker
Ġhit ch
Ġdi pped
ĠTH INK
Ġbuy ers
-s ize
Ġbur rows
gan za
Was hing
Ar range
Ġ.. ..
Hmm m
11 3
ĠMe aning
ĠMe acham
Ġapprec iation
Ġdisappear ing
OO O
Aut hent
ĠNight ingale
Ġfant as
Ġjam ming
ĠSur aj
ĠSH OULD
Ġassassin ate
ĠRick i
every one
ĠTit anic
Ġgig antic
ĠRos ie
Ġvent s
Da anish
Ġscrat ched
ĠPrad han
Ġfract ured
Ġvag ina
Respect fully
BO DY
tit les
ĠFU B
Ġseatbelt s
" Three
, take
A ihara
F e
J UST
P unch
p an
s ery
v ised
Ġc isco
Ġl uc
ic ut
Ġdo om
ri ver
ĠC hile
un ching
ĠL ocation
Ġman power
ĠF unny
ĠN igel
res hold
ĠV ader
Ġreal ms
Ġreal izing
Ġfuck s
Ġmat ern
ey n
ĠY uri
anc a
Ġsy ll
lic a
Ġtri umph
Ġcur ves
Ġelect ro
ogn itive
-w ar
Ġsepar ates
Ġnur sery
Raj jo
ĠShar ks
ĠGar gantua
Mil verton
******** **čĊ
Ġconce ived
-he e
à¶º à·Ĵ
Gold en
Ġtack le
ĠRub icon
Ġobtain ed
some one
Ġdread ful
Ġcockro aches
ĠAbhi jeet
ĠHend ry
Ġredund ant
ĠGret el
Ġperm its
ĠCany on
ĠConver gence
N U
g reg
Ġm asc
Ġbe ams
Ġre indeer
Ġst oned
Ġst alling
Ġv oting
ag in
Ġgreat ly
ib s
Ġcons iders
ĠPr iscilla
Ġprogram me
Ġmot ivate
ĠMa isey
Ġcelebr ated
rag a
ĠSund aram
ucking ham
Ġerr ors
Ġbracel ets
-St ain
ĠSav rinn
ill ac
ĠW azir
Ġret ali
Ġtrans actions
à· ľ
ĠInd epend
elt ic
Ġbarr ister
Y Y
ul gar
it ating
Ġen for
Ġwhis pers
g encies
ĠM owgli
ĠA id
Ġemer gencies
ĠMal ik
Ġment ions
Kn eel
Ġsucc umb
Ã µ
ir k
ĠS hy
ĠS unny
ĠM BA
ess ential
ĠV idia
Cl au
Mar co
Miss iles
Dev help
ĠOut side
Ġspell ing
Ġcrowd s
Ġgarden er
Pat rol
Pat terson
ĠBea utiful
ĠDa emon
Ġdeton ator
Second ary
Ġhob o
Ġlif eline
iat ric
Ġplot ting
Ġsevere ly
ĠRod ney
Ġvolcan ic
aghe era
hob ic
inni ang
- fe
- Sorry
/ M
E ating
G ary
H aw
K atherine
N inja
w ig
Ġc ush
ĠC OM
op al
un ter
ive l
ĠD irt
ĠP unch
el ie
ĠF ocus
ĠN um
ag ain
Ġbl o
Ġar chae
Ġfl ipped
oc lient
ub is
ĠU FO
hes ia
Ġcheck point
ik ed
lic ations
ĠAll an
Ġinst agram
ĠSh outing
ai i
Ġhigh light
Ġap es
ask et
Ġrob bew
Ġdirect ing
-s ite
Ab raham
-t e
Gr id
Ġer ad
rie ved
Ġdisplay ing
ĠEr so
High ly
Ġport able
Ass istant
Ġstress ful
ĠLA UGHS
ĠMus ic
ĠMo orthy
Josh ua
Press ure
ĠHam mond
Ġgenuine ly
Ġhem isphere
Ġnegoti ating
ĠTransl ate
Ġmosqu itoes
" These
' There
- pr
- Of
. a
A jju
B ol
L im
L os
L ying
M ountain
T ool
V ert
Y ear
c apt
g ary
w hether
Ġt ac
Ġt aco
Ġw altz
Ġy ah
Ġd ashing
Ġc reak
Ġc ologne
Ġf ountain
en u
Ġp ins
om ot
Ġhe lo
Ġh ips
Ġk e
Ġu gl
out ed
Ġgo ats
'm ma
ur pose
ĠM ang
ĠM ail
ĠC ARE
op ing
ĠA res
Ġup wards
ĠT ink
ĠD onna
ĠD ORY
Ġr im
Ġr ations
ĠL ATER
ĠW ife
ĠW orth
ĠW ELL
Ġde bugger
ĠP ill
ĠF ur
Ġhas s
ĠO tom
ĠK ev
ĠHe ard
ish ly
St ock
Ġrem ed
Ġpre vail
oc ard
Ġapp let
Ġend orse
ner gy
ĠHow ever
ĠCl oud
ĠBut ton
Ġdet our
Ġtrans gress
AN CE
Ġinform ing
-l et
Ġloc omot
à· ĸ
ĠSc ar
Sp it
-d imension
Ġart icul
ON Y
Ġdare s
Ġble ach
Ġir respons
Ġcurrent s
Ġbre aches
ĠPe acock
reg ard
aly zer
ĠCarl isle
Ġshout ed
Ġrac ial
Ġpassword s
ĠWil kins
Ġmult ip
Ġdeterm ination
Ġsed ated
ĠFis her
acc ount
Ġhous ing
ĠAtt ack
Ġpassion ate
Ġmanip ulating
Supp orted
Ġrecon nect
Ġadjust ed
Ġevey thing
ĠFran z
UL T
Ġdecept ive
ĠBull shit
Ġmoist ure
ĠWy att
ĠAff airs
Ġalum inum
Ġcaut ious
ĠRhod es
ĠOtom o
Ġlocomot ive
-dimension al
# čĊ
, please
- Time
A W
C aught
D ani
F em
G ear
G ET
H igher
K ER
L ately
L awyer
R one
R iz
T rou
c ourse
r and
ou bt
it ime
Ġf est
Ġf ries
Ġf ury
or ie
Ġl ull
Ġn ab
Ġh og
Ġh obb
Ġbe w
Ġdo ppel
Ġan omal
ĠS ubb
all er
ur am
ĠM is
op her
Ġab dom
ra it
ĠT ig
ie ls
Ġr angers
Ġsa ga
ĠW ON
ĠP rakash
ĠH olt
ĠR og
ol er
um per
ap le
Ġam er
Ġv ase
ĠK won
pl ess
Ġac adem
Ġmin ivan
av itha
Ġra ging
Ġsl ate
ĠY i
Ġchild ish
Ġchild birth
Ġwater fall
Ġcha riot
Ġgl or
ĠBr ady
ĠAll ow
Ġpick s
Ġinter section
Ġsound ing
Ġri pping
Ġcur sing
du ardo
Ġeye b
Ġrad ical
Ġrock ets
Sc ience
Ġconnect s
Ġaddress ing
Ġsqu eak
Ġelect ronics
Ġcold er
Ġcas ing
Ġpop ulated
bor ough
Ġur anium
ĠCon fessor
Ser ial
Ġauthor ize
OW D
Ġobs erved
Ġund ressed
Ġcup board
Ind ex
Ġloud ly
Ġreve als
ĠGreg or
Ġep id
Ġtap s
Ġreward ed
Ġassassin ations
Ġfrequ ently
ĠSch mid
Ġindust ries
Far han
NO CK
-W an
ĠPan el
Ġimprove ment
Ġorigin ally
Ġmour ning
Ġweep ing
Ġjer ky
ĠAk anksha
ĠWal ia
Ġacquaint ed
ĠSOME THING
Ġaccus ations
Ġorient ation
ĠCard iff
ĠSymbol s
Ġatroc ity
Incred ible
imil ian
Ġhav oc
Wond ering
Ġrelent less
ophren ia
ĠShek hawat
Ġmanh unt
Ġdoppel g
" F
" T
" is
" Are
% ,
0 6
B rain
C hal
F lor
J or
K ha
L oki
M P
P inky
R oot
T amil
V ES
Y uck
_ Variable
c ar
n ier
r one
ou za
Ġs hank
Ġb ending
Ġb ishop
Ġf aded
Ġl ured
Ġh ounds
Ġof this
im ack
ad en
Ġst rengthen
ir ut
Ġnot just
ant ages
Ġget away
ĠM aine
ĠC OME
ack y
ink illers
Ġright fully
ĠD uck
Ġwor shi
ĠB rew
ĠB azaar
ĠG amora
ie ving
au x
au reen
od iac
ain ing
ĠL ay
us c
end y
Ġal igned
ĠP rop
Ġpl a
Oh hh
ĠF if
Ġv u
ĠK ond
ĠK ane
Ġint rigu
Ġpe g
Ġcl ay
Ġmean while
Ġbr ink
Ġbr unch
th inking
Ġsec recy
ĠV iper
Ġfl ap
Ġrec reate
Ġsl a
Ġrest rict
Ġshit s
Ġfar aday
Ġcha ps
Ġhum iliate
Ġmonth ly
Ġwind ing
osp ace
Ġins ides
à· ĵ
AR N
Ġclass ical
Ġtop side
Ġma pped
Ġz odiac
Ġart icles
Ġmus ical
Ġed it
Ġstri pper
Ġcat ac
Ġequ als
Ġlow est
Ġpal ms
por ary
Ġheal er
low ing
Ġbathroom s
-A dam
omin us
ĠMal ina
Work ed
amm o
ĠRem ote
Ġtask s
Ġwreck ing
Ġcoward ly
Ren autas
imin ate
Ġpump kin
Pay back
ĠDar cy
Ġess ence
Ġtast ing
à·Ĵ à¶º
Ġrecon c
Ġlit eral
Ġtox ins
EO PLE
aph ne
ĠDem ons
ĠAC P
ĠSU V
Com ment
Ce lebr
Stat us
bul ence
Ġhypot hesis
tom orrow
Ġcockro ach
Brit ish
PAR CHER
Ġbisc uits
Ġdazz ling
Ġoutrage ous
ĠPed ro
Ġilliter ate
ĠGul ab
Ġgoss ip
Tex as
-part ner
Ġdow ry
- hearted
9 3
C Y
D ust
G round
N ICK
P ix
S ait
S een
W ife
X ML
f urt
Ġ es
in valid
Ġd ang
Ġd hot
Ġc av
ĠI RA
Ġp act
Ġp ounce
't just
Ġk a
Ġst ained
ĠM ult
ĠC ary
and ering
ĠD ust
ĠD ee
ĠG NOME
au er
ĠL onnegan
ĠN ature
ĠE w
Ġun limited
Ġun ravel
ty ard
Ġdis g
Ġche ater
Ġdr ool
Ġsupp ressed
Ġhum ility
omb re
Cl enching
Ġinc apable
Ġpick le
ĠIs lam
Ġbuild er
Ġchar med
Ġfe at
Un c
Ġvis c
Ġri gs
Ġbar ged
ĠDr ac
Ġclass y
ĠFor ward
First ly
19 1
-f ucking
Ġten nis
Ġtre mble
ĠOr lando
gu ards
ĠMon a
Ġgener ated
Ġvi able
Ġpen ance
Up stairs
asc inating
Ġconst ell
Ġbug ging
Ġsurveill ing
Ġsle eve
Ġbrief ly
Ġachieve ments
Ġguarant ees
ĠAnna bel
Ġpositive ly
ĠGreen land
Comp any
Ġsmok es
ĠSel ene
Comm un
Bull et
Ya ar
Ġtooth p
Ġtooth brush
-sp eed
Ġrhy me
Ġske et
ĠMid ian
Ġevolution ary
Ġtempt ation
à¶ļ à·Ĭ
'D ell
Ġpsychiat ric
ĠChild ren
Ġdough nuts
ĠPass word
ĠBroad way
Ġsib lings
Ġneglect ed
Ġpent house
Ġbik ini
ĠPortug uese
Ġcycl one
Ġwelc omed
' ...čĊ
, Kitt
- Five
C oop
D ORY
W aste
_ Next
k ka
l ah
p ants
Å ¡
Ġt haw
Ġs id
ad der
ust omed
ro f
ĠS ection
ĠC rab
ĠA round
ĠG IRL
Ġno ises
ĠL ot
ĠL ate
ĠR y
ol ts
Ġbl ues
Ġun protected
Ġhand gun
ug nu
int age
Ġacc ustomed
Ġpass ions
Ġcompl etion
br aska
ĠZ apata
ĠFr ont
Che f
ric orn
ĠEx change
Ġinvest or
Ġmis de
Ġcontin ents
Ġcontin uing
ĠOr c
ĠMon ster
ĠAb u
Ġgener osity
Ġspot light
Select ion
Ġpract iced
Ġview ing
het ical
ĠMet a
Ġocean ic
Ġmerc handise
Ġpresident ial
Speak s
Ġstab ility
rend an
ĠMars h
field s
Ġpurs ued
Ġsweat ers
ĠLy dia
Ġà¶ Ń
RO CKET
-e arth
Ġmer rily
Ġkilomet er
ĠSa fety
Ġsock et
ĠSk unk
WAT SON
Stat istics
pent er
ĠDrey f
Alco hol
' So
, he
A ha
H iro
M ath
g anda
Ġw anker
Ġb ash
en by
Ġth ighs
Ġwas her
Ġsu ed
Ġsa p
ĠP amela
ĠF EST
ĠK ids
Ġun breakable
ĠWe ird
ĠBr on
li ers
me asures
ĠRe bel
Ġpos se
Ġgovern ments
Ġstar ters
-a way
Ġanaly zed
Ġdim wit
ĠIraq i
Ġpant ies
Ð° Ð
ĠDecept icon
Ġpix buf
IV AL
Govern or
itzer land
anim ous
Ġribb on
Ġshamp oo
ĠFEST IVAL
J udge
W inner
We aring
Ġj itters
Ġout going
ĠG ita
ĠP ee
ul sion
qu or
Ġint ensity
St rong
ĠSc orpion
ugg le
ĠSw ed
ĠDun n
Ġconsum ing
-re ference
ĠOR CA
creat ure
et era
ank ing
Ġimp lying
ĠRoman ia
ĠCad illac
hale esi
ong a
ĠTempl ars
K ap
S i
ĠT old
How dy
Ġhouse wife
Ġra vi
Fuck in
ĠAm sterdam
Ġhair cut
Max imize
- Keep
- play
B arely
F ab
Ġb uns
ĠM ut
ĠN ordic
ĠK hushi
ĠK uwait
ĠYes terday
ĠAl zheimer
ĠSc otch
Call ed
ĠCo zier
ĠBet ween
Ġexecut ing
Ġsmugg ler
Ġsatisf action
ĠKen obi
ĠPrinc eton
ĠHost rup
( LAUGHS
C ASE
D R
D ive
P leased
t holog
Ġc ache
ĠA haana
ĠB ryan
ĠG arrison
Ġpl oy
ak o
Ġby tes
Ġbo on
ĠNo lan
For got
Ġimp atient
Ġhot ter
Sc ient
eed a
Ġbirthday s
aul ting
Ġtele path
Ġdepartment s
ĠJo ong
EA D
ĠWest lake
Ġsen ator
Ġreveal ing
Ġattach ments
Dar cy
ĠCorpor ation
-ray s
ĠColor ado
Ġoverd ose
Park er
Fel ix
Gal en
Ġmild ly
Ġtremb les
Ġmun itions
Ġobsess ive
Ġrefriger ator
ĠCaucas ian
occup ied
Ġengin eered
âĢĿ čĊ
Clau dia
" Mr
- all
6 70
B Y
C ry
C ond
C iv
C oulson
J oke
L ane
N M
T TP
m hing
m ary
s ure
z ra
Ġt idy
he ard
in ema
Ġw iring
Ġd warves
Ġc app
Ġf umes
Ġg roc
or ch
om ena
st en
Ġin e
Ġof a
Ġk l
ĠS aj
ĠS uk
ĠC os
ra ju
ĠD arn
ĠD umbledore
Ġher bs
Ġsu p
ain bridge
Ġsa ge
us ks
ĠW AY
ĠP oor
ĠH ann
ĠR u
ĠJ ensen
Ġsp leen
thing s
Ġdown s
ĠK orn
ĠK ELL
ĠK ILL
Ġbl ouse
Ġen abling
ob ally
In spect
Ġfl ashing
Ġcare ers
Ġdis pen
Ġsupp orters
iv ac
Ġdec ommissioned
Ġco zy
Ġmet h
Al bert
de v
ĠAll eline
uc ci
Ġinter ior
Ġmed ivac
Ġtrans fers
Ġext radition
Ġforg ave
Hold ing
ĠPr atap
Ġrecord ings
Ġdark est
Ġcommand ed
-f i
ortun e
IT CH
Ġweird o
Ġcas inos
aff ed
Ġprov ince
Ġviol in
Ġreb orn
El ena
Ġhunt s
ĠEll a
Ġfuel ed
hab ited
Ġpin point
ĠIntern al
Ġtent acles
Ġmotor cade
ĠHy d
Ġpupp ies
Ġproceed ings
Prep aring
Ġacqu ire
ĠHE LP
Ġexerc ises
ĠMic he
rad io
ÃŃ li
Ġlect uring
Ã¼ h
Ġpoll s
ĠOlymp ic
erd ash
Protect ing
ĠPand ora
fa que
Ġbegg ars
anov a
Ġquar rel
Ġprocl aim
Ġsnoop ing
Ġcontag ious
ĠCheval ier
Ġgroc ery
" Moment
' N
- Fred
. k
/ /
/ K
: $
: //
B havani
C asey
H arrison
M oon
N ames
O mar
T essa
Y vette
d itary
i jing
k ick
p olice
s se
Ġm ute
is se
Ġb aking
or ola
Ġl uscious
ĠI gnore
et ee
ar aju
ill us
Ġre r
Ġst int
Ġst ated
ee ee
Ġcan e
ĠS ue
ur aman
... 'čĊ
Ġhere ditary
ĠM erry
ĠM aze
ĠC R
ĠC onsider
ack ham
il ient
il ton
and i
Ġsh ines
ĠB erk
ĠB ingo
ĠG imme
ĠL is
ĠW olf
ĠW itwicky
Ġde mented
ĠR idge
ĠR angers
ĠR ackham
um at
Ġex or
ĠF au
ĠF TP
Ġpro long
ĠN ep
ĠN ICE
ĠK oki
ĠK angini
Ġsc uba
ass ic
uch i
urn ed
Ġpre jud
Ġfl apping
Ġlast ed
ock et
Ġsm ug
ren ched
Ġfound ed
Ġsha pes
Ġdec line
ĠDon ny
Ġpret ext
rol og
Br idge
Ġbook ie
ham ber
esc ope
IN DER
Ġsn or
Ġsub ter
ĠZ akir
ĠGr ammy
Ġstep dad
ĠCha lk
Am berle
Ġdark er
Ġind icted
Ġbur ro
ĠAm bo
Ġsuper st
-m art
une z
Ġdev ils
ĠAb ort
Ġur ban
Ġcoun se
Ġview er
iff any
Ġspl endid
ĠPl ayer
Ġreact ing
ĠAir ways
Ġpus hes
Ġintern ally
Ġtour nament
Ġnon etheless
Ġrev ision
ĠAust ria
aik wad
-B ag
Aut osave
Ġdisp atcher
ĠBE FORE
Ġautom obile
Ġguarant eed
ĠDay light
oms day
Ġunf inished
Super b
Ġmax imized
Ġregist ry
Ġmaid s
Ġsmugg lers
Ġsan ity
Ġlob ot
Supp ose
Ġfasc inated
ribut es
Sl ide
-de gree
Ġmel od
Ġdiss olved
Ġmemor ize
ĠGaj endra
Jay e
ĠâĢ ľ%
ament al
ĠUs age
Ġmarri ag
Ġvigil ante
Ġperpet rators
aghe tti
Ġsib ling
Ġintox icated
Sund ay
ĠWOR LD
Ġsubstant ial
Ġdisqual ified
Aff irmative
Ġvocabul ary
Ġprejud ice
" Never
- Now
- aw
- shit
2 20
A ge
B ush
D V
D im
D ynam
D ALE
E st
H u
L ives
O bs
P ossible
P LA
R ot
R aiden
V a
c ino
g led
h gal
o ire
t z
t ray
Ä ģ
Ġw ang
on ge
Ġc el
Ġg arrison
Ġl akes
Ġl icking
Ġn aming
Ġp ecker
Ġo swego
st ones
Ġwe pt
Ġwe ighed
ver ill
ri on
ri ven
Ġcan opy
ĠS ama
ĠS ession
ĠS ource
ĠC ay
ĠC rayne
op ic
Ġlike lihood
ra f
ĠD A
ĠD aksh
ĠB uck
ĠB aven
ĠW adia
Ġback tr
ĠP AR
ak ottai
ĠJ ud
Ġgu ides
el ina
fe ld
ĠF ug
ĠF antastic
ĠF iji
Ġpro stit
Ġhas h
How ie
ĠK hand
ag ged
lf a
Ġover turn
Ġle v
My self
ew itness
St ates
ny der
ĠWe ek
ĠSt ap
ĠV icky
ict ure
Ġcomp ly
Ġcomp elling
ank y
Ġapp les
Ġsha dy
Ġco er
Ġsw at
Ġsw ish
Ġsw apped
ild e
Ġfin ances
air a
ru v
ĠCl ot
Ġprom ote
anc ies
Ġcompl etes
10 5
10 9
Cl ock
Br own
ĠIn put
Ġlear ner
Ġcur ly
Ġsn uck
Ġsub mer
Pro perties
ĠCha o
Ġmark ets
-c old
ĠFor rest
Ġcap abilities
Ġind igenous
ĠAm os
-d riven
Ġhide out
Ġtre k
Ġcontin uum
Ġinf initely
Ġrece iver
ĠSay s
ĠQu il
Ġdiam eter
Ġsad ly
TH I
Ġpen n
ĠDan iels
Ġfreak in
ĠMin istry
Ġsepar ator
Sw ing
Ġbuck ets
ĠMad havi
ĠTO O
Ġconsider able
Ġincl ined
'S ouza
ĠAd v
ĠBrother s
Col ony
ĠRay akottai
Sar oja
Ġamount s
Ġchair s
ida an
Ġrobot ic
Ġorde al
Ġtim ed
Ġspell s
Ġaccording ly
ĠCy clops
Ġsneak y
lev ator
Pass ion
Ġà¶ ¯
ĠGl ory
ĠSal am
Ġcal ves
Par is
ĠSP ELL
Mil k
******** čĊ
Ġlob ster
Ġconsequ ence
Ġprim itive
Kat ia
ĠCas per
ĠCH ILD
ĠMed iterranean
Dec ept
Ġmal aria
ĠTel marine
ien na
Ġspark ly
Ġbored om
ĠCast or
Ġdestro ys
Ġisol ate
Way ne
CR OWD
Ġlength s
ĠRat haway
Ġeconom ics
Ġank les
Ġabandon ing
Bec ky
ĠLog in
ige ons
ĠBeat rice
ĠTA O
ĠTA KE
Ġobey ed
Squ ad
Ġfurn ace
ĠVal halla
Ġconstruct ed
Ġstair case
Ġabsor bed
sl aughter
Rom illy
Ġht ml
Ġwhi pped
Ġsquir rel
Prec ise
Ġobed ient
hans hyam
ĠPav lov
ĠBaven od
" See
" Am
' Do
- Lord
C and
C hop
D ahl
F inal
I ron
R aul
S av
T itus
V iol
_ Replace
c hat
i ago
l ittle
s un
w yn
y out
Ġw its
Ġm end
it aire
Ġf rench
Ġg ad
Ġg ib
ve kar
Ġn atives
Ġp all
es adilla
ot ally
at own
ome ver
ĠS K
... ,
if ics
ĠC ookie
ĠD ix
ĠG lo
Ġher bal
Ġno ses
Ġlo af
Ġlo oting
ĠL ive
ĠL ower
ĠL enny
Ġpl umber
ime y
ĠF ent
ĠN ile
ĠK atherine
Ġover take
Ġbr othel
Ġbl azing
Ġun married
ark s
Ġrem oval
Ġthought ful
ons ole
ath om
Ġapp e
Ġrec harge
Ġmon aster
ash rath
dy s
Ġsl ot
Ġdes ired
Ġwater board
Ġexp osing
omb s
ĠBr an
Ġexpl ored
Ġspec ifics
Ġhat ches
Ġinc ur
Ġcop ied
Ġbody guards
Ġtri angle
Keep s
Rem y
AR T
ĠTh under
ĠInd ominus
Ġcell phone
ĠPr ideaux
Che w
Ġrespect fully
tern ate
Sc ary
Ġten ants
Ġadv antages
ĠDe unan
ĠAs her
Ġstri pe
OR TER
Ġtext ure
ĠRam one
Fr ame
Ser ious
Ġdrunk en
Ġcrack er
Ġenc oded
Ġpus her
eng aged
ops ang
Ġstock ed
-B ug
Ġlat itude
Ġdisp ute
ĠSol itaire
ĠFel ice
Ġbang les
ĠMo ving
burg ers
AA AA
ĠInter face
Jac q
Ġatmosp heric
ĠReg ina
Ġpip eline
ĠNar vekar
Ġcliff s
Bec ome
Ġregion al
Ġslipp ery
Ġoblig ation
Hum ans
Gas ps
haz ar
Ã³ n
ĠSau mensch
Ġnan otech
Ġchim ney
Ġkar ma
Jess ica
Ġpaw ns
Ġdeduct ive
ĠMerr imack
Ġmicrop hone
Sus pect
Ġabund antly
Mars hal
Ġmuff in
'H are
Inn ocent
(T arr
Ġfres hen
Ġamuse ment
Ġcontamin ated
ĠKes ava
Ġimpenet rable
onsign or
( SP
, just
- aid
; }
A z
B ore
B eth
D arn
D olphin
P ig
P api
W olf
Z amani
c ases
o j
o ors
Ġ +
Ġt i
Ġa ven
in qu
Ġd ah
Ġg inger
Ġn ook
Ġn ode
Ġp se
Ġhe d
Ġof my
ld ers
ver ine
ad i
Ġfor ger
Ġre formed
Ġre nov
Ġst ool
ee ches
ĠM ight
ĠC arry
ĠC oulson
ĠT ask
ĠD il
ĠB rendan
Ġus ername
ge ons
Ġr ows
Ġde leg
ĠH at
ĠJ eep
el ope
Ġcl ipped
Ġdidn it
Ġsc ored
Ġun real
ĠV ivian
av ka
Ġcr ane
Ġcomp el
Ġatt he
Ġmon itored
ĠAnd hra
ĠCh ill
Ġrel uct
Ġret rieving
Ġev os
ange lo
Ġtrans mitted
sh ots
Ġdisc reet
Ġcur ator
ched ul
Ġve tt
Ġspecial ized
ari us
Her oes
-t im
Pl ane
Ġsmart ass
ĠChe w
40 8
Ġexam ining
ĠCol ter
duct ions
Ġforce fully
-w rap
ĠSome where
Ġill ust
Ġciv ic
ĠMark ham
ĠJo anna
Sing h
Ind entation
Ġver b
Ġcompet itors
Step hen
Ġbrill iance
Co haagen
Shoot ing
Ġrac ist
ĠCheck ing
Min imum
-T aj
Ġdesp ise
Ġhabit at
ĠST AY
ĠEven ing
Ġhelm ets
Ġchap el
Sil ver
ĠJer icho
Ġbatt alion
ĠEver ly
Pack age
ĠPick le
ĠSpeak s
Ġobst ruct
ĠKnow les
Sold ier
ĠMem ory
Ġcin namon
Sel vi
ĠChat ter
Ġsimpl est
Ce ase
Ġnegoti ator
Park ing
Ġsuspic ions
ĠKingdom s
ĠOm nic
Div ya
ĠChin na
"J ingiliya
Imm ediately
Ġaccus ation
ĠHem dale
Ġsaus age
ĠAx e
Ġvett ed
, OOO
/ Russian
/ Ukrainian
E X
H auser
M ott
P ear
R idiculous
S ana
b in
c ur
p anting
r st
Ġt ink
ha de
Ġd ensity
it imate
id st
ir c
ro ve
ĠS ikes
ĠM inkowski
ea le
ĠC LE
ĠT hawne
ĠB uckingham
Ġr ites
ĠL udd
ĠP oo
ĠE gg
She lby
ber mann
Ġbl adder
pl ore
Ġun ve
Ġwr ists
ĠSt eale
Ġche tan
Ġgr umpy
ank aj
Ġcho ked
Ġem ails
Ġdeal ings
Ġhat ing
Ġimp ost
ĠSh rike
Ġcop ying
Ġchar itable
Ġpat ches
** *
Ġfore most
Ġdist inction
ĠZ hao
ract ive
ĠTh r
Ġfault s
Ġref ill
Ġtext book
Ġsal ty
Ġjail ed
Ġsumm ers
Ġpen itentiary
Ġpoor ly
ĠNe braska
Copy right
Ġamb ushed
Ġenter prise
Att ila
Ġcart els
Ġoccur rences
ĠBur rell
Ġlaptop s
ĠFollow ing
Ġdiagn osed
ĠMA V
Ġpac ify
Ġfig ment
Ġsculpt ures
ĠHu bermann
ĠRiz u
Ġdiso bey
Oct ober
cal endar
Ġcripp led
Washing ton
F lo
V ala
W hichever
_ t
i ang
i ating
n zt
r ative
Ġc ert
Ġin ex
ĠA ven
ĠT am
Ġback bone
ĠJ odi
Ġrem od
Ġfl own
Ġcare less
Ġdec ode
Al arm
att i
Ġtrans c
Keep ing
Ġwh ites
Ġve gan
eter ia
Ġsort ing
ĠPro ceed
ĠEx p
ĠDe rek
ĠSe ine
Ġguard ians
Ġsuff ocate
Ġknock s
het ically
Del ivery
Ġrev ive
aik o
Ad i
Ġrepl acing
Ġsou venir
Shan e
Wha le
MAR LIN
Ge offroy
Ġcough ing
Ġcaf eteria
ĠFIR ST
-St yle
ĠWang du
ĠDian e
C eltic
im by
ĠT onight
ĠG a
Ġhome made
ib bean
val ue
wood s
Car ver
ĠAct ive
Ġlem mings
ĠDy ke
7 1
Ġirrit ate
ĠShiv gad
M eta
Ġpr ow
Ġadvis or
or ic
Ġth und
ea rest
Ġup hold
ach lan
Ġnorth west
Ġinterrupt ed
Inf act
Ġinconven ience
t old
Ġs wo
Ġme ad
ri ous
ĠM emp
op ol
ell erman
ĠT ahiti
ĠD OS
ĠP ep
Ġacc um
Ġchi val
Ġdef ines
Ġdep ressing
Ġdev ote
Ġmir rors
Cha ri
ĠRob inson
ĠVas ant
Fl oyd
-st yle
Ġrub ber
ĠTer ror
Ġfro ze
Ġsquad ron
ĠStand ard
Ġnic est
Ġexpand ing
Ġconting ency
ĠMemp his
" Thank
, not
- essential
/ %
0 7
M ember
S HE
T roy
d ul
m el
Ġ icy
Ġa lex
in ement
Ġm ower
Ġb illy
Ġp uke
Ġmy tholog
ind u
us uf
qu ate
Ġpe bble
Ġcl oudy
ĠHe alth
Not hin
Ġrem a
ans ing
Ġfl uffy
Ġsl um
ars ity
ult s
Ġconf inement
Ġchar mer
Ġtrans cript
li est
Ġri b
OU S
Ġins urgents
Ġsim ilarly
ĠGr ac
ĠAr is
fer red
Ġprof ess
Ġstar ter
ĠMe ga
ĠX an
Ġmagn itude
'I I
Ġpropos ition
[...]
