{"!":0,"\"":1,"#":2,"$":3,"%":4,"&":5,"'":6,"(":7,")":8,"*":9,"+":10,",":11,"-":12,".":13,"/":14,"0":15,"1":16,"2":17,"3":18,"4":19,"5":20,"6":21,"7":22,"8":23,"9":24,":":25,";":26,"<":27,"=":28,">":29,"?":30,"@":31,"A":32,"B":33,"C":34,"D":35,"E":36,"F":37,"G":38,"H":39,"I":40,"J":41,"K":42,"L":43,"M":44,"N":45,"O":46,"P":47,"Q":48,"R":49,"S":50,"T":51,"U":52,"V":53,"W":54,"X":55,"Y":56,"Z":57,"[":58,"\\":59,"]":60,"^":61,"_":62,"`":63,"a":64,"b":65,"c":66,"d":67,"e":68,"f":69,"g":70,"h":71,"i":72,"j":73,"k":74,"l":75,"m":76,"n":77,"o":78,"p":79,"q":80,"r":81,"s":82,"t":83,"u":84,"v":85,"w":86,"x":87,"y":88,"z":89,"{":90,"}":91,"~":92,"¡":93,"¢":94,"£":95,"¤":96,"¥":97,"¦":98,"§":99,"¨":100,"©":101,"ª":102,"«":103,"¬":104,"®":105,"¯":106,"°":107,"±":108,"²":109,"³":110,"´":111,"µ":112,"¶":113,"·":114,"¸":115,"¹":116,"º":117,"»":118,"¼":119,"½":120,"¾":121,"¿":122,"Â":123,"Ã":124,"Ä":125,"Å":126,"Ë":127,"Î":128,"Ð":129,"Ñ":130,"à":131,"â":132,"ç":133,"é":134,"ï":135,"Ċ":136,"č":137,"Ġ":138,"Ģ":139,"ģ":140,"Ĥ":141,"ĥ":142,"Ħ":143,"ħ":144,"Ĩ":145,"ĩ":146,"Ī":147,"ī":148,"Ĭ":149,"ĭ":150,"Į":151,"į":152,"İ":153,"ı":154,"Ĳ":155,"ĳ":156,"Ĵ":157,"ĵ":158,"Ķ":159,"ķ":160,"ĸ":161,"Ĺ":162,"ĺ":163,"Ļ":164,"ļ":165,"Ľ":166,"ľ":167,"Ŀ":168,"ŀ":169,"Ł":170,"ł":171,"Ń":172,"čĊ":173,"Ġt":174,".čĊ":175,"he":176,"ou":177,"Ġa":178,"in":179,"re":180,"Ġw":181,"Ġs":182,"ha":183,"on":184,"Ġy":185,"Ġyou":186,"Ġm":187,"Ġthe":188,"is":189,"Ġb":190,"er":191,"ll":192,"Ġd":193,"ing":194,"it":195,"Ġc":196,"?čĊ":197,"Ġto":198,"an":199,"Ġf":200,"Ġg":201,"or":202,"hat":203,"ve":204,"Ġl":205,"ĠI":206,"en":207,"Ġn":208,"'s":209,"ow":210,"ed":211,"Ġp":212,"om":213,"Ġo":214,"es":215,"nd":216,"ot":217,"et":218,"Ġhe":219,"ar":220,"..":221,"st":222,"at":223,"!čĊ":224,"Ġth":225,"Ġh":226,"ay":227,"Ġha":228,"Ġin":229,"Ġit":230,"Ġof":231,"'t":232,"le":233,"Ġme":234,"as":235,"Ġbe":236,"You":237,"Ġon":238,"Ġis":239,"id":240,"gh":241,"Ġthat":242,"Ġk":243,"Ġu":244,"ld":245,"Ġwe":246,"im":247,"ic":248,"ut":249,"ac":250,"se":251,"al":252,"ke":253,"Ġand":254,"Ġe":255,"ght":256,"ver":257,"out":258,"oo":259,"Ġdo":260,"ri":261,"The":262,"ome":263,"ad":264,"Ġfor":265,"Ġyour":266,"ill":267,"Ġre":268,"Ġthis":269,"am":270,"He":271,"Ġst":272,"ir":273,"'re":274,"Ġhave":275,"We":276,"ust":277,"Ġmy":278,"Ġgo":279,"Ġare":280,"Ġkn":281,"Ġnot":282,"'m":283,"ion":284,"Ġli":285,"Ġan":286,"ly":287,"ith":288,"ro":289,"Ġknow":290,"Ġwas":291,"What":292,"ee":293,"ent":294,"Ġwith":295,"Ġcan":296,"ould":297,"...čĊ":298,"ĠS":299,"all":300,"Ġj":301,"Ġne":302,"her":303,"ho":304,"ant":305,"Ġdon":306,"ec":307,"ur":308,"...":309,"Ġhere":310,"hing":311,"Ġwhat":312,"Ġget":313,"if":314,"ĠM":315,"It":316,"ea":317,"Ġhim":318,"ake":319,"ĠC":320,"pp":321,"Ġout":322,"ack":323,"'ll":324,"one":325,"ter":326,"ry":327,"op":328,"ch":329,"Ġall":330,"un":331,"Ġab":332,"ce":333,"ĠA":334,"Ġas":335,"Ġup":336,"Ġjust":337,"our":338,"right":339,"il":340,"and":341,"han":342,"ook":343,"No":344,"Ġlike":345,"ra":346,"ell":347,"Ġwant":348,"ck":349,"Ġsh":350,"Ġat":351,"ĠT":352,"Ġdid":353,"ink":354,"ive":355,"Ġwill":356,"ood":357,"Ġright":358,"Ġabout":359,"ind":360,"Ġgot":361,"And":362,"Ġthere":363,"ĠD":364,"na":365,"ight":366,"very":367,"hy":368,"rom":369,"Ġwor":370,"Ġso":371,"ore":372,"ĠB":373,"Ġus":374,"ge":375,"ĠG":376,"ie":377,"Ġher":378,"here":379,"Ġone":380,"au":381,"art":382,"Ġany":383,"od":384,"Ġno":385,"ess":386,"Ġsu":387,"'ve":388,"Ġr":389,"Ġthey":390,"Ġthink":391,"Ġlo":392,"ain":393,"own":394,"Ġsa":395,"ĠL":396,"us":397,"end":398,"Ġal":399,"Ġsee":400,"ist":401,"Ġnow":402,"That":403,"ĠW":404,"ame":405,"Ġfrom":406,"Ġde":407,"est":408,"ate":409,"Ġbut":410,"hen":411,"Ġback":412,"Ġneed":413,"Ġman":414,"ĠP":415,"Ġcom":416,"ig":417,"Ġif":418,"ab":419,"ast":420,"Ġpl":421,"ĠH":422,"ime":423,"ally":424,"ct":425,"kay":426,"ĠR":427,"ol":428,"Ġsome":429,"Ġhis":430,"os":431,"his":432,"ation":433,"Ġthem":434,"Ġwho":435,"Ġgoing":436,"But":437,"ers":438,"onna":439,"Oh":440,"ong":441,"ak":442,"Ġgonna":443,"ase":444,"rou":445,"ul":446,"um":447,"nt":448,"Ġsay":449,"em":450,"are":451,"ear":452,"Ġshe":453,"ice":454,"ine":455,"Ġor":456,"ĠJ":457,"Ġcon":458,"Ġcome":459,"Ġwould":460,"Ġgu":461,"They":462,"Ġtime":463,"Ġ-":464,"Ġex":465,"ĠYou":466,"eah":467,"ect":468,"qu":469,"alk":470,"Hey":471,"el":472,"other":473,"Ġwere":474,"fe":475,"Ġour":476,"ard":477,"So":478,"Ġlook":479,"This":480,"way":481,"Ġtell":482,"Ġsp":483,"Ġbeen":484,"ĠF":485,"Ġpro":486,"Ġhas":487,"ure":488,"ick":489,"thing":490,"ace":491,"omet":492,"ap":493,"Ġhapp":494,"ort":495,"\"čĊ":496,"Ġag":497,"Ġtoo":498,"Ġtr":499,"ĠO":500,"Ġtake":501,"ĠN":502,"Ġgood":503,"Ġdown":504,"ven":505,"Ġoff":506,"ide":507,"..čĊ":508,"Ġam":509,"Well":510,"Ġevery":511,"Ġcould":512,"Ġthing":513,"lease":514,"Ġv":515,"Yeah":516,"uck":517,"ire":518,"How":519,"If":520,"Ġway":521,"itt":522,"Ġhad":523,"There":524,"ause":525,"omething":526,"lp":527,"ĠK":528,"ĠE":529,"ble":530,"Ġwhen":531,"ag":532,"Ġint":533,"Ġhow":534,"hi":535,"Ġshould":536,"ous":537,"Ġtalk":538,"Ġkill":539,"res":540,"She":541,"Ġpe":542,"Ġcl":543,"Ġdidn":544,"Ġcall":545,"Ġwork":546,"Ġby":547,"Ġlet":548,"ople":549,"Ġhappen":550,"ove":551,"Come":552,"Ġsomething":553,"lf":554,"ity":555,"Ġguy":556,"Why":557,"reat":558,"'d":559,",čĊ":560,"Ġmake":561,"Ġonly":562,"hank":563,"Ġmean":564,"nder":565,"Ġlove":566,"age":567,"ait":568,"Do":569,"eep":570,"Ġday":571,"ud":572,"Ġover":573,"Ġbr":574,"ber":575,"Ġbl":576,"Ġpeople":577,"Ġmore":578,"th":579,"Ġfind":580,"ound":581,"ff":582,"Ġnever":583,"Ġle":584,"Yes":585,"Ġbo":586,"ose":587,"Ġhelp":588,"ving":589,"Ġse":590,"ies":591,"Ġdoes":592,"wo":593,"ther":594,"ree":595,"Ġsaid":596,"pl":597,"Ġlea":598,"act":599,"orry":600,"ĠWhat":601,"Ġwhy":602,"red":603,"ond":604,"iss":605,"ody":606,"Ġwhere":607,"Ġen":608,"Don":609,"My":610,"Ġqu":611,"ew":612,"pt":613,"Ġokay":614,"Ġro":615,"Ġgive":616,"Ġthen":617,"Ġsc":618,".\"čĊ":619,"ather":620,"All":621,"Ġdoing":622,"ting":623,"ady":624,"ittle":625,"Ġunder":626,"Ġreally":627,"ass":628,"Ġsir":629,"Ġbec":630,"be":631,"riend":632,"ning":633,"ue":634,"ost":635,"Let":636,"Where":637,"ĠHe":638,"Who":639,"ull":640,"per":641,"Ġlittle":642,"Now":643,"self":644,"ob":645,"ave":646,"Ġagain":647,"irst":648,"ment":649,"Ġlife":650,"Ġbet":651,"Ġun":652,"fter":653,"Ġask":654,"uch":655,"ite":656,"Ġinto":657,"old":658,"Ġeven":659,"ish":660,"St":661,"Ġtwo":662,"ĠIt":663,"Ġyear":664,"Ġpr":665,"Look":666,"har":667,"Okay":668,"ne":669,"iz":670,"ade":671,"round":672,"ĠNo":673,"fore":674,"ft":675,"Ġ\"":676,"Not":677,"get":678,"Ġbel":679,"Ġother":680,"Just":681,"Ġmuch":682,"Ġvery":683,"ought":684,"ough":685,"Ġname":686,"irl":687,"urn":688,"ny":689,"ang":690,"Ġim":691,"eel":692,"Ġhand":693,"ord":694,"ach":695,"Ġanything":696,"ep":697,"ark":698,"Ġthese":699,"Ġaway":700,"Ġtry":701,"body":702,"Ġar":703,"Ġcar":704,"Are":705,"Ġfriend":706,"Ġsec":707,"row":708,"Ġchan":709,"Get":710,"Ġtheir":711,"ĠWe":712,"Ġrem":713,"Ġstill":714,"day":715,"Ġgirl":716,"ise":717,"Ġhome":718,"Ġbefore":719,"Ġkeep":720,"Ġnew":721,"oney":722,"00":723,"Ġwr":724,"ia":725,"Ġsure":726,"Ġlong":727,"Is":728,"Ġwon":729,"Ġthan":730,"Ġwat":731,"ress":732,"Ġsorry":733,"Ġfirst":734,"oll":735,"Ġfeel":736,"Ġtold":737,"isten":738,"Ġ'":739,"Your":740,"Ġafter":741,"Ġac":742,"ĠSt":743,"Ġpre":744,"aybe":745,"ieve":746,"ans":747,"og":748,"Ġmin":749,"ty":750,"In":751,"orm":752,"ail":753,"Ġwait":754,"Ġplease":755,"ĠV":756,"hic":757,"Ġmust":758,"ory":759,"Ġthought":760,"Ġhappened":761,"Ġfl":762,"we":763,"Ġfather":764,"ĠThe":765,"Ġyears":766,"Ġcare":767,"Ġnight":768,":čĊ":769,"Ġkid":770,"Ġlast":771,"stand":772,"Ġbecause":773,"Ġcoming":774,"ance":775,"ool":776,"ions":777,"ever":778,"Ġdis":779,"Ġleave":780,"Ġson":781,"ip":782,"ily":783,"Ġplace":784,"ile":785,"Ġcont":786,"sp":787,"Ġput":788,"ious":789,"Ġguys":790,"Ġpart":791,"ock":792,"xt":793,"Ġsm":794,"Ġstart":795,"pen":796,"Ġad":797,"Ġmade":798,"Ġact":799,"ug":800,"able":801,"Ġboy":802,"ĠGod":803,"Ġplan":804,"int":805,"Ġhell":806,"Ġstop":807,"hed":808,"ouse":809,"ount":810,"aught":811,"Ġdone":812,"Ġreal":813,"ign":814,"Ġbelieve":815,"Ġworld":816,"side":817,"Ġever":818,"Ġwell":819,"aking":820,"Ġrun":821,"av":822,"oss":823,"ways":824,"Go":825,"ĠMr":826,"Ġaround":827,"Ġfuck":828,"ary":829,"ons":830,"Ġunderstand":831,"Ġte":832,"Ġlive":833,"Ġhead":834,"Ġche":835,"Please":836,"Ġdoesn":837,"Ġminut":838,"Ġel":839,"ial":840,"ried":841,"When":842,"Did":843,"Ġstay":844,"ence":845,"Thank":846,"Ġmove":847,"ath":848,"Ġbu":849,"Ġcr":850,"Ġid":851,"Ġleft":852,"Ġbetter":853,"oc":854,"aw":855,"Ġtra":856,"ren":857,"Sh":858,"rough":859,"Ġmoney":860,"Ġeverything":861,"Ġthings":862,"Can":863,"Ġcame":864,"Ġthose":865,"port":866,"hich":867,"up":868,"Ġhear":869,"ict":870,"Ġshow":871,"Ġfound":872,"Ġdead":873,"Ġass":874,"Ġlot":875,"ta":876,"ated":877,"Ġfam":878,"Ġsomeone":879,"Ġthrough":880,"ember":881,"Ġalways":882,"Ġcomp":883,"ix":884,"Ġwrong":885,"Ġbig":886,"Ġown":887,"Ġmat":888,"Then":889,"ye":890,"Ġper":891,"mm":892,"Ġmar":893,"Ġdr":894,"ub":895,"Ġnothing":896,"Ġgreat":897,"Ġph":898,"Ġbad":899,"Ġelse":900,"Ġsupp":901,"ful":902,"Ġtalking":903,"Ġmeet":904,"ister":905,"Ġcour":906,"Ġbrother":907,"ike":908,"Ġpo":909,"ecause":910,"Ġgr":911,"ank":912,"âĻ":913,"Ġsur":914,"Ġapp":915,"Good":916,"iv":917,"Ġmiss":918,"ian":919,"ng":920,"Ġplay":921,"oy":922,"Ġhouse":923,"Ġatt":924,"ually":925,"Ġwanted":926,"Ġsho":927,"ĠU":928,"ĠThat":929,"Ġlooking":930,"Ġgetting":931,"ied":932,"blem":933,"Ġold":934,"Ġkind":935,"Ġrec":936,"Ġsha":937,"Ġser":938,"Every":939,"Ġdec":940,"Ġhar":941,"oth":942,"Ġisn":943,"Ġcle":944,"Ġtrying":945,"les":946,"Ġmother":947,"Ġjob":948,"--":949,"ont":950,"anna":951,"Ġmight":952,"Ġmom":953,"ife":954,"Ġproblem":955,"aby":956,"Ġpol":957,"erson":958,"Ġmany":959,"ible":960,"ince":961,"Ġstr":962,"For":963,"Ġra":964,"Ġfine":965,"Ġmon":966,"ĠOh":967,"Ġbeing":968,"Ġco":969,"Ġacc":970,"Ġtoday":971,"ash":972,"ah":973,"Because":974,"Ġsame":975,"Ġdie":976,"ple":977,"Ġfamily":978,"Ġsaw":979,"Ġenough":980,"ower":981,"akes":982,"Ġuse":983,"tain":984,"Ġgotta":985,"Ġkilled":986,"ors":987,"Ġthree":988,"ĠCome":989,"ss":990,"Ġend":991,"ĠYeah":992,"Ġdad":993,"oh":994,"Ġsave":995,"Ġsw":996,"dy":997,"Ġbus":998,"Ġcomm":999,"Ġanother":1000,"ek":1001,"Ġremember":1002,"Ġtook":1003,"so":1004,"âĻª":1005,"Ġdif":1006,"uth":1007,"ations":1008,"Ġmay":1009,"der":1010,"Ġyourself":1011,"Ġseen":1012,"ĠAnd":1013,"Ġsl":1014,"Ġturn":1015,"Ġheart":1016,"Ġbit":1017,"Ġdes":1018,"man":1019,"Ġbring":1020,"Ġhur":1021,"Ġperson":1022,"imes":1023,"ret":1024,"Ġmind":1025,"atch":1026,"uh":1027,"On":1028,"igh":1029,"Ġwithout":1030,"hes":1031,"Ã¶":1032,"Ġanyone":1033,"pped":1034,"Ġopen":1035,"Ġdays":1036,"Ġnext":1037,"Ġhour":1038,"Ġchi":1039,"ild":1040,"Ġent":1041,"Ġwar":1042,"mer":1043,"reak":1044,"osed":1045,"ps":1046,"Here":1047,"ope":1048,"llo":1049,"Ġlost":1050,"Ġwanna":1051,"ating":1052,"my":1053,"ready":1054,"Ġgone":1055,"Ġlisten":1056,"aughter":1057,"rest":1058,"ner":1059,"Th":1060,"Ġfin":1061,"ĠHey":1062,"orrow":1063,"ĠHow":1064,"Ġcourse":1065,"rent":1066,"Ġfun":1067,"Ġroom":1068,"air":1069,"ey":1070,"Ġquest":1071,"Tell":1072,"Ġgun":1073,"orning":1074,"Ġwent":1075,"gether":1076,"land":1077,"Ġalready":1078,"ream":1079,"ĠYes":1080,"ru":1081,"eak":1082,"Ġsaying":1083,"Maybe":1084,"Ġmet":1085,"Ġdri":1086,"Ġknew":1087,"where":1088,"use":1089,"Ġset":1090,"Ġsecond":1091,"Ġbaby":1092,"Ġused":1093,"Ġago":1094,"iles":1095,"One":1096,"aj":1097,"ĠY":1098,"ollow":1099,"Ġready":1100,"amn":1101,"Ġwhich":1102,"ms":1103,"Ġmen":1104,"Ġidea":1105,"ason":1106,"form":1107,"Take":1108,"Ġmo":1109,"Ġbest":1110,"As":1111,"Ġhold":1112,"Ġword":1113,"ars":1114,"Ġweek":1115,"less":1116,"ens":1117,"gg":1118,"Ġmatter":1119,"pe":1120,"ident":1121,"To":1122,"Ġch":1123,"Ġchild":1124,"ax":1125,"Al":1126,"Ġdaughter":1127,"yes":1128,"Ġtogether":1129,"ition":1130,"vel":1131,"ĠDon":1132,"Ġwasn":1133,"ĠCl":1134,"ĠCh":1135,"Some":1136,"ical":1137,"Ġfriends":1138,"Ġcra":1139,"Ġfew":1140,"hile":1141,"Ġrest":1142,"ott":1143,"Ġthank":1144,"leep":1145,"ater":1146,"ings":1147,"Ġnum":1148,"cle":1149,"Ġinside":1150,"Ġshit":1151,"Ġhit":1152,"Ġheard":1153,"ins":1154,"Ġhard":1155,"Ġminutes":1156,"Ġcalled":1157,"ize":1158,"ense":1159,"Ġwife":1160,"Sir":1161,"Ġwater":1162,"ĠyÃ¶":1163,"aut":1164,"Ġphone":1165,"ird":1166,"Ġalso":1167,"Ġdiffe":1168,"the":1169,"ĠLet":1170,"aster":1171,"Ġwouldn":1172,"ntil":1173,"Ġfar":1174,"Ġres":1175,"Ġmorning":1176,"Ġwhole":1177,"Ġwom":1178,"Ġprom":1179,"zy":1180,"Ġfight":1181,"Ġnice":1182,"Ġyet":1183,"ared":1184,"Ġcho":1185,"Ġfr":1186,"Ġwalk":1187,"Ġsister":1188,"ohn":1189,"ĠWhy":1190,"Ġem":1191,"Ġtow":1192,"Ġpret":1193,"anc":1194,"Ġcount":1195,"ying":1196,"Ġcha":1197,"iness":1198,"Ġmost":1199,"Mr":1200,"Ġpolice":1201,"Wait":1202,"Ġonce":1203,"Ġfire":1204,"Ġguess":1205,"Ġyeah":1206,"Ġalone":1207,"Ġsign":1208,"ctor":1209,"med":1210,"Ġsuch":1211,"uff":1212,"Ġboth":1213,"Ex":1214,"Ġface":1215,"ĠThis":1216,"Ġeveryone":1217,"Ġsafe":1218,"Ġcheck":1219,"ult":1220,"Ġpass":1221,"ĠShe":1222,"ik":1223,"ib":1224,"ness":1225,"ject":1226,"Ġeyes":1227,"ient":1228,"Be":1229,"Ġsoon":1230,"Ġdeal":1231,"ves":1232,"rew":1233,"Ġi":1234,"Ġfucking":1235,"cess":1236,"Ġhurt":1237,"Ġuh":1238,"Ġsit":1239,"Ġtrust":1240,"arl":1241,"Ġmess":1242,"Ġrel":1243,"Ġyes":1244,"Ġter":1245,"An":1246,"Ġblood":1247,"to":1248,"Ġstand":1249,"Ġgave":1250,"Ġprot":1251,"ĠOkay":1252,"Ġpay":1253,"Ġsy":1254,"Ġtom":1255,"Ġknows":1256,"ger":1257,"Ġfollow":1258,"rop":1259,"Ġhum":1260,"ude":1261,"lect":1262,"ĠDo":1263,"asy":1264,"Ġhands":1265,"orn":1266,"Ġchange":1267,"Ġmaybe":1268,"Ġgl":1269,"ier":1270,"Ġdoor":1271,"Ġret":1272,"Ġworry":1273,"lt":1274,"See":1275,"dd":1276,"Any":1277,"Ġwhile":1278,"Ġsleep":1279,"Ġresp":1280,"Ġconf":1281,"Ġcompl":1282,"actly":1283,"Ġsays":1284,"Give":1285,"10":1286,"rol":1287,"ets":1288,"Ġcase":1289,"ching":1290,"Ġwants":1291,"hind":1292,"Or":1293,"Ġexp":1294,"az":1295,"Ġpower":1296,"ĠJack":1297,"lic":1298,"Ġmonth":1299,"Ġmeans":1300,"Ġmyself":1301,"cept":1302,"Ġtomorrow":1303,"sw":1304,"app":1305,"come":1306,"Ġbreak":1307,"Ġuntil":1308,"ĠDad":1309,"Ġshot":1310,"Ġhaven":1311,"Stop":1312,"ĠThank":1313,"ĠWhere":1314,"Listen":1315,"Hello":1316,"omb":1317,"Ġclose":1318,"ison":1319,"als":1320,"ding":1321,"Uh":1322,"Ġalive":1323,"Ġpoint":1324,"Have":1325,"ĠThey":1326,"Ġhappy":1327,"Ġworking":1328,"de":1329,"'čĊ":1330,"ĠGo":1331,"ush":1332,"ton":1333,"Ġbro":1334,"its":1335,"pr":1336,"ete":1337,"unt":1338,"Ġcouldn":1339,"igure":1340,"Ġbeaut":1341,"ĠBr":1342,"ute":1343,"Ġcor":1344,"any":1345,"Ġev":1346,"iet":1347,"Ġspeak":1348,"Ġtaking":1349,"Ġ%":1350,"anger":1351,"Ġposs":1352,"ved":1353,"Ġexpl":1354,"ĠWho":1355,"ĠyÃ¶u":1356,"ĠSo":1357,"ither":1358,"ged":1359,"Ġbehind":1360,"Ġread":1361,"Ġ(":1362,"Ġsupposed":1363,"ĠAll":1364,"Ġminute":1365,"Ġsince":1366,"Ġspec":1367,"cuse":1368,"head":1369,"Ġtruth":1370,"Cl":1371,"Ġhat":1372,"Ġasked":1373,"Re":1374,"weet":1375,"Ġpretty":1376,"ably":1377,"Ġchance":1378,"amp":1379,"Ġcou":1380,"not":1381,"son":1382,"Sorry":1383,"Ġthinking":1384,"Ġlate":1385,"Ġinst":1386,"ĠGet":1387,"Ġactually":1388,"At":1389,"vers":1390,"uc":1391,"Ġhope":1392,"ĠNot":1393,"Ġdef":1394,"Ġits":1395,"ates":1396,"ev":1397,"ross":1398,"Ġinc":1399,"Ġluck":1400,"Ġshoot":1401,"With":1402,"Ġpick":1403,"Ġfive":1404,"ex":1405,"ĠIs":1406,"Ġimp":1407,"Ġclear":1408,"Ġbusiness":1409,"ung":1410,"ĠSh":1411,"Ġsend":1412,"ĠBut":1413,"Right":1414,"und":1415,"ork":1416,"ents":1417,"Ġsk":1418,"Ġinter":1419,"Br":1420,"Ġwind":1421,"Ġlight":1422,"Ġnumber":1423,"Ġcop":1424,"enc":1425,"Ġdream":1426,"iful":1427,"vent":1428,"ames":1429,"Ġjo":1430,"led":1431,"Ġside":1432,"ole":1433,"ai":1434,"Ġhours":1435,"ane":1436,"ards":1437,"Ġansw":1438,"Ġwatch":1439,"onight":1440,"Ġsound":1441,"Ġhuh":1442,"ised":1443,"Ġtou":1444,"gr":1445,"Ġtrue":1446,"ĠAn":1447,"ump":1448,"Ġmur":1449,"Ġdest":1450,"Like":1451,"Ġbody":1452,"Ġwoman":1453,"Ġdrink":1454,"lcome":1455,"Ġbuild":1456,"ery":1457,"Ġsent":1458,"Ġtrain":1459,"att":1460,"Ġlead":1461,"ĠJust":1462,"arent":1463,"ĠJohn":1464,"Ġquestion":1465,"ned":1466,"Ġdifferent":1467,"Ġexactly":1468,"Ġchar":1469,"Dad":1470,"Ġeach":1471,"Ġcrazy":1472,"20":1473,"Ġfe":1474,")čĊ":1475,"stem":1476,"more":1477,"chool":1478,"Ġfour":1479,"Ġteam":1480,"Ġdeath":1481,"aptain":1482,"Ġreason":1483,"Ġprotect":1484,"Ġleast":1485,"Ġmill":1486,"bs":1487,"ĠâĻª":1488,"Ġfall":1489,"Ġfile":1490,"Ġbook":1491,"Ġyours":1492,"io":1493,"bably":1494,"Ġpull":1495,"iate":1496,"Ġtelling":1497,"ĠIn":1498,"ual":1499,"rought":1500,"ction":1501,"Ġdet":1502,"Ġmine":1503,"ween":1504,"Ġkids":1505,"ines":1506,"een":1507,"ĠWell":1508,"eal":1509,"Ġair":1510,"ering":1511,"Ġmist":1512,"erest":1513,"Hi":1514,"Ġmed":1515,"ĠOK":1516,"Ġwaiting":1517,"Ġfull":1518,"Ġlater":1519,"ange":1520,"Ġbeautiful":1521,"Ġhigh":1522,"Move":1523,"Un":1524,"ya":1525,"Ġstory":1526,"aken":1527,"Ġdied":1528,"Ġgen":1529,"Ġeat":1530,"Ġinv":1531,"Ġpain":1532,"Ġfree":1533,"urity":1534,"Ġgame":1535,"Ġmakes":1536,"Ġstuff":1537,"ĠChar":1538,"Ġvis":1539,"Ġtri":1540,"Ġcut":1541,"Ġhon":1542,"outh":1543,"fect":1544,"Ġbrought":1545,"Ġtimes":1546,"Ġfigure":1547,"ana":1548,"Ġtrans":1549,"Qu":1550,"ital":1551,"Ġbra":1552,"Ġschool":1553,"inc":1554,"by":1555,"AN":1556,"Will":1557,"icha":1558,"Ġwish":1559,"Ġcons":1560,"ham":1561,"Ġmem":1562,"Ġbeg":1563,"Ġmaking":1564,"Ġpat":1565,"**":1566,"Ġfore":1567,"Ġlear":1568,"Ġadd":1569,"Ġap":1570,"Ġstarted":1571,"Ġcoll":1572,"ault":1573,"ift":1574,"These":1575,"Ġtonight":1576,"lo":1577,"ired":1578,"Ġhot":1579,"ichael":1580,"Ġinform":1581,"Ġleg":1582,"Ġcomes":1583,"ma":1584,"li":1585,"Ġimport":1586,"Ġwin":1587,"sh":1588,"Nothing":1589,"Ġbecome":1590,"Ġbetween":1591,"Ġisland":1592,"Ġain":1593,"esc":1594,"Of":1595,"Ġ...":1596,"ode":1597,"ield":1598,"Ġlooks":1599,"Help":1600,"unch":1601,"Ġfood":1602,"Ġgets":1603,"ER":1604,"ica":1605,"Ġcity":1606,"idd":1607,"Ġtrou":1608,"Ġri":1609,"ĠThere":1610,"Ġcontrol":1611,"Ġgrand":1612,"Ġmoment":1613,"Ġattack":1614,"-l":1615,"Ġsecret":1616,"Ġext":1617,"Ġscared":1618,"ited":1619,"Ġagainst":1620,"me":1621,"His":1622,"Ġforg":1623,"band":1624,"Ġsystem":1625,"Ġrunning":1626,"Ġwond":1627,"Ġforget":1628,"Ġdire":1629,"Ġdisc":1630,"most":1631,"Ġaw":1632,"uss":1633,"you":1634,"Ġcur":1635,"Ġeasy":1636,"ling":1637,"ph":1638,"Our":1639,"ĠMy":1640,"ention":1641,"Ġpres":1642,"Ġfront":1643,"Ġdog":1644,"Ġhaving":1645,"Ġoutside":1646,"Ġable":1647,"Ġmonths":1648,"iously":1649,"Ġasking":1650,"hip":1651,"Ġhuman":1652,"_čĊ":1653,"Ġline":1654,"Ġland":1655,"Ġfast":1656,"oot":1657,"Ġanymore":1658,"Ġmarried":1659,"Ġdanger":1660,"IN":1661,"Ġentire":1662,"Ġhalf":1663,"Ġtried":1664,"osp":1665,"Ġimportant":1666,"ney":1667,"Ġlock":1668,"ale":1669,"Ġnews":1670,"Ġcannot":1671,"Ġsweet":1672,"fra":1673,"aring":1674,"ĠAl":1675,"ĠPlease":1676,"Ġlaw":1677,"Ġpromise":1678,"vice":1679,"Ġinterest":1680,"ows":1681,"usband":1682,"Keep":1683,"Ġdra":1684,"arly":1685,"Ġwhatever":1686,"Ġkey":1687,"Ġwh":1688,"Ġdep":1689,"Ġsn":1690,"br":1691,"ĠGood":1692,"Ġreport":1693,"Ġpri":1694,"iew":1695,"Ġdist":1696,"ead":1697,"Ġneeds":1698,"Ġhusband":1699,"men":1700,"Ġsing":1701,"Ġaren":1702,"Hold":1703,"OU":1704,"olog":1705,"reet":1706,"era":1707,"ror":1708,"Ġins":1709,"iec":1710,"Ġpap":1711,"Ġlives":1712,"oose":1713,"Ġtown":1714,"sel":1715,"Ġbomb":1716,"God":1717,"ility":1718,"Ġyoung":1719,"itting":1720,"Ġsub":1721,"Ġahead":1722,"unk":1723,"Ġsim":1724,"fraid":1725,"omm":1726,"Ġgirls":1727,"reen":1728,"Ġfix":1729,"Ġfact":1730,"ched":1731,"Ġtouch":1732,"Ġlose":1733,"Ġbed":1734,"lie":1735,"Ġparty":1736,"ys":1737,"ages":1738,"eral":1739,"Rem":1740,"Ġve":1741,"Ġsix":1742,"Ġloc":1743,"Ġgoes":1744,"Ġeng":1745,"Ġprobably":1746,"ief":1747,"Ġdi":1748,"aid":1749,"arry":1750,"ward":1751,"Ġtest":1752,"After":1753,"ĠRe":1754,"Ġwall":1755,"ĠCan":1756,"Ġquite":1757,"Even":1758,"ots":1759,"Ġdamn":1760,"Ġreturn":1761,"Ġtaken":1762,"lex":1763,"Ġsurv":1764,"Ġleaving":1765,"ative":1766,"du":1767,"ert":1768,"Ġafraid":1769,"Ġsmall":1770,"Ġblack":1771,"Ġtrack":1772,"Ġoffic":1773,"ator":1774,"Ġreg":1775,"Ġesc":1776,"ered":1777,"Ġweap":1778,"iving":1779,"Ġbull":1780,"15":1781,"Ġmad":1782,"ster":1783,"Ġanswer":1784,"à¶":1785,"ics":1786,"ote":1787,"Ġtrouble":1788,"Ġplane":1789,"ined":1790,"idence":1791,"ĠZ":1792,"Ġmillion":1793,"Gu":1794,"à·":1795,"Ġpossible":1796,"ĠSc":1797,"ony":1798,"Ġpast":1799,"Ġbag":1800,"ilt":1801,"-h":1802,"upid":1803,"ape":1804,"Ġmistake":1805,"ific":1806,"Ġsecurity":1807,"ef":1808,"ĠAre":1809,"ures":1810,"Ġparent":1811,"arth":1812,"ler":1813,"Ġoffice":1814,"Pro":1815,"ĠMom":1816,"AR":1817,"Ġob":1818,"ĠGr":1819,"Ġclean":1820,"-I":1821,"Ġcountry":1822,"Ġhappening":1823,"irth":1824,"ĠLook":1825,"Ġfell":1826,"ĠAr":1827,"Me":1828,"Got":1829,"Ġbar":1830,"Ġorder":1831,"ĠTH":1832,"itch":1833,"rence":1834,"Ch":1835,"Ġdoctor":1836,"Ġcompany":1837,"ract":1838,"Ġexpect":1839,"ĠMar":1840,"bo":1841,"Ġship":1842,"ospital":1843,"Ġgra":1844,"roy":1845,"Ġdou":1846,"Ġcatch":1847,"Only":1848,"enny":1849,"ĠDr":1850,"Ġboat":1851,"Ġshut":1852,"Ġfeeling":1853,"Ġcouple":1854,"Ġbreat":1855,"Which":1856,"Ġhappens":1857,"Ġking":1858,"alm":1859,"ama":1860,"Ġlie":1861,"Does":1862,"spect":1863,"Ġpos":1864,"Ġstep":1865,"rist":1866,"ina":1867,"Ġhey":1868,"ok":1869,"inal":1870,"fer":1871,"ĠTh":1872,"pping":1873,"ĠYour":1874,"ĠNew":1875,"Ġalong":1876,"Ġfav":1877,"oor":1878,"Ġseems":1879,"Ġspecial":1880,"Stay":1881,"oke":1882,"Ġcool":1883,"Ġquick":1884,"Everything":1885,"ized":1886,"Ġless":1887,"Thanks":1888,"-b":1889,"Ġeye":1890,"ept":1891,"12":1892,"Ġgod":1893,"alt":1894,"gram":1895,"Ġalmost":1896,"ĠInd":1897,"eter":1898,"ule":1899,"ience":1900,"--čĊ":1901,"ĠFr":1902,"30":1903,"umb":1904,"Ġfly":1905,"Ġpiec":1906,"Two":1907,"Tr":1908,"riage":1909,"ones":1910,"Ġparents":1911,"Ġvill":1912,"ertain":1913,"Excuse":1914,"Ġcell":1915,"entle":1916,"Ġboss":1917,"Ġbud":1918,"Ġcomplete":1919,"ĠCha":1920,"Ġclos":1921,"Ġmark":1922,"ĠBl":1923,"Mom":1924,"Ġtw":1925,"Ġbirth":1926,"ished":1927,"Would":1928,"-čĊ":1929,"ully":1930,"Ġhospital":1931,"Ġrep":1932,"Ġdear":1933,"Ġchoice":1934,"ĠAmer":1935,"Ġinformation":1936,"Ne":1937,"Ġcalling":1938,"Am":1939,"Ġhero":1940,"Ġstrong":1941,"edding":1942,"Ġsick":1943,"Ġmoving":1944,"Ġfool":1945,"ĠLord":1946,"Ġbitch":1947,"Ġbeat":1948,"Ġmag":1949,"reed":1950,"Ġsear":1951,"Ġexplain":1952,"Ġstud":1953,"no":1954,"Ġothers":1955,"-in":1956,"Ġeither":1957,"ically":1958,"Ġred":1959,"ask":1960,"bers":1961,"Ġdrive":1962,"Ġsomebody":1963,"Ġfail":1964,"ities":1965,"...?čĊ":1966,"Ġpict":1967,"cc":1968,"ometimes":1969,"room":1970,"ech":1971,"Ġground":1972,"nect":1973,"Ġboys":1974,"Ġhimself":1975,"Ġstupid":1976,"ĠSp":1977,"OK":1978,"Ġ...čĊ":1979,"ĠâĻªčĊ":1980,"Ġfut":1981,"ĠSam":1982,"selves":1983,"ĠBe":1984,"Ġris":1985,"ĠIf":1986,"-c":1987,"Ġfoot":1988,"Put":1989,"Ġclass":1990,"000":1991,"Ġstra":1992,"Ġtill":1993,"Ġthough":1994,"ption":1995,"Ġperfect":1996,"Ġcol":1997,"Fuck":1998,"Ġhate":1999,"Ġdin":2000,"aire":2001,"ĠSha":2002,"Ġeverybody":2003,"Jack":2004,"sy":2005,"Pe":2006,"ĠNow":2007,"Ġtop":2008,"Say":2009,"Ġwindow":2010,"leas":2011,"Ġshouldn":2012,"Shit":2013,"'am":2014,"Ġexper":2015,"Ġsaved":2016,"Ġtem":2017,"ces":2018,"50":2019,"artment":2020,"arr":2021,"Open":2022,"Ġprof":2023,"Act":2024,"aste":2025,"ues":2026,"arget":2027,"Ġstation":2028,"iding":2029,"Ġrob":2030,"ĠFor":2031,"ided":2032,"ern":2033,"Ġrequ":2034,"Ġcap":2035,"Ġfuture":2036,"Ġmarriage":2037,"Wow":2038,"Ġwonder":2039,"Ġcam":2040,"Ġfunny":2041,"irt":2042,"Ġgiven":2043,"By":2044,"Se":2045,"Ġhang":2046,"ĠPr":2047,"Could":2048,"Ġrad":2049,".'čĊ":2050,"Ġworth":2051,"Ġlist":2052,"Ġweeks":2053,"ency":2054,"Ġshort":2055,"Ġexc":2056,"ĠDid":2057,"sing":2058,"Ġbuy":2059,"vern":2060,"ari":2061,"ission":2062,"Ġpack":2063,"Ġcreat":2064,"Ġbox":2065,"Ġbuilding":2066,"Ġsurpr":2067,"Che":2068,"Ġchildren":2069,"Ġliving":2070,"Ġroad":2071,"ene":2072,"Ġcaught":2073,"Ġdestroy":2074,"ider":2075,"Ġrecord":2076,"Ġdark":2077,"oe":2078,"ants":2079,"uation":2080,"that":2081,"hose":2082,"Man":2083,"Ġty":2084,"uri":2085,"Ġcover":2086,"Ġoper":2087,"Ġphot":2088,"Ġconc":2089,"ĠClark":2090,"ges":2091,"Ġsto":2092,"kes":2093,"ision":2094,"ging":2095,"Ġproper":2096,"ric":2097,"\"?čĊ":2098,"\"I":2099,"vest":2100,"co":2101,"Ġsense":2102,"Sp":2103,"aces":2104,"Pre":2105,"Ġseem":2106,"go":2107,"now":2108,"Ġcontact":2109,"Ġmeant":2110,"iot":2111,"ten":2112,"Ġsort":2113,"First":2114,"Ġ!čĊ":2115,"Ġuncle":2116,"ution":2117,"Ġdisapp":2118,"Ġmessage":2119,"Ġneeded":2120,"mp":2121,"Bl":2122,"eave":2123,"From":2124,"Ġserious":2125,"Ġ[":2126,"ĠUn":2127,"Dr":2128,"ters":2129,"Ġdirect":2130,"fic":2131,"Nice":2132,"ior":2133,"Ġrock":2134,"bt":2135,"Ġbank":2136,"Ġpress":2137,"Shut":2138,"Ġshall":2139,"Ġchanged":2140,"ille":2141,"elt":2142,"âĢ":2143,"100":2144,"ides":2145,"-s":2146,"Ġaccident":2147,"Ġplaying":2148,"Sha":2149,"rap":2150,"orth":2151,"Ġmurder":2152,"Ġind":2153,"]čĊ":2154,"Something":2155,"Ġcommand":2156,"ced":2157,"Ġprison":2158,"Ġmeeting":2159,"Ġrespect":2160,"Ġquestions":2161,"Everyone":2162,"gy":2163,"Ġworks":2164,"Ġsun":2165,"ified":2166,"ĠMichael":2167,"Ġbur":2168,"ffect":2169,"En":2170,"Ġlearn":2171,"tern":2172,"Ġsol":2173,"ĠAm":2174,"ley":2175,"ĠPro":2176,"Ġsold":2177,"ular":2178,"Ġdangerous":2179,"Ġval":2180,"Ġfil":2181,"Ġallow":2182,"uthor":2183,"oof":2184,"Per":2185,"Ġmil":2186,"ĠWill":2187,"Ġwhe":2188,"oul":2189,"Ġwords":2190,"Ġpar":2191,"Ġmissing":2192,"Sc":2193,"Ġbuddy":2194,"Char":2195,"uring":2196,"Con":2197,"Ġusing":2198,"19":2199,"rat":2200,"Ġma":2201,"Ġform":2202,"ich":2203,"Ġsomewhere":2204,"Ġknown":2205,"Ġrisk":2206,"Ġanywhere":2207,"Ġball":2208,"Ġgiving":2209,"Ġpur":2210,"Sure":2211,"yer":2212,"Ab":2213,"Ġwatching":2214,"joy":2215,"Ġdrop":2216,"eth":2217,"Ġbird":2218,"ches":2219,"Ġfear":2220,"Ġz":2221,"iddle":2222,"Someone":2223,"Ġfault":2224,"Welcome":2225,"Whoa":2226,"Ġgentle":2227,"Ġones":2228,"-f":2229,"Ġfeet":2230,"Ġcertain":2231,"airs":2232,"Ġgift":2233,"read":2234,"fully":2235,"ĠBen":2236,"Call":2237,"Ġslow":2238,"Ġlonger":2239,"Ġsteal":2240,"Ġthrow":2241,"aur":2242,"Ġworked":2243,"Ġproject":2244,"Um":2245,"ortun":2246,"ze":2247,"Ġsurvive":2248,"Ġfavor":2249,"Ġord":2250,"haps":2251,"Show":2252,"Ġtarget":2253,"ĠSir":2254,"Ġmarry":2255,"Ġsuper":2256,"Ġarrest":2257,"Her":2258,"Ġkept":2259,"Ġten":2260,"ĠMan":2261,"eed":2262,"Ġcode":2263,"undred":2264,"Ġhair":2265,"ĠStop":2266,"Ġseeing":2267,"People":2268,"Ġblow":2269,"nel":2270,"Ġanybody":2271,"Ġstraight":2272,"itor":2273,"iny":2274,"amed":2275,"Ġimag":2276,"Those":2277,"Ġnear":2278,"illy":2279,"Ġenem":2280,"ĠHello":2281,"Ġdress":2282,"ume":2283,"rect":2284,"Ġran":2285,"ĠChrist":2286,"Ġarri":2287,"Ġbegin":2288,"Ġlying":2289,"-law":2290,"AT":2291,"ession":2292,"ĠEx":2293,"Very":2294,"lock":2295,"Ġmod":2296,"iting":2297,"Ġhandle":2298,"Ġanyway":2299,"gent":2300,"Ġstate":2301,"Ġstick":2302,"Brother":2303,"Ġcareful":2304,"ments":2305,"gan":2306,"ĠHi":2307,"Ġcook":2308,"olute":2309,"Ġpiece":2310,"Ġdro":2311,"Ġdel":2312,"ooper":2313,"Ġum":2314,"Ġkiss":2315,"Ġquiet":2316,"Ġsupport":2317,"Ġaccept":2318,"Ġprogram":2319,"ational":2320,"Ġtakes":2321,"Ġconnect":2322,"-t":2323,"esus":2324,"Ġdem":2325,"ffee":2326,"Ġthreat":2327,"LL":2328,"Ġmov":2329,"-d":2330,"Ġsell":2331,"Whatever":2332,"?\"čĊ":2333,"bed":2334,"Ġart":2335,"Ġcross":2336,"ĠRight":2337,"ffic":2338,"roup":2339,"Ġlady":2340,"ounds":2341,"ublic":2342,"Ġcarry":2343,"Ġthanks":2344,"Ġcry":2345,"oming":2346,"Ġworried":2347,"ĠCharlie":2348,"Ġweren":2349,"Ġang":2350,"owers":2351,"aron":2352,"Was":2353,"Ġweapon":2354,"Run":2355,"Ġfelt":2356,"Ġwedding":2357,"king":2358,"ured":2359,"nie":2360,"Ġhor":2361,"IT":2362,"Ġturned":2363,"Ġinvest":2364,"Ġloved":2365,"Pl":2366,"but":2367,"Ġbirthday":2368,"200":2369,"erc":2370,"Ġgrow":2371,"over":2372,"Make":2373,"ousand":2374,"rec":2375,"Ġmach":2376,"Ġaddress":2377,"ugg":2378,"Ġvict":2379,"Ġevidence":2380,"ĠGu":2381,"ON":2382,"-m":2383,"Ġ$":2384,"Ġfiles":2385,"Ġgold":2386,"Ġcent":2387,"\\\\":2388,"Ġbelong":2389,"May":2390,"oint":2391,"ature":2392,"Ġdeep":2393,"Actually":2394,"Ġhundred":2395,"Ġdinner":2396,"ĠOne":2397,"Ġgovern":2398,"Ġdance":2399,"Ġburn":2400,"Ġfinish":2401,"Ġpeace":2402,"Ġseat":2403,"Ar":2404,"Ġrespons":2405,"ali":2406,"Great":2407,"of":2408,"Gr":2409,"Ġce":2410,"key":2411,"Ġtreat":2412,"viously":2413,"work":2414,"Never":2415,"Ah":2416,"Ġhoney":2417,"Ġfinally":2418,"hal":2419,"ists":2420,"Ġseconds":2421,"Ġsmart":2422,"Ġadv":2423,"Ġav":2424,"Ġposition":2425,"ears":2426,"Ġspend":2427,"Ġborn":2428,"Ġpersonal":2429,"ĠDe":2430,"Ġref":2431,"Ġsmell":2432,"what":2433,"Ġnorm":2434,"Ġkick":2435,"oun":2436,"Ġmis":2437,"ager":2438,"EN":2439,"Ġcamp":2440,"Cause":2441,"Ġhide":2442,"Ġflight":2443,"inite":2444,"Ġtre":2445,"Ġremain":2446,"ories":2447,"ĠThanks":2448,"Ġlau":2449,"Ġdate":2450,"Ġ..":2451,"used":2452,"ĠWait":2453,"acy":2454,"Ġhop":2455,"ING":2456,"ken":2457,"Nobody":2458,"Ġtruck":2459,"Ġsingle":2460,"Ġkilling":2461,"aven":2462,"Ġhost":2463,"Ġvillage":2464,"Ġthousand":2465,"view":2466,"Ġmus":2467,"Ġcond":2468,"olutely":2469,"Ġweird":2470,"ius":2471,"Ġstopped":2472,"Ġcomput":2473,"Ġlucky":2474,"Ġkidding":2475,"azing":2476,"Ġanim":2477,"Ġcost":2478,"uty":2479,"Ġdare":2480,"Ġpicture":2481,"Ġ.čĊ":2482,"ective":2483,"Ġlevel":2484,"ĠTo":2485,"mit":2486,"Ġforever":2487,"Hmm":2488,"Ġconv":2489,"Ġed":2490,"Ġdude":2491,"ules":2492,"Ġopp":2493,"apa":2494,"ĠChe":2495,"Ġcoffee":2496,"Ġdrug":2497,"Ġhist":2498,"tt":2499,"irm":2500,"terday":2501,"Ġbroke":2502,"adies":2503,"ES":2504,"Ġmissed":2505,"Ġterri":2506,"11":2507,"Ġwake":2508,"ĠRo":2509,"Ġjoin":2510,"Ġtot":2511,"Ġdam":2512,"Ġacross":2513,"Looks":2514,"Ġcontin":2515,"cause":2516,"Ġwelcome":2517,"uts":2518,"aged":2519,"ray":2520,"Ġvo":2521,"pa":2522,"Ġident":2523,"Bye":2524,"Leave":2525,"Ġmouth":2526,"Ġsuit":2527,"mediate":2528,"ĠAs":2529,"ĠTom":2530,"Ġmission":2531,"ĠSing":2532,"Ġtick":2533,"Ġshare":2534,"ĠCaptain":2535,"Ġdecided":2536,"Ġmain":2537,"Ġappro":2538,"ossible":2539,"Ġbri":2540,"Ġfield":2541,"Ġrid":2542,"Ġstar":2543,"Ġbase":2544,"Ġsignal":2545,"Ġbat":2546,"ks":2547,"Ġdoubt":2548,"Ġfair":2549,"Damn":2550,"ĠSe":2551,"Ġimmediate":2552,"eor":2553,"ify":2554,"Three":2555,"ately":2556,"Ġsituation":2557,"ĠEng":2558,"Ġprep":2559,"Ġjump":2560,"bit":2561,"resident":2562,"ices":2563,"ĠKing":2564,"erve":2565,"Ġfill":2566,"Ġnobody":2567,"Think":2568,"Ġtor":2569,"ĠTr":2570,"ĠOr":2571,"Ġbott":2572,"Ġwear":2573,"Ġsqu":2574,"pper":2575,"Ġstanding":2576,"Ġmiddle":2577,"gu":2578,"Try":2579,"ached":2580,"ĠThen":2581,"Ġgovernment":2582,"ĠMe":2583,"Ġselect":2584,"ican":2585,"Ġwithin":2586,"Ġtech":2587,"Ġwhite":2588,"Ġlooked":2589,"avy":2590,"Once":2591,"initely":2592,"Ġlab":2593,"Ġpriv":2594,"que":2595,"light":2596,"Ġelect":2597,"atur":2598,"Ġsounds":2599,"Ġsitting":2600,"Ġride":2601,"Ġpaper":2602,"40":2603,"Ġfloor":2604,"ogn":2605,"Ġthinks":2606,"Ġpost":2607,"cum":2608,"cell":2609,"âĻ«":2610,"ĠYOU":2611,"ron":2612,"Ġcourt":2613,"roud":2614,"Ġarea":2615,"lin":2616,"Ġstri":2617,"Remember":2618,"ountain":2619,"elf":2620,"ata":2621,"ili":2622,"ming":2623,"Didn":2624,"Ġaut":2625,"Ġinstead":2626,"Ġhonor":2627,"Ġ..čĊ":2628,"line":2629,"Ġbrain":2630,"Ġfish":2631,"ral":2632,"ries":2633,"Ġescape":2634,"Ġinf":2635,"Ġbuilt":2636,"Ġreach":2637,"oday":2638,"lish":2639,"Ġclot":2640,"how":2641,"Ġow":2642,"Ġengine":2643,"Ġcat":2644,"Ġaccess":2645,"Ġplanet":2646,"Ġmurde":2647,"ades":2648,"Ġiss":2649,"Ġble":2650,"Ġcir":2651,"Ġrece":2652,"Ġinvol":2653,"Ġcrash":2654,"Watch":2655,"reate":2656,"arn":2657,"ially":2658,"AS":2659,"ĠSay":2660,"Ġarm":2661,"Ġcomputer":2662,"ĠTHE":2663,"Ġonto":2664,"Ġcops":2665,"OR":2666,"Ġhasn":2667,"Ġpresent":2668,"Ġsearch":2669,"Ġcalm":2670,"ĠTake":2671,"Ġaccount":2672,"Ġfollowing":2673,"ource":2674,"ĠSorry":2675,"Ġsugg":2676,"Ġsuggest":2677,"Ġsuspect":2678,"Ġdifference":2679,"erv":2680,"Find":2681,"ulations":2682,"Ġfing":2683,"une":2684,"iant":2685,"Ġcold":2686,"sed":2687,"hel":2688,"Ġevening":2689,"Ġele":2690,"Ġspace":2691,"Ġbusy":2692,"night":2693,"Ġworse":2694,"Ġangry":2695,"ination":2696,"Ġapolog":2697,"Ġcalls":2698,"Ġglad":2699,"Ġer":2700,"Ġenjoy":2701,"Ġsimple":2702,"Ġpleas":2703,"urry":2704,"ails":2705,"Should":2706,"Ġeight":2707,"oud":2708,"onds":2709,"Ġoffer":2710,"Ġhistory":2711,"ocke":2712,"Ġsoul":2713,"Ġir":2714,"ald":2715,"Ġgentlemen":2716,"ĠQu":2717,"Ġcrime":2718,"Ġteac":2719,"Ġdev":2720,"Tom":2721,"Everybody":2722,"Ġstreet":2723,"ĠHere":2724,"Ġguns":2725,"Pr":2726,"Ġmemory":2727,"itary":2728,"Ġmiles":2729,"ĠWh":2730,"ĠAlex":2731,"top":2732,"Ġswear":2733,"idge":2734,"Ġapprec":2735,"tle":2736,"ani":2737,"Ġproud":2738,"Ġdiffic":2739,"Fine":2740,"ongrat":2741,"ked":2742,"Ġterror":2743,"Ġtight":2744,"omp":2745,"Ġeas":2746,"ĠGive":2747,"Ġlocked":2748,"Ġidiot":2749,"angu":2750,"gn":2751,"Ġamazing":2752,"ommand":2753,"Ġabs":2754,"Ġtravel":2755,"overed":2756,"fet":2757,"Ġcorrect":2758,"Ġbear":2759,"ĠEvery":2760,"ĠQ":2761,"els":2762,"Ġbroken":2763,"Ġmagic":2764,"ja":2765,"Ġlim":2766,"Ġmot":2767,"Ġequ":2768,"ĠTell":2769,"Ġprop":2770,"Ġalright":2771,"Ġage":2772,"Cle":2773,"Ġcurrent":2774,"Ġvictim":2775,"attle":2776,"New":2777,"Ġrain":2778,"Ġbre":2779,"Ġboard":2780,"Ġearly":2781,"Ġwomen":2782,"Ġseven":2783,"Ġinn":2784,"Ġdeli":2785,"Ġcas":2786,"ently":2787,"Ġhung":2788,"Ġarmy":2789,"Ġforward":2790,"cious":2791,"ĠMon":2792,"Back":2793,"just":2794,"aced":2795,"Mar":2796,"Ġrecogn":2797,"cri":2798,"hol":2799,"Ġbas":2800,"Ġpath":2801,"Ġcompletely":2802,"iver":2803,"ts":2804,"ĠWhen":2805,"Ġclub":2806,"ov":2807,"Ġpark":2808,"Ġpop":2809,"Ġlow":2810,"irty":2811,"'Cause":2812,"Ġbeha":2813,"ĠEm":2814,"ĠMiss":2815,"Ġexam":2816,"gency":2817,"ĠOn":2818,"Ġvisit":2819,"ĠYork":2820,"Ġcard":2821,"Ġjud":2822,"rem":2823,"appy":2824,"itive":2825,"Ġorders":2826,"Ġtalked":2827,"Ġpaid":2828,"Ġhonest":2829,"Ġrather":2830,"Ġchick":2831,"DE":2832,"ĠMrs":2833,"Ġbill":2834,"Ġdraw":2835,"Ġru":2836,"Ġice":2837,"Ġbutton":2838,"Ġcommun":2839,"'.čĊ":2840,"ĠAb":2841,"Ġgroup":2842,"ĠMart":2843,"Ġya":2844,"wise":2845,"aff":2846,"Ġremove":2847,"Ġyesterday":2848,"OM":2849,"Ġspent":2850,"Ġgener":2851,"Huh":2852,"Ġpal":2853,"Ġmatch":2854,"Ġstrange":2855,"ses":2856,"Ġring":2857,"uk":2858,"Ġimpossible":2859,"Ġevent":2860,"Ġhearts":2861,"Ġhotel":2862,"Ġradio":2863,"Ġneck":2864,"Ġtext":2865,"Ġmachine":2866,"Ġvoice":2867,"Ġimmediately":2868,"Ġteach":2869,"bor":2870,"oly":2871,"Ġpublic":2872,"ĠLe":2873,"Ġnumbers":2874,"ĠPresident":2875,"ĠRam":2876,"Ġvan":2877,"itness":2878,"Ġforgive":2879,"Son":2880,"Ġsal":2881,"ni":2882,".\"":2883,"John":2884,"ĠSar":2885,"Ġsat":2886,"Michael":2887,"Ġclosed":2888,"ege":2889,"Ġpatient":2890,"Ġnormal":2891,"Ġplug":2892,"Ġblock":2893,"Ġclothes":2894,"Ġtree":2895,"ury":2896,"ky":2897,"Turn":2898,"ored":2899,"ĠFl":2900,"Ġkidna":2901,"mission":2902,"BI":2903,"iam":2904,"roll":2905,"Ġcow":2906,"hole":2907,"Ġvi":2908,"Ġexist":2909,"Ġstuck":2910,"Ġload":2911,"Ġroll":2912,"Alright":2913,"ended":2914,"Ġforgot":2915,"Check":2916,"About":2917,"Ġdiam":2918,"Ġquickly":2919,"Ġfeed":2920,"eve":2921,"hard":2922,"Guys":2923,"bye":2924,"Ġdifficult":2925,"Ġocc":2926,"Ġmention":2927,"Ġdesign":2928,"amb":2929,"****":2930,"Ġenemy":2931,"Kill":2932,"Ġofficer":2933,"Ġcloser":2934,"uel":2935,"Ã©":2936,"Ġla":2937,"Ġvide":2938,"ĠIndia":2939,"Ġinnoc":2940,"range":2941,"Ġrace":2942,"Ġcust":2943,"host":2944,"gth":2945,"Ġmovie":2946,"Isn":2947,"avid":2948,"ibility":2949,"ĠFrank":2950,"ĠOf":2951,"App":2952,"zz":2953,"Ġemer":2954,"Ġdying":2955,"Ġinvestig":2956,"Ġdoll":2957,"Ġsong":2958,"Ġfighting":2959,"Ġrequest":2960,"Ġnamed":2961,"-up":2962,"Ġprocess":2963,"Ġself":2964,"eer":2965,"13":2966,"for":2967,"ĠRaj":2968,"Save":2969,"aim":2970,"yle":2971,"Ġwrite":2972,"Ġblue":2973,"Ġcamera":2974,"cher":2975,"Ġrules":2976,"\".čĊ":2977,"arling":2978,"Ġprove":2979,"atic":2980,"ball":2981,"Ġhun":2982,"Ġsad":2983,"Ġchoose":2984,"Ġdig":2985,"\"The":2986,"Ġsometimes":2987,"Ġweak":2988,"Ġwearing":2989,"Ġcash":2990,"enty":2991,"ĠSee":2992,"rab":2993,"incess":2994,"Ġtype":2995,"Ġsea":2996,"ians":2997,"oon":2998,"Time":2999,"friend":3000,"ala":3001,"oop":3002,"Ġcharge":3003,"Since":3004,"Captain":3005,"val":3006,"ĠBell":3007,"Ġagree":3008,"Ġlocation":3009,"ĠMay":3010,"ini":3011,"Ġmaster":3012,"Ġlaugh":3013,"ĠCol":3014,"IC":3015,"Ġstole":3016,"Ġshar":3017,"Today":3018,"iter":3019,"24":3020,"gue":3021,"ĠLex":3022,"Ġearth":3023,"Ġcontain":3024,"Ġagent":3025,"Ġdreams":3026,"duct":3027,"Ġpray":3028,"Ġgrab":3029,"Ġsex":3030,"par":3031,"Wh":3032,"ett":3033,"Ġforce":3034,"Ġwood":3035,"pty":3036,"hys":3037,"play":3038,"heart":3039,"Ġkiller":3040,"ĠEl":3041,"Ġjail":3042,"Ġbeach":3043,"Ġsumm":3044,"under":3045,"mes":3046,"ĠMove":3047,"ĠRed":3048,"opy":3049,"Sit":3050,"Ġsil":3051,"Ġok":3052,"icks":3053,"Ġsuc":3054,"'?čĊ":3055,"ĠEarth":3056,"Ġwhoa":3057,"Ġattention":3058,"Sam":3059,"ĠSm":3060,"Ġremind":3061,"Ġblind":3062,"Over":3063,"Ġrout":3064,"Ġrealize":3065,"Ġimpress":3066,"Ġgang":3067,"Ġhiding":3068,"Ġcrim":3069,"Ġlar":3070,"Ġresc":3071,"16":3072,"Ġkeys":3073,"ĠClaire":3074,"Ġlistening":3075,"ground":3076,"Ġdecision":3077,"rog":3078,"ĠBob":3079,"Ġwalking":3080,"Ġservice":3081,"Ġmusic":3082,"Ġsuppose":3083,"Ġscene":3084,"Ġextra":3085,"Ġtur":3086,"set":3087,"Ġguest":3088,"ĠNothing":3089,"velop":3090,"Ġpot":3091,"Ġmir":3092,"irlf":3093,"irlfriend":3094,"TH":3095,"uge":3096,"oom":3097,"ĠKate":3098,"awyer":3099,"ompl":3100,"eneral":3101,"Ġfur":3102,"Ġrelations":3103,"resh":3104,"Ġheading":3105,"atson":3106,"Ġlay":3107,"ictor":3108,"nable":3109,"Bring":3110,"Ġfre":3111,"Ġur":3112,"Ġinterested":3113,"Ġhelping":3114,"Ġpromised":3115,"Ġpun":3116,"Ġhole":3117,"Ġloves":3118,"Ġcollege":3119,"ajor":3120,"rupt":3121,"ĠGot":3122,"ondon":3123,"Ġdefinitely":3124,"ĠCon":3125,"RE":3126,"icul":3127,"Before":3128,"Ġimagine":3129,"-p":3130,"Ġbreath":3131,"IS":3132,"Ġactiv":3133,"Ġdiv":3134,"ĠAny":3135,"Ġbother":3136,"cha":3137,"Ġglass":3138,"ls":3139,"stairs":3140,"lan":3141,"ese":3142,"Ġhurry":3143,"ending":3144,"ĠRuss":3145,"....":3146,"ĠDel":3147,"Ġwhether":3148,"Ġappreciate":3149,"ris":3150,"ĠyÃ¶ur":3151,"essor":3152,"Ġsword":3153,"bert":3154,"arm":3155,"Ġfac":3156,"rav":3157,"Ġclient":3158,"Ġeffect":3159,"itted":3160,"hange":3161,"-w":3162,"Ġholding":3163,"let":3164,"ocus":3165,"Ġsac":3166,"add":3167,"ĠSim":3168,"Out":3169,"Ġbath":3170,"Ġbecame":3171,"ĠX":3172,"Ġ/":3173,"Ġpen":3174,"Shall":3175,"then":3176,"-hmm":3177,"Ġnone":3178,"ox":3179,"De":3180,"por":3181,"Ġclim":3182,"Ġoh":3183,"Ġprov":3184,"Fr":3185,"Ġinnocent":3186,"Ġpoor":3187,"Last":3188,"ploy":3189,"Ġmate":3190,"vert":3191,"ongratulations":3192,"ĠSy":3193,"Cha":3194,"Perhaps":3195,"25":3196,"ĠDan":3197,"Ġsight":3198,"Ġnames":3199,"Ġlied":3200,"shit":3201,"Ġdriving":3202,"Ġevil":3203,"anj":3204,"empt":3205,"Ġproblems":3206,"ires":3207,"Ġjung":3208,"hil":3209,"Ġbullet":3210,"ĠTV":3211,"Ġreceive":3212,"board":3213,"ats":3214,"Ġtable":3215,"arter":3216,"inary":3217,"Ġspeed":3218,"mb":3219,"Ġfigured":3220,"Ġcrew":3221,"Ġthird":3222,"Ġowe":3223,"Ġaff":3224,"Ġviol":3225,"Sm":3226,"ĠTe":3227,"anguage":3228,"Dude":3229,"Ġdiscuss":3230,"Ġgirlfriend":3231,"Ġcars":3232,"Ġvehic":3233,"Ġhungry":3234,"will":3235,"ka":3236,"ĠDev":3237,"ĠHar":3238,"Ġeverywhere":3239,"ero":3240,"Ġunc":3241,"Ġtired":3242,"Ġvideo":3243,"Ġjungle":3244,"ser":3245,"IA":3246,"Ma":3247,"tery":3248,"More":3249,"ĠEn":3250,"icated":3251,"load":3252,"ĠShut":3253,"Ġputting":3254,"Ġsurprise":3255,"ĠLondon":3256,"Ġnine":3257,"cean":3258,"Sec":3259,"Next":3260,"Ġshop":3261,"off":3262,"ends":3263,"uke":3264,"Ġhelped":3265,"dom":3266,"olice":3267,"Ġvir":3268,"erry":3269,"vious":3270,"gar":3271,"Ġfaster":3272,"Ġtemple":3273,"Ġfreak":3274,"Ġdiamonds":3275,"Ġpush":3276,"Ġthr":3277,"Other":3278,"Ġrese":3279,"Ġpsy":3280,"eared":3281,"Ġjack":3282,"lebr":3283,"Ġste":3284,"arb":3285,"fort":3286,"dden":3287,"Ser":3288,"Sometimes":3289,"Ġperform":3290,"Ġspot":3291,"rench":3292,"Ġduring":3293,"Ġcause":3294,"hood":3295,"arch":3296,"ĠMin":3297,"ashed":3298,"Ġguard":3299,"mond":3300,"riff":3301,"ishing":3302,"che":3303,"alent":3304,"ĠLuc":3305,"Ġfort":3306,"Miss":3307,"ĠKhan":3308,"ĠMa":3309,"Ġsudden":3310,"aith":3311,"Ġsky":3312,"vi":3313,"Ġcollect":3314,"aint":3315,"Ġweapons":3316,"Ġgreen":3317,"Ġwitness":3318,"Ġant":3319,"Ġfat":3320,"place":3321,"Inst":3322,"ĠHold":3323,"Somebody":3324,"icate":3325,"ran":3326,"stood":3327,"gress":3328,"Ġbloody":3329,"upp":3330,"fr":3331,"ellig":3332,"Ġmap":3333,"Ġfeels":3334,"ĠFBI":3335,"iling":3336,"500":3337,"Ġorgan":3338,"Ġriver":3339,"arlier":3340,"Ġwaste":3341,"itions":3342,"Ġfurther":3343,"min":3344,"Ġnorth":3345,"Dis":3346,"ara":3347,"Ġfailed":3348,"Ġtun":3349,"Ġpassed":3350,"cl":3351,"Ġtea":3352,"Ġscrew":3353,"Ġduty":3354,"arty":3355,"Ġdecide":3356,"18":3357,"Ġauthor":3358,"Ġsleeping":3359,"ĠAmerican":3360,"ĠPe":3361,"ĠMike":3362,"Ġpulled":3363,"Select":3364,"Ġdestroyed":3365,"inct":3366,"Ġcommon":3367,"Ġitself":3368,"Ġliked":3369,"gest":3370,"Ġmedic":3371,"kn":3372,"Ġlt":3373,"oger":3374,"ĠPri":3375,"Ġleader":3376,"ĠMc":3377,"!\"čĊ":3378,"ners":3379,"uild":3380,"Ġsoft":3381,"iced":3382,"Ġjour":3383,"Ġmilitary":3384,"Ġupon":3385,"alf":3386,"itten":3387,"esp":3388,"Ġtotally":3389,"Ġsuff":3390,"Ġinvolved":3391,"Ġcelebr":3392,"Ġrelax":3393,"Ġcreate":3394,"otion":3395,"Trust":3396,"Ġsite":3397,"time":3398,"rie":3399,"Ġterrible":3400,"ktop":3401,"Ġbigger":3402,"ppie":3403,"fety":3404,"ĠMor":3405,"Father":3406,"Ġhy":3407,"Ġdriver":3408,"ints":3409,"osh":3410,"Ġsepar":3411,"ĠEnglish":3412,"Ġswe":3413,"ĠMaybe":3414,"Ġmut":3415,"Ġmountain":3416,"Ġtechn":3417,"van":3418,"loe":3419,"Ġnecess":3420,"Ġfinished":3421,"Ġcoun":3422,"Ġcaptain":3423,"lder":3424,"Ġstorm":3425,"rag":3426,"ĠCity":3427,"...\"čĊ":3428,"ĠUh":3429,"Ġplant":3430,"Ġdata":3431,"ened":3432,"Ġclaim":3433,"Ġpract":3434,"ĠHave":3435,"reg":3436,"rength":3437,"Love":3438,"AL":3439,"Bet":3440,"Ġorig":3441,"Ġheal":3442,"cer":3443,"Ġgate":3444,"Ġfinger":3445,"Ġempty":3446,"Ġkeeping":3447,"ceed":3448,"eck":3449,"-What":3450,"Ġnote":3451,"Ġlived":3452,"ĠBye":3453,"Ġprice":3454,"Up":3455,"omes":3456,"Jesus":3457,"Ġdrag":3458,"anda":3459,"ĠKeep":3460,"Ġgives":3461,"Ġskin":3462,"ĠSer":3463,"ergy":3464,"ills":3465,"ipe":3466,"Ġallowed":3467,"Ġlosing":3468,"Ġsmile":3469,"Ġwilling":3470,"Ġboyfriend":3471,"venge":3472,"Ġpicked":3473,"Forget":3474,"Ġattempt":3475,"ram":3476,"Ġspir":3477,"Ġmoved":3478,"Ġjoke":3479,"cent":3480,"Ġyell":3481,"ruct":3482,"ĠLocke":3483,"Ġassist":3484,"yal":3485,"urch":3486,"Clark":3487,"Ġmoon":3488,"âĢĵ":3489,"ids":3490,"Ġemergency":3491,"Use":3492,"Hurry":3493,"Ã¶u":3494,"Ġvac":3495,"Without":3496,"Ġgodd":3497,"Ġ_":3498,"itude":3499,"Ġsize":3500,"ĠFather":3501,"ira":3502,"evin":3503,"Ġ\"čĊ":3504,"Ġcast":3505,"Ġarms":3506,"Ġapplic":3507,"Ġphoto":3508,"..\"čĊ":3509,"ville":3510,"Ġeating":3511,"Mother":3512,"Ġview":3513,"Ġmedical":3514,"ĠDes":3515,"aly":3516,"Ġrich":3517,"Ġhadn":3518,"Ġsens":3519,"esome":3520,"Uncle":3521,"Add":3522,"ptions":3523,"pose":3524,"ĠSayid":3525,"Ġstarting":3526,"sc":3527,"Sw":3528,",\"":3529,"Ġstat":3530,"Mmm":3531,"erm":3532,"OW":3533,"gen":3534,"Ġways":3535,"Ġconvers":3536,"Ġcopy":3537,"Ġcave":3538,"Ġteacher":3539,"do":3540,"iff":3541,"Ġfinal":3542,"Ġunless":3543,"Ġknock":3544,"14":3545,"omas":3546,"Ġcomb":3547,"Ġdrunk":3548,"uper":3549,"Ġcolor":3550,"ement":3551,"Ġapartment":3552,"Ġlikes":3553,"ands":3554,"Te":3555,"Ġobs":3556,"Ġbuck":3557,"iment":3558,"Ġemb":3559,"Ġexcept":3560,"idden":3561,"geant":3562,"ĠSure":3563,"ĠLana":3564,"Ġfaith":3565,"Ġcab":3566,".S":3567,"Ġreb":3568,"Ġfilm":3569,"ibly":3570,"ĠWatson":3571,"oman":3572,"ives":3573,"Ġourselves":3574,"gain":3575,"than":3576,"icide":3577,"Ġsuck":3578,"ising":3579,"Ġproperty":3580,"Ġstore":3581,"ĠListen":3582,"ording":3583,"Ġkit":3584,"ĠNe":3585,"Ġpartner":3586,"Ġbrave":3587,"Ġpoison":3588,"Ġplanning":3589,"Ġabove":3590,"ĠPeter":3591,"Ġlunch":3592,"Ġsake":3593,"Ġleaves":3594,"iel":3595,"esides":3596,"Ġstrength":3597,"Ġrepe":3598,"father":3599,"Ġfit":3600,"da":3601,"El":3602,"Le":3603,"Ed":3604,"Ġcrack":3605,"Ġmask":3606,"Ġlanguage":3607,"Ġprivate":3608,"Ġtransfer":3609,"Ġthemselves":3610,"oid":3611,"Ġsafety":3612,"Ġexec":3613,"icy":3614,"enn":3615,"ĠJames":3616,"Ġspl":3617,"yn":3618,"Ġwonderful":3619,"Ġresponsible":3620,"Ġkeeps":3621,"Ġtowards":3622,"oned":3623,"Ġhoping":3624,"Ġchanges":3625,"ĠMiles":3626,"Ġresult":3627,"Ġdaddy":3628,"ĠMad":3629,"ances":3630,"Ġshowed":3631,"ĠDaddy":3632,"Dev":3633,"face":3634,"Ġ]čĊ":3635,"ĠBrit":3636,"Ġearlier":3637,"Ġplans":3638,"oad":3639,"rif":3640,"asc":3641,"Ġbattle":3642,"ĠBecause":3643,"ued":3644,"Remove":3645,"Ġcondition":3646,"Ġladies":3647,"Ġund":3648,"low":3649,"Ġtaught":3650,"rer":3651,"Ġaction":3652,"ĠRs":3653,"ĠSome":3654,"Ġneigh":3655,"Ġinteresting":3656,"ises":3657,"Five":3658,"can":3659,"ring":3660,"ĠCooper":3661,"Ġswim":3662,"ology":3663,"Ġpolit":3664,"Ġfake":3665,"word":3666,"well":3667,"phan":3668,"Ġhuge":3669,"Im":3670,"ĠAt":3671,"Ġmurdered":3672,"Ġheaded":3673,"ĠAmerica":3674,"Ġtab":3675,"Em":3676,"aul":3677,"Ġdarling":3678,"Ġpan":3679,"Ġdoors":3680,"Has":3681,"ji":3682,"Rel":3683,"arden":3684,"duce":3685,"ĠCharles":3686,"....čĊ":3687,"ĠGrand":3688,"Ġopportun":3689,"Mm":3690,"Ġfate":3691,"Ġenc":3692,"Ġthief":3693,"Copy":3694,"Ġupset":3695,"Ġexcuse":3696,"-You":3697,"gel":3698,"olmes":3699,"Ġletter":3700,"Ġarrived":3701,"Easy":3702,"Anyway":3703,"Happy":3704,"\"You":3705,"enry":3706,"sen":3707,"ĠQue":3708,"bsolutely":3709,"lu":3710,"unny":3711,"ĠHarry":3712,"ays":3713,"Ġfavorite":3714,"Cont":3715,"Ġhunt":3716,"uro":3717,"Ġtele":3718,"noon":3719,"Ġreading":3720,"Ġshock":3721,"Ġknife":3722,"Ġscream":3723,"Ġintro":3724,"17":3725,"Ġwound":3726,"Ġben":3727,"Ġlearned":3728,"het":3729,"alc":3730,"ahul":3731,"bing":3732,"Ġcrap":3733,"Ġoption":3734,"Ġapart":3735,"Ġsnow":3736,"olen":3737,"Ġbab":3738,"Hang":3739,"ining":3740,"Ġescap":3741,"ĠAh":3742,"Ġcreated":3743,"Ġrelationship":3744,"fast":3745,"Ġsusp":3746,"Ġsource":3747,"Still":3748,"Ġtort":3749,"Ġvol":3750,"ĠPat":3751,"Ġbeginning":3752,"Ġcorner":3753,"Ġconst":3754,"Ok":3755,"Honey":3756,"this":3757,"rate":3758,"hik":3759,"earch":3760,"Ġdevelop":3761,"Ġtwice":3762,"Ġtrip":3763,"ĠTO":3764,"Ġfollowed":3765,"ĠAaron":3766,"Start":3767,"ism":3768,"Ġworst":3769,"ĠPar":3770,"gin":3771,"Ġtough":3772,"Ġsouth":3773,"Ġ]":3774,"ĠPl":3775,"Ġimm":3776,"Ġconsider":3777,"Ġsaving":3778,"Ġbelieved":3779,"ites":3780,"ival":3781,"Ġhig":3782,"Ġterrorist":3783,"Ġpowerful":3784,"Ġflying":3785,"Del":3786,"Ġacting":3787,"Ġill":3788,"Ġreact":3789,"Ġfresh":3790,"Ġvehicle":3791,"Ġreached":3792,"Ġplaces":3793,"Ġpowers":3794,"Ġinstall":3795,"Ġghost":3796,"NA":3797,"yond":3798,"Ġbell":3799,"-ha":3800,"Ġvalue":3801,"Ġincl":3802,"Ġwoods":3803,"Ġstolen":3804,"ĠEd":3805,"Ġdepartment":3806,"Ġcup":3807,"Ġchat":3808,"ĠAir":3809,"ĠLike":3810,"Ġpil":3811,"Ġear":3812,"ĠExcuse":3813,"Ġbeyond":3814,"Daddy":3815,"Ġamb":3816,"Ġfellow":3817,"Ġcontinue":3818,"Ġanswers":3819,"Ġneg":3820,"Ġrule":3821,"astic":3822,"Ġphys":3823,"Ġairport":3824,"Ġlovely":3825,"Ġ&":3826,"ĠReally":3827,"Ġgotten":3828,"Ġbast":3829,"Ġnatur":3830,"Ġpressure":3831,"fortun":3832,"Ġbought":3833,"onsense":3834,"Ġpainting":3835,"Ġoften":3836,"Ready":3837,"ased":3838,"Ġnose":3839,"Ġexperience":3840,"Anything":3841,"aa":3842,"Ġhi":3843,"ĠShaw":3844,"Ġspeaking":3845,"CK":3846,"ailed":3847,"Ġharm":3848,"ĠOver":3849,"ucker":3850,"Ġanimals":3851,"xy":3852,"Ġsmoke":3853,"omed":3854,"ension":3855,"chen":3856,"urley":3857,"attoo":3858,"Ġwild":3859,"Ġamong":3860,"Ġann":3861,"Ġdevice":3862,"Ġaware":3863,"ĠJenny":3864,"ĠWalt":3865,"Ġspades":3866,"Ġden":3867,"ĠBlack":3868,"Ġbathroom":3869,"olution":3870,"fessor":3871,"icense":3872,"back":3873,"Ġfreed":3874,"Ġinsane":3875,"-A":3876,"odies":3877,"Ġraise":3878,"Ġbless":3879,"Ġhall":3880,"ailable":3881,"ĠBab":3882,"Ġlord":3883,"Ġpleasure":3884,"Ġcute":3885,"Ġciv":3886,"alter":3887,"Ġgas":3888,"Ġends":3889,"ĠGreat":3890,"Ġsweetheart":3891,"cho":3892,"Ġsetting":3893,"Talk":3894,"gre":3895,"ĠGeor":3896,"'S":3897,"Ġ~":3898,"Ġnecessary":3899,"Ġbug":3900,"Ġwast":3901,"oring":3902,"Ġarrange":3903,"Charlie":3904,"ĠMax":3905,"Want":3906,"hai":3907,"Ġintellig":3908,"ashing":3909,"Ġdeserve":3910,"Ġdescri":3911,"Ġwritten":3912,"Ġinterview":3913,"Ġpus":3914,"Ġdocum":3915,"60":3916,"Ġcustom":3917,"Ġdue":3918,"Ġpock":3919,"Ġstaying":3920,".A":3921,"Ġintern":3922,"Ġgoddamn":3923,"Ġshad":3924,"Ġpiss":3925,"Ha":3926,"Ġegg":3927,"ference":3928,"ichard":3929,"Ġrealized":3930,"Ġfocus":3931,"Ġpartic":3932,"Ġtunnel":3933,"Ġknowing":3934,"Ġsoc":3935,"Another":3936,"va":3937,"ĠCarl":3938,"Ġbetray":3939,"Ġsuccess":3940,"Ġlift":3941,"Most":3942,"Ġlies":3943,"ĠAd":3944,"Ġenergy":3945,"aker":3946,"Ġspare":3947,"Ġopportunity":3948,"Doesn":3949,"Ġresearch":3950,"ĠDelhi":3951,"Ġdestiny":3952,"Ġrecognize":3953,"ĠRa":3954,"ino":3955,"Ġswitch":3956,"Ġtells":3957,"Ġprincess":3958,"ĠMartin":3959,"etective":3960,"ĠMark":3961,"Enough":3962,"Ġdropped":3963,"Really":3964,"Ow":3965,"Ġroof":3966,"Baby":3967,"Ġasshole":3968,"Ġbreathe":3969,"ĠFred":3970,"ĠHis":3971,"vey":3972,"achel":3973,"Ġhello":3974,"llen":3975,"Papa":3976,"Ġwrote":3977,"ĠBrother":3978,"-y":3979,"Ġdouble":3980,"Ġplayed":3981,"Under":3982,"Ġbunch":3983,"ki":3984,"ĠHelp":3985,"Ġafternoon":3986,"ĠSw":3987,"GH":3988,"Their":3989,"cy":3990,"rill":3991,"Ġshoes":3992,"Ġweight":3993,"Pull":3994,"ees":3995,"Ġpred":3996,"ecially":3997,"rel":3998,"ĠJake":3999,"imp":4000,"Too":4001,"spector":4002,"Ġmarket":4003,"Ġali":4004,"Grand":4005,"ogan":4006,"rish":4007,"Ġsurprised":4008,"Ġshooting":4009,"Ġcontract":4010,"otten":4011,"Ġmor":4012,"Ġhearing":4013,"Ġpurpose":4014,"ĠWith":4015,"Ġbare":4016,"iculous":4017,"ĠAgent":4018,"Ġlocal":4019,"Ġproof":4020,"ELL":4021,"ĠMs":4022,"ender":4023,"Ġbooks":4024,"Ġopened":4025,"Aren":4026,"ĠChan":4027,"¦čĊ":4028,"âĢ¦čĊ":4029,"Ġadvice":4030,"Ġcapt":4031,"reme":4032,"Ġign":4033,"Ġshirt":4034,"ĠCar":4035,"Ġmid":4036,"arently":4037,"Ġheads":4038,"Ġquit":4039,"Ġconversation":4040,"hod":4041,"Ġhorse":4042,"Ġcred":4043,"Ġletting":4044,"Ġdetails":4045,"Ġappear":4046,"Ġhol":4047,"known":4048,"ĠQueen":4049,"Ġbodies":4050,"Ġcamer":4051,"ĠJo":4052,"Ġbullshit":4053,"Ġclock":4054,"Ġstars":4055,"Ġattacked":4056,"hoot":4057,"Ask":4058,"ED":4059,"Ġloss":4060,"Congratulations":4061,"Ġenter":4062,"ona":4063,"Ġphotog":4064,"Ġscare":4065,"ledge":4066,"Ġexplos":4067,"ker":4068,"Ġabsolutely":4069,"Ġspoke":4070,"ulation":4071,"Ġusually":4072,"ĠDavid":4073,"Ġheavy":4074,"herlock":4075,"iction":4076,"Alex":4077,"Ġfalling":4078,"Close":4079,"Ġbleed":4080,"Ġfeelings":4081,"Ġours":4082,"Ġodd":4083,"Ġfan":4084,"indow":4085,"CH":4086,"rey":4087,"lor":4088,"Ġconnection":4089,"Ġcriminal":4090,"ĠMod":4091,"Ġseriously":4092,"Ġsending":4093,"Ġtour":4094,"Ġnu":4095,"ico":4096,"Ġtrigg":4097,"ĠMother":4098,"ĠJoe":4099,"Aw":4100,"ipp":4101,"Ġdisappear":4102,"uly":4103,"Ġroute":4104,"Ġsever":4105,"Ġserv":4106,"Stand":4107,"ipped":4108,"Ġdollars":4109,"iers":4110,"yan":4111,"Ġtax":4112,"Ġnoticed":4113,"Ġmanager":4114,"Ġsand":4115,"Ġnon":4116,"Ġtraining":4117,"Ġsam":4118,"Ġissue":4119,"down":4120,"err":4121,"Ġagreed":4122,"Ġwhose":4123,"ĠSingh":4124,"Col":4125,"Ġgames":4126,"ĠMur":4127,"Ġhired":4128,"ential":4129,"Ġtattoo":4130,"Ġlawyer":4131,"Ġwarm":4132,"itz":4133,"ĠRay":4134,"Ġcau":4135,"Max":4136,"Same":4137,"reck":4138,"Ġpermission":4139,"Ġstarts":4140,"Follow":4141,"Ġclubs":4142,"Ġfle":4143,"Sing":4144,"ĠTwo":4145,"Ġfinding":4146,"fered":4147,"Ġwarri":4148,"older":4149,"ancy":4150,"Ġselected":4151,"Ind":4152,"ĠSec":4153,"Thing":4154,"raph":4155,"elay":4156,"Ġsecure":4157,"Ġbreakfast":4158,"ora":4159,"ĠJul":4160,"Ġbreaking":4161,"ĠJesus":4162,"ĠBritish":4163,"ĠMet":4164,"Ġmonster":4165,"aching":4166,"Ġcro":4167,"akh":4168,"Ġticket":4169,"Ġconfirm":4170,"agg":4171,"Att":4172,"Ġchecked":4173,"Ġqueen":4174,"ET":4175,"Sy":4176,"Ġhack":4177,"Ġround":4178,"Mike":4179,"Ġfed":4180,"usion":4181,"Ġitem":4182,"ĠCIA":4183,"Ġblame":4184,"Sweet":4185,"Ġjudge":4186,"pect":4187,"ware":4188,"Ġbrothers":4189,"agement":4190,"Ġunit":4191,"Ġbirds":4192,"Ġspirit":4193,"asure":4194,"ration":4195,"Ġserve":4196,"olly":4197,"onel":4198,"Ġrescue":4199,"Ġdumb":4200,"Ġdrugs":4201,"inese":4202,"ugo":4203,"Ġdirty":4204,"Ġaffect":4205,"Ġloose":4206,"ĠVictor":4207,"ĠJim":4208,"Sim":4209,"Four":4210,"eez":4211,"Ġraised":4212,"US":4213,"ĠMaj":4214,"Ġdeliver":4215,"Ġwondering":4216,"even":4217,"Ġtrick":4218,"Ġanimal":4219,"roe":4220,"Ġ'čĊ":4221,"Ġbridge":4222,"Ġdisplay":4223,"Ġwarning":4224,"Ġneither":4225,"Ġspread":4226,"order":4227,"aren":4228,"Ġremote":4229,"zen":4230,"Always":4231,"Anyone":4232,"ĠBack":4233,"book":4234,"Ġinj":4235,"Ġnur":4236,"Ġupstairs":4237,"OO":4238,"give":4239,"Ġaside":4240,"Ġcomfort":4241,"Ġobject":4242,"Ġruns":4243,"cellent":4244,"Ġcock":4245,"Ġteeth":4246,"Ġemploy":4247,"Ġhatch":4248,"eng":4249,"arant":4250,"Ġpregn":4251,"veill":4252,"Ġfixed":4253,"elayud":4254,"ĠRen":4255,"Ġkitchen":4256,"imate":4257,"ummy":4258,"Ġest":4259,"uf":4260,"izing":4261,"Ġinfect":4262,"Ġnature":4263,"ĠRob":4264,"Ġbelow":4265,"Ġpictures":4266,"Ġfol":4267,"reetings":4268,"Ġfired":4269,"Ġpapa":4270,"Ġridiculous":4271,"Ġlog":4272,"Ġsettle":4273,"lott":4274,"vir":4275,"Ġavailable":4276,"Ġheld":4277,"Ġdry":4278,"ĠLove":4279,"ĠMaster":4280,"omin":4281,"aled":4282,"Ġrev":4283,"adam":4284,"ika":4285,"Ġtail":4286,"ĠNik":4287,"iday":4288,"ada":4289,"ux":4290,"ĠFuck":4291,"Ġocean":4292,"Claire":4293,"hary":4294,"ounce":4295,"acle":4296,"ĠCent":4297,"Ġoriginal":4298,"ĠFrench":4299,"Ġsuicide":4300,"Fin":4301,"Ġimage":4302,"Ġdies":4303,"Ġjustice":4304,"Were":4305,"Ġdial":4306,"Pick":4307,"Probably":4308,"ĠAna":4309,"Ġpapers":4310,"VE":4311,"ruction":4312,"Ġclearly":4313,"Ġtrap":4314,"gging":4315,";čĊ":4316,"Ġstrike":4317,"BAR":4318,"Holy":4319,"etic":4320,"Ġpriest":4321,"Ġuni":4322,"Ġwalked":4323,"ĠSawyer":4324,"elayudham":4325,"Ġgreatest":4326,"Ġmatters":4327,"za":4328,"ences":4329,"gged":4330,"ga":4331,"Ġtaste":4332,"ocol":4333,"retty":4334,"lies":4335,"icted":4336,"Ġapologize":4337,"Ġcharac":4338,"Ġarrested":4339,"-No":4340,"aked":4341,"ko":4342,"-bye":4343,"Ġpet":4344,"Ġgenius":4345,"ulf":4346,"ĠMm":4347,"gal":4348,"Ġoperation":4349,"Ġcameras":4350,"Ġhidden":4351,"Ġprefer":4352,"Ġsees":4353,"Ġbeer":4354,"ena":4355,"ĠStay":4356,"Ġmeters":4357,"Ġobviously":4358,"Ġchicken":4359,"ĠMac":4360,"they":4361,"Ġofficial":4362,"ĠHolmes":4363,"Ġseveral":4364,"Ġwhom":4365,"ĠEr":4366,"ĠCont":4367,"andu":4368,"Ġsearching":4369,"Tomorrow":4370,"...!čĊ":4371,"mark":4372,"-to":4373,"clear":4374,"ium":4375,"Ġunderstood":4376,"Unless":4377,"ressed":4378,"with":4379,"Ġlights":4380,"cus":4381,"Ġstories":4382,"Ġtrad":4383,"Ġfund":4384,"Ġ--":4385,"Ġcrying":4386,"Ġnet":4387,"anny":4388,"af":4389,"ĠFine":4390,"Ġturns":4391,"agn":4392,"Ġbringing":4393,"Care":4394,"ishes":4395,"Ġmadam":4396,"Ġassume":4397,"Ġdogs":4398,"zing":4399,"Ġforest":4400,"Ġperhaps":4401,"ITT":4402,"ĠHuh":4403,"non":4404,"ection":4405,"ĠPapa":4406,"Ġassign":4407,"Ġmass":4408,"Ġsecrets":4409,"iled":4410,"Ġrat":4411,"Ġled":4412,"Ġnonsense":4413,"Ġnowhere":4414,"Whe":4415,"ĠWar":4416,"Guess":4417,"Ġtrigger":4418,"Ġlicense":4419,"Ġscient":4420,"ĠEll":4421,"unior":4422,"ĠGeneral":4423,"hem":4424,"urt":4425,"Gl":4426,"ns":4427,"Ġreceived":4428,"ĠCommand":4429,"Clear":4430,"Ġpackage":4431,"Boy":4432,"Kate":4433,"Ġbottle":4434,"Send":4435,"Ġwalls":4436,"Ġincred":4437,"Ġsurvived":4438,"Ġvirus":4439,"Ġsubject":4440,"Ġchallen":4441,"Ġbattery":4442,"Ġloud":4443,"Ġrecently":4444,"Conf":4445,"Ġstaring":4446,"Ooh":4447,"Ġdanc":4448,"ĠAust":4449,"Ġdisappeared":4450,"lotte":4451,"ils":4452,"frica":4453,"Ġresponsibility":4454,"apt":4455,"Ġadmit":4456,"Ġmix":4457,"Ġfreedom":4458,"ĠChloe":4459,"Ġescaped":4460,"Red":4461,"Head":4462,"Ġide":4463,"ĠKat":4464,"Ġcous":4465,"Ġdrinking":4466,"Ġdirectory":4467,"Ġbottom":4468,"Ġbiggest":4469,"à·Ĭ":4470,"Ġbastard":4471,"unty":4472,"hh":4473,"Ġkingdom":4474,"Ġterm":4475,"using":4476,"pes":4477,"ization":4478,"ubb":4479,"Ġstranger":4480,"jay":4481,"ĠTed":4482,"ĠPut":4483,"Ġchem":4484,"Ġsna":4485,"Ġextreme":4486,"Ġexcited":4487,"icious":4488,"Ġgrandpa":4489,"Ġeasily":4490,"Sar":4491,"Ġamount":4492,"ĠKent":4493,"Ġpilot":4494,"Ġfamous":4495,"Ġnatural":4496,"Ġherself":4497,"Ġincident":4498,"don":4499,"Ġnor":4500,"adin":4501,"Sounds":4502,"esty":4503,"Ġpants":4504,"Ġstudy":4505,"Long":4506,"uman":4507,"Ġsched":4508,"ĠSun":4509,"Ġ'%":4510,"Aaron":4511,"ector":4512,"urious":4513,"uit":4514,"Ġaunt":4515,"Ġfamili":4516,"Ġtrapped":4517,"Ġawesome":4518,"war":4519,"ander":4520,"ĠCall":4521,"Ġvictims":4522,"erman":4523,"ĠSouth":4524,"asm":4525,"Ġhunting":4526,"like":4527,"Ġsomehow":4528,"Until":4529,"iring":4530,"Ġprec":4531,"Ġcart":4532,"Ġjourney":4533,"Ġmerc":4534,"Ġscreen":4535,"Tw":4536,"LA":4537,"Search":4538,"Ġtall":4539,"Ġchurch":4540,"Ġprogress":4541,"Ġdirectly":4542,"ĠWay":4543,"Ġmilk":4544,"asons":4545,"Ġpresident":4546,"aik":4547,"\"He":4548,"licop":4549,"ĠMinister":4550,"ply":4551,"raw":4552,"Ben":4553,"Bel":4554,"Ġsurveill":4555,"OT":4556,"house":4557,"andy":4558,"Dear":4559,"Ġevac":4560,"ĠJe":4561,"Ġinde":4562,"Down":4563,"Ġreve":4564,"ĠBo":4565,"ĠMonroe":4566,"Int":4567,"ication":4568,"Ġshame":4569,"ĠLau":4570,"Ġpieces":4571,"Better":4572,"ĠKDE":4573,"Ġappears":4574,"ops":4575,"Ladies":4576,"Ġlegs":4577,"ĠKevin":4578,"Frank":4579,"Ġmajor":4580,"ĠApp":4581,"Ġsatell":4582,"Ġtank":4583,"ava":4584,"Ġthousands":4585,"Ġbeauty":4586,"ĠTy":4587,"Ġpregnant":4588,"Ġhumans":4589,"Ġsuddenly":4590,"eenu":4591,"iform":4592,"Ġrecords":4593,"ĠAN":4594,"Ġscience":4595,"itney":4596,"Ġpaying":4597,"Ġeasier":4598,"Ġshows":4599,"Ġeff":4600,"eted":4601,"rit":4602,"Ġmemories":4603,"Things":4604,"itle":4605,"arrass":4606,"Ġstock":4607,"LE":4608,"Ġpercent":4609,"ĠStates":4610,"wood":4611,"ources":4612,"Ġremem":4613,"Ġturning":4614,"irect":4615,"orld":4616,"Ġcompan":4617,"Ġchair":4618,"Bab":4619,"Ġnotice":4620,"itiz":4621,"Besides":4622,"ples":4623,"Ġpage":4624,"olis":4625,"Ġchamp":4626,"Ġbow":4627,"Ġlarge":4628,"Bell":4629,"Amer":4630,"'all":4631,"Ġnearly":4632,"Ġcovered":4633,"Ġlines":4634,"iger":4635,"Ġver":4636,"Ġsoldier":4637,"Ġop":4638,"eg":4639,"ervous":4640,"Ġmeaning":4641,"Ġspy":4642,"alley":4643,"ĠHigh":4644,"Ġfinds":4645,"ruit":4646,"Ġstayed":4647,"Ġfamiliar":4648,"Rad":4649,"Ġshift":4650,"ĠHenry":4651,"acks":4652,"Ġdistance":4653,"ĠIndian":4654,"Ġcrow":4655,"High":4656,"ĠRussian":4657,"Cor":4658,"Both":4659,"Ġpocket":4660,"ĠPh":4661,"Ġlover":4662,"Ġforgotten":4663,"pens":4664,"ality":4665,"Ġadm":4666,"fficer":4667,"AM":4668,"ĠRon":4669,"iarty":4670,"Ġls":4671,"Rec":4672,"Ġaband":4673,"Ġstrugg":4674,"Ġscan":4675,"Ad":4676,"Ġprofile":4677,"ĠMil":4678,"imum":4679,"Ġinit":4680,"Absolutely":4681,"Ġsimply":4682,"Ġpoints":4683,"Raj":4684,"Ġbelongs":4685,"Ġhelicop":4686,"Ġfilled":4687,"Must":4688,"Ġstaff":4689,"ĠUnited":4690,"ford":4691,"iance":4692,"Ġflowers":4693,"Ġdistur":4694,"Ġfont":4695,"Ġnervous":4696,"Ġclick":4697,"Ġvers":4698,"Ġinclud":4699,"umber":4700,"Ġgar":4701,"date":4702,"rain":4703,"Mrs":4704,"ped":4705,"Ġcompet":4706,"bar":4707,"Ġhook":4708,"ĠWhoa":4709,"Ġkidnapped":4710,"who":4711,"Ġrespond":4712,"Ġprofession":4713,"ĠVas":4714,"Relax":4715,"den":4716,"eech":4717,"Ġunits":4718,"Ġchain":4719,"usan":4720,"ca":4721,"Ġcapable":4722,"ĠPriya":4723,"Ġembarrass":4724,"Speak":4725,"inda":4726,"Ġtape":4727,"ĠWow":4728,"erg":4729,"Ġenemies":4730,"EA":4731,"Ġsle":4732,"Ġunt":4733,"Ġfarm":4734,"Ġstatus":4735,"Ġapplication":4736,"rian":4737,"Ġsummer":4738,"urope":4739,"Yo":4740,"ĠWest":4741,"sters":4742,"Ġeffort":4743,"Ġpaint":4744,"Command":4745,"Ġbust":4746,"Fire":4747,"vior":4748,"ĠBill":4749,"Ġbrings":4750,"ĠLuthor":4751,"Ġwheel":4752,"icky":4753,"ips":4754,"rive":4755,"Ġcivil":4756,"Master":4757,"ita":4758,"ĠShan":4759,"ilities":4760,"ĠCole":4761,"Ġcommit":4762,"Ġcases":4763,"300":4764,"Ġbreathing":4765,"Ġdesert":4766,"Ġdamage":4767,"Ġconcer":4768,"Ġcousin":4769,"Drop":4770,"ĠCor":4771,"Ġoutta":4772,"Ġgrad":4773,"Ġtracking":4774,"Ġprotocol":4775,"Ġstab":4776,"Ġaud":4777,"Play":4778,"Ġille":4779,"Ġsin":4780,"-year":4781,"Ġattract":4782,"Ġshowing":4783,"UT":4784,"Light":4785,"Ġburied":4786,"ĠBig":4787,"23":4788,"tering":4789,"'T":4790,"Ġoil":4791,"ctors":4792,"Ġflat":4793,"ĠDNA":4794,"Step":4795,"ĠMill":4796,"rib":4797,"fucker":4798,"Ġminister":4799,"Ġmillions":4800,"Ġmedicine":4801,"Ġseason":4802,"None":4803,"Ram":4804,"Ġemotion":4805,"Exactly":4806,"Ten":4807,"Ġears":4808,"Er":4809,"athan":4810,"bered":4811,"antic":4812,"mas":4813,"IR":4814,"Ġband":4815,"ĠJac":4816,"IM":4817,"iety":4818,"Ġanger":4819,"ĠMex":4820,"Ġsteps":4821,"Ġdirection":4822,"Ġstyle":4823,"Ġgrandfather":4824,"Ġconvince":4825,"Ġhanging":4826,"Ġstage":4827,"ID":4828,"iverse":4829,"put":4830,"Ġwave":4831,"ilty":4832,"Acc":4833,"Ġmile":4834,"ĠColl":4835,"Pri":4836,"eds":4837,"oug":4838,"boy":4839,"alph":4840,"Ġmob":4841,"Ġgrown":4842,"Ġbarely":4843,"ĠSmall":4844,"ĠUncle":4845,"Ġborrow":4846,"orse":4847,"Ġbutt":4848,"Ġpossibly":4849,"Ġowner":4850,"Ġwindows":4851,"ĠSarah":4852,"Little":4853,"Ġwallet":4854,"-B":4855,"Build":4856,"Ġheaven":4857,"Morning":4858,"Ġincre":4859,"Cut":4860,"Ġtool":4861,"Ġintelligence":4862,"Ġ\"%":4863,"OL":4864,"chan":4865,"Ġcomplicated":4866,"Ġcertainly":4867,"Ġwhoever":4868,"Chan":4869,"Ġtruly":4870,"Ġprepared":4871,"Cur":4872,"Roger":4873,"Ġthro":4874,"rows":4875,"Ġcy":4876,"Ġwet":4877,"ĠChappie":4878,"Ġcarefully":4879,"bur":4880,".D":4881,"athy":4882,"Ġtrees":4883,"Hell":4884,"Ġspecific":4885,"Jenny":4886,"Ġuniform":4887,"ument":4888,"antage":4889,"Ġblew":4890,"Ġchose":4891,"ju":4892,"anet":4893,"Ġchest":4894,"Ġneighbor":4895,"Ġplugins":4896,"mber":4897,"Ġsilly":4898,"Ġfought":4899,"iod":4900,"mar":4901,"Â¶":4902,"ĠME":4903,"ĠChand":4904,"Ġsurveillance":4905,"ropolis":4906,"ĠOut":4907,"eddington":4908,"romise":4909,"ĠHunt":4910,"ecial":4911,"Ġnuclear":4912,"ĠCap":4913,"ĠBarry":4914,"Calm":4915,"awn":4916,"prints":4917,"Ġsolve":4918,"Aah":4919,"\"Oh":4920,"Police":4921,"ĠRichard":4922,"rifice":4923,"ĠWH":4924,"Whether":4925,"la":4926,"rant":4927,"Ġoccur":4928,"ida":4929,"Ġconcern":4930,"Ġhappiness":4931,"Ġcares":4932,"Six":4933,"raft":4934,"ĠBur":4935,"Whoever":4936,"Ġpig":4937,"Ġknowledge":4938,"nal":4939,"Ġexpected":4940,"ĠDor":4941,"rah":4942,"ĠStep":4943,"Ġdetective":4944,"Ġseemed":4945,"ĠCo":4946,"Ġshell":4947,"Lord":4948,"Ġelder":4949,"Otherwise":4950,"ĠPrem":4951,"Ġdump":4952,"ulate":4953,"Ġguards":4954,"Ġcredit":4955,"Ġtrade":4956,"Car":4957,"Ġtie":4958,"len":4959,"Ġheat":4960,"liver":4961,"ĠMommy":4962,"emo":4963,"ĠDoes":4964,"ĠSteve":4965,"Ġinvestigation":4966,"Ġconfused":4967,"Ġbrill":4968,"Ġclosing":4969,"oyd":4970,"Ġassoc":4971,"Mon":4972,"Fl":4973,"Ġfuel":4974,"ĠMal":4975,"Ġsurround":4976,"Goodbye":4977,"Ġlots":4978,"Ġdrill":4979,"'mon":4980,"Ġinvent":4981,"rik":4982,"Ġspo":4983,"Ġfolks":4984,"Free":4985,"Ġrepl":4986,"Either":4987,"Ġshout":4988,"aper":4989,"ĠWall":4990,"Ġfucked":4991,"MAN":4992,"ĠSanj":4993,"ucky":4994,"Ġpassport":4995,"Ġfully":4996,"Ġdisappoint":4997,"kin":4998,"allow":4999,"Ġproperly":5000,"Ġsacrifice":5001,"Ġnights":5002,"Ġbucks":5003,"duc":5004,"ĠOw":5005,"Life":5006,"Ġlap":5007,"Ġhandsome":5008,"asty":5009,"Ġblast":5010,"imeter":5011,"Wake":5012,"ĠSeenu":5013,"Ġbright":5014,"Ġdivor":5015,"Ġlaughing":5016,"hin":5017,"Ġgiant":5018,"Ġconcerned":5019,"ĠHer":5020,"Ġpulling":5021,"Ġdefense":5022,"Ġlakh":5023,"Ġforced":5024,"Ġcommitted":5025,"opt":5026,"ĠGreg":5027,"Ġended":5028,"Ġrocks":5029,"uct":5030,"Ġgoodbye":5031,"Ġrare":5032,"elly":5033,"Ġloyal":5034,"ĠFire":5035,"Ġchief":5036,"Ġlat":5037,"illed":5038,"Sayid":5039,"Ġconvinc":5040,"bel":5041,"Ġtalent":5042,"ties":5043,"udhe":5044,"Ġhelicopter":5045,"Co":5046,"Ġbleeding":5047,"Ġwatched":5048,"Ġlink":5049,"Lock":5050,"Ġdressed":5051,"Ġruined":5052,"Ġmoves":5053,"ĠNice":5054,"con":5055,"vin":5056,"ĠID":5057,"itional":5058,"Ġavoid":5059,"ĠMajesty":5060,"Ġmood":5061,"ĠHurley":5062,"Ġexample":5063,"Ġdesigned":5064,"Ġuns":5065,"ĠEthan":5066,"Shh":5067,"asion":5068,"Ġtear":5069,"etch":5070,"ression":5071,"Ġthoughts":5072,"Ġrobot":5073,"Ġport":5074,"Ob":5075,"Ġtalks":5076,"Ġlikely":5077,"ardon":5078,"Ġballs":5079,"ĠChinese":5080,"Ġfaces":5081,"Ġbike":5082,"urance":5083,"iation":5084,"fortunately":5085,"Ġidentity":5086,"ĠVelayudham":5087,"Work":5088,"Ġrepeat":5089,"22":5090,"Ġdont":5091,"Shoot":5092,"igare":5093,"igarett":5094,"90":5095,"aes":5096,"Ġexit":5097,"Ġpattern":5098,"Ġlaunch":5099,"Ġmarks":5100,"Jo":5101,"Aut":5102,"ila":5103,"Ġbrief":5104,"Big":5105,"ĠFar":5106,"intu":5107,"ĠRad":5108,"umbai":5109,"Anj":5110,"Ġwarrior":5111,"aylor":5112,"Ġalert":5113,"Ty":5114,"Sur":5115,"rend":5116,"icans":5117,"ĠLittle":5118,"Ġuniverse":5119,"angers":5120,"ĠStreet":5121,"esh":5122,"Ġasleep":5123,"Ġcelebrate":5124,"haw":5125,"ĠAnt":5126,"Ġmurderer":5127,"Ġerror":5128,"Ġcake":5129,"Ġrevenge":5130,"ĠLiz":5131,"Ġsoldiers":5132,"ston":5133,"oln":5134,"ipment":5135,"Ġbutter":5136,"ads":5137,"Ġrush":5138,"Ġactive":5139,"Ġhigher":5140,"rible":5141,"RI":5142,"Ġrelative":5143,"Ġfem":5144,"Ġdirector":5145,"wards":5146,"itation":5147,"ago":5148,"alli":5149,"Ġuseless":5150,"Ġcareer":5151,"Ġexact":5152,"File":5153,"iest":5154,"Ġsen":5155,"Ġorde":5156,"Ġcenter":5157,"Ġwire":5158,"ĠOur":5159,"Ġrestaur":5160,"mbol":5161,"Ġrom":5162,"Ġcarrying":5163,"ĠMetropolis":5164,"Ġspeech":5165,"Ġregret":5166,"Ġmessages":5167,"incoln":5168,"Ġment":5169,"ĠON":5170,"Ġonline":5171,"Ġpool":5172,"Ġdistract":5173,"ĠRep":5174,"Ġyellow":5175,"ube":5176,"Ġleads":5177,"Ġtim":5178,"Ġhitting":5179,"Ġep":5180,"Won":5181,"uten":5182,"Ms":5183,"col":5184,"Ġwha":5185,"AY":5186,"Ġreturned":5187,"`t":5188,"ators":5189,"ĠJason":5190,"Though":5191,"Ġrac":5192,"Ġscr":5193,"Ġtheory":5194,"irmed":5195,"AND":5196,"onder":5197,"Ġpill":5198,"ĠPark":5199,"Ever":5200,"Ġrelease":5201,"Ġdeck":5202,"Ġcomplain":5203,"Prem":5204,"Ġfacility":5205,"anya":5206,"ĠTime":5207,"ein":5208,"ĠIT":5209,"Ġvault":5210,"hest":5211,"ĠNight":5212,"ĠLeave":5213,"reets":5214,"Ġreports":5215,"lyn":5216,"Ġmember":5217,"sec":5218,"ĠRoy":5219,"ĠWhite":5220,"oes":5221,"ĠThomas":5222,"Ġbite":5223,"Ġwhis":5224,"OS":5225,"ĠForce":5226,"Ġplenty":5227,"Ġpolicy":5228,"Ġcards":5229,"Ġcitiz":5230,"ĠJane":5231,"ĠChristmas":5232,"Ġassistant":5233,"Ġmovies":5234,"essed":5235,"acon":5236,"ĠLady":5237,"Ġdisk":5238,"Ġtraffic":5239,"Ġtower":5240,"hern":5241,"uru":5242,"Ġboo":5243,".I":5244,"Ġappoint":5245,"aze":5246,"ĠHank":5247,"Ġdisp":5248,"Ġgrade":5249,"Ġzero":5250,"Ġequipment":5251,"ĠRahul":5252,"Ġimpro":5253,"Ġwarn":5254,"Ġbillion":5255,"Ġcourage":5256,"Ġanc":5257,"Ġiron":5258,"Ġgri":5259,"Ġopening":5260,"amm":5261,"Ġtickets":5262,"xygen":5263,"ĠWhich":5264,"Ġchecking":5265,"Ġpassword":5266,"aming":5267,"abled":5268,"Pretty":5269,"Ġplanned":5270,"Ġconnected":5271,"Install":5272,"Ġsplit":5273,"Hit":5274,"Blood":5275,"Ġspell":5276,"Ġmiracle":5277,"Ġelev":5278,"Ġexpert":5279,"Jul":5280,"nes":5281,"ealous":5282,"AD":5283,"ĠBE":5284,"\"We":5285,"Mama":5286,"Ġcoinc":5287,"shi":5288,"lim":5289,"isco":5290,"Rep":5291,"erk":5292,"there":5293,"Ġcream":5294,"Ġfant":5295,"Ġtrail":5296,"Ġclimb":5297,"hetic":5298,"Ġliar":5299,"Ġda":5300,"Ġwriting":5301,"Feel":5302,"Ġbenef":5303,"Ġcurse":5304,"ĠMary":5305,"Charles":5306,"Ġshower":5307,"Ġrange":5308,"Ġparts":5309,"Ġeast":5310,"sa":5311,"Ġguilty":5312,"Ġpicking":5313,"Ġillegal":5314,"PD":5315,"quer":5316,"Ġbi":5317,"ddie":5318,"ordin":5319,"onment":5320,"Ġlets":5321,"hop":5322,"-Yes":5323,"Ġstopping":5324,"Ġofficers":5325,"Ġwest":5326,"Ġkicked":5327,"Ġban":5328,"Ġhurts":5329,"ĠDoctor":5330,"Ġhug":5331,"Ġreasons":5332,"hab":5333,"Ġstreets":5334,"chieve":5335,"Ġuseful":5336,"ĠDoc":5337,"Mark":5338,"cast":5339,"hered":5340,"Ġ#":5341,"Ġpalace":5342,"Ġrent":5343,"Ġshel":5344,"though":5345,"Thought":5346,"olf":5347,"Ġtests":5348,"Jake":5349,"ales":5350,"Ġfunction":5351,"Ġbrilliant":5352,"Ġfallen":5353,"-old":5354,"Ġprint":5355,"Tonight":5356,"ĠProfessor":5357,"-st":5358,"rene":5359,"ighs":5360,"Def":5361,"Ġarmed":5362,"Ġafford":5363,"Agent":5364,"Joe":5365,"Ġreality":5366,"Ġintroduce":5367,"ĠSmallville":5368,"iya":5369,"Ġtap":5370,"ening":5371,"Ġtrained":5372,"Ġexpecting":5373,"vironment":5374,"Ġincredible":5375,"Ġmembers":5376,"Ġrobber":5377,"Ġsweetie":5378,"Ġtechnology":5379,"Ġtotal":5380,"Except":5381,"Ġterms":5382,"Ġhighly":5383,"ĠWayne":5384,"Ġfulf":5385,"-a":5386,"amil":5387,"Ġprior":5388,"ification":5389,"Ġparking":5390,"outs":5391,"rong":5392,"hand":5393,"Ġjoy":5394,"ĠEmily":5395,"Ġdick":5396,"rated":5397,"ĠSherlock":5398,"ĠMumbai":5399,"ĠIN":5400,"Ġcabin":5401,"anta":5402,"iple":5403,"ĠSol":5404,"ĠWil":5405,"Ġentered":5406,"Ġnuts":5407,"Ġdesk":5408,"ĠRobert":5409,"Ġflash":5410,"Ġbeating":5411,"Ġattend":5412,"Ġentr":5413,"Set":5414,"rier":5415,"ĠSund":5416,"ĠPal":5417,"-It":5418,"\"My":5419,"Ġagre":5420,"Ġplugin":5421,"aches":5422,"ĠVery":5423,"ilar":5424,"ĠBlue":5425,"45":5426,"Norm":5427,"alse":5428,"ĠRem":5429,"Ġwhenever":5430,"gree":5431,"Ġmail":5432,"Ġdesper":5433,"Ġthroat":5434,"Each":5435,"42":5436,"Kab":5437,"Ġautom":5438,"Ġthrew":5439,"ĠLou":5440,"Ġfavour":5441,"Ġcigarett":5442,"hold":5443,"Ġassass":5444,"Ġtask":5445,"Ġweekend":5446,"aesar":5447,"Had":5448,"Ġpin":5449,"Ġyourselves":5450,"obb":5451,"Ġtiny":5452,"ĠJin":5453,"udhary":5454,"Ġpers":5455,"Ġgeneral":5456,"Ġeh":5457,"iated":5458,"ĠComm":5459,"Ġnoise":5460,"Ġbye":5461,"Hope":5462,"Ġsomet":5463,"ĠIntern":5464,"Ġtemper":5465,"ĠCass":5466,"Ġmentioned":5467,"ĠWilliam":5468,"Ġadopt":5469,"Ġsurface":5470,"ĠUS":5471,"Ġachieve":5472,"Ġcharacter":5473,"Ġordered":5474,"Ġgarage":5475,"ders":5476,"Ġcrashed":5477,"isions":5478,"Ġoptions":5479,"Ġcontroll":5480,"Ġsail":5481,"Its":5482,"Ġruin":5483,"Previously":5484,"ĠHmm":5485,"Ġadvantage":5486,"Ass":5487,"Ġmic":5488,"gery":5489,"EM":5490,"VER":5491,"Ġdefe":5492,"ĠAnge":5493,"ĠCal":5494,"erial":5495,"Ġissues":5496,"rences":5497,"yÃ¶u":5498,"ĠSnow":5499,"aret":5500,"Ġaccompl":5501,"grees":5502,"omeday":5503,"gly":5504,"Ġfuneral":5505,"Ġstronger":5506,"General":5507,"Ġconsult":5508,"uate":5509,"Ġagents":5510,"Ġaccording":5511,"Ġbags":5512,"osc":5513,"Ġolder":5514,"Quick":5515,"ĠScott":5516,"ĠSuper":5517,"Ġprisoner":5518,"your":5519,"Ġguarant":5520,".C":5521,"uzz":5522,"Ġmanaged":5523,"oken":5524,"Ġcircum":5525,"inking":5526,"Ġentirely":5527,"ĠAnna":5528,"Ġselling":5529,"Ġcrowd":5530,"utenant":5531,"\"Let":5532,"Ġraft":5533,"Doctor":5534,"uled":5535,"Ġremembered":5536,"ĠNorth":5537,"Ġmoments":5538,"Ġdemon":5539,"Ġgrew":5540,"Id":5541,"Ġlake":5542,"Ġparticular":5543,"Ġbeast":5544,"Ġformer":5545,"Ġjobs":5546,"Ġsurviv":5547,"Ġflood":5548,"Ġpositive":5549,"ĠTw":5550,"Ġrub":5551,"Ġmult":5552,"ĠAfrica":5553,"Ġtitle":5554,"Ġrough":5555,"ĠWas":5556,"Ġlesson":5557,"70":5558,"ooth":5559,"ĠEverything":5560,"-g":5561,"ĠHouse":5562,"ĠOpen":5563,"Ġcounter":5564,"ables":5565,"Bad":5566,"ula":5567,"ĠMars":5568,"Ġpersonally":5569,"Ġuser":5570,"Ġexchange":5571,"Ġpee":5572,"Ġbackup":5573,"Ġshr":5574,"ĠGreen":5575,"ĠRome":5576,"has":5577,"ĠBet":5578,"Ġmanage":5579,"Ġdelay":5580,"Ġkil":5581,"Ġwarned":5582,"Ġtent":5583,"Ġbehavior":5584,"21":5585,"ĠParis":5586,"ĠGerman":5587,"IL":5588,"Ġreleas":5589,"ĠAct":5590,"why":5591,"isa":5592,"ĠReddington":5593,"Ġpretend":5594,"Ġlf":5595,"ĠHugo":5596,"Ġdeser":5597,"ĠCy":5598,"ĠDam":5599,"ript":5600,"anged":5601,"Ġshadow":5602,"ĠHarr":5603,"Ġtrusted":5604,"Ġbury":5605,"Ġblank":5606,"mare":5607,"ryan":5608,"Ġalarm":5609,"iece":5610,"mother":5611,"Ġgarden":5612,"arrow":5613,"cel":5614,"Forgive":5615,"orter":5616,"uration":5617,"ĠBobby":5618,"Ġscrewed":5619,"Greetings":5620,"ushed":5621,"Ġbound":5622,"Ġstealing":5623,"Ġopin":5624,"Seriously":5625,"ship":5626,"Ġnetwork":5627,"Ġfamil":5628,"Ġwaited":5629,"201":5630,"ĠGeorge":5631,".,":5632,"isible":5633,"Ġsigned":5634,"Ġgear":5635,"OME":5636,"RA":5637,"addi":5638,"arthik":5639,"Ġphotograph":5640,"rek":5641,"Ġelectric":5642,"Ġsou":5643,"Ġdegrees":5644,"ache":5645,"Slow":5646,"Comp":5647,"ĠPhil":5648,"Ġrestaurant":5649,"onscious":5650,"Ġshown":5651,"abeth":5652,"Ġassum":5653,"Ġdrinks":5654,"ĠShit":5655,"Ġwid":5656,"ĠOther":5657,"Ġshoulder":5658,"bug":5659,"Ġguts":5660,"Ġremains":5661,"Ġpunish":5662,"Ġwash":5663,".m":5664,"Ġdetail":5665,"ano":5666,"Ġconfirmed":5667,"Ġdrown":5668,"hild":5669,"Ġscar":5670,"ĠIS":5671,"Ġgrav":5672,"Ġkills":5673,"Fred":5674,"Ġdarkness":5675,"ĠLa":5676,"Ġfootage":5677,"Ġtears":5678,"Ġbal":5679,"Ġrights":5680,"Ġsatellite":5681,"Ġflo":5682,"clock":5683,"Ġwine":5684,"isc":5685,"ĠWatch":5686,"resent":5687,"Ġesp":5688,"Ġpractice":5689,"ĠGoa":5690,"Res":5691,"Ġ?čĊ":5692,"ĠDay":5693,"win":5694,"illa":5695,"ĠDetective":5696,"Ġcastle":5697,"ĠAlright":5698,"miss":5699,"Ġtracks":5700,"Careful":5701,"Ġstudent":5702,"ĠFrom":5703,"Ġsneak":5704,"Seems":5705,"did":5706,"Ġprevent":5707,"Ġflower":5708,"Soon":5709,"ĠDep":5710,"Ġstood":5711,"Ġearn":5712,"ĠTaylor":5713,"Hon":5714,"field":5715,"usting":5716,"Again":5717,"Ġprovide":5718,"Ġdocument":5719,"Ġmonkey":5720,"ĠOF":5721,"aughty":5722,"Ġreward":5723,"anted":5724,"Ġeduc":5725,"Ġgods":5726,"Ġserved":5727,"PS":5728,"Ġwreck":5729,"Ġborder":5730,"Pat":5731,"Ġproduct":5732,"Ġrecomm":5733,"Ġsergeant":5734,"Ġhealth":5735,"Ġweather":5736,"Ġgrandma":5737,"ua":5738,"oms":5739,"Ġdoctors":5740,"ĠMat":5741,"Ġsyn":5742,"Ġju":5743,"ĠTex":5744,"Ġkinda":5745,"Ġshots":5746,"ĠRalph":5747,"Ġcomfortable":5748,"Ġsooner":5749,"Ġvote":5750,"Ġsmok":5751,"Ġcree":5752,"when":5753,"Ġtag":5754,"afe":5755,"gle":5756,"Ġgain":5757,"Ġdeterm":5758,"Ġshake":5759,"Ġtorture":5760,"ĠWalter":5761,"Ġtransport":5762,"Ġfamilies":5763,"ï¬":5764,"ĠKeen":5765,"Ġcirc":5766,"Sub":5767,"sey":5768,"entlemen":5769,"ĠMoriarty":5770,"useum":5771,"Ġast":5772,"Ġgather":5773,"Ġoxygen":5774,"spir":5775,"udes":5776,"atab":5777,"thur":5778,"aine":5779,"Ġwasting":5780,"inting":5781,"ĠMmm":5782,"Ġrate":5783,"Ġbecoming":5784,"Ġcircumst":5785,"ancho":5786,"Ġmechan":5787,"Ġstone":5788,"Till":5789,"Ġmouse":5790,"ifty":5791,"Ġtied":5792,"ĠWorld":5793,"Ġtroub":5794,"ĠAnn":5795,"Mommy":5796,"ĠWhitney":5797,"Ġextremely":5798,"Ġotherwise":5799,"Ġordinary":5800,"While":5801,"Ġtong":5802,"Ro":5803,"Ġmotor":5804,"garet":5805,"jack":5806,"Ġinterrupt":5807,"asmine":5808,"Ġdancing":5809,"Us":5810,"Yet":5811,"Ġdemand":5812,"Ġdesktop":5813,"keys":5814,"Sarah":5815,"',":5816,"YÃ¶u":5817,"'M":5818,"ĠStar":5819,"\"Your":5820,"oops":5821,"Sun":5822,"ĠCle":5823,"unction":5824,"Ġpir":5825,"Ġens":5826,"ĠPolice":5827,"Ġdefend":5828,"ĠIsland":5829,"mate":5830,"==":5831,"Know":5832,"Ġprecious":5833,"Ġhardly":5834,"à¶±":5835,"itches":5836,"iva":5837,"-n":5838,"mmy":5839,"Ġcoward":5840,"Ġmagn":5841,"anish":5842,"inter":5843,"ĠFiles":5844,"Ġaim":5845,"ishal":5846,"ĠRun":5847,"oved":5848,"ĠMake":5849,"Ġunique":5850,"Ġpurs":5851,"pensive":5852,"ĠCr":5853,"'I":5854,".B":5855,"aries":5856,"Bea":5857,"ĠArmy":5858,"Ġjam":5859,"amin":5860,"Eat":5861,"Ġobvious":5862,"athi":5863,"Mind":5864,"Ġexecut":5865,"ĠEaster":5866,"Ġforeign":5867,"althy":5868,"ĠAND":5869,"David":5870,"Ġjew":5871,"Ġambul":5872,"CE":5873,"Ġfriendship":5874,"America":5875,"craft":5876,"ĠTer":5877,"ĠRain":5878,"Ġmetal":5879,"Ġcancer":5880,"anks":5881,"Ġbullets":5882,"Ġcoincidence":5883,"ooja":5884,"geon":5885,"Almost":5886,"Apparently":5887,"ĠAmericans":5888,"'clock":5889,"Ġliter":5890,"Ġmonitor":5891,"Ġstret":5892,"Ġ)čĊ":5893,"Ġarch":5894,"Ġsupply":5895,"ĠEast":5896,"sidered":5897,"Ġbelt":5898,"Ġalien":5899,"Ġcrores":5900,"Ġbones":5901,"Ġharder":5902,"Ġnightmare":5903,"Ġpropos":5904,"80":5905,"Sister":5906,"icked":5907,"Ġburned":5908,"Ġslave":5909,"adem":5910,"umm":5911,"Ġchosen":5912,"Ġnurse":5913,"Ġsolution":5914,"Ġbecomes":5915,"Des":5916,"arush":5917,"Ġscore":5918,"Ġconvinced":5919,"Ġcrown":5920,"Boss":5921,"Ġmotherfucker":5922,"Ġbegan":5923,"ĠGrace":5924,"Ġdevil":5925,"Ġbased":5926,"rific":5927,"Ġwherever":5928,"ERE":5929,"Ġdome":5930,"Ġvision":5931,"Ġartist":5932,"Ġrot":5933,"Choose":5934,"Fucking":5935,"Ġmodel":5936,"ĠPre":5937,"Ġbombs":5938,"Ġfuckin":5939,"Instead":5940,"cil":5941,"Ġlibr":5942,"ĠFirst":5943,"Ġpair":5944,"Ġphones":5945,"Ġorphan":5946,"Believe":5947,"iots":5948,"ym":5949,"Ġjoined":5950,"Name":5951,"arily":5952,"Kitt":5953,"Ġcurrently":5954,"ĠCheck":5955,"Ġresults":5956,"eta":5957,"aju":5958,"Ġperfectly":5959,"ĠIm":5960,"Ġloser":5961,"Ġchannel":5962,"Ġnation":5963,"aikant":5964,"Ġrise":5965,"Ġprince":5966,"ĠFlash":5967,"ura":5968,"Ġbedroom":5969,"Ġpassing":5970,"Ġlips":5971,"inals":5972,"Ġopinion":5973,"hey":5974,"Ġsurely":5975,"Ġinvited":5976,"-ass":5977,"Security":5978,"Ant":5979,"Unable":5980,"Ġbroad":5981,"amma":5982,"Ġrobbery":5983,"Ġmaterial":5984,"Ġprotection":5985,"urs":5986,"Ġlegal":5987,"izabeth":5988,"Ġchip":5989,"Meet":5990,".'":5991,"acher":5992,"ĠLincoln":5993,"ĠVik":5994,"othy":5995,"Ġcooper":5996,"ĠTony":5997,"Ġtouched":5998,"icon":5999,"Ġsharp":6000,"Such":6001,"stit":6002,"Ġcrimes":6003,"Ġwoke":6004,"Coming":6005,"Ġgreater":6006,"orge":6007,"Ġunp":6008,"Ġhomes":6009,"ĠSomething":6010,"Ġvamp":6011,"formation":6012,"ĠSimon":6013,"hav":6014,"ĠSit":6015,"Ġchopper":6016,"Ġgroom":6017,"Change":6018,"ester":6019,"ilet":6020,"utter":6021,"Ġstops":6022,"ĠNever":6023,"lev":6024,"ĠPrince":6025,"Ġwishes":6026,"Ġhundreds":6027,"Ġdialog":6028,"aturday":6029,"holog":6030,"ĠEurope":6031,"rig":6032,"Ġoffered":6033,"Ġgrid":6034,"ĠKnight":6035,"Ġprepare":6036,".E":6037,"apan":6038,"imal":6039,"Min":6040,"ourt":6041,"ĠTommy":6042,"ĠPaul":6043,"ylan":6044,"Ġarr":6045,"Ġcorn":6046,"oted":6047,"Ġalt":6048,"ĠState":6049,"ĠChief":6050,"Ġstairs":6051,"ĠGen":6052,"urning":6053,"Ġinsist":6054,"ĠOk":6055,"Ġburning":6056,"Peter":6057,"case":6058,"Ġfolder":6059,"Ġpunch":6060,"uses":6061,"Ġguests":6062,"Ġ*":6063,"Ġscary":6064,"Ġyounger":6065,"-T":6066,"Ġdesp":6067,"Ġfairy":6068,"ĠDuke":6069,"ĠBella":6070,"Ġlakhs":6071,"Ġbabies":6072,"}čĊ":6073,"Ġfishing":6074,"ĠChaudhary":6075,"damn":6076,"Ġmedal":6077,"`s":6078,"Ġleading":6079,"Ġconsidered":6080,"Ġhorrible":6081,"Ġinstinct":6082,"Ġabandoned":6083,"rict":6084,"Ġbone":6085,"Ren":6086,"Ġimpressed":6087,"Ġengaged":6088,"Grab":6089,"Ġcustody":6090,"Ġrup":6091,"nam":6092,"Ġsession":6093,"Ġmeal":6094,"Ġmisunder":6095,"Ġcompetition":6096,"Ġmyst":6097,"ĠHappy":6098,"zhar":6099,"Ġspecies":6100,"Ġseparate":6101,"hicago":6102,"ĠSean":6103,"Ġrum":6104,"Ġsweat":6105,"Ġvirt":6106,"rypt":6107,"Singham":6108,"Ġprofessional":6109,"Nah":6110,"Ġpartners":6111,"phone":6112,"Ġengineer":6113,"Ġugly":6114,"Ġmedia":6115,"Ġut":6116,"ateful":6117,"ĠPet":6118,"ĠVeer":6119,"anced":6120,"Madam":6121,"Ġability":6122,"ĠRey":6123,"ĠCommander":6124,"Ġambulance":6125,"Ġdecl":6126,"Ġphotos":6127,"ĠDesktop":6128,"Walk":6129,"Ġmurders":6130,"Jason":6131,"jo":6132,"ĠGand":6133,"Pass":6134,"ĠSel":6135,"Ġsigns":6136,"Ġexplosion":6137,"arian":6138,"Ġurgent":6139,"Eng":6140,"Ġcomplex":6141,"Ġmachines":6142,"Ġassure":6143,"Ġho":6144,"ĠTri":6145,"Ġactions":6146,"Ġcoordin":6147,"dney":6148,"Ġgrowing":6149,"kins":6150,"Ġexpensive":6151,"Ġtrace":6152,"Ġcorrupt":6153,"box":6154,"Ġfingers":6155,"IGH":6156,"Ġjealous":6157,"ĠHa":6158,"orted":6159,"hant":6160,"arsing":6161,"versity":6162,"lm":6163,"ĠCamp":6164,"Ġawake":6165,"tr":6166,"Ġchanging":6167,"Ġdozen":6168,"ĠDec":6169,"ĠLy":6170,"ĠOnly":6171,"Ġmole":6172,"ĠHy":6173,"Ġmort":6174,"Ġflag":6175,"Ġhabit":6176,"Ġjoking":6177,"Ġengagement":6178,"Ġidentify":6179,"Ġpit":6180,"Ġsmells":6181,"Ġtongue":6182,"ĠInt":6183,"antly":6184,"colate":6185,"Ġfro":6186,"Ġdelivery":6187,"AP":6188,"bec":6189,"uable":6190,"Ġsection":6191,"Ġrow":6192,"Ġbackground":6193,"abad":6194,"standing":6195,"Ġcoast":6196,"Ġfootball":6197,"Ġmum":6198,"Ġpub":6199,"Ġcoat":6200,"osit":6201,"Ġloaded":6202,"irectory":6203,"Ġsheriff":6204,"Black":6205,"-Yeah":6206,"Load":6207,"Whose":6208,"Ġtrial":6209,"ĠReady":6210,"atar":6211,"mail":6212,"ĠEv":6213,"Ġseek":6214,"otted":6215,"Ġremoved":6216,"ĠTexas":6217,"eau":6218,"Ġcage":6219,"Ġloan":6220,"gs":6221,"Ġnaughty":6222,"ĠNobody":6223,"Ġpresence":6224,"loyd":6225,"imus":6226,"Ġregular":6227,"Ġlone":6228,"\"l":6229,"Window":6230,"Ġincluding":6231,"ĠChristian":6232,"Ġlower":6233,"Bo":6234,"oses":6235,"Ġletters":6236,"specially":6237,"atabase":6238,"Ġhurting":6239,"Ġfalse":6240,"ĠMama":6241,"ĠShar":6242,"ĠSur":6243,"ĠBy":6244,"ivid":6245,"Men":6246,"Ġà¶":6247,"ĠGl":6248,"istence":6249,"hew":6250,"Ġshy":6251,"ĠRoger":6252,"Kabaddi":6253,"Ġdecisions":6254,"Hard":6255,"road":6256,"Ġsons":6257,"Ġlack":6258,"Ġgrave":6259,"ĠNorm":6260,"Ġliqu":6261,"ounty":6262,"venture":6263,"Ġfalls":6264,"Ġchasing":6265,"Jai":6266,"Ġdesire":6267,"Ġtwist":6268,"Ġcaused":6269,"Ġchemical":6270,"ĠBat":6271,"ĠFel":6272,"ruce":6273,"Cons":6274,"Friend":6275,"essage":6276,"Ġkitt":6277,"Ġunf":6278,"Ġheight":6279,"aya":6280,"Ġdetect":6281,"Ġcells":6282,"bb":6283,"Ph":6284,"imin":6285,"Ġpotential":6286,"YOU":6287,"Girl":6288,"tell":6289,"Ġsystems":6290,"ĠDun":6291,"Ġspoken":6292,"According":6293,"Ġtip":6294,"Ġcurious":6295,"ĠThree":6296,"uta":6297,"Ġwinter":6298,"Ġbride":6299,"Ġbadly":6300,"Ġsurgery":6301,"udy":6302,"Ġdecent":6303,"Ġagreement":6304,"ĠDom":6305,"Steve":6306,"Ġsinging":6307,"Ġshed":6308,"render":6309,"Ġhowever":6310,"Ġstatement":6311,"Ġmodule":6312,"omplete":6313,"udheera":6314,"Ġrole":6315,"Ġusual":6316,"ĠGrandpa":6317,"Super":6318,"ieutenant":6319,"Ġguessing":6320,"ĠSon":6321,"pass":6322,"ann":6323,"ĠLos":6324,"Ġsed":6325,"Ġsuffer":6326,"Ġversion":6327,"ĠSal":6328,"Ġproced":6329,"omach":6330,"Cr":6331,"Hands":6332,"omen":6333,"ĠJohnny":6334,"Ġarrive":6335,"Ġboot":6336,"ĠCharlotte":6337,"ĠJacob":6338,"Ġdust":6339,"andom":6340,"amy":6341,"ĠLi":6342,"Thomas":6343,"-time":6344,"agers":6345,"ppy":6346,"ĠFis":6347,"Ġbelieves":6348,"ĠDoug":6349,"Ġought":6350,"ĠHind":6351,"Ġchances":6352,"iley":6353,"Lana":6354,"Gen":6355,"Ġcrit":6356,"Ġcleaning":6357,"Ġsoftware":6358,"Ġstomach":6359,"Chappie":6360,"Ġfruit":6361,"ureau":6362,"Ġplat":6363,"ĠBrand":6364,"James":6365,"gard":6366,"Ġentrance":6367,"agle":6368,"ĠWelcome":6369,"Ġcleared":6370,"Ġdise":6371,"ĠPrime":6372,"ipping":6373,"Ġattitude":6374,"Ġideas":6375,"\",":6376,"Miles":6377,"Ġcoc":6378,"Ġlamp":6379,"\"And":6380,"iana":6381,"rell":6382,"Ġperimeter":6383,"ĠEngland":6384,"Ġshelter":6385,"Home":6386,"Neither":6387,"Bob":6388,"Locke":6389,"ĠHon":6390,"Ġdealing":6391,"Ġinstruct":6392,"Sawyer":6393,"Ġgarb":6394,"Ġrelig":6395,"Ġpupp":6396,"ĠChen":6397,"Best":6398,"ĠLab":6399,"ĠVer":6400,"Ġcircumstances":6401,"rev":6402,"Ġfortune":6403,"Victor":6404,"ĠSH":6405,"ĠTur":6406,"Ġrope":6407,"Ġpolic":6408,"Ġate":6409,"acc":6410,"eague":6411,"Ġplate":6412,"Ġdece":6413,"Ġmountains":6414,"Ġmixed":6415,"Ġreleased":6416,"olt":6417,"Ġtiger":6418,"Ġbid":6419,"istan":6420,"iments":6421,"hatt":6422,"alp":6423,"apped":6424,"itti":6425,"Ġcreature":6426,"Gentlemen":6427,"Ġenvironment":6428,"199":6429,"Ġchallenge":6430,"Ġroyal":6431,"Ġlimit":6432,"ez":6433,"Ġdelic":6434,"ĠSen":6435,"Ġslowly":6436,"Ġfemale":6437,"Ġstress":6438,"ĠVinc":6439,"ĠKill":6440,"Ġpy":6441,"Ġjunk":6442,"ĠBea":6443,"Ġreject":6444,"Ġqual":6445,"Ġinsurance":6446,"Also":6447,"istic":6448,"Geor":6449,"Off":6450,"Ev":6451,"Bloody":6452,"Cooper":6453,"coming":6454,"Luc":6455,"Ġcentury":6456,"Ġnegot":6457,"onday":6458,"sequ":6459,"icket":6460,"ĠAnj":6461,"Ġthreatened":6462,"Walt":6463,"Ġboring":6464,"she":6465,"vable":6466,"Ġdrove":6467,"Ġeggs":6468,"Ġtreasure":6469,"alentine":6470,"Har":6471,"Ġshield":6472,"iguration":6473,"ĠGuard":6474,"ĠShi":6475,"Ġdragon":6476,"please":6477,"vision":6478,"ĠAut":6479,"Ġconcent":6480,"Ġweb":6481,"Ġcharges":6482,"ĠSet":6483,"120":6484,"ĠNia":6485,"Ġmax":6486,"Ġawful":6487,"Mart":6488,"Ġapproach":6489,"ctic":6490,"ashion":6491,"Ġespecially":6492,"RO":6493,"UN":6494,"Ġunderground":6495,"Rob":6496,"ĠJune":6497,"Ġsnake":6498,"cut":6499,"Ġmale":6500,"Anybody":6501,"Ġbrains":6502,"mo":6503,"Ġshape":6504,"Ġhyp":6505,"arda":6506,"Ġviolence":6507,"Ġcorpor":6508,"Mur":6509,"Ġswing":6510,"Excellent":6511,"26":6512,"agger":6513,"Ġmonsters":6514,"Whoo":6515,"Ġet":6516,"Ġspin":6517,"Ġregist":6518,"Ġcriminals":6519,"ola":6520,"Ġconfident":6521,"Ġsettings":6522,"ĠAustral":6523,"Ġimages":6524,"Ġbuying":6525,"Kn":6526,"aina":6527,"Old":6528,"Ġtrunk":6529,"rite":6530,"Ġdescription":6531,"udd":6532,"Ġfactory":6533,"Ġedge":6534,"Catch":6535,"Ġproceed":6536,"Ġunderw":6537,"Ġminds":6538,"Ġappointment":6539,"Ġpink":6540,"Ġbunk":6541,"irector":6542,"Ġhits":6543,"ernard":6544,"Ġdoin":6545,"Ġlands":6546,"ingu":6547,"Ġgoin":6548,"Ġfailure":6549,"Ġnational":6550,"Ġmystery":6551,"Nor":6552,"Ġpanic":6553,"Grandpa":6554,"ĠSpecial":6555,"aniel":6556,"Ġjacket":6557,"Ġwaters":6558,"Ġflow":6559,"Ġsociety":6560,"ww":6561,"Ġfright":6562,"Ġnaked":6563,"Ġresources":6564,"ĠMand":6565,"Ġindeed":6566,"Ġmeat":6567,"Ġcult":6568,"inder":6569,"ĠWalk":6570,"Ġquarter":6571,"Ġsurvivors":6572,"Ġlaid":6573,"Ġdoc":6574,"Ġrit":6575,"Ġpure":6576,"Ġcounting":6577,"Ġlevels":6578,"Ġtricks":6579,"assy":6580,"Clean":6581,"Ġperformance":6582,"Ġdiscovered":6583,"Quiet":6584,"Christ":6585,"Ġtreated":6586,"onquer":6587,"ĠDa":6588,"Ġvaluable":6589,"overy":6590,"Ġcandy":6591,"ĠShannon":6592,"agine":6593,"Ġconditions":6594,"Ġfederal":6595,"ĠKap":6596,"Ġthirst":6597,"Ġdawn":6598,"-se":6599,"Mo":6600,"Especially":6601,"Ġitems":6602,"vere":6603,"elia":6604,"Ġsilent":6605,"Seven":6606,"Ġlibrary":6607,"Ġhous":6608,"odes":6609,"ĠDeath":6610,"iped":6611,"Ġdigging":6612,"Ġphysical":6613,"Ret":6614,"Ġmode":6615,"Ġconference":6616,"ague":6617,"Ġviolent":6618,"idering":6619,"ĠGray":6620,"Ġpsycho":6621,"Ġcalc":6622,"Ġchildhood":6623,"duction":6624,"Enjoy":6625,"Ġsuffering":6626,"Ġdesperate":6627,"onqueror":6628,"ĠSheriff":6629,"Ġcircle":6630,"Ġtoilet":6631,"ĠBor":6632,",\"čĊ":6633,"cing":6634,"ĠST":6635,"Ġclassified":6636,"Ġsugar":6637,"ĠCentral":6638,"Ġelevator":6639,",I":6640,"ping":6641,"ifer":6642,"ability":6643,"Ġretire":6644,"LD":6645,"ĠBaby":6646,"-e":6647,"ĠAmanda":6648,"ĠAngeles":6649,"Ġbeloved":6650,"aving":6651,"town":6652,"asha":6653,"à·ı":6654,"Ġintend":6655,"Ġwarrant":6656,"ofield":6657,"Ġpounds":6658,"Ġperiod":6659,"Ġprotecting":6660,"Ġpatients":6661,"%s":6662,"dess":6663,"ĠThese":6664,"Prep":6665,"ĠFair":6666,"ancel":6667,"ĠâĢĵ":6668,"Ġjumped":6669,"Ġguarantee":6670,"Hail":6671,"Ġtreatment":6672,"Ġcore":6673,"Ġannounce":6674,"Walter":6675,"ĠVan":6676,"ĠSuri":6677,"Ġactivated":6678,"ĠMexico":6679,"uno":6680,"Bri":6681,"Je":6682,"Ġfirm":6683,"usual":6684,"elle":6685,"ĠColonel":6686,"Carl":6687,"Ġnotes":6688,"ĠVasu":6689,"isf":6690,"Ġbegging":6691,"razy":6692,"ardo":6693,"Ġschedule":6694,"-and":6695,"Dest":6696,"Ġwand":6697,"olved":6698,".R":6699,"Ġguide":6700,"ograp":6701,"ĠDaniel":6702,"Ġmethod":6703,"Ġcheek":6704,"Ray":6705,"Ġwings":6706,"Ġsomeday":6707,"erlin":6708,"ĠTor":6709,"aging":6710,"Ġfreaking":6711,"ynam":6712,"Ġgarbage":6713,"kar":6714,"ĠSaturday":6715,"Ġchase":6716,"storm":6717,"Ġcommunity":6718,"Ġcraw":6719,"Ġflu":6720,"verse":6721,"Ġmelt":6722,"Ġscientist":6723,"Ġchef":6724,"Ġdepends":6725,"Ġblowing":6726,"Ġcaves":6727,"ĠSusan":6728,"Ġactual":6729,"Ġdefault":6730,"Ġmirror":6731,"-He":6732,"Ġmama":6733,"Ġpiz":6734,"Ġclue":6735,"Ġframe":6736,"ravo":6737,"wich":6738,"Ġskills":6739,"force":6740,"celer":6741,"ĠAnnie":6742,"Ġevents":6743,"Ġdocuments":6744,"Current":6745,"Ġrequire":6746,"Ġkidney":6747,"Haven":6748,"Unfortunately":6749,"Ġmaintain":6750,"_BAR":6751,"ĠUm":6752,"Ġinfected":6753,"Finally":6754,"Ġthrowing":6755,"ttp":6756,"Delete":6757,"Ġded":6758,"ĠWells":6759,"Sean":6760,"Ġwhist":6761,"Couldn":6762,"osaur":6763,"Ġgentleman":6764,"Ġsync":6765,"Ġunable":6766,"Ap":6767,"Lau":6768,"Ġforces":6769,"icking":6770,"Ġentry":6771,"RL":6772,"Ġdeton":6773,"Ġdownstairs":6774,"Ġadult":6775,"Ġslight":6776,"Ġtransl":6777,"Ġancient":6778,"ĠEddie":6779,"Ġbetrayed":6780,"gun":6781,"atically":6782,"Ġoppos":6783,"Ġbabe":6784,"gusting":6785,"vell":6786,"Ġeaten":6787,"Ġemp":6788,"Ġvolunt":6789,"Ġwing":6790,"Ġslept":6791,"Ġupdate":6792,"Ġacqu":6793,"ĠControl":6794,"Ġcheat":6795,"ĠFranc":6796,"Obviously":6797,"Ġhors":6798,"ĠRyan":6799,"Ġresist":6800,"Ter":6801,"ĠDark":6802,"Ġtheme":6803,"ĠAndrew":6804,"Ġpushing":6805,"Ġtherap":6806,"hankar":6807,"ĠTurn":6808,"Ġnewsp":6809,"ĠGregson":6810,"Lex":6811,"Ġrequired":6812,"Ġsett":6813,"Second":6814,"Ġmere":6815,"Create":6816,"ĠJay":6817,"ĠRose":6818,"Ain":6819,"Rahul":6820,"oret":6821,"aws":6822,"itors":6823,"Ġnandu":6824,"Ġsew":6825,"riots":6826,"emon":6827,"Ġunknown":6828,"Ġrecover":6829,"Ġmistakes":6830,"unz":6831,"27":6832,"Ġstays":6833,"ĠAladin":6834,"Ġsucceed":6835,"\"..":6836,"Ġbuff":6837,"Ġpsych":6838,"Ġanaly":6839,"Ġriding":6840,"Ġputs":6841,"Ġunderstanding":6842,"ĠJuliet":6843,"Might":6844,"\"What":6845,"ĠPo":6846,"Ġmaid":6847,"Ġfancy":6848,"Ġlaws":6849,"ivered":6850,"ĠRiver":6851,"Ġlegend":6852,"Ġelephan":6853,"Ġlatest":6854,"Eight":6855,"egr":6856,"Ġsmooth":6857,"Ġsafely":6858,"Ġexperi":6859,"iti":6860,"agon":6861,"Ġlifet":6862,"ianc":6863,"Veer":6864,"ĠPenny":6865,"Ġvillain":6866,"Ġsoup":6867,"ria":6868,"Ġeventually":6869,"-th":6870,"Ġexists":6871,"ipal":6872,"itter":6873,"Ġinvite":6874,"KDE":6875,"ordinary":6876,"Ġrecent":6877,"Dead":6878,"fire":6879,"Ġconduct":6880,"ĠTHAT":6881,"Ġmeteor":6882,"Ġsimilar":6883,"ĠMaya":6884,"ĠPer":6885,"Ġscreaming":6886,"Ġmidnight":6887,"Ġintention":6888,"Ġbalance":6889,"ĠHanna":6890,"-That":6891,"IP":6892,"ĠHas":6893,"Ġclever":6894,"Mine":6895,".T":6896,"ĠHE":6897,"break":6898,"ĠEven":6899,"Ġliterally":6900,"Ġservices":6901,"Ġarranged":6902,"eneath":6903,"Poor":6904,"Ġimpressive":6905,"Ġwide":6906,"Ġult":6907,"ained":6908,"OOD":6909,"Comm":6910,"Ġgrateful":6911,"Sign":6912,"-one":6913,"Ġder":6914,"ĠLA":6915,"Ġrig":6916,"swer":6917,"Ġlately":6918,"Ġbasement":6919,"verton":6920,"Ġchocolate":6921,"ĠWood":6922,"ĠHang":6923,"Ġeditor":6924,"oded":6925,"Ġrobbed":6926,"Ġbang":6927,"Ġanswering":6928,"aning":6929,"ĠBa":6930,"Ġdegree":6931,"Ġodds":6932,"Ġalco":6933,"Ġexistence":6934,"Ġdisease":6935,"lead":6936,"cholog":6937,"Ġcrossed":6938,"Ġtouching":6939,"olves":6940,"Ġspring":6941,"Ġwounded":6942,"Ġpages":6943,"iry":6944,"raq":6945,"Ġsurvival":6946,"Trans":6947,"Ġassassin":6948,"Ġpissed":6949,"Ġcal":6950,"hamed":6951,"ĠChicago":6952,"ĠWould":6953,"Ġcloud":6954,"ĠPop":6955,"elu":6956,"Ġfra":6957,"omi":6958,"Ġpriority":6959,"pse":6960,"asing":6961,"ĠWid":6962,"ertific":6963,"Ġimpl":6964,"Ġvacation":6965,"Ġprinc":6966,"Ġgoodness":6967,"ĠUnder":6968,"TER":6969,"ĠAnything":6970,"ĠVictoria":6971,"99":6972,"rid":6973,"Ġexpress":6974,"Detective":6975,"Ġcooking":6976,"Ġactivity":6977,"Ġrupees":6978,"stable":6979,"Ġplayer":6980,"Ġcommission":6981,"gment":6982,"Ġaccepted":6983,"Ġashamed":6984,"Ġflesh":6985,"ggsy":6986,"Ġblackmail":6987,"Simon":6988,"Ġwise":6989,"Ġashes":6990,"Ġroot":6991,"ception":6992,"-huh":6993,"?\"":6994,"Ġsuits":6995,"Ġoffering":6996,"ĠAngel":6997,"Unknown":6998,"gypt":6999,"Ġinjured":7000,"Ġhelps":7001,"ensive":7002,"ieves":7003,"Ġindivid":7004,"avi":7005,"Ġpersonnel":7006,"nai":7007,"Ġvisual":7008,"Ġexperiment":7009,"rak":7010,"arts":7011,"NOW":7012,"ĠHor":7013,"ĠAv":7014,"ĠAlice":7015,"Water":7016,"eb":7017,"ĠTal":7018,"Ġsafer":7019,"ĠFro":7020,"Drink":7021,"aran":7022,"uries":7023,"Ġselection":7024,"Ġpushed":7025,"ĠJai":7026,"Ġbeaten":7027,"ĠEasy":7028,"Ġzone":7029,"\\\\{":7030,"Imp":7031,"ourke":7032,"ums":7033,"ĠOb":7034,"Ġstandard":7035,".O":7036,"Ġsample":7037,"Nik":7038,"osa":7039,"Ġimpact":7040,"ĠGar":7041,"obal":7042,"Ġyaar":7043,"take":7044,"ĠLane":7045,"ĠKrish":7046,"fall":7047,"ĠGru":7048,"Ġlanding":7049,"Going":7050,"Jim":7051,"Ġdirt":7052,"Ġthin":7053,"engers":7054,"arters":7055,"-We":7056,"ĠAtt":7057,"Ġhostage":7058,"400":7059,"Harry":7060,"Ġreview":7061,"Ġelop":7062,"enced":7063,"nis":7064,"ĠDhar":7065,"active":7066,"onse":7067,"Ġtempor":7068,"zed":7069,"Ġhelm":7070,"ĠComp":7071,"Although":7072,"Ġpopular":7073,"YPD":7074,"ĠRel":7075,"Ġwinning":7076,"ARS":7077,"Ġmer":7078,"Need":7079,"ĠModule":7080,"ĠStephen":7081,"Ġexerc":7082,"ĠFish":7083,"Ġtrash":7084,"estival":7085,"ĠSydney":7086,"ecil":7087,"Ġfrequ":7088,"Ġrecall":7089,"Ġfreezing":7090,"oye":7091,"Ġhealthy":7092,"Ġteaching":7093,"ĠHit":7094,"ĠFive":7095,"Ġrevolution":7096,"64":7097,"Dep":7098,"Ġnest":7099,"Ġdelivered":7100,"48":7101,"anch":7102,"Ġinqu":7103,"utala":7104,"Ġinterrog":7105,"Cheers":7106,"ĠTeddy":7107,"ĠWindow":7108,"Configure":7109,"Ġromantic":7110,"Ġyouth":7111,"Ġagency":7112,"Ġneighborhood":7113,"ÂĿ":7114,"had":7115,"ami":7116,"Ġescort":7117,"Ġdim":7118,"Ġfianc":7119,"Ġrandom":7120,"ĠInternet":7121,"elve":7122,"ĠApple":7123,"Ġ.":7124,"Ġbrand":7125,"Ġdisturb":7126,"ĠSunday":7127,"Ġfold":7128,"ĠFile":7129,"ĠTeam":7130,"tor":7131,"Ġrescued":7132,"Mor":7133,"ALL":7134,"Dor":7135,"inja":7136,"ĠOliver":7137,"KE":7138,"hoe":7139,"Ġdebt":7140,"Ġscen":7141,"ĠRachel":7142,"peror":7143,"ĠLouis":7144,"Ġcure":7145,"Ġreplace":7146,"ours":7147,"Ġdrama":7148,"Cover":7149,"Ġ!":7150,"Class":7151,"Ġwinner":7152,"Switch":7153,"Ġsocial":7154,"Ġacceler":7155,"Ġsisters":7156,"Ġcreatures":7157,"Ġcheese":7158,"Ġrefer":7159,"ĠSan":7160,"orage":7161,"Ġsober":7162,"ĠHurry":7163,"epend":7164,"Ġrepresent":7165,"Ġjournal":7166,"ocation":7167,"\"...":7168,"Ġbeneath":7169,"Ġglasses":7170,"atin":7171,"ĠName":7172,"ador":7173,"Ġstations":7174,"ĠEnd":7175,"Ġsmugg":7176,"Par":7177,"heme":7178,"Ġsan":7179,"Ġcigarette":7180,"ĠMonday":7181,"ferences":7182,"Looking":7183,"Ġsymbol":7184,"Ġinsult":7185,"Ġcommunication":7186,"Ġneighb":7187,"ango":7188,"ĠSecurity":7189,"niss":7190,"iper":7191,"icons":7192,"verage":7193,"roke":7194,"igning":7195,"izvan":7196,"Ġteams":7197,"Ġgenetic":7198,"Understand":7199,"Ġcub":7200,"Ġangel":7201,"Ġarg":7202,"ĠFriday":7203,"However":7204,"Ġgrass":7205,"Ġappl":7206,"ĠJaikant":7207,"Ġsupplies":7208,"Ġslip":7209,"-five":7210,"Vas":7211,"nu":7212,"Ġeld":7213,"ras":7214,"Ġtrop":7215,"Ġrude":7216,"Ġcheating":7217,"Ġobl":7218,"Ġhighest":7219,"Ġoccasion":7220,"Many":7221,"Being":7222,"ĠMach":7223,"Ġlonely":7224,"IF":7225,"Ġeveryday":7226,"WH":7227,"Ġunusual":7228,"Ġinstalled":7229,"nome":7230,"Ġasks":7231,"Chloe":7232,"Ġbaseball":7233,"Ġignore":7234,"Ġdom":7235,"ĠShh":7236,"ĠLucy":7237,"oscow":7238,"35":7239,"vy":7240,"ĠWashing":7241,"alking":7242,"ĠVir":7243,"Ġsurrender":7244,"ĠZoe":7245,"ĠWashington":7246,"utiful":7247,"Ġships":7248,"aura":7249,"Ġamongst":7250,"ĠHome":7251,"Ġgay":7252,"ĠSP":7253,"ĠBang":7254,"Left":7255,"ÂĿs":7256,"War":7257,"Ġ,":7258,"Ġthieves":7259,"Ġprotected":7260,"ĠJones":7261,"Ġidiots":7262,"Ġmobile":7263,"Ġlam":7264,"Ġslap":7265,"hamp":7266,"ĠDamn":7267,"ĠEveryone":7268,"Ġweakness":7269,"Cy":7270,"Ġveget":7271,"Ġswimming":7272,"inn":7273,"Lady":7274,"iko":7275,"vember":7276,"action":7277,"Money":7278,"imb":7279,"ĠAss":7280,"ĠSteven":7281,"ĠMus":7282,"ĠDef":7283,"ĠRick":7284,"Ġextraordinary":7285,"Ġsentence":7286,"Ġmenu":7287,"ensed":7288,"Full":7289,"Ron":7290,"swe":7291,"ĠRourke":7292,"Ġchoices":7293,"Fle":7294,"Ġhob":7295,"ĠStark":7296,"Failed":7297,"Kiss":7298,"Kevin":7299,"Tra":7300,"itched":7301,"ĠAc":7302,"Ġcontains":7303,"Ana":7304,"ĠSqu":7305,"ĠMargaret":7306,"Ġblocks":7307,"-sh":7308,"arding":7309,"ĠOfficer":7310,"ĠSE":7311,"ĠRoom":7312,"ĠSingham":7313,"Ġrequested":7314,"Ġauthority":7315,"Ġton":7316,"ĠChina":7317,"ggy":7318,"Ġdive":7319,"ervation":7320,"Ġmissile":7321,"Ġstudents":7322,"ously":7323,"Ġpolitic":7324,"Ġconscious":7325,"Ġroads":7326,"orney":7327,"Twenty":7328,"Ell":7329,"Program":7330,"Ġlif":7331,"ateg":7332,"Ġvictory":7333,"Ġsuspects":7334,"Ġcitizens":7335,"Mil":7336,"Ġinspector":7337,"Ġdatabase":7338,"Aye":7339,"Ġrelated":7340,"Ġdinosaur":7341,"Ġsquare":7342,"ĠAbout":7343,"Ġpizza":7344,"\"This":7345,"Anna":7346,"Ġplanted":7347,"Ġstruct":7348,"Ġlaptop":7349,"Ġrefused":7350,"Tot":7351,"ucking":7352,"Ġdepth":7353,"list":7354,"ications":7355,"ĠRoman":7356,"ĠNic":7357,"udge":7358,"Ġlad":7359,"ĠPeople":7360,"Ġcommander":7361,"Ġdivorce":7362,"ĠKITT":7363,"reathe":7364,"ocking":7365,"lers":7366,"Ġdock":7367,"Ġstake":7368,"Ġsealed":7369,"oard":7370,"Ġreturning":7371,"ette":7372,"Ġholes":7373,"Ġgates":7374,"ĠMo":7375,"Ġwhore":7376,"Ġprayers":7377,"Juliet":7378,"Ġmuseum":7379,"Ġcities":7380,"Ġcomprom":7381,"cover":7382,"Ġmessed":7383,"Ġemotional":7384,"Ġaffair":7385,"Ġsurrounded":7386,"TS":7387,"was":7388,"see":7389,"ĠJosh":7390,"Throw":7391,"Ġrif":7392,"Bu":7393,"imately":7394,"ĠManager":7395,"********":7396,"Ġhmm":7397,"uddy":7398,"Ġbrown":7399,"Ac":7400,"ĠGal":7401,"rr":7402,"Ġpatch":7403,"alth":7404,"Ġlob":7405,"Ġpassengers":7406,"-L":7407,"\\\\\\\\{":7408,"ĠFischer":7409,"ĠGra":7410,"Ġhom":7411,"Ġgolden":7412,"iy":7413,"Ġaboard":7414,"ĠAndy":7415,"Ġplays":7416,"Ġattacks":7417,"Ġextract":7418,"-of":7419,"reya":7420,"Ġanni":7421,"Getting":7422,"ĠScofield":7423,"ĠLevel":7424,"Ġauthorities":7425,"Ġnoble":7426,"Ġdrone":7427,"Ġpolitics":7428,"ori":7429,"oma":7430,"Ġrip":7431,"Guy":7432,"ĠPort":7433,"Ġlargest":7434,"ugs":7435,"stone":7436,"Ġaunty":7437,"ĠNick":7438,"venue":7439,"Ġdealer":7440,"acing":7441,"ĠUp":7442,"La":7443,"Ġpsycholog":7444,"ato":7445,"Ġreveal":7446,"Ġcombat":7447,"aps":7448,"Ġsides":7449,"Ġpul":7450,"ĠDown":7451,"ĠLake":7452,"Ġconsequ":7453,"Ġapply":7454,"Ġexciting":7455,"fl":7456,"Ġloving":7457,"Ġprim":7458,"Ġgravity":7459,"Sanj":7460,"ĠIraq":7461,"ruption":7462,"ĠOcean":7463,"Print":7464,"Ġdea":7465,"ulting":7466,"Ġoperating":7467,"Ġquietly":7468,"Ġhorses":7469,"Ġaltern":7470,"Ġinflu":7471,"Ġsilver":7472,"Said":7473,"ĠEgypt":7474,"ĠStation":7475,"Ġofficially":7476,"-k":7477,"otions":7478,"iac":7479,"Emily":7480,"ĠLauda":7481,"Kat":7482,"Ġscent":7483,"ĠSomeone":7484,"150":7485,"ĠSergeant":7486,"zo":7487,"ĠCould":7488,"akesh":7489,"sir":7490,"Ġdrones":7491,"Ġrab":7492,"Ġshortly":7493,"iona":7494,"reeze":7495,"Ġleak":7496,"Ġsquad":7497,"ĠNavy":7498,"Ġbegun":7499,"burg":7500,"Ġbenefit":7501,"astian":7502,"ĠJapan":7503,"Ġneckl":7504,"Ġjewel":7505,"urai":7506,"ĠJed":7507,"Whenever":7508,"Ġdating":7509,"ulated":7510,"Aladin":7511,"ĠProject":7512,"ĠPalmer":7513,"Ġcompanion":7514,"75":7515,"Ġsink":7516,"Ġsatisf":7517,"Ġ-čĊ":7518,"Ġsequ":7519,"run":7520,"Ġheir":7521,"hia":7522,"ĠTrans":7523,"Ġeffective":7524,"Ġpier":7525,"Goddamn":7526,"King":7527,"Ġplain":7528,"Imagine":7529,"Ġdefeat":7530,"ertificate":7531,"ati":7532,"uesday":7533,"ĠChang":7534,"ĠBilly":7535,"echn":7536,"\"Singham":7537,"Ġkinds":7538,"Been":7539,"Ġcollap":7540,"ĠDesmond":7541,"ĠCalm":7542,"Ġlearning":7543,"Ġtaxi":7544,"-F":7545,"-How":7546,"ookie":7547,"Ġtoward":7548,"belie":7549,"ĠBar":7550,"Ġresponse":7551,"Ġsolved":7552,"ĠHarris":7553,"revor":7554,"Ġpolicem":7555,"udi":7556,"iesel":7557,"Ġkarthik":7558,"ivity":7559,"Honest":7560,"Bull":7561,"Ġtoast":7562,"ĠNag":7563,"Ġstrangers":7564,"apping":7565,"Ġsweets":7566,"ĠAf":7567,"Ġpopulation":7568,"Ġlifetime":7569,"hase":7570,"Ġdynam":7571,"Ġpump":7572,"ĠAp":7573,"ĠHot":7574,"ĠErik":7575,"à¶Ń":7576,"Ġformal":7577,"Officer":7578,"Ġfoolish":7579,"Ġtransferred":7580,"ooks":7581,"Ġfonts":7582,"Ġtablet":7583,"End":7584,"ĠMir":7585,"Half":7586,"ĠKen":7587,"ennifer":7588,"ubborn":7589,"Ġwra":7590,"Ġseats":7591,"ĠRohan":7592,"Ġserver":7593,"Ġearned":7594,"Anjuta":7595,"UCK":7596,"Shouldn":7597,"Ġnegative":7598,"Ġsport":7599,"Ġunn":7600,"Push":7601,"Ġhid":7602,"Ġclan":7603,"ĠDidn":7604,"KITT":7605,"ifth":7606,"Ġunex":7607,"Read":7608,"Ġghosts":7609,"Ġassignment":7610,"Ġoccurred":7611,"vate":7612,"Ġwolf":7613,"hra":7614,"ĠCas":7615,"ĠJon":7616,"Ġleaders":7617,"Ġmistaken":7618,"hot":7619,"jamin":7620,"eland":7621,"oster":7622,"Ġintent":7623,"Ġsacrific":7624,"hib":7625,"Ġbars":7626,"Rachel":7627,"ded":7628,"ĠSil":7629,"Ġestab":7630,"-the":7631,"Ġbelie":7632,"Ġsmarter":7633,"Ġvisiting":7634,"Ġblown":7635,"Enable":7636,"Pay":7637,"ĠBoy":7638,"Part":7639,"Trying":7640,"ĠMic":7641,"raise":7642,"Ġprey":7643,"Ġentertain":7644,"Ġplaced":7645,"Ġslipped":7646,"Ġgrandmother":7647,"Promise":7648,"Ġfever":7649,"Ġsav":7650,"Ġapplications":7651,"Ġdisappointed":7652,"duced":7653,"Ġhouses":7654,"ĠAlp":7655,"rum":7656,"ĠNYPD":7657,"Ġpride":7658,"Ġcheap":7659,"Ġbasically":7660,"Ġinvisible":7661,"because":7662,"ĠMajor":7663,"ĠForm":7664,"ĠNort":7665,"Ġscript":7666,"Ġcarried":7667,"bi":7668,"bound":7669,"Ġentering":7670,"Ġchap":7671,"Ġreaction":7672,"ĠKapoor":7673,"etry":7674,"ĠDave":7675,"Ġmommy":7676,"Ġthrown":7677,"ĠChennai":7678,"ĠRock":7679,"ĠIsn":7680,"ĠShow":7681,"ĠRaju":7682,"Control":7683,"Ġterminal":7684,"ĠSum":7685,"Ġdent":7686,"Ġfrag":7687,"Ġpills":7688,"Kid":7689,"inity":7690,"Ġhumanity":7691,"Zoom":7692,"ploye":7693,"versary":7694,"Ġstruggle":7695,"ployees":7696,"Zoe":7697,"ota":7698,"ĠTab":7699,"Ġcomin":7700,"Ġcargo":7701,"Ġfools":7702,"Hand":7703,"ĠGun":7704,"ĠRes":7705,"Ġeffects":7706,"Ġgut":7707,"Wouldn":7708,"istry":7709,"Ġanti":7710,"ĠCH":7711,"aval":7712,"aomi":7713,"Ġboots":7714,"Ġapproaching":7715,"ural":7716,"ived":7717,"Ġexplan":7718,"ouch":7719,"Ġnut":7720,"Ġmyster":7721,"Ġphotograp":7722,"ĠHoward":7723,"Ġstands":7724,"Ġ(%":7725,"Ġdestruction":7726,"ivate":7727,"Ġunlike":7728,"Ġbread":7729,"-S":7730,"rad":7731,"Ġbump":7732,"Ġassault":7733,"hero":7734,"Ġlimits":7735,"-off":7736,"Ġhomework":7737,"Ġdeny":7738,"Ġsuccessful":7739,"ĠGuru":7740,"Ġclown":7741,"Ġprevious":7742,"Ġapparently":7743,"Ġseries":7744,"Lea":7745,"ipl":7746,"riot":7747,"ascal":7748,"ĠMilverton":7749,"orns":7750,"Ġgifts":7751,"Ġbehalf":7752,"Stupid":7753,"Cannot":7754,"Ġdropping":7755,"Nope":7756,"usteau":7757,"ĠDiv":7758,"Ġsmiling":7759,"Ġpassion":7760,"Prepare":7761,"ĠNarsing":7762,"Ġstruck":7763,"Ġwins":7764,"ĠDar":7765,"ĠHob":7766,"Ġbegins":7767,"pected":7768,"Ġoffense":7769,"hips":7770,"mpathy":7771,"omfort":7772,"holes":7773,"holas":7774,"Ġbask":7775,"Pintu":7776,"Ġmanip":7777,"izard":7778,"ANK":7779,"oby":7780,"Priya":7781,"Ġeloped":7782,"EP":7783,"Yep":7784,"izes":7785,"Ġrail":7786,"Ġmostly":7787,"Ġtub":7788,"Ġlion":7789,"Ġrepair":7790,"Ġheroes":7791,"Ġorganization":7792,"Jane":7793,"Ġpossibility":7794,"aus":7795,"ĠSeth":7796,"Ġrooms":7797,"Ġpayment":7798,"Ġtattoos":7799,"CT":7800,"mons":7801,"Ġbhai":7802,"ĠHall":7803,"lynn":7804,"AA":7805,"Ġwipe":7806,"ĠDirector":7807,"brace":7808,"Ġrefuse":7809,"Cool":7810,"Ġfart":7811,"ĠArthur":7812,"te":7813,"Ġwow":7814,"Ġcris":7815,"Ġhostile":7816,"Attention":7817,"ĠMed":7818,"Ġmental":7819,"Ġpointing":7820,"ĠTuesday":7821,"inner":7822,"agne":7823,"Ġlanded":7824,"ĠHighness":7825,"Dec":7826,"iner":7827,"ĠShould":7828,"ĠIran":7829,"ĠTen":7830,"ĠDen":7831,"Ġtroops":7832,"ĠMu":7833,"ĠRussians":7834,"-R":7835,"ĠAryan":7836,"Hurley":7837,"aki":7838,"Wonder":7839,"uing":7840,"Ġmal":7841,"Ġnasty":7842,"Ġsteel":7843,"Ġupload":7844,"inky":7845,"ito":7846,"ights":7847,"arnes":7848,"Ġfantastic":7849,"GL":7850,"uffs":7851,"ĠEverybody":7852,"ti":7853,"inst":7854,"ĠDick":7855,"ĠStand":7856,"hara":7857,"Ġsuf":7858,"197":7859,"ĠRamona":7860,"eat":7861,"uce":7862,"eless":7863,"alpana":7864,"job":7865,"Ġheck":7866,"28":7867,"ĠSch":7868,"Fort":7869,"itate":7870,"enger":7871,"ĠTrust":7872,"Ġdaily":7873,"\"A":7874,"ĠTry":7875,"Ġspotted":7876,"Ġprofessor":7877,"Ġï¬":7878,"tings":7879,"Source":7880,"Ġplanes":7881,"Ġcaptured":7882,"Ġinstructions":7883,"Jin":7884,"sm":7885,"Ġblade":7886,"zzle":7887,"Ġwhale":7888,"Ġsuffered":7889,"gative":7890,"Ġess":7891,"Ġbail":7892,"Ġvacc":7893,"ĠOff":7894,"ĠJustin":7895,"Ġindust":7896,"itol":7897,"orable":7898,"Ġnep":7899,"ĠKonqueror":7900,"Ġsteady":7901,"Ġforb":7902,"Ġdecor":7903,"Sil":7904,"ĠJunior":7905,"Ġshouting":7906,"ercy":7907,"Ġsorrow":7908,"Professor":7909,"vis":7910,"Ġperf":7911,"ĠNiki":7912,"iraju":7913,"-M":7914,"UR":7915,"Ġpatrol":7916,"Gun":7917,"Ġfilt":7918,"aday":7919,"ĠWater":7920,"icken":7921,"Ġtravell":7922,"uction":7923,"Ġbrush":7924,"ĠBeck":7925,"Ġwalks":7926,"%čĊ":7927,"itable":7928,"Ġhers":7929,"ĠPooja":7930,"Ġexha":7931,"Ġcompromised":7932,"Ġinsp":7933,"Quite":7934,"unting":7935,"Ġpasses":7936,"Ġconsidering":7937,"Ġstudying":7938,"Ġpleased":7939,"inating":7940,"Ġplus":7941,"ĠJer":7942,"Ġhappily":7943,"Ġemotions":7944,"have":7945,"Ġtoy":7946,"ayer":7947,"ashes":7948,"Ġcant":7949,"usive":7950,"Ġcosts":7951,"Ġcostume":7952,"Ġinternational":7953,"Ġdeserves":7954,"usp":7955,"ĠRing":7956,"Ġvalues":7957,"Ġhoped":7958,"Ġenjoying":7959,"ĠMurph":7960,"atan":7961,"atory":7962,"peed":7963,"upl":7964,"IE":7965,"Supp":7966,"Ġstubborn":7967,"Ġbreaks":7968,"ĠFind":7969,"-on":7970,"Ġhunter":7971,"ufact":7972,"Josh":7973,"Dam":7974,"Ġtend":7975,"Ġheroin":7976,"ONE":7977,"ĠJean":7978,"estern":7979,"Ġreck":7980,"believable":7981,"Mem":7982,"Ġlaun":7983,"Far":7984,"onent":7985,"Ġmessing":7986,"Ġrecommend":7987,"fish":7988,"mi":7989,"ropri":7990,"à·Ģ":7991,"Ġjudgment":7992,"Ġshark":7993,"Ġcapture":7994,"ĠOld":7995,"Ġprocedure":7996,"Ġhire":7997,"ases":7998,"usted":7999,"ĠTel":8000,"Ġpacked":8001,"ĠPete":8002,"Ġprize":8003,"Ġprivacy":8004,"Ġkidnap":8005,"acific":8006,"Ġrose":8007,"Ethan":8008,"utch":8009,"ĠJen":8010,"Ġpunished":8011,"Ġnephew":8012,"ĠBrian":8013,"ĠKore":8014,"Ġexplanation":8015,"Ġallows":8016,"ĠHelen":8017,"Ġrounds":8018,"ĠGuy":8019,"away":8020,"understorm":8021,"Ġopposite":8022,"77":8023,"=\\\\\\\\{":8024,"uggal":8025,"ĠIrene":8026,"andra":8027,"ĠChurch":8028,"eena":8029,"ĠBring":8030,"Ġlegacy":8031,"Ġpipe":8032,"Ġdisgusting":8033,"ussy":8034,"Ġhostages":8035,"ASA":8036,"Ġmotion":8037,"NO":8038,"ĠDO":8039,"Ġequal":8040,"Ġfreight":8041,"Ġmanif":8042,"ĠEric":8043,"ahl":8044,"ĠDude":8045,"reek":8046,"sect":8047,"ĠProgram":8048,"ĠSwan":8049,"Kind":8050,"rs":8051,"Enter":8052,"ĠModi":8053,"Ġsometime":8054,"Rock":8055,"Ġsuspicious":8056,"Ġtast":8057,"inus":8058,"Ġpretending":8059,"fit":8060,"Ġvar":8061,"azz":8062,"ĠElizabeth":8063,"Ġexcellent":8064,"mann":8065,"ĠJasmine":8066,"Ġcombination":8067,"point":8068,"Ġtransmission":8069,"Ġmultiple":8070,"onym":8071,"Ġbait":8072,"Ġreverse":8073,"Ġbills":8074,"Ġhyd":8075,"tin":8076,"abe":8077,"Ġemployees":8078,"Ġthreatening":8079,"Ra":8080,"Ġpathetic":8081,"Ġreported":8082,"ragon":8083,"Ġcompass":8084,"leasure":8085,"Ġoperations":8086,"http":8087,"Ġmovement":8088,"file":8089,"umes":8090,"Ġsubway":8091,"Ġrequires":8092,"Faster":8093,"Ġax":8094,"ĠLib":8095,"ĠShashi":8096,"Ġseparated":8097,"Ġtiming":8098,"uary":8099,"Ġ==":8100,"Ġasset":8101,"ĠOthers":8102,"Ġsouls":8103,"umn":8104,"ĠMiller":8105,"ĠDis":8106,"Ġadded":8107,"Ġgrandson":8108,"ĠBenn":8109,"ĠAustralia":8110,"Ġcutting":8111,"Ġaddict":8112,"Ġzomb":8113,"Ġspoil":8114,"Child":8115,"ĠNOT":8116,"Ġengines":8117,"fficient":8118,"Ġreactor":8119,"George":8120,"ĠWidmore":8121,"Cass":8122,"Ġadvance":8123,"Ġstretch":8124,"Ġexercise":8125,"Heavy":8126,"ĠLloyd":8127,"-E":8128,"Ġserial":8129,"hony":8130,"-W":8131,"Ġattorney":8132,"à·ĥ":8133,"Ġgeneration":8134,"Ġmath":8135,"Ġfetch":8136,"ĠAw":8137,"ĠSpider":8138,"Small":8139,"bastian":8140,"Ġinformed":8141,"Ġnecklace":8142,"Ġmug":8143,"Ġknees":8144,"usiness":8145,"Ġseal":8146,"Ġmustn":8147,"ounter":8148,"Ġcorrected":8149,"Ġbreach":8150,"ĠPull":8151,"emp":8152,"Ġchill":8153,"lord":8154,"ecess":8155,"ĠPan":8156,"ĠVincent":8157,"ĠAvatar":8158,"Ġhelmet":8159,"name":8160,"pai":8161,"ĠAye":8162,"ĠJose":8163,"Ġcheer":8164,"Ġdifferently":8165,"Ġconsc":8166,"minist":8167,"Ġwasted":8168,"Grandma":8169,"Ġmeasure":8170,"Ġmeds":8171,"Ġtargets":8172,"Ġritual":8173,"bey":8174,"Ġrecru":8175,"ĠLucia":8176,"Ġpolitical":8177,"Nia":8178,"Ġexposed":8179,"Ġcreating":8180,"Ġsticks":8181,"Ġspending":8182,"apers":8183,"uced":8184,"Ġpropose":8185,"Ġrecorded":8186,"eeze":8187,"Ġraid":8188,"ĠAmy":8189,"roups":8190,"ĠSanjay":8191,"Ã±":8192,"ÃŃ":8193,"'And":8194,"Ġwa":8195,"Ġdownload":8196,"Ġsuperhero":8197,"Sherlock":8198,"Ġbond":8199,"alls":8200,"ags":8201,"Ġhanded":8202,"Ġfriendly":8203,"Ġdisaster":8204,"gl":8205,"Hunt":8206,"ĠKaren":8207,"Ġcowboy":8208,"Honestly":8209,"Ġgreed":8210,"aded":8211,"ĠSub":8212,"ĠMoscow":8213,"ĠNor":8214,"Ġparticul":8215,"aution":8216,"Ġsexy":8217,"Glad":8218,"Ġproposal":8219,"uma":8220,"Project":8221,"Ġswords":8222,"Ġpow":8223,"ĠBruce":8224,"oli":8225,"IGHT":8226,"utation":8227,"ĠAjay":8228,"ĠPlan":8229,"Ġintegr":8230,"Ġgamb":8231,"Ġbatt":8232,"estion":8233,"dad":8234,"Ġaccounts":8235,"garh":8236,"ĠÂ¶":8237,"Ġcrush":8238,"ĠPrincess":8239,"Ġservant":8240,"Ġhes":8241,"Ġlect":8242,"Ġfights":8243,"Ġadventure":8244,"escri":8245,"Ġmanufact":8246,"Ġfrust":8247,"Ġbehave":8248,"Ġoccup":8249,"Prot":8250,"ĠWHAT":8251,"Ġgest":8252,"atures":8253,"ĠAS":8254,"Ġinvented":8255,"Ġliquor":8256,"32":8257,"Li":8258,"acles":8259,"ĠFull":8260,"Ġstudied":8261,"Hanna":8262,"OH":8263,"py":8264,"ĠCong":8265,"Ġcheque":8266,"Ġcerem":8267,"Ġwhistle":8268,"hay":8269,"ĠCrew":8270,"ĠFour":8271,"Ġundercover":8272,"oretto":8273,"ĠClub":8274,"Ġlightning":8275,"Ġelection":8276,").čĊ":8277,"Ġfoc":8278,"Ġnearby":8279,"ĠRepublic":8280,"Ġjuice":8281,"Bravo":8282,"Found":8283,"ĠAng":8284,"Ġhonestly":8285,"ĠWhatever":8286,"Ġteen":8287,"à·Ĵ":8288,"Ġchess":8289,"Ġblond":8290,"Ġcompound":8291,"Ġcorpse":8292,"Ġfourth":8293,"ĠCapitol":8294,"Ġsites":8295,"Ġscratch":8296,"Ġalcohol":8297,"Ġnig":8298,"abri":8299,"Ġhonour":8300,"System":8301,"Him":8302,"Ġclients":8303,"Ġtraitor":8304,"Reg":8305,"mitted":8306,"Ġknee":8307,"ĠBomb":8308,"Ġuses":8309,"Ġgrace":8310,"Ġrolling":8311,"ĠGirl":8312,"iser":8313,"mosp":8314,"ĠKNOW":8315,"from":8316,"Ġorg":8317,"Ġroutine":8318,"Ġconsequences":8319,"Henry":8320,"stop":8321,"osing":8322,"Liz":8323,"mates":8324,"Ohh":8325,"ĠSpir":8326,"thy":8327,"ĠMorning":8328,"Ġspons":8329,"Ġintercept":8330,"Sal":8331,"Ġanytime":8332,"izer":8333,"ĠAnjali":8334,"ien":8335,"Ġtact":8336,"Answer":8337,"-hand":8338,"Ġdescribe":8339,"Ġrifle":8340,"911":8341,"ĠAbsolutely":8342,"ĠEve":8343,"à¶»":8344,"Ġinvolve":8345,"Bella":8346,"Ġfence":8347,"uther":8348,"Ġprisoners":8349,"Ġcouncil":8350,"ĠBay":8351,"Ġconce":8352,"Ġprints":8353,"ĠClass":8354,"omfortable":8355,"icing":8356,"respect":8357,"Ġgoal":8358,"ĠKey":8359,"Ġpurse":8360,"Ġmodern":8361,"vention":8362,"Ġknocked":8363,"kind":8364,"oty":8365,"ĠStu":8366,"Ġunderwear":8367,"Ya":8368,"hend":8369,"Ġbrows":8370,"Ġparties":8371,"Ġkissed":8372,"ĠMachiraju":8373,"ipper":8374,"Ġtoss":8375,"hania":8376,"ĠSinghania":8377,"Logan":8378,"Ġwitch":8379,"hall":8380,"ĠBra":8381,"Ġrecon":8382,"Mal":8383,"ĠOoh":8384,"ĠKarl":8385,"Ġdreaming":8386,"ĠCollector":8387,"47":8388,"Pete":8389,"TA":8390,"dia":8391,"Ġsenior":8392,"eration":8393,"Ġclosest":8394,"Boys":8395,"ĠNemo":8396,"Ġbelief":8397,"Ġperman":8398,"Ġcheated":8399,"Wasn":8400,"Ġnormally":8401,"Ġgenerator":8402,"Ġmercy":8403,"Beautiful":8404,"Dri":8405,"Ġpuzz":8406,"ĠView":8407,"Ġcookies":8408,"Ġholiday":8409,"Ġhen":8410,"Ġdeb":8411,"ĠPintu":8412,"dogan":8413,"Ġsets":8414,"ĠDylan":8415,"ams":8416,"stick":8417,"49":8418,"Rest":8419,"Ġbeings":8420,"Ġtwins":8421,"Caesar":8422,"Ġeter":8423,"ĠNational":8424,"Johnny":8425,"ĠBoone":8426,"moon":8427,"ĠValentine":8428,"Hot":8429,"wa":8430,"ishi":8431,"Ġfox":8432,"oraj":8433,"ieur":8434,"onsieur":8435,"Ġbeats":8436,"\"Don":8437,"43":8438,"Hank":8439,"Ġinvitation":8440,"bugger":8441,"Ġensure":8442,"every":8443,"while":8444,"Ġcancell":8445,"alled":8446,"uckles":8447,"Ġthreats":8448,"Ġcasino":8449,"ĠHyder":8450,"ĠAutob":8451,"ĠBernard":8452,"rep":8453,"ĠDeep":8454,"ĠFore":8455,"Ġquant":8456,"Ġtwenty":8457,"Ġindepend":8458,"ĠMessage":8459,"ĠFOR":8460,"Yesterday":8461,"ĠFranklin":8462,"Freeze":8463,"Ġthrill":8464,"ĠPak":8465,"Ġelders":8466,"Po":8467,"eters":8468,"hore":8469,"ysis":8470,"Ġtelevision":8471,"Ġembarrassed":8472,"Idiot":8473,"Ġbesides":8474,"ĠNext":8475,"Ġchamber":8476,"Ġfacing":8477,"Ġmysterious":8478,"ĠPercy":8479,"Contact":8480,"Ġcomment":8481,"ocate":8482,"UST":8483,"Ġshared":8484,"Ġassigned":8485,"Makes":8486,"Ġcapital":8487,"Ġsucks":8488,"Ġgal":8489,"Ġpatience":8490,"iat":8491,"lymp":8492,"Ġmeantime":8493,"Ġcontinues":8494,"Ġinitial":8495,"Breathe":8496,"Ġtension":8497,"Ġactor":8498,"Ġshore":8499,"Ġhated":8500,"Ġfella":8501,"Ġfulfill":8502,"gues":8503,"eni":8504,"ĠSn":8505,"Perfect":8506,"oja":8507,"Ġdomin":8508,"Ġfrog":8509,"ĠGovern":8510,"'RE":8511,"Ġrear":8512,"Ġmanifest":8513,"bly":8514,"ĠAah":8515,"ĠLaw":8516,"Ġpean":8517,"Ġemployee":8518,"nomeo":8519,"Ġwiped":8520,"Ġyards":8521,"Ġfasc":8522,"Ġogre":8523,"plain":8524,"Ġfixing":8525,"Ġdeveloped":8526,"eenamma":8527,"Break":8528,"ĠHim":8529,"ikes":8530,"ĠShrek":8531,"Lost":8532,"ĠStone":8533,"Ġattached":8534,"Ġdeer":8535,"Ġretired":8536,"Ġimagination":8537,"ĠLisa":8538,"Ġsmoking":8539,"ĠHell":8540,"ĠShankar":8541,"Fight":8542,"ords":8543,"Ġcharged":8544,"Ġfashion":8545,"Number":8546,"aris":8547,"Ġcommerc":8548,"ĠChitti":8549,"Ġsuspended":8550,"aser":8551,"oston":8552,"Ġargue":8553,"ĠThink":8554,"unning":8555,"Mary":8556,"ĠBarb":8557,"ĠBatman":8558,"Ġjet":8559,"iforn":8560,"teries":8561,"ĠAfter":8562,"Ġboar":8563,"-hoo":8564,"Ġarmor":8565,"Ġtraveling":8566,"fortunate":8567,"ĠCassie":8568,"forcement":8569,"yard":8570,"ĠJew":8571,"Ġcursed":8572,"Chief":8573,"ademy":8574,"Ġfraud":8575,"master":8576,"ribut":8577,"Ġanswe":8578,"Ġpurcha":8579,"Ġsummit":8580,"THE":8581,"Ġanswered":8582,"ĠSky":8583,"oph":8584,"Ġadjust":8585,"Ġpassports":8586,"Ġfocused":8587,"Ġoath":8588,"ĠJan":8589,"ĠBurrows":8590,"pet":8591,"Ġmuscle":8592,"Ġfleet":8593,"\"But":8594,"Fall":8595,"asim":8596,"Ġspeaks":8597,"Ġreporter":8598,"Ġkilomet":8599,"Ġopt":8600,"ĠNaz":8601,"marks":8602,"ĠLovely":8603,"Ġexecute":8604,"ĠAtl":8605,"Ġclip":8606,"Ġpie":8607,"encing":8608,"Ġgenerous":8609,"Ġcoordinates":8610,"Ġboom":8611,"Ġboxes":8612,"uals":8613,"Ġbon":8614,"ĠJackson":8615,"print":8616,"Ang":8617,"Cent":8618,"ĠId":8619,"Ġcancel":8620,"ĠMind":8621,"ĠPind":8622,"osition":8623,"Jump":8624,"Ġcoma":8625,"ĠHud":8626,"Ġunite":8627,"Ġvisited":8628,"Ġtypes":8629,"hikre":8630,"Ġrelatives":8631,"help":8632,"ĠMore":8633,"Ġtrusting":8634,"Real":8635,"Scan":8636,"Ġfrozen":8637,"ML":8638,"Ġallerg":8639,"ourse":8640,"ĠBri":8641,"Ġrogue":8642,"nic":8643,"Ġwrap":8644,"rial":8645,"Ġconcept":8646,"ugust":8647,"Sl":8648,"Ġfestival":8649,"ety":8650,"Ġuna":8651,"ĠAT":8652,"ĠAarush":8653,"Ġringing":8654,"ĠText":8655,"ĠBerlin":8656,"icle":8657,"Ġsharing":8658,"Ġstorage":8659,"abel":8660,"True":8661,"ĠLooks":8662,"(s":8663,"Ġspr":8664,"-de":8665,"onica":8666,"Ġfans":8667,"Ġbees":8668,"ĠNash":8669,"riginal":8670,"Ġabduct":8671,"Ġbroadcast":8672,"Bill":8673,"Drive":8674,"ĠBank":8675,"ĠDepartment":8676,"ĠNovember":8677,"Ġcharm":8678,"Ġbribe":8679,"Nine":8680,"Ġwore":8681,"Ġcandid":8682,"ĠFace":8683,"Allow":8684,"ĠUng":8685,"Ġskull":8686,"Ġsolid":8687,"Ġmud":8688,"ĠJanet":8689,"ilians":8690,"Ġsales":8691,"Ġpredict":8692,"Ġunnecess":8693,"Crazy":8694,"Vishal":8695,"Ġbot":8696,"orough":8697,"Ġspark":8698,"Ġdemons":8699,"conom":8700,"Ġrabbit":8701,"Shan":8702,"itar":8703,"Ġbeard":8704,"Ġautomatically":8705,"Ġbee":8706,"ĠAzhar":8707,"Ġflies":8708,"Ġmatches":8709,"thew":8710,"Ġbuildings":8711,"Cam":8712,"Ġyard":8713,"ĠCaesar":8714,"Ġconspir":8715,"ĠNad":8716,"Ġtheirs":8717,"Ġelement":8718,"Ġtunnels":8719,"Girls":8720,"OTH":8721,"Ugh":8722,"Ġairl":8723,"Ġinfluence":8724,"815":8725,"atre":8726,"ĠTamil":8727,"ĠURL":8728,"ĠDorothy":8729,"SE":8730,"ĠRaymond":8731,"hent":8732,"ifying":8733,"remy":8734,"Ġfu":8735,"ICE":8736,"orious":8737,"Ġconfidence":8738,"Ġshrink":8739,"Ġfinanc":8740,"ĠKyle":8741,"Sol":8742,"Ġthread":8743,"iah":8744,"ITH":8745,"ĠGuys":8746,"Grace":8747,"Ġhoneymoon":8748,"Ġjoining":8749,"Med":8750,"ucks":8751,"Ġbru":8752,"ĠHarold":8753,"ĠLizzy":8754,"bott":8755,"rical":8756,"Ġlmmy":8757,"ĠArm":8758,"Ġwhisper":8759,"Ext":8760,"Wanna":8761,"nik":8762,"ĠAg":8763,"ĠHill":8764,"itty":8765,"berg":8766,"Ġpossess":8767,"Ġrobots":8768,"Ġimprove":8769,"mir":8770,"ength":8771,"Ġbears":8772,"ĠShikre":8773,"ĠGib":8774,"Ġplastic":8775,"ĠEmperor":8776,"rick":8777,"ĠCarly":8778,"ĠHoney":8779,"Short":8780,"Ġapple":8781,"ĠInter":8782,"Ġefforts":8783,"Ġpunishment":8784,"ĠLand":8785,"umps":8786,"ocks":8787,"igned":8788,"Ġburnt":8789,"ĠEnough":8790,"Edit":8791,"Ġincrease":8792,"\"if":8793,"Doc":8794,"Ġelimin":8795,"Ġwaves":8796,"Oliver":8797,"zard":8798,"Ġlit":8799,"Ġremaining":8800,"Ġuncomfortable":8801,"ĠCare":8802,"Ġparked":8803,"acity":8804,"eside":8805,"Ġbeans":8806,"Ġconfusion":8807,"Ġmeas":8808,"ĠDamu":8809,"sion":8810,"Ġing":8811,"Ġsettled":8812,"itect":8813,"roc":8814,"Mill":8815,"ĠHope":8816,"Martin":8817,"Ġangle":8818,"Ġvari":8819,"ĠConnie":8820,"Ã¨":8821,"ĠWade":8822,"\"When":8823,"Port":8824,"Ġdrum":8825,"nold":8826,"lfred":8827,"Ġplot":8828,"Ġprem":8829,"Ġtraged":8830,"Ġstrang":8831,"Ġcompleted":8832,"Jac":8833,"Ġaggress":8834,"Ġphil":8835,"ifteen":8836,"Ġcommunicate":8837,"ĠSettings":8838,"Val":8839,"ĠNina":8840,"-mail":8841,"Ġpoisoned":8842,"Ġaliens":8843,"Ġtools":8844,"Mad":8845,"ĠTem":8846,"odi":8847,"Ġquality":8848,"Ġunstable":8849,"Ġskill":8850,"bot":8851,"Ġplants":8852,"ĠOct":8853,"ĠShep":8854,"Ġreputation":8855,"Ġtechnically":8856,"Ġdevelopment":8857,"Ġintelligent":8858,"Ġtooth":8859,"Ġcruel":8860,"ĠUse":8861,"Ġrevealed":8862,"Ġpyram":8863,"ĠTit":8864,"istics":8865,"ILL":8866,"ĠGroup":8867,"Ġstrict":8868,"ST":8869,"Ġbored":8870,"Ġfaint":8871,"keep":8872,"ĠRao":8873,"Ġdisgu":8874,"Ġconfiguration":8875,"mergency":8876,"ooked":8877,"Funny":8878,"hus":8879,"Ġliber":8880,"Ġfacts":8881,"resp":8882,"boat":8883,"Ġarrival":8884,"Ġevacuate":8885,"Ġloyalty":8886,"Ġsalt":8887,"Ġatmosp":8888,"Ġmiser":8889,"Target":8890,"essler":8891,"Ġscheme":8892,"Ġfingerprints":8893,"Ġsomeplace":8894,"Ġdowntown":8895,"cles":8896,"Ġdign":8897,"Ġpanc":8898,"ĠPur":8899,"ĠOptions":8900,"Ġprofit":8901,"Ġadvanced":8902,"Ġimpression":8903,"Bablu":8904,"ĠHudson":8905,"\"No":8906,"SP":8907,"enpai":8908,"ppers":8909,"elling":8910,"Ġlocate":8911,"atives":8912,"ĠDharma":8913,"\"For":8914,"itching":8915,"Ġcre":8916,"chid":8917,"ĠLogan":8918,"api":8919,"Ġunfortunate":8920,"Inter":8921,"Ġcared":8922,"Ġdrawn":8923,"Ġceremony":8924,"Ġofthe":8925,"aughters":8926,"ĠAllen":8927,"Ġregister":8928,"know":8929,"ĠBhar":8930,"Ġdeploy":8931,"Sheriff":8932,"Ġaccused":8933,"Ġradiation":8934,"Ġterrorists":8935,"ĠRelax":8936,"Ġargument":8937,"ĠHotel":8938,"Ġsurgeon":8939,"Ġcontrols":8940,"Ġclaims":8941,"Ġmisunderstanding":8942,"ĠfiancÃ©":8943,"power":8944,"ĠVarda":8945,"Ġtherapy":8946,"Ġending":8947,"prise":8948,"Ġselfish":8949,"ĠService":8950,"Ġdepart":8951,"Ġnap":8952,"eresting":8953,"Ġarrangement":8954,"Ġgoons":8955,"issa":8956,"Ġimagined":8957,"Behind":8958,"Ġofficials":8959,"Andrew":8960,"aka":8961,"Ġunderest":8962,"Ġgroups":8963,"athered":8964,"Ġdetermine":8965,"Hm":8966,"Mag":8967,"ulu":8968,"Ġidentified":8969,"Ġcommercial":8970,"Ġtale":8971,"ĠCir":8972,"ĠWind":8973,"Ġthreaten":8974,"Ġdivorced":8975,"\"It":8976,"lished":8977,"Ġguilt":8978,"ifornia":8979,"Ġties":8980,"Ġloop":8981,"Ġhamm":8982,"marine":8983,"ront":8984,"ĠToo":8985,"ĠBarnes":8986,"ardner":8987,"Ġbargain":8988,"uko":8989,"Ġcompanies":8990,"ĠHyderabad":8991,"Done":8992,"lement":8993,"ensions":8994,"ĠRemember":8995,"Ġtemporary":8996,"Phil":8997,"Ġgym":8998,"iro":8999,"Ġswallow":9000,"Together":9001,"Ġlaund":9002,"Ġsilence":9003,"Ġtemperature":9004,"Asia":9005,"Alice":9006,"ĠUni":9007,"Ġelectricity":9008,"Key":9009,"Ġrack":9010,"Top":9011,"Ġplayers":9012,"Ġlistened":9013,"Ġdrivers":9014,"ĠBenjamin":9015,"Ġsensitive":9016,"Cole":9017,"Resp":9018,"ĠDet":9019,"ĠSynd":9020,"levant":9021,"Ġthick":9022,"abor":9023,"Ġshocked":9024,"Ġfiring":9025,"Ġsayin":9026,"igu":9027,"Ġthirsty":9028,"aurav":9029,"29":9030,"Ġunlock":9031,"North":9032,"Ġbureau":9033,"yers":9034,"Ġholy":9035,"neath":9036,"Ġresort":9037,"Focus":9038,"Sound":9039,"Ġge":9040,"ĠTha":9041,"istent":9042,"ĠEllis":9043,"water":9044,"Ġtox":9045,"ĠSO":9046,"ĠDragon":9047,"Thirty":9048,"Blue":9049,"ĠUngli":9050,"aksh":9051,"dies":9052,"andini":9053,"Ġdesc":9054,"Ġtyp":9055,"Highlight":9056,"Error":9057,"\"L":9058,"\"Come":9059,"Lucky":9060,"isher":9061,"Ġpa":9062,"Ġheav":9063,"Ġwears":9064,"ĠCast":9065,"ĠHead":9066,"Update":9067,"ropriate":9068,"Daniel":9069,"Ġlun":9070,"step":9071,"Ġmel":9072,"ĠHA":9073,"ĠRizvan":9074,"Ġrecovered":9075,"Ġdeposit":9076,"Billy":9077,"bro":9078,"ĠDear":9079,"ĠEver":9080,"Ġowns":9081,"Ġkidnapping":9082,"ĠSmith":9083,"Ġwashed":9084,"Ġrats":9085,"Ġconven":9086,"Ġpositions":9087,"Ġinvestigate":9088,"egas":9089,"ĠReyes":9090,"Nick":9091,"Ġshoe":9092,"Ġsignature":9093,"-hour":9094,"Ġterrif":9095,"ĠFlor":9096,"Ġunconscious":9097,"Ġsandwich":9098,"Ġvampire":9099,"ĠSweet":9100,"Ġtowel":9101,"Says":9102,"Mod":9103,"Ġdepend":9104,"ĠSpanish":9105,"ĠErdogan":9106,"-Oh":9107,"etho":9108,"Ġrocket":9109,"Ġindividual":9110,"Ġconsum":9111,"Ġdestro":9112,"Ġcustomer":9113,"Ã¡":9114,"Ġrings":9115,"ĠRakesh":9116,"Ġarchitect":9117,"inton":9118,"Ġaircraft":9119,"reaking":9120,"Ġproved":9121,"ext":9122,"make":9123,"Ġisol":9124,"ĠAgn":9125,"Ġ--čĊ":9126,"Ġunderneath":9127,"Ġdeaths":9128,"ANS":9129,"Colonel":9130,"Ġlocker":9131,"-cl":9132,"ĠJoan":9133,"Ġfilthy":9134,"Ġdiss":9135,"ĠOl":9136,"Ġchoo":9137,"Ġdragged":9138,"Ġtracked":9139,"Ġshadows":9140,"Ġbelieving":9141,"bl":9142,"directory":9143,"uated":9144,"ril":9145,"aved":9146,"Ġ'...":9147,"Ġprivile":9148,"Ġjewelry":9149,"SA":9150,"Ġfare":9151,"Ġserving":9152,"Fair":9153,"President":9154,"ĠSu":9155,"Ġdrives":9156,"Somewhere":9157,"ĠShiva":9158,"Ġparole":9159,"ĠMehra":9160,"Ġannoy":9161,"ĠWilson":9162,"Tony":9163,"kok":9164,"vation":9165,"ĠMoon":9166,"Ġchaos":9167,"ĠInspector":9168,"ĠMarcus":9169,"Ġdrawing":9170,"ĠJedi":9171,"Ġparticularly":9172,"Lieutenant":9173,"Ġego":9174,"State":9175,"ĠReg":9176,"Ġmotive":9177,"ĠRenu":9178,"Leaving":9179,"gers":9180,"Ġworlds":9181,"Ġflew":9182,"urd":9183,"Ġash":9184,"ĠJohnson":9185,"Ġsearched":9186,"Ġerr":9187,"Ġassumed":9188,"ĠHonor":9189,"Ġshopping":9190,"abriel":9191,"ronic":9192,"Ġhighway":9193,"Green":9194,"phy":9195,"Ġintel":9196,"LES":9197,"ĠTower":9198,"Ġpirate":9199,"otic":9200,"ĠMen":9201,"ĠCoop":9202,"odka":9203,"ĠChautala":9204,"Ted":9205,"Way":9206,"Ġgall":9207,"ĠMoose":9208,"ĠDuggal":9209,"Ġrice":9210,"Ġdistress":9211,"Ġpreparing":9212,"Ġthrone":9213,"Chance":9214,"-sp":9215,"Ġhill":9216,"ĠToretto":9217,"Ġsevere":9218,"Ġdiary":9219,"Ġtreating":9220,"Ġgrabbed":9221,"36":9222,"Richard":9223,"ĠFog":9224,"Ġshoulders":9225,"Ġhalfway":9226,"EO":9227,"ingo":9228,"Ġnail":9229,"armed":9230,"ĠWild":9231,"ANT":9232,"OMAN":9233,"Others":9234,"Ġcancelled":9235,"Lou":9236,"Ġcorruption":9237,"OULD":9238,"ĠCrewes":9239,"Ġforth":9240,"ugu":9241,"Ġcompliment":9242,"Ġreminds":9243,".P":9244,".?čĊ":9245,"Ġfifty":9246,"istol":9247,"autas":9248,"Ġinternal":9249,"Ġdeaf":9250,"uum":9251,"ario":9252,"Ġconfess":9253,"Deep":9254,"ĠLong":9255,"havgarh":9256,"Ġapplied":9257,"Author":9258,"Ġprecise":9259,"Ġadopted":9260,"leya":9261,"ĠBunny":9262,"aza":9263,"Ġlearnt":9264,"Ġcentral":9265,"ethoven":9266,"ĠGro":9267,"Ġslapped":9268,"ushing":9269,"Ġchampagne":9270,"Ġmaximum":9271,"Ġshh":9272,"rot":9273,"encies":9274,"Ġshares":9275,"ĠWalker":9276,"Watson":9277,"Ġstudies":9278,"Ġassociate":9279,"ĠTeri":9280,"Making":9281,"ĠVet":9282,"avor":9283,"Ġawait":9284,"Ġsomethin":9285,"-Hey":9286,"di":9287,"life":9288,"Ġtensed":9289,"ĠCarter":9290,"uba":9291,"Previous":9292,"Cal":9293,"Ġdish":9294,"ĠRonan":9295,"Base":9296,"Ġgig":9297,"eller":9298,"Ġrap":9299,"Ġposted":9300,"Ġblocked":9301,"Ġpant":9302,"Ġhood":9303,"ĠCD":9304,"Ġcolleague":9305,"aggins":9306,"ĠSand":9307,"ĠCam":9308,"ĠGe":9309,"Ġrape":9310,"Ġadvised":9311,"ĠSimmons":9312,"ĠSecret":9313,"Ġelderman":9314,"Ġplatform":9315,"Told":9316,"ĠVegas":9317,"Ġtries":9318,"à¶¸":9319,"Ġfiled":9320,"Ġdelicious":9321,"Barry":9322,"after":9323,"ĠTalk":9324,"ĠDur":9325,"Ġeducation":9326,"orgeous":9327,"Eh":9328,"Ġjerk":9329,"abouts":9330,"Ġbranch":9331,"Ġinterests":9332,"Ġflee":9333,"Ġconscience":9334,"Dom":9335,"ĠKn":9336,"ĠAlexander":9337,"abber":9338,"Ġhates":9339,"Ġfinest":9340,"Ġmighty":9341,"Ġmagaz":9342,"ĠPol":9343,"__":9344,"Ġcontainment":9345,"Ġmechanic":9346,"Ġpip":9347,"ĠComing":9348,"achin":9349,"Ġdisgr":9350,"Ġsubc":9351,"Ðµ":9352,"Ġorigin":9353,"ĠGermany":9354,"Took":9355,"Ġease":9356,"maan":9357,"ĠHindi":9358,"Pack":9359,"Ġsem":9360,"ĠLu":9361,"Ġdistrict":9362,"Ġwithd":9363,"Ġabuse":9364,"Ġsale":9365,"ĠOwen":9366,"Sleep":9367,"ĠDate":9368,"Ġradar":9369,"Ġconfirmation":9370,"Ġgrief":9371,"Ġdeclared":9372,"Ġanniversary":9373,"CR":9374,"only":9375,"Ġsentiment":9376,"Ġvest":9377,"going":9378,"Ġtalented":9379,"unzio":9380,"Ġstructure":9381,"=\\\\\\\\{@":9382,"-D":9383,"ĠBas":9384,"ĠLast":9385,"ĠChester":9386,"Ġenjoyed":9387,"33":9388,"Dance":9389,"Sham":9390,"ĠNar":9391,"Ġcliff":9392,"unts":9393,"eezus":9394,"Ġreplaced":9395,"bal":9396,"asse":9397,"Ġvul":9398,"Ġgray":9399,"Ġdeeper":9400,"Ġexisted":9401,"ĠMexican":9402,"Ġfug":9403,"ĠSa":9404,"ĠCourt":9405,"Ġtesting":9406,"Ġtested":9407,"ĠNE":9408,"Stick":9409,"Ġpolite":9410,"Ġcertificate":9411,"ĠEN":9412,"ĠMarudheera":9413,"Ġflare":9414,"Ġglo":9415,"Ġsecretary":9416,"sto":9417,"ĠLabs":9418,"ĠSl":9419,"ĠFin":9420,"lying":9421,"Ġcasual":9422,"Ġdevices":9423,"Ġreaching":9424,"Ġwrist":9425,"ĠTool":9426,"vo":9427,"Ġcolors":9428,"guard":9429,"Ġretirement":9430,"heast":9431,"ĠLight":9432,"ĠEOL":9433,"Ġformat":9434,"ĠRussia":9435,"Bro":9436,"rd":9437,"itals":9438,"ĠLang":9439,"Wherever":9440,"âĻªčĊ":9441,"ĠGeorg":9442,"Ryan":9443,"sor":9444,"omatic":9445,"Ġherd":9446,"Ġproperties":9447,"ASE":9448,"Ġpaths":9449,"ĠFairy":9450,"Fore":9451,"PU":9452,"ques":9453,"Ġlocated":9454,"uggage":9455,"Ġstarving":9456,"ĠDanny":9457,"ĠKatniss":9458,"Anjali":9459,"ĠCool":9460,"Ġsheep":9461,"quis":9462,"ĠFlynn":9463,"ĠDrive":9464,"Ġblows":9465,"Ġdamaged":9466,"Ġrebuild":9467,"Ġaudience":9468,"..'čĊ":9469,"Ġinch":9470,"eable":9471,"ĠAri":9472,"Ġworries":9473,"umble":9474,"Ġrealise":9475,"Ġpainful":9476,"Ġterribly":9477,"rack":9478,"ĠPear":9479,"ivated":9480,"Ġopens":9481,"Ġglow":9482,"Ġpaperwork":9483,"Date":9484,"ĠHard":9485,"eem":9486,"ĠCopy":9487,"ellow":9488,"ĠEagle":9489,"Ġreflect":9490,"Mat":9491,"oner":9492,"warf":9493,"Ġcitizen":9494,"ghan":9495,"Ġdischar":9496,"Ġbeacon":9497,"Major":9498,"ĠLinda":9499,"Ġbind":9500,"rieve":9501,"HE":9502,"Ġconfession":9503,"upiter":9504,"version":9505,"mans":9506,"ĠHart":9507,"iano":9508,"Ġlawyers":9509,"Gotta":9510,"Ġtragedy":9511,"Snow":9512,"brew":9513,"ĠSave":9514,"ĠBel":9515,"ĠStill":9516,"Ġcompared":9517,"jah":9518,"Ġfert":9519,"Ġworthy":9520,"Ġvital":9521,"ousse":9522,"Ġissued":9523,"Ġpleasant":9524,"ALE":9525,"Address":9526,"wan":9527,"Ã¼":9528,"atched":9529,"ĠMY":9530,"ĠAgain":9531,"Ġwanting":9532,"Ġspect":9533,"Ġstrate":9534,"ICK":9535,"Ġtraditional":9536,"Ġsari":9537,"Ġcodes":9538,"Ġjury":9539,"ĠMont":9540,"Ġremark":9541,"Ġstring":9542,"Ġpossession":9543,"ĠConf":9544,"Ġpuppy":9545,"Ġfifth":9546,"inks":9547,"Ġvalley":9548,"Ġbelonged":9549,"ĠJulia":9550,"Ġhobby":9551,"COM":9552,"Wrong":9553,"Ġlength":9554,"Ġnerve":9555,"Ġbearing":9556,"outhern":9557,"ĠVic":9558,"Ġglobal":9559,"Ġboats":9560,"Ġfooled":9561,"Ġfilms":9562,"ĠExactly":9563,"aggie":9564,"Ġregistered":9565,"Hugo":9566,"Sud":9567,"eper":9568,"Ġbald":9569,"acci":9570,"LY":9571,"aign":9572,"won":9573,"ĠLock":9574,"Ġintroduced":9575,"Ġconstruction":9576,"Ġbeside":9577,"ĠClose":9578,"Ġconfigure":9579,"Ġshooter":9580,"ĠFox":9581,"Ġkiddo":9582,"Ġracing":9583,"ricted":9584,"ouille":9585,"ĠSC":9586,"198":9587,"Ġsamples":9588,"iary":9589,"Ġtortured":9590,"Ġmassive":9591,"ĠKal":9592,"cript":9593,"Rain":9594,"ĠFiona":9595,"Ġchop":9596,"Ġchased":9597,"Ġexcl":9598,"Ġloading":9599,"Lucy":9600,"atal":9601,"Ġwealth":9602,"antha":9603,"Ġchips":9604,"alian":9605,"ĠJerry":9606,"ĠEmm":9607,"Ġintense":9608,"Vari":9609,"amily":9610,"formed":9611,"Ġsmaller":9612,"-hm":9613,"ĠChef":9614,"ribution":9615,"ĠCalifornia":9616,"Dem":9617,"Jon":9618,"Ġdaughters":9619,"Ġpup":9620,"icating":9621,"Ġclearance":9622,"Ġdipl":9623,"Ġcharacters":9624,"Quickly":9625,"iates":9626,"nor":9627,"ndu":9628,"ĠBon":9629,"ĠPot":9630,"ĠNASA":9631,"Ġcomplaint":9632,"justice":9633,"Death":9634,"Ġassistance":9635,"Day":9636,"ober":9637,"real":9638,"Ġanal":9639,"osity":9640,"quest":9641,"Ġrage":9642,"Ġresponding":9643,"ribute":9644,"becca":9645,"-C":9646,"com":9647,"Ġkings":9648,"Ġadminist":9649,"Ġwondered":9650,"Charlotte":9651,"Ġinfilt":9652,"Ġengineering":9653,"Ġvehicles":9654,"ĠUniversity":9655,".L":9656,"Ġoutfit":9657,"Ġworn":9658,"ĠGusteau":9659,"Ġsmiles":9660,"Ġhumili":9661,"Ġsting":9662,"ĠMel":9663,"ĠBase":9664,"Ġshaking":9665,"Ġinstit":9666,"Ġoperate":9667,"Ġstrip":9668,"Ġwarriors":9669,"Ġgosh":9670,"Ġorange":9671,"à·Ķ":9672,"Ġnewspaper":9673,"TO":9674,"Ġcocon":9675,"ĠGPS":9676,"ĠFollow":9677,"Ġobsessed":9678,"Ġsalary":9679,"Ġwolves":9680,"Plus":9681,"Ġretreat":9682,"got":9683,"ĠCecil":9684,"Ġalley":9685,"stitute":9686,"South":9687,"Ġmister":9688,"ado":9689,"Ġspaces":9690,"ĠStart":9691,"Ġappeared":9692,"ENT":9693,"Ġideal":9694,"55":9695,"UGH":9696,"ĠSame":9697,"Ġimper":9698,"ĠStig":9699,"Ġdram":9700,"Ġfigures":9701,"Ġammo":9702,"Ġfields":9703,"Ġmedication":9704,"Ġexplosives":9705,"Made":9706,"ride":9707,"ednes":9708,"Ġinner":9709,"Heard":9710,"Ġaccur":9711,"EST":9712,"Correct":9713,"ednesday":9714,"Ġporn":9715,"ĠArab":9716,"ĠKy":9717,"ĠSaroja":9718,"Ġmoron":9719,"Ġthorough":9720,"ĠPick":9721,"ĠNation":9722,"ĠFrance":9723,"Ġbelly":9724,"Ġwaist":9725,"Ġstrategy":9726,"hul":9727,"Ġdates":9728,"ĠSix":9729,"ĠHans":9730,"Ġswitched":9731,"ĠCanada":9732,"Ġdelete":9733,"parent":9734,"Ġbum":9735,"ĠSutter":9736,"ĠRat":9737,"beat":9738,"Ġchecks":9739,"Ġdenied":9740,"ĠFib":9741,"ĠFountain":9742,"ĠOz":9743,"Ġdrops":9744,"Ġdynamite":9745,"Ġconspiracy":9746,"Bat":9747,"Ġheist":9748,"ĠSister":9749,"Ġpromotion":9750,"Ġvillages":9751,"ĠMadhavgarh":9752,"Duke":9753,"Woman":9754,"look":9755,"aph":9756,"Ġunexpected":9757,"Ġcolony":9758,"ĠBook":9759,"impy":9760,"Ġapproval":9761,"Ġarrangements":9762,"Ġworthless":9763,"-out":9764,"Ġpour":9765,"allas":9766,"ĠBombay":9767,"Ġpeel":9768,"Ġsnap":9769,"\"O":9770,"Inf":9771,"Ġcycle":9772,"Ġanonym":9773,",we":9774,"Event":9775,"oki":9776,"ĠErica":9777,"250":9778,"Ġprob":9779,"*čĊ":9780,"Ġmamm":9781,"Ġcand":9782,"antastic":9783,"Ġasp":9784,"eline":9785,"elligence":9786,"Boone":9787,"Friends":9788,"ĠHorse":9789,"Ġhelpless":9790,"ĠSystem":9791,"Ġluggage":9792,"ĠJess":9793,"Ġmemor":9794,"Ġdamned":9795,"Ġpoliceman":9796,"Darling":9797,"ku":9798,"oz":9799,"Ġwis":9800,"Ġclar":9801,"Ġdisabled":9802,"-like":9803,"ĠEmb":9804,"Ġstepped":9805,"Ġpyramid":9806,"Gonna":9807,"hu":9808,"Ġgreet":9809,"herit":9810,"ĠMia":9811,"Ġsweep":9812,"Ġcritical":9813,"hoebe":9814,"ĠLo":9815,"Ġguitar":9816,"Ġkillers":9817,"Ġscound":9818,"Ġcontacts":9819,"Aunt":9820,"Nic":9821,"ĠIrish":9822,"ĠLost":9823,"ĠRos":9824,"Ġassholes":9825,"Ġcooperate":9826,"ĠKick":9827,"Ġwhereabouts":9828,"Tommy":9829,"Ġantib":9830,"Ġaffected":9831,"Ġbuttons":9832,"Currently":9833,"Ġrecovery":9834,"ĠThor":9835,"ĠSyndicate":9836,"ION":9837,"Ġace":9838,"ĠHo":9839,"ĠYOUR":9840,"Ġinfection":9841,"ĠFitz":9842,"-Ass":9843,"ĠGhost":9844,"ĠFed":9845,"Ġmetres":9846,"Ġbold":9847,"Ġfors":9848,"Ġmaker":9849,"ĠNaina":9850,"ORE":9851,"Ġforgiveness":9852,"ĠKings":9853,"Ġsignific":9854,"Ġmankind":9855,"ĠKadam":9856,"Saw":9857,"uni":9858,"verted":9859,"Mir":9860,"ĠGrey":9861,"ĠFaraday":9862,"Deal":9863,"Ġstones":9864,"ĠBoston":9865,"Ġclin":9866,"erminal":9867,"ĠMuslim":9868,"ĠFolder":9869,"Ġmothers":9870,"ological":9871,"Ġdelight":9872,"Write":9873,"ĠGO":9874,"Ġexplore":9875,"ounced":9876,"Ġirrit":9877,"Ġdespite":9878,"-man":9879,"good":9880,"Ġshine":9881,"Quit":9882,"ĠSpeak":9883,"Ġrising":9884,"Ġrecording":9885,"Ġfeeding":9886,"Ġbothering":9887,"errard":9888,"Ġblanket":9889,"Dou":9890,"Ġpoll":9891,"ĠTra":9892,"Ġplague":9893,"ĠKelly":9894,"Ġlockdown":9895,"ĠCarlos":9896,"ĠNagar":9897,"Ġlaundry":9898,"-Come":9899,"gage":9900,"Ġicon":9901,"Ġworker":9902,"ĠYep":9903,"Ġpatriots":9904,"ravind":9905,"renda":9906,"Ġconcentrate":9907,"Air":9908,"dam":9909,"lay":9910,"Young":9911,"ĠTrent":9912,"Ġembrace":9913,"Ġexplained":9914,"ĠGandalf":9915,"Figure":9916,"ĠDEA":9917,"Ġrelieve":9918,"Problem":9919,"Ġexperiments":9920,"Ġcrisis":9921,"'You":9922,"Compl":9923,"Ġpoetry":9924,"ĠBrook":9925,"Scott":9926,"Ġsticking":9927,"Ġcleaned":9928,"Interesting":9929,",what":9930,"oos":9931,"gi":9932,"Ġx":9933,"ibilities":9934,"Ġlabor":9935,"'Malley":9936,"wait":9937,"Ġwounds":9938,"Taking":9939,"Ġattacking":9940,"Holmes":9941,"ĠNell":9942,"Ġfellas":9943,"ĠRonnie":9944,"-N":9945,"Nina":9946,"ĠSher":9947,"ĠDem":9948,"ĠGame":9949,"Ġsongs":9950,"Knock":9951,"Tur":9952,"Ġbend":9953,"omali":9954,"iman":9955,"uments":9956,"Ġvast":9957,"ittee":9958,"Ġthroughout":9959,"Ġrelief":9960,"Ġpersonality":9961,"hs":9962,"enri":9963,"Ġeconom":9964,"Ġupd":9965,"ĠDON":9966,"Ġplates":9967,"rogen":9968,"Ġphotographs":9969,"ba":9970,"gic":9971,"aco":9972,"ĠSea":9973,"endar":9974,"ĠHay":9975,"ĠZoom":9976,"ĠBeans":9977,"Period":9978,"ousseau":9979,"ĠGaj":9980,"Ġfrank":9981,"Ġauto":9982,"Ġexperienced":9983,"Ġreception":9984,"ĠAugust":9985,"ĠHoly":9986,"ĠRiva":9987,"Replace":9988,"Ġbatteries":9989,"Ġindex":9990,"ĠTyler":9991,"Ġembarrassing":9992,"Ġsequence":9993,"ĠShephard":9994,"Vict":9995,"inger":9996,"Ġeager":9997,"Ġanx":9998,"ĠAli":9999,"Ġobst":10000,"Rohan":10001,"Ġreligion":10002,"Ġmr":10003,"ĠBee":10004,"Ġages":10005,"uding":10006,"Ġdiagn":10007,"Ġblessed":10008,"ĠWAS":10009,"Ġacts":10010,"Ġbasic":10011,"ĠReddy":10012,"Ġrebels":10013,"ĠSomebody":10014,"Power":10015,"mble":10016,"Ġenabled":10017,"Inside":10018,"ĠVen":10019,"Import":10020,"-mm":10021,"rm":10022,"Ġvent":10023,"ĠWant":10024,"Ġdisrespect":10025,"which":10026,"ĠSimran":10027,"Beat":10028,"Aarush":10029,"ewis":10030,"Ġstamp":10031,"ptimus":10032,"Ġcoff":10033,"irds":10034,"quarters":10035,"Annie":10036,"aige":10037,"shot":10038,"Ġsupported":10039,"Ġceiling":10040,"Ġdignity":10041,"Ġtoler":10042,"icia":10043,"Ġstash":10044,"ĠSanta":10045,"Ġjunior":10046,"Ġrhy":10047,"Inc":10048,"ĠVishal":10049,"Ġclimbing":10050,"Ġdragons":10051,"Ġsubconscious":10052,"Ġevey":10053,"ĠLine":10054,"ĠHaw":10055,"Ġprototy":10056,"lication":10057,"Ġreporting":10058,"Ġburst":10059,"Ġnegotiate":10060,"NE":10061,"Person":10062,"Ġthumb":10063,"Ġhorn":10064,"oyle":10065,"Ġexpose":10066,"Ġfastest":10067,"Ġwheels":10068,"Ġconsultant":10069,"Burn":10070,"PER":10071,"Ġbreed":10072,"Ġhelpful":10073,"Ġattach":10074,"Ġank":10075,"Ġje":10076,"...'":10077,"ĠGerrard":10078,"Ġscrap":10079,"Ste":10080,"Ġfled":10081,"Ġgrant":10082,"ĠLeon":10083,"ĠEnnis":10084,"Sweetheart":10085,"ubbish":10086,"Commander":10087,"Ġgraduation":10088,"Ġdemonst":10089,"ĠAnnunzio":10090,"two":10091,"ansas":10092,"à¶±à·Ĭ":10093,"Ġaccelerator":10094,"\"She":10095,"-oh":10096,"-what":10097,"Count":10098,"Ġtasty":10099,"ĠBoth":10100,"Ġinterface":10101,"attered":10102,"Ġbooked":10103,"Ġapologies":10104,"ĠLuca":10105,"Ġrepeated":10106,"Ġabandon":10107,"Ġstruggling":10108,"Loading":10109,"ography":10110,"Bas":10111,"Ġsock":10112,"Ġawk":10113,"Surely":10114,"-he":10115,"zer":10116,"Ġfits":10117,"ethe":10118,"ourage":10119,"Ġbitches":10120,"Question":10121,"Ġvaccine":10122,"IVE":10123,"uz":10124,"Ġped":10125,"Ġrender":10126,"entine":10127,"lessly":10128,"Ġrelation":10129,"Ġbanks":10130,"Wall":10131,"din":10132,"erves":10133,"Ġfond":10134,"Ġspit":10135,"Ġgranted":10136,"ologist":10137,"ĠDou":10138,"Ġexpen":10139,"**čĊ":10140,"Ġdupl":10141,"aves":10142,"rypton":10143,"through":10144,"Ġgolf":10145,"Ġinclude":10146,"ĠMurphy":10147,"\"...čĊ":10148,"Ġgathered":10149,"Ġintended":10150,"Ġimpr":10151,"Ġblamed":10152,"ivia":10153,"Ġraising":10154,"Ġcausing":10155,"vt":10156,"Ġsigning":10157,"Ġstates":10158,"Ġprick":10159,"Ġstuffed":10160,"Shake":10161,"Ġsacred":10162,"ĠBlu":10163,"Understood":10164,"Africa":10165,"Fix":10166,"Init":10167,"Ġunderstands":10168,"Ġcrushed":10169,"Ġaccomp":10170,"Ġfighter":10171,"Ġpressing":10172,"Whitney":10173,"Ġperfume":10174,"800":10175,"Ġaid":10176,"icity":10177,"Ġrisks":10178,"Ġstabbed":10179,"Ġelephant":10180,"Bec":10181,"XX":10182,"ĠIp":10183,"Ġenforcement":10184,"ushka":10185,"ĠAutobots":10186,"ĠEmbassy":10187,"Dist":10188,"Sn":10189,"Ġfiance":10190,"Ġinspect":10191,"Ġsoil":10192,"ĠEye":10193,"ubo":10194,"Ġburns":10195,"Ġspirits":10196,"Ja":10197,"Ġnarrow":10198,"ryn":10199,"ĠNaomi":10200,"Ġprank":10201,"Ġbusted":10202,"ximately":10203,"Ġske":10204,"oting":10205,"Ġoutbreak":10206,"Ġtransmit":10207,"ĠDoesn":10208,"orra":10209,"odd":10210,"udder":10211,"Ġsurprises":10212,"Ġautog":10213,"ĠKrishna":10214,"ĠCross":10215,"ĠPam":10216,"Ġbadge":10217,"ertainly":10218,"600":10219,"Ġalleg":10220,"Ġterrit":10221,"ĠSeven":10222,"Ġterritory":10223,"ĠMid":10224,"Ġbombing":10225,"Ġconcl":10226,"-it":10227,"Ġforgetting":10228,"Bra":10229,"ĠTina":10230,"ĠDallas":10231,"arantine":10232,"Tem":10233,"Junior":10234,"View":10235,"ĠVar":10236,"hair":10237,"Ġquestioning":10238,"escription":10239,"\"and":10240,"thi":10241,"Ġgettin":10242,"ĠNoah":10243,"Ġcharity":10244,"Ġscientific":10245,"Janet":10246,"open":10247,"ĠGene":10248,"Ġnoon":10249,"\"Why":10250,"Lower":10251,"Ġdull":10252,"utes":10253,"rike":10254,"Ġcance":10255,"osop":10256,"Ġarrog":10257,"Ġsounded":10258,"Ġsorts":10259,"Ġevacuation":10260,"DER":10261,"oak":10262,"ĠNardo":10263,"Ġscheduled":10264,"Ġinsisted":10265,"resa":10266,"avig":10267,"Ġdiscussion":10268,"Ġpractically":10269,"Ġfugitive":10270,"AC":10271,"flies":10272,"Ġaverage":10273,"Ġauction":10274,"ĠChamp":10275,"ĠAunt":10276,"Ġscre":10277,"Ġsignals":10278,"Ġcloset":10279,"Ġpressed":10280,"Ġcorrectly":10281,"hemat":10282,"uspicious":10283,"WOMAN":10284,"Ġfee":10285,"amani":10286,"Ġenhan":10287,"Ġhunger":10288,"Having":10289,"ĠSelvi":10290,"Ġfreighter":10291,"(c":10292,"Cancel":10293,"aah":10294,"lam":10295,"onacci":10296,"Ġhopes":10297,"Ġaffection":10298,"'!čĊ":10299,"Beck":10300,"onnect":10301,"Ġpenny":10302,"Ġcontroller":10303,"mist":10304,"Ġcollection":10305,"Fear":10306,"June":10307,"Rs":10308,"Sho":10309,"Wha":10310,"acter":10311,"Ġrehab":10312,"ĠSandy":10313,"Ġglitch":10314,"Ġparad":10315,"Ġsuitable":10316,"ĠDevi":10317,"ĠPlay":10318,"Ġworrying":10319,"Ġcolumn":10320,"Ġvillagers":10321,"Ġsalad":10322,"Awesome":10323,"Ġcompromise":10324,"ĠMarine":10325,"Ġbasket":10326,"ĠWol":10327,"Ġholds":10328,"-you":10329,"Brien":10330,"Ġunderestimate":10331,"ĠCommission":10332,"Ġfrightened":10333,"opsy":10334,"igan":10335,"ĠNO":10336,"Ġclaimed":10337,"Ġfavourite":10338,"eting":10339,"Ġbeep":10340,"eered":10341,"ĠCat":10342,"Ġric":10343,"ĠLing":10344,"Ġcrossing":10345,"Ġcatching":10346,"Ġimmort":10347,"Sk":10348,"Techn":10349,"Ġstare":10350,"quid":10351,"Ġcompete":10352,"Ġcoach":10353,"Reset":10354,"Ġlobby":10355,"JEM":10356,"ading":10357,"uster":10358,"ĠTracy":10359,"Ġmicro":10360,"ĠBetter":10361,"Ġprimary":10362,"Ġmiserable":10363,"Ġwithdraw":10364,"Ġtoys":10365,"orr":10366,"ĠCounty":10367,"ĠDoyle":10368,"ĠPitt":10369,"Ġvic":10370,"ĠEvan":10371,"Ġtermin":10372,"Ġapologise":10373,"Cou":10374,"bow":10375,"Ãł":10376,"Ġ)":10377,"Ġnort":10378,"usty":10379,"ĠShad":10380,"Text":10381,"ennis":10382,"Ġtoe":10383,"Ġnit":10384,"ĠCisco":10385,"abul":10386,"Ġdefin":10387,"Killing":10388,"Ġmethods":10389,"ĠOceanic":10390,"Ġpancakes":10391,"Bil":10392,"rating":10393,"Ð¾":10394,"ustom":10395,"Ġnothin":10396,"abama":10397,"ĠEggsy":10398,"aitlin":10399,"Ġseiz":10400,"ĠValley":10401,"Ġmarked":10402,"Ġcolour":10403,"ĠForget":10404,"Ahh":10405,"Ġwitnesses":10406,"Ġexecution":10407,"Ġchatter":10408,"Ġcheeks":10409,"etwork":10410,"istory":10411,"hibit":10412,"ĠAsgard":10413,"Ġadmire":10414,"Ġaggressive":10415,"Ð°":10416,"Ġrehe":10417,"ifies":10418,"east":10419,"unj":10420,"ĠKnow":10421,"ollar":10422,"Ġdisag":10423,"Ġadorable":10424,"Ġstudio":10425,"ĠMonkeys":10426,"Ġjammed":10427,"Ġgambling":10428,"Ġgro":10429,"ĠThose":10430,"proof":10431,"Ġcampaign":10432,"ĠLinus":10433,"Ġproduc":10434,"otton":10435,"Ġkicking":10436,"Ġpockets":10437,"Auto":10438,"asa":10439,"olve":10440,"Mac":10441,"Susan":10442,"Ġmaze":10443,"Brian":10444,"Ġauthent":10445,"ĠHolly":10446,"Ġarctic":10447,"Incoming":10448,"ĠWallace":10449,"'Brien":10450,"isle":10451,"Ġparan":10452,"owed":10453,"ĠDog":10454,"Ġripped":10455,"Ġatmosphere":10456,"Ġtorturing":10457,"ĠStevens":10458,"-O":10459,"Bar":10460,"rained":10461,"Ġavo":10462,"Sergeant":10463,"Ġauthorized":10464,"'.":10465,"Su":10466,"Ġwebs":10467,"rip":10468,"Ġspray":10469,"Ġpros":10470,"Ġsketch":10471,"Convert":10472,"Ġdollar":10473,"ĠMath":10474,"ooking":10475,"Ġmissiles":10476,"Ġjoint":10477,"Ġrepro":10478,"ĠCenter":10479,"Consider":10480,"Ġï¬ģ":10481,"born":10482,"tail":10483,"Ġpistol":10484,"Ġstream":10485,"ĠRango":10486,"ĠJennifer":10487,"Ġmini":10488,"Ġtrauma":10489,"ĠPeeta":10490,"Ġbunker":10491,"Jay":10492,"itated":10493,"oogle":10494,"orthy":10495,"ugin":10496,"Ġasses":10497,"Ġconfl":10498,"Finish":10499,"rella":10500,"bble":10501,"Ġknots":10502,"ĠShen":10503,"raight":10504,"Ġlovers":10505,"rett":10506,"Ġcounts":10507,"Explain":10508,"-senpai":10509,"Ġapprove":10510,"Ġappearance":10511,"Fleur":10512,"Hy":10513,"Ġpussy":10514,"Ġinjustice":10515,"ĠSant":10516,"auser":10517,"Ġtraced":10518,"Marudheera":10519,"'The":10520,"hm":10521,"Ġgorgeous":10522,"Ġdonkey":10523,"Ġenvel":10524,"ĠNote":10525,"arrish":10526,"Ġsuitcase":10527,"ĠGotham":10528,"Ġannouncement":10529,"Ġenvelope":10530,"-gr":10531,"Ver":10532,"icip":10533,"ĠLog":10534,"Ġrestricted":10535,"Ġtestify":10536,"oudhary":10537,"ĠType":10538,"Ramona":10539,"Ġvulner":10540,"opard":10541,"elled":10542,"Ġsoap":10543,"ĠBal":10544,"ĠKenny":10545,"Apple":10546,"-And":10547,"Cho":10548,"ige":10549,"ĠSana":10550,"Click":10551,"Ġcovering":10552,"rillic":10553,"Report":10554,"Definitely":10555,"Ġantibiot":10556,"Ġwig":10557,"emet":10558,"inction":10559,"ĠBeat":10560,"ĠKel":10561,"ĠReal":10562,"perties":10563,"Ġunion":10564,"aska":10565,"Ġdestroying":10566,"ISH":10567,"Ġwont":10568,"Ġupper":10569,"Ġfog":10570,"Ġnic":10571,"Press":10572,"Ġsire":10573,"aman":10574,"ĠHam":10575,"Coll":10576,"rary":10577,"atitude":10578,"Ġjur":10579,"ifting":10580,"ĠBil":10581,"Ġrul":10582,"Ġalike":10583,"-Where":10584,"ACK":10585,"gro":10586,"erre":10587,"ĠHaven":10588,"ĠOlymp":10589,"Ġvalid":10590,"Ġ..?čĊ":10591,"Ġcomputers":10592,"ĠMarty":10593,"Ġemployer":10594,"Ġmerely":10595,"Ġinterrogation":10596,"OHN":10597,"-Okay":10598,"ban":10599,"ammy":10600,"Ġchampion":10601,"Victoria":10602,"Pleasure":10603,"bear":10604,"Ġsust":10605,"Ġlip":10606,"Ġrascal":10607,"Sold":10608,"Order":10609,"Ġprojects":10610,"Ġbasis":10611,"Ġtelephone":10612,"Ġestate":10613,"Ġtradition":10614,"\"In":10615,"DOU":10616,"Ġln":10617,"asses":10618,"ĠVill":10619,"Ġmadness":10620,"Ġcivilians":10621,"ĠRoyal":10622,"ĠJoseph":10623,"Alp":10624,"Night":10625,"ĠCho":10626,"ĠLarry":10627,"ĠRiya":10628,"Ġpengu":10629,"Ġfreaked":10630,"Ġsatellites":10631,"Ġtroubles":10632,"Ġempire":10633,"Ġallergic":10634,"Win":10635,"fold":10636,"pot":10637,"una":10638,"inker":10639,"ĠPR":10640,"athryn":10641,"Ġdiscover":10642,"Boom":10643,"oured":10644,"Ġsources":10645,"onies":10646,"Ġmast":10647,"Ġbarn":10648,"Ġdeeply":10649,"ĠFibonacci":10650,"oons":10651,"Ġnicely":10652,"Ġevolution":10653,"press":10654,"ĠTrevor":10655,"Ġargu":10656,"Through":10657,"Ġdirections":10658,"Ġtanks":10659,"Sudden":10660,"edge":10661,"esse":10662,"ĠWeb":10663,"Ġfulfilled":10664,"emetery":10665,"ĠYash":10666,"Ġcreative":10667,"ĠCur":10668,"Ġconsent":10669,"Ġinstincts":10670,"ĠCut":10671,"Ġque":10672,"Ġlarger":10673,"Ġwaking":10674,"ĠAlfred":10675,"ĠDomin":10676,"ĠLewis":10677,"pencer":10678,"Ġculture":10679,"Ġpiano":10680,"VD":10681,"znik":10682,"otch":10683,"ĠJar":10684,"Ġhandling":10685,"Ins":10686,"Ġtrains":10687,"Ġcounty":10688,"Ġwrapped":10689,"ĠPindaris":10690,"Ġanonymous":10691,"Kids":10692,"Lots":10693,"amas":10694,"ĠHospital":10695,"Ġpacking":10696,"iami":10697,"Ġprayer":10698,"ĠMandira":10699,"ĠCongress":10700,"ĠIris":10701,"Ġnick":10702,"Ġcontest":10703,"ĠScreen":10704,"ĠFran":10705,"Ġburden":10706,"ĠRoad":10707,"ĠQuick":10708,"Ġprovided":10709,"Ġwidth":10710,"ĠSpirit":10711,"Main":10712,"Mummy":10713,"UL":10714,"ilizer":10715,"estruct":10716,"ĠRessler":10717,"Ġpolar":10718,"Ġinvestment":10719,"Ġbastards":10720,"Ġadmitted":10721,"elujah":10722,"Azhar":10723,"Bless":10724,"card":10725,"Ġavenge":10726,"Ġphase":10727,"Ġrein":10728,"ĠWednesday":10729,"ogi":10730,"Display":10731,"Ġawkward":10732,"Shar":10733,"Ġgoon":10734,"ĠLeland":10735,"ĠKe":10736,"Ġscaring":10737,"rypted":10738,"ĠPeterson":10739,"Ġslightly":10740,"ĠBangkok":10741,",the":10742,"ii":10743,"uine":10744,"walk":10745,"erved":10746,"Ġcad":10747,"Ġpitch":10748,"Ġthunder":10749,"aling":10750,"Ġrite":10751,"ected":10752,"Ġcommands":10753,"ĠMP":10754,"ĠTown":10755,"à¶º":10756,"ĠRajat":10757,"Ġnotebook":10758,"Ġdug":10759,"-bl":10760,"Ġnaturally":10761,"inguini":10762,"ĠBrooklyn":10763,"Krish":10764,"Roll":10765,"Ġfreeze":10766,"Ġvows":10767,"ĠStat":10768,"ifications":10769,"Ġcommunications":10770,"ĠDecept":10771,"rise":10772,"sers":10773,"wat":10774,"ĠMA":10775,"Ġhandled":10776,"rase":10777,"hattan":10778,"Ġrod":10779,"Ġpoem":10780,"Ġbrut":10781,"Ġpoliticians":10782,"-Why":10783,"assador":10784,"Ġfatal":10785,"Ġconsciousness":10786,"ĠGraiman":10787,"Ġtravelling":10788,"During":10789,"Ġwizard":10790,"Ġdiet":10791,"Ġvampires":10792,"Ġfinancial":10793,"Europe":10794,"Path":10795,"ĠChris":10796,"Ġinches":10797,"Ġdestination":10798,"Mean":10799,"ĠShah":10800,"Into":10801,"Ġves":10802,"Ġah":10803,"onia":10804,"ĠCongratulations":10805,"ĠPit":10806,"Ġproduce":10807,"ĠUday":10808,"Ġconfusing":10809,"Ġvessel":10810,"%.čĊ":10811,"Sens":10812,"Ġcong":10813,"amar":10814,"Ġinstance":10815,"ĠEvos":10816,"Shannon":10817,"Hide":10818,"ĠMountain":10819,"ĠToday":10820,"ĠBreak":10821,"ĠWOOD":10822,"Ġleaf":10823,"ĠUP":10824,"Ġdecept":10825,"Ġuniversity":10826,"Ġcigarettes":10827,"Ġcorrupted":10828,"Emm":10829,"Ġmour":10830,"Ġtheatre":10831,"ĠTA":10832,"Ġdaylight":10833,"ggs":10834,"Ġpays":10835,"Ġspecified":10836,"ĠBaba":10837,"ĠActually":10838,"Fast":10839,"Ġstable":10840,"ĠThan":10841,"ĠBhai":10842,"Ġresidence":10843,"ĠRebecca":10844,"irmary":10845,"Team":10846,"ĠBabu":10847,"Ġbugs":10848,"ĠRenautas":10849,"anded":10850,"ĠRio":10851,"ĠBrad":10852,"Negative":10853,"Ġtempt":10854,"Ġprepar":10855,"ĠKhanna":10856,"Ġprotocols":10857,"\"They":10858,"Gold":10859,"iders":10860,"ĠMag":10861,"ĠLaura":10862,"ĠFord":10863,"Ġproxy":10864,"Ġoverw":10865,"Ġlimited":10866,"bridge":10867,"Ġdoub":10868,"Ġlessons":10869,"Ġtrucks":10870,"Ġcracked":10871,"Ġmagical":10872,"Ġcartel":10873,"Ġproposed":10874,"Ġaccomplice":10875,"Ġdreamed":10876,"Ġiz":10877,"Ġsack":10878,"Ġmart":10879,"Ġretrieve":10880,"Ġtiss":10881,"ĠMist":10882,"ĠDeon":10883,"Moriarty":10884,"Ġestablish":10885,"-be":10886,"Ġpity":10887,"ulator":10888,"elson":10889,"Ġdrew":10890,"esy":10891,"aleb":10892,"Ġsins":10893,"ĠBad":10894,"Ġengage":10895,"Ġreturns":10896,"Ġregion":10897,"Smart":10898,"ĠCarver":10899,"Ġmall":10900,"Andy":10901,"ĠOriginal":10902,"Ġvodka":10903,"Ġresource":10904,"ĠBaggins":10905,"ĠFort":10906,"Ġcouch":10907,"Ġclasses":10908,"ĠGuess":10909,"Ġobjects":10910,"Ġpursuit":10911,"ĠIntelligence":10912,"Ġmaiden":10913,"-Thank":10914,"Bon":10915,"want":10916,"Ġcongratulations":10917,"Ġhaunt":10918,"achi":10919,"ĠPower":10920,"Ġslipp":10921,"Ġsetup":10922,"Ġeats":10923,"à¶ļ":10924,"ĠPrinc":10925,"dessa":10926,"akshmi":10927,"ĠDead":10928,"ĠWITH":10929,"onsider":10930,"ivan":10931,"ĠBrown":10932,"rican":10933,"Maya":10934,"Ġsuspected":10935,"Ġcontained":10936,"ĠRayna":10937,"ĠFrost":10938,"Ġhammer":10939,"Liesel":10940,"Mult":10941,"Ã¾":10942,"Ġbreeze":10943,"Ġniece":10944,"ĠGold":10945,"ĠWon":10946,"ĠHan":10947,"ĠHun":10948,"ocal":10949,"Ġrepay":10950,"ĠShall":10951,"Ġfears":10952,"Ġcenturies":10953,"Ġbothered":10954,"Ġwisdom":10955,"DOUG":10956,"Pardon":10957,"echa":10958,"ĠAmm":10959,"Ġcricket":10960,"arlet":10961,"alsh":10962,"Ġballoon":10963,"screen":10964,"Ġmercen":10965,"Speaking":10966,"Ellis":10967,"mpt":10968,"Ġdismiss":10969,"ĠIniti":10970,"Ġconfidential":10971,"Ġoblig":10972,"Ġsacrificed":10973,"\".":10974,"racy":10975,"Ġbachel":10976,"erate":10977,"imme":10978,"ĠWitch":10979,"ulating":10980,"ĠOx":10981,"Ġacid":10982,"Ġjokes":10983,"Ġtribe":10984,"Ġforens":10985,"Tracy":10986,"Ġstrongly":10987,"Ġpresentation":10988,"Debugger":10989,"CA":10990,"ĠFra":10991,"Ġtalkin":10992,"Ġyelling":10993,"Ġfoundation":10994,"Ġapology":10995,"65":10996,"Much":10997,"hell":10998,"ĠCobb":10999,"ĠPen":11000,"ĠGoines":11001,"Ġacted":11002,"Ġreceiving":11003,"Ġstatue":11004,"Ġovernight":11005,"ĠEuropean":11006,"Ġsuggesting":11007,"Ġdivision":11008,"Ag":11009,"mund":11010,"Ġhumor":11011,"ĠMaria":11012,"Ġtechni":11013,"haana":11014,"Ġslipper":11015,"ouncil":11016,"Fish":11017,"Human":11018,"love":11019,"lines":11020,"path":11021,"cknow":11022,"ulty":11023,"ĠGenius":11024,"Ġsanct":11025,"Hum":11026,"Mum":11027,"Vir":11028,"Ġbay":11029,"Ġdun":11030,"Ġincome":11031,"ĠNate":11032,"ĠEnder":11033,"ĠWhoo":11034,"Ġlecture":11035,"Few":11036,"Near":11037,"ĠPretty":11038,"Ġconfessed":11039,"ĠGovt":11040,"ĠOrb":11041,"Ġvirgin":11042,"Indeed":11043,"Hence":11044,"Later":11045,"ington":11046,"Ġabort":11047,"ĠNev":11048,"Ġextinct":11049,"Ġprophe":11050,"Spl":11051,"Ġbrake":11052,"Ġresign":11053,"Ġinfo":11054,"Ġambush":11055,"Type":11056,"ĠGandhi":11057,"Ġpulse":11058,"uits":11059,"ece":11060,"Ġdemands":11061,"valid":11062,"-P":11063,"cuts":11064,"Ġlust":11065,"Ġharvest":11066,"ĠAlison":11067,"Ġarriving":11068,"Ġbottles":11069,"Turns":11070,"Ġvarious":11071,"Ġpeanut":11072,"\"There":11073,"MS":11074,"Ġobey":11075,"holic":11076,"ĠAM":11077,"Ġneedle":11078,"rete":11079,"Ġgenuine":11080,"Special":11081,"Ġsuggestion":11082,"ĠSara":11083,"Edward":11084,"ghanistan":11085,"Hear":11086,"Ġmayor":11087,"Ġterrific":11088,"Ġhandc":11089,"ĠOnce":11090,"Ġattempted":11091,"Ġancest":11092,"Ġfantasy":11093,"Ġeducated":11094,"Mand":11095,"jee":11096,"tty":11097,"Ġwarden":11098,"ĠScoo":11099,"Ġprograms":11100,"Ġdisguise":11101,"Dylan":11102,"lets":11103,"Ġren":11104,"Ġfilling":11105,"White":11106,"uccess":11107,"Ġteachers":11108,"Remind":11109,"bon":11110,"Ġabilities":11111,"Eventually":11112,"olloway":11113,"ĠCollins":11114,"Ġflooded":11115,"Book":11116,"burn":11117,"Ġlaughter":11118,"Ġveins":11119,"Ġgrows":11120,"ĠSebastian":11121,"Fitz":11122,"GR":11123,"Options":11124,"ĠSince":11125,"ĠKale":11126,"ĠStan":11127,"ĠArrow":11128,"Ġtreason":11129,"Ġwandering":11130,"Ġphilosop":11131,"Da":11132,"Squ":11133,"ishop":11134,"Ġkung":11135,"adav":11136,"ĠCount":11137,"inkle":11138,"ĠGardner":11139,"Ġrookie":11140,"ĠFree":11141,"ĠThea":11142,"Already":11143,"ĠTHIS":11144,"leton":11145,"Ġcanceled":11146,"Ġnative":11147,"acement":11148,"ĠCEO":11149,"Ġmanner":11150,"akam":11151,"Ġhacked":11152,"ĠParker":11153,"Ġprototype":11154,"inth":11155,"ĠDist":11156,"ĠPapi":11157,"Staff":11158,"Ġcrashing":11159,"Ġphysics":11160,"Radhe":11161,"Corp":11162,"amilton":11163,"Ġpuzzle":11164,"ĠPurcell":11165,"ĠCastle":11166,"Barb":11167,"Fool":11168,"Ġpile":11169,"arc":11170,"utral":11171,"obile":11172,"Ġassets":11173,"Ġmarch":11174,"Ġconfront":11175,"Truth":11176,"Ġcollector":11177,"ĠAcademy":11178,"ĠHAVE":11179,"\"All":11180,"etal":11181,"ĠMister":11182,"ĠBi":11183,"ĠCanad":11184,"aaa":11185,"Ġdumped":11186,"Ġcollapse":11187,"Periods":11188,"'..":11189,",and":11190,"Ġdummy":11191,"Ġasse":11192,"ĠBane":11193,"ulture":11194,"Ġbrakes":11195,"Ġvey":11196,"ĠBeera":11197,"Ġhistor":11198,"Ġjumping":11199,"Ġsenses":11200,"Ġincredibly":11201,"ancelot":11202,"Bullshit":11203,"\"S":11204,"uous":11205,"Ġsau":11206,"eaux":11207,"Ġexcuses":11208,"Ġdeserved":11209,"Ġcorporate":11210,"Ġpowder":11211,"Immy":11212,"pple":11213,"renouille":11214,"Ġreasonable":11215,"à¶ľ":11216,"Ġidentification":11217,"Ġtechnical":11218,"Ġillusion":11219,"Sat":11220,"ĠMem":11221,"ores":11222,"nthia":11223,"Ġscum":11224,"Ġflip":11225,"Ġsends":11226,"Ġtrig":11227,"Ġclimate":11228,"ĠPrivate":11229,"Ġexception":11230,"Devi":11231,"Ġbowl":11232,"Children":11233,"Cassie":11234,"entinel":11235,"Ġscrat":11236,"Exec":11237,"Ġlod":11238,"Ġvisitor":11239,"Ġhan":11240,"Ġdisturbing":11241,"ificent":11242,"Ġassociated":11243,"ository":11244,"Ġparanoid":11245,"Ġgross":11246,"imize":11247,"Ġblessings":11248,"uating":11249,"Ġhab":11250,"ĠRod":11251,"Ġclosely":11252,"Ġlegit":11253,"ĠQuant":11254,"Ġtres":11255,"Ġinvasion":11256,"Ġlawn":11257,"Ġflights":11258,"ĠHartley":11259,"Fifty":11260,"Ġunfortunately":11261,"Ġhoriz":11262,"Ġmutants":11263,"ĠFacebook":11264,"Value":11265,"ĠWindows":11266,"ixt":11267,"ented":11268,"ĠBall":11269,"Ġhonored":11270,"Ġtargeting":11271,"Ġtroubled":11272,"Ġexecuted":11273,"Ġaltered":11274,"-Man":11275,"Dar":11276,"Ġcin":11277,"ĠShoot":11278,"ema":11279,"Ġscoot":11280,"ternal":11281,"Ġvolume":11282,"spiration":11283,"ursday":11284,"ategory":11285,"Ġscoundrel":11286,"Earth":11287,"aac":11288,"Ġtone":11289,"Ġwicked":11290,"erd":11291,"Ġthirty":11292,"hers":11293,"ĠHamilton":11294,"hias":11295,"Note":11296,"Inspector":11297,"Ġdealt":11298,"atthias":11299,"Ġaward":11300,"ĠSanjana":11301,"Ġdistracted":11302,"Vasu":11303,",you":11304,"41":11305,"Dave":11306,"Form":11307,"MAR":11308,"ĠBull":11309,"Ġsaf":11310,"Ġvow":11311,"Ġclassic":11312,"ĠONE":11313,"Couple":11314,"ĠWOODS":11315,"lal":11316,"lings":11317,"ĠAC":11318,"ĠBond":11319,"ĠWake":11320,"ĠJa":11321,"Ġpassenger":11322,"Ġgrounds":11323,"Connect":11324,"ippy":11325,"Ġrejected":11326,"ĠLibby":11327,"Ġ==čĊ":11328,"Ġglobe":11329,"Suddenly":11330,"Irene":11331,"vise":11332,"inue":11333,"Ġbunny":11334,"Ġpac":11335,"ersion":11336,"Ġcru":11337,"Ġpole":11338,"Ġglory":11339,"Ġfails":11340,"Ġapproximately":11341,"Sweetie":11342,"Freddy":11343,"Rose":11344,"viet":11345,"Ġweigh":11346,"Ġji":11347,"Ġproven":11348,"ĠKar":11349,"ĠIsabel":11350,"ĠNews":11351,"Ġdoubts":11352,"Ġsexual":11353,"Ġsamurai":11354,"ĠSk":11355,"alling":11356,"ĠCode":11357,"ĠGoddess":11358,"Within":11359,"Ġtabs":11360,"Ġcoconut":11361,"ĠAP":11362,"three":11363,"ĠJackie":11364,"Ġbul":11365,"Ġshowers":11366,"ĠNicholas":11367,"ierce":11368,"ĠRickman":11369,"-four":11370,"Ġvig":11371,"ĠInformation":11372,"Ġexams":11373,"ockingjay":11374,"rina":11375,"ĠWonder":11376,"ĠPa":11377,"ĠRom":11378,"ressing":11379,"Ġelements":11380,"pol":11381,"Ġlangu":11382,"ustle":11383,"uns":11384,"Ġowned":11385,"Ġtorn":11386,"Eddie":11387,"Ġbounty":11388,"Ġfaced":11389,"Ġweep":11390,"Ġradius":11391,"works":11392,"ĠWhit":11393,"ĠPittman":11394,"ĠMum":11395,"ĠCAN":11396,"ĠTa":11397,"usions":11398,"Ġadapt":11399,"Ġelsewhere":11400,"azaki":11401,"Ġinterfe":11402,"Desmond":11403,"iyazaki":11404,"ĠSummit":11405,"nolds":11406,"fia":11407,"Ġtack":11408,"Ġinha":11409,"Ġinject":11410,"rod":11411,"ĠSid":11412,"ĠBible":11413,"Ġappropriate":11414,"ruzz":11415,"Ġresident":11416,"Ġetc":11417,"ruzzi":11418,"\"How":11419,"Ġtire":11420,"Ġfo":11421,"eele":11422,"quila":11423,"ĠSteele":11424,"Ġiwill":11425,"Ġvisible":11426,"Chinese":11427,"Ġkissing":11428,"Ġhostiles":11429,"Ġirre":11430,"Ġcustomers":11431,"Color":11432,"Ġgrip":11433,"Ġelephants":11434,"Total":11435,"Ġmammoth":11436,"-uh":11437,"Ġtide":11438,"Ġduck":11439,"anqu":11440,"term":11441,"ĠLuke":11442,"Ġprosec":11443,"ortez":11444,"Ġschol":11445,"ĠBruno":11446,"Ġsnatch":11447,"Ġhonesty":11448,"ĠAbhay":11449,"ĠShark":11450,"ĠNormal":11451,"Ġgreedy":11452,"Ġindependent":11453,"-Get":11454,"Bur":11455,"omuk":11456,"kel":11457,"gered":11458,"ĠWalsh":11459,"epomuk":11460,"Ġowners":11461,"Ġvisitors":11462,"ĠHarvey":11463,"Ġparticip":11464,"ĠBackground":11465,"Ġwhack":11466,"Protect":11467,"bie":11468,"Ġape":11469,"Ġwoo":11470,"Ġpound":11471,"ells":11472,"odor":11473,"ested":11474,"ĠJava":11475,"ĠYo":11476,"ĠAsk":11477,"Ġelectrical":11478,"Repeat":11479,"Ġrumors":11480,"ĠPearl":11481,"Ġtheft":11482,"isode":11483,"vez":11484,"aiy":11485,"LIN":11486,"Ġalliance":11487,"Ġloses":11488,"ĠWin":11489,"Ġintr":11490,"Ġwinds":11491,"ĠBeach":11492,"ĠViktor":11493,"Live":11494,"iable":11495,"Ġpod":11496,"Ġseed":11497,"Ġregarding":11498,"adshaw":11499,"Ġintentions":11500,"-Who":11501,"Kalpana":11502,"Ġtips":11503,"idy":11504,"adays":11505,"Ġreform":11506,"obs":11507,"Ġminimum":11508,"ĠSuperman":11509,"Ġwires":11510,"orp":11511,"ĠLinguini":11512,"lands":11513,"udheer":11514,"Font":11515,"ĠÐ":11516,"Ge":11517,"Ġsuite":11518,"ĠHarrison":11519,"61":11520,"Sort":11521,"HANK":11522,"ĠâĢ":11523,"ĠAnthony":11524,"sk":11525,"ĠRiley":11526,"Ġfollows":11527,"ĠInst":11528,"Ġtopic":11529,"Elizabeth":11530,"Ġstored":11531,"Ġproduction":11532,"Ġflavor":11533,"ĠCorpor":11534,"ĠNorman":11535,"\"P":11536,"Ġtons":11537,"heim":11538,"Ġpra":11539,"Ġdoomed":11540,"ĠLI":11541,"uli":11542,"Ġsurprising":11543,"Ġlabel":11544,"Owen":11545,"Ġpreferred":11546,"ĠGeorgia":11547,"jju":11548,"Ġpunk":11549,"ĠGreetings":11550,"asey":11551,"Ġunarmed":11552,"Ġmeets":11553,"ĠYas":11554,"Ġemail":11555,"Ġdefined":11556,"-looking":11557,"brother":11558,"Ġreply":11559,"Ġvolcan":11560,"ĠJimmy":11561,"gor":11562,"iber":11563,"Ġtube":11564,"Ġpardon":11565,"Ġpeaceful":11566,"Ġneighbors":11567,"-handed":11568,"-ray":11569,"Carly":11570,"Gas":11571,"gas":11572,"Ġna":11573,"oto":11574,"Ġareas":11575,"Ġhereby":11576,"ĠTang":11577,"ĠStorm":11578,"Ġheadache":11579,"Ġtragic":11580,"Ġshops":11581,"Ġdiscovery":11582,"Ġparaly":11583,"Ġknocking":11584,"Hasn":11585,"Ġaccomplish":11586,"Wonderful":11587,"Ġbrowser":11588,"Ġremarkable":11589,"gat":11590,"Ġgap":11591,"ilot":11592,"Ġfucker":11593,"Brand":11594,"chers":11595,"Custom":11596,"Die":11597,"aver":11598,"bou":11599,"rees":11600,"Ġfuse":11601,"Ġanten":11602,"ĠPK":11603,"about":11604,"ĠEarl":11605,"ionship":11606,"ccer":11607,"Ġdigital":11608,"Ġphysic":11609,"ĠMatthew":11610,"Ġutter":11611,"ĠInitiative":11612,"Hor":11613,"uja":11614,"wr":11615,"Ġcough":11616,"Ġforms":11617,"ĠSearch":11618,"Ġjeep":11619,"Ġseeking":11620,"ĠFab":11621,"Ġcontents":11622,"ĠDover":11623,"Ġlocations":11624,"ĠQuiet":11625,"Ġvulnerable":11626,"Sel":11627,"Women":11628,"las":11629,"Ġcri":11630,"Ġforthe":11631,"Ġdeals":11632,"OUGH":11633,"Arthur":11634,"Ġlimb":11635,"Ġsnakes":11636,"Ġreligious":11637,".K":11638,"Erik":11639,"Word":11640,"Ġtherm":11641,"Ġbacks":11642,"Screw":11643,"Ġfru":11644,"ĠKeeper":11645,"'D":11646,"ĠAdd":11647,"ĠMeera":11648,"Ġdisorder":11649,"Script":11650,"Ġheh":11651,"----":11652,"Ġtits":11653,"FR":11654,"Ġmanagement":11655,"Ġpromoted":11656,"Dory":11657,"Und":11658,"Ġjin":11659,"ĠKab":11660,"Ġgratitude":11661,"ĠPrison":11662,"-H":11663,"-But":11664,"Ġfurn":11665,"Ġpor":11666,"ĠDub":11667,"ĠLeah":11668,"Raju":11669,"ĠALL":11670,"arrison":11671,"Ġdiamond":11672,"Ġetern":11673,"WE":11674,"Ġgently":11675,"ament":11676,"ĠMiami":11677,"ĠRan":11678,"umed":11679,"ousy":11680,"ĠStein":11681,"Ġassess":11682,"bras":11683,"ĠReznik":11684,"ĠArmaan":11685,"ĠMarines":11686,"Ġrisky":11687,"ĠAnyone":11688,"Ġobsession":11689,"Ġspreading":11690,"Ġcreepy":11691,"Ġchemicals":11692,"ĠFrodo":11693,"\"As":11694,"GP":11695,"Sant":11696,"Ġwives":11697,"Ġgam":11698,"otes":11699,"arms":11700,"Ġbean":11701,"Ġfathers":11702,"Ġdisable":11703,"Ġelope":11704,"Ġshotgun":11705,"Ġdiab":11706,"ĠSparrow":11707,"Ġboarding":11708,"Ġassuming":11709,"Ġrecommended":11710,"Due":11711,"Ġbark":11712,"ilize":11713,"ĠLily":11714,"ĠLucky":11715,"ĠNandini":11716,"Ġcarries":11717,"ĠTheme":11718,"Somehow":11719,"heads":11720,"Ġsubmarine":11721,"Ġindicate":11722,"Ġerased":11723,"scar":11724,"Ġattractive":11725,"Ġnightmares":11726,"BM":11727,"Velayudham":11728,"ipt":11729,"Ġwagon":11730,"Ġmig":11731,"Ġrubbish":11732,"ĠUs":11733,"heson":11734,"senia":11735,"Return":11736,"ĠOctober":11737,"Ġclinic":11738,"-Are":11739,"31":11740,"fly":11741,"ĠDory":11742,"ĠLeague":11743,"obra":11744,"Ġglove":11745,"Ġincomplete":11746,"Ġpsychiat":11747,"Ġdomain":11748,"-head":11749,"Face":11750,"po":11751,"uv":11752,"Ġcaution":11753,"uter":11754,"ĠChat":11755,"ferent":11756,"obbs":11757,"Justin":11758,"avan":11759,"Ġsubst":11760,"Ġbarrier":11761,"Ġfrequency":11762,"-Don":11763,"zil":11764,"ĠIce":11765,"Ġpeak":11766,"Ġreass":11767,"Ġquote":11768,"Ġaccent":11769,"Erica":11770,"alloween":11771,"Ġcontrolled":11772,"Ġdetermined":11773,"Genius":11774,"Dinner":11775,"die":11776,"ĠBanks":11777,"Ġmansion":11778,"Ġchains":11779,"espite":11780,"ĠMarshal":11781,"Ġmac":11782,"Ġnod":11783,"ĠDent":11784,"Ġrunway":11785,"Ġcats":11786,"acel":11787,"ameters":11788,"Ġridd":11789,"Ġbracel":11790,"Ġrivers":11791,"Ġdispatch":11792,"wide":11793,"Ġconstant":11794,"Cyrillic":11795,"ĠBennet":11796,"ĠKrypton":11797,"Ġmonkeys":11798,"trl":11799,"\"Dear":11800,"-go":11801,"Action":11802,"istant":11803,"\"If":11804,"VS":11805,"tes":11806,"ecor":11807,"ĠFeb":11808,"Ġshaft":11809,"Ġdressing":11810,"BA":11811,"Uday":11812,"ĠCom":11813,"Steal":11814,"Ġsworn":11815,"ancing":11816,"ĠBenji":11817,"Ġperformed":11818,"-Let":11819,"Ġhem":11820,"eagues":11821,"Ġharsh":11822,"Ġdriven":11823,"Ġfarmer":11824,"Ġcollar":11825,"Ġcolleagues":11826,"Ġbuddies":11827,"Ġcontinued":11828,"ĠColor":11829,"www":11830,"-K":11831,"KELL":11832,"ĠDrop":11833,"ĠPont":11834,"Blow":11835,"gnore":11836,"scape":11837,"ĠPhill":11838,"Ġtrespass":11839,"Eggsy":11840,"vous":11841,"Ġcried":11842,"ĠGre":11843,"Ġnovel":11844,"ests":11845,"rency":11846,"Ġroommate":11847,"Ġschools":11848,"196":11849,"Ġmarrying":11850,"Ġcollecting":11851,"Ġinjuries":11852,"Ġconvenient":11853,"Ġphen":11854,"Ġreun":11855,"ĠSU":11856,"ĠMer":11857,"Ġsoda":11858,"Doing":11859,"Ġarrow":11860,"ĠYadav":11861,"IST":11862,"Ġpanel":11863,"Ġspecifically":11864,"Ġultimate":11865,"ĠDivision":11866,"Ġinspired":11867,"Ġheavily":11868,"Pop":11869,"thank":11870,"wire":11871,"omber":11872,"ĠBuild":11873,"ĠGain":11874,"earn":11875,"ĠNora":11876,"Ġmeta":11877,"Ġrestore":11878,"Ġspeaker":11879,"Ġcircus":11880,"ELLA":11881,"ĠDorian":11882,"Default":11883,"ĠDeputy":11884,"ĠClear":11885,"ipline":11886,"instein":11887,"Ġexclusive":11888,"\"Hey":11889,"Wid":11890,"nies":11891,"wh":11892,"idel":11893,"alo":11894,"Ġupgr":11895,"ĠTanya":11896,"olph":11897,"Ġspite":11898,"Ġseated":11899,"Ġhandful":11900,"ĠStew":11901,"Ġcoin":11902,"Ġsimpl":11903,"Ġregard":11904,"Ġarts":11905,"tte":11906,"Ġinfirmary":11907,"check":11908,"Ġcounsel":11909,"ĠFrancis":11910,"ĠTelugu":11911,"atalie":11912,"\"!čĊ":11913,"sch":11914,"alty":11915,"Ġgoat":11916,"ĠCatch":11917,"child":11918,"ĠBrah":11919,"ĠPand":11920,"Docum":11921,"Strange":11922,"anga":11923,"Ġminor":11924,"Ġterr":11925,"Ġsurviving":11926,"ĠMann":11927,"ĠMartha":11928,"Ġsharks":11929,"Ġsatisfied":11930,"Ġchapter":11931,"ĠÂ¶čĊ":11932,"-mmm":11933,"Ġinbound":11934,"ĠVis":11935,"Ġsonar":11936,"Ġarticle":11937,"Ġsubjects":11938,"ĠAW":11939,"igo":11940,"ĠHari":11941,"ĠEmp":11942,"Ġenqu":11943,"Ġgranny":11944,"Ġfires":11945,"ĠSoviet":11946,"Ġorganize":11947,"Certainly":11948,"Ghost":11949,"_Install":11950,"ĠCreat":11951,"-Just":11952,"Ġfig":11953,"oute":11954,"rov":11955,"Ġrestra":11956,"Ġstir":11957,"ĠBureau":11958,"Ġrans":11959,"Ġimmune":11960,"ĠHannah":11961,"Ġslit":11962,"ername":11963,"Ġinvestigating":11964,"Ġprincipal":11965,"ĠItalian":11966,"Ġmutant":11967,"ĠWing":11968,"Alone":11969,"Ġparl":11970,"essa":11971,"Ġautopsy":11972,"ĠVethal":11973,"UGHS":11974,"Ġsheet":11975,"Ġseeds":11976,"ĠJeff":11977,"ĠReynolds":11978,"Ġtoxic":11979,"Earl":11980,"Laura":11981,"woman":11982,"omal":11983,"Ġweed":11984,"Ġrend":11985,"ĠIndust":11986,"Ġcreation":11987,"Ġprosper":11988,"Doug":11989,"East":11990,"Ġrancho":11991,"olm":11992,"ĠDonald":11993,"ĠArk":11994,"CKD":11995,"Dorothy":11996,"Ġessential":11997,"Ġexhausted":11998,"Ġcandidate":11999,"brasax":12000,"JOHN":12001,"ĠÃ":12002,"ĠImp":12003,"ellets":12004,"ĠEight":12005,"ĠThursday":12006,"ĠPrad":12007,"Ġrecognition":12008,"ickshaw":12009,"=\\\\\\\\{@}čĊ":12010,"San":12011,"itia":12012,"ĠDoss":12013,"ĠBass":12014,"Ġsubs":12015,"ĠLee":12016,"ĠRec":12017,"ĠFont":12018,"Ġleap":12019,"Ġcontent":12020,"Ġbuzz":12021,"Ġdistinct":12022,"Ġtwelve":12023,"Ġpeacefully":12024,"Ġalternative":12025,"Memory":12026,"Poss":12027,"West":12028,"crow":12029,"Ġwashing":12030,"ĠSat":12031,"Ġneare":12032,"Ġouter":12033,"Ġdepos":12034,"ĠBeethoven":12035,"Ġburgl":12036,"Ġbells":12037,"ĠBablu":12038,"ĠCallie":12039,"ĠDocument":12040,"ĠMatheson":12041,"ĠJersey":12042,"Buddy":12043,"Pa":12044,"Ġcos":12045,"ĠCou":12046,"user":12047,"ĠRub":12048,"Ġescaping":12049,"Ġpersu":12050,"Ġpirates":12051,"Aleya":12052,"Touch":12053,"ĠNathan":12054,"harm":12055,"ocated":12056,"Ġdestined":12057,"Ġdisconnect":12058,"Ġskinny":12059,"Ġastron":12060,"Ġblonde":12061,"ĠCareful":12062,"-re":12063,"haz":12064,"ĠAvenue":12065,"Ġsympt":12066,"Ġhostel":12067,"Ġmasks":12068,"Ġspiritual":12069,"ĠFucking":12070,"Ġdrowned":12071,"Ġspinning":12072,"Ġdetonate":12073,"Ġfascinating":12074,"Ġantibiotics":12075,"Ġfel":12076,"Ġorbit":12077,"aila":12078,"ĠBradshaw":12079,"Ġoperational":12080,"Ġqualified":12081,"Ġphotographer":12082,"Ġsponsor":12083,"ryption":12084,"ĠAL":12085,"ollo":12086,"Ġraining":12087,"ĠPlanet":12088,"Ġranch":12089,"Mission":12090,"Ġplead":12091,"Ġinjury":12092,"oughby":12093,"zone":12094,"Ġbin":12095,"ĠCheers":12096,"Linda":12097,"ĠSully":12098,"Ġblueprints":12099,"SH":12100,"cup":12101,"pat":12102,"post":12103,"raj":12104,"ĠLO":12105,"Ġarrives":12106,"Ġthrust":12107,"Ġcivilian":12108,"acock":12109,"Ġflame":12110,"Ġexpression":12111,"Ġrefusing":12112,"Ġsqueeze":12113,"Ġvanished":12114,"Ġfortun":12115,"Dorian":12116,"Ġfragile":12117,"'Con":12118,"Ġinsect":12119,"ĠMiddle":12120,"ptic":12121,"Ġeval":12122,"Ġadvise":12123,"Ġencounter":12124,"ĠGreene":12125,"Ġvolunteer":12126,"ĠPotter":12127,"Court":12128,"Group":12129,"_Help":12130,"orca":12131,"uties":12132,"ĠSchool":12133,"ideo":12134,"uckle":12135,"ĠKurt":12136,"Ġsmashed":12137,"Ġslide":12138,"Ġcaps":12139,"Ġrespected":12140,"Ġprogrammed":12141,"Ġvirtual":12142,"Fantastic":12143,"Mason":12144,"fa":12145,"kh":12146,"yl":12147,"zens":12148,"haj":12149,"Ġcable":12150,"ĠSho":12151,"Ġalthough":12152,"arship":12153,"Ġexplode":12154,"Ġdepression":12155,"Preview":12156,"Ġparade":12157,"Plan":12158,"cellor":12159,"Ġabsolute":12160,"Between":12161,"ĠGovernment":12162,"Jacob":12163,"Jar":12164,"Lo":12165,"cade":12166,"Ġfeast":12167,"Ġsoccer":12168,"ĠGale":12169,"ĠParrish":12170,"ogs":12171,"Information":12172,"Ġvoices":12173,"Ġfeeds":12174,"Ġpoisoning":12175,"ĠWithout":12176,"ĠBoard":12177,"ĠJapanese":12178,"ĠPakistan":12179,"Mia":12180,"ĠLiam":12181,"Ġrequesting":12182,"Ġbucket":12183,"Ġembassy":12184,"Ġtaller":12185,"hantom":12186,"ĠVirgin":12187,"ĠFlorida":12188,"Ġconflict":12189,"Ġtriggered":12190,"Praise":12191,"User":12192,"ridge":12193,"Ġmol":12194,"Ġpanda":12195,"ĠAcc":12196,"ĠTim":12197,"Ġspill":12198,"Ġbets":12199,"Ġcraft":12200,"Ġchart":12201,"Ġdistant":12202,"Neha":12203,"syl":12204,"reckles":12205,"Normal":12206,"Ġven":12207,"Ġlung":12208,"Ġsob":12209,"ĠHand":12210,"Ġtex":12211,"Ġexped":12212,"Ġfeather":12213,"OUT":12214,"Ġextraction":12215,"wind":12216,"renal":12217,"Ġmodified":12218,"\"lf":12219,"lby":12220,"Ġpond":12221,"ĠJUST":12222,"ĠKrav":12223,"Ġcookie":12224,"-shirt":12225,"Ġkin":12226,"Location":12227,"Ġcemetery":12228,"Ġfunding":12229,"Ġnigger":12230,"Ġ{":12231,"Eric":12232,"Ġdose":12233,"Ġjelly":12234,"Jasmine":12235,"ĠFil":12236,"Bruno":12237,"ĠBabji":12238,"Working":12239,"Ġyo":12240,"Ġworship":12241,"ĠKim":12242,"Ġcompartment":12243,"inea":12244,"ĠIts":12245,"ĠVal":12246,"Ġattracted":12247,"Ã±or":12248,"Ġpipes":12249,"Ã¸":12250,"Ġmos":12251,"ingly":12252,"verend":12253,"ĠPaige":12254,"iggin":12255,"Ġtoug":12256,"Ġregain":12257,"Ġabducted":12258,"-This":12259,"EL":12260,"Eyes":12261,"Message":12262,"ĠBattle":12263,"aulder":12264,"ĠHail":12265,"ordon":12266,"nedy":12267,"Ġrecognized":12268,"Ġcelebrating":12269,"Ġcontrolling":12270,"Ġmortal":12271,"Ġgesture":12272,"ĠCircus":12273,"Gone":12274,"UM":12275,"oice":12276,"Ġnails":12277,"ĠTop":12278,"uda":12279,"redict":12280,"avier":12281,"Moving":12282,"ĠMindy":12283,"Ġlanguages":12284,"mant":12285,"might":12286,"Ġbegg":12287,"Ġstalking":12288,"ĠWork":12289,"akin":12290,"throp":12291,"Ġscout":12292,"Ġflames":12293,"ossi":12294,"sole":12295,"Ġfinance":12296,"ĠJustice":12297,"eadman":12298,"Ġfootprints":12299,"Manny":12300,"ĠRailly":12301,"ĠJonathan":12302,"ĠAlpha":12303,"Family":12304,"Ã³":12305,"Ġtu":12306,"ĠElement":12307,"à·Ļ":12308,"Ġbudget":12309,"rich":12310,"Ġconnections":12311,"ĠTomorrow":12312,"Ġclaiming":12313,"ĠGrandma":12314,"Ġadoption":12315,"ĠJenkins":12316,"heritance":12317,"-le":12318,"rac":12319,"erra":12320,"Ġly":12321,"Ġreduce":12322,"Ġtherefore":12323,"ĠDri":12324,"Ġalp":12325,"ĠNine":12326,"ressive":12327,"ubali":12328,"Ġoldest":12329,"axi":12330,"Remote":12331,"Ġexplains":12332,"Shaw":12333,"Ġcryst":12334,"Secret":12335,"Ġmutual":12336,"Ġdialogue":12337,"Cap":12338,"Russ":12339,"Summ":12340,"Speed":12341,"Ġsch":12342,"essert":12343,"ĠHalloween":12344,"Ġpermit":12345,"Ġmarri":12346,"Ġcopies":12347,"iddick":12348,"Ġincreasing":12349,"Ġsailor":12350,"Ġtranslate":12351,"ĠAfghanistan":12352,"-They":12353,"Mister":12354,"NOME":12355,"Sco":12356,"Ġmount":12357,"ĠFound":12358,"Ġmakeup":12359,"Ġbooth":12360,"Ġpoly":12361,"ibi":12362,"Given":12363,"Ġcharming":12364,"Ġconcrete":12365,"ĠHarper":12366,"Ġmorgue":12367,"Ġnewspapers":12368,"Ġforbidden":12369,"ĠEverest":12370,"Around":12371,"ĠLev":12372,"ĠPage":12373,"Ġcraz":12374,"ĠRamse":12375,"ĠCoast":12376,"-Hi":12377,"Det":12378,"Ġpix":12379,"asp":12380,"Ġjog":12381,"ĠPush":12382,"ĠKee":12383,"ĠMoran":12384,"Ġdirectories":12385,"Ġvert":12386,"Ġtales":12387,"Ġcotton":12388,"ĠDaren":12389,"ĠPacific":12390,"ĠRev":12391,"Ġblabber":12392,"Ġunited":12393,"Incl":12394,"owski":12395,"ĠBlock":12396,".M":12397,"pective":12398,"Ġelectronic":12399,"ervices":12400,"Ġhast":12401,"rels":12402,"Ġcapacity":12403,"Ġlisted":12404,"Ġdentist":12405,"Ġdiversion":12406,"Ġblah":12407,"Ġheadquarters":12408,"Ġcampus":12409,"ĠCouncil":12410,"ĠLieutenant":12411,"Donald":12412,"axy":12413,"Ġgene":12414,"Ġimportantly":12415,"AST":12416,"Ġwhiskey":12417,"Ġimprison":12418,"kill":12419,"Ġpromises":12420,"Level":12421,"Ġhunted":12422,"Ġmanufacture":12423,"Ur":12424,"Ġhik":12425,"ros":12426,"chief":12427,"eyond":12428,"ĠAllah":12429,"Ġcursor":12430,"Ġsnatched":12431,"ĠAmb":12432,"Ġcourtesy":12433,"alfunction":12434,"Ġpartnership":12435,"GB":12436,"rator":12437,"iture":12438,"Ġinspiration":12439,"andall":12440,"ctions":12441,"ĠNova":12442,"Ġhandy":12443,"Ġmeter":12444,"Ġcountries":12445,"Ġcooked":12446,"Ġblocking":12447,"Ġfunds":12448,"Ġprecinct":12449,"Ġremembers":12450,"ĠRadha":12451,"Ġpillow":12452,"ĠStuart":12453,"Ġcoffin":12454,"Luck":12455,"SC":12456,"SU":12457,"far":12458,"pers":12459,"erick":12460,"Ġops":12461,"Ġbegged":12462,"ĠDiana":12463,"rous":12464,"Ġreset":12465,"Ġsnack":12466,"ĠBlood":12467,"Ġconstruct":12468,"Ġromance":12469,"Usually":12470,"'But":12471,"Com":12472,"Less":12473,"Nemo":12474,"bes":12475,"ĠCortez":12476,"Ġquarters":12477,"Ġropes":12478,"arians":12479,"-two":12480,"Disable":12481,"Ġcauses":12482,"Ġresistance":12483,"Ġlions":12484,"Ġping":12485,"Ġjer":12486,"ĠMAN":12487,"ĠMolly":12488,"ellion":12489,"Ġdeeds":12490,"ĠJill":12491,"Ġsteam":12492,"Destroy":12493,"Sanjay":12494,"05":12495,"Ce":12496,"Mer":12497,"Mus":12498,"Nam":12499,"Van":12500,"Ġtense":12501,"omy":12502,"Ġinput":12503,"icates":12504,"ĠSpr":12505,"ĠBrow":12506,"Ġlogin":12507,"ĠPsy":12508,"udrey":12509,"Ġdishes":12510,"ocracy":12511,"Ġappeal":12512,"Ġobtain":12513,"atural":12514,"Killed":12515,"Ġactivate":12516,"Victory":12517,"Ġbachelor":12518,"oust":12519,"Ġauspicious":12520,"Ġcaf":12521,"Ġfry":12522,"arge":12523,"rock":12524,"ifferent":12525,"ĠAk":12526,"hyam":12527,"ĠBu":12528,"estic":12529,"angle":12530,"Yours":12531,"Ġshutting":12532,"Amazing":12533,"ĠQuill":12534,"Marcus":12535,"Develop":12536,"Ġaudio":12537,"Woo":12538,"eek":12539,"Ġdeputy":12540,"à¶½":12541,"ĠZod":12542,"Meaning":12543,"Ġdetected":12544,"Ġmagazine":12545,"Scofield":12546,"37":12547,"Vis":12548,"ghed":12549,"umbs":12550,"Ġdelivering":12551,"Ġmeasures":12552,"Py":12553,"ĠARE":12554,"Ġruled":12555,"Ġlethal":12556,"Ġsits":12557,"venth":12558,"Ġsunrise":12559,"Ġdescribed":12560,"gant":12561,"isey":12562,"Ġ*čĊ":12563,"Ġransom":12564,",no":12565,"Meenamma":12566,"atter":12567,"Ġthy":12568,"Ġbarr":12569,"Reload":12570,"-Hello":12571,"Ġvenge":12572,"Ġscale":12573,"-three":12574,"Ġshifts":12575,"Ġcentre":12576,"Ġbitter":12577,"ĠYear":12578,"ĠVerma":12579,"ĠMockingjay":12580,"Ġdeliber":12581,"Code":12582,"Ġbench":12583,"Ġfame":12584,"ĠMall":12585,"ĠHolloway":12586,"Ġpatterns":12587,"ĠTorch":12588,"Varda":12589,"wara":12590,"Web":12591,"ĠCPU":12592,"ĠBeezus":12593,"ĠFlight":12594,"Ġshack":12595,"ĠOrchid":12596,"Ġhallway":12597,"Ġgathering":12598,"table":12599,"Ġ:":12600,"ouston":12601,"Ġhaul":12602,"Ġstroke":12603,"ĠEyes":12604,"ĠEko":12605,"ottom":12606,"-face":12607,"Ġattempting":12608,"ĠCarrie":12609,"Ġdisappointment":12610,"ĠGnomeo":12611,"ĠHoff":12612,"Ġsecured":12613,"renade":12614,"Ġrebel":12615,"Ġnegoti":12616,"Ġwebsite":12617,":%":12618,"DM":12619,"Evan":12620,"Safe":12621,"lk":12622,"Ġbolt":12623,"Ġbomber":12624,"Ġdagger":12625,"ĠMuseum":12626,"ĠMeena":12627,"ĠStaff":12628,"Ġkeyboard":12629,"ĠArctic":12630,"Ġreminded":12631,"Ġconcerns":12632,"Subject":12633,"Renu":12634,"Ġfolders":12635,"Ġkilometers":12636,"ĠAren":12637,"ĠBec":12638,"ĠWal":12639,"ĠRag":12640,"osis":12641,"Ġconsole":12642,"Ġspoon":12643,"berry":12644,"ĠTHERE":12645,"Ġstrongest":12646,"Ġshortcut":12647,"Empty":12648,"Ġcocks":12649,"ĠHorace":12650,"Ġinquiry":12651,"Ġpolitician":12652,"Ġintegrity":12653,"ĠGaines":12654,"'LL":12655,"Ġmand":12656,"star":12657,"Ġham":12658,"Ġstair":12659,"ĠCandy":12660,"Ġusage":12661,"Ġrecipe":12662,"Ġendure":12663,"Ġframed":12664,"Ġlandlord":12665,"ĠReed":12666,"Block":12667,"ĠCarol":12668,"ĠNikhil":12669,"Babe":12670,"Ġincreased":12671,"Ġtwisted":12672,"Ġderail":12673,"-G":12674,"-ho":12675,"01":12676,"Dig":12677,"vette":12678,"keeper":12679,"augh":12680,"ĠRanger":12681,"ĠJuly":12682,"udio":12683,"Ġprime":12684,"Ġmint":12685,"Ġfridge":12686,"Ġpointed":12687,"Ġsincere":12688,"Ġbusinesses":12689,"154":12690,"Ġdevast":12691,"ĠSolo":12692,"Ġslaves":12693,"ĠObject":12694,"Ġdefinition":12695,"Ġprophecy":12696,").":12697,"66":12698,"Pol":12699,"Sen":12700,"Ġecho":12701,"Ġspared":12702,"apunz":12703,"ĠKitt":12704,"Ġadditional":12705,"eredith":12706,"Ġbuyer":12707,"ĠLeft":12708,"Ġprovides":12709,"ĠNorton":12710,"ĠSecretary":12711,"apunzel":12712,"gian":12713,"mon":12714,"Ġlane":12715,"ĠIM":12716,"Ġpm":12717,"ĠSentinel":12718,"ĠDie":12719,"ĠBenny":12720,"Ġspots":12721,"ĠSelect":12722,"Ġvacuum":12723,"Ġlogic":12724,"Ġladder":12725,"OTHER":12726,"Ġoverwhel":12727,"-an":12728,"Rudy":12729,"fight":12730,"zt":12731,"utor":12732,"Star":12733,"ipher":12734,"Ġcontacted":12735,"Ġanticip":12736,"ĠLydon":12737,"ĠKravid":12738,"oooo":12739,"ARD":12740,"Ġorganized":12741,"Ġscares":12742,"Ġurgently":12743,"Ġdisturbance":12744,"ĠKeefe":12745,"Emergency":12746,"Fro":12747,"Sa":12748,"Ġmanners":12749,"Ġswore":12750,"ĠManhattan":12751,"ĠDevon":12752,"Ġpace":12753,"Ġdecade":12754,"ĠProperties":12755,"ESE":12756,"Ġprecisely":12757,"anium":12758,"Tough":12759,"Ġdudes":12760,"ĠTwitter":12761,"Ġdiscussed":12762,"Ġaltitude":12763,"ubey":12764,"Ġhesitate":12765,"ĠCommissioner":12766,"Lift":12767,"Oops":12768,"Roy":12769,"itis":12770,"ickers":12771,"oga":12772,"Ġcommitting":12773,"Clearly":12774,"Ġrolled":12775,"Ġfolk":12776,"Ġarchive":12777,"-Is":12778,"Ralph":12779,"ias":12780,"piece":12781,"rup":12782,"Ġnanny":12783,"ĠMason":12784,"Ġupside":12785,"Ġoverd":12786,"Ġbluff":12787,"Ġscroll":12788,"Ġfighters":12789,"-do":12790,"Ġkilos":12791,"Ġtolerate":12792,"Log":12793,"acious":12794,"ĠSiv":12795,"ĠKong":12796,"Ġfeature":12797,"ĠSamantha":12798,"ictionary":12799,"Ġversus":12800,"ĠTempl":12801,"Amen":12802,"Food":12803,"Ġacknow":12804,"hak":12805,"oser":12806,"Sooraj":12807,"ĠNarn":12808,"ĠKai":12809,"Inv":12810,"Along":12811,"Ġcurrency":12812,"-down":12813,"Ġbats":12814,"Ġblindfold":12815,"Ġdramatic":12816,"Ġsignificant":12817,"Business":12818,"Dark":12819,"Park":12820,"jour":12821,"Ġdict":12822,"ĠSait":12823,"ĠRancho":12824,"Ġroam":12825,"Straight":12826,"Ġsympathy":12827,"alem":12828,"uriosity":12829,"ĠColony":12830,"Ġgoddess":12831,"Simple":12832,"ĠHorsemen":12833,"hajini":12834,"Mith":12835,"SON":12836,"Yas":12837,"Ġsway":12838,"Ġpi":12839,"imah":12840,"ĠSau":12841,"Ġusers":12842,"ĠFun":12843,"ĠExt":12844,"Ġserum":12845,"Alt":12846,"Ġprescri":12847,"Guard":12848,"ĠMariko":12849,"ernel":12850,"Place":12851,"Ġappreciated":12852,"Ġdiscussing":12853,"Ġfloors":12854,"Sand":12855,"bait":12856,"Ġfifteen":12857,"Ġfisher":12858,"Ġlou":12859,"atha":12860,"ĠSachin":12861,"Ġbackyard":12862,"Ġexits":12863,"Ġslay":12864,"Ġcorrid":12865,"Connie":12866,"Ġconvoy":12867,"-ups":12868,"Ġmaps":12869,"Ġconversations":12870,"Ġtapes":12871,"Ronnie":12872,"Ġsentimental":12873,"Ġanalysis":12874,"Alpha":12875,"Ġnearest":12876,"Guru":12877,"bu":12878,"...\"":12879,"ĠMain":12880,"ĠChild":12881,"ogue":12882,"Ġflour":12883,"Ġshove":12884,"appi":12885,"Ġzoo":12886,"Margaret":12887,"Ġbreaths":12888,"Hopefully":12889,"ĠSharma":12890,"iguerra":12891,"KING":12892,"WAT":12893,"hamm":12894,"ĠSize":12895,"Ġvain":12896,"Ġbetting":12897,"Ġcruc":12898,"Prof":12899,"Ġsickness":12900,"Ġrises":12901,"Ġtexted":12902,"Robert":12903,".J":12904,"Que":12905,"jun":12906,"lon":12907,"Ġbeef":12908,"ĠTimes":12909,"Ġtraces":12910,"ĠNone":12911,"izzy":12912,"Ġphrase":12913,"Ġlegally":12914,"ĠScout":12915,"ĠMayor":12916,"aptist":12917,"Ġhandcuffs":12918,"ĠEmpire":12919,"Based":12920,"happy":12921,"ĠMine":12922,"Ġrang":12923,"Waiting":12924,"Ġreferring":12925,"once":12926,"atoes":12927,"Ġclicks":12928,"Ġinstant":12929,"Ġbroker":12930,"Ġvengeance":12931,"Ġrisked":12932,"Ã¢":12933,"ĠObs":12934,"Ġdefect":12935,"ĠJoes":12936,"osal":12937,"ositive":12938,"Ġfreely":12939,"Coffee":12940,"Ġwret":12941,"etes":12942,"Ġblessing":12943,"Ġautomatic":12944,"Ġspaceship":12945,"Ġtissue":12946,"hable":12947,"ĠAbrasax":12948,"ĠPope":12949,"ressler":12950,"ĠJeremy":12951,"Central":12952,"\"To":12953,"Cell":12954,"Di":12955,"Files":12956,"Ġcher":12957,"urg":12958,"ĠRoss":12959,"Ġconvention":12960,"Ġoverride":12961,"Ġrecognise":12962,"Ġcocaine":12963,"Magic":12964,"ecorvo":12965,"zins":12966,"Ġtore":12967,"imony":12968,"ĠRead":12969,"Ġintact":12970,"ĠChun":12971,"Ġcurtain":12972,"Ġapproved":12973,")?":12974,",then":12975,"Nora":12976,"Wat":12977,"Wind":12978,"balt":12979,"hk":12980,"jing":12981,"uations":12982,"isd":12983,"Ġfoul":12984,"Ġlousy":12985,"Ġrotten":12986,"Ġcomet":12987,"ĠOS":12988,"ĠKum":12989,"Ġfranc":12990,"ĠShort":12991,"Ġcuts":12992,"Chitti":12993,"Ġmarker":12994,"Ġopera":12995,"ettina":12996,"Ġantid":12997,"Ġmutation":12998,"ĠMalays":12999,"Ġclipboard":13000,"miral":13001,"Cross":13002,"Lloyd":13003,"Ġshred":13004,"ĠBoss":13005,"ĠWANT":13006,"Ġpoker":13007,"Ġsecretly":13008,"Gotya":13009,"Ġsalv":13010,"Ġpigs":13011,"handav":13012,"Ġcorporation":13013,"Ġcalculations":13014,"Ġlunatic":13015,"Meanwhile":13016,"'He":13017,"Course":13018,"IG":13019,"Wil":13020,"heck":13021,"ishant":13022,"Ġlure":13023,"asma":13024,"adel":13025,"Ġmanual":13026,"ĠHauser":13027,"ĠKansas":13028,"space":13029,"Thief":13030,"Ġcouples":13031,"Ġislands":13032,"Ġvend":13033,"Charge":13034,"Ġscientists":13035,"Redo":13036,"Ġcritic":13037,"Buy":13038,"Ġinterfere":13039,"Aunty":13040,"Draw":13041,"Hans":13042,"isk":13043,"itement":13044,"Ġdozens":13045,"Ġknight":13046,"ĠMaggie":13047,"Ġpoke":13048,"Ġjoker":13049,"ĠZamani":13050,"Ġdeleted":13051,"Ġbreached":13052,"ĠFelix":13053,"Ġzombie":13054,"ĠElementary":13055,"lad":13056,"unity":13057,"ĠDC":13058,"Ġtruce":13059,"Ġmisery":13060,"Ġviral":13061,"ĠFreddy":13062,"ĠLiber":13063,"Ġterrified":13064,"Ġassemb":13065,"(C":13066,"-day":13067,"List":13068,"Ġcape":13069,"Ġec":13070,"ĠGabriel":13071,"Ġformula":13072,"34":13073,"Pen":13074,"some":13075,"Ġefficient":13076,"ifier":13077,"akers":13078,"Ġinterrupting":13079,"Ġtastes":13080,"-There":13081,"Fortun":13082,"Fresh":13083,"je":13084,"heel":13085,"ĠSudheer":13086,"ĠMust":13087,"ĠPenn":13088,"phine":13089,"Ġblackout":13090,"rams":13091,"Ġparadise":13092,"ĠYashida":13093,"slo":13094,"ĠIb":13095,"ĠFIR":13096,"ernand":13097,"ĠPatrick":13098,"Ġworm":13099,"urtis":13100,"ĠHollywood":13101,"Ġshipping":13102,"Ġblend":13103,"ĠWilloughby":13104,"ĠVeronica":13105,"onents":13106,"Ġguessed":13107,"Ġmagician":13108,"Paul":13109,"Ġshining":13110,"Ġrepeating":13111,"Ġsurrounding":13112,"Ġcrawl":13113,"Ice":13114,"Ġtune":13115,"Ġouts":13116,"Ġinval":13117,"anielle":13118,"Ġdefeated":13119,"Ġgalaxy":13120,"Low":13121,"say":13122,"Ġtit":13123,"Ġtar":13124,"ishy":13125,"ĠBart":13126,"Ġlifeboat":13127,"ĠScot":13128,"Ġdifficulty":13129,"errari":13130,"Ġsorrows":13131,"Eko":13132,"Lay":13133,"TP":13134,"vester":13135,"Ġhip":13136,"ĠEp":13137,"Ġcommittee":13138,"Ġsuperior":13139,"ĠRaja":13140,"ĠJoey":13141,"Ġscanning":13142,"Ġchannels":13143,"Ġdelicate":13144,"ĠQuantico":13145,"Ġvigil":13146,"Task":13147,"gli":13148,"anner":13149,"ĠMud":13150,"ĠHands":13151,"olk":13152,"emy":13153,"Ifyou":13154,"Ġbloss":13155,"ĠHector":13156,"izz":13157,"Ġmotherf":13158,"Ġescal":13159,"Ġpotato":13160,"Ġhealing":13161,"ĠKennedy":13162,"Ġhabits":13163,"Point":13164,"okay":13165,"Ġdough":13166,"Ġlend":13167,"ĠII":13168,"Ġol":13169,"unu":13170,"Ġalter":13171,"Ġspine":13172,"ĠFeel":13173,"ĠVice":13174,"Forward":13175,"Ġcovers":13176,"anche":13177,"Ġpointless":13178,"William":13179,"Ġaddiction":13180,"erald":13181,"Peace":13182,"Ġvideos":13183,"Ġdivine":13184,"Ġsuspic":13185,"Ġdefendant":13186,"Ġclouds":13187,"Ġpermanently":13188,"steps":13189,"Used":13190,"Ġsiding":13191,"Ġhail":13192,"Ġformed":13193,"ĠSlow":13194,"ĠMun":13195,"Ġsore":13196,"Ġexcess":13197,"Ġcloth":13198,"gets":13199,"ancer":13200,"Ġdefending":13201,"ĠSeeker":13202,"ecker":13203,"ĠCarla":13204,"ĠApril":13205,"Ġsports":13206,"ĠLawrence":13207,"beard":13208,"Despite":13209,"cular":13210,"would":13211,"Ġward":13212,"Ġcaste":13213,"ĠTARS":13214,"Ġvice":13215,"ormous":13216,"Ġfinishing":13217,"Ġprompt":13218,"ĠWeller":13219,"Ġforehead":13220,"ĠEngine":13221,"Ġengineers":13222,"Ġgenerations":13223,"ĠTej":13224,"ynn":13225,"Ġanalyze":13226,"Ġcasualties":13227,"unjab":13228,"Gand":13229,"Khan":13230,"bian":13231,"pro":13232,"Ġwakes":13233,"Ġbass":13234,"Wear":13235,"ĠAy":13236,"Ġvia":13237,"ĠKathryn":13238,"think":13239,"Ġdrizzle":13240,"Ġhardware":13241,"Ġdistribut":13242,"-safe":13243,"Hero":13244,"ĠCreator":13245,"\"\"čĊ":13246,".H":13247,"Ran":13248,"hever":13249,"ĠSA":13250,"ĠSatan":13251,"avs":13252,"Ġquicker":13253,"ĠIndians":13254,"Ġruining":13255,"ĠLucas":13256,"Feeling":13257,"Christian":13258,"smith":13259,"ĠDecepticons":13260,"38":13261,"ĠMerc":13262,"Ġfract":13263,"erns":13264,"tenance":13265,"Princess":13266,"Ġundone":13267,"Ġconstantly":13268,"Slowly":13269,"Ġtransmitter":13270,"sylvan":13271,"renaline":13272,"jad":13273,"Ġfist":13274,"ĠServices":13275,"Ġchew":13276,"Ġinterval":13277,"ĠMonica":13278,"Ġthrilled":13279,"-St":13280,"bling":13281,"Ġwander":13282,"ĠDance":13283,"ĠDimpy":13284,"Ġzombies":13285,"ĠGil":13286,"Ġdrawer":13287,"ĠUnion":13288,"Starting":13289,"amesh":13290,"ĠCove":13291,"arer":13292,"Ġhosp":13293,"Ġthats":13294,"Ġunbelievable":13295,"-Do":13296,"Fel":13297,"_P":13298,"block":13299,"giving":13300,"Thunderstorm":13301,"Ġmary":13302,"Ġange":13303,"ĠMoses":13304,"ilized":13305,"Ġbabys":13306,"Ann":13307,"Recent":13308,"Joey":13309,"ĠHitler":13310,"ĠKingsman":13311,"Ġborrowed":13312,"Lib":13313,"daughter":13314,"ique":13315,"Ġtops":13316,"ĠGang":13317,"ĠRudy":13318,"berle":13319,"Ġnewly":13320,"Ġsurg":13321,"Ġpassage":13322,"ilts":13323,"Ġdiner":13324,"Ġmoral":13325,"Ġoccupied":13326,"Ġprivilege":13327,"ĠMenu":13328,"isdiction":13329,"(.":13330,"(\\\\":13331,")'čĊ":13332,"+\\\\":13333,"+directory":13334,"+)'čĊ":13335,"-My":13336,":\\\\":13337,"[\\\\":13338,"])?":13339,"iative":13340,"Ġmalfunction":13341,"Ġfried":13342,"iches":13343,"lyde":13344,"ĠAsh":13345,"ĠLiesel":13346,"umor":13347,"ĠFUCK":13348,"atherine":13349,"Ġunload":13350,"Ġdeadly":13351,"Ġexpand":13352,"Ġpatriot":13353,"Ġcurry":13354,"Ġstraw":13355,"ĠJacq":13356,"(.+)'čĊ":13357,"(\\\\[\\\\":13358,"+\\\\])?":13359,"+\\\\])?:\\\\":13360,"Knight":13361,"Ġbapt":13362,"Ġcuffs":13363,"Ġstatic":13364,"ĠCham":13365,"ĠAmen":13366,"ĠWCKD":13367,"Ġmatching":13368,"Ġgangster":13369,"Ġmutton":13370,"Twelve":13371,"Ġunfair":13372,"hattered":13373,"Sanjana":13374,"Silence":13375,"Ġpurchase":13376,"Ġarrogant":13377,"redictable":13378,"Ġantidote":13379,"72":13380,"mind":13381,"ĠSaint":13382,"ela":13383,"ĠKemp":13384,"Ġcloak":13385,"avel":13386,"Ġappet":13387,"Gotcha":13388,"Ġrobbers":13389,"Ġfilter":13390,"Ġactivities":13391,"frame":13392,"Swim":13393,"ĠMurali":13394,"Ġcivilization":13395,"ĠSenator":13396,"Ġdimension":13397,"ĠGibson":13398,"ĠTitus":13399,"Ġdisgrace":13400,"ĠKylie":13401,"Completed":13402,"gorith":13403,"dict":13404,"Ġtying":13405,"anes":13406,"ĠMouse":13407,"ĠHait":13408,"ĠKalpana":13409,"reslin":13410,"retion":13411,"uffy":13412,"ĠBrick":13413,"Ġfactor":13414,"Ġexcitement":13415,"Ġsolar":13416,"Ġcease":13417,"ĠKingdom":13418,"Ġabsor":13419,"ambar":13420,"Ġprayed":13421,"Ġpotent":13422,"ĠGotya":13423,"Ġtables":13424,"Ġservants":13425,"Ġheavens":13426,"ĠChandu":13427,"Joan":13428,"Desktop":13429,"Password":13430,"Ġsauce":13431,"ouche":13432,"Ġmardon":13433,"Ġfeared":13434,"ĠCod":13435,"ĠAunty":13436,"Ġramp":13437,"Ġcomed":13438,"ĠOm":13439,"ĠHeaven":13440,"Ġsmash":13441,"Ġadvert":13442,"Ġdecides":13443,"ĠClau":13444,"Ġrestless":13445,"Reed":13446,"à¶´":13447,"ICIA":13448,"Ġfacial":13449,"India":13450,"Ġlinked":13451,"Ġbattles":13452,"ĠBarbie":13453,"ĠCourier":13454,"-Good":13455,"Ajay":13456,"Lori":13457,"cans":13458,"ui":13459,"Ġsor":13460,"Ġlndu":13461,"ĠMecha":13462,"Ġatom":13463,"amel":13464,"ĠFreckles":13465,"ockey":13466,"Ġraped":13467,"Climb":13468,"Ġtransform":13469,"Ġextinction":13470,"Prince":13471,"ĠEdward":13472,"Ġfeds":13473,"Ġadults":13474,"Niki":13475,"Accept":13476,"Karl":13477,"Tha":13478,"maker":13479,"ĠIC":13480,".....":13481,"ĠBumble":13482,"ĠWang":13483,"ĠFle":13484,"Stat":13485,"Ġsmallest":13486,"-free":13487,"ĠSeriously":13488,"Attack":13489,"ĠRennie":13490,"Ġannoying":13491,"Champ":13492,"icit":13493,"ĠMost":13494,"avana":13495,"Ġvisa":13496,"Ġviolation":13497,"Ġrecovering":13498,"ĠSpeed":13499,"quet":13500,"Ġworkers":13501,"Ġexploded":13502,"Ġgovernor":13503,"Mandira":13504,"Ġabsence":13505,"Ġperspective":13506,"ĠGrid":13507,"Ġmagnificent":13508,"Ġunlikely":13509,"Bus":13510,"anches":13511,"Ġresume":13512,"rehend":13513,"Ġrightful":13514,"02":13515,"Ġloo":13516,"Ġstressed":13517,"Ġaborted":13518,"identified":13519,"Ġsleeps":13520,"Ġhatred":13521,"Ġshuttle":13522,"195":13523,"Ġpenet":13524,"rilliant":13525,"Forty":13526,"rument":13527,"Ġmummy":13528,"Ġcunning":13529,"ĠBro":13530,"ularly":13531,"Ġspider":13532,"Ġquarantine":13533,"Ġcompare":13534,"Ġmeetings":13535,"Ġorganic":13536,"Ġlogs":13537,"Ġcircuit":13538,"Ġscenes":13539,"Ġfrustrated":13540,"errero":13541,"zinsky":13542,"-J":13543,"Ġinev":13544,"Ġifyou":13545,"Ġrecl":13546,"alek":13547,"Ġsniff":13548,"ĠSquad":13549,"ĠAgnes":13550,"Ġaccurate":13551,"Technically":13552,"Tag":13553,"lvester":13554,"mont":13555,"Ġhive":13556,"idal":13557,"illes":13558,"Ġstain":13559,"essions":13560,"Ġrash":13561,"ĠNur":13562,"Ġlongest":13563,"Ġinterference":13564,"Ġbodyguard":13565,"shine":13566,"Ġslowing":13567,"ĠElise":13568,"Ġpilots":13569,"ilarious":13570,"Nicholas":13571,"Ġaccompany":13572,"ĠAlfredo":13573,"Ender":13574,"Gru":13575,"sl":13576,"Ġwitches":13577,"Ġpale":13578,"imo":13579,"ĠDale":13580,"Ġblink":13581,"Ġhopefully":13582,"ANG":13583,"***čĊ":13584,"ĠAlmost":13585,"Ġgrounded":13586,"ongrats":13587,"Ġpredators":13588,"agnar":13589,"Ġbriefcase":13590,"missions":13591,"Ġindustrial":13592,"Ġtypical":13593,"akamura":13594,"-All":13595,"Brenda":13596,"Mont":13597,"PK":13598,"Pacific":13599,"eous":13600,"ios":13601,"Ġicons":13602,"oni":13603,"itled":13604,"oration":13605,"Ġreaches":13606,"ĠSighs":13607,"ĠDest":13608,"ĠGrab":13609,"enda":13610,"Ġalgorith":13611,"ĠPath":13612,"Ġovercome":13613,"Ġmars":13614,"Ġtriple":13615,"oking":13616,"arrick":13617,"Ġrelationships":13618,"Ġillness":13619,"Ġphysically":13620,"ĠAusten":13621,"stitution":13622,"Ġparalyzed":13623,"bul":13624,"iors":13625,"oning":13626,"ĠMount":13627,"ĠCL":13628,"Ġproves":13629,"Ġvag":13630,"agen":13631,"actor":13632,"Ġexpressed":13633,"Ġgenes":13634,"maid":13635,"Ġrigged":13636,"Ġbedtime":13637,"Smile":13638,"Ġstepping":13639,"Symbol":13640,"ĠRobin":13641,"Priest":13642,"Ġdelayed":13643,"missive":13644,"Impossible":13645,"Ġanxious":13646,"Ġimmortal":13647,"ĠShadow":13648,".l":13649,"Bomb":13650,"Land":13651,"foot":13652,"Ġwed":13653,"anz":13654,"Ġstam":13655,"Ġants":13656,"Ġneutral":13657,"ĠCO":13658,"ĠCru":13659,"ĠGary":13660,"enders":13661,"umatic":13662,"ĠJudge":13663,"ĠEinstein":13664,"Ġraw":13665,"Ġrelay":13666,"Request":13667,"Ġlighter":13668,"Ġbarbar":13669,"Ġtrem":13670,"ĠElves":13671,"Ġchemistry":13672,"ĠCrane":13673,"IV":13674,"Jose":13675,"pent":13676,"Ġfiddle":13677,"ĠPy":13678,"Ġconver":13679,"Ġarrows":13680,"Ġhears":13681,"Ġrecruit":13682,"Ġscreams":13683,"Ġobjective":13684,"ĠWoods":13685,"Ġuploaded":13686,"Ġreckless":13687,"sis":13688,"Ġpane":13689,"Ġsleepy":13690,"Ġremotely":13691,"Join":13692,"Normally":13693,"Met":13694,"vas":13695,"ĠBand":13696,"ĠGlen":13697,"ĠJos":13698,"ĠNeed":13699,"Ġerase":13700,"ovv":13701,"Ġaffairs":13702,"ĠVasee":13703,"ĠChandrak":13704,"Liar":13705,"ingili":13706,"Ġfer":13707,"uted":13708,"Ġinstitution":13709,"amu":13710,"IND":13711,"Ġlame":13712,"ĠPeach":13713,"Ġpork":13714,"Ġsights":13715,"Gal":13716,"Ġbung":13717,"earing":13718,"Ġexhib":13719,"ĠCharu":13720,"Ġnickname":13721,"ĠBoo":13722,"qual":13723,"Ġspicy":13724,"ĠNelson":13725,"Steven":13726,"ĠOrder":13727,"Bellick":13728,"-seven":13729,"Ġta":13730,"Ġpeep":13731,"ether":13732,"adu":13733,"Ġgoingto":13734,"Ġcorps":13735,"Ġpacks":13736,"Ġtorch":13737,"Secure":13738,"Ġacquaint":13739,"ĠFuller":13740,"Ġdescend":13741,"Ġjurisdiction":13742,"Ġhorizon":13743,"Ġeternity":13744,"ĠPontecorvo":13745,"-by":13746,"Beyond":13747,"Ġtender":13748,"Ġaer":13749,"Ġshattered":13750,"Ġhunch":13751,"leans":13752,"Ġneat":13753,"opes":13754,"ĠToby":13755,"ĠPhoebe":13756,"ĠOdessa":13757,"Ġperpet":13758,"pered":13759,"Ġdrain":13760,"-cont":13761,"-mails":13762,"ĠOrleans":13763,"Ġposter":13764,"Ġpunched":13765,"ĠIndustries":13766,"alekith":13767,"\"Shake":13768,"Ahaana":13769,"RS":13770,"Ġsoph":13771,"Ġdip":13772,"itha":13773,"icus":13774,"ĠMonsieur":13775,"ĠBusiness":13776,"igs":13777,"ĠNan":13778,"iza":13779,"ĠViet":13780,"Ġmatt":13781,"Ġshave":13782,"Ġglorious":13783,"Ġdepressed":13784,"-six":13785,"Ġaccidents":13786,"aldua":13787,"Ġhybr":13788,"Ġmicrow":13789,"ixteen":13790,"),":13791,"-z":13792,"09":13793,"46":13794,"Rom":13795,"Taxi":13796,"Ġtroll":13797,"Ġwel":13798,"rior":13799,"Ġstinking":13800,"Ġknives":13801,"ĠDE":13802,"ĠDol":13803,"ĠHenri":13804,"Ġoffline":13805,"Ġpoking":13806,"ĠSooraj":13807,"aiden":13808,"-min":13809,"Ġapproached":13810,"Ġcocktail":13811,"ĠPhilly":13812,"Ġcircles":13813,"Ġmortgage":13814,"ĠTurtle":13815,"Double":13816,"Ġancestors":13817,"Bang":13818,"Mic":13819,"Ġnano":13820,"least":13821,"ĠAravind":13822,"ĠDrew":13823,"oding":13824,"ĠHad":13825,"Ġtrump":13826,"Ġtomb":13827,"ĠAnother":13828,"-human":13829,"Ġmiracles":13830,"OWN":13831,"Elise":13832,"alcolm":13833,"ĠDuncan":13834,"ĠAfrican":13835,"ĠNorthern":13836,"Ġunnecessarily":13837,"Ġastronaut":13838,"handavam":13839,"Fun":13840,"cat":13841,"wick":13842,"Ġhoo":13843,"Ġasc":13844,"ĠTok":13845,"ĠGonna":13846,"aucan":13847,"ardin":13848,"resne":13849,"Ġroast":13850,"Ġadvent":13851,"ĠUk":13852,"ĠAnushka":13853,"Ġcleaner":13854,"Ġstrain":13855,"Ġformation":13856,"Ġreceipt":13857,"Ġapologizing":13858,"ĠRamlal":13859,"Ġfortress":13860,"ufresne":13861,"Ġwreckage":13862,"Ba":13863,"Ouch":13864,"Pun":13865,"Version":13866,"eors":13867,"Ġgau":13868,"Ġisthis":13869,"ĠMission":13870,"unan":13871,"ĠAB":13872,"ĠBaj":13873,"asta":13874,"ĠHorn":13875,"ĠHorns":13876,"ĠJu":13877,"Ġvib":13878,"Ġslaughter":13879,"Ġmeteors":13880,"Unbelievable":13881,"Spec":13882,"Ġstarve":13883,"Ġclothing":13884,"Ġboost":13885,"Ġoptim":13886,"Ġrelieved":13887,"Ġantenna":13888,"Tor":13889,"Ġfoster":13890,"Ġsty":13891,"ĠLen":13892,"ĠJester":13893,"Ġrealised":13894,"Evening":13895,"Ġbenefits":13896,"ĠDaily":13897,"Totally":13898,"Ġpermanent":13899,"itters":13900,"Ġhay":13901,"ĠSounds":13902,"Ġrode":13903,"à¶§":13904,"ricane":13905,"addle":13906,"Maximum":13907,"Ġdisplayed":13908,"rainian":13909,"Ġjunkie":13910,"Ġshields":13911,"Ġrapid":13912,"Ġworldwide":13913,"ensity":13914,"Chicken":13915,"ĠAmit":13916,"Ġdesigner":13917,"amba":13918,"Ġfruits":13919,"aptiste":13920,"'VE":13921,"Ġdwarf":13922,"ĠPad":13923,"acted":13924,"Activate":13925,"ĠWolff":13926,"bour":13927,"Ġmock":13928,"Ġincoming":13929,"Ġlem":13930,"Ġfierce":13931,"Ġmild":13932,"UD":13933,"ĠÂ":13934,"ĠHero":13935,"Ġflank":13936,"ubby":13937,"visor":13938,"Oi":13939,"Hebrew":13940,"Ġairpl":13941,"umbled":13942,"bedded":13943,"Pur":13944,"Ġboun":13945,"outheast":13946,"ĠRousseau":13947,"apid":13948,"Ġaddition":13949,"-boy":13950,"Ġjinx":13951,"\"lt":13952,"ĠSOME":13953,"ĠOptimus":13954,"ĠEM":13955,"Ġsunshine":13956,"chair":13957,"Ġisolated":13958,"'This":13959,"Bruce":13960,"Ġware":13961,"Ġcul":13962,"Ġfuss":13963,"Ġnuke":13964,"ĠCrazy":13965,"ĠHiro":13966,"Ġoffers":13967,"ucked":13968,"actus":13969,"Ġscold":13970,"ĠTeresa":13971,"ĠAdam":13972,"Ġscanner":13973,"Ġcrawling":13974,"Ġunnecessary":13975,"BE":13976,"Carry":13977,"Ele":13978,"nin":13979,"isp":13980,"Ġdil":13981,"Ġcuriosity":13982,"Ġnan":13983,"omon":13984,"astrop":13985,"osure":13986,"ruary":13987,"Ġsynt":13988,"Release":13989,"ĠThirty":13990,"Ġspecialist":13991,"Ġiris":13992,"Ġvanish":13993,"Ġexisting":13994,"Ġexplosive":13995,"Ġnurses":13996,"Gener":13997,"Deputy":13998,"ĠBilbo":13999,"-minute":14000,"\"That":14001,"anton":14002,"andal":14003,"Ġexhibit":14004,"ĠNakamura":14005,"Ġinthe":14006,"Ġintim":14007,"Ġadding":14008,"Ġendless":14009,"Ġdiff":14010,"-mile":14011,"Ġremained":14012,"ĠChancellor":14013,"Ġvariable":14014,"Ġclarity":14015,"ĠDougy":14016,"ĠFranck":14017,"Aare":14018,"Ent":14019,"Rod":14020,"ted":14021,"Ġyank":14022,"Ġbha":14023,"Ġpec":14024,"argh":14025,"Ġdonor":14026,"Ġtranqu":14027,"ĠNope":14028,"ĠNSA":14029,"ĠKree":14030,"ĠEas":14031,"Lets":14032,"Ġbadass":14033,"Ġsham":14034,"Seeing":14035,"Ġgenet":14036,"ĠAmelia":14037,"Ġopponent":14038,"ORY":14039,"offrey":14040,"Ġhijack":14041,"Ġparticle":14042,"Ġhacker":14043,"Ġmotorcy":14044,"Ġquantum":14045,"Bor":14046,"Bee":14047,"BUT":14048,"Mc":14049,"SI":14050,"Ġwrench":14051,"Ġstunt":14052,"Ġjumps":14053,"ĠRO":14054,"Ġassured":14055,"Ġhumble":14056,"Ġreadings":14057,"Ġpresents":14058,"ĠAlways":14059,"Ġbully":14060,"Ġhorosc":14061,"Ġvirtually":14062,"Ġerrand":14063,"Jonathan":14064,"Kelly":14065,"Santa":14066,"Ġdizzy":14067,"ĠSie":14068,"chor":14069,"ĠThi":14070,"Ġanyhow":14071,"Ġoffended":14072,"hichever":14073,"Ġbits":14074,"ients":14075,"Ananya":14076,"Ġexplaining":14077,"ĠEnter":14078,"irao":14079,"ĠSanju":14080,"Warning":14081,"ĠBrazil":14082,"sylvania":14083,"Ravi":14084,"Ġfurious":14085,"ĠHal":14086,"ĠHIM":14087,"ĠNumber":14088,"anson":14089,"Ġflows":14090,"ools":14091,"Ġcrates":14092,"enses":14093,"Ġthanking":14094,"ĠAlb":14095,"oshni":14096,"Ġsuccessfully":14097,"ĠDivya":14098,"Ġchoosing":14099,"Gaurav":14100,"cons":14101,"rice":14102,"ĠLion":14103,"ĠStacks":14104,"Ġdecades":14105,"these":14106,"rc":14107,"ench":14108,"Ġforged":14109,"ĠSav":14110,"ĠOR":14111,"asso":14112,"ĠMadras":14113,"Ġclues":14114,"reedom":14115,"bag":14116,"xie":14117,"ithvi":14118,"Ġconcert":14119,"Ġforsaken":14120,"Ġdot":14121,"Ġlatt":14122,"terson":14123,"hyd":14124,"ĠWiggin":14125,"uming":14126,"ĠJupiter":14127,"lihood":14128,"clip":14129,"ĠTalon":14130,"Ġmartial":14131,"Aust":14132,"Hundred":14133,"Ol":14134,"icorn":14135,"Ġbites":14136,"Ġentries":14137,"Ġmodels":14138,"ergmans":14139,"husi":14140,"Ġliberty":14141,"imat":14142,"ĠOUT":14143,"Ġoverboard":14144,"ificial":14145,"Ġalongside":14146,"Ġmotel":14147,"ĠBritain":14148,"WO":14149,"rection":14150,"ĠHook":14151,"resses":14152,"lov":14153,"Image":14154,"Header":14155,"Ġwheelchair":14156,"Ġhomicide":14157,"Ġtechnique":14158,"Umm":14159,"hma":14160,"pool":14161,"Ġtat":14162,"Ġtal":14163,"Ġpalm":14164,"Ġreign":14165,"Ġstalk":14166,"ĠGreek":14167,"Ġsund":14168,"Ġrickshaw":14169,"ĠLann":14170,"aballi":14171,"ĠRicky":14172,"ĠOper":14173,"ĠKas":14174,"lfare":14175,"Ġunw":14176,"Ġartery":14177,"Ġharass":14178,"Ġcorresp":14179,"Ġimpul":14180,"Ġinsulting":14181,"ĠSpain":14182,"Ġimmig":14183,"ĠInternational":14184,"ĠDubai":14185,"Ġhybrid":14186,"39":14187,"Came":14188,"Lisa":14189,"Molly":14190,"Meena":14191,"Nonsense":14192,"Ta":14193,"Yay":14194,"Ġwished":14195,"Ġpear":14196,"Ġreef":14197,"ĠGerry":14198,"ĠPorter":14199,"Ġdisarm":14200,"Ġmatched":14201,"Ġmathemat":14202,"Proceed":14203,"Chris":14204,"Ġdouche":14205,"Ġsunlight":14206,"Whom":14207,"Ġlaying":14208,"Ġinstallation":14209,"Ġsettlement":14210,"Ġdiesel":14211,"Ġmentor":14212,"Ġcomplaints":14213,"Ġankle":14214,"Ġavoiding":14215,"Ã¾i":14216,",that":14217,"Ak":14218,"Rip":14219,"west":14220,"Ġbarry":14221,"outing":14222,"Ġdope":14223,"ĠMeredith":14224,"ĠDeal":14225,"Ġspying":14226,"ĠKh":14227,"Ġunin":14228,"Ġflaw":14229,"Ġreconsider":14230,"--?čĊ":14231,"Ġfees":14232,"Ġlegion":14233,"-school":14234,"Ġbillions":14235,"ĠAbruzzi":14236,"Ġreminder":14237,"Ġresear":14238,"180":14239,"Ġinterviews":14240,"Radio":14241,"ĠRomeo":14242,"Ġcooperation":14243,"Bobby":14244,"ĠFrancisco":14245,"ĠOffice":14246,"Shame":14247,"Ġfertilizer":14248,"Ġrehears":14249,"!\"":14250,"Complete":14251,"'the":14252,"akos":14253,"Ġchim":14254,"Ġdiscard":14255,"Ġsubmissive":14256,"ĠChavez":14257,"Charu":14258,"Ġaddresses":14259,"Ġaccounted":14260,"Application":14261,"Ġencrypted":14262,"Ġtaxes":14263,"anetakos":14264,"Carrie":14265,"Ġfloat":14266,"ĠBaah":14267,"Ġdepths":14268,"Ġalternate":14269,"ĠNadia":14270,"ĠGibbs":14271,"Steady":14272,"Ġburglar":14273,"Ġlouder":14274,"-no":14275,"Card":14276,"Flight":14277,"Marry":14278,"Vik":14279,"Ġdwell":14280,"Ġpawn":14281,"Ġpappi":14282,"asamy":14283,"idance":14284,"Ġmyth":14285,"ĠMouche":14286,"andar":14287,"Ġalibi":14288,"ĠJatin":14289,"Ġhappier":14290,"Ġseasons":14291,"ullen":14292,"Ġbubble":14293,"Ġslam":14294,"Running":14295,"ĠRober":14296,"Ġexamine":14297,"ukla":14298,"Ġcelebration":14299,"ĠAirport":14300,"Ġinternet":14301,"Ġaudition":14302,"ĠFormula":14303,"hendra":14304,"ĠGajender":14305,"Ġrepeatedly":14306,"ĠMouchebou":14307,"Gnomeo":14308,"Han":14309,"Ġtheories":14310,"Ġmeals":14311,"ĠSippy":14312,"Noah":14313,"Ġram":14314,"Ġovers":14315,"Ġheartbeat":14316,"Ġdragging":14317,"okes":14318,"ĠSpace":14319,"Ġaccidentally":14320,"Ġteaches":14321,"ĠSarge":14322,"Ġcommitment":14323,"Ġfloating":14324,"Lauda":14325,"Ġtropical":14326,"Ġarguing":14327,"Ġsymptoms":14328,"Ġtexting":14329,"Div":14330,"Hari":14331,"pit":14332,"Ġforcing":14333,"ione":14334,"Ġsue":14335,"Thor":14336,"Ġdiaper":14337,"Ġdemo":14338,"Ġpopup":14339,"ĠCynthia":14340,"ĠKorea":14341,"Ġdebate":14342,"orraine":14343,"ĠIMF":14344,"ingiliya":14345,"RY":14346,"Ġlic":14347,"ĠJesse":14348,"Ġcarpet":14349,"Ġfavors":14350,"ĠWilliams":14351,"ĠWinston":14352,"ĠHung":14353,"ĠJudes":14354,"ĠAlaska":14355,"Ġcatches":14356,"IME":14357,"-kun":14358,"Respect":14359,"700":14360,"ĠBP":14361,"Ġduplicate":14362,"Ġmes":14363,"ondu":14364,"Ġskies":14365,"ĠUnderstand":14366,"Ġhospitals":14367,"Ġshelf":14368,"Ġtargeted":14369,"(sighs":14370,"Trevor":14371,"thm":14372,"perial":14373,"ĠAnanya":14374,"alzone":14375,"ĠCVS":14376,"ĠWat":14377,"Ġsensor":14378,"Teacher":14379,"Lights":14380,"Ġdrowning":14381,"Jennifer":14382,"Years":14383,"ĠMeenamma":14384,"Ġrally":14385,"Ġgoods":14386,"Ġoverhe":14387,"Ġbreakthrough":14388,"ĠGoodbye":14389,"Heading":14390,"Ġinitiated":14391,"ĠIranian":14392,"ĠLIKE":14393,"-Not":14394,"Earlier":14395,"WM":14396,"Ġdisrupt":14397,"Ġkindly":14398,"ĠBeam":14399,"Ġmouths":14400,"Ġattraction":14401,"Ġshells":14402,"Ġproducts":14403,"Ġwhispering":14404,"Ġpouring":14405,"Ps":14406,"via":14407,"wiches":14408,"Ġbent":14409,"Ġdaw":14410,"stas":14411,"ĠSri":14412,"ĠCons":14413,"ĠDone":14414,"ĠGames":14415,"Ġdrank":14416,"Ġsupper":14417,"Profile":14418,"Ġcloses":14419,"ĠKatie":14420,"ĠRadio":14421,"Ġtroubling":14422,"Ġprocedures":14423,"ĠBennett":14424,"Ġphilosophy":14425,"ĠLannister":14426,"Mel":14427,"Penny":14428,"Ġpic":14429,"Ġinmates":14430,"achy":14431,"ĠCelia":14432,"ĠCasey":14433,"Ġally":14434,"ĠFreeze":14435,"uckers":14436,"Donkey":14437,"Ġdeadline":14438,"Ġcomponent":14439,"Ġrains":14440,"ĠBean":14441,"Ġcolored":14442,"Ġinvested":14443,"Ġrequests":14444,"Ġwarmth":14445,"Heads":14446,"Ġclicking":14447,"Ġcomplaining":14448,"Ġrumor":14449,"Ġutility":14450,"Ġpsychology":14451,"51":14452,"Danny":14453,"cs":14454,"Ġliking":14455,"ĠCobra":14456,"Andre":14457,"ĠDennis":14458,"Ġmane":14459,"ĠRosa":14460,"aku":14461,"Ġpeas":14462,"ondor":14463,"Nowhere":14464,"Ġchit":14465,"Ġresting":14466,"Ġrival":14467,"irthday":14468,"Ġcooler":14469,"Ġfilming":14470,"Ġallowing":14471,"ĠDean":14472,"Ġcostumes":14473,"ravis":14474,"warves":14475,"Ġdeceit":14476,"Ġdecorated":14477,"-Wing":14478,"Ġfrankly":14479,"Ġscholarship":14480,"-term":14481,".s":14482,"DO":14483,"SO":14484,"Tri":14485,"_Build":14486,"_Clean":14487,"kish":14488,"Ġstink":14489,"ĠMode":14490,"Ġruth":14491,"endous":14492,"Ġdeport":14493,"ĠPunjab":14494,"ĠRavi":14495,"resents":14496,"acts":14497,"Ġmonitors":14498,"Ġincor":14499,"Ġchicks":14500,"Ġprocessing":14501,"Editor":14502,"Ġpetrol":14503,"Ġspoiled":14504,"ĠLiquid":14505,"Katniss":14506,"Ġtactical":14507,"Louis":14508,"Lead":14509,"Ġsang":14510,"Ġbore":14511,"Ġdessert":14512,"Ġlick":14513,"Ġrelevant":14514,"ĠMess":14515,"Ġbutcher":14516,"ĠPost":14517,"abric":14518,"ĠFe":14519,"apas":14520,"harge":14521,"ĠVIP":14522,"ĠURI":14523,"Ġtransp":14524,"ĠAlan":14525,"Screen":14526,"THING":14527,
[...]
