#version: 0.2
à ¶
à ·
Ġ à¶
à· Ĭ
à¶ ±
à· Ĵ
à· Ģ
à· ı
à¶ º
č Ċ
à¶ ¸
à¶ ļ
à¶± à·Ĭ
à· Ļ
à¶ »
à¶ Ń
à· Ķ
à· ļ
à· Ħ
à¶ ½
à¶ §
. čĊ
à¶±à·Ĭ à¶±
Ġà¶ ļ
à· ĥ
à¶ ¯
à· Ĳ
Ġà¶ ¸
Ġ à·Ģ
à¶ļ à·Ĭ
à¶º à·ı
à¶ ľ
à· ľ
à·Ĵ à¶º
à¶Ń à·Ĭ
à¶ ´
Ġà¶ ±
Ġà¶ ¯
Ġà¶ ĳ
Ġà¶ ´
Ġ à·Ħ
Ġà¶ ħ
à¶º à·Ĵ
Ķ à¶ºà·ı
à·Ģ à·ı
Ġà¶ Ń
? čĊ
Ġà¶ ľ
Ġ à·ĥ
à¶½ à·ı
à·Ļ à¶±
à¶¸ à·Ĭ
â Ģ
Ġà¶ļ à¶»
âĢ į
à¶ ©
. .
à·ĥ à·Ĭ
à·Ķ à·Ģ
à¶ ¶
à· ĵ
Ġà¶ Ķà¶ºà·ı
Ġà¶ ¶
à¶ľ à·ļ
à· Ŀ
Ġà¶ļ à·Ĵà¶º
à· ĳ
à·Ļ à¶±à·Ĭà¶±
à¶½ à·Ĭ
Ġà¶ ī
à¶» à·Ĵ
Ġà¶ Ĵ
à¶ «
Ġà¶ º
Ġà¶ ĩ
à¶´ à·Ĵ
! čĊ
à¶ Ķà¶ºà·ı
à·Ĵ à¶±à·Ĭ
à¶» à·Ĭ
à·ı à·Ģ
à¶Ńà·Ĭ à¶Ń
à¶ ħ
à¶¸ à¶¸
à· ħ
Ġà¶ĳ à¶ļ
Ġà¶ļà¶» à¶±à·Ĭà¶±
Ġà¶ Ķ
à·Ļ à¶±à·Ĭ
Ġà·Ģ à·Ĵ
Ġà¶± à·Ĳ
à¶ Ĥ
à·Ĳ à¶±
à¶Ń à·Ĵ
à¶ ĳ
à¶ Ĵ
Ġà¶ ĭ
à¶± à·Ģà·ı
à¶º à¶ļà·Ĭ
à¶± à·ļ
à¶» à·Ķ
à· ģ
Ġà¶¸ à¶¸
Ġà¶ ½
âĢį à¶»
Ġà¶¸ à·ļ
à¶±à·Ĭà¶± à·ļ
à·Ģ à·Ķ
à¶± à·ı
à·Ģ à·Ĭ
Ġà¶± à·ĳ
Ġà¶Ń à·Ĵà¶º
Ġà¶ ķ
Ġà·Ħ à·Ĵ
Ġà¶ Ĩ
â Ī
à¶Ń à·Ķ
âĪ Ļ
Ġà¶Ĵ à¶ļ
à¶ ł
à·ľ à¶ļ
à¶± à·Ĵ
à¶¸ à¶§
à¶ Ķ
Ġà¶ĳ à¶ºà·ı
à·Ħ à·Ĳ
Ġà¶¸ à¶§
Ġà·Ħ à·ľ
Ġà¶ļà·Ĵà¶º à¶½à·ı
à·Ħ à·Ļ
à¶ ³
à¶¸ à·ļ
à¶ļà·Ĭ à¶ļ
à·Ģ à·Ĵ
Ġà¶´ à·Ķ
à·ĥà·Ĭ à·ĥ
à¶½à·Ĭ à¶½
à·Ļ à¶ļà·Ĭ
Ġà¶ħ à¶´à·Ĵ
Ġà¶ »
à¶¯ à·Ĭ
à·Ħ à·Ķ
.. .
Ġà·Ģ à·Ĳ
Ġà·Ģ à·Ļ
à¶¯ à·Ĵ
Ġà·Ģ à·Ļà¶±
à¶¸ à·Ķ
à¶ľ à¶±à·Ĭà¶±
Ġà¶ļ à·ľ
Ġà¶ī à¶±à·Ĭà¶±
.. .čĊ
à·Ģ à¶¯
Ġà¶ļ à·Ĵ
à· Ĥ
à¶¸ à·ı
à¶ľ à·Ļ
Ġà·Ħ à·Ĳ
à¶ ¢
Ġà¶¸ à·Ļ
Ġà·Ģ à·Ļà¶±à·Ĭà¶±
à·ı à¶»
à¶ °
à¶ħ à¶´à·Ĵ
à¶§ à·Ĭ
à· ĸ
à¶Ń à·ı
Ġà¶¯ à·Ļ
à·Ħ à·ľ
à·Ĳ à¶±à·Ĭ
Ġà¶± à·Ĵ
âĪĻ čĊ
Ġà¶Ķà¶ºà·ı à¶§
à¶Ĵ à¶ļ
à¶¸ à¶ºà·Ĵ
à·Ķà·Ģ à¶±à·Ĭ
Ġà¶ľ à·Ĳà¶±
Ġà¶º à¶±à·Ĭà¶±
Ġà¶ ¢
à¶ĳ à¶ºà·ı
Ġà·Ħà·Ĵ à¶Ń
à·ĥ à·Ĵ
Ġà·Ħ à¶»à·Ĵ
Ġà·Ģ à¶ľà·ļ
à¶¯ à·Ķ
à¶´ à·ı
à¶½ à·Ĵ
Ġà¶ķ à¶±
à·ģ à·Ĭ
Ġà¶¸ à·ľà¶ļ
à·Ļà¶± à·Ģà·ı
à·Ģ à·Ļ
à·Ģ à¶Ńà·Ĭ
à¶ ĩ
Ġà¶¸ à¶ľà·ļ
. .čĊ
à¶§ à¶¸
Ġà·Ģà·Ĳ à¶©
à¶Ń à¶»
Ġà¶¯ à¶±à·Ĭà¶±
Ġà¶¸ à·Ĵ
Ġà¶´ à·Ĭ
à·ľ à¶©
Ġà¶´ à·Ĵ
Ġà¶±à·Ĳ à·Ħà·Ĳ
à¶± à¶º
à¶ľ à·Ļà¶±
Ġà¶ļ à·ı
à¶ļ à·ľ
Ġà¶¸ à·ľ
Ġà·Ģà·Ļ à¶½à·ı
Ġà¶¶ à¶½
Ġ ?čĊ
à·ĥ à·ı
Ġà¶ľ à¶±à·Ĭà¶±
à¶ļ à¶»
à¶´ à·Ķ
à·Ħ à·ı
à¶ļ à¶§
à¶¯à·Ĭ à¶¯
à¶¯ à¶»
à¶½ à¶§
à¶§ à·Ĵ
Ġà¶ļà·Ĵà¶º à¶±à·Ĭà¶±
Ġà¶Ń à·Ĵ
Ġà¶ĳ à¶ļà·Ĭà¶ļ
à·Ĵà¶º à¶§
à¶¸ à¶¯
Ġà¶¯ à·Ļà¶±à·Ĭà¶±
à¶Ń à·Ĵà¶º
à·Ģ à·ļ
Ġà¶ §
à¶Ń à¶±
Ġà·Ģ à·Ķ
à·Ħ à·Ĵ
Ġà¶¯ à·ļ
à·ĵ à¶¸
Ġà¶´ à·Ĳ
à¶ł à·Ĭ
âĢį à¶º
à¶ļ à·Ķ
Ġà¶± à·Ļ
Ġà¶ļ à·Ĳ
Ġà·ĥ à·Ĵ
à·Ħ à¶»à·Ĵ
à¶± à·Ģ
Ġà¶¶ à·Ĳ
à·ĥ à·Ķ
à¶¸ à·Ļ
à¶ Ł
à¶½ à·Ĵà¶±à·Ĭ
à¶ļ à·Ĵ
à¶Ķà¶ºà·ı à¶§
Ġ .čĊ
à¶ ī
à¶ ¹
à¶´ à·Ĭ
à·Ħ à·ļ
à¶ļà·Ĭ à·Ĥ
Ġà·Ħà·ľ à¶³
Ġà¶¸à·ļ à¶ļ
Ġà¶Ń à¶¸à¶ºà·Ĵ
Ġà¶ļ à·Ļà¶±
Ġà¶´à·Ķ à·ħ
Ġà¶± à¶¸à·Ĭ
Ġà¶¯à·Ļ à¶ºà¶ļà·Ĭ
à¶± à¶¸à·Ĭ
Ġà¶ļà·Ĵà¶º à¶½
à¶¯ à·ı
Ġà¶¯ à·Ĳà¶±à·Ĭ
Ġà¶ļà·Ĵ à·Ģà·Ĭ
Ġà¶ĳ à¶´à·ı
à¶§ à·Ĵà¶º
à¶¸ à·ľà¶ļ
à¶± à·Ģà¶¯
Ġà¶Ķ à¶¶
à·Ĵ à¶ļ
à¶łà·Ĭ à¶ł
Ġà¶´à·Ķà·ħ à·Ķà·Ģà¶±à·Ĭ
Ġà¶ľ à·Ĵ
à¶½ à·ļ
Ġà¶¸à·Ĵ à¶±à·Ĵ
à¶± à·Ķ
à¶» à·ı
à¶º à¶§
à·Ħà·Ļ à¶¸
Ġà¶ħ à¶»
Ġà¶ĳ à¶±à·Ĭà¶±
Ġà¶¸ à·Ķ
à¶ ĭ
Ġ âĢį
Ġà¶ķ à¶±à·ļ
à¶± à·Ļ
Ġà¶¯ à·Ĳà¶±
Ġà¶ħ à·Ģ
à¶º à·ļ
à¶ļà·Ĭ à¶¯
Ġà¶¸ à·ı
Ġà¶¸ à·Ĳ
Ġà·ĥ à·Ĭ
à·Ħ à·Ĭ
à· Ĩ
à¶¸ à·Ĵ
Ġ ,
Ġà¶ļ à¶Ńà·ı
Ġà¶Ńà·Ĵ à¶¶
à¶ ®
Ġà¶¯ à·ı
Ġà¶ħ à¶´
à¶¸ à¶Ĥ
Ġà¶¯ à·Ķ
Ġà¶Ńà·Ĵà¶º à·Ļà¶±à·Ĭà¶±
à¶ļ à·ı
Ġà¶Ńà·Ĵà¶º à·Ļà¶±à·Ģà·ı
à¶Ńà·Ĭà¶Ń à·ı
à¶¸à·Ĭ à¶¶
Ġà¶¯ à·Ĵ
à¶© à·ı
à¶¸ à¶ļà·Ĭ
Ġà¶Ń à·ı
à·Ģ à¶±à·Ĭà¶±
Ġà¶¯ à·Ĳ
Ġà¶Ķ à·Ħà·Ķ
Ġà¶Ķà¶ºà·ı à¶ľà·ļ
Ġà¶ļà¶» à¶±à·Ģà·ı
Ġà¶ĩ à¶Ńà·Ĵ
à¶© à·Ĵ
à·Ħà·ľ à¶¸à¶¯
Ġà·Ħà·Ĳ à¶¸
à¶© à·Ĭ
à¶« à·ı
à·ľ à¶Ńà·Ĭ
Ġà·ĥ à¶¸
à·Ģà·Ķ à¶±à·Ĭ
Ġà·Ģà·Ļà¶± à·Ģà·ı
Ġà¶ĳà¶ļ à¶ļà·Ĭ
à¶½ à·Ķ
Ġà·ĥ à·Ħ
Ġà·Ħà·ľ à¶¯
Ġà¶±à·Ĳ à¶Ńà·Ĵ
à·Ģà·Ķ à¶»à·Ķ
Ġà¶¸ à·ıà·Ģ
à·ħ à·Ķ
Ġà¶ħà¶´à·Ĵ à¶§
Ġà¶ľ à·ľà¶©
Ġà¶ĩ à¶Ńà·Ĭà¶Ń
à¶±à·Ĭà¶± à·Ļ
Ġà¶ļ à·Ĭ
Ġà¶ļà¶»à¶±à·Ĭà¶± à·ļ
à·ļ à¶¯
, čĊ
à·ľ à¶»
Ġà¶¸ à¶Ĥ
à¶¸ à¶ľà·ļ
Ġà¶ļà·Ĳ à¶¸
à¶¸ à¶±à·Ĭ
Ġà¶¶ à·ĳ
Ġà¶ħ à·Ħ
Ġà¶´à·Ķ à¶½
Ġà¶ĭ à¶¯
à¶§ à·Ķ
Ġà¶¶à¶½ à¶±à·Ĭà¶±
à¶Ń à·Ķà·Ģ
à·Ģ à¶»
Ġà·Ģà·Ĵ à¶Ńà¶»
à¶Ń à·Ĵà¶±à·Ĭ
à·Ħ à¶»
à¶º à·Ļà¶±à·Ĭ
à¶Ķ à·Ģà·Ĭ
Ġà¶ĳ à·Ħà·Ļà¶¸
Ġà¶¯à¶±à·Ĭà¶± à·Ģà·ı
à·Ģà·ı à·ĥ
à¶ļ à·ıà¶»
à¶Ĵ à¶Ńà·Ĭ
Ġà¶ľ à·Ļ
à¶º à·Ļà¶ļà·Ĭ
à¶ ·
Ġà¶´à·Ķà¶½ à·Ķà·Ģà¶±à·Ĭ
à·ĥà·Ĭà·ĥ à·Ķ
Ġà¶§ à·Ĵà¶ļ
Ġà¶´ à·ı
à¶Ńà·Ĵà¶º à·Ĵ
à¶» à·ĵ
à¶¸à·ļ à¶ļ
Ġà·ĥ à·Ĳ
à¶« à·Ķ
Ġà¶½ à·Ĳ
Ġà¶ļà·Ļà¶± à·Ļà¶ļà·Ĭ
Ġà¶´ à·ĥà·Ĭà·ĥ
i n
à¶¸ à·ľ
Ġà¶± à·ľ
Ġà¶Ķà¶ºà·ı à·Ģ
Ġà·Ħ à¶¯
Ġ !čĊ
à¶Ń à·ıà·Ģ
Ġà¶¸à·Ļ à¶Ńà¶±
à·ļ à¶»
Ġà¶ī à¶±à·Ĭà¶±à·ļ
âĪĻ âĪĻ
à¶ľ à·Ĭ
à·Ģ à¶½à·Ĭ
Ġ ...
Ġà¶º à·ı
Ġà¶Ńà·Ĵà¶º à·Ļà¶±
à¶¯ à·Ĳà¶±à·Ĭ
à¶Ķ à¶¶
à¶« à¶º
Ġà¶¸à·ľà¶ļ à¶¯
Ġà¶ ©
Ġ -
Ġà¶ļà·ľ à·Ħà·ľà¶¸à¶¯
à¶± à·Ĳ
à¶ľ à·Ĵ
à¶¯ à·Ļ
Ġà·Ģà·Ĵ à·ģà·Ĭ
Ġà·Ħà·ľ à¶ºà·ı
Ġà¶ļ à·Ļ
à¶ Ĩ
Ġà·Ģ à¶½
à·Ķà·Ģ à·ļ
Ġà¶ļà·Ĵà¶º à¶±à·Ĭà¶±à·ļ
à·Ģà·Ļ à¶ºà·Ĵ
Ġà¶ ł
à¶Ń à¶ļ
Ġà¶ļ à·ħ
à¶ľ à·Ļà¶±à·Ĭ
Ġà¶±à·Ĵ à·ĥà·ı
à¶Ńà·Ĭà¶Ń à·ļ
à¶ļ à·Ŀ
Ġà¶Ĩ à¶»
à¶§ à¶±à·Ĭ
à¶¶ à·ı
Ġà¶ħà¶´ à·ļ
Ġà·Ħà·Ĵ à¶§à·Ĵà¶º
à¶Ķ à·Ħà·Ķ
à¶ħà¶´à·Ĵ à¶§
Ġà¶¢ à·ĵ
à¶ļà·ľ à¶§
à¶ļ à·ļ
à¶łà·Ĭà¶ł à¶»
à¶±à·Ĭ à¶§
à·Ģà·Ķ à¶¯
Ġà¶Ńà·Ĵà¶ºà·Ļà¶±à·Ĭà¶± à·ļ
Ġà¶ļà¶» à¶½à·ı
âĢį à¶»à·Ĵ
Ġà¶ľà·ľà¶© à¶ļà·Ĭ
Ġà·Ħ à¶»
à·Ħ à·Ļà¶±
Ġà·ĥ à·ı
Ġà¶ħ à¶º
Ġà¶ħ à¶¯
Ġà¶¸ à¶»
Ġà·Ģà·Ĵà·ģà·Ĭ à·Ģà·ıà·ĥ
Ġà·ĥ à·Ķ
à·Ķà·Ģ à·Ļà¶±à·Ĭ
Ġà¶¶ à¶½à·ı
Ġà·Ģ à·ı
Ġà¶īà¶±à·Ĭà¶± à·Ģà·ı
à·Ģ à·ĥ
à¶± à·ĳ
Ġà¶¶ à·Ĵ
Ġà¶½à·Ĳ à¶¶
Ġà¶ĩ à¶º
à¶½ à·Ŀ
à¶¸ à¶Ńà·Ĭ
Ġà¶Ń à¶»
Ġà¶¸ à·Ħ
Ġà¶Ń à·Ĳà¶±
à¶ļ à·Ĵà¶±à·Ĭ
Ġà¶Ĵ à¶Ńà·Ĭ
Ġà¶ĩ à¶Ńà·Ķ
Ġà¶± à·ļà¶¯
Ġà¶ļà¶» à¶±
à¶Ńà·Ķ à¶»
à¶¯à·Ĭ à¶°
à·Ĵà¶º à·ļ
Ġà¶¶ à·ľ
Ġà¶ķà¶± à·Ļ
Ġà¶Ķà¶ºà·ı à¶ľà·Ļ
Ġà¶ļ à¶½à·Ĵà¶±à·Ĭ
Ġà¶¸à·Ļ à·Ħà·Ļ
Ġà·Ģ à·ļ
Ġà¶ļà·Ĵ à·ĥà·Ĵ
à¶¸ à¶±
âĢį à¶ºà·ı
" čĊ
Ġà¶Ń à·Ķ
Ġà¶º à¶±à·Ģà·ı
à· ĺ
Ġà¶ĳà¶ºà·ı à¶§
Ġà¶ĭ à¶¹
à·Ķà·Ģ à¶ļà·Ĭ
à¶ĩ à¶ºà·Ĵ
Ġ à·ģ
Ġà¶±à·Ļ à·Ģà·Ļà¶ºà·Ĵ
Ġà¶ļ à·Ķ
à¶± à·Ĵà¶º
Ġà·Ģ à¶½à¶§
à¶© à·Ķ
à¶Ń à·ļ
âĢįà¶» à·ģà·Ĭ
à¶ļ à¶¸à·Ĭ
à¶ºà·Ĵ à¶±à·Ĭ
Ġà¶Ń à·Ģ
à¶± à¶ºà¶ļà·Ĭ
Ġà¶± à·Ĵà¶º
à·Ģ à·Ĵà¶º
à¶½ à·Ļ
Ġà·Ħà·Ĵà¶Ń à¶±à·Ĭà¶±à·ļ
à·ĥ à¶¸
à¶§ à¶»à·Ĭ
a n
à·Ħ à·Ĵà¶±à·Ĭ
e r
Ġà¶º à¶±à·Ĭà¶±à·ļ
à¶Ńà·Ĭ à·Ģ
à¶½ à¶º
à¶ļ à¶º
Ġà·Ģà·Ļà¶±à·Ĭà¶± à·ļ
Ġà¶Ķ à·Ģà·Ķà¶±à·Ĭ
Ġà·Ģà·Ĵ à¶¯à·Ĵ
à¶Ńà·Ĭ à¶¸
Ġà¶Ńà·Ĵà¶¶ à·Ķ
à¶¯ à·ĵ
à¶´ à·Ħà·Ķ
Ġà·ĥ à¶»à·Ĭ
Ġà¶ľ à·Ĳ
i t
Ġà¶´ à·ľà¶©
Ġà¶Ķ à¶º
Ġà¶ļà·Ĵà¶º à¶±
à·Ģ à¶§
Ġà·Ģà¶ľà·ļ à¶¸
Ġà·Ģà·Ķ à¶±à·ı
Ġà¶´ à·ľ
à¶ľ à·Ķ
o n
Ġà¶ļ à¶½à·ı
Ġà¶ĭà¶¯ à·Ģà·Ĭ
Ġà·Ģà·Ĵà¶Ńà¶» à¶ºà·Ĵ
Ġà¶¸à·ľà¶ļ à¶ļà·Ĭà¶¯
Ġà¶ĩ à·Ģà·Ĵ
Ġà¶Ĩ à¶¯à¶»
à·Ĵà¶º à¶ļà·Ĭ
Ġà¶ĳà¶ļ à¶§
Ġà¶ĩ à¶ºà·Ĵ
Ġà¶ĳà¶ºà·ı à·Ģ
à¶¸à·ľà¶ļ à¶¯
Ġ à·ħ
à¶Ńà·Ķ à¶»à·Ķ
Ġà·Ģ à¶©à·ı
à¶¶ à·Ĭ
Ġà¶ ·
à·Ĥ à·Ĭ
à¶« à·Ĭ
à¶¶ à¶½
à·ıà·Ģ à·Ļà¶±à·Ĭà¶±
Ġà¶¯à·ļ à·Ģà¶½à·Ĭ
Ġà¶¸à·Ĵà¶±à·Ĵ à·ĥà·Ĭà·ĥà·Ķ
Ġà·Ħ à·ı
à¶» à·Ķà·Ģ
à·Ģ à·Ĳ
Ġ à·Ĩ
à¶½à·Ĭ à¶½à·ı
à·ıà·Ģ à·Ĵ
à·Ħà·Ļà¶± à¶¸à·Ĭ
à·Ģ à·Ļà¶±
à·Ħà·ľ à¶³
à¶º à·Ķ
Ġà¶¯à·Ĳ à¶ļà·Ĭà¶ļ
Ġà¶ľà·Ļ à¶¯à¶»
à¶º à·Ļ
Ġà·Ģà·Ļà¶± à·Ķà·Ģà·Ļà¶±à·Ĭ
Ġà·Ģà·Ĵà¶¯à·Ĵ à·Ħ
à¶ī à¶Ńà·Ĵà¶±à·Ĭ
Ġà¶ħ à¶¸à·Ĭ
Ġ "
à·ĥ à¶±à·Ĭ
Ġà·Ģà·Ĵ à¶¯
Ġà¶ļ à·Ģà¶¯
à¶ĳ à¶ļ
Ġà¶¸à·ľ à¶±à·Ģà¶¯
à¶½à·Ĭà¶½ à·Ĵ
Ġà¶Ń à·ļ
à·ı à¶±
à·Ģ à·Ļà¶±à·Ĭà¶±
Ġà¶ Ĭ
m e
à¶±à·Ĭ à¶¯
Ġà¶Ĩ à¶´à·Ħà·Ķ
Ġà¶ļà·Ĳà¶¸ à¶Ńà·Ĵ
Ġà¶ļà¶»à¶±à·Ĭà¶± à·Ļ
à¶» à¶ļ
Ġà¶ħ à¶½à·Ĭà¶½
Ġà¶ī à·Ģà¶»
à·ıà·Ģ à¶ļà·Ĭ
Ġà¶Ķ à·Ģà·Ĭ
à¶ħ à¶´
Ġà¶§à·Ĵà¶ļ à¶ļà·Ĭ
à·Ģ à¶Ń
Ġà¶º à·Ķ
Ġà¶ļà·Ĵà·Ģà·Ĭ à·Ģà·ı
à·ıà·Ģ à¶Ńà·Ĭ
à¶Ĥ à¶ľ
Ġà¶ľà·Ĵ à¶ºà·ı
Ġà¶ľà·Ĵ à·Ħà·Ĵà¶±à·Ĭ
à¶º à·Ŀ
à¶» à·ļ
Ġà¶¯ à¶±à·Ĭà¶±à·ļ
à¶§à·Ĭ à¶§
à·ľà¶ļ à·Ķ
à·ĥ à·Ĵà¶º
à·Ŀ à¶¸
Ġ t
Ġà¶ĩà¶Ńà·Ĭà¶Ń à¶§à¶¸
Ġà¶ļ à·Ģà·Ķà¶¯
à·Ħà·Ļ à¶¯
à·Ģ à¶ļà·Ĭ
à¶ĩ à¶º
Ġà¶±à·Ĳ à¶¯à·Ĭà¶¯
à¶º à¶±à·Ĭ
Ġà¶¶à·Ĳ à¶»à·Ĵ
Ġà¶Ĩà¶» à¶ļà·Ĭà·Ĥ
à¶¸à·Ķ à¶Ńà·Ĭ
à·Ħà·ľ à¶¸
à¶Ķà¶ºà·ı à¶ľà·ļ
à¶¸ à·Ĵà¶±à·Ĭ
Ġà·Ģà·Ļ à¶ºà·Ĵ
Ġà¶ħ à¶Ń
à¶ ķ
Ġà·Ģà·Ĳ à¶»
Ġ (
à¶½ à·ĵ
Ġà¶Ń à¶¸à·ı
Ġà¶ļà·Ĵà¶ºà¶±à·Ĭà¶± à·Ļ
Ġà¶ļ à·ĳ
Ġà¶ķ à¶±à·ı
à·ľ à¶¸
Ġà¶ļ à·Ŀ
Ġà¶¯à·Ļ à¶ļ
à¶ĭ à¶¹
à¶Ńà·Ĭà¶Ń à·Ķ
Ġà¶´ à·Ļ
Ġà¶± à·Ģ
à¶³ à·Ķ
à¶´ à¶±à·Ĭ
à·Ķà·Ģ à·Ļ
Ġà¶´ à·ļ
Ġà¶ļà·ı à¶»à·Ĭ
Ġà¶¶à·Ĳ à·Ħà·Ĳ
Ġà¶» à·ı
Ġà¶ĭ à¶±à·ı
à¶½ à·Ĵà¶º
Ġà·Ħ à·Ļ
à·ĥ à·Ļ
à¶ļ à¶±à·Ĭ
Ġà¶Ńà·ļ à¶»à·Ķ
à¶± à·ĵ
Ġà¶ľ à·Ļà¶±
à¶Ń à¶ļà·ľà¶§
Ġà¶ĳà¶ļ à·ļ
Ġà¶¢à·ĵ à·Ģà·Ĵ
à·Ķà·Ģ à¶§
Ġà¶´ à·ıà¶»
à¶Ń à¶º
à¶¸à·Ĭ à¶´
o r
Ġà¶½ à·Ŀ
à·Ħ à·ĥà·Ĭ
Ġà·ĥ à¶Ńà·Ķ
à¶Ń à·ĸ
Ġà¶´ à·Ħ
à¶±à·Ĭ à¶°
à·ħ à·Ĵ
Ġà¶ľ à·Ħ
Ġà·ĥ à¶Ĥ
à·ĵà¶¸ à¶ļà·Ĭ
Ġà¶ĳ à¶±à·Ģà·ı
0 0
Ġà¶Ńà·Ĵà¶¶ à·Ĭ
Ġ in
Â ł
Ġà¶ĳà¶ºà·ı à¶½
Ġà¶ī à¶ļà·Ĭ
Ġà¶Ķ à¶ļà·Ĭà¶ļ
Ġà¶± à¶¸
Ġà¶½ à·ľà¶ļà·Ķ
Ġà¶¯ à·Ģà·ĥ
à·Ģ à·ĵ
Ġà¶īà¶±à·Ĭà¶± à·Ļ
Ġà·Ħ à¶¸à·Ĭà¶¶
Ġà¶ħ à¶±
Ġà·Ħ à·Ķ
Ġà¶ļ à¶½
à¶« à·Ĵ
à¶® à·ı
Ġà¶´à·Ĵ à¶§
à·Ģà·Ļ à¶½à·ı
Ġà¶ļà·Ĵà·ĥà·Ĵ à¶¸
Ġà·Ħà·ľà¶³ à¶ºà·Ĵ
à¶ľ à·ı
â Ļ
à·ĥ à¶ļà·Ĭ
à¶«à·ı à¶ļà¶»
Ġà¶ľ à·ļ
à·Ħà·ľà¶³ à¶ºà·Ĵ
Ġà¶´à·ĥà·Ĭà·ĥ à·ļ
Ġà·Ģà·Ļà¶± à·ĥà·Ĭ
à·ĥ à·ļ
Ġà¶¯à·ı à¶±à·Ĭà¶±
Ġà¶ļà·Ģà¶¯ à·ıà·Ģà¶Ńà·Ĭ
à¶º à¶±à·Ĭà¶±
Ġà¶Ĵà¶ļ à¶§
a r
a t
Ġà¶ħ à¶±à·Ĵ
Ġà¶ļà¶» à¶ľà¶±à·Ĭà¶±
âĢį âĢį
Ġà·ĥ à·Ļ
à¶ľ à¶Ńà·Ĭà¶Ńà·ı
Ġà·Ģà·Ĵ à¶±à·ı
Ġà¶¸à·Ĳ à¶»
Ġà¶Ĵ à·Ģà·ı
Ġà¶´à·Ĳ à¶Ńà·Ĭà¶Ń
Ġà·Ħà·Ĵà¶§à·Ĵà¶º à·ļ
à¶½ à¶ļà·Ĭ
Ġà¶ļ à¶½à·ļ
à¶ľ à¶Ńà·Ĭà¶Ń
Ġà¶ļà¶» à·ı
Ġà¶ĳà¶ºà·ı à¶ľà·ļ
à·Ĵà¶º à·Ĵ
à¶ºà·ı à·Ģ
Ġà¶´ à¶»à·Ĵ
Ġà¶¯ à·Ļà¶±
à¶Ńà·Ĭ à¶±à¶¸à·Ĭ
à·Ļ à¶ºà·Ĵ
Ġà¶¸ à¶ľà·Ļ
à·Ĳ à¶ļà·Ĭ
Ġà¶ļà·ħ à·ı
Ġà¶Ńà·Ĵà¶ºà·Ļà¶±à·Ĭà¶± à·Ļ
à¶º à¶ļ
à·Ĵ à¶Ń
Ġà¶» à·Ĳ
Ġà¶ī à¶¯
Ġà¶Ńà·Ĵà¶º à¶±à·Ģà·ı
Ġà¶ī à¶³
à¶Ķ à·Ģà·Ķà¶±à·Ĭ
à·Ļà¶±à·Ĭà¶± à·ļ
à¶ľ à·Ŀ
Ġà¶º à¶¸à·Ķ
à¶¯ à·ļ
Ġà¶ħà·Ħ à¶±à·Ĭà¶±
Ġà¶ĭ à¶Ńà·Ĭ
à¶¸à·Ļ à¶ºà·Ĵ
à¶±à·Ĭ à¶Ń
Ġà¶ĳ à¶½
à·ľà¶» à·ľ
Ġà·Ħà·Ĵà¶Ń à¶±à·Ĭà¶±à·Ļ
à·Ģà·Ķà¶»à·Ķ à¶¯à·Ķ
à¶§ à¶¯
Ġà¶¸à·ľ à¶±
à¶±à·Ĭ à·Ģ
à¶±à·ı à¶¯
Ġà¶º à¶±
Ġà¶ļà·Ļ à¶½à·Ĭà¶½
Ġà¶±à·Ļ à¶¸à·Ļà¶ºà·Ĵ
Ġà¶Ĩ à·Ģà·ļ
Ġà¶ļà·Ĵà·Ģà·Ĭ à·Ģà·ļ
Ġà·Ģà·Ķ à¶±à·ļ
à¶¸à·ľà¶ļ à¶ļà·Ĭà¶¯
Ġà·Ģà·Ĵà¶¯à·Ĵà·Ħ à¶§
Ġà¶´à·ľà¶© à·Ĵ
) čĊ
Ġà¶Ńà·ı à¶Ńà·Ĭà¶Ńà·ı
à¶Ķ à·Ħà·Ĭ
âĢįà¶» à·ĵ
Ġà¶± à·ı
Ġà·Ģ à¶½à·Ĵà¶±à·Ĭ
à¶± à·ıà·Ģ
Ġà¶ħ à¶ºà·Ĵ
à¶ĩ à¶Ńà·Ĭà¶Ń
à¶ļ à¶»à·Ķ
à·Ģ à¶¸
Ġ ...čĊ
Ġà¶ĭ à¶´
Ġà¶ľ à·ľ
Ġà¶¸ à¶Ńà¶ļ
à·Ħ à·Ķà·Ģ
âĢįà¶» à·ı
à·Ģ à¶½
à·Ħà·ļ à¶ºà·Ĵ
Ġ à·Ļ
Ġà¶ľ à¶Ńà·Ĭà¶Ńà·ı
Ġà·ĥ à¶¸à·Ĭà¶¶
Ġà¶´ à¶§à¶±à·Ĭ
à¶© à¶ļà·Ĭ
Ġà·Ħà·ľà¶ºà·ı à¶ľà¶±à·Ĭà¶±
Ġà·Ħà·Ĳ à¶¸à¶¯
Ġà¶¯à¶±à·Ĭà¶± à·Ģ
à¶ļà¶» à¶±à·Ĭà¶±
à¶§à·Ĵ à¶ºà·ı
Ġà¶» à·ĳ
Ġà¶Ńà·Ĵ à¶ºà·ı
Ġà¶ļà·ľ à·Ħà·Ļà¶¯
Ġà·Ģ à·ĵ
Ġà¶Ķà¶¶ à¶§
Ġà¶ļà·Ļà¶± à·ı
à¶» à¶º
Ġà¶¯à¶±à·Ĭà¶± à·Ģà¶¯
à¶ļà·Ķ à¶Ńà·Ĭ
Ġà¶ħ à¶Ńà·Ĭ
à¶¸ à·ıà·Ģ
à¶¢ à·Ĭ
Ġà·ĥà¶¸ à·ıà·Ģà·Ļà¶±à·Ĭà¶±
à·Ħà·Ĳ à¶¸
Ġà¶´ à¶»
Ġà·Ģà·Ļà¶±à·Ĭà¶± à·Ļ
à·Ģà·Ĵ à¶§
Ġà¶ħà·Ģ à·ģà·Ĭ
Ġà¶Ń à·ļà¶»
à¶¸ à·Ĳ
Ġà·ĥ à¶½à·Ĭà¶½à·Ĵ
Ġà¶ļ à·ĵ
Ġà·Ģà·Ĳà¶© à·Ĵ
Ġà¶ļà¶» à¶´à·Ķ
à¶ĳ à¶±à·Ĭà¶±
Ġà¶ľ à¶Ńà·Ĭà¶Ń
Ġà¶ļà·ľ à¶§
Ġà¶¶ à¶º
à¶Ķ à¶º
à¶Ĥ à¶ł
à·ĥ à·Ħ
à·Ĵà¶±à·Ĭ à¶¯
à¶»à·Ĭ à¶«
Ġà¶¯à·Ķ à¶±à·Ĭà¶±
Ġà·Ģà·Ĳà¶© à¶ļà·Ĭ
à¶ Ĭ
à·ĥ à¶»à·Ĭ
Ġà·Ģà·Ķ à¶±
Ġà¶¶ à·ı
Ġà·Ģà·Ļà¶½à·ı à·Ģ
à·Ĩ à·Ĭ
Ġà¶ĭ à¶±
Ġà¶¶ à·Ļ
âĻ ª
à¶´ à·Ĳ
à¶ļ à·Ĵà¶º
à¶ļ à¶½à·Ĭ
à¶ļ à·Ļ
à·Ħà·ľ à¶¯
Ġà¶ħ à·Ģà·Ķ
à¶ļà·ľ à·Ħà·ľà¶¸à¶¯
Ġà¶¯à·Ĵ à·Ħà·ı
à¶ľ à¶º
à¶ĳà¶ºà·ı à¶§
Ġà¶Ķà¶ļà·Ĭà¶ļ à·ľà¶¸
Ġà¶½ à·Ĵ
Ġà¶¯à¶±à·Ĭà¶± à·Ļ
Ġà·Ħ à·Ŀ
Ġà¶ħ à¶¸
Ġà·Ģà·Ĵà¶¯ à·Ĵà¶ºà¶§
Ġà¶ļ à·Ģà·Ķà¶»à·Ķ
Ġà¶½ à·Ļ
Ġà¶¯à·Ĳà¶± à¶ľà¶±à·Ĭà¶±
à¶½ à·Ķà·Ģ
à¶´ à·ĥà·Ĭà·ĥ
Ġà¶ķ à¶±à·Ĵ
Ġà¶¶ à·Ģ
Ġà·Ģà·Ĵ à·ģ
Ġà¶ļ à¶§
it y
âĪĻâĪĻ âĪĻ
. "čĊ
Ġà¶ĳà¶ļ à¶¸
Ġà¶ĳ à¶º
Ġà·Ħ à·ļ
Ġà¶½à·Ĳà¶¶ à·Ķ
à¶¶ à·Ĵ
Ġà·Ħà¶» à·Ĵà¶ºà¶§
Ġà·Ģ à·Ħ
à¶¶à¶½ à¶±à·Ĭà¶±
à¶¸à·ľ à¶±
Ġ k
à·ĥà¶¸ à·Ħà¶»
Ġà¶Ķà¶ºà·ı à¶½
âĢįà¶» à·ļ
Ġà¶½ à·ļ
Ġà¶ĩà·Ģà·Ĵ à¶Ńà·Ĭ
à·Ĵà¶º à·Ŀ
h e
Ġ s
Ġà¶¸à·ľà¶ļ à¶ļà·Ĭ
Ġà¶ºà¶±à·Ĭà¶± à·Ļ
Ġà¶±à·Ĳ à¶Ńà·Ĭà¶±à¶¸à·Ĭ
o u
Ġà¶¯ à·Ķà·Ģ
à·ĥà·Ĭà·ĥ à¶±
Ġà¶¶ à·Ŀ
à¶¸ à¶º
C ity
Ġà¶ħà¶» à¶ľà·Ļà¶±
à¶±à·Ĭ à¶Ńà·Ĵ
Ġà¶ļà·ľ à¶½à·Ĭà¶½
à¶° à·ı
à¶¯ à·Ļà¶±
Ġà¶±à·Ĳ à¶Ńà·Ķà·Ģ
à·ħ à·Ķà·Ģ
Ġà·ĥà¶¸à·Ĭà¶¶ à¶±à·Ĭà¶°
Ġà¶ĳ à·Ħà·Ļ
Ġà¶ĳà¶½ à·Ĵà¶ºà¶§
à¶»à·ĵ à¶ļà·Ĭà·Ĥ
Ġà·Ħà·Ĵ à¶§à·Ĵà¶ºà·ı
Ġà¶Ń à¶¸à·Ķ
Ġà¶Ńà·Ĵà¶¶à·Ĭ à¶¶
e s
Ġà¶ħà¶» à¶±à·Ĭ
Ġà¶ļà¶» à·Ķ
Ġà¶ľ à·Ĵà¶º
à¶łà·Ĭà¶ł à·Ĵ
a me
à¶» à·Ĵà¶º
Ġà¶ħ à¶Ńà¶»
âĢįà¶» à¶Ńà·Ĵ
à· Ľ
à¶« à¶ºà¶ļà·Ĭ
à¶§ à¶Ńà·Ĭ
Ġà¶īà¶ļà·Ĭ à¶¸à¶±
à¶¶ à·Ŀ
à¶» à·Ŀ
Ġà¶Ńà¶» à¶¸à·Ĭ
à·Ĭ à¶©à¶ļà·Ĭ
Ġà¶ĳà¶ºà·ı à¶½à·ı
Ġà¶¸ à·Ŀ
Ġà¶Ńà·ı à¶Ńà·Ĭà¶Ń
à¶Ķà¶ºà·ı à¶ľà·Ļ
Ġà¶ħ à·Ģà·Ķà¶»à·Ķà¶¯à·Ķ
à¶ĳ à·Ħà·Ļà¶±à¶¸à·Ĭ
Ġà¶ļà·Ĳà¶¸ à¶Ńà·Ĵà¶ºà·Ĵ
Ġà¶ĳ à¶Ńà¶±
à¶Ĥ à¶ļ
Ġà·ĥà·Ĳ à¶½
à·Ģ à¶»à·Ĭ
à· ŀ
Ġà¶¯ à¶ļà·Ĵ
à¶± à·Ŀ
à¶¸à·Ĵ à¶±à·Ĵ
Ġà¶ĳ à¶±
: čĊ
à¶¢ à·Ĵ
Ġà¶ļà·Ĵà¶º à¶±à·Ģà·ı
Ġà·ĥ à·Ĵà¶º
Ġà¶¯à·Ļ à·Ģà·Ĵà¶º
Ġà¶ļ à·ıà¶»
à¶± à¶ļà·Ĭ
Ġà¶ĭ à¶©
Ġà¶½ à¶¶à·ı
Ġà¶¸à·ľ à¶±à·Ģà·ı
à¶ħà¶´ à·ļ
Ġ C
à¶Ńà·Ķ à¶Ńà·Ĵà¶ºà·Ĵ
à¶¶ à·Ĳ
à¶ľ à¶Ń
à¶» à·Ļ
Ġà¶ħà¶´à·Ĵ à·Ģ
e n
à¶ľà¶±à·Ĭà¶± à·Ģà·ı
à·Ħ à·Ļà¶±à·Ĭ
Ġà¶±à·Ĳ à·Ģà¶Ń
à·ĥà·Ĭ à¶®
à·Ģ à¶ºà·Ĵ
à¶ļ à·Ģà·Ķà¶¯
à·ıà·Ģ à¶§
Ġà¶ĭ à¶±à·ļ
à·Ŀ à¶±à·Ĭ
à¶ľ à·Ĳ
Ġà¶ĳ à·ħ
à¶ħ à¶»
à¶©à·ı à¶º
Ġà¶´à·Ĵ à·ħà·Ĵ
Ġà·Ģà·Ļ à¶©à·Ĵ
Ġà¶ļà·Ĵà·Ģà·Ĭ à·Ģ
à¶ľ à¶Ńà·Ĭ
Ġà¶ľ à¶¸à¶±à·Ĭ
Ġà¶±à·Ļ à¶¸à·ļ
Ġà¶´à·ı à¶½
Ġà¶ī à¶Ńà·Ĵà¶±à·Ĭ
Ġà¶±à·Ģ à¶Ńà·Ĭà¶Ń
Ġà¶ Į
à·ĳ à¶±à·Ĭ
Ġà¶¸à·Ĳ à¶»à·Ķ
à¶ļ à¶½à·ı
Ġà¶ĳ à·Ħà·Ļà¶±à¶¸à·Ĭ
Ġà¶ļà·ı à¶½
à·ľ à¶ļà·Ĭ
à¶Ńà·ĸ à¶Ńà·Ĵà¶ºà·Ĵ
à¶¸ à·ĵ
Ġà¶±à·Ĳ à¶Ńà·Ĭà¶Ń
Ġà¶± à·ļ
Ġà¶¯ à·ĵ
Ġà·ĥ à·ĵ
à¶ĳ à¶Ńà¶ļà·ľà¶§
Ġà¶Ĩ à·Ģà·ı
Ġà·Ģà·Ĳà¶© à·ļ
Ġà¶´ à·Ģà·Ķ
Ġà¶¸ à·ĸ
à·ĥ à¶ºà·Ĵ
Ġà¶ºà·Ķ à¶Ńà·Ķ
Ġà¶ī à¶©
Ġà¶¢ à·Ĵ
g m
Ġà¶¸ à¶Ń
Ġà·Ħ à¶¸
Ġà¶± à¶»à¶ļ
à¶«à·ıà¶ļà¶» à¶½à·ı
Ġà¶´ à·Ĳà¶±
à·Ģ à¶±
à¶» à·Ĳ
à¶± à¶¸à·Ķà¶Ńà·Ĭ
Ġà¶´à·Ĳ à·Ħà·Ĳ
Ġk gm
à¶´ à·ľ
Ġà¶¶ à·ļà¶»
à¶§ à·Ĵà¶±à·Ĭ
à·Ħ à¶±à·Ĭ
à·Ģ à·ĥà·Ĭ
à¶ļ à¶¸
Ġà¶½ à·ĥà·Ĭà·ĥà¶±
Ġà¶´ à¶»à·ĵà¶ļà·Ĭà·Ĥ
Ġ .
Ġà¶´à·ĥà·Ĭà·ĥ à·Ļ
à¶ħ à¶±à·ļ
à¶Ń à·Ģ
Ġà¶ļà·ı à¶¸
à¶§à·Ĭ à¶§à·Ĵà¶º
Ġà¶ļà·Ĵà¶ºà¶½ à¶¯
Ġà·Ħà·ľà¶¯ à¶ºà·Ĵ
à·Ģ à¶ľà·ļ
à¶¯ à·Ķà·Ģ
à·Ħ à·Ŀ
à¶ºà·Ļà¶±à·Ĭ à¶¸
Ġ c
i s
à·ĥà·Ķ à¶±à·Ĭ
Ġà¶½ à¶ľ
à¶´ à¶Ńà·Ĭ
Ġà¶» à·Ŀ
à·Ģà·Ļà¶± à·Ĵ
Ġà¶Ķà¶¶ à·ļ
Ġà¶´à·Ķ à¶Ńà·ı
à¶ ¥
Ġà·Ħà¶»à·Ĵ à¶¯
Ġà·ĥ à·ļ
à¶ľ à·Ĳà¶±
à·Ģ à¶º
à¶¸à·ı à¶±à·Ĭ
Ġà¶¸à·ľà¶ļ à¶¯à·Ĭà¶¯
à·Ŀ à¶¯à¶»
Ġà·Ħà·ľ à¶º
à·Ģ à¶±à·Ĭ
Ġà¶ļà·ľ à¶łà·Ĭà¶łà¶»
à¶ħ à¶±à·Ĵ
à¶§à·Ķ à¶ºà·Ĵ
Ġà¶ļ à¶«à·Ĭ
Ġà¶ħ à¶¸à·ı
à·ĥà·Ĭ à¶Ńà¶»
Ġà¶Ńà·Ĵà¶º à¶±à·Ĭà¶±
Ġà¶ļà·Ĵà·Ģà·Ĭ à·Ģà·Ļ
à·ĥ à¶»
à·ĥà·Ĭ à¶Ńà·Ĵ
à·ļ à¶¸
Ġà·ĥà¶¸ à·Ħà¶»
Ġà¶¸à·Ļ à·Ħà·ļ
Ġà·Ħà·Ĵà¶Ń à¶±à·Ģà·ı
à·ı à¶»à·Ĭ
à¶° à·Ĵ
Ġà¶ĭ à¶±à·Ĭ
à¶« à·ļ
à¶Ń à¶¸à·Ķ
Ġà¶Ķà·Ħà·Ķ à¶§
à¶ĳà¶ºà·ı à¶½à·ı
Ġà¶¸à¶» à¶±à·Ĭà¶±
à¶ľ à·ľ
Ġà·Ħà¶» à·Ĵà¶º
Ġà¶± à¶ľ
à¶¸à·Ļ à¶Ńà¶±
Ġà·Ħà·Ĳ à¶ļà·Ĵ
Ġà¶ĭ à¶¶
Ġà·ĥ à·ľ
à¶ļ à·Ĳ
Ġà·Ģà·Ļà¶± à·Ģ
Ġ ..
à¶ĳà¶ºà·ı à¶½
Ġà·Ģà·ļ à·Ģà·Ĵ
à¶ļ à¶ºà·Ĵ
Ġà¶ļà·Ĵ à¶»
à·Ģ à¶±à·Ģà·ı
à¶ĳ à·Ħà·Ļà¶¸
à·ĥ à·ĵ
Ġà·Ģ à¶»
à¶ħ à¶¸à·Ĭ
Ġà·Ģ à¶ľ
à¶´à·Ĭ à¶´
Ġà¶¯à·ı à¶½à·ı
Ġà¶ľà¶±à·Ĭà¶± à·Ģà·ı
Ġà¶ī à·ĥà·Ĭà·ĥ
Ġà¶´à·ľ à¶½à·Ĵ
Ġà¶Ķà¶ºà·ı à¶½à·ı
à·Ļà¶±à·Ĭà¶± à·Ļ
Ġà¶¸à·Ļ à¶ºà·ı
Ġà¶Ńà·Ĵà¶º à¶±
Ġà¶ĩ à·Ħà·Ķ
Ġà¶īà·Ģà¶» à¶ºà·Ĵ
Ġà¶´à·Ĵ à¶»à·Ĵ
Ġà¶¶à·ľ à¶»à·Ķ
Ġà¶Ń à·Ģà¶Ńà·Ĭ
Ġà¶ļ à¶¸à¶ļà·Ĭ
à·ĥà·Ĭ à¶§
à¶ļ à·ĵ
Ġà¶Ń à·ĵ
a l
Ġà¶ĳà¶ºà·ı à¶ľà·Ļ
Ġà·Ħà·Ĵà¶Ń à¶±à·Ĭà¶±
Ġà·Ģà·Ĵ à¶§
Ġà¶ļà¶«à·Ĭ à¶©à·ıà¶º
Ġà¶¢à·ĵ à·Ģà¶Ńà·Ĭ
Ġà·ĥà·Ļ à¶½à·Ĭà¶½
Ġà¶ī à¶¯à·Ĵ
Ġà¶Ķ à·Ħà·ļ
Ġà¶ĩà¶Ńà·Ķ à¶½à¶§
à¶½ à¶»à·Ĭ
Ġà¶Ķ à·Ħà·Ķà·Ģ
à·Ļà¶±à·Ĭ à¶¸
à¶ļà·Ĭà¶ļ à·Ķ
à¶Ńà·Ĭà·Ģ à¶º
Ġà¶¯ à·Ļà¶±à·Ģà·ı
Ġà¶ħà¶¸à·Ĭ à¶¸à·ı
à·Ħà·ľà¶¯ à¶ºà·Ĵ
à¶Ĵ à¶ºà·Ĵ
Ġà¶ħà¶¸ à¶Ńà¶ļ
à·ļ à·Ĥ
à¶Ńà·ıà·Ģ à¶ļà·Ĭ
à·ĸ à¶»à·Ĭà¶«
à¶´ à·ıà¶»
Ġà¶ļà¶» à¶±à·Ģ
Ġà¶ļ à¶©
âĢįà¶»à·ģà·Ĭ à¶±à¶ºà¶ļà·Ĭ
Ġà¶ħà¶¯ à·Ħ
à¶±à·Ĭ à¶¯à·Ķ
N ame
à¶ħ à¶¯
Ġà·Ħà·Ĳà¶¸ à·Ŀà¶¸
à·ĥ à·Ĳ
Ġà¶¶ à·Ĭ
Ġà¶» à·Ĵ
Ġà·Ħ à¶¸à·Ķ
à¶»à·Ĭ à¶®
Ġà¶± à¶¸à·Ķà¶Ńà·Ĭ
Ġà¶ĳà¶ļ à·Ļà¶±à·Ĭ
Ġà·ĥà·Ħ à·Ŀà¶¯à¶»
Ġà·ĥ à¶¸à·ı
Ġà¶¯à·Ĳ à¶¸à·Ĭ
Ġà¶¸à·ľ à¶±à·ıà¶¯
Ġà·Ģ à·Ĵà¶º
à¶» à¶ºà¶ļà·Ĭ
a s
Ġà·Ħà·Ĵ à¶§
Ġà·Ħà·ľà¶³ à·Ĵà¶±à·Ĭ
à¶½à·Ĵ à¶ļ
Ġà·ĥ à·ĳ
à¶¢ à·ı
Ġà¶ļà¶»à¶±à·Ĭà¶± à¶¸à·Ĭ
à·ĥ à¶§
Ġà¶±à·Ĵ à¶¯
Ġà¶ī à¶½à·Ĭà¶½
à·ĥ à·Ĵà¶±à·Ĭ
- -
à·ĸ à¶´
i on
Ġà¶¸ à·ĵ
Ġà¶¸à·Ħ à¶Ńà·Ĭà¶Ń
Ġà·Ģà·Ĵ à·Ħà·Ĵ
Ġà¶±à·Ĵà¶º à¶¸à¶ºà·Ĵ
Ġà¶±à·Ĳà¶Ńà·Ĵ à·Ģ
à¶±à·Ĭ à¶ľà·ļ
Ġà¶± à·ĵ
à¶´ à·ľà¶»à·ľ
à¶ī à¶ļà·Ĭ
à¶¯à·Ķ à¶¸
Ġà¶´à·Ķà¶½à·Ķà·Ģà¶±à·Ĭ à¶¯
Ġà¶¸ à¶ľ
Ġ '
Ġà¶ļà¶» à¶½
Ġà¶ļ à·ļ
Ġà·ĥ à¶³
Ġà¶ļà·Ĵ à¶»à·ĵ
Ġà¶ħ à¶©à·Ķ
à¶½à·Ķ à¶Ńà·Ĭ
Ġà·ĥà·Ĵ à¶¯à·Ĭà¶°
à¶¯à·Ĭ à¶¯à·Ĵ
Ġà¶ľ à·Ķ
Ġà¶ħ à¶ºà·Ĵà¶±à·Ĭ
à¶»à·Ĭ à·ģ
Ġà¶¯à·Ķ à¶»
à·ĥà·Ĭ à¶¸
Ġà·Ģà·Ĵà¶±à·ı à·ģ
Ġà¶¯à·Ĵ à¶ľ
Ġà¶Ńà·Ĵà¶ºà·Ļà¶± à·Ģà¶¯
à¶Ńà·Ķ à¶¸à·ı
Ġ M
Ġà¶Ńà·ļà¶»à·Ķ à¶¸à·Ĭ
Ġà¶ļà¶» à¶¯à¶»
à·Ķ à¶Ńà·Ĭ
Ġà¶ļà·ľ à·Ħà·ļ
Ġà¶¸à·Ŀ à¶©
Ġà·Ģà·Ĳà¶» à¶¯à·Ĵ
Ġà·Ģà·Ķ à¶«à·ı
l e
Ġà·ĥ à¶¸à·Ĭà¶´
à¶ĩà¶Ńà·Ĭà¶Ń à¶§à¶¸
Ġà¶Ńà·Ĵà¶º à¶±à·Ģ
Ġà¶´à·Ĵ à·ĥà·Ĭà·ĥà·Ķ
Ġà¶ħ à¶±à·Ĭà¶Ńà·Ĵ
à·ļà¶» à¶¸
Ġà¶¶à¶½à·ı à¶ľà¶±à·Ĭà¶±
Ġà¶´ à·ıà·Ģà·Ĵ
à¶Ĵà¶ļ à¶§
Ġà¶´ à·Ļà¶±à·Ĭ
Ġà¶±à·Ĵà¶º à¶¸
à·ĥà·Ķ à¶¸à·Ĭ
à¶»à·Ĵ à¶½à·ı
Ġà¶´ à·Ļà¶±à·Ĭà¶±
Ġà¶Ĩ à¶ºà·Ļ
à¶«à·Ĭ à¶©
Ġà¶´ à¶Ńà·Ĭ
Ġà¶Ń à·Ŀ
i c
Ġà¶ľ à·ı
à·Ĵà¶º à·Ķ
à¶º à·Ĵà¶º
Ġà·Ħà¶»à·Ĵ à¶¸
à¶ļà·Ķ à¶«à·Ķ
Ġà·ĥ à·ĸ
Ġà¶ļà¶» à·ļ
Ġà¶ħà·Ģ à·ĥà·Ĭà¶®
Ġà¶¸ à¶ľà·Ķ
Ġà¶ľ à·Ĵà¶ºà·ļ
Ġà¶´ à·Ļà¶±
à¶»à·Ĭ à¶ľ
Ġà¶´à·ľà¶© à·Ĭà¶©à¶ļà·Ĭ
à¶±à·Ĳ à·Ħà·Ĳ
à¶Ĥà¶ł à·Ĵ
à·ĥà·Ĭ à¶§à¶»à·Ĭ
à¶½ à¶ºà·Ĵ
Ġà¶¢ à·ļ
à¶ Ľ
Ġà¶´à·ıà·Ģà·Ĵ à¶łà·Ĭà¶łà·Ĵ
à¶¶ à·ľ
Ġà¶ĩ à¶»
Ġà·Ģà·Ĳ à¶¯
à¶Ķà¶ºà·ı à¶½à·ı
Ġà¶ļà¶» à¶ºà·Ĵ
Ġà¶ĩà¶º à·Ģ
Ġà¶ľ à·ıà·Ģ
Ġà¶ħ à¶±à·Ķ
à·Ģà¶ľà·ļ à¶¸
Ġà¶īà·ĥà·Ĭà·ĥ à¶»
Ġà¶ħà¶±à·Ĵ à¶Ńà·Ĭ
à·ĥà¶¸ à·ıà·Ģà·Ļà¶±à·Ĭà¶±
Ġà¶¯à·Ĳà¶ļà·Ĭà¶ļ à·ı
à·Ħà·Ĵ à¶Ń
Ġà·Ħà·Ĵà¶Ń à·Ķà·Ģà·ļ
à¶±à·Ĭ à¶©
à¶±à¶º à¶§
Ġà¶ĳ à¶Ńà¶ļà·ľà¶§
à¶ļ à·Ģà·Ķà¶»à·Ķ
Ġà¶ĩ à¶ºà¶§
Ġà·Ħà¶¯ à¶±à·Ĭà¶±à·ļ
à¶±à·Ĵà¶º à¶¸
Ġ w
à¶° à·ıà¶»
Ġ S
à·ľ à¶ºà·Ĵ
à·Ģ à¶½à·ı
à¶¸ à¶«
Ġà¶¢à·ĵà·Ģà·Ĵ à¶Ń
Ġà·Ħà·Ĵ à¶Ńà·Ķ
o m
Ġà¶ĩ à¶¸
Ġà¶ļà·ĳ à¶¸
à¶° à·Ĭ
Ġà¶ĳ à¶łà·Ĭà¶łà¶»
Ġà·Ħà·ľ à¶»
Ġà·Ģà·Ĵà¶Ńà¶» à¶ļà·Ĭ
Ġà¶± à·ľà¶ļ
Ġà·ħ à¶Ł
à¶´ à·ľà¶©
à¶¯ à¶±à·Ĭà¶±
Ġà·Ħà·ľà¶¯ à·Ĵà¶±à·Ĭ
à¶¯à·Ĭ à¶ľ
Ġà¶¸à·Ħ à¶Ńà·Ĭà¶¸
Ġà¶ļà¶» à¶¸à·Ķ
Ġà¶Ń à·Ķà·Ģ
Ġà¶Ĩ à·Ģ
à¶Ń à·Ĳà¶±
Ġà¶¸à·Ķ à·Ħà·Ķ
Ġà¶Ńà·ı à¶¸
à¶³ à·Ĵ
Ġà¶±à·Ĳ à¶Ńà·Ĭà¶Ńà·ļ
à·Ħà·ı à¶§
à¶¸à·ľ à¶±à·Ģà¶¯
Ġà¶ķ à¶ļ
à¶½à·Ĵà¶±à·Ĭ à¶¸
Ġà¶¶ à·ļ
Ġ à·Ĥ
Ġà¶½ à¶Ł
à¶´ à¶Ńà·Ĵ
Ġà·ĥ à¶½
à¶¸ à¶ľà·Ļ
à¶ĳ à¶´à·ı
Ġà¶ĩ à¶Ń
à¶¸à·ľà¶ļ à¶¯à·Ĭà¶¯
à¶º à¶ºà·Ĵ
Ġà¶¯ à·ľà¶»
à·Ģà·Ķ à¶±à·ı
Ġà¶ĳà¶ºà·ı à¶½à¶§
Ġ U
1 0
à·Ģà·Ĭ à·Ģà·ı
Ġà¶¶à¶½à·ı à¶´à·ľà¶»à·ľ
à¶¸à·ľà¶ļ à¶ļà·Ĭ
Ġà·ĥà¶³ à·Ħà·ı
Ġà¶Ń à·ľà¶»
Ġà¶ľ à·ıà¶±
Ġà¶Ĭ à¶§
Ġà·ĥà·Ĵ à¶§à·Ĵ
Ġà¶Ńà·ĵ à¶»
à·Ħà·Ļ à¶ļà·Ĭ
à¶¯ à·Ĳ
Ġà¶¯à¶ļà·Ĵ à¶±à·Ĭà¶±
Ġà¶¸à·Ĵà¶±à·Ĵ à·Ħ
à¶¯à·Ĵ à¶±à·Ĭà¶±
Ġà¶±à·Ĵ à¶»à·Ĭ
Ġà¶¶à¶½à·ı à¶ľà·Ļà¶±
Ġà·ĥà·Ĭ à¶Ńà·Ķà¶Ńà·Ĵà¶ºà·Ĵ
à¶¸ à·Ļà¶±à·Ĭà¶±
à¶¯ à·Ļà¶±à·Ĭà¶±
Ġà¶ļà·ı à¶½à¶º
à¶½à·Ķ à·Ģà·ı
Ġà·Ħà¶¸ à·Ķà·Ģ
Ġà¶¢ à·ı
Ġà¶¸à·ľ à¶±à·Ģ
r e
Ġà·Ģ à·Ĭ
Ġà¶´à·Ĳà·Ħà·Ĳ à¶¯à·Ĵ
à¶Ńà·Ĭà¶Ń à¶»
Ġà¶¸à·ı à¶Ńà·Ĭ
Ġà¶± à·Ģà¶Ńà·Ĭ
à·Ħ à¶¸
Ġà¶Ńà·Ĵà¶ºà·ı à¶ľà¶±à·Ĭà¶±
à¶´ à·ļ
Ġà¶¸ à¶±à·Ķ
Ġ ..čĊ
Ġà¶ĳà¶ļ à¶Ńà·Ķ
à·ľ à¶±à·Ĭ
à¶» à·ıà·Ģ
à¶Ķà¶¶ à¶§
Ġà¶ħà¶¸à·ı à¶»à·Ķ
Ġà·Ģ à¶ł
Ġà·Ģ à¶Ńà·Ķà¶»
Ġà¶ħ à¶©
Ġà¶Ķà·Ħà·Ķ à¶ľà·ļ
à¶±à¶º à·ļ
à¶Ĥ à·ģ
à¶º à¶ļà¶§
à¶ħ à·Ħ
Ġà¶Ĩà¶»à¶ļà·Ĭà·Ĥ à·ı
à¶§ à·ı
i a
Ġà¶´ à·ľà¶»à·ľ
Ġà¶ĩ à¶¯
Ġà¶īà¶¯ à¶±à·Ĭ
à·Ģà·ı à·Ħ
à¶ĭ à¶¶
Ġà¶¸à·Ļà·Ħà·Ļ à¶§
Ġà·ĥà¶Ńà·Ķ à¶§
à¶¢ à·Ķ
à¶° à·ıà¶±
Ġà¶¯à·Ķà¶±à·Ĭà¶± à·ı
à¶ļ à·ıà·Ģ
Ġà¶Ńà·Ĵà¶¶à·Ķ à¶±à·ı
Ġà¶Ĩà¶¯à¶» à·Ļà¶ºà·Ĵ
Ġ f
Ġà¶ĩ à·ĥà·Ĭ
à·ĥà¶¸à·Ħà¶» à·Ģà·Ĵà¶§
Ġà·Ģà·ı à¶»à·Ĭ
Ġà¶ľ à·Ĭ
Ġà¶ļà·ı à¶§
Ġà¶¯ à·Ģà·ĥà·Ĭ
Ġà¶ĳ à¶ļà·Ĭ
à¶»à·ı à¶°
Ġà¶ĭà¶Ńà·Ĭ à·ĥà·Ħ
Ġà¶½ à·ĳ
Ġà¶´ à·Ħà¶»
à¶ľ à·ľà¶©
à¶ļà·Ķ à¶«
à¶»à·Ĵ à¶ºà·ı
à¶± à·Ķà·Ģ
Ġà¶ļà¶» à¶±à·Ģà¶¯
Ġà·ĥà·Ĭ à¶Ńà·ĸà¶Ńà·Ĵà¶ºà·Ĵ
Ġà·Ħà·Ĵ à¶»
à¶½ à¶±à·Ĭ
Ġ b
à¶ĭ à¶±à·Ĭ
Ġà¶¯à·Ļà¶ļ à¶ļà·Ĭ
Ġà¶ļ à¶§à·Ĭà¶§à·Ĵà¶º
à¶¶ à·Ķ
à¶´ à¶Ń
Ġà¶ħ à¶½à·Ķà¶Ńà·Ĭ
Ġà¶¸ à¶Ł
Ġà¶ļà·Ĵ à·Ģ
Ġ( _
Ġà¶Ĵà¶ļ à·Ļà¶±à·Ĭ
Ġà¶¸à·Ļ à·Ħà·Ļà¶¸
Ġà¶´à·Ķà·ħà·Ķà·Ģà¶±à·Ĭ à¶¯
Ġà¶ °
Ġà·ĥà·Ĳ à¶ļ
âĢįà¶» à¶¸
à·Ģ à·ĵà¶¸
à¶¸à·Ĭ à¶¸à·Ĭ
Ġà¶ľ à·ĳ
à¶ºà¶ļà·Ĭ à¶¸
Ġà¶´à·ıà¶½ à¶±à¶º
à¶¢ à·ļ
à·ħà·Ķ à·Ģà·ı
à¶´ à·Ĵà¶º
Ġà¶¸ à¶ºà·Ĵ
Ġà¶´ à·ħ
Ġà¶ļ à¶½à·Ĭ
à¶»à·Ĵ à¶±à·Ĭ
Ġà¶īà¶ļà·Ĭà¶¸à¶± à¶§
à¶½ à·ľ
Ġà¶ļà·ħ à·ļ
Ġà¶´ à·ĵ
Ġà¶½à·Ļ à·ĥ
Ġà·Ģà·Ĳà¶¯ à¶ľà¶Ńà·Ĭ
à¶Ķà¶ºà·ı à¶½
Ġà¶ĳà·ħ à·Ĵà¶ºà¶§
n t
Ġà¶ł à·Ĵ
Ġà¶¶à·Ĵ à¶»à·Ĵ
à¶¯à·Ļ à·Ģà·Ĵà¶º
Ġà¶Ķà¶ºà·ı à¶½à¶§
à¶»à·Ĵ à¶±à·Ĭà¶±
Ġ âĻª
à¶±à·ļ à¶±
Ġà¶±à·Ĵ à¶ļà¶±à·Ĭ
Ġà·Ģà·Ĵà·ģ à·ļà·Ĥ
à¶ļà·Ĭ à·ģ
à¶±à·Ĵà¶º à¶¸à¶ºà·Ĵ
Ġà·Ħà¶¯ à¶±à·Ĭà¶±
Ġà·Ħà·ļ à¶Ńà·Ķà·Ģ
à¶¯ à¶º
à¶¸ à·Ŀ
Ġà·Ħà·Ĵà¶§à·Ĵà¶º à·Ļ
Ġà·Ģ à·Ľ
Ġà¶ľà·Ļà¶± à·Ĵà¶º
Ġà¶ļà·Ĵà¶» à·ĵà¶¸
à¶¯à·ı à¶±à¶¸à·Ĭ
Ġà·ĥà¶¸à·Ĭà¶´ à·ĸà¶»à·Ĭà¶«
à·Ļ à·Ĭ
Ġà¶ĳà¶±à·Ĭà¶± à¶¸à·Ĭ
Ġà·ĥ à¶¸à·Ĭ
à·Ģà·ı à¶»à·Ĭ
Ġ ?
âĢįà¶» à¶¸à·ı
Ġà·ĥ à·ļà¶»à¶¸
Ġà¶´ à·ĥà·Ķ
Ġà¶ľ à¶Ń
Ġà¶¢ à·Ĳà¶ļà·Ĭ
à·Ħ à·Ļà¶±à·Ĭà¶±
à¶ļ à¶»à·Ĭ
Ġà¶¶ à·Ķ
Ġà¶ļà·ı à¶½à·Ļ
à¶« à¶ľà·ı
à¶ Į
Ġà¶ľ à¶«
à¶Ńà·Ĵ à¶ļ
Ġà·ĥà·Ĭ à¶®à·ı
Ġà¶Ĩ à·Ģà·Ļ
Ġt he
Ġà¶ħà·Ģ à·ĥà·ı
âĪĻâĪĻ âĪĻčĊ
Ġà·Ģ à¶±
Ġà¶±à·Ģà¶Ńà·Ĭà¶Ń à¶±à·Ĭà¶±
à¶ī à¶±à·Ĭà¶±
Ġà¶¸à·Ļà¶Ńà¶± à·Ĵà¶±à·Ĭ
Ġà¶īà¶±à·Ĭà¶± à·Ģ
Ġà¶½ à·Ĵà¶º
à¶ļà·Ĵ à·ĥà·Ĵ
Ġà¶¸à·ļ à¶ļà¶§
à¶Ń à·ĵ
Ġà¶º à¶§
Ġà·Ģ à¶§
Ġà¶¸à·ľ à¶±à·ı
Ġà¶º à·ľ
in g
a d
Ġà·ģ à¶ļà·Ĭ
Ġà¶ļà·Ŀ à¶½à·Ĭ
Ġà·ĥà¶¸ à¶ľ
Ġà¶¸à·Ĵà¶±à·Ĵ à·Ħà·ı
Ġà¶¸à·Ĵà¶±à·Ĵ à·Ħà·Ļà¶ļà·Ĭ
à·Ļ à¶ļà·Ķ
à·Ģ à·ĺ
Ġà¶¸à·Ĳà¶» à·Ļà¶±à·Ĭà¶±
à·ĥà·ı à·Ħ
Ġà¶Ĩà¶¯à¶» à¶º
à·Ĳ à¶¯à·Ĭà¶¯
o l
à¶§ à¶ºà·Ĵ
Ġà¶ĳ à¶±à·Ĭà¶±à·ļ
à¶¸à·Ļ à¶ºà·ı
e l
Ġà¶ļ à¶±à·Ĭà¶±
à¶ĳ à¶Ńà·Ĭ
Ġà¶½ à·ľ
à¶¸à·Ļ à·Ħà·Ļ
Ġà·ħ à¶¸à¶ºà·Ĵ
à·ĥà·Ĭ à¶Ńà·Ķà·Ģ
Ġà¶¸à·Ķ à¶«
à¶½à·Ĭà¶½ à¶ļà·Ĭ
à¶¶ à·ĳ
à¶Ĭ à¶§
Ġà·Ģ à¶º
Ġà·Ģ à¶Ńà·Ĭ
à¶¸ à·Ļà¶±à·Ĭ
Ġà·Ģà·Ĳ à¶§
Ġà¶Ķà¶º à¶Ńà·Ĭ
Ġà¶ļà¶» à¶ľà·Ļà¶±
S A
à¶´ à·ĵ
Ġ a
Ġà¶±à·Ĵ à¶¯à·ı
Ġà¶´à·Ļ à¶»
Ġà¶ĭà¶Ńà·Ĭ à·ĥà·ıà·Ħ
Ġà¶¯à·Ĳà¶±à·Ĭ à¶¸
à¶ºà·Ķ à¶°
Ġà·Ħà·Ĵ à¶Ńà·ı
i l
à¶»à·Ķ à·Ģà·ı
à¶Ńà·Ĵà¶º à¶ļà·Ĭ
à¶§ à·Ŀ
à¶´ à¶ºà¶ļà·Ĭ
Ġà·Ħà·Ĳ à¶»
Ġà¶´à·Ĳ à¶¸à·Ĵ
Ġà¶Ńà·Ĵà¶¶à·Ĭ à¶¶à·ı
à¶´à·Ķ à¶»
à¶½ à·Ģ
Ġà¶¸à·Ķ à·ħà·Ķ
à¶¯à·ļ à·ģ
h er
Ġà¶ºà·Ķà¶Ńà·Ķ à¶ºà·Ĵ
Ġà¶¯à·Ĳà¶± à¶§à¶¸
à¶ľ à¶Ńà·Ĭà¶Ńà·ļ
Ġà¶ħà¶¯ à·Ħà·ĥà·Ĭ
à¶Ķ à·Ħà·ļ
Ġà¶ļ à·Ģà·Ķ
Ġà¶¢à·ĵà·Ģà·Ĵ à¶Ńà·ļ
Ġà¶ħ à¶¸à·Ķ
à¶© à¶º
Ġà¶Ńà·ı à¶¸à¶Ńà·Ĭ
à¶ľ à¶±à·Ĭ
à¶¢ à¶±
Ġ d
Ġà¶ħà¶¯à·Ħ à·ĥà¶ļà·Ĭ
Ġà¶´à·Ĵ à¶½à·Ĵ
Ġ âĪĻâĪĻâĪĻ
Ġà¶ļà·Ļà¶± à¶ļà·ļ
à·Ħ à¶¯à·Ļ
Ġà¶´à·Ķ à¶¯à·Ķà¶¸
Ġà¶¯à·Ļà¶ºà¶ļà·Ĭ à¶¸
Ġà¶ĭà¶¯ à·ļ
Ġà·Ģà·Ļ à¶Ń
à¶±à·Ĭ à¶Ńà·Ĭ
Ġ A
à·Ļà¶± à·Ģ
Ġà¶ļà¶»à¶±à·Ĭà¶± à¶¯
Ġà¶¸à·Ķ à¶ļà·Ķà¶Ńà·Ĭ
Ġà·Ģà·Ķà¶± à¶Ńà·Ĭ
Ġà¶ļà·Ĵà¶º à¶´à·Ķ
à·ı à¶¸
à·Ĵà¶º à·Ļà¶ļà·Ĭ
Ġà¶ļ à¶Ńà·ıà·Ģ
Ġà·ĥ à¶§à¶±à·Ĭ
à·ĵ à¶¸à¶§
à·Ĵà¶±à·Ĭ à¶¸
Ġà·ĥà·Ļà¶½à·Ĭà¶½ à¶¸à·Ĭ
à¶ł à·ıà¶»
Ġà¶ Ī
Ġà¶¯à·Ĵ à¶±
Ġà¶¸à¶±à·Ķ à·ĥà·Ĭà·ĥ
Ġ D
Ġà·Ģà·Ļà¶½à·ı à·Ģà¶§
o w
Ġà·Ģà·Ĵ à¶¯à·Ĭ
Ġà¶ĭà¶¹ à¶§
Ġà·Ħà·ľà¶³ à¶§
Ġà¶ħà¶± à¶Ńà·Ķà¶»
à¶ĳ à¶º
Ġà·ħ à¶¸
à¶»à·Ķà·Ģ à¶Ńà·Ĭ
Ġà¶ħ à·ĥ
Ġà·Ħà·Ĳà¶¸à¶¯ à·ļà¶¸
Ġà·Ģ à¶¯
Ġà¶Ń à¶¸à¶±à·Ĭ
Ġà¶īà¶³ à¶±à·Ĭ
Ġà¶¯à·Ĳà¶± à·Ķ
à¶ļ à¶½
à·Ļ à¶½à·Ĭ
Ġà·Ģ à¶§à·Ĵ
Ġà¶ħ à¶·
Ġà¶»à·ı à¶¢
Ġà·Ħà·Ĳà¶¸ à·Ŀ
Ġ m
à¶½ à¶ļà·Ĭà¶¯
Ġà¶ļà·ıà¶½ à¶ºà¶ļà·Ĭ
à·ĵ à¶¸à·Ĭ
à¶¯à·Ĭà¶¯ à·ĵ
Ġà¶ħ à¶±à·ļ
Ġà¶±à·ľ à·Ħà·Ĳ
Ġà·Ĩ à·Ĭ
Ġà¶¯à·Ĳà¶± à¶ľà·Ļà¶±
à¶± à¶§
Ġà¶¸à·Ħà¶Ńà·Ĭà¶Ń à¶ºà·ı
à¶§à·Ĵ à¶ļ
Ġà·Ħà¶»à·Ĵà¶º à¶§à¶¸
Ġà¶ĳ à¶Ńà·Ĭ
Ġà¶ºà·ı à·ħà·Ķà·Ģ
Ġà¶´à·Ĳ à¶º
à·Ģ à¶±à·Ĭà¶±à·ļ
Ġà¶Ńà·Ķà·Ģ à¶ļà·Ĭà¶ļ
Ġà¶ļà¶»à·Ķ à¶«à·ıà¶ļà¶»à¶½à·ı
à¶½ à·Ļà¶±à·Ĭ
à¶ľ à¶ļà·Ĭ
Ġà¶§ à·Ĭ
à¶ ¬
Ġ n
Ġà¶´à·Ĵ à¶§à·Ĵ
Ġà¶´à·ľà¶»à·ľ à¶±à·Ĭà¶¯à·Ķ
à¶ºà·ı à¶±
à¶§à·Ĭ à¶§à·Ķ
Ġ l
Ġà¶´ à¶½
Ġà¶ļ à¶«à¶ľà·ı
Ġà·ĥà·ı à¶¸à·ıà¶±à·Ĭ
à¶½à·Ĭ à·ĥà·Ĭ
Ġ p
à¶Ńà·Ĭà¶¸ à¶ļ
Ġà¶ħà·Ģà·Ķ à¶½à¶ļà·Ĭ
Ġà¶Ń à¶Ńà·Ĭ
à¶Ĥ à¶ľà·Ĵ
Ġà¶ľ à·Ķà·Ģà¶±à·Ĭ
à¶´à·Ĵ à¶§
Ġà¶ľ à¶Ńà·Ĭà¶Ńà·ļ
Ġà¶ļà·Ĵ à¶ºà·ı
Ġà·Ģà·ı à·ĥ
à¶© à·ļ
Ġà¶Ńà¶¸à·Ķ à·ĥà·Ļ
Ġà·Ģà·ı à·Ħ
Ġà¶ĭà¶± à¶Ńà·Ĭ
Ġà¶½à·Ŀ à¶ļ
ĠU SA
Ġà¶±à·Ĵ à¶½
Ġà¶īà¶±à·Ĭà¶± à·Ģà¶¯
à¶±à·Ĳ à¶ľà·Ĵ
Ġà¶¸ à¶ľà·Ļà¶±à·Ĭ
Ġà¶¸à·ľà¶ļ à¶§à¶¯
à¶īà¶ļà·Ĭ à¶¸à¶±
à¶±à·Ĭà¶± à¶¸à·Ĭ
F F
Ġà¶¯à·Ļà·Ģà·Ĵà¶º à¶±à·ļ
à¶ļà·ľ à·Ħà·Ļà¶¯
Ġà¶Ńà·Ĳà¶± à¶ļà·Ĭ
Ġà¶¸ à¶ł
Ġà¶±à·Ĳà¶Ńà·Ĭà¶Ń à¶¸à·Ĭ
Ġà¶º à¶±à·Ģ
à·ı à¶½
Ġà¶´ à·Ĵà¶±à·Ĭ
à¶ĳà¶ºà·ı à¶ľà·ļ
à¶´ à·Ļ
Ġà·Ħà·Ĵà¶Ńà·Ķ à·Ģà·ı
à¶«à·Ĵ à·Ģà·Ĵ
à¶Ķà¶ºà·ı à·Ģ
à·Ŀ à¶¢
Ġà·Ģà·Ĳà¶» à·Ĳà¶¯à·Ĭà¶¯
Ġà¶ļà·ľ à·Ħà·Ļ
à·Ĳà¶± à·Ĵ
à¶¯à·Ķ à¶»
Ġà¶ĭà¶¯ à·Ģà·Ķ
2 0
Ġà¶¯à·Ĵà¶ľ à¶§à¶¸
à¶ļ à¶ºà·Ļà¶ļà·Ĭ
à·ĵ à¶Ń
Ġà¶ī à¶ľà·Ļà¶±
Ġà¶» à·ľ
Ġà¶ħ à¶ºà¶§
à¶´ à¶»à·Ĵ
Ġà¶© à·Ĵ
Ġà¶© à·ľ
Ġà¶Ĩà¶¯à¶» à·ļ
à¶ħ à¶±à·Ĭà¶±
à·Ļà¶± à·Ļà¶ļà·Ĭ
à·ĥà·ı à¶¯
u s
à¶¢ à·ĵ
à·ĥà·Ĭ à¶§à·Ĭ
Ġà·Ħà·Ĵà¶§ à¶´à·Ķ
âĢį à¶§
Ġà¶± à·Ŀ
Ġà¶± à·Ķ
Ġà·Ħà·Ĳ à¶¯
Ġà¶±à·Ģà¶Ńà·Ĭ à·Ģà¶±à·Ĭà¶±
Ġà¶¶à¶½à·ıà¶´à·ľà¶»à·ľ à¶Ńà·Ĭà¶Ńà·Ķ
Ġà¶´à·Ĳà·Ħà·Ĳà¶¯à·Ĵ à¶½à·Ĵ
Ġà¶· à·ıà·Ģà·Ĵ
Ġà¶ī à·Ģà¶Ńà·Ĭ
Ġà¶¯à¶±à·Ĭà¶±à·Ģ à¶±à·ļ
Ġà¶¢ à¶±
à¶ľ à¶±
à·Ħà·Ĳ à¶»
ĠâĻª čĊ
à¶§ à·Ĵà¶ºà¶§
à¶Ńà·Ķ à¶¸
Ġà¶ļà·Ĵà¶»à·ĵ à¶¸à¶§
Ġà¶Ĩ à¶ºà·ļ
âĢį à¶±
Ġà¶ľà·Ĵ à·Ħà·Ĵ
à¶ļà·Ĵà¶º à¶±à·Ĭà¶±
Ġà¶» à·ļ
Ġà¶ºà·ı à·ħà·Ķà·Ģà·ı
Ġà¶¸à·Ħà¶Ńà·Ĭà¶¸ à¶ºà·ı
Ġà¶» à¶§
Ġà·Ģà·Ļà¶½à·ı à·Ģà¶ļà·Ĭ
Ġà¶Ńà·Ĵà¶ºà·Ļà¶± à·Ģ
Ġà·Ģà·Ĵà¶¯ à·Ĵà¶º
à¶± à¶ºà·Ĵ
Ġà¶ĩ à¶³à·Ķ
Ġà¶º à·Ģà¶±à·Ĭà¶±
Ġà¶ľà·Ħ à¶±à·Ĭà¶±
à¶½à·Ĭà¶½ à·Ŀ
à·ĥà·Ĭ à¶ļà·Ŀ
Ġà¶¸à·ľà¶ļ à·Ķà¶Ńà·Ĭ
à¶Ĵà¶ļ à·Ļà¶±à·Ĭ
Ġà·Ħ à¶Ńà¶»
à·ĥà·Ķ à¶·
à¶ļà¶»à·Ķ à¶«à·ıà¶ļà¶»à¶½à·ı
Ġà¶»à·ı à¶Ńà·Ĭ
Ġà¶¶à¶½ à¶±à·Ĭ
Ġà¶¯à·Ĳà¶±à¶§à¶¸ à¶Ńà·Ĭ
Ġà¶´à·Ĵ à¶ºà·ı
Ġà¶½à·ĳ à·ĥà·Ĭà¶Ńà·Ĵ
Ġà¶½ à·Ķ
Ġà¶´à·ĥà·Ĭà·ĥ à·Ļà¶±à·Ĭ
à¶ľà·ľà¶© à¶ļà·Ĭ
à¶½ à¶ºà¶ļà·Ĭ
Ġà·Ģ à¶Ńà·ıà·Ģ
à¶ľ à·Ĵà¶º
Ġà¶¯à·Ĳ à¶ļà¶½à·ı
Ġà¶´à·ľà¶½à·Ĵ à·ĥà·Ĭ
Ġà¶Ĩà¶ºà·Ļ à¶Ńà·Ĭ
à·ļà¶¯ à·ĵ
Ġà¶¯à·Ļà¶±à·Ĭà¶± à¶¸à·Ĭ
Ġà·ĥà·Ĵ à¶¯à·Ĭà¶¯
à·Ħà·ı à¶ºà·Ĵ
à·ı à¶ļà·Ĭ
e t
à·Ģà·ı à¶¯
Ġà¶¢à·Ĵ à·Ģà·Ĵ
Ġà·ĥà·Ķ à¶¯à·Ķ
à¶© à·Ķà·Ģ
Ġà¶¢à·ĵà·Ģà·Ĵ à¶Ńà¶º
à¶Ńà·Ķ à¶¸à·Ĭ
Ġà·ĥà·Ĭ à¶§
Ġà¶ħà¶ºà·Ĵ à¶Ńà·Ĵ
Ġà¶± à¶Ńà¶»
Ġà¶¯ à¶ļà·Ĭ
Ġà¶ºà·ı à¶½à·Ķà·Ģ
à¶½à·Ĵà¶º à¶±
Ġà¶Ńà·Ĵà¶¶à·Ķ à¶±à·ļ
à¶Ń à¶ļà·Ĭ
Ġà¶¸ à¶±à·Ĭ
Ġà¶´à·Ķ à¶¯à·Ĭà¶ľ
âĢįà¶» à·Ļ
Ġà¶´à·ıà¶» à¶ļà·Ĭ
à¶Ł à¶ļà·Ĭ
Ġà·Ħà·ľà¶³ à¶¸
à¶» à·Ģ
à·Ķ à¶»
à¶¸à·Ĭ à¶·
Ġà¶Ĵ à·Ģ
Ġà¶ħà¶½à·Ĭà¶½ à¶ľà¶±à·Ĭà¶±
à¶ľ à¶±à·Ĭà¶±à·ļ
Ġà¶· à·ı
Ġà¶ļà·Ĵ à·Ħà·Ĵ
Ġà¶´à·Ļà¶±à·Ĭ à·Ģà¶±à·Ĭà¶±
Ġà¶ĭ à·ĥ
Ġà¶ħà¶±à·Ĭà¶Ńà·Ĵ à¶¸
Ġà¶Ńà·ľà¶» à¶Ńà·Ķà¶»à·Ķ
c t
Ġà·Ģà·Ĵ à¶ļà·ıà¶»
à¶Ł à·Ĵ
à¶ľ à·Ħ
e d
Ġà¶¯à·ı à¶±à·Ģà·ı
Ġ T
à·ĥ à·Ķà·Ģ
Ġà¶ī à¶±à·Ĭ
à¶´à·ĥà·Ĭà·ĥ à·ļ
à¶´ à¶º
Ġà¶¶à·ļà¶» à¶ľà¶±à·Ĭà¶±
Ġà¶ĩà¶Ńà·Ķ à¶½à·ļ
Ġà¶» à·Ļ
Ġt o
âĢįà¶»à·ģà·Ĭ à¶±
Ġà¶ī à·Ħ
Ġà¶Ń à·Ĳ
Ġà¶±à·Ĵà¶¯ à·Ħà·ĥà·Ĭ
Ġà¶ľ à·Ŀ
Ġà¶ĩ à·Ħ
Ġà¶Ķà·Ģà·Ķà¶±à·Ĭ à¶§
Ġà¶» à¶¢
Ġà¶ļà·ľ à·Ħà·ľà¶¸
Ġà·Ģ à·Ļà¶±à·Ĭ
à¶ľ à¶ºà¶ļà·Ĭ
Ġà¶¸à¶Ń à¶ļà·Ĭ
à¶´à·Ĵ à¶»à·Ĵ
Ġ F
à·ĥ à¶±à·Ĭà¶±
à·ĥ à·Ŀ
Ġà¶Ń à¶±à·Ĵà¶ºà¶¸
à¶Ńà·ı à¶Ńà·Ĭà¶Ńà·ļ
à¶Ĵ à·Ģà·ı
Ġà¶´à·Ĳà¶± à¶½à·ı
à·Ģ à·Ĵà¶±à·Ĭ
à¶º à¶»à·Ĭ
à¶ľ à·ĵ
Ġà·Ħà·Ļ à¶§
Ġà¶±à·Ĳ à·Ģ
à·Ħ à¶§
à¶± à·ľ
à·ıà·Ģ à·ļ
Ġ y
à¶ĳà¶ºà·ı à·Ģ
Ġà¶ĩà·Ģà·Ĵ à¶½à·Ĭà¶½à·ı
Ġà¶ħà¶´ à¶»à·ıà¶°
Ġà·Ģà·Ĳà¶© à·Ĵà¶º
à·Ĩ à·Ĵ
à·Ļ à¶¸
à¶½ à·Ĳ
Ġà·ĥà·ı à¶ļà·Ĭà·Ĥ
à¶Ķà¶¶ à·ļ
Ġ B
Ġà¶» à·ĥà·Ĭà·ĥ
Ġà·Ħ à·ĵ
à¶ļà·ıà¶» à¶º
à¶ļà·Ĭà¶ļ à·ı
Ġà¶±à·Ļ à·Ģà·ļ
à¶ķ à·Ħà·Ĭ
Ġà¶¶à¶½ à¶¸à·Ķ
à¶´à·Ĭ à¶´à·Ķ
à·ĳ à¶¸
Ġà¶łà·Ĵ à¶Ńà·Ĭ
Ġà¶ľ à¶±à·Ĭà¶±à·ļ
Ġà¶ħ à·ħà·Ķ
Ġà·ĥ à¶§
à¶» à¶«
à¶ħ à·Ħà·Ĭ
Ġà¶´à·Ĳà¶Ńà·Ĭà¶Ń à¶§
Ġà¶ļà¶Ńà·ı à¶ļà¶»
Ġà·Ģ à¶»à·Ĭ
Ġà¶¸à·Ĳ à¶»à·Ĵà¶½à·ı
Ġà·ĥà¶¸ à·ıà·Ģ
Ġ âĪĻčĊ
Ġà·ĥà·Ĳà¶½ à·Ĳ
Ġ N
à·Ħà·Ĳà¶¸ à·Ŀà¶¸
Ġà·Ħà·ľ à¶ºà¶±à·Ĭà¶±
âĢį à·Ģ
Ġà·Ģ à¶ºà·Ĵ
à¶±à·Ĭà¶± à·ı
à·Ļ à¶ºà¶ļà·Ĭà¶¸
à¶ ¨
à·Ħà·Ĳ à¶¸à¶¯
Ġà·Ģà·Ĵ à·ĥà·Ĭà¶Ńà¶»
Ġà¶¶ à¶»
à·ģ à·ĵ
Ġà¶½ à·ı
Ġà¶Ķà¶¶ à·Ģ
Ġà¶¸à·ı à·ĥ
Ġà¶±à¶ľ à¶»
Ġà·Ħà¶¸à·Ķ à¶¯
Ġà·Ģà·Ĵà¶±à·ı à¶©à·Ĵ
Ġà¶±à·Ļ à·Ģà¶ºà·Ĵ
Ġà¶¯à·Ļà¶±à·Ĭà¶± à·ļ
à·ģ à·Ĵ
Ġà·ģ à·ı
Ġà¶±à·ľà¶ļ à¶»
Ġà¶ļ à¶®à·ı
à¶¶ à·Ļ
Ġà¶ľà·Ĳ à¶½
à¶ħà·Ħ à¶±à·Ĭà¶±
Ġà¶´ à·ĸ
Ġà¶ľà·Ĳà¶± à¶¯
à¶ļà·ı à·ģ
Ġà¶´à¶» à¶«
a y
Ġ h
Ġà¶¸à·Ļ à¶łà·Ĭà¶łà¶»
à¶ļ à¶Ĥ
à¶± à¶±à·Ĭ
à¶© à·Ŀ
Ġà¶¸à·ı à¶»à·Ĭ
Ġà¶¸à¶» à¶«
Ġà·Ħà·ľà¶¯ à¶§
Ġà¶´à·Ĳ à¶§à·Ĵà¶º
âĢįà¶» à¶°à·ıà¶±
Ġà¶ī à¶Ńà·ı
à·ħ à¶§
an d
Ġà¶ļ à¶´
Ġà·ĥà·ĸ à¶¯à·ıà¶±à¶¸à·Ĭ
Ġà¶±à·Ĳ à¶Ń
âĢį à·Ĥ
Ġ K
à·ĥà·Ĭ à·Ģ
Ġà¶¯ à¶ļà·Ĭà·Ĥ
âĢįà¶» à¶º
Ġà¶ļà·Ĵà¶ºà¶±à·Ĭà¶± à¶¸à·Ĭ
Ġà¶Ĩ à¶´à·Ķ
* *
Ġà·ĥ à·Ŀ
à¶¶ à·ĵ
Ġà·Ģ à·ĸ
à¶ĭ à¶¯
Ġà¶Ńà·Ģ à¶¸à¶Ńà·Ĭ
Ġ I
à·ĥà·Ĭ à¶®à·ı
Ġà·ĥà¶¸à·Ħà¶» à·Ģà·Ĵà¶§
à·Ģà·Ĳ à¶»
Ġà¶º à¶ºà·Ĵ
à¶ĳ à·Ħà·Ļ
Ġà·Ģà·Ĵ à·ĥ
Ġà¶¸à·Ķ à¶¯
o t
Ġà·ĥà¶Ńà·Ķà¶§ à¶ļà·Ĭ
Ġà¶ħ à¶Ĥà¶ļ
à·Ķ à¶±à·ı
âĢį à¶¸
Ġà·ĥà·Ħà·Ŀà¶¯à¶» à¶ºà·ı
Ġà¶¸à·Ļà¶Ńà¶± à¶§
Ġà¶¯à·Ĳà¶ļà·Ĭà¶ļ à¶¯
Ġà¶Ń à·ľ
Ġà¶¯à·Ĳà¶¸à·Ĭ à¶¸à·ı
Ġà¶ļà·ıà¶§ à·Ģà¶Ńà·Ĭ
Ġà¶¯ à·ľ
Ġà·Ģà·Ĳà¶© à·Ĵà¶ºà·Ĵ
Ġà¶¸à¶¸ à¶ºà·Ĵ
à¶ļà·ıà¶» à¶ºà·Ļà¶ļà·Ĭ
à¶Ńà·Ĵà¶º à·ļ
à¶°à·ı à¶±à¶º
à¶¯ à·Ĳà¶±
à¶¯ à·Ĵà¶ºà·Ĵ
Ġà·Ħà·ľà¶¯ à·Ĵà¶±à·Ĭà¶¯
Ġà¶Ńà·Ĵà¶¶à·Ķ à¶±
à¶½ à·Ļà¶ļà·Ĭ
Ġà¶ħ à¶»à·Ĵà¶±à·Ĭà¶±
Ġà¶±à·Ĳ à¶ľà·Ĵ
à·Ģ à·Ļà¶±à·Ģà·ı
Ġà¶¯à·Ģà·ĥ à¶ļà·Ĭ
Ġà¶Ĩà¶»à¶ļà·Ĭà·Ĥ à·Ĵà¶Ń
Ġà¶ī à¶Ńà·Ĵ
à¶» à·ľ
Ġà¶Ńà·ı à¶Ńà·Ĭà¶Ńà·ļ
Ġà¶ļà·ıà¶¸ à¶»
Ġà¶Ķ à¶±
à·ĥà·Ĭ à¶Ńà·Ķà¶Ńà·Ĵà¶ºà·Ĵ
Ġà¶Ķà¶ºà·ı à¶ľà·Ļà¶±à·Ĭ
à¶»à·Ķ à¶«
a m
à¶© à·Ĵà¶º
Ġà·Ħà·ľà¶» à¶ļà¶¸à·Ĭ
à·ĥ à¶Ĥ
à¶¸à·Ĵà¶±à·Ĵ à·ĥà·Ĭà·ĥà·Ķ
à·Ļà¶± à·Ĵ
Ġà¶¸ à·Ĵà¶º
Ġà¶» à·Ķ
Ġy ou
Ġà¶¯à·Ļà¶±à·Ĭà¶± à·ı
Ġà·Ģà·Ĵ à·ĥà·Ĵà¶±à·Ĭ
Ġà¶ĳà¶ļ à¶ºà·Ĵ
Ġà¶±à·Ģ à¶Ńà·Ĵ
Ġà¶ĳà¶ºà·ıà¶½ à·Ģ
à¶± à·ĵà¶¸
Ġà¶¯à·Ķ à¶»à¶ļ
Ġà¶´ à¶«à·Ĵà·Ģà·Ĵ
Ġà¶Ńà·Ķ à·Ģà·ı
à¶» à·Ĵà¶ºà¶§
à¶Ń à¶±à·Ĭ
Ġà¶Ķà·Ħà·Ķ à¶ľà·Ļ
à·ĥà·Ĭ à¶Ńà·ĸà¶Ńà·Ĵà¶ºà·Ĵ
Ġà·Ģà·Ĵ à·Ģà·ıà·Ħ
Ġ P
à¶Ĵ à·Ģà¶ľà·ļà¶¸
à¶½ à¶ļà·Ĭà¶ļ
Ġà·ĥà·Ĵ à¶¯à·Ķ
Ġà¶¶ à¶±à·Ĭ
Ġà·Ģà·Ĳ à¶§à·Ķ
Ġà·Ħà·ľà¶³ à·Ĵà¶±à·Ĭà¶¯
Ġà·Ħ à¶¯à·Ĵ
Ġà·ĥà¶Ńà·Ķ à¶§à·Ķ
Ġà¶ķà¶± à¶¯
à¶Ńà¶» à¶¸à·Ĭ
Ġà·Ħà·Ĳ à¶¯à·Ķ
Ġà·Ģà·Ļ à¶łà·Ĭà¶ł
à¶½ à·ĸ
Ġà¶´ à¶«
Ġà¶¸à·ļ à·Ģà·ı
à¶¸à·ľ à¶±à·Ģà·ı
à¶´à·ľà¶© à·Ĭà¶©à¶ļà·Ĭ
à¶© à¶¸à·Ĭ
à·Ħà·Ļà¶±à·Ĭ à¶¯
à·Ħà·Ĵ à¶»
Ġà¶Ń à¶¯
o f
à¶ħ à¶º
à¶Ńà·Ĵ à¶¸à¶Ńà·Ĭ
à¶ļà¶» à¶«
Ġà¶ħ à¶±à·ı
Ġà¶ľ à¶½
à¶½ à¶ľ
à¶Ń à¶±à¶º
Ġà·Ģà·Ĵà·ģà·Ĭà·Ģà·ıà·ĥ à¶ºà·Ĵ
Ġà¶· à¶ºà·ıà¶±
Ġà¶ļà¶Ńà·ı à¶ļà¶»à¶±à·Ĭà¶±
Ġà¶¯ à·Ħ
Ġà¶ħà¶¸à·Ĭ à¶¸
Ġà·Ħà·Ĵà¶Ń à·Ķà·Ģà·Ļ
à¶· à·ı
Ġà¶Ń à·Ħ
à¶¸ à·Ħ
à¶ļ à¶ºà·ı
Ġà¶ħ à¶Ńà·Ķà¶»à·Ķ
Ġà·Ģà·Ĵ à·ĥà·Ĵ
Ġà¶īà¶¯ à¶½à·ı
Ġà·Ģà·Ļà¶½à·ı à·Ģà·Ļ
Ġà·ĥ à¶±à·Ĭ
Ġà¶Ń à·Ĭ
Ġà¶ļà·Ĳà¶¸ à·Ĳ
Ġà¶¸à¶» à¶½à·ı
1 5
Ġà¶¯ à·Ĵà¶º
à¶´ à·ĥà·Ķ
à¶ºà·Ĵà¶º à¶±à·ļ
Ġà¶´à¶» à¶ļà·Ĭà¶ļà·Ķ
Ġ !
à¶½à·ļ à¶¸
à¶¸à·Ĭ à·ĥà·Ĭ
Ġà¶ļ à¶ļà·Ķ
à¶§à·Ĭà¶§ à·Ķà·Ģ
Ġà¶¶à·Ŀ à¶¸à·Ĭà¶¶
à¶ł à·ıà¶»à·Ĭ
Ġà¶½à·ĥà·Ĭà·ĥà¶± à¶ºà·Ĵ
Ġà¶» à·Ħ
Ġà·Ħà·Ķ à¶Łà¶ļà·Ĭ
Ġà¶Ńà·ĵà¶» à¶«à¶º
à¶Ķà·Ħà·Ķ à¶§
à¶īà¶ļà·Ĭà¶¸à¶± à¶§
Ġà·Ģà·Ķ à¶«à·ļ
à¶© à·ĵ
à¶Ķ à¶ļà·Ĭà¶ļ
Ġà¶½à·Ĳà¶¶à·Ķ à¶±à·ı
Ġà¶¸à¶Ł à·Ķ
Ġà¶ļà¶«à¶ľà·ı à¶§à·Ķà¶ºà·Ĵ
Ġà¶¸à·ĵ à¶§
à·ļ à·Ģà·Ĵ
à¶´ à¶»à·Ĭ
à¶» à¶±à·Ĭ
Ġà¶Ń à¶±à·Ĵ
à·Ħà¶» à·Ĵà¶ºà¶§
à·Ĵ à¶½à·ı
Ġà·Ģà·Ķ à¶«
Ġà¶» à·Ħà·ĥà·Ĭ
à¶¸à·ı à¶±
Ġà¶¸à·ľ à·Ħà·ľ
à¶¢ à·Ĳà¶ļà·Ĭ
à¶ħ à·Ģ
à¶½à·ı à¶ļà·Ĭ
à·ĥà·Ĭ à¶Ń
Ġà¶½à·Ŀ à¶ļà¶º
Ġà·Ħà·Ĳ à¶§à·Ĵà¶ºà¶§
à¶Ńà¶¸à·Ķ à·ĥà·Ļ
à¶»à·Ķ à¶«à·Ķ
Ġà¶¸ à·ıà¶»
à¶¶à·Ĳ à¶ºà·Ĵ
Ġà¶ĳà¶±à·Ĭà¶± à·Ļ
Ġà¶ļà·ľ à·Ħà¶¯à·Ļ
à·Ģà·Ķ à·Ģà·ı
Ġà¶¶ à·ĵ
à¶½ à¶¯
Ġà¶´ à¶¸à¶«
Ġà¶´ à¶¯à·Ĭà¶°
à¶§ à·Ķà·Ģ
Ġà¶ħà¶± à·Ķà·Ģ
Ġà¶Ńà·Ĵà¶¶à·Ĭà¶¶ à·ļ
Ġà¶ħà·Ģà·ĥà·Ĭà¶® à·ıà·Ģ
Ġà·Ģà·Ļà¶½à·ı à·Ģà·ļ
Ġà·Ħ à¶¯à·ı
Ġà¶¶à·ľ à·Ħà·ľà¶¸
Ġà¶¶ à·Ģà¶§
Ġà¶ĳà·Ħà·Ļ à¶¸à¶ºà·Ĵ
Ġà¶ĩ à¶ľà·ļ
à·Ħ à·Ĳà¶±
Ġà¶Ńà·Ĵà¶º à¶±à·Ģà¶¯
Ġà¶ľ à·ŀ
Ġà¶¸à·Ļà·Ħà·Ļ à¶ºà·Ķ
Ġà·ĥà·ľ à¶ºà·ı
Ġà·ģ à·Ĵ
Ġà·Ħà·Ĳ à¶§à·Ĵ
Ġà¶´à·ļ à¶±à·Ģà·ı
à¶ľ à¶¸
Ġà·Ģà·Ĵ à¶±à·Ŀ
à·Ģ à¶½à¶§
Ġà¶±à·ĵ à¶Ńà·Ĵ
à¶© à¶»à·Ĭ
Ġà·Ģ à·ľ
à¶ļ à¶ºà¶ļà·Ĭ
Ġà¶´à·Ķ à¶»à·Ķ
Ġà¶½à·Ĵ à¶´à·Ĵ
Ġà·Ħà·ļ à¶ºà·Ĵ
à¶ļà·Ĭ à·ĥà·Ĭ
Ġà¶ļà·ľà·Ħà·ļ à¶¯
Ġà¶º à¶¸à¶ļà·Ĭ
à·Ģà·Ķà¶»à·Ķ à¶¯à·Ĭà¶¯
à¶ħà¶´ à·ľà¶ºà·Ĵ
Ġà¶ĩ à¶³
Ġà¶ľà·ıà¶± à¶ļà·Ĭ
Ġà¶¶à¶½ à¶º
Ġà¶¶à·Ĵ à¶¸
âĢįà¶» à·Ŀ
Ġà¶±à·Ĵà¶»à·Ĭ à¶¸à·ı
Ġà¶ĳ à¶±à·Ģ
Ġà¶´à·ı à¶§
Ġà¶ħà¶» à¶ľà¶±à·Ĭà¶±
Ġà¶ħà·Ģà·Ķ à¶½à·Ĭ
à¶± à·ľà¶Ńà·Ĭ
Ġ G
Ġà¶´ à·Ĵà¶º
à¶© à·Ĵà¶ºà·Ŀ
à¶ħ à·Ģà·Ķà¶»à·Ķà¶¯à·Ķ
à¶Ń à¶§
à¶´à·Ĭ à¶§à¶±à·Ĭ
Ġà¶¸à·Ļ à·Ħà·Ļà¶±à·Ĭ
à¶Ńà·ı à¶Ńà·Ĭà¶Ńà·ı
Ġà·Ģà¶» à¶¯
à¶´ à¶½
Ġà·Ħà·Ĵà¶Ń à¶±à·Ģà¶¯
à·Ħà¶»à·Ĵ à¶¯
à¶´ à¶»
Ġà¶´à·Ĳ à¶Ńà·Ĭà¶Ńà·ļ
à¶ļ à¶¸à¶ļà·Ĭ
Ġà·ĥà·Ĵ à¶§
Ġà·Ħà¶¯ à·Ģà¶Ń
Ġà¶ļà·Ļà¶½à·Ĭà¶½ à·Ļà¶ļà·Ĭ
Ġà¶¯à·ĵ à¶½à·ı
à¶ľ à·ıà¶»
à¶»à·Ĵ à¶ļà·ı
à¶±à·Ļ à·Ģà·ı
à·ĥà·Ĵ à¶»
Ġà¶ºà·ı à¶½à·Ķà·Ģà·ı
à¶±à·Ĭ à¶§à·Ĭ
Ġà·ĥà¶¸ à¶Ł
à·ģ à·ı
Ġà¶¶ à¶©à·Ķ
à¶ķ à¶ļ
Ġà¶¢ à·Ŀ
Ġà¶Ńà·Ŀ à¶»
à¶ļà·ı à¶§
Ġ R
à¶¸ à¶Ńà¶ļ
Ġà¶´à·Ķ à·Ħà·Ķ
Ġà·ĥ à¶¯à·Ĭà¶¯
Ġà¶Ĩà¶»à¶ļà·Ĭà·Ĥ à¶ļ
à¶ĳ à¶Ńà¶±
Ġà¶¸ à·Ħà·ı
Ġà·ĥà·Ĵ à·Ħà·Ĵ
à¶ļ à·Ģà·Ķ
Ġà¶º à¶¸à·Ĭ
à·ĥ à¶ļ
Ġà·Ģà·Ĵ à·Ģà·ĺ
Ġà¶Ĩ à¶ºà·Ķà¶°
à¶¯à·Ķ à¶¸à·Ĭ
3 0
Ġà¶ĭ à¶Ńà·Ĭà¶Ńà¶»
me nt
Ġà¶Ńà·Ģ à¶¸
Ġà·Ģà·Ĵ à¶»à·Ķ
Ġà¶´à·Ĵ à·ĥà·Ĭà·ĥ
à¶¶ à¶½à·ı
Ġà¶¸ à¶±
Ġà¶¸à·Ļ à¶¸
Ġà¶¶ à¶©
à¶´ à·Ħ
Ġà¶¸ à¶ľà·Ŀ
Ġà¶ĭà¶¹ à·ļ
à¶°à·Ĵ à¶´à¶Ńà·Ĵ
Ġà¶ħà·Ģ à·ĥà¶±à·Ĭ
Ġà·Ħà·ľà¶ºà·ı à¶ľà·Ļà¶±
Ġà¶¶à·Ĵà¶»à·Ĵ à¶³
à¶§à·Ĵ à¶±à·Ĭà¶±
à·Ĵà¶±à·Ĭ à¶¯à·ı
1 2
Ġà¶ħà¶´ à¶§
à¶ĳà¶ºà·ı à¶½à¶§
Ġà·ĥà·Ĵ à¶¯à·Ķà·Ģ
à¶½ à¶ļ
à¶½ à¶Ł
à·ħ à¶Ł
à¶¸à¶§ à¶Ńà·Ĭ
Ġà¶ĳ à¶ºà·Ĵ
s t
Ġà·ĥà·Ĭ à¶®
à·ľà¶ļà·Ĭ à¶§à¶»à·Ĭ
Ġà¶ľà·Ļà¶±à·Ĵà¶º à¶±à·Ĭà¶±
Ġà¶īà¶³ à¶½à·ı
Ġà·ĥà·Ķ à¶»
Ġà¶Ńà·Ŀ à¶»à·ı
à¶±à·Ĭ à¶ľà·Ļ
Ġà¶¸à·Ķà¶« à¶ľà·Ĳ
à¶ĳà¶ºà·ı à¶ľà·Ļ
à·ĥ à·Ĵà¶ºà¶§
Ġà¶ĩà¶Ńà·Ķ à¶½à·Ĭ
à·Ļ à¶Ńà·Ĭ
Ġà¶ħà·Ģà·ĥà·Ĭà¶® à·ıà·Ģà¶ļà·Ĭ
à¶½à·Ĵ à·ĥà·Ĭ
à¶¶ à¶»à·Ĭ
Ġà¶Ńà·Ķ à¶±
Ġà¶±à·Ĵ à¶ļà¶¸à·Ĭ
Ġà¶´à¶»à·ĵà¶ļà·Ĭà·Ĥ à·ı
Ġà·Ħà·Ĳà¶¸à·Ŀ à¶§à¶¸
Ġà¶ļà·ıà¶¸ à¶»à·ļ
à·Ļà¶ļà·Ķ à¶§
à¶½à·Ĭà¶½ à·Ķ
à¶ļà·Ĵà·ĥà·Ĵ à¶¸
Ġà·Ħà¶¯ à¶±à·Ĭà¶±à·Ļ
à¶¸à·ľ à¶±à·ıà¶¯
Ġà¶Ń à¶Ńà·Ĭà·Ģ
Ġà¶¸à·ı à¶»à·Ķ
Ġà·Ħà·Ĵà¶Ń à¶±
Ġà¶¸à·Ĵà¶±à·Ĵà·ĥà·Ĭà·ĥà·Ķ à¶±à·Ĭà¶§
-- čĊ
Ġà¶ħà¶½à·Ĭà¶½ à¶±à·Ĭà¶±
Ġà¶¸ à·Ļà¶±à·Ĭà¶±
Ġà¶Ńà·Ĵ à·ĥà·Ĭà·ĥ
à¶ĩ à¶ºà¶§
Ġà¶Ĩà¶» à¶¸à·Ĭà¶·
Ġà¶ĭà¶© à¶§
Ġà¶¯à·Ļà¶± à·Ļà¶ļà·Ĭ
Ġà¶Ńà·ļà¶» à·Ļà¶±à·Ģà·ı
à¶ļà¶» à¶½à·ı
Ġà¶ķà¶±à·Ļ à¶¯
Ġà¶¸à·Ĵ à¶½à·Ĵà¶ºà¶±
Ġà·Ħà¶» à·Ħà·ı
Ġà¶ļà·ı à¶±à·Ĭ
à¶ħ à¶ºà·Ĵ
à¶´à·ļ à¶±
Ġà¶¯à·Ķ à¶±à·Ĭà¶±à·ļ
Ġà¶¶ à·ıà¶»
à¶ļ à·Ģà¶¯
à·Ĥà·Ĭ à¶¨
Ġà¶ļà·ı à¶½à·ļ
Ġà·Ħà·Ĳ à¶ļ
âĢį à¶¯
Ġà¶Ń à¶»à·Ĭ
Ġà·Ģ à¶ľà·Ļ
Ġà·Ģà·ıà¶»à·Ĭ à¶Ńà·ı
à·Ħà·Ļ à¶ºà·Ĵ
w e
Ġà¶ľà·Ļà¶¯à¶» à¶§
à¶¯à·Ĵ à¶½à·ı
Ġà¶±à·ĳ à¶±à·ļ
à¶Ķà¶ºà·ı à¶½à¶§
Ġà¶´à·Ĳà¶Ńà·Ĭà¶Ń à·Ļà¶±à·Ĭ
Ġà¶´ à¶¯
Ġà¶Ķ à·Ħà·ľà¶¸
Ġà¶ĭ à·ĥà·Ĭà·ĥ
Ġà¶¯à·ı à¶½
a b
Ġà¶± à¶Ĥà¶ľà·Ĵ
à¶ļà·ı à¶»à·Ĭ
à¶´ à·Ļà¶±
Ġà¶¸à·ı à¶»à·Ĭà¶ľ
v e
à¶½ à¶ºà¶§
Ġà¶¯ à¶»à·Ĭà·ģ
Ġà¶Ńà·Ĳà¶± à¶§
Ġà¶ħ à¶³à·Ķ
Ġ L
5 0
à·Ļà¶± à·ı
à¶ħà¶¸à·Ĭ à¶¸à·ı
Ġà¶´à¶»à·Ĵ à·ĥà·Ĭà·ĥ
à¶½à·Ĭà¶½ à·Ļà¶ļà·Ĭ
à·Ģ à·ľ
Ġà¶¯ à·Ĭ
Ġà¶ħà¶¸à·Ĭ à¶¸à·ļ
à¶± à¶¯
à·Ģà·Ķ à¶¸à·Ĭ
Ġà¶ī à¶½à¶ļà·Ĭà¶ļ
Ġà¶Ķ à·Ħà·Ĭ
Ġà¶¸à¶¸ à¶Ńà·Ĭ
Ġà¶ľà·ľà¶© à·ıà¶ļà·Ĭ
à¶¶ à¶º
à·ıà·Ģ à·Ļà¶±à·Ĭ
- à¶¸à¶¸
Ġà¶¸à¶§ à¶Ńà·Ĭ
à·ĥà·Ĵ à¶ºà·ı
à¶±à·Ĳ à¶Ńà·Ĭà¶±à¶¸à·Ĭ
à¶Ķà¶ļà·Ĭà¶ļ à·ľà¶¸
à¶´à·ĥà·Ĭà·ĥ à·Ļ
Ġà¶ľà·Ĵà¶º à·ľà¶Ńà·Ĭ
Ġà·Ģà·ıà·ĥ à¶±à·ıà·Ģ
Ġà¶±à·Ķ à¶¹
Ġà¶ħ à·Ģà·Ķà¶»à·Ķà¶¯à·Ĭà¶¯
Ġà¶Ńà·Ķà·Ģà¶ļà·Ĭà¶ļ à·Ķà·Ģ
Ġà·Ħà·Ĳà¶¸à¶¯ à·Ļà¶ºà¶ļà·Ĭà¶¸
Ġà¶¢à·Ĵ à·Ģà¶Ńà·Ĭ
Ġà¶Ńà·Ĵà¶¶ à·Ļà¶±à·Ģà·ı
Ġà¶ī à¶Ńà·Ķà¶»à·Ķ
Ġà¶¢ à¶º
à¶¸ à·ĸ
à¶± à¶¸
à¶ĭà¶¹ à¶§
Ġà¶¸à·Ķ à¶½à·Ĵà¶±à·Ĭà¶¸
a c
t h
Ġà¶īà¶ļà·Ĭ à¶¸à¶±à·Ĭ
Ġà·ĥ à·Ķà·Ģ
Ġà¶Ń à·Ĳà¶±à·Ĭ
âĻ «
à¶¸à¶¸ à¶ºà·Ĵ
Ġà¶ħà¶± à¶Ńà·Ķà¶»à·Ķ
à¶º à¶±à·Ģà·ı
Ġf or
à¶´ à¶Ĥ
Ġà¶¸à¶ľà·Ķ à¶½à¶ļà·Ĭà¶¯
à¶±à·Ĵ à¶ºà·ı
Ġà¶ĳà¶ļ à·Ļà¶ļà·Ĭ
à·Ģ à·Ŀ
Ġà¶´à·Ģà·Ķ à¶½
Ġà¶ľà¶±à·Ĭà¶± à¶¸à·Ĭ
Ġà¶ĳ à·Ħà·ı
u r
à¶´ à·ĺ
à¶ļà¶»à·Ķ à¶«à·ıà¶ļà¶»
Ġà·Ħà·ľà¶ºà·ı à¶ľà¶Ńà·Ĭà¶Ń
à·Ģà¶¯ à·Ķà¶»
à·ĳ à·ĥ
à·Ħà·Ļ à¶§
Ġà¶¯à·Ļà¶±à·Ĭà¶± à¶¸
Ġà¶ħà·Ģ à·ĥà¶»
à¶ľ à¶±à·Ļ
r an
âĢįà¶» à¶´
à¶½ à·Ĵà¶ºà¶§
à¶½ à¶ºà·ļ
Ġà¶¸à·Ķà·Ħà·Ķ à¶«
Ġà¶Ńà·Ĵà¶º à¶½à·ı
Ġà¶Ńà·Ķ à¶½
Ġà·Ģà·Ĵà¶±à·Ŀ à¶¯
Ġà¶ļà·Ģà·Ķà¶»à·Ķ à·Ħà¶»à·Ĵ
Ġà¶ļà·Ģà·Ķà¶»à·Ķ à¶Ńà·Ĭ
à¶½à·Ĭ à¶©à·Ĭ
1 00
Ġà¶ľà·ľ à¶±à·Ķ
Ġà¶ļà·ľ à¶ºà·Ĵ
Ġà¶¶à·Ķ à¶¯à·Ĭà¶°
à·Ģà·Ķ à¶»
à¶¢ à¶º
à·Ģà·Ĭ à¶¯
Ġà¶ļà·Ĵà¶º à¶±à·Ģ
à¶ļà·ıà¶» à¶ºà·ı
à¶ĩ à¶Ńà·Ķ
à·ĥ à·ľ
Ġà·Ģ à¶ľà·Ŀ
Ġà¶īà¶¯à·Ĵ à¶»à·Ĵ
Ġà¶ĩ à·Ħà·Ĳ
Ġà·ĥ à¶Ńà·Ĵ
Ġà¶ħ à¶½à·Ĭà¶½à·ı
à¶ĭà¶¯ à·Ģà·Ĭ
Ġà¶ł à·ı
u n
à¶¯à·Ĵ à¶±
Ġà¶ľà·ļ à¶±à·Ĭà¶±
à¶ł à·Ĵ
Ġà¶¯à·ļ à·ģ
Ġà¶ļà¶«à·Ĭà¶©à·ıà¶º à¶¸
r o
Ġà¶Ĵ à·Ģà¶ľà·ļà¶¸
à¶Ĩ à¶»
à¶¸à¶¸ à¶Ńà·Ĭ
Ġà¶ºà·Ķ à¶¯à·Ĭà¶°
Ġà·Ģ à·ģ
Ġà¶´à·Ļà¶± à·Ķ
Ġà·Ģà·ĵ à¶»
Ġà¶¸à·Ļ à·Ħà·ıà¶§
à·Ħà·Ļ à¶½à·Ŀ
Ġà·ĥ à¶¯
à·Ģà¶¯à·Ķà¶» à¶§à¶Ńà·Ĭ
à·Ģà·Ĭ à·Ģ
Ġà¶Ķ à¶Ńà¶±
Ġà¶ħà¶¸à·ıà¶»à·Ķ à¶ºà·Ĵ
à¶¸à·Ĭ à·Ģ
à¶¸à·ı à¶»
Ġà¶ħà¶Ńà·Ķà¶»à·Ķ à¶¯
. "
à¶¯à·Ķ à¶±à·ı
à¶¯à·Ļà·Ģà·Ĵà¶º à¶±à·ļ
à·ĸ à¶Ń
à¶· à·ıà·Ģ
Ġà·Ģà·Ĵà·ģ à·ıà¶½
à·Ŀà¶¢ à·Ĵà¶Ń
Ġà·Ģà·Ķà¶± à·ľà¶Ńà·Ĭ
Ġà¶ħ à¶ľ
Ġà·Ģà·ļ à¶ľ
Ġà¶ĭà¶¯à·Ģà·Ĭ à·Ģà¶ļà·Ĭ
à¶»à·Ĭ à¶Ń
à¶½ à·ĳ
Ġà¶¸à·Ĵ à¶±à·ĵà¶¸
Ġà·Ħà·ľà¶¯ à¶¸
Ġà¶±à·Ĳà¶Ńà·Ĭà¶Ń à·Ļ
à¶© à·ľ
Ġà¶ļà·ľà¶½à·Ĭà¶½ à·Ŀ
à·ĥ à¶º
Ġà¶Ĵà¶ļ à·Ļ
Ġà¶Ńà·ļà¶»à·Ķ à¶¸
Ġà¶ļà·Ĵ à¶»à·Ĵ
à¶ļà·ľ à¶½à·Ĭà¶½
Ġà¶ĳà¶ļ à¶Ńà·Ĭ
e c
Ġà¶ļ à·ĸ
Ġà·Ħ à·Ĵà¶±à·Ĭà¶¯à·ı
Ġà¶´à·Ĳ à¶§
Ġà¶ħà¶±à·Ĵ à·Ģà·ıà¶»à·Ĭ
Ġà¶º à·Ĳ
Ġà¶ļà·ľà¶§ à·ĥ
Ġà¶ļà·Ĳà¶¸à·Ĳ à¶Ńà·Ĭà¶Ń
Ġà¶Ń à¶Ńà·Ĭà·Ģà¶º
Ġà¶¯ à¶»à·Ķà·Ģ
à·ĥà·Ĳ à¶ļ
Ġà¶ļ à¶Ńà·ıà·Ģà¶ļà·Ĭ
Ġà·Ħà¶¯ à¶±à·Ģà·ı
Ġà¶©à·ľ à¶½à¶»à·Ĭ
Ġà¶Ńà·Ķ à¶±à¶ļà·Ĭ
Ġà·Ħà·ľà¶ºà·ı à¶ľà¶Ńà·Ĭà¶Ńà·ı
à·ĥà·Ķ à¶¶
Ġà·Ģà·Ĵà¶»à·Ķ à¶¯à·Ĭà¶°
Ġà¶´à·Ĵà¶±à·Ĭ à¶Ńà·ĸ
Ġà¶´ à¶»à·ı
à¶´à·ľà¶© à·Ĵ
Ġà¶± à¶§
à·ħ à·Ķà·Ģà¶ļà·Ĭ
Ġà·Ģà·Ĵà·Ģà·ĺ à¶Ń
à¶Ĩ à¶´à·Ħà·Ķ
à¶ļà¶» à¶±à·Ģà·ı
Ġà¶ľà·Ļ à·Ģà¶±à·Ĭà¶±
1 9
Ġà¶ħ à¶Ĥà·ģ
à¶¶ à·ļ
Ġà·Ģà·Ľ à¶»
Ġà¶Ķà·Ģà·Ķà¶±à·Ĭ à¶ľà·ļ
Ġà¶ĭ à¶´à¶±à·Ĭ
à·Ģ à¶»à·Ķ
u t
à¶ºà·Ĵ à¶§à·Ĭ
à·ĵ à¶¸à·ļ
Ġà·ĥà·Ķ à¶·
à·ĳà¶±à·Ĭ à¶ļà·Ĭ
Ġà¶±à·Ĵ à¶Ńà¶»
à¶Ĥ à¶ľà·Ĭ
à¶ļ à·ĺ
Ġà¶ļà·Ĵà·Ģà·Ĭà·Ģ à·ľà¶Ńà·Ĭ
Ġà¶¶à¶½à·ıà¶ľà¶±à·Ĭà¶± à¶¸à·Ĭ
à·Ļ à·Ħ
à¶±à·Ĭ à·ĥà·Ĭ
à¶¸à·Ķ à¶¯
Ġà·Ħà·Ķ à¶ľà¶ļà·Ĭ
Ġà·ĥà¶Ńà·Ķ à¶§à·Ķà¶ºà·Ĵ
à·ĳ à¶¸à·Ĭ
à¶»à·Ĵ à·ĥà·Ĭ
Ġà·Ģà·Ĵà·ģà·Ĭà·Ģà·ıà·ĥ à¶¯
à¶³à·Ĵ à¶±à·Ĭà¶±
Ġà·Ħà·Ķ à·ĥà·Ĭà¶¸
à¶Ĵà¶ļ à¶ºà·Ĵ
à¶ºà·ı à¶§
à¶±à·ļ à¶±à·Ļ
Ġ O
à¶¸à·ı à¶Ńà·Ĭ
âĢį à¶½
à¶¹ à·Ķ
à·Ģà·Ĵ à¶±à·ı
à¶ Ŀ
Ġà¶´à·Ĵ à·Ħà·Ĵ
à·Ķà·Ģ à¶Ńà·Ĭ
Ġà¶ĳà¶ļà·Ĭà¶ļ à¶¸
à¶¢ à·Ŀ
Ġà¶¯à·ľ à·ĥà·Ĭà¶Ńà¶»
Ġà¶ĭà¶± à·ľà¶Ńà·Ĭ
Ġà¶¯à·Ķà¶»à¶ļ à¶®
à¶Ķ à·Ħà·ľà¶¸
Ġà¶ĩà¶Ńà·Ķ à¶½
Ġà¶ħ à·Ħà·Ĵ
Ġ, čĊ
Ġà¶¶à¶½ à¶±à·Ģà·ı
à¶¸ à·Ĵà¶ļ
âĢį à¶½à·ı
Ġà¶ħà·ħà·Ķ à¶Ńà·Ĭ
Ġà¶ Ŀ
Ġà¶ħà¶¸à·Ķ à¶Ńà·Ķ
Ġà¶´ à¶»à·Ĭ
à·Ģà·Ĳà¶» à¶¯à·Ĵ
Ġà¶ļà·ľà¶§ à·ĥà¶ļà·Ĭ
à¶ļà·ľ à·Ħà·ľà¶¸
Ġà·ĥà·Ĵà¶º à¶½à·Ķ
Ġà¶Ń à·ĳ
Ġà¶ļà·Ģà·Ķ à¶»à·Ķà·Ģà¶Ńà·Ĭ
à¶ļà·ľ à¶łà·Ĭà¶łà¶»
Ġà¶ºà¶±à·Ĭà¶± à¶¸à·Ĭ
Ġà¶¶à·ľ à¶±à·Ĭà¶±
Ġà¶½à·Ŀ à¶ļà·Ļ
à·Ļ à¶¯à·Ĵ
Ġà¶Ńà·Ĵà¶ºà·ı à¶ľà·Ļà¶±
Ġà·Ģ à·ĵà¶¸
à¶½à·ı à·Ģ
Ġà¶Ńà·ļà¶» à·Ļà¶±à·Ĭà¶±à·ļ
Ġà¶ «
Ġà¶ļà·ľ à·Ħà·Ļà¶±à·Ĭà¶¯
Ġà¶Ķà¶ºà·ıà¶½ à¶ľà·ļ
à¶¶ à¶»
Ġà¶ħ à¶Ĥ
Ġà·Ĩ à·Ŀà¶±à·Ĭ
Ġà¶ĭà¶¯ à·ĳà·ĥ
Ġà·ĥà·Ĳà¶½ à·ĥà·Ķà¶¸à·Ĭ
à·Ķà·Ģà·Ļ à¶½à·ı
r i
Ġà¶¸à¶ºà·Ĵ à¶ļà¶½à·Ĭ
à·Ĥ à·Ĵ
à·Ĥà·Ĭ à¶§
à¶ħà¶±à·Ĵ à¶Ńà·Ĭ
Ġà¶ħ à¶«
à·ĥ à¶Ńà·Ĭ
à¶Ń à·Ļà¶ļà·Ĭ
à¶ļ à·ĸ
à¶»à·Ĭ à¶ļà·Ĭ
âĢįà¶» à·ľ
Ġà¶¯à¶±à·Ĭà¶± à·ĳ
Ġà¶ħ à·Ħà·Ķ
Ġà·Ģà¶ľ à¶ºà¶ļà·Ĭ
Ġà·Ģ à·ļà¶¯
à¶¸à·Ĳ à¶Ńà·Ĵ
Ġà¶¯à·Ĳà¶± à·Ļà¶±à·Ģà·ı
âĢį à¶ºà¶ļà·Ĭ
Ġà¶ļà·Ķ à¶»à·Ķ
à·Ģà·ļ à·ģ
Ġà¶¯à·Ķ à¶»à·Ĭ
à¶ºà·Ĵ à·ĥà·Ĭà¶Ńà·Ķà·Ģ
à¶± à·ıà·Ģà¶ļà·Ĭ
à·Ħ à¶±
âĢį à¶ºà·Ĵ
à¶Ķ à¶±à·Ĭà¶±
à¶º à¶±
à¶¯ à·Ĵà¶º
Ġà¶Ķ à¶´à·Ĭà¶´à·Ķ
Ġà¶» à·ĥ
âĢįà¶»à·ģà·Ĭ à¶«à¶ºà¶ļà·Ĭ
à¶ļà·Ĭà·Ĥ à·ı
Ġà¶Ĵ à¶ºà·Ĵ
à¶ļà¶» à¶±
at her
à¶Ńà·Ĭà¶Ń à·Ķà·Ģ
à¶´ à¶±à¶º
Ġ à·ģà·Ĭ
Ġà¶´à·Ĳà¶§à·Ĵà¶º à·Ŀ
à¶´à·Ķ à¶»à·Ķ
Ġ g
Ġà¶¢ à·Ļ
Ġà¶¸à·ĸ à¶«
Ġà¶ħ à·ĥà·ı
Ġà¶´à·Ĳà¶¸à·Ĵ à¶«
âĢį à¶ļ
à¶¸ à·Ĵà¶º
à¶© à¶ºà¶ļà·Ĭ
Ġà¶´à·Ļà¶±à·Ĭà¶± à¶±à·Ĭà¶±
Ġà¶ļà¶» à¶¸à·Ĵà¶±à·Ĭ
Ġà¶´à·ľ à¶½à·ĵ
Ġà¶Ķà·Ģà·Ķà¶±à·Ĭ à·Ģ
Ġà¶ļà¶»à·Ķ à¶«à·ıà¶ļà¶»
Ġà·ĥ à¶ļ
Ġà¶ľà·Ĵ à¶±à·Ĵ
Ġà·Ģà·ı à¶©à·Ĵ
Ġà¶ħ à¶´à·Ĭ
Ġà¶¶ à¶Ĥ
Ġà¶Ĩ à·ĥ
2 00
Ġ E
Ġà¶ĩ à·Ħà·Ļà¶±
Ġà¶Ĩ à·Ģà¶»
à¶Ń à·Ĳ
Ġà¶´ à·Ŀ
Ġ H
Ġà·Ģ à¶»à·Ĭà¶ľ
à·Ģà·Ļà¶±à·Ĭà¶± à·ļ
Ġà¶´à·Ķ à¶»
Ġà¶¯à·Ķ à¶¸à·Ĭ
Ġà¶Ĩà¶» à¶ļà·Ĭà·ģ
à·Ģà·Ĵ à·ģà·Ĭ
à¶ºà·ı à¶ľà·ļ
we ather
Ġà¶´ à¶±à·Ĵ
Ġà¶ļà·Ĵà¶º à·Ģà¶±à·Ĭà¶±
Ġà¶Ńà·Ĵà¶¶à·Ķ à¶«à·ı
à· ²
à·Ģà·ļ à¶¯
Ġà¶¸ à¶Ńà·Ĭ
Ġà¶¯à·Ļà¶±à·Ĭà¶± à·Ļà¶ļà·Ĭ
Ġà¶º à·Ĵ
à¶ħ à¶±à·Ĭà¶Ńà·Ĵ
Ġà¶ļà¶» à·ıà·Ģà·Ĵ
Ġà¶¯à·Ĳ à¶ļ
à¶ľà·Ļ à¶¯à¶»
à¶¯à·Ķ à¶»à·Ķ
Ġà·Ħà·Ĵà¶Ńà·ı à¶ľà¶±à·Ĭà¶±
Ġà¶¶à·Ĵà¶»à·Ĵ à¶¯
à¶ļà·ıà¶» à·ĵ
à·Ģà·Ĭ à·Ģà·ļ
Ġà¶ļ à¶±
Ġà·Ģà·Ĳà¶© à·ĥà¶§
Ġà·Ħà·Ĳ à¶Ł
Ġ J
00 0
à¶ļà·Ģà·Ķà¶»à·Ķ à·Ħà¶»à·Ĵ
Ġà¶Ĵà¶ļ à·ļ
Ġà·Ģà·Ļà¶± à¶ļà¶¸à·Ĭ
Ġà¶±à·Ĵ à¶ļà¶Ĥ
Ġà¶ľ à¶¸à¶±
Ġà·Ħà·Ĳà¶¸à¶¯ à·ıà¶¸
, à¶¸à¶¸
Ġà¶ĳà¶ºà·ıà¶½ à¶ľà·ļ
Ġà·ĥ à¶ºà·Ĵ
Ġt h
à¶© à·Ĵà¶ºà¶ļà·Ĭ
Ġà·ĥà·ıà¶ļà·Ĭà·Ĥ à·Ĵ
à¶§ à·Ļ
Ġà·Ģà·Ĳ à¶§à·Ĵ
Ġà·Ħà·Ĳà¶¯ à·Ķà·Ģà·ļ
à·ĥà·Ķ à¶¸
Ġà¶īà¶ļà·Ĭà¶¸à¶± à·Ĵà¶±à·Ĭ
à¶ľà·Ĵ à¶±à·Ĭà¶±
âĢįà¶»à·ģà·Ĭ à¶«
Ġà¶½à¶ľ à¶§
Ġà¶´à·ļ à¶±à·Ĭà¶±à·ļ
à·ĥ à¶½
Ġà¶ħà¶´à·Ĵ à¶Ńà·Ĭ
Ġà¶ļ à·ıà·Ģ
Ġà¶´à·Ķà·ħ à·Ķà·Ģ
à¶ºà·Ķ à¶Ńà·Ķ
Ġà·ĥ à¶´
à¶´à·ĥà·Ĭà·ĥ à¶§
à·Ģ à¶Ńà·Ĵ
à¶¯à·Ĵ à¶ºà·ı
Ġà¶ĩ à¶±à·Ĭ
Ġà¶±à·ľ à·Ģà·ļ
à·Ļà¶± à·ĵ
à¶ļà¶» à¶«à¶º
à¶´ à·Ŀ
Ġà¶§ à·Ĳ
à¶ļà·Ķ à¶»à·Ķ
à·Ħ à·ıà¶»
Ġà¶´à·Ĳà·Ħà·Ĳ à¶»
Ġà¶¸à¶§ à·Ĭ
à¶ļ à¶±à·Ĭà¶±
à·ĵ à¶º
à¶ĳ à¶łà·Ĭà¶łà¶»
Ġà¶ļà¶» à·Ĭ
Ġà¶§ à·Ļ
Ġà¶ķà¶± à¶¸
Ġà¶ľà·Ĵà·Ħà·Ĵ à¶½à·Ĭà¶½à·ı
Ġà¶¸à·Ļ à¶ºà·ıà·Ģ
Ġà¶Ńà·Ķ à¶±à·Ĭ
Ġà¶¸à·ľà¶±à·Ģ à·Ħà¶»à·Ĵ
Ġà¶±à·ľà·Ħà·Ĳ à¶ļà·Ĵ
Ġà·ĥ à·ĵà¶¸
Ġà¶¶ à·ľà¶»
à¶ļ à¶§à·Ĭ
Ġà¶´à·ļ à¶±
Ġà¶¯à·Ĳà¶ļà·Ĭà¶ļ à·ļ
à·Ģà·Ķ à¶±
Ġà·Ħà·ľà¶³ à¶§à¶¸
à¶¶ à¶³
Ġà¶¸à·Ķ à¶»
à·Ķà·Ģ à·Ļà¶ļà·Ĭ
Ġà¶ľà·Ĳ à¶§
Ġà¶ļà¶½ à¶¶à¶½
à¶© à·Ĵà¶±à·Ĭ
à¶º à¶¸à·Ķ
Ġà¶¶à·Ļ à·Ħà·Ļ
at e
Ġà·Ħà·Ĳà¶¯à·Ķ à·Ģà·ı
à¶ħà¶¸à·Ĭ à¶¸à·ļ
Ġà·ģà¶ļà·Ĭ à¶Ńà·Ĵà¶¸à¶Ńà·Ĭ
à¶½à·Ĭ à¶§à·Ĭ
Ġà¶´à·Ķ à¶´à·Ķà¶»
Ġà¶·à·ıà·Ģà·Ĵ à¶Ń
à¶» à¶«à¶º
Ġà¶¯ à¶»à·Ķà¶«à·Ķ
Ġà·ĥ à¶»
à·ĥà·Ĵ à¶¯à·Ķ
Ġà¶ļà·Ĳà¶¸à¶Ńà·Ĵ à¶¯
Ġà·Ħà·Ĵà¶Ń à·Ķà·Ģ
à¶± à¶»à·Ĭ
Ġs t
à¶Ĥ à¶ľà·Ķ
à¶Ńà·ı à¶±à·Ĭ
Ġà¶ļà·Ļà¶±à·Ļà¶ļà·Ĭ à·Ģ
Ġà¶¶à·Ĳà¶»à·Ĵ à¶¯
Ġà¶º à¶±à·Ģà¶¯
Ġ W
Ġ of
Ġà·Ģ à·ĥà·Ĭà¶Ńà·Ķà·Ģ
à¶ħ à¶©
Ġà·Ħà¶¯ à¶½à·ı
Ġà·ĥà·ļ à·Ģà·ı
à¶ħà¶º à·Ĵà¶ºà·Ŀ
à¶¢ à¶±à¶º
Ġà¶ħ à·Ħà·Ĭ
à¶ºà·Ĵ à¶¯
Ġà¶¯ à¶¸
Ġà¶±à·Ĵ à·ĥà¶ºà·Ĵ
Ġà¶º à·Ļ
à¶Ĥà¶ľ à·Ķà·Ģà¶§
Ġà¶ļà·Ĵà¶» à·ĵà¶¸à¶ļà·Ĭ
Ġà¶¸à·ľà¶±à·Ģà·ı à¶¯
Ġà¶¢à·ļ à¶±à·Ĭ
à¶»à·Ķ à¶±à·ı
Ġà·Ģà·Ľ à¶¯à·Ĭ
à¶´à·Ĵ à¶§à·Ĵà¶±à·Ĭ
à¶»à·Ķ à¶±à·Ĵ
à·ħà·Ķ à¶¸
Ġà·Ģà·Ĳà¶» à¶¯à·Ĵà¶ºà·Ĵ
Ġà¶±à·Ĵà¶º à·Ŀà¶¢à·Ĵà¶Ń
Ġà·Ģ à¶±à·ļà¶±
Ġà¶ħ à¶ľà¶º
Ġà¶¯à·Ģà·ĥ à·ļ
Ġà¶ĩà¶Ńà·Ķ à¶½à·Ļ
Ġà¶´à·Ķ à¶»à·ı
à¶¸à·Ļ à¶¸
à¶¯à¶» à¶ºà·Ļà¶±à·Ĭ
à¶½à·Ĭ à¶¸
Ġà·Ĩ à·Ĵ
à¶Ńà·Ĭà¶Ń à¶¸à·Ĭ
Ġà¶ļ à·ĥà·ıà¶¯
Ġà¶¸à·ľà¶± à·Ģà¶Ńà·Ĭ
Ġà·Ħà·Ĳ à·ĥà·Ĵà¶»
à¶¥ à·ı
Ġà¶¸ à¶°à·Ĭ
à¶Ń à¶¸
à·Ļà¶± à·Ģà¶¯
à¶½à·Ĵ à¶ºà·ı
à·Ģà·Ķ à¶±à·ļ
o p
Ġà¶¢à·Ĵà·Ģà·Ĵ à¶Ń
à¶± à·ĥà·Ĭ
Ġà·Ģà·Ĵ à·ĥà·Ĭ
Ġà¶´à·Ķà¶»à·Ķ à¶¯à·Ķ
Ġà¶´à·ĥà·Ĭà·ĥ à¶§
Ġà¶¸à·Ĳà¶»à·Ķ à·Ģà·ı
à¶Ń à·Ŀ
à·ĥà·Ĵ à¶ļ
Ġà¶ļà¶»à¶¯à¶» à¶ºà¶ļà·Ĭ
Ġà¶ļ à¶©à·ı
à¶ľ à¶¸à·Ķ
à¶ħà¶±à·Ĵ à¶ļ
Ġà¶¯à·Ļà¶±à·Ĭà¶± à·Ļ
Ġà¶ľ à¶±à·Ķ
Ġà¶ħà·Ħ à·Ķà·Ģ
à·Ģà·Ĵ à¶½à·Ĭ
Ġà¶´ à¶§
Ġà¶´à·ļ à¶±à·Ĭà¶±à·Ļ
Ġà·Ģà¶ł à¶±
Ġà¶Ń à·Ģà¶¯à·Ķà¶»à¶§à¶Ńà·Ĭ
à¶¯à·Ĵ à¶ľ
Ġà·Ģà·Ĵ à·Ģà·ļ
ad a
à¶º à·ľ
à·Ģà·Ĵ à·ģ
Ġà·Ħ à¶³à·Ķ
Ġà¶ĳ à¶½à·Ĭà¶½
Ġà¶ļà·ľà¶§ à·ĥà·Ĭ
à¶»à·ı à¶¢à·Ĭ
à¶±à·ı à¶°à·Ĵà¶´à¶Ńà·Ĵ
Ġà¶Ńà·Ĳà¶± à¶ļ
Ġà·ĥà·Ĵà¶º à¶½à·Ĭà¶½
à¶ļà·ıà¶» à·Ĵà¶º
Ġà·Ģà¶§à·Ĵ à¶±à·ı
à¶Ķà¶º à¶Ńà·Ĭ
à·Ħ à¶½à·Ŀ
à·Ķ à·Ģà·ı
Ġà¶¶ à·Ħà·Ĵ
Ġà¶±à·ľà·Ħà·Ĳ à¶ļ
Ġà¶· à·ĸ
à·Ģ à·ĵà¶¸à¶ļà·Ĭ
Ġà¶±à·ı à¶ºà¶ļ
Ġà¶ħ à¶Ńà¶±
à·Ģ à·ĸ
à¶ļà¶» à·Ķà·Ģà¶±à·Ĭ
Ġà¶ħ à¶Ńà·ļ
Ġà¶ł à·ıà¶»à·Ĭ
à¶¢ à·Ļ
Ġà¶ĭà¶Ńà·Ĭ à·ĥ
Ġà¶ħà¶Ń à¶§
Ġà¶±à·Ĵà¶»à·Ĭà¶¸à·ı à¶«à¶º
à¶¯à·Ķ à¶±
Ġà¶ĩ à¶Ł
à¶ľ à¶«
à¶»à·Ķ à¶¸
Ġà¶Į à·Ģ
Ġà¶ļà·ľ à¶½à·Ĭà¶½à·ı
à·ĥà·Ĵ à¶¯à·Ĭà¶°
Ġà¶ħ à¶°à·Ĵ
e y
Ġà¶ľ à¶«à·Ķ
à¶¸à·Ĭ à¶¸
Ġà¶½à·Ĳ à¶ºà·Ĵà·ĥà·Ĭà¶Ńà·Ķà·Ģ
à·ıà·Ģ à·Ļ
Ġà¶īà¶¯à·Ĵ à¶»à·Ĵà¶ºà¶§
c e
Ġà¶Ńà·Ķà·Ģà·ı à¶½
à¶Ń à·Ģà¶Ńà·Ĭ
Ġà·Ģà·Ļà¶± à·Ģà¶¯
Ġà¶±à·Ĵà¶¯à·ı à¶ľà¶±à·Ĭà¶±
Ġà·Ħà·Ĵ à·ĥà·Ĭ
Ġà¶īà·Ģà¶» à¶ºà¶ļà·Ĭ
Ġà¶¶à·Ķà¶¯à·Ĭà¶° à·Ĵ
Ġà¶¸à·Ķà¶¯ à¶½à·Ĭ
à¶Ńà·Ķ à¶±à·Ĭ
à¶Ķà·Ħà·Ķ à¶ľà·ļ
Ġà¶ĳà¶Ńà¶± à¶§
om ment
à¶»à·Ĵ à¶ļà·ıà·Ģ
Ġà¶±à·Ģà¶Ńà·Ĵ à¶±à·Ĭà¶±
Ġà·Ħà·Ĳà¶ļà·Ĵ à¶ºà·ıà·Ģ
à¶īà¶ļà·Ĭ à¶¸à¶±à·Ĭ
à¶±à·Ĭ à¶¯à·Ĭ
à¶ľà·Ĳà¶± à·ĵà¶¸
Ġà¶Ńà¶» à¶Ł
Ġà¶ĭà¶¹ à·Ģ
à¶Ń à·Ļà¶±à·Ĭ
Ġà·ĥà¶Ńà·Ķ à¶§à·Ĵà¶±à·Ĭ
Ġà¶¸à·ļà¶ļ à·Ļà¶±à·Ĭ
Ġà¶ļà·Ĵ à·Ģà·Ķà·Ģà·ı
à¶´ à¶¯
à¶ļ à¶©
à¶¸à·Ĭà¶¶ à¶»
à·Ģ à·Ļà¶±à·Ĭ
Ġà¶ľ à·ıà·Ģà¶§
Ġà¶¸à·Ĵà¶±à·Ĵ à·ĥà·Ķà¶±à·Ĭ
à¶ħ à¶©à·Ķ
à¶ľà·Ĵ à·Ħà·Ĵà¶±à·Ĭ
ĠC an
Ġà¶Ĩ à¶Ńà·Ĭà¶¸
Ġà¶ľà·Ĳ à·Ħà·Ķ
Ġà·ĥà·Ĵ à¶»
Ġà¶±à·Ĵà¶Ńà¶» à¶¸
Ġà¶¯à·Ģà·ĥ à¶ļ
Ġà¶ļà·Ķ à¶¸
Ġà¶¸à¶Ńà¶ļ à¶¯
Ġà¶¸à¶Ńà¶ļ à¶ºà·Ĵ
Ġà·Ģ à·Ŀ
a in
à¶½à·Ĭ à·Ĩà·Ĭ
Ġà¶ļà¶½ à·ľà¶Ńà·Ĭ
Ġà·ĥà·Ĭ à·Ģà·ı
à·ĥà·Ĵà¶º à·Ļà¶±à·Ĭ
à·Ģà·Ļ à¶½à·ļà¶¸
Ġà¶ĭ à¶´à·ı
à¶łà·ıà¶»à·Ĭ à¶º
Ġà¶ļà¶» à¶±à·Ĭ
Ġà¶ĳà¶ļ à¶ļ
Ġ âĪĻ
à¶»à·Ĭà¶® à¶ļ
à·Ħ à·Ĵà¶º
Ġ' čĊ
à¶ļà·Ĭ à¶¸
Ġà¶ĳ à¶¯à·ı
à¶»à·Ĵ à¶ļ
Ġà¶º à¶±à·Ĭà¶Ńà·Ĭ
Ġà¶¯ à·ĸà¶´
à¶ļà·ļ à·ĥà·Ĭ
Ġà·ĥà·ļ à·Ģ
Ġà¶ļà·ıà¶»à·Ĭ à¶ºà·ı
Ġà¶±à·Ĵ à·Ģà·ĥ
Ġà¶ĳà¶ļ à·Ĵ
Ġà¶Ĭ à¶ºà·ļ
Ġà¶īà¶Ńà·Ĵ à¶»à·Ĵ
à¶±à·Ĭ à¶Ńà¶»
Ġà·Ģà·Ļà¶± à¶ļà·ľà¶§
à¶¯à·Ĭà¶ľ à¶½à·Ĵà¶ļ
Ġà¶ĳà¶ļ à·ı
à·Ģà·Ĵ à¶½à·Ĵ
à¶ļà¶º à¶±à·Ĭ
à¶¶à·ı à¶ºà·Ĵ
Ġà¶ħ à¶Ńà·ı
à·Ģ à·Ħ
Ġà¶ĳà¶± à¶ļà¶¸à·Ĭ
à¶Ń à¶ºà·Ĵ
Ġà·Ħà·ı à¶¯
à¶±à·Ĵà¶º à·Ĵ
à¶½ à¶¸
à¶¸à·Ļ à·Ħà·ļ
à¶ľà·ľ à¶½à·Ĭà¶½
Ġà¶Ń à¶»à·Ķà¶«
Ġà·ĥ à·Ħà·Ĵà¶Ń
Ġà¶»à·Ŀ à·Ħ
Ġà¶ľà·ľà¶© à¶±à·Ĳà¶ľà·Ĵ
Ġà¶¸à¶» à¶±à·Ģà·ı
Ġà¶Ńà·Ĵà¶¶à·Ķ à¶«
Ġà¶ĳà¶ļ à¶Ł
i r
Ġà·Ħà·ı à¶ºà·Ĵ
Ġà·Ģà¶ľà·ļ à¶¯
Ġà¶º à·ıà·Ģà·Ĵ
à¶Ķà·Ģà·Ķà¶±à·Ĭ à¶§
Ġ it
à¶Ĩ à·Ħà·Ĭ
à¶¯à·Ĳà¶±à·Ĭ à¶¸
à¶« à·Ĵà¶º
Ġà¶Ĵà¶ļ à¶ºà·Ĵ
à¶¯à·Ĵ à¶±à·Ģà·ı
Ġà¶ħà¶ºà·Ĵ à¶ºà·ı
Ġà¶ĭà¶¯à·ĳà·ĥ à¶±à¶ļà·Ĭ
à¶±à¶º à·Ļà¶±à·Ĭ
à¶» à¶½à·ı
Ġà¶ħà¶¯à·Ħ à·ĥ
Ġà¶Ńà·Ĳà¶± à¶ļà¶§
Ġà¶½ à¶¶
Ġà¶ĩà¶³à·Ķ à¶¸à·Ĭ
à¶± à¶½à·Ĭ
1 1
Ġà¶ļà·Ĭ à¶½à·ıà¶ļà·Ĭ
à¶½à·Ŀ à¶ļ
Ġà¶´à·Ħ à¶½à¶§
Ġn ame
Ġà¶´ à·Ħà·Ķ
C omment
Ġà¶Ķ à¶½à·Ķà·Ģ
à·Ģà·Ĳ à¶©
à¶ļà·Ĭà·Ĥ à¶«
Ġà¶¸à·Ħ à¶±à·Ĭ
Ġà¶ļà·Ļà¶±à·Ļà¶ļà·Ĭ à¶§
à¶¯à¶±à·Ĭà¶± à·Ģà¶¯
Ġà¶īà¶¯à·Ĵà¶»à·Ĵ à¶´à¶Ńà·Ĭ
Ġà¶Ńà¶» à·Ħ
à¶ħà¶±à·Ĵ à·Ģà·ıà¶»à·Ĭ
Ġà·ĥà·Ķà¶¯à·Ķ à·ĥà·Ķ
Ġà¶´à·Ģà·Ķ à¶½à·ļ
à¶Ńà·Ĭà¶Ń à·Ĵ
a g
Ġà¶Ńà·ĳ à¶ľà·Ĭ
Ġà¶ľ à¶±
à·ĥ à¶½à·Ĭ
à¶Ńà¶¸à·Ķ à·ĥà·ļ
à¶´ à·ĸ
Ġà·Ģà·Ļà¶½à·ıà·Ģ à¶ļ
Ġà¶¶à·Ĳ à¶½à·Ķà·Ģà·ı
Ġà¶ļà·ıà¶»à·Ĭ à¶º
Ġà¶·à¶ºà·ıà¶± à¶ļ
à¶¢ à¶±à·Ĭ
à¶ļà·Ķ à¶§
Ġà¶»à·ĳ à¶§
à¶ļà·Ĵ à¶±à·Ĭà¶±
Ġà¶Ķà¶º à¶ºà·Ĵ
à¶§à·Ĵà¶ļ à¶ļà·Ĭ
Ġà¶ħ à¶°à·Ĭ
Ġà·ĥà·ĳ à·Ħà·Ļà¶±à·Ĭà¶±
Ġà¶» à¶Ńà·Ķ
à¶ļà·Ķ à¶ºà·Ĵ
Ġà¶ħ à¶©à·Ĵ
Ġà¶¢ à·ľ
Ġà¶¸à·ı à¶ºà·ı
Ġà·Ģ à¶±à·Ļ
à¶¸à·Ĵ à¶ºà·ı
Ġà¶±à¶ľ à¶»à¶º
as t
Ġà·Ħà·Ĵ à¶»à·ļ
à¶±à·Ģ à¶Ńà·Ĭà¶Ń
Ġà·Ħà·ļà¶Ńà·Ķà·Ģ à¶ļà·Ĭ
Ġà·Ħà¶¯ à¶±
à¶±à·Ĵ à¶ļ
Ġà¶ĩà¶Ńà·Ĭà¶Ń à·ļ
âĢįà¶» à¶ºà·Ĵ
Ġà¶¸à·Ĵà¶±à·Ĵ à·Ħà·Ŀ
âĢįà¶»à¶¸ à¶ºà¶ļà·Ĭ
Ġà¶Ńà·Ħ à·Ģà·Ķà¶»à·Ķ
à·ĵ à¶±à·Ĭ
à¶±à·Ĭà¶¯ à·ļ
à¶Ķà·Ħà·Ĭ à·Ħà·Ĭ
à¶¢ à¶»à·Ĭ
Ġà¶Ń à·Ļ
Ġà¶ľà¶«à·Ķ à¶¯à·Ļà¶±
à·Ļà¶±à·Ĭ à¶§à·Ĭ
à¶ļ à¶Ńà·ı
Ġà¶ºà·ľ à¶¸à·Ķ
Ġà¶ľ à¶±à·ĵ
à¶ļà·Ĵà¶±à·Ĭ à¶¸
Ġà¶ĳ à·Ħà·ļ
à¶±à·ĵ à¶´
à¶ł à·ı
Ġà¶ļ à¶±à·Ĭ
Ġà¶ħà·Ħ à¶½à·ı
Ġà¶½ à¶Ĥ
âĢįà¶» à¶ļà·Ĭ
âĢį à·Ģà·ı
à¶¯à·Ļ à¶ºà¶ļà·Ĭ
Ġà¶± à¶¸à¶ļà·Ĭ
Ġà¶ľà¶Ńà·Ĭà¶Ń à·Ļ
Ġà¶ľà·Ĳ à·Ħà·Ĳ
Ġà¶¶à·ĳ à¶ľà·Ĭ
Ġà¶Ĩà¶»à¶ļà·Ĭà·Ĥ à·ıà·Ģ
ĠCan ada
Ġà¶±à·Ĵà¶¯ à·Ħ
Ġà¶ľà¶±à·Ĭà¶± à·Ļ
Ġà¶´à·Ĳ à¶Ńà·Ķà¶¸à·Ĭ
Ġà¶ļà·Ĵà·Ģ à·Ķà·Ģà·ļ
à¶Ńà·Ķà¶¸à·ı à¶«
à¶½ à·ľà¶ļà·Ĭ
Ġà·ĥà¶¸à·Ĭà¶´à·ĸà¶»à·Ĭà¶« à¶ºà·Ļà¶±à·Ĭà¶¸
à¶½à·Ŀ à¶ļà¶º
Ġà·Ģà·Ļà¶± à·Ķà·Ģà¶§
Ġà·ĥà·Ĭ à¶Ńà·ĸ
Ġà¶© à·Ĭ
Ġà¶ļà·Ģà¶¯ à·ı
Ġà·Ģà·ģ à¶ºà·Ļà¶±à·Ĭ
à¶»à·Ĭ à¶§à·Ĭ
Ġà¶ļ à¶¸à·Ĭ
Ġà¶¯à·Ķ à¶ļà·Ĭ
à¶¯à·Ĭà¶¯ à¶ļà·Ĭ
à·ļ à¶±à·Ĭ
Ġà¶Ń à¶§à·Ĭà¶§
Ġà¶¶à·Ĳ à¶½à·Ķà·Ģ
Ġà·ĥà¶¸à·ı à¶ľ
Ġà·ħà¶¸ à¶ºà·Ļà¶ļà·Ĭ
Ġà¶´ à·ŀ
Ġà¶¯à¶±à·Ĭà¶±à·Ģ à¶±à·Ļ
Ġà¶ļà·Ĳ à¶´à·Ĭà¶§à¶±à·Ĭ
o s
Ġà·Ģà·Ļ à·ħ
Ġà·Ģà·Ĵ à¶¯à·Ķ
à¶±à·Ĳ à·Ģà¶Ń
Ġà·ĥà·Ĭà¶®à·ı à¶±à¶º
Ġà¶Ńà·ıà¶Ńà·Ĭà¶Ń à¶§
Ġà¶ħà·Ħ à¶±à·Ĭà¶±à·ļ
à¶ľ à¶±à·Ĵ
Ġà¶¯à·Ļà¶± à·Ģà¶¯
à¶´à·ı à¶½
à¶ļà·ıà¶» à¶ºà·Ŀ
Ġà¶ī à¶´
à·Ģà·Ļà¶±à·Ĭà¶± à·Ļ
Ġ me
Ġà·Ģà·Ĳà¶»à·Ĳà¶¯à·Ĭà¶¯ à¶ļà·Ĭ
à¶´ à·ĥ
Ġà¶¸à¶» à¶«à¶º
Ġà¶ĳà¶ļà·Ĵ à¶±à·Ļ
i d
Ġà¶¸à·Ĵ à·ĥà·Ĭà¶§à¶»à·Ĭ
Ġà¶¸à·Ļ à·Ħà·Ĵ
Ġà¶ħà·Ģà·ĥà·ı à¶±
Ġà·Ħà¶¸à·Ķà·Ģ à·Ļà¶±à·Ĭà¶±
à¶»à·Ķ à¶¸à·Ĭ
à¶¯à·Ĵ à¶¸
à¶ľà·Ļ à¶¸
Ġà¶ħà¶º à·Ģ
à·ĥà·Ĭ à¶¸à¶ļà·Ĭ
Ġà¶ħà¶· à·Ĵ
Ġà¶±à·Ĵà¶½ à¶°à·ıà¶»
Ġ is
Ġà¶ļà¶»à¶±à·Ĭà¶± à¶ºà·Ĵ
Ġà¶ľà¶±à·Ķ à¶¯à·Ļà¶±
Ġà¶½à·Ĳà¶¶ à·Ļà¶±
à¶¶à·Ĭ à¶¯
Ġà¶ľà·ľ à¶±à·Ķà·Ģ
Ġà¶¸à·Ĳ à¶»à·Ķà·Ģ
Ġà¶ħà¶Ńà·Ķà¶»à·Ķà¶¯ à·Ħà¶±à·Ĭ
à¶½à¶º à¶±à·Ĭ
Ġà¶¸à·Ļ à¶Ńà·Ĳà¶±
à¶¯à·Ĳ à¶ļà·Ĭà¶ļ
à¶¯ à·ľ
Ġà¶ĳà¶ļ à¶Ńà·Ķà·Ģ
Ġà¶ĩà·Ħà·Ļà¶± à·Ģà¶¯
à¶¯ à·ľà¶»
Ġà¶ĳà¶º à¶Ńà·Ĭ
Ġà¶¸ à·Ĭ
Ġà¶ĳ à¶±à·Ģà¶¯
Ġà¶¯à·Ĳà¶± à¶ľà¶Ńà·Ĭà¶Ń
Ġà¶´à·ľ à¶Ń
Ġà·Ģà·Ĵà·Ħà·Ĵ à·ħà·Ķ
Ġà¶Ńà¶¸à¶±à·Ĭ à¶ľà·ļ
Ġà¶ľà¶« à¶±à·Ĭ
à·ĥ à·ĸ
- à¶Ķà¶ºà·ı
Ġà¶ħ à¶Ł
Ġà¶¸à·Ĳà¶»à·Ķ à¶«à·ı
à¶½ à¶Ńà·Ĭ
à¶¯ à·ĵà¶¸
à¶ľ à¶½à·Ĭ
Ġà·ħ à¶¸à¶º
à¶» à·ĸ
à¶ħ à¶Ńà·Ĭ
à¶Ń à¶½
Ġà·ĥ à¶Ńà·Ĭ
à¶ĳ à¶ļà·Ĭà¶ļ
Ġà·ĥà·Ħ à¶Ńà·Ĵà¶ļ
Ġà¶±à·Ĵ à·Ģà·Ĭ
à·Ģà·ıà·ĥ à¶±à·ıà·Ģ
à·Ĥ à¶«à¶º
Ġà¶ľà·ŀ à¶»à·Ģ
Ġà¶Ķà¶¶ à¶ľà·ļ
Ġà¶ľ à¶¶
à¶» à¶±à·Ĭà¶±
Ġà¶´à·Ļ à·ħ
Ġà·Ģà·Ĵ à¶ļà·Ķà¶«
à·Ĥ à·ı
à¶Ĩ à¶¯à¶»
Ġà¶º à¶Ńà·Ķà¶»
à¶¯à·ı à¶ºà¶ļ
Ġà¶´à·Ļ à¶¸à·Ĭà·Ģ
Ġà·Ģà·Ļà¶± à¶Ńà·Ĭ
Ġà·Ģà¶º à·ĥ
Ġà¶¯à·ı à¶ľà¶±à·Ĭà¶±
à¶ļ à·Ļà¶±à·Ļà¶ļà·Ĭ
à¶½ à·ľà¶ļà·Ķ
à¶´à·Ķ à¶»à·Ĭà¶«
à·Ģà·ı à¶»
à¶´ à¶±à·ı
Ġà¶ĭ à¶Ńà·Ĭà¶Ń
Ġà¶¸à·Ķ à¶½à·Ķ
o d
Ġà¶ļà·Ĵà·Ģ à·Ķà·Ģ
à¶ ¡
Ġà·ĥà·Ĳà¶½à·Ĳ à·ĥà·Ĭà¶¸
à·Ģ à¶¯à·Ĭà¶¯
, à¶Ķà¶ºà·ı
Ġà¶´à·ħ à¶¸à·Ķ
Ġà¶¯à·Ķà¶»à·Ĭ à·Ģà¶½
Ġà¶Ĩ à¶º
Ġà¶ºà·ı à¶±à¶º
Ġà¶¸à·Ĳ à¶©à¶¸à·Ĭ
Ġà¶Ī à¶Ńà·Ĭ
à¶½à·Ļà¶ļà·Ĭ à·ĥà·Ĭ
Ġà¶ħ à¶§
e m
Ġà¶¸à·Ĳ à¶¯
à·Ļà¶ļà·Ĭ à¶§
Ġà¶½à·Ŀ à¶ļà·ļ
Ġà¶ħà·Ģ à¶°à·ıà¶±à¶º
Ġà¶»à·Ĵ à¶¯
Ġà·Ģà·Ļà¶± à·Ĵ
Ġà¶ļà·ľà¶½à·Ĭà¶½ à¶±à·ļ
Ġà¶Ĩ à¶©
Ġà¶Ĩà¶» à¶Ĥà¶ł
Ġà·ĥà¶±à·Ĭ à·ĥà·Ķà¶±à·Ĭ
Ġà¶´à·Ĵà¶»à·Ĵ à·ĥà·Ĵà¶¯à·Ķ
Ġà¶¯à·ı à¶ľà·Ļà¶±
Ġà¶Ķà¶ºà·ıà¶½ à·Ģ
à¶ļà·ľ à·Ħà·ļ
Ġà¶¸à·Ļ à¶º
Ġà¶´ à·ľà¶»
à¶±à·Ķ à¶¹
à¶Ķà¶º à¶ºà·Ĵ
Ġà¶ħ à¶±à·Ĭà¶±
à¶ľ à¶±à·ĵ
u m
à¶ľà¶± à·Ĵà¶±à·Ĭ
âĢįà¶» à¶ºà·Ŀ
à¶¯ à¶¸à·Ĭ
Ġà¶ĳ à¶¸
Ġà¶ľ à·Ļà¶±à·Ĭà¶±
Ġà¶ĭà¶¶ à¶§
Ġà¶ļà·ľ à·Ħà·ľ
Ġà¶´à·Ħ à¶½
à¶¸à·ĵ à¶§
Ġà¶¯à·Ĳà¶± à¶±à·Ĭ
Ġà¶´ à·Ģà¶Ńà·Ĵ
à¶Ńà·ı à¶Ńà·Ĭà¶Ń
Ġà¶¯à·Ķ à¶ļ
à¶¸à·Ŀ à¶©
Ġà¶¸à·Ĵ à¶Ńà·Ĭ
à¶ľà·ľ à¶½à·Ĭà¶½à·Ŀ
âĢįà¶» à·Ĳ
à·Ģà·Ĵà·ģà·Ĭ à·Ģà·ıà·ĥ
Ġà¶¶ à·Ĵà¶º
Ġà¶¢ à¶»à·ı
Ġà¶Ńà¶¸à·Ķ à¶±à·Ĭ
Ġà·Ħà·Ĵà¶Ń à·ļ
Ġà¶¯à·Ķà·Ģ à¶±à·Ĭà¶±
e w
Ġà·Ħà·Ĳà¶¸ à·Ģà·Ļà¶½à·ļà¶¸
Ġà¶ħ à·Ģà¶¯
à¶´à·ıà¶» à¶ļà·Ĭ
Ġà¶¸à·Ħà¶Ńà·Ĭà¶¸ à·Ĵà¶º
Ġà¶Ńà·Ĵà¶¶à·Ķ à¶±à·Ļ
Ġà¶ļà·Ĵà¶ºà¶±à·Ĭà¶± à¶¯
à¶» à¶ļà·Ĭ
Ġà¶»à·ĥà·Ĭà·ĥ à·ıà·Ģ
Ġà¶ĳ à·Ģà¶±à·Ĭà¶±
Ġà·Ģà·Ĳà¶§à·Ĵ à¶½à·ı
Ġà¶¶à·ľ à·Ħà·Ŀ
Ġà·Ħà·Ĵà¶Ń à¶½à·ı
Ġà¶ħ à¶Ńà·Ĵ
Ġà¶© à·ľà¶ļà·Ĭà¶§à¶»à·Ĭ
à¶½ à¶§à·Ĭ
Ġà¶¯ à¶Ńà·Ĭà¶Ń
Ġà¶´à¶½ à·Ģà·Ļà¶±à·Ĵ
à¶Ńà·Ķ à¶Ńà·Ĵ
Ġà¶±à·Ĵ à·ģà·Ĭ
à¶¸ à¶±à·ı
Ġà¶¸à·Ĳà¶» à·Ļà¶±à·Ģà·ı
à¶Ńà·ıà·Ģ à¶º
4 0
Ġà¶ħ à¶»à·Ĵ
en t
Ġà¶ĭ à¶±à·Ĭà·Ģ
Ġà¶¯à·Ļ à¶º
Ġà¶¶à¶½à¶±à·Ĭà¶± à¶¸à·Ĭ
Ġà¶´à·Ķà¶¯à·Ĭà¶ľ à¶½
à¶» à¶½à·Ĭ
Ġà·Ģ à·ĺ
Ġà¶½à·ľ à¶ļà·Ĭà¶ļà·ı
Ġà·ĥà·Ķ à¶¶
- čĊ
à¶»à·Ĵ à¶ļà·Ĭ
Ġà¶¸ à¶½à·Ĭ
âĢį à¶ľà·ļ
Ġà¶Ńà¶¸à·Ķ à·ĥà·ļ
Ġà¶¢ à·Ŀà¶±à·Ĭ
Ġà¶´à·Ķà·Ħà·Ķ à¶«à·Ķ
à¶Ńà¶¸à·Ķ à¶±à·Ĭ
à¶ħà¶´à·Ĵ à·Ģ
Ġà¶ĭ à¶«à·Ķ
ct ion
Ġà¶ļà¶» à·Ģà¶±à·Ĭà¶±
à·Ģà·Ķ à¶½à·Ĭ
Ġà¶´ à¶½à·Ĭà¶½
Ġà¶Ĩ à¶´à·ĥà·Ķ
Ġà¶ļà·ıà¶±à·Ĭ à¶Ńà·ıà·Ģ
Ġà¶ļ à¶½à·Ĵ
Ġà¶Ńà·ļà¶»à·Ķ à¶«à·ı
Ġà·Ģà·ıà·Ħ à¶±à·ļ
à¶ºà¶ļà·Ĭ à¶¯
Ġà¶º à·Ŀ
Ġà¶½à·Ĳà¶¶ à·Ļà¶±à·Ģà·ı
Ġà·Ħ à¶º
Ġà¶Ķà¶ļà·Ĭà¶ļ à¶¸
Ġà·ĥ à·Ħà·ı
à·ĥà·Ĭ à¶Ńà·Ĵà¶ºà·Ĵ
à¶Ķ à·Ħà·Ķà·Ģ
Ġà¶¸à·Ĳ à¶»à·Ĵ
Ġà¶±à·Ĵà·ĥà·ı à¶¯
Ġà¶ĩà¶Ńà·Ķ à·ħ
à¶ĩ à¶¸
Ġà¶½ à¶ļà·Ĭ
Ġà¶¯à·Ļà·Ģà·Ĵà¶º à¶±à·Ĭ
Ġà·ģà¶ļà·Ĭ à¶Ńà·Ĵà¶º
Ġà·Ģà·Ĵ à¶¸
Ġà·Ħà·ľà¶¯ à¶§à¶¸
Ġà¶Ķ à¶»
Ġà¶´à·ļ à¶±à·Ĭà¶±
B I
Ġà¶ħà¶¸à·Ĭ à¶¸à¶§
Ġà¶Ńà·Ķà·Ģ à¶ļà·Ĭà¶ļà·Ķ
à¶« à¶ļà·Ĭ
à¶¯ à¶»à·Ĭà·ģ
Ġà¶ĳà¶łà·Ĭà¶łà¶» à¶ºà·Ĵ
Ġà·Ģà¶§ à·ļ
Ġà¶¯ à¶ļà·Ķà¶«à·Ķ
o c
Ġà¶ľà·Ĳà¶± à·ĵà¶¸
à¶© à·Ļ
Ġà·Ģà·Ļà¶ºà·Ĵ à¶¯
Ġà·Ģà·Ĵà·Ħà·Ĵ à·ħà·Ķà·Ģà¶ļà·Ĭ
à·ľ à¶¸à·Ĭ
Ġà·ĥà·Ķ à¶´à·Ĵà¶»à·Ĵ
à·Ģà·ĵ à¶¸à¶§
Ġà¶ļà·Ĵà·Ħà·Ĵ à¶´à¶ºà¶ļà·Ĭ
Ġà¶ħà¶±à·Ĭà¶Ńà·Ĵ à¶¸à¶§
Ġà¶ĳ à·Ħà·Ĵ
Ġà¶±à·Ĵà¶º à·Ŀ
Ġà¶¸à·ľà¶±à·ı à·Ħà¶»à·Ĵ
à¶Ńà·Ĭà¶Ń à·Ĵà¶º
Ġà¶ħà¶±à·Ĵ à¶ļà·Ĭ
Ġà¶± à·Ĭ
p p
is t
a k
à·Ģ à·Ĳà¶±à·Ĵ
à¶¸à·ļ à·Ģà·ı
à¶¸à·ľ à¶±à·Ģ
à¶Ń à¶Ńà·Ĭ
- à¶Ķà·Ģà·Ĭ
Ġà¶ī à·ĥà·Ĭà¶ļà·Ŀ
à¶ħ à¶½à·Ĭà¶½
Ġà¶´à·Ħ à¶ļà·Ĭ
i f
Ġà¶¸à¶ł à¶Ĥ
à¶±à·Ķ à¶ºà·Ĵ
Ġà¶´à·Ĳà¶¸à·Ĵ à¶«à·Ĵ
Ġà·Ħà¶¯à·Ĵ à·ĥà·Ĵ
Ġà¶´à·Ĵ à¶§à·Ķ
Ġà·Ģà·Ĵà·ĥà·Ĭ à·Ģà·ıà·ĥ
Ġà¶¶à·Ļà·Ħà·Ļ à¶Ńà·Ĭ
Ġà¶ħ à¶±à·Ĭà¶Ń
Ġà¶¸à·Ĵà¶±à·Ĵ à¶Ńà·Ĭà¶Ńà·Ķ
Ġà¶ļà·Ĵà¶ºà¶½ à¶ºà·Ĵ
à¶« à·ıà·Ģ
Ġà¶ļà·Ĵà·Ħà·Ĵ à¶´
Ġà¶½ à¶¸à¶ºà·Ĵ
Ġà¶Ķà¶ºà·ıà¶½ à¶ľà·Ļ
Ġc on
à¶¸à·ı à¶»à·Ĭ
Ġà¶½à·Ķ à·Ħà·Ķ
âĢįà¶ºà·ı à·Ģ
à·Ģà·Ķ à¶«à·ı
Ġà¶ľà·Ĵ à·Ģà·Ĵ
Ġà¶´ à¶±à·Ĭ
Ġà¶Ĩ à·Ħà·ıà¶»
Ġà¶ĳà¶ļà·Ĭà¶ļ à¶±à·Ĭ
Ġà¶ Ľ
Ġà·Ģ à·ıà¶»
à¶¸à·Ļ à¶§
à¶Ĵ à·Ģ
Ġà¶ľ à¶½à·Ĭ
Ġà¶ļà·ıà¶» à¶ºà·Ļà¶ļà·Ĭ
Ġà¶ĭà¶´ à¶»à·Ĵ
Ġà·Ħà·Ŀ à¶§
à·ı à¶±à·Ĭ
Ġà¶Ŀ à·ı
à¶»à·ı à¶ľà¶±à·Ĭà¶±
Ġà·ĥà¶½ à¶ļà·Ķà¶«à·Ķ
à·ĥ à¶¸à·Ĭà¶´
à¶¢à·Ĭ à¶¢
Ġà¶¶à¶½ à¶±à·Ĭà¶±à·ļ
à¶ľ à¶½
à¶® à·Ĵ
Ġà¶ħ à¶Ńà·Ĵà¶±à·Ĭ
à·ĥ à¶¸à·Ĭ
Ġà¶» à¶®
Ġà·Ģà·Ĳà¶© à¶ļà¶§
Ġà¶¸à·ļà¶ļ à·ļ
Ġà¶ ¡
i g
Ġà·Ħà¶¸à·Ķà¶¯ à·ıà·Ģ
l l
à·Ģà·ı à·Ģà·Ĭ
à·Ħà·Ĳ à¶ļà·Ĵ
à¶Ńà·Ĭà¶Ń à·Ķà·Ģà¶ļà·Ĭ
Ġà¶ļà¶»à¶±à·Ĭà¶± à¶Ńà·Ĭ
Ġà¶§ à¶ºà·Ĵ
Ġà¶ľ à¶±à·Ĵ
Ġà¶ĩà·Ħà·Ķ à¶¸à·Ĭ
Ġà¶ľ à·Ĳà¶±à·Ĭ
Ġà¶½à·ļ à·ĥà·Ĵ
à¶ļ à·ĵà¶¸
il l
à¶±à·Ĭ à¶¯à¶»
Ġà·Ģà·Ļà¶± à·ĥà¶ļà·Ĭ
à¶§à·Ĭ à·ĥà·Ĭ
à¶¸à·ļ à¶±à·Ĭ
Ġà¶ºà·ľ à¶¯à·ı
Ġà¶¶ à¶¶à·ı
Ġà¶ĳà¶ļà·Ĭà¶ļ à¶ľà·Ļà¶±
Ġà¶ĳ à·Ħà·ıà¶§
ĠM r
Ġà·Ģà·Ĵ à¶ļà¶½à·Ĭ
Ġà¶ħà¶±à¶Ńà·Ķà¶» à¶ļà·Ĭ
Ġà¶¸ à·Ļà¶±
Ġà¶ľ à¶¸à·Ķ
à¶±à·Ķ à¶Ńà·Ĭ
Ġà·ĥ à¶Ĥà¶ľ
à¶´ à¶½à·Ĭ
à·Ħà·Ĳ à¶¶à·Ĳà¶ºà·Ĵ
âĢ Ķ
Ġà¶ħ à¶ļà·Ĭ
Ġà¶ħ à¶¯à·ı
Ġà¶¸à·ıà¶»à·Ĭ à¶ľà¶º
Ġà¶ļà¶½à·ı à¶¯
Ġà¶Ńà·Ĵà¶¶à·Ĭà¶¶ à·Ļ
Ġà·ĥ à¶ļà·Ĭ
Ġà·ĥ à¶Ńà·Ĵà¶º
à¶´à·Ĭ à¶§
Ġà¶ħà¶©à·Ķ à¶¸
Ġà·ĥà·ĳ à¶¸à·Ĭ
à·Ħà·Ĳà¶¸à¶¯ à·ļà¶¸
Ġà¶¸à·Ĵà¶±à·Ĵà·Ħ à·Ģ
{ \
Ġà¶ĭ à¶±à·Ĭà¶§
Ġà¶¶à·Ĳ à¶½
Ġà·ĥ à·Ĳà¶±à·Ĭ
à¶Ń à·Ĵà¶ºà¶§
Ġà¶· à·ıà¶»
à¶« à·Ķà·Ģ
Ġà¶¯ à¶©à¶º
Ġà·Ħà·Ĳ à¶¶à·Ĳà¶ºà·Ĵ
Ġà¶ĩà¶º à¶ľà·ļ
Ġà¶ļà·Ĵà·Ģà·Ĭ à·Ģà¶¯
Ġà¶ļà·Ĵà¶º à¶±à·Ģà¶¯
Ġà¶¶à·Ĳ à¶³
à·ħ à·Ķà·Ģà¶±à·Ĭ
à¶Ľ à·Ĭ
Ġà¶±à·Ĳ à·Ħà·Ĳà¶±
Ġà¶ħà·Ģ à¶Ĥà¶ļ
Ġà¶¯à·Ĳà¶± à·Ļà¶±à·Ĭà¶±à·ļ
à·Ģà·ĵ à¶¸à·Ĭ
Ġà¶ľà·Ĳà¶½ à¶´
Ġà¶ĭà¶´ à¶ļà¶»à¶«
Ġà¶¸ à¶¯à·Ĵ
Ġà·Ģà·ıà·ĥà¶±à·ıà·Ģ à¶±à·Ĭà¶Ń
à¶ķ à¶±
à¶ºà·Ĵ à¶½à·Ĭ
es s
à¶Ń à¶½à·Ĭ
Ġà¶±à·Ŀ à¶±à·ı
Ġà¶´à·ı à¶©
Ġà·Ģà·ļ à·Ģà·ı
Ġà¶ľà·Ļà¶± à·ı
à·Ħà·Ĭ à¶¸à·Ĭà¶¸à·Ĭ
Ġà¶¶ à·ĸ
Ġà·Ħà·Ĵà¶Ń à¶±à·Ĭ
Ġà·Ħà·Ĵà¶Ń à·Ļà¶±à·Ģà·ı
Ġà¶´à·ħ à·Ģà·Ļà¶±à·Ĵ
Ġà¶´à·Ĵà¶º à·Ģà¶»
à¶ļà·Ģà·Ķ à¶»à·Ķà·Ģà¶Ńà·Ĭ
Ġà¶´à·Ķ à¶¯à·Ķ
Ġà·ħà¶¸ à¶ºà·ı
Ġà¶ļà¶«à·Ĭà¶©à·ıà¶º à¶¸à¶ļà·Ĭ
Ġà¶ļ à¶¸
Ġà¶±à·Ĵ à·Ģà·Ĳà¶»à¶¯à·Ĵ
à¶§à·Ĵà¶º à¶ļà·Ĭ
Ġ "čĊ
Ġà¶Ķ à¶Ńà·Ĭà¶Ńà·Ķ
Ġà·Ģ à·ĥ
Ġà¶¯à¶ļà·Ĵ à¶±
à·ĥ à·Ĵà¶ºà·ļ
à¶§à·Ĭ à·ĥà¶±à·Ĭ
Ġ on
Ġà¶ĩà·Ģà·Ĵ à¶¯
Ġà¶ħà¶Ńà·Ĭ à¶ħà¶©
Ġà¶¯à·ļ à¶¸
Ġà¶ħà·Ģà·Ķ à¶½
à¶¯à·Ļ à¶ºà·Ĵà¶ºà¶±à·ļ
à¶´à·ı à¶¯
Ġà¶±à·Ĳ à·Ģà·Ĳ
à¶» à·ĸà¶´
à¶´à¶»à·Ĵ à·ĥà·Ĭà·ĥ
Ġà¶¯à·Ļà¶ļ à¶ļà¶§
à¶ĩà¶Ńà·Ĭà¶Ń à·Ļà¶±à·Ĭà¶¸
Ġà¶ļà·Ĵà¶»à·ĵ à¶¸à·ļ
à¶ļà¶º à·Ŀ
Ġà¶ľà·Ĵà¶ºà·ı à¶¸
à·Ļ à·Ħà·ı
er s
Ġà·ĥà·Ĭà¶Ńà·ĸ à¶Ńà·Ĵ
à¶¯ à¶ºà·Ĵ
Ġà·Ħ à¶ºà·Ĵ
Ġà¶ļà·Ļ à¶½
à¶ļà¶» à¶ľà¶±à·Ĭà¶±
à·ĵ à¶Ńà¶º
Ġà¶·à·ıà·Ģà·Ĵ à¶Ńà·ı
Ġà¶¶à¶º à¶ºà·Ĵ
Ġà·ĥà·ĳ à·Ħà·Ļà¶±
Ġà¶¯à·Ĳà¶¸à·Ĭ à¶¸
Ġà¶´à·Ļ à¶§à·Ĭà¶§à·Ĵà¶º
à¶«à·Ĭ à¶©à·Ķ
Ġà·Ħà¶¸à·Ĭà¶¶ à·Ģà·Ļà¶±à·Ĭà¶±
Ġà¶½à¶¶à·ı à¶ľà¶±à·Ĭà¶±
- à¶¸à¶§
Ġà¶¶à¶½ à¶½à·ı
à·ĥà·Ĳà¶ļ à·Ģà¶¸
1 3
Ġà¶ļ à·ĥà·ı
c h
Ġà¶Ķ à¶½
s l
Ġà¶¯à·ļ à¶§
Ġà¶ļ à·ħà·Ķ
à¶©à·Ĵ à¶ºà·ı
Ġà¶´ à·Ģà·ı
à¶¸à¶ºà·Ĵ à¶ļà¶½à·Ĭ
à¶© à¶±à·Ĭ
à¶Ń à¶ºà¶ļà·Ĭ
à¶ºà·ļ à¶¯à·ĵ
à¶§ à·ĵ
Ġà·Ħà¶¯ à¶´à·Ķ
Ġà¶ļà·Ļ à¶½à·Ĵà¶±à·Ĭà¶¸
Ġà·ĥà·Ĵà¶§à·Ĵ à¶±
Ġà¶Ńà·Ķ à·ħ
Ġà¶īà¶ļà·Ĭ à¶¸à¶«
Ġà¶īà·ĥà·Ĭà·ĥà¶» à·Ħ
in d
Ġà¶´à¶»à·ĵà¶ļà·Ĭà·Ĥ à¶«
à¶¶à·ľ à·Ħà·ľà¶¸
Ġà¶´à·Ĳ à¶»
Ġà¶½à¶Ł à¶§
Ġà·ĥà·Ĵà¶§à·Ĵ à¶±à·Ģà·ı
q u
à¶Ĩ à¶ºà·Ļ
Ġà¶º à¶ļà·Ŀ
Ġà¶´à·Ĵ à¶´à·Ĵ
Ġà¶Ĩà¶© à¶¸à·Ĭà¶¶à¶»
à¶¸ à¶ľà·Ķ
Ġà·ĥà·Ķ à·ħà·Ķ
à·ĥà·ı à¶¸à·ıà¶±à·Ĭ
ar t
à¶½ à·ĥà·Ĭ
à·ĸà¶´ à¶»à·Ĭ
Ġà·Ħà¶¸à·Ĭà¶¶ à·Ķ
Ġà¶ĩà¶Ńà·Ĭà¶Ń à¶§
Ġà¶ļà·ı à¶§à¶¯
Ġà¶´à·Ķ à¶Ńà·ļ
à·Ħà·Ĭ à¶¸à·Ĭ
à·Ĵà¶º à¶§à¶¸
Ġà·ĥà¶¸à·Ĭà¶¶ à¶±à·Ĭà¶¯
Ġà·Ģà·Ĵà·ģ à·Ĵ
Ġà¶´à·Ķà¶½ à·Ķà·Ģ
Ġà·Ģà·Ĳà¶©à·Ĵ à¶´à·Ķà¶»
Ġà¶¶à¶½ à¶±
Ġà¶ĳ à¶±à·Ĭ
n d
Ġà¶Ĩà·Ģ à·ľà¶Ńà·Ĭ
à¶ļà¶» à¶½
à·ĥ à·ļà¶»à¶¸
à·ĥ à¶½à·Ĭà¶½à·Ĵ
Ġà¶´ à¶§à·Ĵ
à¶¯à·Ĵà¶ľ à¶§à¶¸
à¶´ à·Ļà¶±à·Ĭ
Ġà·Ģ à¶Ńà·ıà·Ģà¶ļà·Ĭ
Ġà¶Ńà·ļà¶» à·Ļà¶±à·Ĭà¶±à·Ļ
Ġà¶±à·Ĳ à¶Ńà·Ĭ
Ġà·ĥà·ĳ à¶¸
Ġà¶ľà·Ĳà·Ħà·Ķ à·Ģà·ı
Ġà¶ł à·ĵ
Ġà¶ĩ à¶§
Ġà¶ĳà¶ļ à¶ļà¶§
Ġà¶ĳà¶ļà·Ĭà¶ļ à·Ļà¶±à·Ļà¶ļà·Ĭ
Ġà¶½ à·ľà¶ļ
d it
Ġà·Ģà·Ĵà·ģà·Ĭà·Ģà·ıà·ĥ à¶º
à·Ģà·Ļ à¶©à·Ĵ
à¶¶à·Ŀ à·Ģà¶±à·Ĭ
Ġà¶º à¶Ńà·Ķà¶»à·Ķ
.. ..
Ġà¶ µ
Ġà¶¶à·Ĵ à¶³
à¶ĳ à¶ļà·Ĭ
e x
Ġà¶ħ à·ĥà·Ĭ
Ġà¶±à·Ĵ à·Ģà·ı
Ġà¶¯ à·ĸ
Ġà¶´à·Ĵà·ħà·Ĵ à¶¶à¶³
Ġà·Ħà·Ĵà¶Ń à¶±à·Ģ
à¶» à¶ºà·Ĵ
Ġà¶Ĭ à¶½à¶ľ
Ġà¶´à·ļ à¶±à·Ģà¶¯
Ġà¶ħà¶½à·Ĭà¶½ à¶ľà·Ļà¶±
à¶ľ à¶§
à·Ħ à¶ºà·Ĵ
Ġà·Ħà·ľà¶º à¶±à·Ģà·ı
Ġà¶ħà·Ģ à·ĥà·Ĭ
à·ĥà·Ĵà¶º à·Ĵ
à¶Ĩà¶» à¶ļà·Ĭà·Ĥ
Ġà¶±à·Ĳà¶Ńà·Ĵ à¶±à¶¸à·Ĭ
Ġà·ĥà·Ĭ à¶Ńà·Ķà¶Ńà·Ĵ
Ġà¶ł à·Ŀ
Ġà¶¸à·Ļà·Ħà·Ļà¶ºà·Ķ à¶¸
Ġà¶ļ à¶³à·Ķ
à·ĥà¶±à·Ĭ à·ĥà·Ķà¶±à·Ĭ
à¶Ńà·Ķà·Ģ à·ļ
Ġà¶ļà·ıà¶½à·Ļ à¶ļà¶§
Ġà·Ģ à·Ĵà¶±à·Ĭ
Ġà¶ĳ à¶½à·Ĵà¶º
Ġà¶ľ à·Ļà¶±à·Ĭ
à¶¶à¶½à·ı à¶ľà·Ļà¶±
Ġà¶¢ à·ĸ
Ġà·Ģà·Ĵà¶¯ à·Ĵà¶ºà¶ļà·Ĭ
Ġà¶ħà·Ħ à¶±à·Ģà·ı
Ġà·Ģ à·ĥà¶»
à·Ģà¶º à¶Ĥ
Ġà¶± à·Ĵà¶±à·Ĭà¶¯
à¶¢à·ĵ à·Ģà·Ĵ
à¶ľ à¶±à·ļ
Ġà¶´à·Ĳ à¶Ńà·Ĵ
Ġà¶ħà¶Ĥ à¶ļà¶º
- à¶Ĵà¶ļ
Ġà¶ĩà¶¯ à¶½à·ı
Ġà¶ľà·Ħ à¶±à·Ģà·ı
à¶Ń à·ľ
Ġà¶ħà¶ºà·Ĵ à·ĥà·Ĭ
Ġà¶īà·ĥà·Ĭà·ĥà¶» à·Ħà¶§
Ġà¶¸à¶ºà·Ĵ à¶ļà·Ĭ
à¶´à·ı à¶§
Ġà¶º à·Ħ
à¶ļà·Ģà·Ķà¶»à·Ķ à¶Ńà·Ĭ
à¶ļ à·ĥà·Ĭ
Ġà¶ĩà¶Ńà·Ĭà¶Ń à¶¸
e e
Ġà¶´à·Ĵà¶½à·Ĵ à¶ľà¶±à·Ĭà¶±à·Ģà·ı
Ġà¶ĭà·ĥ à·ĥà·Ĭ
à¶ł à·Ŀ
à·ħ à·ı
à¶Ńà·Ķà¶¸ à¶±à·Ĵ
à¶±à·Ĵà¶º à¶ļà·Ĭ
Ġà¶ļà·Ĵà·Ģà·Ĭà·Ģ à¶±à·ļ
Ġà¶´à¶« à¶´à·Ĵà¶§à·Ĵà¶±à·Ĭ
Ġà¶´à·Ĵà·ħà·Ĵ à¶ľà¶±à·Ĭà¶±à·Ģà·ı
Ġà¶´à¶¯à·Ĭà¶° à¶Ńà·Ĵà¶º
Ġà¶° à·ıà·Ģ
Ġà¶¸à·Ħ à¶Ńà·Ĭà·Ģ
Ġà¶ļ à¶¸à·Ĭà¶´
Ġà¶Ķ à¶±à·Ĭà¶±
Ġà¶¸à¶±à·Ķà·ĥà·Ĭà·ĥ à¶ºà·Ļà¶ļà·Ĭ
à¶ī à¶±à·Ĭ
Ġà·ĥà·ı à¶¯à¶»à¶ºà·Ļà¶±à·Ĭ
Ġà¶ĭà¶© à·Ĵà¶±à·Ĭ
à·Ĩ à·ĵ
à¶´ à·Ķà·Ģ
Ġà¶ľà¶Ńà·Ĭà¶Ń à·ľà¶Ńà·Ĭ
Ġà¶ļà¶§ à¶ºà·Ķà¶Ńà·Ķ
Ġà·Ģà¶» à·Ļà¶±à·Ĭ
Ġà¶ĭ à¶«à·Ĭà¶©
Ġà¶´à·Ĭ à¶½
Ġà¶ļà·ľà¶½à·Ĭà¶½ à·Ļà¶ļà·Ĭ
à¶»à·Ĭ à¶º
à¶ľ à¶»
h a
à·Ģ à¶±à·Ĭà¶Ń
Ġà¶ĩ à¶Łà·Ĵ
Ġà¶ľà·Ĳà¶± à·ĵà¶¸à¶§
à¶½à·Ĵà¶º à·Ĵ
Ġà¶¯ à¶±à·Ĭ
Ġà¶ħ à·ģà·Ĭ
à¶ħà¶´ à¶§
i m
Ġà·Ģà¶ł à¶±à¶ºà¶ļà·Ĭ
Ġà¶½à·Ŀà¶ļ à¶ºà·ļ
à¶ºà·Ķ à¶¶à·Ŀà·Ģà¶±à·Ĭ
Ġà¶¯à·Ļà¶± à·ı
1 6
Ġà¶¸à·Ŀà¶© à¶ºà·Ļà¶ļà·Ĭ
à·Ĥ à¶«
Ġà¶¯à·Ļ à¶¸
Ġà·Ģà·Ķà¶« à¶Ńà·Ĭ
al l
Ġà¶ľà·Ķ à¶»à·Ķ
Ġà·Ħà¶¸à·Ķ à¶¯à·ı
Ġà·Ģà·Ļà¶± à¶ļà¶±à·Ĭ
Ġà¶ļà·ĵ à¶´
Ġà·ĥà¶¸à·Ĭ à¶´à·Ķà¶»à·Ĭà¶«
Ġà¶´à·Ĳà¶Ńà·Ĭà¶Ń à¶ļà¶§
Ġà¶»à·ıà¶¢ à¶ļà·ıà¶»à·Ĵà¶º
à¶ļ à¶§à¶¸
Ġà¶¯ à¶»à·Ķà·Ģà·ı
D E
à·Ļà¶±à·Ĭ à¶¯
Ġà·Ļ à·Ħà·ı
Ġà¶´à¶»à·Ĵ à¶ļà·Ĭà·Ĥà·ı
Ġà·ĥà·Ĵ à¶»à·Ķ
à¶» à·ĵà¶¸
Ġà·Ģà·Ĵà·Ħà·Ĵ à¶½à·Ķ
à¶» à¶§
e v
Ġà¶¯à·Ĳ à¶ļà¶½
Ġà¶ļ à·Ģà·Ĭà¶¯
Ġà¶ħà¶±à·ı à¶ľ
Ġà·ĥà·ı à¶»à·Ĭà¶®à¶ļ
à·Ħà·ı à·ĥ
à¶© à·ıà·Ģ
Ġà¶ĭà¶±à·ı à¶§
Ġà¶¯à·Ķ à¶±à·Ĭà¶±à·Ļ
Ġà¶¶ à¶ºà·Ĵ
Ġà¶ľà·ĳ à¶«à·Ķ
Ġà¶± à¶ľà·Ĵà¶±à·Ĭà¶±
Ġà¶¸à·ľà¶ļ à·Ŀ
Ġà¶¶ à¶½à·Ĭà¶½
Ġà¶Ķà¶ºà·ıà¶§ à¶Ńà·Ĭ
à¶ºà·ı à·Ģà¶ļà·Ĭ
Ġà¶Ĩà·Ģà¶» à¶«à¶º
à¶Ĵà¶ļ à·Ļ
- âĢį
à·ıà¶» à·ı
ou nt
Ġà¶ħ à¶ļ
Ġà¶½ à·ĵ
Ġà¶© à·Ļ
Ġ /
à·ľà¶© à·Ĭ
Ġà¶¶ à¶¶à·Ŀ
à¶º à·Ģ
Ġà¶¯à¶ļà·Ĭ à·Ģà·ı
Ġà¶¶ à¶§
Ġà¶ºà·ıà¶½à·Ķà·Ģ à·Ļà¶ļà·Ĭ
Ġà¶ľà¶Ńà·Ĭà¶Ń à¶¯
Ġà¶Ńà¶» à¶¸à¶§
Ġà¶ħà¶¸à·Ķ à¶Ńà·Ĭà¶Ń
Ġà·Ħ à¶ºà·Ĵà¶º
Ġà·Ģà·ı à¶¯
Ġà¶±à·ı à·ĥà·Ĭà¶Ńà·Ĵ
Ġà¶¸à¶Ńà·Ĭ à¶¯à·Ĭ
à¶¸à·ľà¶ļ à¶§à¶¯
à¶½ à·ĥà·Ĭà·ĥà¶±
à¶ļà·ı à¶»à·Ĵ
Ġà¶ľà·Ļà¶± à¶Ńà·Ĭ
Ġà¶½ à·Ĵà¶ºà·Ķ
Ġà¶´ à·ĺ
Ġà¶ļà·Ŀ à¶´à·Ĵ
Ġà¶¸ à·ĺ
Ġà¶ļà·ĳ à¶½à·Ĵ
Ġà¶¯à·Ļà¶± à·Ģ
à¶» à·Ĵà¶ºà·ļ
Ġ %
Ġà¶ĩà¶Ńà·Ĭà¶Ń à·Ļà¶±à·Ĭà¶¸
à¶§à·Ĭ à¶§à·Ĵ
à·Ķà·Ģ à¶±à·ļ
Ġà¶¯ à¶»
Ġà¶±à·ĳ à¶±à·Ļ
Ġà¶ļà·ĵ à¶´à¶ºà¶ļà·Ĭ
Ġ âĻ«
Ġà¶» à¶¢à·Ķ
Ġà¶±à·Ĳà·Ģà¶Ń à¶Ńà·Ĭ
à¶º à¶ļà·Ŀ
Ġà¶¸à·Ļà¶ºà·ı à¶§
à¶½à·Ĵ à¶ļà·Ĭ
Ġà·Ģà·Ĵà¶¯à·Ĵà·Ħ à¶ļà·Ĭ
Ġà¶´à·ŀ à¶¯à·Ĭà¶ľà¶½à·Ĵà¶ļ
Ġà¶¸à¶ľ à·Ĵà¶±à·Ĭ
Ġà¶ħà¶Ńà·Ĭà¶ħà¶© à¶Ĥà¶ľà·Ķà·Ģà¶§
à·Ģà·Ĭ à·Ģà·Ļ
à¶ļà·Ĭ à·ĥà·Ĵ
Ġà¶±à·Ĵ à·ħ
Ġà¶Ķ à¶łà·Ĭà¶łà¶»
, à¶¸à¶§
5 00
Ġà¶´ à·ĥà·Ķà·Ģ
H FF
Ġà¶ļà·ıà¶¸ à¶»à¶º
Ġà·ģ à¶»à·ĵ
à¶»à·Ĭ à¶½à·Ĵ
Ġà¶ħà¶´ à·Ħ
Ġà¶±à·Ĵà¶ļà¶¸à·Ĭ à¶¸
' čĊ
p e
à·ĥà·Ĭà·ĥ à·Ĵ
Ġà¶¶ à·ĥà·Ĭ
à¶§à·Ĵà¶º à·ļ
à¶ľà·Ļ à¶ºà·Ĵ
Ġà¶´à·Ĵà¶§ à¶Ńà·Ĭ
à¶¸à·ľà¶±à·Ģà·ı à¶¯
à¶ĩà¶Ńà·Ķ à¶½à¶§
Ġà¶ħà·Ħ à¶ļà¶§
à¶¸à·ļ à¶ļà¶§
2 4
à·ļ à¶´
à¶»à·Ķ à¶«à·ı
à·Ģà·Ĵ à¶¯
Ġà¶ħà¶Ńà·Ĭ à·ĥà¶±à·Ĭ
Ġà¶ĭà¶¶ à·ļ
Ġà·Ħà·Ĵà¶Ńà·ı à¶ľà·Ļà¶±
Ġà·ĥ à·Ĵà¶±à·Ĭ
Ġà¶ħà¶Ńà¶» à·ļ
Ġ ar
Ġà·Ģà·ĵ à¶©à·Ĵà¶ºà·Ŀ
Ġà¶ĩà·Ħà·Ķà¶¸à·Ĭ à¶ļà¶±à·Ĭ
Ġà¶´à·Ĵà·ħà·Ĵ à¶ľà¶±à·Ĭà¶±
Ġà¶ĭ à¶Ńà·Ķà¶¸à·ıà¶«
Ġà·Ħà¶¯à·ı à¶ľà¶±à·Ĭà¶±
Ġà¶ļà·Ķ à¶«à·Ķ
Ġà¶´à¶»à·Ĵà·ĥà·Ĭà·ĥ à¶¸à·Ĭ
Ġà¶¸à·ľà·Ħà·ľ à¶Ń
Ġà¶±à¶ľà¶» à¶ºà·ļ
Ġà¶ħà·Ģà·ĥà·ı à¶±à¶º
à¶±à·Ĳ à¶Ńà·Ĭà¶Ńà¶¸à·Ĭ
à¶ĩà¶º à·Ģ
Ġà¶´à·Ķà¶¯à·Ĭà¶ľ à¶½à·Ĵà¶ļ
Ġà¶ħ à¶°
Ġà¶ĳà¶ºà·ıà¶½ à¶ľà·Ļ
Ġà¶¯à·Ļ à¶ºà·Ĵà¶ºà¶±à·ļ
à¶ī à·ĥà·Ĭà·ĥ
Ġà¶¯ à·Ľ
u b
Ġà¶Ń à¶¶à·ı
Ġà¶ļà¶½à·Ĭ à¶´à¶±à·ı
Ġà¶ľà·ľà¶©à¶±à·Ĳà¶ľà·Ĵ à¶½à·Ĭà¶½
à¶ħ à¶±
à¶»à·ĵ à¶¸à·Ĭ
à·Ģ à¶½à·Ĵà¶±à·Ĭ
Ġà¶Ĩà¶»à¶ļà·Ĭà·Ĥà·Ĵà¶Ń à¶ºà·Ĵ
Ġà¶¯ à¶ļà·Ķà¶«
Ġà¶ľà·Ĳà·Ħà·Ĳ à¶«à·Ķ
Ġà¶¸ à·ĥà·Ĭ
Ġà¶Ĩ à¶łà·Ĭà¶łà·Ĵ
à¶ µ
à¶ĳ à¶ļà¶§
Ġà¶ľà·ĳ à¶±à·Ķ
Ġà¶Ńà·Ĵà¶¶ à·Ĵà¶½à·ı
Ġà¶Ńà·Ķà·Ģà¶ļà·Ĭà¶ļ à·Ķà·Ģà¶ļà·Ĭ
" .čĊ
Ġà¶ļ à¶³
Ġà¶īà¶±à·Ĭà¶± à¶ļà·ľà¶§
Ġà¶ī à·ĥà·Ĭ
Ġà¶¸à·Ĳ à¶¯à·Ĵ
à¶¯à·Ķà·Ģ à¶±à·Ĭà¶±
à·Ģ à¶´à·Ķ
Ġà¶¯à·Ļà¶ļ à¶ºà·Ĵ
Ġà¶ľà·ı à¶±à·ļ
Ġà¶¯à·Ĳà¶± à¶§
à¶Ńà·Ĵ à·ĥà·Ĭà·ĥ
Ġà¶¸à·Ķ à¶½à·Ĭ
Ġà¶¸à¶Łà·Ķ à¶½à¶ļà·Ĭà¶¯
Ġà¶±à·Ĳà·Ħà·Ĳà¶± à·ļ
Ġà¶ĳà·Ħà·Ļ à¶¸à¶¯
Ġà¶§ à·Ĵ
à·Ģà·ı à¶¯à·ĵ
Ġà¶ĳ à·Ģà·ı
Ġà¶ĭ à¶ľà·Ķ
Ġà·Ģà·Ĵ à¶ļà·Ĭ
à·Ħà¶» à·Ĵà¶ºà¶§à¶¸
à¶°à·ıà¶» à¶«
Ġà¶ºà¶±à·Ĭà¶± à¶¯
à¶Ķà¶¶ à¶ľà·ļ
Ġà¶´à·ľà¶½à·Ĵ à·ĥà·Ĵà¶º
à·Ħà·Ĳ à¶¯à·Ĵ
Ġà·Ħà·ĵ à¶±
Ġà·Ģà·Ĵà¶»à·Ķà¶¯à·Ĭà¶° à·Ģ
Ġà¶´ à·Ģà¶Ńà·Ĭ
Ġà·ĥà·Ĭà¶§ à·ĵ
à¶»à·Ĭ à¶©à·Ĭ
Ġà¶ľ à¶¸à·ļ
à¶¸à·Ķ à¶½à·Ĵà¶±à·Ĭà¶¸
Ġà·Ħà·ľà¶º à¶±à·Ĭà¶±à·ļ
Ġà·Ģà·Ļà¶½à·ı à¶¯
Ġà¶¯à·Ķà¶¸à·Ĭ à¶»à·Ĵà¶º
Ġà¶¯à·Ĳà¶ļà·Ĭà¶ļ à·Ļ
Ġà·Ģ à·Ĳà¶±à·Ĵ
Ġà¶¢ à¶±à·ıà¶°à·Ĵà¶´à¶Ńà·Ĵ
Ġà¶Ńà·Ĵà·ĥà·Ĭà·ĥ à·ļ
Ġà¶īà¶±à·Ĭà¶± à¶¸à·Ĭ
Ġà·Ģà·ĥà·Ĭà¶Ńà·Ķà·Ģ à·ļ
à¶¯à·Ļà¶± à·Ļà¶ļà·Ĭ
à·Ŀ à·Ĥ
Ġà¶Ĩ à·ĥà¶ºà·Ĵ
Ġà·ĥ à¶±à·Ĭà¶±
Ġà¶ħà¶» à¶¸à·Ķ
Ġà¶¸à·Ķà¶«à¶ľà·Ĳ à·Ħà·Ļà¶±à·Ĭà¶±
Ġà¶ħ à¶½à·Ķ
Ġà¶Ĵà¶ļ à·Ĵ
Ġà¶ļà¶«à·Ĭà¶©à·ıà¶º à¶¸à·ļ
âĢįà¶»à¶Ńà·Ĵ à¶łà·ıà¶»
Ġà·Ħà·ľà¶º à¶½à·ı
à·ħ à·ļ
Ġà¶¶à·ı à¶ºà·Ĵ
Ġà¶´à·ľà¶½à·Ĵ à·ĥà·Ĵà¶ºà¶§
Ġà¶ľà·Ĳ à·Ħ
Ġà¶´à·Ĳà¶Ńà·Ĭà¶Ń à·Ļ
Ġà¶´à¶¸à¶« à¶ºà·Ĵ
Ġà·Ģà·Ĳà¶© à¶ļà¶»
à·ĥ à·ĵà¶¸
à¶Ń à¶±à·Ĭà¶±
à·Ģà·Ļà¶½à·ı à·Ģ
ar d
à·Ħ à¶º
Ġà¶´ à¶½à·ı
Ġà¶ķà¶± à·ĳà¶¸
Ġà¶¶à·Ļ à¶¯à·ı
à·Ĳ à¶Ńà·Ĵ
à¶±à·Ĭà¶¯ à·Ķà·Ģ
Ġà¶Ńà·ļà¶»à·Ķ à¶±à·ı
Ġà¶ļà·Ĵ à·Ģà·ı
à·Ķ à¶¸à·Ĭ
Ġà¶Ń à¶½à·Ĭà¶½à·Ķ
Ġà¶ĩà·Ħà·Ķ à·Ģà·ı
à¶§à·Ĭà¶§ à·Ķà·Ģà¶ļà·Ĭ
à·Ļ à¶ļ
à¶ī à·ĥà·Ĭà¶ļà·Ŀ
Ġà¶ļà·Ķ à¶©à·ı
à¶ĭ à¶©
Ġà·ĥà¶Ĥ à¶łà·ıà¶»
at ion
Ġà¶¶à·Ļ à¶½à·Ĭà¶½
Ġà¶ĩ à·Ħà·Ķà·Ģ
Ġà¶ł à¶»à·Ĵ
Ġà¶ļà·ľà·Ħà·ľ à¶¸à¶Ńà·Ĭ
à¶»à·Ļ à·Ħà·Ĵ
Ġà·Ħà·Ĳ à¶ľ
Ġà·ĥ à¶¸à·Ķ
Ġà¶»à·Ĳ à¶ļà·Ĵ
Ġà·Ħà·Ĵ à¶±à·ı
Ġà¶¯à·Ĳ à¶ļà·Ĭ
Ġà¶´ à·ľà¶Ńà·Ĭ
' s
Ġà¶ĳà·Ħà·Ļ à¶§
Ġà¶Į à¶§
Ġà¶¸ à¶»à·ı
Ġà¶¸à·ı à¶±
Ġà¶¯à·ı à¶±
Ġà¶« à¶º
Ġà¶» à·ĸ
Ġà·Ģà·Ķà¶±à·ı à¶§
Ġà·ĥà·Ĳà¶½ à¶ļà·Ĵ
à¶ĩ à¶Ńà·Ĵ
Ġà¶ħ à¶´à·ı
Ġà¶·à¶ºà·ıà¶± à¶ļà¶ºà·Ĵ
Ġà¶±à·ĵ à¶Ńà·Ĵà¶º
Ġà¶´à·Ĵà¶§à·Ĵ à¶´à·ĥà·Ĭà·ĥ
à¶»à·ıà·Ģ à¶§à¶¸
Ġà·Ģà·ļ à¶½à·ı
Ġà¶¸à·Ĵ à¶½
Ġà¶ļà¶» à¶ľà¶Ńà·Ĭà¶Ńà·ı
à¶© à·Ķà·Ģà¶ļà·Ĭ
à¶Ń à¶´à·Ķ
Ġà¶ĭ à·Ģà¶¸
Ġà¶ħà¶» à¶Ĥ
à¶½à·Ŀ à¶±à·Ĭ
Ġà¶¶à·ı à¶°
Ġà·Ħà·Ĳ à¶¯à·Ķà·Ģ
à·ĥà·Ĭà·ĥ à¶±à·Ĭà¶±
Ġà¶¸à·Ķ à¶½à·Ĵà¶±à·Ĭ
Ġà¶Ńà¶Ńà·Ĭ à¶´à¶»
Ġà¶» à·Ĵà¶º
Ġà¶Ĩà¶» à¶ļà·Ĭ
h t
à¶´à·Ĵà¶º à¶±à·Ĭ
à¶¯ à¶§
Ġà¶ħà¶· à·Ĭ
à¶Ĥà¶ľ à·Ĵà¶ļ
Ġà¶»à·Ĳ à¶ļ
Ġà·Ħ à¶Ĥà¶ľ
Ġà·ĥà¶´ à¶Ńà·Ĭà¶Ńà·Ķ
à¶¸à·Ĵà¶±à·Ĵ à·Ħà·ı
à¶¢ à·Ĵà¶±à·Ĭ
Ġà·Ģà·Ħ à¶ľà¶±à·Ĭà¶±
Ġà¶¶à¶» à¶´à¶Ń
Ġà¶¸à·ı à¶¸à·ı
Ġà·Ģà·Ļà¶±à·Ĭà¶± à¶ºà·Ĵ
Ġà¶´à¶»à·Ĵ à¶ľà¶«
Ġà¶´à¶±à·Ĵ à¶±à·Ĭà¶±
Ġà¶ħ à¶±à·Ĭ
Ġà¶ľà·Ħ à¶½à·ı
Ġà¶±à·Ĳà¶ľà·Ĵ à¶§à·Ĵà¶±à·Ĭà¶±
Ġà¶ļà·Ĵà¶º à¶ºà·Ĵ
Ġà¶ĩà¶¸ à¶»à·Ĵà¶ļà·ı
Ġà¶´à·Ĵà¶±à·Ĭà¶Ńà·ĸ à¶»
Ġà¶ĭà¶´ à¶¯à·Ļ
a v
à·Ħ à¶Ńà·Ĭ
à¶ļà·Ļ à¶½à·Ĭà¶½
Ġà·Ģà·Ĳà¶© à¶§
o me
à¶º à¶ºà·Ļà¶±à·Ĭà¶¸
Ġà¶» à¶Ńà·Ĭ
Ġà¶´à·Ķà¶»à·ı à¶¸
r y
à¶ĳ à·ħ
à¶± à¶»à¶ļ
à¶Ńà·Ĳà¶± à¶¸
Ġà·Ģà·ıà¶»à·Ĭ à¶Ńà·ıà·Ģ
Ġà¶±à·Ĳà·Ģ à¶Ńà·Ķ
à¶¸à·Ķ à¶ļà·Ķà¶Ńà·Ĭ
Ġà¶¸à·ļ à·Ģ
âĢį à¶»à·Ķ
Ġà¶¶à·Ĵ à¶½à·Ĭ
à¶ļà·Ģà¶¯ à·ıà·Ģà¶Ńà·Ĭ
Ġà¶ļà¶» à·ľà¶Ńà·Ĭ
Ġ and
Ġà¶ľà·ŀ à¶»
Ġà¶ĭà¶´à¶±à·Ĭ à¶¯à·Ĵ
Ġà¶¸à·Ĵà¶±à·Ĵ à·ĥà·Ĭ
Ġà¶Ńà·Ĵà¶º à¶±à·Ļà·Ģà·ı
à·Ģà·Ĵ à¶½à·ı
à¶ľà·Ĵ à¶±à·Ĵ
Ġà·Ģ à·Ķà·Ģ
Ġà¶ĳà¶ļ à¶¯
Ġà·Ģà·ıà·Ħ à¶±
Ġà¶¢à¶º à¶ľà·Ĭ
à¶ľà¶Ńà·Ĭà¶Ń à·Ļ
Ġà¶¸à·Ĵà¶±à·ĵà¶¸ à·Ĳ
à·Ħ à·ĵ
à·Ļ à¶½à·ı
âĪĻ âĪĻčĊ
1 4
à¶ºà·ı à¶»à·Ĭ
Ġà¶½à·ĳ à·ĥà·Ĭà¶Ńà·Ĵà¶ºà·Ĵ
à¶ħà¶©à·Ķ à¶¸
Ġà·Ģ à¶Ĥà¶ł
Ġà·ĥà·ı à¶¯
Ġà¶¯à·Ļ à¶´à·ı
à¶ľ à¶»à·Ĭ
Ġà¶´à·Ĳà¶± à¶½
M r
Ġà¶ħ à¶»à·Ĭ
o h
à¶ĳ à¶½à·Ĵà¶ºà¶§
à¶ł à¶½à·Ĭ
à¶´ à·ĳ
Ġà¶´à¶»à·Ĵ à·Ģà¶»à·Ĭ
Ġà¶½à·Ĳà¶¶à·Ķ à¶±
Ġà¶ļà¶ļà·Ķ à¶½
à¶± à¶±à·Ĭà¶±
à·Ħ à¶ļà·Ĭ
Ġà¶¶à·Ĳ à¶§
âĢį à¶¸à·ı
Ġà¶¸à·Ĳà¶»à·Ķ à¶«
à¶» à·ĥà·Ĭ
à¶»à·Ŀ à¶°
Ġà·Ģà·Ħ à¶±à·Ĭà¶±
Ġà·Ģà·ļà¶¯ à¶±à·ıà·Ģ
Ġà¶¶ à·Ĳà¶±à·Ĭ
Ġà·Ħà·Ĳà¶» à·Ļà¶±à·Ĭà¶±
à·ĥà·Ĵ à¶»à·Ĳ
Ġà·ĥà·Ĵ à¶Ńà·Ĵà¶º
Ġà¶´à·Ĵà·ĥà·Ĭà·ĥ à·Ķà·Ģà¶ļà·Ĭ
Ġà¶¸à·Ĵà¶±à·Ĵ à·ĥà·ı
Ġà·Ģà¶ľà·Ļ à¶ºà·Ĵ
Ġà¶¯à·Ĳà¶±à·Ķ à¶¸à·Ĭ
Ġà·ĥà·Ĳ à¶´
Ġà·ĥà·Ķ à¶¯à·ıà¶±à¶¸à·Ĭ
Ġà¶´à·Ļà¶±à·Ķ à¶¸
Ġà¶¸ à¶½
Ġà¶±à·Ĵ à¶½à·Ĭ
à¶Ń à·ĺ
Ġà¶ļà·Ĳ à¶©à·Ĵ
Ġà¶¶ à¶½à·Ĭà¶½à·Ļà¶ļà·Ĭ
à¶¯ à·Ģà·ĥà·Ĭ
à¶ ¤
Ġà¶½à·Ĳà¶¶ à·Ļà¶±à·Ĭà¶±à·ļ
Ġà¶´ à¶±
Ġà¶½à·ĳà·ĥà·Ĭà¶Ńà·Ĵ à¶¯
Ġà¶º à·Ŀà¶¢
à·Ģà·Ĵ à¶Ńà·Ĭ
à¶¸à·Ķ à·ħà·Ķ
à¶ļà·Ĭ à¶½à·ıà¶ļà·Ĭ
Ġà¶§ à·Ŀ
Ġà¶¢à·Ĵà·Ģà·Ĵ à¶Ńà·ļ
Ġfor ec
Ġforec ast
Ġà¶½à·Ļ à¶©
Ġb e
Ġà¶´à¶¸à¶« à¶ļà·Ĭ
Ġà¶¯à·Ĳà¶± à¶ľà¶Ńà·Ĭà¶Ńà·ı
à¶Ł à·Ķ
Ġà·ĥà·Ļà¶½à·Ĭà¶½ à¶¸
Ġà·Ģà·Ķà¶±à·ı à¶¯
Ġà¶¸à·Ĵà¶±à·Ĵà·ĥà·Ĭà·ĥà·Ķ à¶±à·Ĭà·Ģ
à¶±à·ļ à¶±à·ļ
à·ĥ à·ĳà¶¸à·Ĭ
à¶Ķ à·Ģà·Ķ
Ġà¶ľà·Ĳà¶± à¶ºà·Ĵ
Ġà·Ĩ à·Ļ
Ġà¶īà¶±à·Ĭ à¶¯à·Ĵà¶ºà·ı
à¶łà·Ĭ à¶¡
Ġà¶¸à¶ł à·Ŀ
à¶±à·Ĵ à·ģà·Ĭ
Ġà¶½ à¶ºà·Ĵ
Ġà¶»à·ı à¶¢à·Ĭ
Ġà¶ļà·Ĳà¶¸ à¶»à·ı
Ġà¶Ĵà¶ļ à¶Ńà·Ĭ
Ġà¶ĭ à¶«
Ġ re
à¶´ à·ħ
à·Ļ à¶§
Ġà¶¢ à¶»à·ıà·Ģ
? "čĊ
Ġà·ĥ à·Ļà¶±
or t
à¶Ńà·ı à¶¸
Ġà¶¯à·Ĵ à¶±à¶º
Ġà¶¢à·ĵà·Ģà·Ĵà¶Ń à¶ºà¶ļà·Ĭ
\ \
1 8
à¶ļà·Ķà¶« à¶ļà·Ĭ
Ġà¶´à·Ĵà¶§à·Ĵ à¶´à·ĥà·Ĭà·ĥà·ļ
ĠâĻ« čĊ
à¶±à·Ĵ à¶ļà·Ĭ
Ġà¶ħà¶Ńà·ı à¶»à·Ĵà¶±à·Ĭà¶±
à¶±à·Ĭ à¶ľà·Ļà¶±à·Ĭ
Ġà¶Ĩ à·Ģà¶¸
à¶±à·ļ à¶¯
Ġà¶łà·ıà¶»à·Ĭ à¶½à·Ĵ
à¶ĳà·Ħà·Ļ à¶¸à¶¯
à¶ĳà¶ļ à¶ļà·Ĭ
Ġà¶´à·Ħ à·ĥà·Ķ
Ġin f
à¶±à·Ĳ à¶Ńà·Ĵ
à¶ľà¶±à·Ĭà¶± à·ı
à¶´à·Ĳ à¶º
Ġà¶ĩ à¶¯à·Ķà¶¸à·Ĭ
à·Ģà·Ĳ à¶©à·Ĵ
à¶¶ à¶¯
à¶ļà·ľ à¶§à·Ĭ
e p
à¶Ńà·Ķà¶» à¶ļà·Ĭ
Ġà·ĥà¶¯ à·Ħà·ı
âĢįà¶º à·Ģ
Ġà¶ĩà¶¸ à¶Ńà·Ķ
à¶ļ à·Ļà¶±
à·Ĵà¶º à¶±à·Ĭ
Ġà¶ľà¶±à·Ĭà¶± à·Ģ
Ġà¶½à·Ĳà¶¶ à·Ļà¶ºà·Ĵ
Ġà¶ĩà·Ģà·Ĵ à¶½à·Ĭà¶½
Ġà¶» à·ĸà¶´
Ġà·Ģà¶»à¶¯ à¶ļà·Ĭ
à¶½à·Ķ à¶¸
à·Ħà·Ĳà¶¸ à·Ŀ
Ġà¶½à·Ĳà¶¶ à·ĵà¶¸
à¶¯ à¶»à·Ĵà¶±à·Ĭ
Ġà¶ľà·Ļà¶±à·ı à·Ģà·ı
Ġà¶±à·Ĵà¶»à·Ĭ à¶·
Ġà¶ºà·ıà·ħà·Ķà·Ģ à·ľ
Ġà¶½ à·Ĵà¶±à·Ĭ
Ġà¶´à·ľà¶© à·Ĭ
à¶ºà·Ĵ à·ĥà·Ĭ
à¶ĳ à¶¯à·ı
Ġà¶ļà·Ĳ à¶´
à¶´à·Ĳ à·Ħà·Ĳà¶¯à·Ĵ
t on
Ġà·Ģà·Ħ à¶½à·ı
à¶±à·Ģà¶Ńà·Ĭà¶Ń à¶±à·Ĭà¶±
Ġà¶¸ à·ľà¶©
à·Ħà¶»à·Ĵ à¶±à·Ĭà¶±
Ġà¶±à¶»à¶ļ à¶ºà·Ĵ
dit ion
Ġà¶ħ à¶¯à·Ĵà¶±à·Ĭà¶±
à¶Ńà·Ĭà¶Ń à¶¸
Ġà·ĥà·ļ à·Ģà¶º
Ġà¶ļ à·ĺ
à¶¸à·Ļà·Ħà·Ļ à¶§
Ġà¶ľ à¶»à·Ķ
Ġà¶īà¶½à·Ĭà¶½ à¶±à·Ĭà¶±
Ġà¶ļà·Ļà¶± à·Ļà¶ļà·Ķà¶§
à·ĥà·Ĵà¶»à·Ĳ à·ĥà·Ĵ
Ġà¶Ĭ à¶½à¶Ł
à¶ļà¶» à·Ķà·Ģà·Ļà¶ļà·Ĭ
Ġà·Ģà·Ĳà¶©à·ļ à¶§
à¶ľ à·Ĵà¶±à·Ĭ
Ġà¶Ńà¶» à¶¸à·ļ
Ġà¶§ à·ĵ
à¶ļ à·ĳ
Ġà·Ģà·Ĵà·ĥ à¶³
à¶ļà·Ĳ à¶´à·Ĭà¶§à¶±à·Ĭ
Ġà¶Ĩ à·Ģà¶¯
2 5
Ġà·Ħà·Ĵà¶§à·Ĵà¶º à·ľà¶Ńà·Ĭ
Ġà¶¸à·Ĳà¶» à·Ķà·Ģà·ļ
Ġà·ĥà¶¸à·ı à¶¢
Ġà¶± à¶¸à¶ºà·Ĵ
Ġà¶¸à·Ķà·Ħà·Ķ à¶¯à·Ķ
Ġà¶´à¶«à·Ĵà·Ģà·Ĵ à¶©à¶ºà¶ļà·Ĭ
à·Ħà·Ĵ à¶§
à¶ħà·Ħà·Ĭ à·Ħà·Ĭ
Ġà¶ħà·Ħ à¶ľà¶±à·Ĭà¶±
à¶ľà·Ĵ à¶±
à¶» à·Ļà¶±à·Ĭà¶±
Ġà¶ĭà¶´à¶»à·Ĵ à¶¸
Ġà¶Ĵ à·Ģà·Ĵ
Ġà¶¯à·ı à¶´à·Ķ
Ġà·Ģà·Ĵ à¶°
Ġà·ĥà·Ĭà¶® à·ıà¶±
) :čĊ
à¶ĭà¶¹ à·ļ
à¶¶ à¶±à·Ĭ
Ġà¶ħà·Ħà·Ĵ à¶¸à·Ĵ
Ġà¶Ń à¶±à·Ĵà¶º
Ġà¶½à·Ĵà¶´à·Ĵ à¶±à¶º
Ġà¶ļà·ĵ à¶ºà¶ļà·Ĭ
u l
Ġà¶Ńà·ĳà¶ľà·Ĭ à¶ľà¶ļà·Ĭ
Ġà¶ĳà¶ºà·ı à¶ľà·Ļà¶±à·Ĭ
Ġà¶ķà¶± à·ĳ
à·ĸ à¶»à·Ĭ
à·Ĳà¶± à·Ĵà¶º
Ġà¶´à¶«à·Ĵà·Ģà·Ĵ à¶©à¶º
Ġà·Ģà·Ķà¶±à·ı à¶¸
Ġà¶ħà¶±à·Ķ à¶¸à·ıà¶±
on g
Ġà¶¶ à·Ģà¶ļà·Ĭ
Ġà·ĥà·Ĳ à¶»à¶ºà¶ļà·Ĭ
Ġà¶¸à·Ħà¶±à·Ĭ à·ĥà·Ĵ
Ġà¶ļà¶» à¶´à¶±à·Ĭ
à·ĥà¶¸à·Ĭà¶´ à·ĸà¶»à·Ĭà¶«
Ġt ran
Ġà¶ħà¶±à·ıà¶ľ à¶Ńà¶º
âĢį ,
Ġà·Ħà·Ļ à¶½à·Ŀ
Ġà¶ļà·Ĵà¶»à·ĵ à¶¸à·Ĭ
Ġà¶ĭà·Ģà¶¸ à¶±à·ı
Ġà¶¸à·Ĵà¶±à·Ĵà·Ħ à¶§
à·Ģ à¶Ńà·Ķà¶»
à·Ĳ à¶´à·ĵ
à¶¸à·Ļ à¶º
à¶½à·ĵ à·ĥà·Ĭ
Ġà·Ħà·Ĳà¶ļ à·Ĵà¶ºà·Ĵ
à¶Ńà·Ļà¶±à·Ĭ à¶§
Ġà¶ļà·ı à·ħ
à·ĥ à¶Ńà·Ķ
Ġà·ĥà·Ĳ à¶¶à·ĳ
à¶ħà·Ģ à·ĥà·ı
Ġà¶±à·Ĳà¶Ńà·Ĭ à¶¯
Ġà¶´ à·Ļà¶±à·Ĭà¶±à·ļ
à·ıà·Ģ à¶Ńà·Ĭà¶¸
à¶ºà·ı à¶ľà¶±à·Ĭà¶±
Ġà¶¯à¶±à·Ĭà¶±à·Ģà·ı à¶¯
Ġà¶Ķà·Ħà·ļ à¶§
Ġà¶īà¶ļà·Ĭà¶¸à¶± à¶§à¶¸
à·Ģà·ĵ à¶¸à·ļ
Ġà¶Ķà¶¶ à¶½à·ı
Ġà¶ļà·Ļ à¶§à·Ĵ
Ġà¶¸à·ľà¶ļà¶ļà·Ĭ à·Ħà¶»à·Ĵ
Ġà¶ļà·Ĵà¶º à·Ģà¶±à·Ĭà¶±à·ļ
Ġà¶ĩà¶Ńà·Ķà¶½ à¶Ń
à·Ħ à¶¸à·Ĭ
Ġà·Ģà¶½ à¶¯à·Ĵ
à¶´à·ľ à¶½à·Ĵ
Ġà¶´à·ı à·ĥ
Ġà¶½ à¶¸
à·ĥà·Ļ à¶½à·Ĭ
à¶±à·Ģ à¶Ńà·Ĵ
Ġà¶ħà¶±à·Ĵ à¶ļ
Ġà¶´à·ĵ à¶§à¶»à·Ĭ
Ġà·Ħ à·Ķà·Ģ
Ġà¶¶ à¶¯à·Ĵà¶±à·Ĭà¶±
Ġà·ĥà·Ĵà¶ºà¶½à·Ķ à¶¸
o b
Ġà¶ħà¶º à¶Ńà·Ĭ
Ġà·Ģà·Ĵà¶±à·ı à·ĥ
Ġà¶¸à·Ļ à¶ļ
Ġà¶¯à·Ļ à¶ºà·Ĵ
Ġà¶¸à·Ĵà¶±à·Ĵ à·ĥà·Ķ
Ġà¶´ à¶±à·Ĭà¶±
Ġà¶´à·Ĳà¶± à¶ľà¶±à·Ĭà¶±
Ġà·Ħ à·Ĭ
Ġà¶ļà·ı à¶½à·ı
Ġà¶ļà·ı à¶©à·Ĭ
Ġà·ħà¶Ł à¶§
à¶Ń à¶¸à¶±à·Ĭ
Ġà¶ĩà·Ģà·Ĵ à¶¯à·Ĵà¶±à·Ĭà¶±
Ġà¶ļà¶ļà·Ķ à¶½à·Ĭ
à¶¯à·Ļ à¶ļ
Ġà¶± à¶Ĥ
Ġà¶ľ à¶±à¶±à·Ĭ
Ġà·Ģà·ļ à¶ľà¶º
à·Ĵà¶º à·Ļ
Ġà·ĥ à¶Ńà·Ĭà¶Ńà·Ķ
Ġà¶ºà·Ķ à¶°
Ġà·ĥà¶¸à·ı à¶±
à·Ģ à¶±à·Ģ
Ġà¶ħ à·ĥà·Ĭà·ĥ
Ġà¶¯à·Ķ à¶´à¶Ń
Ġà·Ħà·Ĵà¶§à·Ĵà¶º à¶¯
Ġà¶ļà¶© à·ļ
Ġ V
Ġ @
à¶¸à·Ķ à·Ħà·Ķ
à·Ħà·Ķ à¶½à·Ĭ
Ġà·ĥà·ı à¶ļ
à¶ľà·Ĳà¶± à·ĵà¶¸à¶§
Ġà·ĥà·Ĭ à·Ģ
à¶Ńà·Ĭà¶Ń à¶ļà·Ĵà¶±à·Ĭà¶¸
Ġcon dition
ĠF BI
Ġà·Ħà·ľà¶ºà·ı à¶ľà¶Ńà·Ĭà¶Ńà·ļ
à¶ļà·Ĳ à¶¸
Ġà¶īà¶³ à¶½
Ġà·Ħà¶¸à·Ĭà¶¶ à·Ķà¶±à·ı
à¶»à·Ĭ à·ĥà·Ĭ
Ġà¶Ĩ à¶ļà·ıà¶»
Ġà¶´à¶§à¶±à·Ĭ à¶ľà¶±à·Ĭà¶±
Ġà·Ģà·Ļà¶½à·ıà·Ģà·Ļ à¶¸
Ġà·ĥà·Ħ à¶º
Ġà¶ł à·Ļ
à¶ĭ à¶´
Ġà¶ħà¶ºà·Ĵ à¶Ńà·Ĵà¶º
Ġà¶½ à¶ļà·Ķà¶«à·Ķ
Ġà¶Ĭ à·ħà¶Ł
à¶ļà·ľ à·Ħà·Ļ
Ġà·ĥà·ĵà¶¸ à·ıà·Ģ
Ġà·Ĩ à·ľ
à¶½ à·Ĳà¶ļà·Ĭ
Ġà¶¸à¶§à·Ĭ à¶§
à¶¸à·ı à¶»à·Ķ
Ġà·Ģà·ļà¶ľ à¶ºà·Ļà¶±à·Ĭ
Ġà¶ĭà¶¹ à¶½à·ı
Ġà¶ļà·Ļ à·ħ
Ġà¶ľ à·ĥà·Ĭ
Ġà·Ħà·Ĵà¶Ń à·Ļà¶±
Ġà·ĥà¶Ĥ à¶ļà·ĵ
Ġà¶Ńà·Ķ à¶±à·Ĭà¶¯
Ġà·ĥà¶§ à·Ħà¶±à·Ĭ
Ġà¶ľà·Ļ à·Ģà¶½à·Ĭ
Ġà¶½à·Ĳà¶¶à·Ķ à¶±à·ļ
1 7
à¶»à·Ķà·Ģ à·Ļà¶ļà·Ĭ
à¶¸à·Ļà¶Ńà¶± à·Ĵà¶±à·Ĭ
à·Ħ à¶½
Ġà¶´à·Ĵ à·Ģà·Ĵ
à¶¶à·Ĵ à¶¸
Ġà¶ĭà¶±à·ı à¶¯
à¶ļà·ıà¶§ à·Ģà¶Ńà·Ĭ
Ġà¶ĩà¶¯ à¶ľà·Ļà¶±
Ġà¶½à·Ĳ à¶¢à·Ĭà¶¢
à¶© à·ľà¶ļà·Ĭà¶§à¶»à·Ĭ
Ġà¶ī à¶»
Ġà¶ºà¶§ à¶Ńà·ļ
à¶ħ à¶Ń
à¶º à¶¯
à¶¯ à¶½à·ı
Ġtran sl
Ġà¶¸à·ı à·ħà·Ķ
à·Ħ à¶§à¶¸
à¶¯ à·Ģà·ĥ
Ġà¶¸à·ıà¶± à·ĥà·Ĵà¶ļ
Ġà¶ħ à¶ļà·Ķà¶»à·Ķ
Ġà¶¶à·Ķà¶¯à·Ĭà¶°à·Ĵ à¶¸à¶Ńà·Ĭ
à¶¥ à¶ºà·Ļà¶ļà·Ĭ
Ġà¶© à·ļ
Ġà·Ħà·Ĳà¶¯ à·Ķà·Ģà·Ļ
Ġà¶ĳà¶ļ à¶ľ
er t
à¶ľà·Ĵ à¶ºà·ı
Ġà¶ĭ à¶¯à·ı
Ġà¶½ à¶ļà·Ĭà·Ĥ
à¶± à·Ģà¶Ńà·Ĭ
à¶ľà¶±à·Ĭ à·Ģà¶±à·Ĭà¶±
Ġà¶¶à·ļ à¶»à·ı
Ġà¶¯à·ļ à¶ļà¶§
Ġà¶ī à·Ģà·ĥ
Ġà¶ī à¶Ĥà¶ľà·Ĭ
e a
à¶±à·Ĳà¶ľà·Ĵ à¶§à·Ĵà¶±à·Ĭà¶±
à·Ĵà¶ļ à·ı
à¶ĳà¶łà·Ĭà¶łà¶» à¶ºà·Ĵ
à¶ħ à·Ģà·Ķ
Ġà¶½à·ľà¶ļà·Ķ à¶¸
ac k
Ġà¶ļ à¶§à·Ĭà¶§
Ġà·ĥà¶¸à·Ĭà¶¶à¶±à·Ĭà¶° à¶ºà¶ļà·Ĭ
Ġà¶ħ à·Ģà·Ĵ
à¶½ à·Ķà·Ģà¶ļà·Ĭ
Ġ r
à¶Ń à·Ļ
à·Ĵà¶º à·Ļà¶±à·Ĭ
Ġà·Ħ à·Ĵà¶±à·Ĭà¶¯
à·Ļ à¶ļà·ı
Ġà¶ºà·ıà·ħà·Ķà·Ģ à·Ļà¶ļà·Ĭ
à¶Ķà¶ºà·ıà¶½ à¶ľà·ļ
Ġà·ĥà·Ĵ à¶Ńà·Ķà·Ģ
Ġà¶īà·ĥà·Ĭà·ĥà¶» à·Ħà·ı
à·ĥà·Ķ à¶»
Ġà¶Ń à¶¸
à¶ľà¶¸ à¶±à¶º
Ġà¶ħ à¶¯à·Ĭ
Ġà¶Ń à¶»à·Ķ
Ġà¶Ńà¶»à·Ĭ à¶¢à¶±à¶º
à¶¶ à·ĸ
à¶ļà·ľ à·Ħà¶¯à·Ļ
Ġà¶ľà·ļ à¶¸à·Ĭ
Ġà¶¯à¶¸ à¶±à·Ĭà¶±
Ġà·Ģà·Ļ à¶ºà¶±à·Ĭ
Ġà·ĥà·Ĳà¶½à·Ĳ à·ĥà·Ĭà¶¸à¶ļà·Ĭ
Ġà¶ļ à·Ģà¶¯à·Ĭà¶¯
Ġà·Ģà·Ĵà¶º à¶¯à¶¸à·Ĭ
Ġà¶Ńà¶» à¶ľ
à¶½à·ļ à¶±à·Ĭ
à¶± à¶Ĥ
Ġà·Ģà·Ĳà¶» à¶¯
à¶¢ à·Ŀà¶±à·Ĭ
Ġà¶ħ à¶ľà·Ķ
Ġà¶´ à¶Ńà·Ĭà·Ģ
à¶ļà¶» à·ı
Ġà¶¸à·Ĳà¶» à·Ļà¶±
Ġà¶¶à·Ĳ à¶½à·Ĭà¶½à·Ĵ
à¶ļà·Ķ à¶½à·Ĭ
ĠC h
à¶ĳ à¶±à·Ģà·ı
Ġà·Ģà·ļà¶ľ à·Ģà¶Ńà·Ĭ
Ġà¶´ à·ĥà·Ĭ
Ġà¶¢ à·Ķ
Ġinf o
à¶ľà¶Ńà·Ĭà¶Ń à·ľà¶Ńà·Ĭ
à·Ģà·Ĵà¶±à·ı à¶©à·Ĵ
Ġà¶ĳà¶ļà·Ĭà¶ļ à¶¯
Ġà¶Ĵà¶ļ à·ı
Ġà¶ĳà·ħ à·Ĵà¶ºà·ļ
à¶´à·Ĳ à¶Ńà·Ĭà¶Ń
Ġà·Ļ à¶ļà·ı
Ġà¶Ķ à¶§à·Ĭà¶§à·Ķ
à¶ļ à¶ºà·ļ
à·Ģà·Ĵà·ģ à·ļà·Ĥ
à¶¸ à¶ľà·Ļà¶±à·Ĭ
Ġà·Ħà·Ĵ à¶¸
Ġà·Ģà·ĵà¶» à¶ºà·Ļà¶ļà·Ĭ
Ġà¶Ńà¶¸à·Ķà·ĥà·Ļ à¶§
Ġà¶§à·Ĵà¶ļ à¶§à·Ĭ
- à·Ħà¶»à·Ĵ
Ġà¶ļà·ĳ à¶¸à¶§
Ġà·ĥà¶¸ à·ĵ
Ġà¶´à·ľ à·ħ
Ġà¶±à·Ĵà¶½ à¶°à·ı
Ġà¶± à·ıà·Ģ
à¶´ à¶±
à·Ļà¶ļà·Ĭ à¶§à¶»à·Ĭ
Ġà¶ħà·Ģ à¶½
à¶» à¶ºà·ļ
Ġà¶±à·ľ à·Ģà¶±
Ġà¶¸à·Ķ à¶½
à¶¯ à¶±à·ı
Ġà¶»à·Ĳ à¶¢à·Ĵ
Ġà¶Ĩ à¶»à·ıà¶°
Ġà¶¯à·Ļà¶¸ à·Ģà·Ĭ
Ġà¶» à¶Ł
Ġà¶¯à·Ķà¶±à·Ĭà¶± à·ľà¶Ńà·Ĭ
à¶½ à·Ģà¶±à·Ĭà¶±
Ġà¶Ĭ à¶ºà·Ļ
Ġà¶¶à·Ĵ à¶¸à¶§
Ġà¶īà·Ħ à¶½
Ġà¶¯ à¶Ńà·Ĭ
à¶Ńà·Ĵà·ĥà·Ĭà·ĥ à·Ļà¶¸
à¶Ĵà¶ļ à·ļ
Ġ he
Ġà·Ģà·Ĳà¶§ à·Ļà¶±à·Ĭà¶±
à¶¸ à¶Ń
à¶¯à·ı à¶±
% s
à¶Ĵà¶ļ à¶±à¶¸à·Ĭ
Ġà¶ļ à·Ĵà¶±à·Ĭ
à·Ģà·Ĵ à¶ļà·Ĭ
Ġà¶ļà·ľ à¶±à·Ĭà¶©
à·ĥà·Ĭà¶§ à·ĵ
à·Ħà·ı à¶»à·Ĭà¶Ń
à¶ľ à¶¸à¶±à·Ĭ
Ġà¶ĩà¶Ńà·Ķ à·ħà¶§
Ġà·Ħà¶³à·Ķ à¶±à·ı
Ġà¶ļà·ľ à¶½
à¶ľà·ľ à¶±à·Ķ
Ġà¶Ĩà¶»à¶Ĥà¶ł à·Ĵà¶ºà¶ļà·Ĭ
à¶½à·Ĭ à¶¯à·ı
Ġà¶¸à·Ķ à¶±
à¶ĳà¶ļ à¶¸
âĢį à¶Ń
Ġà¶±à¶§ à¶±à·Ĭà¶±
Ġà¶´à·Ĵà¶»à·Ĵ à¶¸à·Ĵ
Ġà¶ķà¶±à·Ļ à¶¸
Ġà¶© à·Ŀ
Ġà¶´ à·Ķà·Ģ
à¶¸à·Ĭ à¶´à·Ĭ
Ġà¶ļà·Ĵ à¶§à·Ĭ
Ġà¶» à¶ºà·Ĵ
à¶» à·ĳ
Ġà¶¸à·ı à¶ľà·ļ
à¶¥ à·ıà·Ģ
Ġà¶Ńà·Ĵà¶º à¶±à·ļà¶±à·Ļ
Ġà·Ģà·Ħ à¶±à·Ģà·ı
Ġ or
Ġà¶±à·Ĳà¶Ńà·Ĭà¶Ń à¶±à·Ĭ
Ġar e
à¶ĭà¶¶ à¶§
Ġà¶´ à¶ļà·Ĭà·Ĥ
Ġà¶´à·Ķ à¶Ńà·ıà·Ģ
à·Ģà·Ļ à¶¸
Ġà¶Ķà¶ļà·Ĭà¶ļ à·ľ
Ġà¶ħà¶¸à·ı à¶»
Ġà¶ħà¶´à·Ħ à·ĥà·Ķ
... "čĊ
Ġà¶½à·Ĳà¶¶à·Ķ à¶«à·ı
âĢį à¶§à·Ķ
Ġà¶ħà·Ħ à¶½
Ġà¶ľà·Ļ à¶¯à¶»à·Ĵà¶±à·Ĭ
Ġà¶¢à·ĵ à·Ģ
r it
à¶´à·ľ à¶½à·Ĵà·ĥà·Ĭ
à·Ŀà¶¸ à·ĥà·Ĭ
Ġà¶¸ à¶«à·Ĭà¶©
Ġà¶¯à·ı à¶¸à·Ķ
Ġà¶¯ à·Ģà¶½à·Ĭ
Ġà¶ħà·ĥ à¶±à·ĵà¶´
Ġà¶¯à¶©à¶º à¶¸à·Ĭ
Ġà¶ļà·Ĳ à¶»
à·Ģà·ı à¶ľà·Ļà¶±
Ġà¶¶à¶½ à·Ģà¶Ńà·Ĭ
à¶¸ à¶ľà·Ŀ
Ġà¶ļà·Ĵà·Ģ à·Ķà·Ģà·Ļ
Ġà·Ĩà·Ĵ à¶½à·Ĭ
Ġà¶¯à·Ĵà¶± à¶±à·Ĭà¶±
Ġà·Ħà·Ļ à¶½à·Ĵ
à¶¸à·Ĵ à·ĥà·Ĭà¶§à¶»à·Ĭ
Ġà¶º à¶§à¶Ńà·Ĭ
Ġà¶ĩ à¶½
à¶¸à·ľà¶ļ à·Ķà¶Ńà·Ĭ
à¶Ńà·Ĭà·Ģ à·Ĳ
Ġà·Ģà·Ļà¶±à·Ĭà¶± à¶Ńà·Ĭ
Ġà¶¸à¶±à·Ķ à·Ĥà·Ĭ
Ġà·Ħà·Ĵ à¶±à·ıà·Ģ
Ġà¶´à·ıà¶» à·Ļà¶±à·Ĭ
Ġà¶ħà·Ħ à¶±à·Ĭà¶±à·Ļ
à¶¸à·ı à·ĥ
à¶ļ à¶±
Ġà·ĥ à¶Ńà·Ķà¶»
à·Ģà·Ĵ à¶¯à·Ĭ
Ġà¶ħà¶º à·Ĵà¶ºà·ļ
Ġà¶ħà¶±à·ı à¶ľà¶Ń
à¶¸ à¶ľ
à¶ļà·Ĭà·Ĥ à·ļà¶´
Ġà·ĥà¶¸à·Ĭà¶¶à¶±à·Ĭà¶° à¶ºà·Ļà¶±à·Ĭ
à¶ļ à¶½à·ļ
Ġà¶ļà·ļ à·ĥà·Ĭ
e g
Ġà·Ħà¶»à·Ĵ à¶ľ
Ġà¶¸ à¶½à·Ĭà¶½à·Ĵ
à¶¸à·Ļ à¶łà·Ĭà¶łà¶»
Ġà¶´à·ĸ à¶¢
Ġà·ĥà¶¸à·ı à¶ľà¶¸
à¶¸à·ľ à¶±à·ı
à¶º à¶¸
Ġà¶ĩà¶» à·Ļà¶±à·Ĭà¶±
à·ģ à¶ļà·Ĭ
à·ĥ à·Ĳà¶±à·Ĭ
Ġà¶ĩà·Ħà·Ķ à¶±à·ı
Ġà¶Ńà·Ĵà¶º à¶±à·Ĭà¶±à·ļ
Ġà·Ħ à¶§
à¶¸à·ı à¶¢
à¶´à·Ĵ à¶±à·Ĭ
Ġà¶´ à¶½à¶ºà¶±à·Ĭ
Ġà¶ļà·Ŀ à¶łà·Ĭà¶ł
Ġà¶´à·Ģà·Ķ à¶½à¶ļà·Ĭ
Ġà¶»à·Ŀ à¶ľ
à·Ħà·Ĭ à·Ħà·Ĭ
Ġà¶¯à·Ĳà¶ļ à¶´à·Ķ
à¶¢à·Ĵ à¶ļà·Ĭ
Ġà¶Ńà·ļà¶» à·Ļà¶±à·Ģ
à¶ī à¶¯à·Ĵ
Ġ... .čĊ
Ġà¶ľà·Ĵ à¶«à·Ķ
Ġà¶Ķ à¶±à·ļ
Ġà¶¶ à·Ļà¶±à·Ĭ
f f
Ġà¶ħà¶±à·Ĭà¶Ńà·Ĵ à¶¸à·ļ
Ġà¶ħà·ĥ à¶¸à¶Ńà·Ĭ
à·Ģà¶±à·Ĭà¶± à·Ļ
à¶¯à·Ķ à¶±à·ļ
" à¶¸à¶¸
Ġà¶ĩà¶» à¶½à·ı
Ġà¶īà·Ħ à·ħ
Ġà¶±à·Ĳà¶Ńà·Ĵ à·Ģà·Ļà¶½à·ı
à¶¯à·Ĳà¶± à¶§
à¶¢ à·ĸ
Ġà·Ģà·ĵ à¶¸à¶§
Ġà¶ĩà·Ħ à·Ķà·Ģà·ļ
Ġà¶¯à·Ļà¶ļ à¶¸
Ġà¶ī à¶»à·Ĵ
Ġà¶ºà·ľ à¶¯
Ġà¶ľà·Ĳà¶± à¶¸
Ġà¶»à·Ĳ à·ĥà·Ĭ
Ġà·Ħà·Ĳà¶¸ à¶Ńà·Ĳà¶±à¶¸
Ġà¶´à·Ĭ à¶½à·Ŀà¶±à·Ĭ
à¶» à·Ħà·ĥà·Ĭ
i an
Ġà¶Ńà·Ĳà¶± à¶¸
Ġà·Ħà·ľà¶º à¶±
Ġ )čĊ
Ġà¶ļà¶»à·ı à¶¯
Ġà·ĥà·Ķà·Ģ à¶³
Ġà·ĥà·Ĵà¶º à·ħà·Ķà¶¸
Ġà·Ģà·Ĵ à·Ĥ
Ġà·ĥà·Ķà¶» à¶ļà·Ĵà¶±à·Ĭà¶±
Ġà¶¸à·ı à¶ºà·Ĵ
Ġà·Ģà·Ĵà·Ģà·ļ à¶ļ
Ġà¶¶à·Ĳà¶»à·Ĵ à·Ģà·Ķà¶±à·ı
Ġà¶īà¶ļà·Ĭà¶¸à¶± à·Ĵà¶±à·Ĭà¶¸
à¶¯ à·Ļà¶±à·Ģà·ı
Ġà¶ĭ à¶ľà·ļ
à¶¸à·ļà¶ļ à·Ļà¶±à·Ĭ
à¶¸à¶ºà·Ĵ à¶ļà·Ĭ
à¶ĩ à¶»
à·Ģà·Ļ à¶½
Ġà¶ħà¶±à·Ĵà·Ģà·ıà¶»à·Ĭ à¶ºà·Ļà¶±à·Ĭà¶¸
Ġà¶ĭà¶´ à·ĥà·Ĵà¶»à·Ĳà·ĥà·Ĵ
Ġà¶½à·Ĵà¶º à¶±à·Ĭà¶±
Ġà¶ķà¶± à¶¯à·Ļ
Ġà·Ħ à¶Ĥ
Ġà·Ħà·Ĵà¶» à·Ģà·Ļà¶½à·ı
Ġà¶·à·ı à·Ĥ
à¶ļà·ľ à¶ºà·Ĵ
à¶ļà·Ĭà·Ĥ à¶«à¶º
Ġà¶»à·Ĳ à¶ľà·Ļà¶±
Ġà¶±à·ľ à¶¸à·Ĳ
Ġà¶Ńà·ļà¶»à·Ķ à¶¸à¶ļà·Ĭ
Ġà·ĥà·Ĳ à¶»
a i
Ġà¶±à·Ĳ à¶§à·Ķ
] čĊ
Ġà¶Ńà·Ħ à¶±à¶¸à·Ĭ
à¶¶ à·Ħà·Ķ
Ġà·Ħà·Ĵà¶Ń à·Ļà¶±à·Ĭà¶±à·ļ
à¶¬ à·Ķà·Ģ
Ġà¶ľà¶± à·Ĵà¶±à·Ĭ
à¶±à·Ļ à¶¸à·Ĭ
à·ĥ à·Ļà¶±
Ġà¶´à·ļ à¶±à·Ģ
Ġà·Ģà·Ĳà¶§à·Ķ à¶±à·ı
Ġà¶¸à¶§à·Ĭ à¶§à¶¸
an g
t ion
Ġà¶Ńà·ĵà¶» à¶«à¶ºà¶ļà·Ĭ
à¶¢ à·ľ
à¶ħ à¶½à·Ķà¶Ńà·Ĭ
Ġà·Ħà·Ĳ à¶©
Ġà¶¯à·Ļ à·Ģà·Ļà¶±à·Ĵ
Ġà·ĥà·Ĳ à¶Ńà¶´à·Ķ
Ġà¶ĩà·Ħ à·Ļà¶±à·Ģà·ı
Ġà¶±à·Ĵà¶ļà¶±à·Ĭ à¶¸
Ġà¶ļà·ıà¶¸à¶» à¶ºà¶§
à¶ł à¶»
Ġà¶ºà·ı à¶±à·ı
Ġà¶ħà·Ħ à¶ľà·Ļà¶±
Ġà¶¸à·Ļà¶± à·Ģà·Ĵà¶º
Ġà¶¢à¶± à¶Ńà·ıà·Ģ
Ġà·Ģà·Ĵà¶±à·ı à¶©à·Ĵà¶ºà¶ļà·Ĭ
Ġà·Ģà¶ł à¶±à¶º
Ġà·Ħà·Ĳ à¶»à·ĵ
Ġà¶¶à·ľ à·ĥà·Ĭ
Ġà¶¸à¶ľà·Ļ à¶Ńà·Ĭ
Ġà¶ĩà¶³à·Ķ à¶¸
à¶¯à·Ĵ à·ĥà·Ĵ
à¶¶ à¶§à·Ĭ
Ġà¶ľà·ŀà¶» à·Ģà¶º
à¶Ń à¶»à·Ĭ
Ġà·ĥà·Ĳà¶ļ à·ĥà·Ķà¶¸à·Ĭ
Ġà¶½à·ľ à¶ļà·Ĭà¶ļ
Ġà·Ģà¶Ńà·ıà·Ģ à¶§
à¶ļ à¶«à·Ĭ
à¶Ĭ à¶½à¶Ł
Ġà¶±à·ı à¶¸à¶º
à¶´ à¶»à¶ºà¶ļà·Ĭ
à¶§à·Ĵ à¶ļà·Ĭ
à¶ĩà¶Ńà·Ĭà¶Ń à¶§
Ġà·Ģà·Ļ à¶»
à¶ĭà¶¹ à¶½à·ı
Ġà¶½ à¶±à·Ĭà¶©
Ġà¶ºà¶±à·Ĭà¶± à¶ºà·Ĵ
Q u
Y ou
Ġà¶½à·ļ à¶Ľ
à¶ļ à·Ģà·Ĭà¶¯
Ġà¶īà·ĥà·Ĭà·ĥ à·Ļ
Ġà·ĥà·Ĵà·Ħà·Ĵ à¶±
Ġà¶± à¶ºà·Ĵà¶§à·Ĭ
Ġà¶Ń à·Ļà¶½à·Ĭ
Ġà·Ģà·ľ à¶§à·Ĭà·ĥà¶±à·Ĭ
Ġà¶½à·Ĳà¶¶ à·Ĵà¶½à·ı
Ġà¶ļà·Ĵà·ĥà·Ĵ à·Ģà¶ļà·Ĭ
Ġà¶´à·ıà¶» à·ļ
Ġà¶ĳà¶Ńà¶± à·Ĵà¶±à·Ĭ
à¶»à·Ĵà¶º à¶±à·Ĭ
à¶ļà·ľà·Ħà·ļ à¶¯
à¶º à¶¸à·Ĭ
à¶ļà¶»à·Ķà¶«à·ıà¶ļà¶» à¶½
Ġà¶¸ à·Ħà·Ļ
Ġà¶´ à¶ºà·Ĵà¶±à·Ĭ
à¶ļà·ĺ à¶Ńà·Ĵ
Ġà¶¯ à·Ĵà¶ºà·Ķ
Ġà¶ĭà¶±à·ı à¶¸
Ġà¶ĩà¶¸à¶Ńà·Ķ à¶¸à¶ļà·Ĭ
à¶¶ à·Ģ
Ġà·ģ à·Ķ
à¶¯à·Ĳà¶ļà·Ĭà¶ļ à¶¯
Ġà¶¯à·Ķà¶»à¶ļà¶® à¶±
à¶ħ à¶ºà·Ĵà¶±à·Ĭ
Ġà¶¸à·Ħà¶Ńà·Ĭà·Ģ à¶»à·Ķà¶±à·Ĵ
Ġà¶ļà·Ļà¶± à·ıà·Ģ
à¶īà·ĥà·Ĭà·ĥ à¶»
à¶Ńà·ıà·Ģ à¶ºà¶ļà·Ĭ
Ġà·Ħà·Ĵ à¶±
à¶ĳ à¶ºà·Ĵ
à¶¹ à·Ĵ
I A
à¶§à·Ĵà¶º à·Ŀ
Ġà¶´à·Ļ à¶½
à¶ļà¶» à·Ķà·Ģ
Ġà¶ħà¶¸à·Ķà¶Ńà·Ķ à¶ºà·Ĵ
Ġà·ĥà·Ħ à·Ŀ
à¶ľ à·ĳ
Ġà¶± à¶©à·Ķ
Ġà·ĥà·Ĵ à¶Ńà·Ĭ
Ġà·Ħà¶» à·Ģà¶±à·Ĭà¶±
Ġà·Ģà·Ĵ à¶ļà·Ĵ
Ġà¶¶ à¶³à·Ĵà¶±à·Ĭà¶±
à¶»à·Ķ à¶±à·ļ
à¶½à·Ŀ à¶ºà·Ĵ
à·ĥà·Ĭ à¶Ńà·Ĭ
à¶Ńà·Ĭà¶Ń à¶ļà·Ĭ
âĢį à¶Ńà·Ķ
N A
à·ĥà·Ĵ à¶½à·Ĭ
Ġà¶¯à·ļ à·Ģ
Ġà·Ģà·Ĵà¶ļà·ıà¶» à¶ºà¶ļà·Ĭ
à·ĥà·Ĭ à¶§à·Ĵà¶±à·Ĭ
Ġà¶´à·ĵ à¶©
à¶» à¶ºà·Ļà¶ļà·Ĭ
Ġà¶ħà·ģà·Ĭ à·Ģ
Ġà·Ģà¶ľà·ļ à¶¸à¶ºà·Ĵ
à¶½à·Ķ à¶ºà·Ĵ
Ġà¶©à·Ĵ à¶»
à·Ģà¶» à·Ļà¶±à·Ĭ
Ġà¶¸à¶± à·ĥ
v i
à¶¸à·Ĭà¶¶ à¶»à·Ĭ
Ġà¶Ńà·Ķ à¶»à·Ķ
à·ĥà·Ķ à¶¸à¶ļà·Ĭ
à¶īà·ĥà·Ĭà¶ļà·Ŀ à¶´à·Ĭà¶´
Ġà¶¸à·Ĳà¶» à·Ļà¶ºà·Ĵ
à¶§à·Ĭ à¶±à·Ĵ
- à¶±à·ĳ
Ġà¶ļà·ıà¶» à¶ºà·ı
à·ĥ à·Ĵà¶ºà¶ļà·Ĭ
à¶ľ à¶±à·Ĭà·Ģ
Ġà¶ļà·ľ à·ħ
Ġà¶¶à·ı à¶°à·ı
à¶¯à¶±à·Ĭà¶± à·Ģ
Ġà·Ħ à·Ģà·Ķà¶½à·Ĭ
Ġà¶Ńà·Ĵà¶º à¶±à·Ļ
Ġà¶¯à·Ļà¶±à·Ĭà¶± à¶§
à¶´à·Ĵ à¶ºà·ı
Ġà·ĥà·Ĭ à¶´
Ġà¶±à·Ĵ à·Ĥà·Ĭ
à·ĥ à·Ļà¶ļà·Ĭ
Ġà·Ħà¶Ńà¶» à¶ļà·Ĭ
ou t
Ġà¶¯à·Ĳà¶± à·Ļà¶±à·Ĭà¶±à·Ļ
à¶ļà·ı à¶½à·Ĵà¶ļ
Ġà¶¸à¶» à¶´à·Ķ
Ġà¶Ĩ à¶»à·Ĭ
Ġà¶´à·Ħ à¶Ńà·Ĭ
à¶¢ à¶±à·Ĭà¶§à·Ĭ
Ġà¶ħà¶¸ à¶Ńà¶»
Ġà¶½à·Ĵà¶º à¶½à·ı
Ġà¶½à·Ĳà¶¶ à·Ļà¶±à·Ĭà¶±
Ġà·Ħà·ıà¶¯ à¶ºà·ı
Ġà·Ģà·Ĵà¶¯à·Ĵ à·Ħà·ļ
el l
à¶ļ à·ĳà¶¸
Ġà·ĥ à¶±à·Ĭà¶°
Ġà¶ħ à¶¬
Ġà¶±à·ľ à·Ģà·Ļà¶ºà·Ĵ
Ġà·Ģà¶©à·ı à¶Ńà·Ĭ
à·Ģà·Ļà¶½à·ı à·Ģà·Ļà¶¸
Ġà¶¸à¶§ à¶ºà·Ĵ
Ġà¶ļ à¶¯
Ġà¶ļà·Ĵà¶º à¶´à¶±à·Ĭ
à¶±à·Ĭà¶¯ à·Ķà·Ģà¶ļà·Ĭ
Ġà¶ľ à¶¸
Ġà¶ĳ à¶»à·Ļà·Ħà·Ĵ
à¶ļ à·ĵà¶¸à¶ļà·Ĭ
Ġà¶ļà·Ĵà¶º à·Ļ
Ġà·Ģà¶Ńà·ıà·Ģ à·ļ
à¶»à·ı à¶¢
Ġà¶ħà¶± à·Ļà¶ļà·Ĭ
Ġà¶ľà·Ķ à·Ħ
Ġà¶»à·ľ à¶¶à·Ŀ
Ġà·Ģà·Ļ à¶¸à·Ķ
Ġà·ĥà·Ĵà¶º à·ħà·Ķ
Ġà¶Ńà·ıà¶Ńà·Ĭà¶Ń à¶ľà·ļ
Ġà¶ļà·Ļà¶½à·Ĭà¶½ à·ļ
Ġà¶ļà·ĥà·ı à¶¯à·Ļ
à·Ģà·ļ à·Ģà·Ĵ
Ġà¶¯à·Ķà¶» à¶§à¶Ńà·Ĭ
Ġà¶¸à·ı à¶½à·Ĵ
: %
Ġà¶Ńà·ıà¶Ńà·Ĭà¶Ń à·Ģ
Ġà¶´à¶»à·ĵà¶ļà·Ĭà·Ĥ à¶ļ
Ġà·ĥà·Ķ à¶±à·Ĭà¶¯à¶»
Ġà¶ĩ à¶±
Ġà¶ľà·Ħ à¶ľà·Ļà¶±
Ġà·Ģà¶ľ à·Ŀà¶¸
Ġà¶ħà¶¯à·ı à¶½
Ġà¶ºà·ı à¶½
" ?čĊ
a p
à·Ģ à·Ľ
Ġà·ĥà·Ĳ à¶¸à·Ĵà¶ºà·ı
à¶¸ à·Ĳà¶ļà·Ĭ
à¶¢ à¶±à¶ºà¶ļà·Ĭ
à¶½ à¶ºà·Ļà¶±à·Ĭ
Ġà¶´à·Ħ à·ħ
Ġà¶¶à·ļà¶» à·Ļà¶±à·Ĭà¶±
à¶Ĭ à·ħà¶Ł
Ġà¶½à·Ķà·Ħà·Ķ à¶¶
Ġà·ĥà·Ĭà¶®à·ı à¶´à¶±à¶º
Ġà¶¶à·Ŀ à¶§à·Ĭà¶§à·Ķà·Ģ
Ġà¶»à·ı à¶ļà·Ĭà·Ĥ
à¶¸ à¶ºà¶ļà·Ĭ
à¶½à·ļ à¶Ľ
.. "čĊ
Ġà¶¸à¶ºà·Ĵ à¶½à·Ĭà·ĥà·Ĭ
à¶¸à¶±à·Ĭ à¶©à·Ĭ
Ġà·Ģà·Ļ à¶½à·ļà¶¸
à·Ĩ à·Ŀ
Ġà¶ļà·Ķ à¶©à·Ķ
Ġà¶ĳ à¶Ńà·Ĳà¶±
Ġà¶§ à·ļ
oh n
à·ĥà·Ĵ à·ĥà·Ĭ
à·Ķ à¶ºà·Ĵ
à¶ľà·Ĳà¶± à·ĵà¶¸à·ļ
à¶¯à·Ĵ à·Ģà·Ĵ
Ġà¶§ à·ľà¶¸à·Ĭ
Ġà¶¯à·ı à¶±à·Ģ
Ġà·Ħà¶¸ à·Ķà·Ģà·Ļ
à·ĥ à·ĥà·Ĭ
à¶ļà·ı à¶½à¶º
Ġà¶ī à¶¯à·Ĭà¶¯à·Ĵ
Ġà·Ģà·Ĵ à¶ļà·Ķ
her e
à·Ħ à¶±à·Ļà¶¸à·Ĭ
Ġà¶ħà¶º à·Ĵà¶ºà·Ŀ
à·Ħ à·Ħà·Ĭ
à¶ļà·Ŀ à¶½à·Ĭ
à·ĥà·Ħ à·Ŀà¶¯à¶»
Ġà¶Ńà·Ŀà¶»à·ı à¶ľà¶±à·Ĭà¶±
Ġà¶©à·Ĵà¶» à·Ļà¶ļà·Ĭà¶§
e ct
Ġà¶ħà¶³à·Ķ à¶»
Ġà¶¸ à¶»à·Ĭ
Ġà·Ģà·Ĵà·ģà·Ĭ à·Ģ
à·Ĵà¶ļ à·ıà¶»
Ġà¶Ń à¶¶
à·ĥà·Ĭà¶®à·ı à¶±à¶º
Ġà¶¸ à¶Ńà·Ķ
à¶ļà¶§ à¶¯
à¶Ĭ à¶ºà·ļ
Ġà¶½ à¶ļà·ļà·ĥà·Ĭ
Ġà¶¸à¶±à·Ķà·ĥà·Ĭà·ĥ à¶ºà·ı
Ġà·Ħ à¶½à·Ŀ
Ġà·ĥà¶Ĥ à·Ģà·Ĵ
à¶±à·Ĭ à¶ľà·Ĭ
à· ´
Ġà·Ģà·Ĳà¶©à·ĥà¶§ à·Ħà¶±
Ġà·Ħà·Ĵà¶§ à¶ľà·Ļà¶±
Ġà¶ĭà¶«à·Ķ à·ĥà·Ķà¶¸à·Ĭ
âĢįà¶»à¶ºà·Ŀ à¶¢à¶±
Ġà¶¸à·Ĵ à·ĥà·Ĭ
Ġà¶¢ à·Ļà¶±à·ĵ
à·ĥ à¶»à¶º
Ġà·ĥà¶Ĥ à·ĥà·Ķà¶±à·Ĭ
Ġà¶¶ à¶¶
à·Ħà¶»à·Ĵ à¶¸
à¶ľ à·Ĳà¶±à·Ĭ
Ġà·Ħ à¶¬
Ġà¶¶à·ľà¶» à·Ķà·Ģà¶ļà·Ĭ
Ġà·ĥ à·ħ
à¶Ĩà¶ºà·Ļ à¶Ńà·Ĭ
Ġà¶ļ à·ĸà¶´à¶»à·Ĭ
Ġà¶ľà·Ħ à¶±
Ġà¶Ńà·Ĵà¶¶ à·Ļà¶±
à¶¸à·Ķ à¶Ľ
Ġà¶ħà¶´ à·Ļà¶±à·Ĭ
Ġà¶¯à¶ļà·Ĭà·Ĥ à¶ºà·Ĵ
Ġà¶ĭ à¶±à·Ĭà¶±
Ġà¶ļà·ľà·Ħà·Ļ à·Ģà¶Ńà·Ĭ
Ġà¶´à·Ĵà¶ºà·ı à¶¹
Ġà¶Ķà·Ģà·Ķà¶±à·Ĭ à¶ľà·Ļ
Ġà¶±à·Ĳà¶Ń à¶Ńà·Ĭ
Ġà¶ĩ à¶½à·Ļà¶ļà·Ĭà·ĥà·Ĭ
Ġà·ĥ à¶Ńà·Ĵà¶ºà·ļ
Ġà¶ī à¶½à·Ĭà¶½à·ı
Ġà¶¶à·Ĵ à·ĥà·Ĭ
Ġà¶ļà¶»à¶ľà¶±à·Ĭà¶± à·Ģà·ı
à·ħ à·Ķà·Ģà¶§
Ġà·ģ à·Ŀ
Ġà¶ļà·ĵ à·Ģà·ļ
Ġà·Ģà·Ĵ à¶½à·Ĭ
à¶½à·Ĭ à¶§à¶»à·Ĭ
Ġà¶¸à·Ĵ à¶±à·ĵ
à¶Ńà·Ĭà·Ģ à¶ºà¶ļà·Ĭ
Ġà·ĥ à¶¯à·ı
à¶½ à¶±à·Ĭà¶±
à¶½ à¶ľà·ļ
Ġà¶ľ à¶³
Ġà·Ģà·Ļ à¶¯à·Ĭà¶¯à·Ĵ
à¶¸à·Ĭà¶¶ à·ı
Ġà¶ħà¶Ńà·Ĭ à¶¯à·Ĳ
Ġà¶´à¶«à·Ĵà·Ģà·Ĵ à¶©
Ġà¶´ à¶Ń
Ġà·Ħà·ĵ à¶±à¶ºà¶ļà·Ĭ
à·ĥ à¶±
à¶¯à·Ļà¶± à·ı
Ġà¶¸ à¶½à·Ĭà¶½
Ġà¶» à¶ľ
Ġà¶´à·Ļà¶± à·ĵ
à·Ħ à¶½à·Ĭ
Ġà¶´à¶»à¶ļà·Ĭà¶ļà·Ķ à¶ºà·Ĵ
Ġà¶¸à¶Ĥ à¶ļà·ľà¶½à·Ĭà¶½
à¶¯ à¶ļà·Ĭ
Ġà¶Ńà·Ĵà¶º à·ļà·Ģà·Ĵ
Ġà¶ļà·Ķ à·ħà·Ķ
Ġà¶ļà·Ģà¶¯ à·ıà·Ģà¶Ńà·Ĭà¶¸
à¶ļ à¶§à·Ĭà¶§à·Ĵà¶º
Ġà·ĥà·Ĭ à·Ģà¶ºà¶Ĥ
Ġà¶±à·Ĵà¶º à¶¸à·Ļà¶§
Ġà¶¶à·ı à¶»à·Ĭ
Ġà¶ļà·ľà¶½à·Ĭà¶½ à·ľ
à¶Ĥ à¶¢à·Ĵ
à¶° à¶±à¶º
Ġth is
Ġà·Ģ à·ħ
s e
Ġà¶ĳà¶± à¶ļà¶±à·Ĭ
Ġà¶¸à·Ķ à¶¯à·Ĭ
à·Ĵ à¶ºà·ı
Ġà·Ħ à·Ħà·Ĭ
à¶¶ à·Ĵà¶º
Ġà¶¶ à¶½à·Ĭà¶½à·ı
Ġà·Ħà·Ķ à¶»à·Ķ
à¶ľ à·Ķà·Ģà¶±à·Ĭ
m an
à¶ļà·Ĵ à¶§à·Ĭ
** *
à¶¸à·Ļ à·Ħà·Ĵ
Ġà·Ħà¶¯ à·Ģ
à·Ģà·Ĵ à¶łà·Ĭ
Ġà¶» à·ĵ
Ġà¶±à·Ĳà¶Ńà·Ĵ à·Ģà·Ķà¶±à·ı
Ġà·Ħà·Ĳà¶¸à¶¯ à·ļ
Ġà·Ħà·ı à¶±à·Ĵ
Ġà¶¶à·Ħà·Ĵ à¶±à·Ĭà¶±
Ġà¶ĳ à¶©à·Ĭ
à¶Ńà·Ķà·Ģ à¶ļà·Ĭà¶ļ
à¶´à·ľ à¶½à·ĵ
Ġà¶ĳà¶ļ à¶´à·ıà¶»
Ġà¶ļà¶«à·Ĭà¶©à·ıà¶º à¶¸à·Ĭ
Ġà¶ħ à¶±à·Ĭà¶°
à¶ļà·ı à¶§à¶¯
Ġà¶ħà¶Ń à·ĳ
Ġà¶ļà·ĳ à¶½à·Ĭà¶½
à¶ļ à¶½à·Ĵà¶±à·Ĭ
Ġà¶¯à·Ĳà¶¸à·Ĭ à¶¸à·ļ
y e
Ġà¶ļ à¶±à·Ĭà¶¯
Ġà¶ħà·Ģà¶¯ à·ıà¶±
Ġà¶´à·Ħ à·ħà¶§
Ġà¶´à·Ĵà·ĥà·Ĭà·ĥà·Ķ à¶¯
Ġà·ĥà·ĵ à¶ºà·ı
à·Ħ à¶¯
à·Ļà¶ļà·Ĭ à¶¯
Ġà¶ļ à¶½à·Ļ
âĢįà¶º à¶¸
Ġà¶¯à·Ĳà¶±à·Ĭ à¶¸à¶¸
Ġà·Ģà¶§à·Ĵ à¶±à·Ģà·ı
à¶¯à·ľ à·ĥà·Ĭà¶Ńà¶»
à¶±à·Ĵ à·ĥà·ı
à¶´à·Ĵ à·ĥà·Ĭà·ĥà·Ķ
Ġà¶ĭ à¶¯à·Ĭ
à¶»à·Ĭ à¶½à·ľà¶ļà·Ĭ
Ġà¶ļà·Ĳà¶¸ à¶»à·ıà·Ģ
Ġà¶¯à¶ļà·Ķà¶« à¶§
à¶±à·Ĵ à¶¯
Ġà·ĥà·Ĵ à¶§à·Ĵà¶º
à¶¹à·Ķ à¶»à·Ķ
à¶¸à·Ĵ à¶Ńà·Ĭ
Ġà¶Ķà¶» à¶½à·Ŀ
Ġà·Ģà·Ĳà¶©à·Ĵà¶º à·Ļà¶±à·Ĭ
6 0
Ġà¶Ķà¶ºà·ı à¶¸
Ġà¶ľà¶½ à·Ģà¶±à·Ĭà¶±
en d
à¶»à·Ķà·Ģ à·Ĵà¶Ń
Ġà¶»à·Ĵ à¶¯à·Ĭà¶¯
ran ce
Ġà·Ģà·Ļà¶± à·ĥ
à¶ľà·Ĳà¶± à·ĵà¶¸à¶ļà·Ĭ
Ġà¶¸à·ľ à¶½à·ļ
Ġà¶´à·Ĵà¶§ à·Ĵà¶±à·Ĭ
à¶º à·Ĭ
.. "
Ġà¶ļ à¶¸à·Ĵ
à·ħ à¶¸à¶ºà·Ĵ
Ġà¶ļà¶» à¶±à·Ķ
à¶½à·Ĵ à¶½à·ı
Ġà·ĥà·Ĵ à¶±
à·Ħà·Ĵ à¶½à·ı
à¶» à·ıà·Ģà¶ļà·Ĭ
à· Ł
Ġà¶ľà¶¸à¶±à·Ĭ à¶¸
à·Ļ à¶Ń
Ġà¶¢ à·Ļà¶±
Ġà¶¯à·Ĵ à·Ģà·Ĭ
Ġà¶±à·Ĵ à¶¯à·Ĵ
) .čĊ
ĠA l
Ġà¶ī à¶¸à·Ķ
Ġà¶¯à·Ķà¶» à¶§
à¶¸ à¶»à·Ĭ
à¶ľ à·ıà·Ģ
à¶ĩ à¶±à·Ĭ
à·Ģà·Ĵ à¶§à¶¸
Ġà¶Ķ à·ħà·Ķà·Ģ
Ġà¶Ĩ à¶ļà·Ĭ
Ġà¶» à¶Ńà·Ĭà¶Ńà¶»
a z
âĢįà¶» à¶ºà·ļ
Ġà¶¯à·Ĳà¶± à·Ļà¶±
Ġà¶Ńà·Ĵà¶º à·Ļà¶ºà·Ĵ
à¶ļà¶º à·ľ
à·Ĩ à·Ļ
Ġà¶ľà·Ĵà¶ºà·ı à¶¯
à¶»à·Ĭà¶Ń à¶¸à·ļà¶±à·Ĭ
à·ĳà¶±à·Ĭ à¶©à·Ĭ
à¶ĳ à¶½à·Ĭ
Ġà¶ĩ à¶½à·Ĭ
à¶´ à¶½à·Ĭà¶½à·ı
Ġà¶¯à·Ĵ à·Ģà·Ĵ
Ġà¶´ à¶»à·ĵ
à¶Ńà·Ķà·Ģ à¶ļà·Ĭ
Ġà¶½à·Ĵ à¶ºà·ı
à¶§à·Ĵ à¶±à·Ģà·ı
Ġà¶±à¶ľ à¶»à·Ļ
Ġà·Ģà·Ĳà¶§ à·Ļà¶±à·Ģà·ı
Ġà¶´à·ıà¶» à·Ģà¶½à·Ĭ
à¶º à¶±à·Ĭà¶§
Ġà¶© à·ĵ
à¶ľà·Ķ à¶«
Ġà¶¯à·Ķà¶»à¶ļà¶® à¶±à¶º
Ġà·Ħà·Ĵà¶Ń à·Ļà¶±à·Ĭà¶±à·Ļ
à·Ĥà·Ĵ à¶§à·Ĭ
Ġà·Ħà¶»à·Ĵ à¶±à·ļ
Ġà¶¯ à·Ħà·ĥà·Ĭ
Ġà¶ħ à·ĥà¶»
Ġà·ĥà·Ĵ à¶´
i es
Ġà¶ī à¶§à·Ķ
Ġà¶ł à·ĸ
Ġà¶ºà·ıà·ħà·Ķà·Ģ à·Ŀ
Ġà¶½à·Ĳà¶¶à·Ķ à¶«
à¶ļà¶½ à¶¶à¶½
Ġà¶ľà·Ķ à¶»à·Ķà·Ģ
Ġà¶¸à·ĸ à¶½
Ġà¶ĭà¶´à¶¯à·Ļ à·ĥà·Ĭ
Ġà¶±à·Ĵà·Ģà·Ĭ à¶ºà·Ŀ
Ġà·Ħà·Ĵà¶Ńà·Ķ à¶±à·ı
Ġà·Ģà¶Ĥà¶ł à·ı
e b
Ġà¶´à·Ķà¶Ńà·ı à¶§
Ġà¶ļà·Ĳ à¶Ń
à¶ļà¶» à¶ľà·Ļà¶±
à¶Ĭ à¶½à¶ľ
Ġà·Ģ à¶»à·Ĭà¶«
Ġà¶¢à·ı à¶Ńà·Ĵà¶ļ
à¶¯à·Ķ à¶¸à¶ļà·Ĭ
à¶º à¶ļà·Ĵà¶±à·Ĭ
Ġà¶¸ à·ħ
Ġà¶ĩà¶Łà·Ĵ à¶½à·Ĵ
Ġc om
Ġà¶¸à·Ĵ à¶Ńà·Ķà¶»
Ġà¶īà¶³ à¶ľà·Ļà¶±
Ġà¶ĩà¶Ńà·Ĭà¶Ń à¶¯
Ġà·ĥà·Ħà·Ŀà¶¯à¶» à·Ĵà¶º
à·Ĵà¶ºà·Ķ à¶ľà·Ŀ
Ġà·ĥà¶ļ à·ĥà¶±à·Ĭà¶±
Ġà·Ģà·Ĵà¶¯à·Ķ à¶½à·Ĵ
à·ļ à·ģ
Ġà¶´ à¶§à·Ĭà¶§
es t
Ġà¶Ķà·Ħà·ļ à¶ľà·ļ
Ġà·Ħ à¶©
Ġà¶¢ à¶»à·Ĭ
à¶Ķà¶ºà·ıà¶§ à¶Ńà·Ĭ
Ġà·ĥà¶¯ à·Ħà¶§à¶¸
Ġà¶© à·Ĳ
Ġà·ĥà·Ĳà¶Ńà¶´à·Ķ à¶¸à·Ĭ
Ġà¶½ à·ľà¶ļà·Ĭ
Ġà¶¯ à¶ºà¶ļà·Ŀ
Ġà¶¯à·ļà·ģ à¶´à·ıà¶½
à¶¯ à·ĳ
it le
Ġà¶ħà¶º à¶ľà·ļ
Ġà¶¯à·Ľ à·Ģà¶º
Ġà¶ļà·Ĳ à¶©à·Ķ
y pe
Ġà¶ħà¶½à·Ĭà¶½ à¶ľà¶Ńà·Ĭà¶Ńà·ı
Ġà¶ºà¶± à¶ļà·ľà¶§
Ġà¶´à·ľà¶½à·ĵ à·ĥà·Ĵà¶º
à¶¸à·ıà¶¢ à·Ĵà¶ļ
Ġà¶Ńà¶¸à¶±à·Ĭ à¶ľà·Ļ
Ġà·Ħ à·Ģà·ĥ
Ġà¶º à·ļ
à¶´à·Ĳ à¶Ńà·Ķà¶¸à·Ĭ
Ġà¶ļà·Ķà¶¸ à¶ļà·Ĭà¶¯
Ġà¶¯à·Ķà·Ģ à·Ģ
Ġà¶±à·ıà·Ģ à·Ĵà¶ļ
Ġà·Ħà·ľ à¶½à·Ĭ
Ġà¶¯à·Ĳ à¶©à·Ĵ
Ġà¶ļà·Ķ à¶«à·ı
Ġà¶Ĩà¶» à¶Ĥà¶łà·Ĵ
Ġà¶ļà·Ĵà¶ºà¶½ à·Ģà¶Ńà·Ĭ
Ġà¶Ńà¶» à·Ħà·ı
Ġà¶´à·ľà¶©à·Ĭ à¶©
à¶¸à¶ľà·Ķ à¶½
Ġà¶ĳ à·ĥà·ļ
Ġà¶¶à¶½ à¶´à¶Ńà·Ĭ
à·ĥà·Ķ à¶¯à·Ķ
Ġà¶Ĩ à·Ģà¶§
Ġà¶Ńà·Ĵà¶º à¶½
Ġà¶¸à·Ĳà¶»à·Ķ à¶±à·ı
Ġà·ĥà¶» à¶½
o k
à·Ħà·Ļà¶± à¶Ĥ
Ġà¶¸à¶ľà·Ķ à¶½
Ġà¶´ à¶¸à¶±
Ġà¶ļà·Ĭ à¶½à·Ļ
à·Ħ à¶±à¶ļà·Ĭ
Ġà¶±à·Ĵà¶¯à·Ħ à·ĥ
à·Ħà·Ĳà¶¸à¶¯ à·Ļà¶ºà¶ļà·Ĭà¶¸
Ġà¶ļà·Ĵ à·Ģà·ļ
Ġà¶±à·Ĵ à·Ģà·ıà·ĥ
Ġà¶´à·ľà¶½à·ĵ à·ĥà·Ĵà¶ºà¶§
Ġà¶ļ à·Ĳà¶±à·Ĭ
à·ģ à¶¶à·Ĭà¶¯
Ġà¶ļà·Ĳ à¶½à·ļ
Ġà¶¸ à·Ļà¶±à·Ĭ
Ġà¶ľ à¶Ńà·Ĭ
à¶´à·Ĵà¶»à·Ĵ à¶Ńà·ı
Ġà·Ģà·Ļà¶±à·Ĭà¶± à¶¸à·Ĭ
à¶ľà¶±à·Ĭà¶± à·Ļ
Ġà¶Ńà·Ĵà¶¶à·Ķ à¶«à·ļ
Ġà·Ħ à¶Ń
Ġà·ĥà¶Ĥà¶ļà·ĵ à¶»à·Ĭà¶«
à¶ħ à¶±à·Ķ
à¶Ķ à¶Ńà¶±
Ġà¶¸à·ļà¶ļ à·Ļ
à·Ħ à¶©
à¶ļà·ľ à·Ħà·Ļà¶±à·Ĭà¶¯
Ġà¶¯à·Ĵ à·Ģà·Ķà¶»
à¶º à·ĵ
Ġà¶Ĩ à·Ħà·Ĭ
i o
Ġà¶¯à·ĵ à¶½
Ġà¶±à·ľ à¶¸à·Ĳà¶Ńà·Ĵ
Ġà¶»à·Ħ à·ĥà¶ļà·Ĭ
Ġà·Ħà·Ĳ à¶¯à·Ĵà¶½à·ı
Ġà¶Ĵ à·Ģà¶§
Ġà¶Ĩ à·ģà·Ĭ
Ġà¶¢à·ļ à¶¸à·Ĭà·ĥà·Ĭ
Ġà·Ģ à¶±à·ļà¶±à·Ļ
à¶ľ à¶±à·Ĵà¶ºà·Ĵ
Ġà¶ĩ à¶½à·Ĭà¶½
Ġà¶¢ à·Ĳ
à¶º à¶Ńà·Ĭ
Ġà¶±à·ıà¶ºà¶ļ à¶ºà·ı
à¶¸à·Ĵ à·ĥà·Ĭ
à¶¸ à¶ł
Ġà¶Ńà·Ĵà¶º à¶±à·Ĭ
Ġà¶ļà¶»à·Ķà¶«à·ıà¶ļà¶» à¶½
Ġà·Ģà·Ĳ à¶½
Ġà¶Ķ à·Ħà·Ļ
Ġà¶±à·Ĳà¶Ńà·Ĵ à·Ģà·Ļà¶ºà·Ĵ
Ġà·ĥà·ľ à¶½à·Ĭà¶¯à·ı
Ġà¶ĩà¶¸ à¶Ńà·Ĵ
Ġà¶ºà·Ŀà¶¢ à¶±à·ı
Ġà¶ł à¶±à·Ĭà¶¯à·Ĭ
Ġà·ĥà·ı à¶°à·ıà¶»à¶«
Ġà¶¶ à·ĵà¶¸
à¶´à·Ĵ à¶Ńà·ıà¶±à·Ĭ
Ġà¶´à·ıà¶» à¶§
Ġà¶Ńà·Ķ à¶¸à·ı
Ġà¶ľà·Ĵà¶ºà·ı à¶§
Ġà¶Ńà¶Ńà·Ĭ à·Ģà·Ļ
Ġà·Ģ à¶§à·Ĭà¶§
Ġà¶Ńà¶Ńà·Ĭà·Ģ à¶ºà¶§
l y
à¶´ à¶»à·ĵà¶ļà·Ĭà·Ĥ
Ġà¶ľà¶±à·ĵ à·Ģà·Ĵ
Ġà¶¯à·Ļà¶±à·Ĭà¶± à¶§à¶¸
à¶ļà·ı à¶¸
Ġà¶¯à·Ĳà¶±à·Ķ à¶±à·ı
à¶Ĩ à¶ºà·Ķà¶¶à·Ŀà·Ģà¶±à·Ĭ
à¶±à·Ĭ à¶»à·Ŀ
Ġà¶¶à¶½à·ıà¶´à·ľà¶»à·ľ à¶Ńà·Ĭà¶Ńà·Ķà·Ģ
Ġà¶¯à·Ļà¶´à·ı à¶»à·Ĭà¶Ńà¶¸à·ļà¶±à·Ĭ
Ġà·ĥà·Ĭà·Ģ à¶·à·ıà·Ģ
Ġ à·Ļà¶±
Ġà¶ĭà¶´ à¶¯à·ļà·ģ
à·Ķà·Ģ à·ľà¶Ńà·Ĭ
à¶§ à·ļ
Ġà¶ļà·Ļà¶±à·ı à¶§
à¶» à·Ļà¶±à·Ĭ
Ġà¶±à·Ĳà¶Ńà·Ĭà¶Ń à¶Ĥ
à¶¯à·Ĵ à¶±à·Ĭà¶±à·ļ
Ġà·Ģà¶½ à¶¯à·ĵ
à¶ħà·Ģà·Ķ à¶½à¶ļà·Ĭ
Ġà¶±à·Ĵà¶ºà·Ŀ à¶ľ
Ġà·Ģ à¶±à·Ĭà¶±à·ļ
Ġà·Ģà·ıà¶»à·Ĭ à¶®à·ı
Ġà¶¸à·ļà¶ļ à¶ºà·Ĵ
, à¶ħà¶´à·Ĵ
Ġà¶¯à¶±à·Ĭà¶± à·ı
Ġà¶īà¶½à¶ļà·Ĭà¶ļ à¶º
Ġà¶´à·Ĭ à¶»
à¶´à·Ļ à¶»
à·ĵ à·Ģà·Ĵ
Ġà¶ĩ à¶¯à·Ķà¶¸
Ġà¶ľ à¶Ł
Ġà·Ĥ à·Ŀ
Ġà¶ħà¶ļ à¶¸à·Ĳà¶Ńà·Ĵ
à·Ķà·Ģ à¶»à·Ĭ
Ġà¶ļà·Ĵà¶º à¶¸à·Ķ
à·Ħà·ı à¶¸
à¶ľà·Ļà¶± à·Ħà·Ĵà¶»
Ġà¶ħà·Ģ à¶°à·ıà¶±
Ġà¶¯à·Ĵ à¶ľà·ļ
Ġà¶ľà·Ļà¶± à·ıà·Ģ
Ġp ro
Ġà·Ĥ à·Ļ
à¶ļ à¶¸à¶§
à·Ĩà·Ĵ à·ĥà·Ĭ
Ġà·ĥà·Ĭà¶® à·Ĵ
Ġà¶´à·ĺ à¶®à·Ĵ
Ġà¶ħ à¶¯à·Ķà¶»
à¶ĳ à¶ļà·ļ
Ġà·Ļ à·Ģà¶±à·Ĭà¶±
Ġà¶ĩà¶Ńà·Ķ à·ħà·Ķ
i ve
Ġà¶» à·ĥà·ı
Ġà¶ħà¶±à·Ĭà¶Ń à¶»à·Ĭ
Ġà¶īà¶½à·Ĭà¶½ à¶±à·Ģà·ı
Ġà·Ħà·Ĳà¶¸ à¶Ńà·Ĵà·ĥà·Ĭà·ĥà·Ļà¶¸
Ġà¶¯à·Ļà·Ģà·Ĵà¶º à¶±à·Ĭà¶§
Ġà¶ĳà¶ļ à¶ļà·Ĭà¶¯
à¶ľ à¶Ńà·Ĭà¶Ńà·Ķ
Ġà¶´à·ľ à¶¯à·Ķ
Ġà¶¸à·ı à¶°à·Ĭ
ag e
. à¶¸à¶¸
Ġà¶Ńà·Ŀà¶» à¶±à·Ĭà¶±
à·Ķ à¶±à·ļ
Ġà·ģà·ı à¶½à·ı
à·ı à¶¯
à¶ł à¶»à·Ĭ
à¶½à¶±à·Ĭ à¶©à·Ĭ
or d
à¶ļà¶»à·Ķ à¶±à·ı
Ġà¶¢à·ı à¶Ńà·Ĵà¶º
Ġà·Ħà·Ĳà¶¸ à·Ģà·Ļà¶½à·ıà·Ģà·Ļà¶¸
à¶ļ à¶¯
Ġà¶Ńà·ļà¶»à·Ķ à¶±à·ıà¶¯
à¶Ńà¶¸à·Ķà·ĥà·Ļ à¶§
Ġà¶¶ à¶±à·Ĵ
à·Ħ à·ĸ
Ġà¶ĩ à¶´
Ġà¶ļà·Ķ à¶½à·Ĵà¶ºà¶§
Ġà¶ļà¶³ à·Ģà·Ķà¶»
Ġà¶ļà·ĵ à·Ģà·ı
Ġà¶ĩà·Ħà·Ķ à¶±à¶¯
à¶± à¶Ńà·Ĭ
Ġà·ĥà¶Ĥ à¶¥à·ı
Ġà¶¸à·Ŀà¶© à¶ºà·ı
à¶ħ à¶Ńà¶±
b o
Ġà¶¯à·Ļà¶±à·Ĭà¶± à¶¯
Ġà¶»à·ĥà·Ĭà·ĥ à·ıà·Ģà¶ļà·Ĭ
Ġà¶¶à·ı à¶ľà¶ºà¶ļà·Ĭ
à¶ľà·Ħ à¶±à·Ĭà¶±
Ġà·ĥà·Ĳ à¶¸
Ġà¶Ńà·Ĵà¶º à·Ļ
à¶¸à·Ķ à·Ģà·ı
Ġà¶¸à¶Ńà¶ļ à¶º
à·ĳà¶±à·Ĭ à¶ľà·Ĭ
Ġà¶ľ à¶¸à·Ĭ
à¶ľà·ľ à¶±à·Ķà·Ģ
Ġà¶īà·ĥà·Ĭà¶ļà·Ŀ à¶½à·Ļ
à¶ĩ à·ĥà·Ĭ
Ġà¶ľà·Ĳà¶± à¶Ńà·Ĭ
à¶¢à·ļ à¶±à·Ĭ
e ar
Ġà¶· à¶º
Ġà¶¸à·ĸ à¶½à·Ĵà¶ļ
Ġà·ĥà¶§ à¶±
Ġà¶Ńà¶¯ à·Ĵà¶±à·Ĭ
i pp
Ġà¶ļà¶± à¶ľà·ı
à·Ħà·Ĳà¶¸à·Ŀ à¶§à¶¸
Ġà¶´à·Ĵà¶±à·Ĭ à¶Ńà·Ķà¶»
à¶»à·Ĵ à·Ĩà·Ĭ
Ġà¶±à·ľ à·Ģà·Ļà¶±à·Ĭà¶±
à·Ģ à¶ľà¶±à·Ĭà¶±
à¶ħ à¶·
Ġà¶ĳà¶± à¶ļà·ľà¶§
à¶½à·Ĵà¶º à¶§à·Ĭ
Ġà·Ħà·Ĵà¶Ńà·Ķà·Ģ à¶¯
Ġà¶±à·Ĵà¶»à·Ĭà¶· à·ĵà¶Ń
à·Ģà·Ĳ à¶©à·ļ
à¶½à·Ĭà¶½ à·Ļà¶±à·Ĭ
à¶¶à·ľ à¶»à·Ķ
Ġà¶Ķà¶ºà·ı à¶¯
à¶Ķà·Ħà·Ķ à¶ľà·Ļ
Ġà¶ĭà¶Ńà·Ĭà·ĥ à·Ģ
Ġà·ĥà·Ķ à¶¯à·Ĭà¶¯
à·Ģ à¶§à·Ĭà¶§
Ġà·Ħà·ļ à¶Ńà·Ķ
Ġà·Ħà·Ĳà¶ļà·Ĵ à¶ºà·ıà·Ģà¶ļà·Ĭ
à¶±à·Ĵ à¶»à·Ĭ
Ġà¶¸à·Ħ à¶Ńà·ı
ind ow
Ġà¶ľà¶±à·Ĭà¶± à¶¯
à¶½à·ĵ à¶±
Ġà¶ļà·Ĭ à¶½
Ġà¶ħà¶¸à·Ĭà¶¸ à·Ģ
Ġà·Ħà¶ºà·Ĵà¶º à·Ļà¶±à·Ĭ
à¶¸à·Ĵ à¶½à·Ĵ
Ġà¶ł à·Ļà¶ļà·Ĭ
Ġà¶ħà·Ģ à¶¯à·Ĵ
à·ıà·Ģ à·Ĭ
à¶´à·Ĳà·Ħà·Ĳà¶¯à·Ĵ à¶½à·Ĵ
Ġà¶¸à·ĺ à¶¯à·Ķ
Ġà·ĥà¶¸à·Ĭ à¶´à·Ĭ
à¶¶ à·Ļà¶½à·Ĭ
Ġà¶ľà·Ĵ à¶±à·Ĭà¶±
à·Ģà¶» à¶ºà·ı
Ġà¶¸à·Ļà·Ħà·Ļ à¶º
Ġà¶¯ à¶¬à·Ķà·Ģ
Ġà¶ī à·Ģ
Ġà¶ļ à¶±à·Ģà·ı
Ġà·ĥà·ı à¶ļà·Ĭà¶ļ
Ġà¶´à·Ĵà¶§à·Ĵ à¶´à·ĥà·Ĭà·ĥà·Ļ
Ġà¶¶à·ľ à¶Ńà·Ĭà¶Ńà¶¸
âĢį à¶Ńà·Ĵ
Ġà¶ħà¶Ń à·Ħà·Ĳà¶»
h o
Ġà¶¶à·Ĵ à·Ħà·Ĵ
Ġà¶ĭà·ĥ à·ıà·Ģ
Ġà¶º à¶ļà·Ĭà·Ĥ
à¶ħà¶±à·Ĭà¶Ńà·Ĵ à¶¸
à¶ļà·Ĭà¶ļ à·ıà¶»
Ġà¶Ńà·ļà¶»à·Ķà¶¸à·Ĭ à¶ľà¶±à·Ĭà¶±
Ġà·Ħà¶¸à·Ķà·Ģ à·ĵà¶¸
Ġà¶»à·Ħ à·ĥ
Ġà¶ļ à¶§à·Ķ
Ġà¶¯ à·Ķà·Ģà¶§
Ġà¶±à·Ĵ à·ĥà·Ĳà¶ļà·Ģà¶¸
Ġyou r
Ġà¶ĳà¶ļà¶ļà·Ĭ à¶¸
Ġà¶Ĩ à¶ļà·ıà¶»à¶º
Ġà¶ļ à¶±à·Ļ
à·Ģà¶» à¶ºà·Ļà¶ļà·Ĭ
à·ģ à·ıà·Ģ
Ġà¶ļà·Ĳà¶¸à¶Ńà·Ĵ à¶¸
à¶´ à¶«à·Ĵà·Ģà·Ĵ
Ġà¶¯ à·ĳ
Ġà¶ļà·Ĳ à¶»à¶ļ
à¶ºà¶ļ à¶ºà·ı
Ġà¶Ńà·Ĵà·ĥà·Ĭà·ĥ à·Ļ
Ġà¶¶à¶½ à¶ºà¶ļà·Ĭ
Ġà¶ĭ à¶»
Ġà·Ħ à·ıà¶»
à·Ģà·Ķ à¶¸
Ġà·Ģà·Ķ à¶±à·Ķ
Ġà¶´à·Ħ à¶Ń
ak e
à¶±à·Ķ à¶ļà·ĸ
Ġà¶¸à¶» à¶½
à·ĥà·Ĵà¶ºà·ı à¶±à·Ķ
à¶¸à·Ļ à·Ħà·Ļà¶¸
Ġà·Ģà·Ĵà¶¯à·Ĵà·Ħ à¶§à¶¸
Ġà¶īà¶© à¶¯à·Ļà¶±à·Ĭà¶±
Ġà¶ļà·ľà·Ħà·Ļ à¶Ńà·Ĭà¶¸
Ġà¶ľà·Ļà¶± à·ıà·Ģà·ļ
as s
à¶±à·Ĵ à¶¸à·Ĵ
Ġà¶ĭ à¶±à·Ĭà¶±à·ļ
à¶º à¶ļà·ļ
à·ĥ à¶ºà¶ļà·Ĭ
Ġà¶ļà·Ĵà·ĥà·Ĵ à¶¯à·Ļà¶ºà¶ļà·Ĭ
Ġà¶ħà¶¸à·ı à¶»à·Ķà·Ģ
, à¶Ĵà¶ļ
âĢį à¶±à·Ĵ
à·Ļ à¶ºà¶ļà·Ĭ
Ġà·Ĩ à·ļ
Ġà·Ħà¶¸à·Ĭà¶¶ à·Ļà¶±à·Ĭà¶±
Ġà¶ļà·Ļà¶½à·Ĭà¶½ à·Ģ
Ġà¶Ńà·ıà¶Ńà·Ĭà¶Ń à·Ļ
à¶Ń à·Ĳà¶±à·Ĭ
Ġà¶Ĩà¶Ńà·Ĭà¶¸ à¶º
Ġà¶ĭ à¶½à·Ĭ
à·Ħ à¶»à·Ķ
Ġà·Ħà·Ĵ à¶»à·Ĵ
à¶ĳà¶ļ à·Ļà¶±à·Ĭ
à¶Ķà·Ģà·Ķà¶±à·Ĭ à¶ľà·ļ
à¶ĳ à¶±à·Ĭ
Ġà¶¢à·ļ à¶ļà·Ĭ
à¶ĳ à¶¸
âĢ ĵ
Ġà¶¯à·Ĵ à¶±à·ı
Ġà·ĥ à·Ļà¶±à·Ĭ
g in
à¶Ńà·ļ à¶»à·Ķ
Ġà¶ļà¶½à·ı à¶§
à·ĥà¶¸ à·ıà·Ģ
Ġà¶ľà·Ĵà¶º à·Ļ
Ġà¶ļà·ľ à¶±à·Ĭà¶¯à·ļ
Ġà¶¯à·Ĵ à¶±à·Ķ
à¶¶à·Ŀ à¶°
Ġà·Ħà·Ĵ à·ĥ
Ġà¶ļà·ıà¶§ à·Ħà¶»à·Ĵ
Ġà·Ģà·Ĵ à¶·à·ı
Ġà¶´à·Ĵà¶§à·Ĵà¶´à·ĥà·Ĭà·ĥ à·Ļà¶±à·Ĭ
Ġà¶¯à·Ĵ à¶ľà·Ķ
à¶ļà¶½à·ı à¶¶à¶»
Ġà¶ĭ à¶ľà¶±à·Ĭà¶±
à·ģ à·Ŀ
t r
âĢį à·Ħ
à¶ļ à¶ºà¶§
Ġà·Ħ à·Ļà¶±à·Ĭ
à·Ħà·Ĵà¶Ń à¶±à·Ĭà¶±
à¶§ à·ĥà·Ĭ
Ġà¶ľ à¶±à·Ĭ
à¶ļà·Ĭà·Ĥ à·Ĵ
Ġà¶ł à·Ķ
Ġà¶¸à·Ĳ à·ĥà·Ĭà·ĥ
Ġà¶±à¶»à¶ļ à¶¸
à¶½ à¶±
Ġà·Ģ à¶»à·Ļ
à¶¸à·Ĵ à¶Ń
à¶±à·ı à¶§
Ġà¶¸à·ľ à·ħ
à¶ĳ à·Ħà¶±à·Ļà¶¸à·Ĭ
Ġà¶´ à·Ģà·ĥ
Ġà·ģà·Ĵ à¶½à·Ĭ
Ġà¶¯à·Ĳà¶ļà·Ĭà¶ļ à·ľà¶Ńà·Ĭ
Ġà¶± à¶´à·Ķà¶»à·Ķ
Ġà¶ļ à¶½à·Ŀ
à¶ļ à¶ºà·Ĵà¶±à·Ĭ
Ġà¶ļà·Ĭ à·Ĥ
Ġà¶ľà·ľ à¶½à·Ĭà¶½à·Ŀ
Ġà¶¯à¶»à·Ĭà·ģ à¶±à¶º
Ġà¶Ńà·Ķà¶±à·Ĭ à·Ģà·Ļà¶±à·Ĵ
à¶ħ à¶´à·Ĭ
à¶ Ī
Ġà·ĥà·Ĳà¶ļ à¶ºà¶ļà·Ĭ
Ġà·Ħà¶¯à·Ĵ à·ĥà·Ĭà·ĥ
Ġà¶±à·ľà¶¸à·Ĳ à¶Ń
à¶» à·ĳà¶±à·Ĭà¶ļà·Ĭ
Ġà¶ļà·Ļà¶±à·Ļà¶ļà·Ĭ à¶¯
Ġà¶ħà·Ģà·ĥà·Ĭ à¶Ńà·ıà·Ģà¶ļà·Ĭ
Ġà¶¯à·Ļ à·Ģà¶½à·Ĭ
Ġà¶ļà¶´ à¶½à·ı
Ġà¶¸à·Ĳ à¶ļà·Ĭ
Ġà¶ļà·Ĳà¶©à·Ĵ à¶½à·ı
à¶±à·ı à¶´à¶Ńà·Ĵ
Ġà¶±à·Ĳà·Ģ à¶Ńà·Ĵ
Ġà¶ļà¶»à·Ķ à¶±à·ı
Ġà¶½à·Ĳà¶¶ à·Ļà¶±à·Ĭà¶±à·Ļ
Ġà¶¶ à¶»à·Ĭ
à¶´ à¶Ńà·ļ
à¶¶ à¶½à·Ĭ
Ġà·Ģà·ıà·ĥà¶±à·ıà·Ģà¶±à·Ĭà¶Ń à¶ºà·Ĵ
Ġà·Ħà¶¸à·Ķà·Ģà·Ļ à¶¸à·Ķ
à¶Ĵà¶ļ à¶¯
Ġà¶¯à·Ļ à¶¸à·ı
Ġà¶ļà·ĳ à¶½à·Ĭà¶½à¶ļà·Ĭ
Ġà·ĥà·ı à¶¸à·ıà¶¢à·Ĵà¶ļ
Ġà¶¶à¶»à¶´à¶Ń à¶½
à·Ĵ à·Ģà·ļà¶¯
Ġà¶´à·Ķà¶¯à·Ķ à¶¸à¶ºà·Ĵ
o ve
an s
à·Ļà¶ļà·Ĭ à·ĥà·Ĵ
Ġà·ĥà¶±à·Ĭà¶° à·Ĭ
âĢį à¶ľ
Ġà·ģà·Ĵ à·Ĥà·Ĭ
à¶ļà·Ĵ à¶»à·ĵà¶¸
Ġà¶ĭ à¶ľà¶±à·Ĭà·Ģà¶±à·Ĭà¶±
Ġà¶¯à·Ĵ à·Ħ
Ġà¶¸à¶±à·Ĭ à¶¯à·Ĵ
Ġà¶ħ à¶½
Ġà·ĥà¶¸à·Ĭ à¶·
Ġà¶ļà·ĸ à¶©
Ġà¶´à·Ļà¶¸à·Ĭà·Ģ à¶Ńà·ı
Ġà¶» à¶³
à¶ĩà¶º à¶ľà·ļ
à·Ģà·Ĳ à·ĥà·Ĵà¶º
Ġà¶¸à·ĸ à¶±
Ġà¶ľà¶« à¶±à¶ļà·Ĭ
à¶´ à·Ĳà¶±
Ġà·Ĩ à·Ŀ
Ġà¶¶à¶§ à·Ħà·Ĵà¶»
à¶» à¶ºà¶±à·Ĭ
3 00
à·Ħ à¶¬
à¶»à·ı à¶¯à·ı
Ġà·Ħà·ľ à¶»à¶ļ
Ġà¶¸à·ı à¶¸à·ļ
à¶Ĩ à·Ģà·Ĭ
à¶´ à¶¯à¶º
Ġà¶ľà·Ĳ à·Ħà·Ķà·Ģ
l d
à·ĥà¶Ĥ à·ĥà·Ķà¶±à·Ĭ
à¶ºà·ı à¶¸
Ġà¶¶à·Ĵà¶º à¶»à·Ĭ
Ġà¶¸à·Ĳ à¶¢à·Ĵà¶ļà·Ĭ
Ġà¶ļà·Ģà·Ķ à·ħà·Ķ
à·Ģà·ı à¶¯à¶º
Ġà¶ĳà¶ļà·Ĭà¶ļ à·Ļà¶±à·ı
Ġà·Ģà·Ĵà·ģà·Ĭà·Ģà·ıà·ĥ à¶ºà¶ļà·Ĭ
Ġà¶´à·Ĵà¶§ à·Ķà·Ģ
à¶´à·Ĭà¶´ à·Ķà·Ģ
Ġà·Ģ à¶¸à·Ĭ
Ġà¶¯à·Ĳà¶ļà·Ĭà¶ļ à¶¸
à·Ģà·Ļ à¶¸à·Ķ
Ġà·Ļ à·ĥà·ı
Ġà¶ħà¶· à·Ĵà¶ºà·Ŀ
Ġà¶´à·Ħà·Ķ à¶ľà·Ĵà¶º
Ġà¶ĳà¶ļ à¶ļà·Ĵà¶±à·Ĭ
à·Ĵ à¶½
Ġà¶ħ à¶ºà·ļ
à¶»à·Ĭ à¶¢à·Ĭ
Ġà·Ĩà·ľ à¶§à·Ŀ
Ġà¶´ à·ĳ
Ġà¶± à·ĥà·ı
à·Ģà·Ĳà¶» à¶¯à·Ĵà¶ºà·Ĵ
à¶ļà·ıà¶»à¶º à·ľ
Ġà¶¶à·Ŀà¶¸à·Ĭà¶¶ à¶ºà¶ļà·Ĭ
à¶©à·ľ à¶½à¶»à·Ĭ
à¶ļà·ľà¶½à·Ĭà¶½ à¶±à·ļ
Ġà¶Ńà·Ĵ à¶»
Ġà·Ģà·Ļà¶±à·Ĭà¶± à¶¯
à¶Ńà·ı à¶¸à¶Ńà·Ĭ
Ġà¶´à·Ģà·Ķ à¶½à·Ļ
Ġà·Ģ à¶±à·Ļà·Ģà·ı
Ġà¶ħ à¶Ńà·Ķ
Ġà·Ĩà·Ĵà¶½à·Ĭ à¶¸à·Ĭ
Ġà¶¶à¶º à·Ģà·Ļà¶½à·ı
Ġà·ĥà¶½ à¶ļ
Ġà¶¸à·Ħ à¶Ńà·Ĭ
Ġà·Ħà·Ļ à¶¸à·Ĵà¶±à·Ĭ
i z
à¶ĩ à¶½à·Ļà¶ļà·Ĭà·ĥà·Ĭ
Ġà¶¯ à·Ŀà·Ĥ
à¶Ĵà¶ļ à¶Ńà·Ĭ
Ġà¶´à·Ĳà·Ħà·Ĳà¶¯à·Ĵ à¶½à·Ĵà¶ºà·Ĵ
Ġà¶ļà¶»à¶± à¶ļà·ľà¶§
Ġà·ĥà·Ĵà¶º à¶¯à·Ĵà·Ģà·Ĵ
à¶±à·Ĭà¶° à¶±
à·Ģà·ı à¶©à·Ĵ
à¶¸ à·ĥà·Ĭ
Ġà¶´ à¶½à·Ĵ
à¶½à·Ĭà¶½ à¶§
Ġà¶Ĩà¶»à·ıà¶° à¶±à·ı
Ġà¶ĩ à¶ľà·Ĵ
Ġà¶ľà¶¸à¶± à¶ļà·Ĭ
Ġà¶´ à¶łà·Ĭà¶ł
Ġà¶Ńà¶Ńà·Ĭà·Ģ à¶ºà¶ļà·Ĭ
âĢį à¶±à·ļ
Ġà¶īà·ĥà·Ĭ à¶´à·Ĵà¶»à·Ĵà¶Ńà·ı
ar l
à¶ľà¶Ńà·Ĭà¶Ń à¶¯
à¶ļà·Ĵà¶º à¶½à·ı
Ġà·Ģà·Ħ à¶ľà·Ļà¶±
i e
Ġà¶ļ à¶¶à·ı
à¶ħà¶±à·Ĵà·Ģà·ıà¶»à·Ĭ à¶ºà·Ļà¶±à·Ĭà¶¸
Ġà¶´à·ı à·ĥà·Ĭ
à¶¶à·Ĭ à·ĥà·Ĭ
Ġà¶ĩà¶Ńà·Ķà·ħ à¶Ńà·Ĭ
Ġà¶ľà·Ļà¶± à·Ĵ
Ġà¶¸à·ľà·Ħà·ľ à¶Ńà·ļ
Ġà·Ħà·ľà¶» à·Ļà¶±à·Ĭ
Ġà¶±à·Ĳ à¶ľ
Ġt itle
Ġà¶ľ à·ĺ
Ġà·Ģà·Ļ à¶¸à·Ĵà¶±à·Ĭ
Ġà¶ľà·Ĵà·Ħà·Ĵ à¶½à·Ĭà¶½
Ġà·ĥà·Ĳ à¶»à·ļ
à¶ļà·ıà¶» à·Ĵà¶ºà¶ļà·Ĭ
à·ĥà·Ĵ à¶¸à·Ĭ
Ġà·Ħà·Ļ à¶ºà·Ĵ
Ġà¶±à·Ĵ à¶¸
à·ĥà·Ĵà¶º à¶½à·Ĭà¶½
Ġà¶¢ à·Ĵà¶±à·Ĭ
à·Ģà·ĥ à¶»
à¶ĩ à¶ľà·ļ
Ġà¶Ĩ à¶ºà·Ĵ
Ġà¶¸à¶±à·Ķà·ĥà·Ĭà·ĥ à¶ºà·Ŀ
à¶±à·Ĵ à¶ļà¶±à·Ĭ
à¶¯à·Ļà·Ģà·Ĵà¶º à¶±à·Ĭ
Ġà¶Ńà·Ķ à¶±à¶ºà·Ĵ
Ġà¶¯à·Ĵ à¶ļà·Ĭà¶ļ
à¶¸à·Ĭà¶¸à·Ĭ à¶¸à·Ĭ
Ġà¶¢à·ĵà·Ģà·Ĵà¶Ń à¶ºà·ļ
à¶ĭ à¶±à·Ĭà¶§
Ġà·Ħ à¶Ńà·Ķà¶»
Ġà¶łà·Ŀ à¶¯à¶±à·ı
Ġà·ĥà·Ħ à¶ľà¶Ń
à·ĥà·Ĭ à¶§à¶±à·Ĭ
Ġà¶¸à·Ĵ à¶½à·Ĭ
Ġà¶¢ à·ıà¶±
Ġà¶ļà·Ļ à¶»
à¶Ĥà¶ľ à¶¸
Ġà¶ħà¶±à·Ĵ à·Ģà·ı
à·Ĩ à¶»à·Ĭ
Ġà¶ħà¶»à¶¸à·Ķ à¶«
Ġà¶¢à·Ĵ à¶¸à·Ĭ
Ġ X
à¶· à·ĸà¶Ń
Ġà¶Ńà·ļà¶» à·Ļà¶±à·Ģà¶¯
Ġà¶ĩà¶±à·Ĭ à¶¢
Ġà¶ļà·ı à¶ľà·Ļ
à¶ĭ à¶¯à·ļ
Ġà·ĥà·Ĵ à¶Ń
à·Ģà·Ļà¶± à·ĥà·Ĭ
Ġà¶ºà·Ĳ à·Ģà·Ĭà·Ģà·ı
Ġà·Ģà¶º à·ĥà¶ļ
à¶¶ à·Ħ
à·Ģà·Ĵ à·Ħà·Ĵ
Ġtransl ate
Ġà¶´à·Ĵ à·Ħà·Ĵà¶º
Ġà·Ģ à¶±à·Ķ
à¶± à¶ľ
à¶¶ à·ĥà·Ĭ
Ġà¶±à·ı à¶ļà·Ĵ
à¶´à·Ĳ à¶§à·Ĵà¶ºà·Ŀ
Ġs h
Ġà¶ļà·ıà¶» à¶«à·ıà·Ģ
Ġà¶ļà·ıà¶±à·Ĭ à¶Ńà·ıà·Ģà¶ļà·Ĭ
Ġà·Ģà¶» à¶ļà·Ĭ
à·ĥà·Ĭà¶§ à·Ŀ
Ġà¶ĳà¶ļà·Ĵà¶±à·Ļ à¶ļà·ı
Ġà¶ļà·Ļà¶½à·Ĭà¶½ à·Ŀ
à·Ķà·Ģà¶±à·Ĭ à¶§
Ġà¶¸à·Ħà¶Ńà·Ĭà¶Ń à¶ºà·Ŀ
à¶´ à·Ħà¶»
Ġà¶ĭ à¶±à·Ĭà¶±à·ı
Ġà¶ļà·ļ à¶ļà·Ĭ
Ġà¶¶ à·Ħ
Ġà¶¶à¶½ à¶±à·Ĭà¶±à·Ļ
Ġà¶¯à·Ļà¶ºà¶ļà·Ĭ à¶¯
Ġà¶ĩà¶Ńà·Ĭà¶Ń à¶ļà·Ĭ
" à¶¸à·ļ
âĢį .čĊ
Ġà¶ĩ à¶¸à·Ļ
Ġà¶¸à·Ŀà¶© à¶ºà·Ŀ
Ġà¶ĭà·ĥà·Ĭà·ĥ à¶±à·Ĭà¶±
Ġà¶±à·Ĵà¶½à¶°à·ıà¶» à·Ĵà¶ºà·Ļà¶ļà·Ĭ
à¶ļà¶½à·Ĭ à¶´
à¶ĳà¶ļ à¶ºà·Ĵ
Ġà¶´à¶§à·Ĵ à¶ľà¶Ń
à¶±à·Ģà¶Ńà·Ĵ à¶±à·Ĭà¶±
Ġà·ĥ à¶ľ
Ġà¶ľà·ı à¶«à¶ļà·Ĭ
Ġà¶ºà·ıà¶½à·Ķà·Ģ à·Ŀ
à¶Ĥ à¶ļà·ıà¶»
Ġà¶ľà·ı à¶«
à¶» à·ĵà¶¸à¶ļà·Ĭ
à·Ģà·ļ à¶¯à·ĵ
Ġà¶½à·ĥà·Ĭà·ĥà¶± à¶§
Ġà¶¸à¶±à·Ĭ à¶¯à·ı
à¶ľ à¶Ńà·Ĭà¶¸
à¶±à·Ģ à¶§
à·ĥà·Ĵ à¶ľà¶Ń
à¶¸à·Ĳ à¶©à¶¸à·Ĭ
à¶¸ à¶½
à·ĥ à¶Ńà·Ĵ
Ġà·Ħà·Ĵà¶Ń à¶§
à¶ħ à¶¸à¶Ńà¶ļ
Ġà¶´ à¶©à·Ĵ
Ġà·Ģà·Ĵà¶¯à·Ĵà¶º à¶§à¶¸
Ġà¶Ķà·Ħà·ļ à·Ģ
- à¶ħà¶´à·Ĵ
Ġà¶¶à·Ĵ à¶Ńà·Ĭà¶Ń
à·Ĥ à·Ĵà¶±à·Ĭ
à·Ĵà¶ºà·Ķ à¶½à¶º
à¶±à·Ĭ à¶©à·Ĭ
Ġà·ĥà¶¯à·Ĭà¶¯ à·ļ
Ġà¶ľà¶±à·Ķà¶¯à·Ļà¶± à·Ķ
Ġà·Ģà·Ħ à¶±à·Ĭ
Ġà¶¸à¶ľ à·Ħà·Ĳ
à·Ģ à¶©à·ı
à¶ļ à¶¯à·Ĵ
Ġà¶» à·Ģà¶§à·Ĭà¶§
Ġà¶Ŀà·ı à¶Ńà¶±à¶º
à·ļ à¶łà¶»
à¶ł à¶©à·Ĭ
Ġà·ĥà·Ĵà¶§à·Ĵ à¶±à·Ĭà¶±
Ġà·Ģ à¶½à·Ĭ
Ġà¶Ĩ à·ĥà¶±à·Ĭà¶±
st ar
2 2
Ġà¶ĳà¶»à·Ļà·Ħà·Ĵ à·Ģ
Ġà¶¢à¶± à¶´à¶¯
Ġà¶¸à·Ķ à¶½à·Ĭà¶¸
Ġà·Ģ à¶±à·Ĭà¶±
Ġà¶ļà·Ĵà¶º à¶±à·Ĭ
Ġà¶´à·Ķà·ħà·Ķà·Ģ à¶±à·Ĵ
Ġà¶ĩ à¶±à·ı
à¶´à·Ķ à·Ģà·ı
Ġà·ĥà·ı à¶¸
Ġà¶ħà¶º à·Ĵà¶º
à¶ļ à¶«à¶ľà·ı
à¶´à·Ĵ à·ħà·Ĵ
à¶¯à¶±à·Ĭà¶± à·ı
s ia
à¶ľ à·Ĵà¶ļ
Ġà¶ħà¶±à¶Ńà·Ķà¶» à·ļ
Ġà¶¯ à·ĵà¶¸
h at
à¶» à¶ºà·ı
Ġà·Ģà·Ĳ à·ĥà·Ĭà·ĥ
Ġà¶ħà¶Ń à¶»à·Ĵà¶±à·Ĭ
Ġà¶ºà·Ķà¶¯à·Ĭà¶° à¶º
o g
it h
Ġà·Ģ à·ĳà¶±à·Ĭ
Ġà¶ļà·ħ à·ľà¶Ńà·Ĭ
Ġà¶´à·Ĵà¶§ à·Ģà·Ļà¶±à·Ĭà¶±
Ġà¶ħà·Ģà¶½ à¶Ĥà¶ľà·Ķ
Ġà·Ħà·ľà¶ºà·ıà¶ľà¶±à·Ĭà¶± à·Ģà·ı
Ġà¶ĭ à¶Ńà·Ķà¶»à·Ķ
à¶»à·Ķ à¶±à·Ĭ
à¶»à·Ĵà¶ºà·ı à¶§à·Ĵ
Ġà¶´à·Ļà¶¸à·Ĭà·Ģ à¶Ńà·Ĵà¶º
Ġà¶Ń à¶§à·Ĭà¶§à·Ķ
Ġà¶Ĵà¶ļ à¶¸
T he
Ġà¶½à·Ĳ à·Ħà·Ĳ
à¶Ĥà¶¢à·Ĵ à¶±à·ļ
à·ģà·ĵ à¶½à¶ļ
Ġ v
Ġà¶¸ à·Ĳà¶±
à¶Ĵà¶ļ à·Ĵ
Ġà¶īà¶ļà·Ĭà¶¸à¶« à¶§
à¶ħà¶ºà·Ĵ à¶ºà·ı
à·Ģà·Ĭ à·ĥà·Ĭ
à·ĥà·Ĭ à¶ļà·Ĭ
Ġà¶ļà¶½à·Ĵà¶±à·Ĭ à¶¸
à¶ł à·ĵ
à¶ħà¶±à·Ĭà¶Ńà·Ĵ à¶¸à¶§
Ġà¶±à·Ģà¶Ńà·Ĭà¶Ń à¶±à·Ģà·ı
Ġà·ĥà·Ĵà¶¯à·Ĭà¶° à·Ĵà¶º
or n
Ġà¶ĳ à¶ºà¶§
Ġà¶ļà·ľà·Ħà·Ļ à¶§à¶¯
Ġà¶´à·Ķ à¶łà·Ĭà¶ł
à¶¢ à¶±à·ı
Ġà·ĥà·Ĵ à·Ħà·Ĵà¶º
à¶ī à·Ģà¶»
à¶½ à·Ļà¶±à·Ĭà¶±
Ġc an
à¶ľà·Ĳà¶± à·ĵà¶¸à·Ĭ
à¶ľà·ľà¶½à·Ĭà¶½ à·ľ
Ġà¶ħ à·Ģà·ıà·ĥà¶±à·ıà·Ģ
Ġ ]
Ġà¶ĳ à¶½à·Ĵ
Ġà¶¯ à¶©à·Ķà·Ģ
Ġà¶ºà·Ķ à¶ļà·Ĭ
eg ion
Ġà·ĥà·Ħ à¶ºà·Ŀ
Ġà·Ģà·Ĵà·Ħà·Ĵ à¶½à·Ķà·Ģà¶ļà·Ĭ
\ b
à¶» à·Ĳà¶±à·Ĭ
à¶¸à·ı à¶±à·Ĭà¶Ń
à¶´à·Ĭ à·ĥà·Ĭ
Ġà¶´à·Ĵà¶§ à¶´à¶Ńà·Ĭ
Ġà¶ĳà¶ļ à·Ļ
Ġà¶¸à·Ĳà¶»à·Ĵ à¶½
! "čĊ
à¶º à¶±à·ļ
Ġà¶¸ à·ĥà·Ĭà·ĥà·Ĵ
à¶ľà·ļ à¶¸
Ġà·Ģà·Ļ à¶½à·ļ
Ġà¶¶à¶½à¶±à·Ĭà¶± à¶ļà·Ŀ
Ġà·ģ à¶¶à·Ĭà¶¯
à¶»à·Ļ à¶©à·Ĭ
à¶¸ à·Ķà·Ģ
Ġà¶½ à·ĸ
à¶»à·Ĭà¶® à¶ļà¶ºà·Ĵ
Ġà¶ĳ à¶ºà·Ĵà¶±à·Ĭ
à¶½à·ı à¶»à·Ĭà¶ļà·Ĭ
à·Ģ à¶±à·Ķ
Ġà¶½ à¶ºà·Ĵà¶§à·Ĭ
Ġà¶´à·Ģà·Ķ à¶½à·Ĭ
à¶»à·ĵ à¶±à·Ĭ
Ġà¶¯à·Ļà·Ģà·Ĵà¶º à¶±à·Ĭà¶ľà·ļ
Ġà¶´à·Ĭ à¶½à·ļà¶±à·Ĭ
Ġà·ĥ à·ŀ
à¶½ à¶ļà·ļà·ĥà·Ĭ
Ġà¶¸ à¶±à·Ĭà¶¯
Ġà·Ħà·ľà¶º à¶±à·Ĭà¶±à·Ļ
à·Ģà·Ĵà·ģ à·ıà¶½
Ġà¶īà¶¯à·Ĵ à¶»à·Ĵà¶º
à¶ļ à¶¯à·ĵ
Ġà¶ħ à¶±à·Ĭà¶¯
à¶¸à·ļ à·Ģ
ĠN ew
âĢį à·Ĭ
; čĊ
à·Ģà·Ļà¶± à·Ģ
Ġà¶ļà·Ĵà·Ħà·Ĵà¶´ à¶ºà¶ļà¶§
à¶´à·Ķ à¶Ńà·ı
Ġà¶±à·Ĳà¶ľà·Ĵ à¶§
Ġà·Ģà¶ľ à¶ļà·ĵà¶¸
Ġà¶ľà¶« à¶±
Ġà¶½à·ľà¶ļà·Ķ à¶ºà·Ĵ
à¶¸à·Ĭ à¶¸à·Ĵ
Ġà¶½à·Ĳà¶¶ à·ļà·Ģà·Ĵ
Ġà¶¸à·Ļà¶ºà·ı à¶ľà·ļ
f s
Ġà¶¯ à·ĺ
Ġà¶¶ à·Ħà·Ķ
Ġà¶¸à·Ĳ à¶¯à·Ĭà¶¯
à¶« à·ĵà¶º
Ġà¶ļà·ıà¶» à¶ºà·Ŀ
à¶ļ à·Ģà·Ĭ
à¶¢ à¶±à·Ĭà¶Ń
Ġà¶Ń à¶´à·Ĭà¶´
Ġà¶¸à¶» à¶ºà·Ĵ
i p
Ġà¶ĳ à¶½à·Ĭ
Ġà¶° à·Ľ
à·Ĥà·Ĭ à¶§à·Ĵà¶ļ
Ġà¶¢ à¶½à¶º
à¶¯à·Ļ à¶ºà·Ĵ
Ġà¶¸ à·ĳà¶±à·Ĭ
Ġà·ĥà·Ĵ à¶§à·Ĵà¶ºà·ı
à·ĥà¶ºà·Ĵ à¶©à·Ĭ
à¶¸ à¶Łà·Ķ
Ġà¶¯à¶ļà·Ĭ à·Ģà¶±à·Ĭà¶±
Ġà¶º à¶ļà·ı
à¶¸ à¶±à·Ķ
ar y
Ġà¶± à¶©à·Ķà·Ģ
à¶¸à·ļà¶ļ à¶ºà·Ĵ
Ġà¶¸à·ļ à¶©
Ġà·Ģà·Ĳ à¶¯à·Ĵà¶½à·ı
Ġà¶´à·Ļà¶±à·Ĭà·Ģà¶±à·Ĭà¶± à¶¸à·Ĭ
Ġà¶ħà¶Ńà·ı à¶»à·Ĵ
Ġà¶ħà·Ģà·ģà·Ĭ à¶º
à¶´à·Ĭ à¶½
Ġà¶¶à·Ļ à¶½à·Ĭ
re at
à·ĥà·ı à·ĥà·Ĭ
Ġà¶ħà¶Ń à·ĵà¶Ń
Ġà¶ľà¶¶ à¶©
as e
à·Ģà·Ĵ à¶Ń
Ġà¶Ńà·Ĵà¶ºà·Ļà¶±à·Ģà·ı à¶¯
Ġà¶ħà¶±à·Ķ à¶ľà¶¸à¶±à¶º
Ġà¶ļà·ľà·Ħà·ľà¶¸ à·Ħà¶»à·Ĵ
Ġà¶ļà·ıà¶¸à¶»à·ļ à¶§
Ġà¶ĳà¶½ à·Ĵà¶ºà·ļ
Ġà·Ģà·Ĵà·Ģà·ıà·Ħ à¶º
à¶´à·Ĭ à¶Ń
Ġà·ĥà¶¸ à·ĸ
Ġà¶ľà·ŀà¶»à·Ģ à¶ºà¶ļà·Ĭ
us sia
Ġà·Ħà·Ĵ à¶¸à·Ĵ
à·ĥà·Ĭ à¶½à·ı
à¶° à·Ķ
Ġà¶ħà·Ħ à¶±
Ġà¶´à·ı à¶Ńà·Ĭ
Ġà·ĥà¶ºà·Ĵ à¶©à·Ĭ
Ġà¶ľà·Ĵ à¶«à·Ĵ
Ġà¶© à·ļà·Ģà·Ĵ
er y
Ġ.. ..
Ġà¶»à¶§ à·ļ
Ġà¶¸à¶ł à¶±à·Ĭ
Ġà¶ħà¶»à·Ĵ à¶±à·Ģà·ı
Ġà¶¸à·Ĵà¶±à·Ĵà·ĥà·Ķ à¶±à·Ĭà¶§
à·Ģà·Ļ à¶½à·Ĭ
en er
à·Ģà·Ĵ à¶¸
' t
à¶±à·Ĭà¶© à¶»à·Ĭ
à¶¢ à·Ļà¶±à·ĵ
à¶łà·Ĭà¶ł à·ıà¶»
Ġc l
Ġà¶¶ à¶³à·Ĵ
Ġà·Ģà·Ĵà¶¯ à·Ĵà¶ºà·ļ
Ġà·Ģà·ı à¶ºà·Ķ
Ġà¶ħ à¶Ĥà¶ľ
Ġà·ĥ à¶±à·ĵà¶´
Ġà¶¸à¶§ à¶¸
à·Ħà·ı à¶§à¶¯
à¶ļà·ı à¶ľà·ıà¶»
à·Ģà·Ĵ à¶©à·Ĭ
à·Ļ à·Ģ
Ġà¶´à·Ĳ à·Ģà·Ĳ
à·Ģà·Ĳ à¶§
âĢį à¶±à·ı
à·Ģà·ĵ à¶±à·Ĭ
oc k
à¶»à·ı à¶Ńà·Ĭ
Ġà¶»à·ļ à¶©à·Ĵà¶ºà·Ŀ
Ġà¶ļà·ľ à¶«à·Ĭà¶©
à¶ļà·Ķ à¶Ńà·Ĭà¶¸
, à·ĥà¶»à·Ĭ
Ġà¶» à¶«
à¶¶ à·Ĵà¶±à·Ĭ
as h
à·ħ à¶¸
à¶ºà·Ķà¶° à¶¸à·Ĭ
C h
Ġà¶± à¶»
à¶ļà·Ĵ à¶Ńà·Ĭ
Ġà¶Ĩ à¶łà·ıà¶»à·Ĭà¶º
Ġà¶´à·Ĳà·Ħà·Ĳà¶¯à·Ĵ à·ħà·Ĵ
Ġà¶¸à¶ľà·Ķ à¶½à·Ĭ
à¶ĭ à¶±à·ı
\ fs
à·Ĩ à·ļ
Ġà¶Ķ à·Ģà·Ķ
Ġà¶¯à·Ļà¶±à·Ĭà¶± à¶ºà·Ĵ
t p
Ġà¶ħà¶± à¶±à·Ĭ
à·Ģà·Ĳ à¶¯
Ġà·ĥ à¶Ńà·Ļà¶ļà·Ĭ
à¶¢à·ļ à·ĥà·Ķ
Ġà¶±à¶ľà¶» à¶ºà¶§
Ġà¶¸ à·Ģ
Ġà¶¯à·Ħ à¶ºà¶ļà·Ĭ
Ġà¶½à¶±à·Ĭà¶© à¶±à·Ĭ
Ġà¶Ńà·ıà¶Ńà·Ĭà¶Ń à¶ºà·Ĵ
à¶ļà·Ĭà·ĥà·Ĵ à¶¢à¶±à·Ĭ
Ġà¶Ķ à·Ĩà·Ĵà·ĥà·Ĭ
A N
à¶ļà·Ĵ à¶»à·ĵà¶¸à·Ĭ
Ġà¶ļà·ĵ à¶ºà¶¯
Ġà¶¸à·Ļà·Ħà·Ļà¶ºà·Ķ à¶¸à·Ĭ
\ an
Ġà¶Ńà·ĳà¶ľà·Ĭ à¶ľ
à¶´ à¶½à·Ĭà¶½
à·Ģà·Ĵà¶±à·ı à¶©à·Ĵà¶ºà¶ļà·Ĭ
Ġà·Ħà·ı à¶±à·Ĵà¶ºà¶ļà·Ĭ
Ġà¶ħ à¶ļà·Ĭà¶ļ
Ġ Name
Ġà·ĥà·Ļà¶½à·Ĭà¶½ à¶¸à¶ļà·Ĭ
Ġà¶ĩ à¶ľ
Ġà¶¸à·Ĵ à·ĥà¶ºà·Ĵ
à·ĥà·Ĭ à¶Ńà·Ķ
à¶» à·Ħà·Ĵà¶Ń
à¶¶ à¶§
à·Ģà·Ĳ à·ĥà·Ĵ
p h
Ġà¶¯à·ļ à·Ģà·Ĵ
à·Ģà·Ĵ à¶ļà·ıà¶»
à¶§ à·ľ
à¶±à·Ĵ à·ĥà·Ĳà¶ļà·Ģà¶¸
Ġà¶¯à·ı à¶ºà·Ĵ
Ġà¶Ńà¶¸à·Ķ à¶±à·Ĭà¶§
à·ĥà·Ķ à¶±
Ġà¶± à¶¸à·Ĵà¶±à·Ĭ
Ġà¶Ńà·Ķà¶± à¶ļà¶§
Ġà¶ħà¶Ńà·Ķà¶»à·Ķà¶¯ à¶±à·Ĭ
Ġà¶»à·ı à·Ħà·Ķà¶½à·Ĭ
Ġà¶ļà¶§à·Ĭà¶§à·Ĵà¶º à¶ļà·Ĭ
Ġà¶º à¶±à·Ķ
à·ľà¶¸ à·ĵ
à¶Ńà·Ĭà¶Ń à¶½à·Ĭ
Ġà¶Ńà¶§à·Ĭà¶§ à·Ķà·Ģà·ļ
Ġà¶Ĩ à¶½à·Ŀà¶ļà¶º
Ġà¶ľà·Ĳ à·Ħà·Ļà¶±à·Ĭà¶±
Ġà¶Ĩà¶»à¶ļà·Ĭà·ģ à·ı
Ġà¶ĩà¶Ńà·Ĭà¶Ń à·Ļ
Ġà¶īà¶Ńà·Ĵ à·Ħà·ıà·ĥ
Ġà¶ĭà¶±à·Ĭ à¶ľà·ļ
Ġà¶ħà¶© à·Ķà·Ģ
Ġà¶½à·ı à¶±à·ı
Ġà¶¸ à¶±à·Ŀ
Ġà¶ļà·ļ à¶Ń
à¶±à·Ĵà·ģà·Ĭ à¶ł
Ġà¶ī à¶Ĥà¶¢à·Ĵà¶±à·ļ
Ġà¶ļà¶´ à¶±à·Ĭà¶±
- à¶¸à·ļ
A R
à¶¢à¶± à¶ļ
Ġà¶ħà¶½à·Ĭà¶½ à¶½à·ı
à¶´à·Ĵà¶º à¶½à·Ĭ
Ġà¶±à·Ļà·Ģà·Ļà¶ºà·Ĵ à¶¯
âĢį à·Ħà·Ļ
à¶¸à¶±à·Ĭ à¶Ńà·Ĭ
Ġà¶ĩà¶¸à¶»à·Ĵà¶ļà·ı à¶±à·Ķ
à¶»à·ı à¶¢à·Ķ
à·Ģà·Ķ à¶¸à¶ļà·Ĭ
Ġà¶¸à·ľà¶±à·Ģà·ı à·Ħà¶»à·Ĵ
âĢį à¶¯à·ı
Ġà¶Ķ à¶±à·Ļ
à·Ħà·Ĳ à¶»à·ĵ
à·Ģà¶±à·Ĭà¶± à¶¸à·Ĭ
Ġà¶ħ à·Ģà·ļ
Ġà¶ļà·ļ à¶Ńà¶º
Ġà¶´à·ıà¶½ à¶ļ
Ġà·ĥà·Ļ à¶§à·Ĭ
Ġà¶ħà¶Ńà¶» à¶¸à¶Ĥ
Ġà¶ľà·ľ à·Ģà·Ĵ
à¶ĳà¶ºà·ıà¶½ à·Ģ
Ġà·Ħ à·ıà·Ģ
Ġà¶ļà·ıà·Ģ à·Ģà¶Ńà·Ĭ
Ġà¶ļà·Ĳà¶¸à·Ĳà¶Ńà·Ĭà¶Ń à·Ļà¶±à·Ĭ
à¶ľà¶» à¶§à·Ĭ
à·Ĵà¶Ń à¶ºà·Ĵ
Ġm y
âĢį à¶§à·Ĵ
Ġà¶´ à¶ºà·Ĵ
Ġà¶ħà¶´ à¶Ń
Ġà¶¸à·ĵ à¶§à¶»à·Ĭ
à·Ģ à¶±à·Ģà¶¯
Ġà¶Ń à¶±
Ġà·Ħà·Ļà¶±à·Ĭ à¶»à·Ĵ
ĠJ ohn
Ġà¶ļà·ħ à·Ĵà¶±à·Ĭ
à¶¸à¶Ńà¶ļ à¶¯
à¶ħà¶±à·Ĭà¶Ńà·Ĵ à¶¸à·ļ
à¶¢à·Ĭ à¶¢à·ı
Ġà¶ļà·ıà¶½ à¶ºà·ļ
Ġà¶ķà¶±à·ļ à¶¯
Ġà¶¯à¶»à·Ķà·Ģ à·Ļà¶ļà·Ĭ
Ġà¶¯à·Ķ à¶»à·Ĵà¶±à·Ĭ
Ġth at
Ġà·ĥà¶Ĥ à¶ļà·ļ
Ġà¶¯à·ĵ à¶´à·Ķ
Ġà¶º à¶ļà¶©
Ġà·ĥà·ıà¶ļ à¶łà·Ĭà¶¡
Ġà¶¸ à¶»à·Ķ
Ġà¶ĳ à·Ģà·Ķà¶±à·Ĭ
à¶ĳà·ħ à·Ĵà¶ºà¶§
Ġà¶ļà¶» à¶¯à·Ĭà¶¯à·Ĵ
Ġà¶´à·ľ à¶Ńà¶ļà·Ĭ
Ġ/ /
Ġà·Ģà·Ĳ à¶¯à·Ķà¶±à·ı
à·ĥ à¶¯à·Ĭà¶¯
à¶ľà·Ĳ à¶±à·Ĭà¶±
Ġà·Ħ à¶ºà¶ļà·Ĭ
Ġà¶ĭ à¶Ńà·Ķà¶»
Ġà·Ģà·Ĳ à·ħ
à·ĥà·Ĵà¶º à·ħà·Ķà¶¸
Ġà¶ļà·ħà·ı à¶¯
, à¶¸à·ļ
à¶Ńà·Ķ à¶»à·ı
Ġà¶¯à·Ģà·ĥ à¶§
à¶¸ à¶½à·Ĭ
Ġà¶´à·ı à·Ħà¶»
Ġà·Ģà·Ļà¶½à·ıà·Ģ à¶ļà¶§
t s
Ġà¶´à·Ķà¶¯à·Ĭà¶ľà¶½ à¶ºà·Ļà¶ļà·Ĭ
à¶¶ à¶©à·Ĵ
Ġà¶º à¶±à·Ĭ
à¶ļà·Ĵ à¶»à·Ĵ
Ġà¶ľà·Ĳà¶±à·Ĭ à·Ģà·ĵà¶¸
Ġà·Ħà·Ĵà¶± à·ıà·Ģà·Ļà¶±à·Ĭà¶±
à¶¯à·Ķ à·Ģà·ı
à¶¥ à¶ºà·ı
à¶Ńà·ļà¶»à·Ķ à¶±à·ıà¶¯
à·Ģà·Ķ à¶±à·ľà¶Ńà·Ĭ
Ġà¶¯à¶ļà·Ĵ à¶±à·Ģà·ı
Ġà¶ļ à·Ļà¶±à·Ĭà¶§à·Ĭ
Ġà¶ļà¶»à¶±à·Ĭà¶± à·ĳ
Ġà¶ľà·Ĵà¶º à¶´à·Ķ
à¶» à·Ĵà¶ºà¶ļà·Ĭ
à·Ħà·Ĵ à·ĥà·Ĭ
à·ĵà¶¸ à·Ļà¶±à·Ĭ
Ġà¶¯à¶»à·Ĭà·ģ à¶±
Ġà¶ļà·Ŀ à¶§à·Ĵ
Ġà¶ľà·Ĳà¶½ à¶´à·Ļà¶±
Ġà·Ģà·ıà¶¯ à¶±à¶º
à·ĥ à·ıà¶»
à¶½à·Ĭà¶½ à·ľ
Ġà¶Ńà¶¸à·Ķà·ĥà·Ļ à¶ľà·Ļ
à¶½ à·Ģà·Ļà¶±à·Ĭà¶±
Ġà¶ļà¶© à¶±à·Ĭà¶±
Ġà¶´à·Ķà¶½ à·ĸ
à¶ļà¶» à¶«à¶ºà¶ļà·Ĭ
Ġà¶ļà·Ĵà¶ºà¶±à·Ģ à¶±à¶¸à·Ĭ
Ġà·Ģà·Ļà¶Ń à¶§
ab el
Ġà¶ħ à¶½à·Ĭ
à¶¯ à·Ļà¶±à·Ĭ
Ġà¶ħà¶© à·Ķà·Ģà·Ļà¶±à·Ĭ
Ġà¶¸à·Ķ à¶¯à·Ķ
Ġà¶ĩà¶¸ à¶»à·Ĵà¶ļà·ıà·Ģ
Ġà¶´ à¶®
Ġà¶ħà¶± à·ıà·Ģ
Ġà¶ļà¶Ńà·ıà¶ļà¶» à¶±à·Ĭà¶±à·ļ
à·ģà·ĵ à¶½à·ĵ
Ġà¶ħà¶±à·Ķ à¶ļà¶¸à·Ĭ
à¶¸à·ľà¶ļ à·Ŀ
Ġà¶ī à¶»à·ı
Ġà¶ĭ à¶¸
Ġà¶Ńà·ĵà¶» à¶«
Ġà¶¡ à·ı
à¶¸à·Ĳ à¶½à·Ĵ
Ġn ot
Ġà¶ħà·Ģà¶¯ à·ı
à·ĥ à·ıà·Ģ
Âł à¶¸à¶¸
Ġà¶ħà¶Ńà¶» à¶Ńà·Ķà¶»
à·ĥ à·ĳà¶¸
à¶½à·Ĵà¶º à¶¸à·Ĭ
p l
à·ĥ à·Ļà¶±à·Ĭ
Ġà·Ģà·Ĵ à¶½
à·Ģà·ı à¶ľà¶±à·Ĭà¶±
Ġst ate
à¶ºà·ı à¶»à·ĸà¶´
Ġà·Ħà·Ĵà¶Ń à¶´à·Ķ
Ġà¶ħà¶´ à·ľà¶ºà·Ĵ
Ġà¶Ĩà¶ºà·Ļ à¶¸à¶Ńà·Ĭ
Ġà·Ģà·ļ à¶ľà·Ļà¶±à·Ĭ
er man
à·ŀ à¶¯à·Ĭ
à¶¶ à·ļà¶»
ĠK DE
Ġà·Ģà·Ĵà¶ļà¶½à·Ĭ à¶´à¶ºà¶ļà·Ĭ
à¶¸ à¶ļ
à¶ļà·ı à¶½
Ġà¶±à·ľ à·Ģà·ĵ
Ġà·ĥà·Ĭà¶®à·ı à¶±à¶ºà¶§
Ġà¶¶à·ĵ à¶½à·ı
Ġà¶ħà¶³à·Ķ à¶±
à¶ļ à·Ģà¶¯à·Ĭà¶¯
Ġà·Ħà·Ĵà¶§à·Ĵà¶º à¶Ńà·Ĭ
Ġà¶´à·Ķ à¶Ńà·Ļà¶ļà·Ĭ
Ġà¶ľà¶¶ à¶©à·ı
Ġà¶ļà·Ļ à·Ģà·Ĵà¶±à·Ĭ
à·ģà·Ĵ à¶»à·Ĭ
Ġ le
à¶ļà¶» à¶´à·Ķ
Ġà·Ļà·Ħà·ı à¶¯
Ġà¶ĳ à·Ģà·Ĭà·Ģà·ı
à¶ħà¶±à·Ĵ à·Ģà·ı
Ġà¶¸à·ıà¶» à·Ķà·Ģ
Ġà·Ģà·Ĳà¶©à·Ĵ à·Ħà·Ĵ
Ġà¶ļà¶«à·Ĭà¶©à·ıà¶º à¶¸à¶§
à¶§ à·Ķà·Ģà¶ļà·Ĭ
à¶½à·ı à·ĥà·Ĭ
Ġà¶ħà¶©à·Ķ à¶ºà·Ĵ
Ġà¶ļà·ıà¶¸à¶» à¶ºà·ļ
à¶¸à·Ŀà¶© à¶ºà·ı
Ġà·Ģà·ıà·Ħ à¶±à¶º
Ġà¶ľ à¶¸à¶§
Ġà¶ļà·ıà¶» à¶«à¶º
Ġà¶ľà¶±à·Ĭà¶± à·Ģà¶¯
Ġà¶¢à·ľ à¶¶à·Ĭ
Ġà·ĥà·ıà¶ļà·Ĭà·Ĥ à·Ĵà¶ºà¶ļà·Ĭ
Ġà¶ł à·Ĳà¶´à·ĵ
à·ĥ à¶Ĥà¶ľ
à¶Ńà¶» à·ı
à¶ļà·Ķ à¶±à·Ķ
Ġà·ĥà¶±à·Ĭà¶± à·Ĵà·Ģà·ļà¶¯
Ġà¶»à·Ħ à·ĥà·Ĵà¶ľà¶Ń
Ġà¶¸à¶ľà·ļ à¶¸
2 3
Ġà¶» à·ĥà·Ĭ
à¶ļà·Ĭà·Ĥà¶« à·Ĵà¶ļ
à¶ħà¶±à·Ĵà·Ģà·ıà¶»à·Ĭ à¶ºà¶ºà·Ļà¶±à·Ĭà¶¸
Ġà¶¸à¶§à·Ĭà¶§ à¶¸à·ļ
Ġà¶ļà·ı à¶ľà·ļ
Ġà¶ħà¶» à¶ļ
Ġà¶±à·ı à¶¯
Ġà¶ľà·ľ à¶±
Ġ an
Ġà·Ģà·Ļà¶±à·Ĭà¶± à·ĳ
à¶» à¶¢
à¶¶à·Ĳ à·Ħà·Ĳ
à¶Ń à·ıà¶»
Ġà¶¸à¶Ńà¶ļ à¶ºà¶±à·Ĭ
à·ĥ à·ĳ
Ġà¶¢à·ı à¶Ńà·Ĵà¶ºà·ļ
à¶Ĵà¶ļ à·ı
Ġà¶ļà¶»à·Ĭ à¶¸à·ıà¶±à·Ĭà¶Ń
Ġà¶´à·Ĵà¶»à·Ĵ à¶½à·ı
à¶¶à·ľ à·Ħà·Ŀ
Ġà¶ĩ à·Ħà·Ĳà¶»
à¶Ń à¶¸à·Ĭ
à¶ºà·Ĵ à¶©à·Ĭ
Ġà¶ľ à·Ģà·ļà·ģ
ĠC IA
Ġà¶¸à¶»à¶« à¶ºà¶§
à¶ļ à·ħ
j ect
HFF FF
Ġà¶Ńà¶Ńà·Ĭ à¶´à¶»à¶ºà¶ļà·Ĭ
" âĢį
Ġà·Ħà·Ĳà¶¸à·Ŀ à·Ģà¶¸
Ġà¶¸à·ıà¶»à·Ĭà¶ľ à¶ºà¶ļà·Ĭ
Ġà·Ħà·Ļà¶½à·Ĵ à¶ļà·ľ
à¶¶ à·Ļà¶±à·Ĭ
Ġà·Ĥ à·Ĵ
à¶»à·Ķ à¶¸à¶ļà·Ĭ
Ġà¶´à¶¯à·Ĭà¶° à¶Ńà·Ĵ
à·ĥà·Ĵ à¶ºà·ıà·Ģ
à¶¸à·ı à¶±à¶º
Ġà¶»à·Ļ à¶¯à·Ĭà¶¯
Ġà¶¯à·Ļà¶ļ à¶ļà·Ĵà¶±à·Ĭ
Ġa ction
Ġà·ĥà·Ĵà¶Ńà·Ķà·Ģ à·Ĵ
Ġà¶ĭ à·Ģ
à·Ģà·Ķ à¶½
Ġà·Ģà·ģ à¶ºà·Ļà¶±à·Ĭà¶¸
Ġà¶Ķà¶ļà·Ĭà¶ļà·ľ à¶§à¶¸
à¶¸ à·Ħà·ı
Ġà¶¶à¶½ à¶´à¶±à·Ĭ
Ġà¶´à·Ĵà¶§ à·ĥà¶ļà·Ĭ
à·ĥ à¶¸à·ı
HFFFF FF
à¶¢ à¶±à·ıà¶°à·Ĵà¶´à¶Ńà·Ĵ
à¶ľà·Ĭ à·ĥà·Ĭ
à¶ĳà·Ħà·Ļ à¶¸à¶ºà·Ĵ
à·Ļà¶ļà·Ĭ à·Ģ
Ġà¶ĳà¶ļ à¶±à·ļ
Ġà¶¸à¶± à¶¸à·ı
Ġà¶Ńà·Ĵà·ĥà·Ĭà·ĥ à·Ļà¶¸
à¶ĭ à¶Ńà·Ĭ
Ġà¶ħ à¶±à·Ģ
u p
à·ľ à¶´à·Ĭ
à¶Ńà·Ķà·Ģà¶ļà·Ĭà¶ļ à·Ķà·Ģ
à·Ģ à¶¸à·Ĭ
Ġà¶½ à·ĸà¶Ń
à¶»à·ļ à¶§
Ġà¶½à·ĸà¶Ń à¶»à·Ĭ
Ġà¶īà¶¯à·Ĵ à¶»à·Ĵà¶ºà·ļ
Ġà¶ľ à¶Ńà·Ĭà¶Ńà·Ķ
Ġà¶Ńà·Ĵà¶¶à·Ĭà¶¶ à·ľà¶Ńà·Ĭ
Ġà¶´à¶»à·Ĭ à¶ºà·ļ
Ġà¶Ńà·Ķ à¶½à·Ĵà¶±à·Ĭ
Ġà¶¶à·Ŀ à¶Ń
Ġà¶¸à·Ķà¶± à¶ľà·Ĳ
à·ģ à¶º
Ġà¶© à·ı
- à¶Ķà¶ºà·ıà¶§
Ġà·Ģà·ı à¶»à·Ĭà¶®
Ġà¶ļà¶»à·ı à¶§
à¶½ à¶±à·Ĭà¶Ń
Ġà¶ħ à¶Ńà·Ĭà·Ģà·Ĳ
Ġà¶ķà¶± à·Ģà¶§
Ġà¶Ńà·Ĵà¶º à·ļà¶¯
Ġà¶¸à·Ħà¶Ńà·Ĭà¶Ń à¶º
t er
Ġà¶º à¶§à·Ĵà¶±à·Ĭ
à¶ħ à¶Ĥ
Ġà¶ļà·Ķ à·ĥà·Ĭà·ĥ
Ġà¶± à¶»à¶ļà·Ĭ
à¶´à·Ĭ à¶§à·Ĵ
à¶ĳà·Ħà·Ļ à¶Ńà·Ĭ
Ġà·ĥà·Ħà·ı à¶º
Ġà¶Ľ à·ıà¶±à·Ĭ
âĢįà¶» à¶®
Ġà¶Ĩà¶¯à¶» à¶ºà·Ĵ
Ġà·ĥà¶¸à·ĵ à¶´
Ġà¶» à·Ĳà¶±à·Ĭ
à¶¯à·Ļà·Ģà·Ĵà¶º à¶±à·Ĭà¶§
Ġà¶½à¶¶ à¶±
Ġà¶ļà¶»à¶±à·Ģà·ı à¶¯
Ġà·Ģà·Ĵà¶Ńà¶» à¶¯
Ġà¶´à·ı à¶»à·Ĭ
Ġà¶º à¶¯à·Ĭà¶¯à·Ĵ
Ġà¶Ĵ à·Ģà¶ľà·ļ
Ġà¶º à¶Ĥ
Ġà¶´à¶±à·Ĭ à¶Ńà·Ĵà¶º
Ġà¶Ķà¶ºà·ıà¶§ à¶ºà·Ĵ
à·ĥà·Ĭà¶Ńà·Ĵ à¶¯
à·ĥà·Ĵà¶º à¶½à·Ķ
à¶´ à¶¯à·Ĵ
à·Ħà¶¸ à·Ķà·Ģ
Ġà·Ģ à¶ºà·Ĵà¶±à·Ĭ
Ġà¶¯ à¶»à·ı
Ġà¶Ķà¶½ à·Ķà·Ģà¶§
à·Ģà·ı à¶±à·Ĭ
à¶¸à·ı à·ĥà·Ĭà¶§à¶»à·Ĭ
Ġà·ĥà¶Ĥà¶ľ à·ĵà¶Ń
Ġà¶ľà·ıà¶± à¶ļà¶§
Ġà¶ļ à¶¯à·Ķ
à¶Ńà·Ĭà¶¸ à¶ļà¶ºà·Ĵ
Ġà·ĥà·Ĭà·Ģà·ı à¶¸à·Ĵ
Ġà·Ħà·Ķà·Ģ à¶¸à·ıà¶»à·Ķ
Ġà¶¢ à¶±à·ļ
Ġà·ĥà·Ĳà¶´ à¶ºà·Ķ
Ġà¶ļ à·Ħ
Ġà·Ģà·Ĳ à·ĥà·Ĵà¶º
à¶±à·ıà·Ģ à¶»à·Ķà¶±à·Ĵ
Ġà¶¸à·Ĵ à¶§
Ġà¶´à·Ĳà·Ħà·Ĳà¶» à¶ľà·Ļà¶±
à¶ħà¶º à·Ĵà¶ºà·ļ
Ġà¶´à·Ģà·Ķ à¶½à¶§
à¶ļà·ĵ à¶¸à·Ĭ
Ġà¶¶à·Ĵà·ĥà·Ĭ à¶±à·ĥà·Ĭ
à¶Ķà·Ħà·ļ à¶§
Ġà¶Ķà¶ºà·ı à¶ľà·Ŀ
Ġm on
Ġà¶´à·Ķà¶¯à·Ĭà¶ľà¶½ à¶ºà·ı
à¶ĳ à·Ħà·ļ
Ġà·ĥà·Ļ à¶¶
à¶¶à·Ķ à¶±à·Ĭ
Ġà¶¯à·Ļ à¶´à·ıà¶»à¶ļà·Ĭ
Ġà¶¯à·Ķà¶» à¶ļà·Ĭ
Ġà¶Ńà·ļà¶»à·Ķà¶«à·ı à¶¯
à¶§ à·Ĳ
Ġà·ĥ à·ĺ
Ġà¶¸à·ıà·Ģ à¶Ńà·Ĭ
à¶ħà·Ģ à¶Ĥà¶ļ
Ġà·Ģ à·ĵà¶¸à¶ļà·Ĭ
Ġà¶±à·ľ à¶¯
Ġà·Ģà·Ĳ à·ĥà·Ĵ
à·ĥà·ı à¶¯à¶»à¶ºà·Ļà¶±à·Ĭ
Ġà¶ļà·Ļ à¶½à·Ĵà¶±à·Ĭ
Ġà¶ľ à¶±à·Ĵà¶ºà·Ĵ
Ġà¶Ń à·ıà·Ģ
Ġà·Ģà·Ĵà¶¸ à¶»à·Ĭà·ģ
à¶¸à·Ķ à¶±à·Ĭ
Ġà·Ģà·Ĳà¶»à¶¯ à·Ĵà¶ºà¶§
à¶Ĩ à¶ºà·ļ
à·Ģà·Ķ à¶«
Ġà¶ħà·ĥà¶» à¶«
Ġà¶Ķà·Ħà·Ķ à¶Ńà·Ĭ
ic k
à¶´à·ĵ à¶§à¶»à·Ĭ
Ġà·Ģà·Ĵà¶ļà·Ķà¶« à¶±à·Ĭà¶±
à·Ģ à·Ĵà¶ºà·ļ
Ġà·ĥà·Ĵà¶»à·Ķ à¶»
Ġà¶ļ à·ľà¶ļ
à·ĥà·Ĭà·ĥ à·ı
à¶½à·Ĵ à¶¸à¶Ńà·Ĭ
Ġà·ĥà¶½ à¶ļà·Ķà¶«à¶ļà·Ĭ
à·Ħà·ı à·ĥà¶º
à¶±à·Ļ à¶Ńà·Ĭ
Ġà¶Ńà·ļà¶»à·Ķ à¶±à·ļ
à¶´ à·Ĵà¶ºà·Ŀ
Ġà¶īà¶¯ à¶ľà¶±à·Ĭà¶±
Ġà¶± à·ıà¶±
à¶¸à·ı à¶ļà·ıà¶»
à¶»à·Ĵ à¶Ńà·Ĭ
Ġà¶ºà¶¸à·Ķ à¶¯
à·Ĳà¶± à·ĵ
Ġà·ĥà¶Ĥ à·ĥà·Ĭ
Ġà¶¸à¶»à¶« à·Ģà·ı
âĢįà¶º à·Ļ
Ġà¶¸à·ı à¶§à·Ĵà¶±à·Ĭ
Ġà·ħ à¶ľ
Ġà·Ģ à¶±à·Ĭ
Ġà·Ħà·Ŀ à¶¸à·Ĭà·ĥà·Ĭ
n u
à¶»à·Ķ à¶ºà·Ĵ
Ġà¶´à¶»à·Ĵ à¶¯à·Ĵ
à¶Ķà¶ºà·ı à¶¸
à¶Ķà¶¶ à¶½à·ı
Ġà¶ľà·Ĳ à·Ħà·Ĳà¶±
Ġà¶ľà·Ħ à¶±à·Ĭà¶±à·ļ
à¶ľ à·Ŀà¶¸
Ġà¶ĩ à¶¶à·Ĭ
Ġà¶´à·Ļà¶± à·Ļà¶±
Ġà¶ħà·Ģà·Ķà¶»à·Ķà¶¯à·Ĭà¶¯ à·ļ
Ġà¶½à·ļ à·ĥà·Ĵà¶ºà·Ĵ
à·ĥ à¶Ńà·Ĭà¶Ńà¶ļà·Ĵà¶±à·Ĭà¶¸
Ġà¶Ńà·ıà¶Ńà·Ĭà¶Ń à¶ľà·Ļ
Ġà¶ļà·Ĭ à¶½à·Ĵà¶ļà·Ĭ
Ġà¶´à·ľà¶»à·ľ à¶±à·Ĭà¶¯à·Ķà·Ģ
Ġà·ħà¶¸à¶ºà·Ĵ à¶±à·Ĭà¶§
à·ĺ à¶¯
Ġà¶Ńà·Ĳ à¶¶
Ġà·Ħà·Ĵ à¶¸à·Ĵà¶ļ
Ġà¶ļà·Ļà¶±à·Ļà¶ļà·Ĭ à¶¸
Ġà¶ºà·ı à·ħà·Ķà·Ģà¶±à·Ĭ
Ġà¶©à·Ĵà¶»à·Ļà¶ļà·Ĭà¶§ à¶»à·Ĵà¶º
Ġà·Ģà·Ļà¶± à¶ļà¶½à·Ĭ
Ġà·Ħà·Ĳ à¶¯à·Ĵ
Ġà¶±à·Ļ à·Ģà·Ĵ
Ġà¶¯à·ĸà¶´ à¶Ń
Ġà¶¯à·ı à¶±à·Ĭà¶±à·ļ
an t
Ġà¶»à·Ļ à¶©à·Ĭ
à¶¸ à·ľà¶©
à·Ĥà·Ĭ à¶§à¶ºà·Ĵ
ow n
Ġà¶ľà·Ĳà·Ħ à·Ķà·Ģà·ļ
à¶´à·Ĵ à¶½à·Ĵ
Ġà¶´à·ıà¶» à·Ļ
Ġw ill
Ġà¶ļ à¶´à·ı
Ġà·Ħà·Ĳ à·ĥà·Ĵ
à¶ľ à·ıà¶±
Ġà¶´à¶»à·ĵà¶ļà·Ĭà·Ĥ à¶«à¶ºà¶ļà·Ĭ
à¶¯ à·ĵà¶¸à¶ļà·Ĭ
à·Ķ à¶Ńà·Ĭà¶¸
Ġà¶ĩà¶³ à¶ľà·Ļà¶±
à·Ķ à¶±
Ġà¶´ à¶Ĥ
Ġà¶ī à¶ľà·Ĳà¶±à·Ĭà¶±
à·Ĳà¶± à¶§à·Ĭ
Ġà¶īà¶Ńà·ı à¶¸à¶Ńà·Ĭ
Ġà·Ħà·Ĳà¶¸à¶¯ à·ı
Ġà¶ļà¶§ à·Ģà·Ħ
à¶¢à·ļ à¶ļà·Ĭ
Ġà·ĥà¶ļ à·ĥà·Ĭ
Ġc ount
Ġà·Ħ à¶»à·Ĭà¶½à·Ĵ
Ġà·ĥà·ĵ à¶Ńà¶½
à¶± à·Ĵà¶±à·Ĭ
Ġà¶¸à·ľ à¶±à·Ĭà¶»à·Ŀ
âĢįà¶º à·ļ
Ġà·Ħ à·ĥà·Ķ
à¶ĳ à·Ħà·Ĵ
Ġà¶±à·ı à¶§à·Ĭ
Ġà¶ĳà¶ļà¶ļà·Ĭ à·Ģà¶Ńà·Ĭ
à¶ļà¶» à¶¯à¶»
à·Ģà·Ĭà·Ģ à·ľà¶Ńà·Ĭ
à¶Ńà·Ĭà·Ģ à¶ºà¶§
Ġà¶ĩà¶³à·Ķ à¶¸à¶ļà·Ĭ
Ġà·Ģà·Ĵà·Ģà·ļ à¶ļà¶ºà¶ļà·Ĭ
Ġà¶ľà¶«à·Ķà¶¯à·Ļà¶± à·Ķ
Ġà¶¶à·ľà¶» à·Ķà·Ģà¶§
Ġà¶ī à·Ģà¶Ń
à¶ħà¶¸à·Ĭ à¶¸
Ġà·Ģà·Ķà·Ģ à¶¸à¶±à·ı
Ġà·Ģà·ĵ à¶¸à·ļ
à¶ī à¶³
à¶Ńà·ıà¶Ńà·Ĭà¶Ń à·Ļ
à·Ĳà¶± à·ı
à·Ģà·Ĵ à¶½à·Ĭà¶½
m b
Ġà¶ħà¶º à¶ľà·Ļà¶±à·Ĭ
Ġà¶ºà¶± à¶ļà¶¸à·Ĭ
a ve
Ġà¶¯à·ĵ à¶´à¶±à·Ĭ
Ġà¶´à·Ĳ à¶±à·Ĭà¶±
Ġà¶Ĵà¶ļ à¶±à¶¸à·Ĭ
Ġà¶´à·ıà¶½ à¶ļà¶º
à¶½à·Ĵ à·Ģà¶»à·Ĭ
à¶ºà¶±à·Ĭ à¶ľà·ļ
Ġà¶ļà·Ĳà¶¸à·Ĳà¶Ńà·Ĭà¶Ń à¶ļà·Ĭ
Ġà¶±à·Ĳ à¶±à·ļ
à¶±à·Ĭ à·Ģà·ı
à¶¯à·Ĭà¶¯ à·ı
Ġà·Ħà¶»à·Ĵà¶º à¶ºà·Ĵ
Ġw or
Ġà¶ ¥
Ġà¶¶à·Ĵ à¶¸à·Ĭ
Ġà¶ħà¶½à·Ĭà¶½ à¶±à·Ĭ
Ġà·Ģà·Ĵ à¶»à·Ŀà¶°
à¶»à·ı à¶½à·Ĭ
à·ĥà·Ĳ à¶½
' %
Ġà¶ļà·Ĳ à¶©
à·Ĵ à¶¸
à·Ģ à¶ł
âĢįà¶»à¶ºà·Ŀà¶¢à¶± à·Ģà¶Ńà·Ĭ
âĢį à¶¸à·ļ
Ġà¶½à·Ĵà¶ºà·Ķ à¶¸à·Ĭ
à·ıà·Ģ à¶±à·Ĭ
Ġà·Ģà·Ļ à·ĥà·Ĭ
Ġà¶´à·Ĵ à·Ħ
Ġà¶ļà¶© à·Ķà·Ģ
Ġà¶ļà¶» à¶Ńà·Ĭ
Ġà¶¸à·ı à·ĥà·Ĭà¶§à¶»à·Ĭ
à·ĥ à¶¸à·Ĭà¶¶
Ġà¶¯à·Ĳà¶± à·Ļà¶±à·Ĭà¶±
à¶¶à·ı à¶°
Ġà¶¯à·ľà¶» à·Ģà¶½à·Ĭ
Ġà¶¶à·Ĳà¶½ à·Ķà·Ģà·ļ
à·Ħ à¶Ńà¶»
Ġà¶»à·Ķ à¶°à·Ĵ
Ġà·ĥà·Ĳ à·ħ
Ġà¶©à·ļà·Ģà·Ĵ à¶©à·Ĭ
à·ĥà·Ķ à¶±à·Ĭà·Ģ
Ġà¶ħà¶° à·Ĵà¶ļ
Ġà¶¶à·Ŀ à¶½
Ġà¶´à·Ķà·Ħà·Ķ à¶«à·Ķà·Ģ
Ġà·ĥ à¶Ńà·ı
Ġà·Ģ à¶½à·Ĵ
Ġà¶ħà¶½à·Ĭà¶½à·ı à¶ľà·Ļà¶±
à·Ħà·ľ à¶»
Ġà¶ľà¶±à·Ĭà¶± à¶ºà·Ĵ
à¶ħ à¶±à·Ĭ
Ġà¶±à·Ĳ à¶ľà·Ļà¶±à·Ħà·Ĵà¶»
Ġà·Ģà·Ĳà¶§ à·Ļà¶±
" à¶¸à¶ľà·ļ
à¶· à·ĸ
à¶Ńà·Ĵà¶º à¶±à·Ĭà¶±
Ġà¶« à¶ºà¶ºà·Ĵ
Ġà¶´à¶¯ à¶ļà·Ĭà¶ļ
Ġà¶ļà·ħ à¶¸
Ġà¶¸à·Ĵà¶½ à¶¯à·ĵ
Ġà¶±à·Ĳà·Ģà¶Ńà·Ĵ à¶½à·ı
Ġà·Ģà·Ļ à¶¶à·Ĭ
à¶ļà¶» à¶ºà·Ĵ
in es
à·Ħà·ľà¶³ à¶§
Ġà·Ģà·ļ à¶¯à·Ĵ
à·Ħà·ľà¶¯ à¶§
Ġà¶´à·Ĵà¶»à·Ĵ à·ĥà¶ļà·Ĭ
à·Ķ à¶Ńà·Ķ
Ġà¶±à·Ĵà·ħ à¶°à·ıà¶»
Ġà·Ģ à¶±à·ļà¶±à·ļ
à¶ºà·Ļ à¶ļà·Ķ
Ġà¶»à¶¢ à¶º
Ġà¶±à·Ĵà¶ºà·Ŀà¶¢à·Ĵà¶Ń à¶ºà·Ļà¶ļà·Ĭ
Ġà¶»à·ļ à·ĥà·Ĭ
âĢį à¶´
à¶½à·Ĭ à·Ģà·Ĵà¶½à·Ĭ
Ġà¶±à·ľà·Ħà·Ĳà¶ļ à·Ĵà¶ºà·Ĵ
Ġà¶ħà·Ģà·ĥà·Ĭ à¶Ńà·ıà·Ģ
Ġà¶Ĩà¶ºà·Ķà¶° à¶ºà¶ļà·Ĭ
à¶½ à·Ģà·Ĭ
Ġl abel
Ġà·Ħà·Ŀ à·Ģà·Ĭ
à¶´à¶Ń à¶ļà·Ĭ
Ġà¶±à·Ĵ à¶ļà·Ķà¶Ńà·Ĭ
Ġp l
à¶¯à·ı à¶ľà¶±à·Ĭà¶±
Ġà¶ķà¶± à¶±à¶¸à·Ĭ
à¶¸à·Ļ à·Ħà·Ļà¶±à·Ĭ
à·Ģà·Ľ à¶¯à·Ĭ
à¶¸ à·Ĵà¶ºà·Ļà¶ļà·Ĭ
à¶łà·ıà¶»à·Ĭ à¶½à·Ĵ
à·ĥ à¶±à·Ĭà¶§
à¶ĩ à¶±à·ı
Ġà·Ģ à·Ħà·ıà¶¸
Ġà¶ħà·Ģ à·ĥà·Ĭà¶®à·ı
Ġà¶´à·ı à¶§à¶ºà·Ĵ
à¶½ à¶±à·Ģà·ı
à¶ī à¶Ńà·ı
à¶½à¶ºà·Ĵ à¶§à·Ĭ
Ġà¶±à·Ĳ à¶Łà·Ĵ
Ġà·ĥà¶Ĥ à¶Ľà·Ĭ
Ġà¶¶à·Ŀà¶¸à·Ĭà¶¶ à¶º
Ġà·ĥà·Ĵ à¶¯
Ġà¶ľà¶Ńà·Ĭà¶Ń à¶§
Ġà¶» à¶«à·Ĭà¶©à·Ķ
Ġà¶¥ à·ı
Ġà·Ģà·Ĵà·ģ à·ı
à·Ģà·Ĵ à·ĥà·Ĭ
Ġà¶±à·Ĵ à·Ģà·Ĳà¶»à¶¯à·Ĵà¶ºà·Ĵ
à¶Ĩ à¶»à·Ĭ
Ġà¶±à·Ĵà·Ĥà·Ĭ à¶´à·ıà¶¯
Ġà¶ºà·ı à¶Ńà·Ĭ
Ġà·Ģà·Ĳà¶§à·Ķ à¶±
Ġ âĪĻâĪĻâĪĻčĊ
Ġà¶ĳà¶ļà·Ĭà¶ļ à·Ļà¶±
Ġà¶Ĵ à¶Ńà·Ĭà¶Ńà·Ķ
à¶»à¶« à¶¸
Ġà¶ī à¶±à·Ĭà¶°à¶±
à·Ģà·Ļà¶½à·ı à·Ģà¶§
à¶ĳà¶ºà·ıà¶½ à¶ľà·ļ
Ġà¶ħà¶Ń à·ĵà¶Ńà¶º
Ġà·ĥ à¶Ńà·Ĵà¶ºà¶ļà·Ĭ
Ġà¶¯ à¶»à·ıà¶ľà¶±à·Ĭà¶±
à¶´ à¶¸à¶«
Ġà·Ħà·Ĵà¶§à·Ĵà¶º à¶±à¶¸à·Ĭ
Ġà·Ģà·ĵà¶» à¶ºà·ı
Ġà¶ĭ à¶±à·Ĭà¶±à·Ļ
à·Ģà·ıà¶¯ à·Ĵà¶ºà·Ļà¶ļà·Ĭ
Ġà¶¸à·ľà¶ļ à·Ģà¶Ńà·Ĭ
Ġà¶ļà·Ķ à¶¸à¶ļà·Ĭ
c k
Ġà·Ħà¶»à·Ĵ à¶±à·Ĭà¶±
Ġà¶ħà¶» à¶ľà¶Ńà·Ĭà¶Ńà·ı
à¶¯à·Ĵ à¶ºà·ıà·Ģ
à¶ļà¶»à·Ķ à·Ģà·ı
Ġà¶ħà·Ģ à¶¶à·Ŀà¶°
Âł à¶ķà¶±
à·Ģà·ĵ à¶»à·Ĭ
à¶ĭà¶© à¶§
à·ĥà·Ĭ à¶ľà·ļ
Ġà·Ģà·Ĵ à·Ģà¶»
Ġà¶ħà¶½à·Ĭà¶½ à¶±à·Ģà·ı
Ġà¶±à·ĵ à¶Ńà·ĵ
Ġà·Ģà·Ĵà¶¯à·Ķ à¶½à·Ĵà¶º
Ġà¶´à·Ĵà·ħà·Ĵà¶¶à¶³ à·Ģ
Ġà¶ļà·Ĵà¶ºà¶½ à¶Ńà·Ĭ
Ġà¶ĩ à¶Ńà·Ĭ
Ġs ub
Ġà¶ļà·ļ à¶§à·Ĭ
à¶ļà¶¸ à·Ŀà¶±à·Ĭ
à¶ħà¶±à·Ĵ à¶ļà·Ĭ
à·Ļ à·ı
à¶´à·Ĵ à¶Ń
Ġà¶© à¶ºà·Ĵ
Ġà¶±à·ľ à¶¯à·Ĳà¶±
à¶ĳà¶º à¶Ńà·Ĭ
à¶ľ à·ŀ
Ġà¶ĭà·Ģ à¶¸à¶±
à¶» à·Ħ
Ġà¶ĭ à¶«à·ı
à¶Ńà·Ķ à·Ģà·ı
à¶º à¶±à·Ģ
à·ĥà·Ĭ à¶Ńà·ı
Ġà¶Ĩà¶º à¶Ńà¶±à¶º
- a
à·Ħ à¶±à·ļ
à¶©à·Ĭ à·ĥà·Ĭ
à¶©à·ıà¶º à¶¸
Ġb ut
Ġà¶ķ à·Ģà·ı
à·Ħ à·Ŀà¶¸
Ġà¶´à¶»à·Ĵ à¶´
Ġà¶ļà¶» à¶ľà¶Ńà·Ĭà¶Ń
Ġà¶¸à·Ķ à¶ļà·Ķà¶Ńà·Ĭà¶¸
Ġà·Ģà·Ĳà¶¯ à¶ľà¶Ńà·Ĭà¶¸
à¶´à·ľà¶½à·Ĵ à·ĥà·Ĵà¶º
Ġà¶¶à·ľ à¶¶à·Ĭ
Ġà¶¸à·Ĵà¶±à·Ĵà·Ħ à¶ļà·ļ
Ġà¶´à¶»à·Ĵà·ĥà·Ĭà·ĥ à¶¸à·Ĵà¶±à·Ĭ
Ġà·Ħà·Ĵà¶Ńà¶±à·Ĭà¶± à·ĳ
Ġà¶ľà¶«à·Ķà¶¯à·Ļà¶± à·Ķà·Ģà¶ļà·Ĭ
Ġà¶´à·Ĳà¶» à¶«à·Ĵ
à¶½à·Ķ à¶±à·Ĭ
Ġà¶»à·ĳ à¶¸
à¶ī à¶½à¶ļà·Ĭà¶ļ
à¶´à¶º à¶ļà·Ĵà¶±à·Ĭ
à·ħ à¶ľ
Ġà·Ģà·Ĵà¶° à·Ĵà¶ºà¶§
Ġà·Ħà¶¯ à¶½
Ġà¶¶à¶© à¶ľà·Ĵà¶±à·Ĵ
à¶Ń à·ļà¶»
à·Ģ à¶±à·Ĵ
à¶»à·Ķ à¶Ńà·Ĭ
à¶Ķà¶ºà·ıà¶½ à¶ľà·Ļ
Ġà·Ħà·Ĳà¶Ł à·ĵà¶¸à·Ĭ
Ġà¶¸à·Ĳ à¶ļà·Ĭà·ĥà·Ĭ
à·Ģà¶½ à¶¸à·Ĭ
à¶¶à·Ŀ à¶¸à·Ĭà¶¶
à¶ļà·ıà·ģ à¶º
à¶·à·ı à¶´à¶Ńà·Ĵ
à¶ĩ à¶½
Ġà·ĥà¶¸à·ıà¶ľ à¶¸à·ļ
ic o
à¶§à·Ĵà¶º à¶±à·Ĭ
Ġà¶ļà·Ķ à¶¸à·ıà¶»
Ġà¶´à·Ĵà·Ħà·Ĵ à¶§
K DE
Ġà¶īà¶±à·Ĭà¶± à¶ºà·Ĵ
à¶» à¶Ńà·Ķ
à¶ľ à¶¸à·Ĭ
à¶»à·Ĭ à¶¸
Ġà¶ļà·Ļà¶½à·Ĭà¶½ à¶§
Ġà¶ĩà¶¸ à¶Ńà·Ķà¶¸
Ġà·Ħà·Ĳà¶Ł à·ĵà¶¸à¶ļà·Ĭ
Ġà¶ĭ à¶¸à¶Ĥ
Ġà¶Ī à¶Ń
Ġà·Ģà·Ĵ à¶½à·ı
Ġà·Ģà¶½ à¶ļà·Ĭ
Ġà¶ħà¶´à¶»à·ıà¶° à¶ºà¶ļà·Ĭ
à·Ļà¶± à·ļ
à·ľà¶ºà·Ĵ à¶©à·Ĭ
Ġà¶ĩà¶Ńà·Ķà¶½ à¶Ńà·Ĭ
à¶´à·Ķ à¶¯à·Ķà¶¸
t ur
Ġà¶¸à·Ĭ à¶¸à·Ĭ
Ġà¶ĳ à·Ļ
à¶ļà·ı à¶±à·Ĭà¶Ńà·Ĭ
à·ĥà·Ĭà·ĥà·Ķ à·Ģà·ı
Ġst at
à¶Ĩà¶¯à¶» à¶º
Ġà¶¶à¶ºà·Ĵ à¶ļà·Ĭ
Ġà¶ļ à¶±à·Ĭà¶±à·ļ
à·Ħà·ı à¶±à·Ĭ
Ġà·ĥà·ľ à·Ħà·ľ
à·Ĩà·ĵ à¶½à·Ĭà¶©à·Ĭ
à¶§à¶¸ à¶Ńà·Ĭ
à¶Ń à¶±à·Ĵ
Ġà¶ľà·Ĵà¶º à¶Ńà·Ĭ
Ġà¶ĩà·Ħ à·Ķà·Ģà·Ļ
Ġà·Ģà·Ļà·ħ à¶³
Ġà¶¶à¶© à¶ľà·Ĵ
à¶Ńà·Ĭà¶Ń à·Ķà·Ģà·Ļà¶±à·Ĭ
à·ĥà·Ķ à¶»à·Ķ
Ġà¶´à·ĥà·Ķ à¶´à·ĥ
âĢį à¶©
Ġà·Ģà·Ĵà·ģà·Ĵ à·Ĥà·Ĭà¶§
à¶¢ à¶½à·ĵ
à¶Ńà·Ĭà¶Ń à·Ķà·Ģà·ļ
Ġà¶ħ à¶»à·Ĭà¶®
Ġà¶ļà·Ģà¶¯à·ı à·Ħà¶»à·Ĵ
Ġà¶± à¶©
âĢįà¶»à·Ĵ à¶ļ
Ġà¶±à·ı à¶¸
Ġà¶ħà¶¸ à¶Ńà¶±à·Ĭà¶±
Ġà·ĥ à¶·
à·ħ à¶ľà¶§
Ġà¶¯à·ļ à¶´à¶½
à·ļ à¶Ńà·Ĭ
à¶ļà·ı à¶¸à·ĵ
à·Ĩà·Ĭ à¶§à·Ĭ
R egion
Ġà¶ĳà¶ļ à·Ŀ
à¶ĩà¶¸ à¶»à·Ĵà¶ļà·ıà·Ģ
à·ľ à¶Ńà·Ĵà¶±à·Ĭ
à¶´ à¶»à¶«
à·Ģà·ı à·Ħà·Ĵ
Ġà¶ļà·ľ à¶½à·ļ
à¶¸à·Ĵ à¶§
Ġà¶ĳà·ħ à·Ĵà¶º
A T
Ġà¶ľà¶« à¶±à¶º
t o
à¶ĩ à¶½à·Ĭ
Ġà¶´à¶»à·Ĵ à¶ļà·Ĭà·Ĥ
Ġà¶īà¶¯ à¶ľà·Ļà¶±
Ġà·ĥà¶¸à·Ĭà¶¶à¶±à·Ĭà¶° à¶º
à¶Ĭà¶§ à¶´à·ĥà·Ĭà·ĥà·ļ
Ġà¶±à·Ĵà¶¯à·ı à¶ľà·Ļà¶±
9 0
à·ĥà·Ĭà¶§à·ĵ à·Ģà·Ĭ
Ġà¶¡ à¶±à·Ĭà¶¯
Ġà·Ģà·Ļ à¶½
Ġà·Ħ à¶³
à·Ģà·ĥà·Ĭ à¶Ńà·Ķà·Ģà·ļ
Ġà¶¶à·Ĵ à¶Ńà·Ĭà¶Ńà·Ĵà¶º
Ġà¶ļà·Ĵ à¶½à·Ŀ
Ġà¶¯à·Ķà¶±à·Ĭà¶± à¶¯
R L
Ġà·ĥ à·Ĳà¶±
Ġà¶¸à·ľà¶±à·Ģ à¶ľà·ļ
à¶¯ à¶ľà¶±à·Ĭà¶±
Ġà¶´à¶»à·ĵà¶ļà·Ĭà·Ĥ à¶«à¶º
Ġw ith
Ġà¶»à¶¢ à¶ºà·ļ
à¶´à·Ĵ à¶§à·Ĵ
i k
Ġà·ĥà·Ĭ à¶ļà·ľà¶§à·Ĭ
Ġà·Ģà·Ħ à¶½
le ase
Ġà¶ļà¶Ńà·ıà¶ļà¶» à¶±à·Ĭà¶±à·Ļ
à·Ħ à·Ģ
Ġà¶Ĩ à¶łà·ıà¶»
à¶©à·Ķ à·Ģà·ı
Ġà¶½ à¶¯
Ġà¶´à·Ĵà¶±à·Ĭà¶Ńà·ĸ à¶»à¶ºà¶ļà·Ĭ
à¶½à·ĳ à·Ĥà·Ĭ
Ġà·Ħ à¶±à·Ĭà¶§à·Ĭ
Ġà¶ĭà¶Ńà·Ĭà¶Ń à¶»à¶ºà¶ļà·Ĭ
Ġà¶´à·Ĭà¶½ à¶ľà·Ĵà¶±
ic h
âĢįà¶º à·Ŀ
à·Ģà·ļ à¶ľ
Ġà·Ħà¶¸à·Ĭà¶¶ à·Ģà·Ķà¶±à·ı
à¶½ à·Ĵà¶ºà·ļ
Ġà·Ħà·Ĳ à¶»à·Ĵ
Ġà¶ļà·Ļà¶½à·Ĭà¶½ à·ľ
à¶Ńà·Ĵ à¶±à¶±à·Ĭ
Ġà·Ħà·Ĵ à¶»à·Ķ
à¶ļà¶º à¶ļà·ļ
à¶ļà·Ģà¶¯ à·ı
à·Ģà·Ķà¶± à¶Ńà·Ĭ
Ġà¶īà¶¯ à¶½
Ġà¶±à·Ĵà·Ģà·Ĭà¶ºà·Ŀ à¶ļà·Ĭ
Ġà¶ļà·Ķ à¶¸à·ı
à¶´ à¶¯à·Ĭà¶°
Ġà¶Ķà¶ºà·ıà¶§ à¶¸
Ġà¶ĳà¶ļà·Ĭà¶ļ à¶ľà¶±à·Ļ
Ġà¶ĩà·Ģà·Ĵà¶¯ à¶ľà·Ļà¶±
Ġà¶± à¶ľà·Ĵ
Ġà¶´ à¶Ńà·Ĭà¶Ń
à·Ģà·Ļ à¶łà·Ĭà¶ł
Ġà¶ħà¶ºà·Ĵ à¶Ńà·Ĵà¶ºà¶ļà·Ĭ
à¶¯à·Ĵ à¶¯
à¶ºà¶§ à¶¯
âĢįà¶»à¶¸à·ı à¶«à¶ºà¶ļà·Ĭ
à·ĥà·Ħà·Ŀà¶¯à¶» à¶ºà·ı
à¶¸ à¶ļà¶§
Ġà¶ĳà¶½ à·Ģà¶±à·Ĭà¶±
à¶±à·Ģà¶Ńà·Ĭ à·Ģà¶±à·Ĭà¶±
âĢį à·ĥ
Ġà¶Ńà·Ĵà¶¶à·Ķà¶« à·Ļ
u k
à·Ģà¶Ń à·ĵ
à¶§à·Ķ à¶´
à¶Ķà¶¶ à·Ģ
à¶¸à·Ħ à¶Ńà·Ĭà·Ģ
à¶½ à¶ľà·Ļ
Ġà¶ļà·ĳ à¶¸à¶ļà·Ĭ
Ġà¶ºà·ı à¶±à¶ºà·ļ
Ġà¶ħà¶±à·Ĵà·Ģà·ıà¶»à·Ĭ à¶ºà¶ºà·Ļà¶±à·Ĭà¶¸
à·Ħà·ļ à¶Ńà·Ķà·Ģ
à·Ģ à¶±à·ļà¶±
Ġà·Ĩ à·Ĳ
ĠS t
Ġà¶ļà·ıà¶½à·Ļ à¶ļ
à¶½ à¶ºà·Ĵà¶±à·Ĭ
Ġà¶ľà·Ĳà¶± à·ĵà¶¸à·ļ
C ount
à¶Ķà¶ºà·ı à¶¯
Ġà¶ļà¶» à·Ģà¶±à·Ģà·ı
a h
o v
à¶±à·Ĳ à¶Łà·Ĵ
Ġà¶ļ à·Ģà·Ĭ
Ġà¶Ńà·Ĵà¶ºà·Ļà¶±à·Ģ à¶±à¶¸à·Ĭ
à¶¸à·Ħ à¶Ńà·Ĭà¶Ń
ĠD NA
à¶ħ à¶¸à·Ķ
Ġà¶ĳ à·ħà·Ĵ
à·Ĥ à¶±à·Ĭ
à¶±à·ĵ à¶º
Ġà·ģà¶»à·ĵ à¶»à¶º
Ġà·Ģà¶ľ à¶ļà·ĵà¶¸à¶ļà·Ĭ
Ġà¶Ńà·Ķ à¶½à¶§
Ġà¶¯à·Ģà·ĥ à·Ļ
Ġà¶»à·Ĳà¶ļà·Ĵ à¶ºà·ıà·Ģ
erman y
à·Ĩ à·ı
à¶¸à·ĵ à¶§à¶»à·Ĭ
à¶¥ à·ıà·Ģà¶ļà·Ĭ
à¶¯à·Ķ à¶»à·ı
à·Ģà¶» à¶ļà·Ĭ
à·Ģà¶»à·Ĭ à¶©à·Ĭ
Ġà¶¯à·Ļ à·Ģà·Ĵ
er o
Ġà·Ģà·ļà·Ģà·Ĵ à¶¯
Ġà¶ļà¶½à·ı à¶¸
- à¶Ĵ
à¶ļà·Ĭ à¶½à·Ŀà¶ºà·Ĵ
Ġà¶º à¶±à·Ĭà¶Ń
à¶ļà·ĵ à¶º
Ġà¶´à·Ĵà¶½à·Ĵ à¶ľà¶±à·Ĭà¶±
Ġà¶ĩ à¶´à¶½à·Ĭ
à¶ļà·Ĵ à·Ģ
Ġà¶¸à¶ł à·ļà¶łà¶»
à¶¸à·Ŀ à¶±à·ı
Ġà¶ĭ à¶»à·Ķà¶¸
Ġà·ģà¶»à·ĵ à¶»
à·Ģ à·Ļà¶ļà·Ĭ
Ġà¶´à·Ĳ à¶ºà¶ļà¶§
à¶¸à·Ļ à¶ºà·ıà·Ģ
is c
ex t
Ġà¶Ńà¶»à·Ĭ à¶¢à¶±à¶ºà¶ļà·Ĭ
Ġà·ĥà¶¸à·Ĭà¶´à·ĸà¶»à·Ĭà¶« à¶ºà·Ļà¶±à·Ĭ
à¶ļà¶§ à¶Ńà·Ĭ
Ġà¶łà·ĵ à¶±
à¶Ń à¶¸à·ı
à¶½ à¶ļà¶§
à·Ħà·Ŀ à·Ģà·Ĭ
à¶¸ à¶±à·Ĵ
Ġd o
à·Ĩ à·Ŀà¶±à·Ĭ
Ġà¶Ńà¶¸à·Ķ à¶±à·Ĭà¶ľà·ļ
à¶ľà·Ļà¶±à·Ĭ à¶¸
Ġà¶Ńà¶» à¶Ĥà¶ľ
Ġà·Ģà·Ĵà·ģà·Ĭ à¶½à·ļ
Ġà¶ĩà¶º à¶Ńà·Ĭ
Ġà·Ģà¶½ à·Ļ
Ġà¶¯à·Ļà¶ļ à·Ļà¶±à·Ĭ
Ġà¶ļà¶½ à¶Ńà·Ĭ
Ġà¶»à·Ĳ à·Ģ
Ġà¶ħà·Ħà·Ķà·Ģ à·Ķà¶±à·ı
à¶¸à·ļà¶ļ à·ļ
Ġà¶´à·Ķà¶½à·ĸ à·Ģà¶±à·Ĭ
à¶Ń à·Ģà¶¸
Ġà·Ħ à·Ĵà¶ºà·Ķà¶ľà·Ŀ
Ġà¶¯à·Ĳà¶± à¶ľà¶Ńà·Ĭà¶Ńà·ļ
à¶¸à·ļà¶ļ à¶¯
Ġà¶¸à¶» à¶±à·Ĭà¶±à·ļ
Ġà¶¯à·Ļ à¶¸à·Ķ
Ġg o
Ġà·ĥ à¶½à·Ĭà¶½
à¶¶à·Ŀ à¶½à·Ĭ
d e
Ġà¶ħà¶±à¶Ńà·Ķà¶»à·Ķ à¶¯à·ıà¶ºà¶ļ
à¶¶ à¶½à¶º
à¶»à·ĵ à¶¸à¶§
à·Ķà·Ģ à¶¯
Ġà¶´à·Ķà¶¯à·Ĭà¶ľ à¶½à¶º
Ġà¶´à·Ĵà¶§ à¶Ń
Ġà¶´à¶»à·Ĵà¶ľà¶« à¶ļ
à·Ģ à¶±à·Ĳ
Ġà¶ļà¶«à¶ľà·ı à¶§à·Ķ
Ġà·Ģà·Ĵ à¶±à·Ĵ
à·Ģà·Ķ à¶±à·Ķ
Ġà·Ģà·Ķà¶« à·ľà¶Ńà·Ĭ
Ġà¶¶à·Ģ à¶ºà·Ĵ
Ġà·Ģà¶§à·Ĵ à¶±
Ġà¶Ķà¶ºà·ı à·Ģà¶Ńà·Ĭ
Ġà¶ļà·ıà¶»à·Ĭà¶ºà·ı à¶½à¶º
à¶īà¶¯à·Ĵ à¶»à·Ĵà¶ºà¶§
Ġà¶´ à¶Ńà·Ĭà¶Ńà¶»
Ġà¶¸à·ļà¶ļ à¶Ńà·Ĭ
à¶½ à·Ĵà¶ºà¶ļà·Ĭ
Ġà¶ļà·ħ à¶¸à¶±à·ı
on e
à¶ºà·Ĵ à¶§
Ġà¶ĳ à·Ģà·Ĭà·Ģà·ļ
Ġà¶´à·Ķ à¶»à·ıà·Ģà¶§à¶¸
Ġà¶¶à·Ĭ à¶½à·Ĳà¶ļà·Ĭ
à·Ģ à¶ļ
Ġà·ĥà¶¸à·Ĭà¶¶à¶±à·Ĭà¶° à¶ºà·Ĵ
" ,
, à¶Ĵà¶Ńà·Ĭ
Ġà·ĥà·Ĵ à¶ľà¶»à¶§à·Ĭ
à¶ł à·Ļ
g reat
Ġà¶± à¶»à·Ĭ
Ġà¶¯à·Ĵ à·Ģ
Ġà¶¢à¶± à¶´à·Ĭ
Ġà¶´à·Ĵ à·ħ
Ġà¶ĭà¶¯ à·Ģ
Ġà¶¯à·Ĵà¶ºà·Ķ à¶«à·Ķ
Ġà¶Ķ à·ĥ
Ġà·Ħà·Ĵ à¶§à·Ĵ
ou r
à¶Ĩ à¶ºà·Ķà¶°
Ġà·Ħà·Ķ à¶»
à¶´à·Ħ à¶Ńà·Ĭ
Ġà¶ļà·Ĵà¶º à·Ģà¶±à·Ģà·ı
à¶ļà·Ĵ à¶±
Ġà·Ģà·ļà¶¯ à¶±à·ı
Ġà¶¢à·ĵà·Ģ à¶Ńà·Ķà¶±à·Ĭ
à¶¸à·ı à¶¸à·ļ
à¶¯à·Ķ à¶»à·Ķà·Ģ
Ġà·ĥà·ĵ à¶±à·Ķ
à¶¯ à¶ļà·Ķà¶«à·Ķ
à¶½à·Ļ à¶§
Ġà¶īà¶³ à¶ľà¶±à·Ĭà¶±
Ġà¶¸ à¶©
à·ŀ à¶Ńà·Ĵà¶ļ
Count ry
à¶§ à¶½à·Ĭ
à¶ĩ à·Ħà·Ķ
Ġà¶¸à·Ĵ à·ĥà¶ļà·Ĭ
Ġà¶´à¶» à¶¸à·Ĭà¶´
Ġà¶ĭà¶¶ à·Ģ
à¶«à·Ĵ à·Ģà·Ķ
ar k
Ġà¶¶à·Ŀ à¶§à·Ĭà¶§
Ġà·ĥà¶½ à¶ļà·ı
Ġb rit
Ġcount ies
Ġbrit ain
à¶ºà·ļ à¶¯à·Ĵ
Ġà·ĥà·Ķ à¶»à·Ĳ
Ġà¶½à¶¸ à¶ºà·Ļà¶ļà·Ĭ
Ġà·ĥà·Ĭà¶®à·Ĵ à¶»
à·Ļà¶± à·Ķà¶Ńà·Ĭ
Ġà¶ħà¶Ĥà¶ļ à¶ºà¶ļà·Ĭ
à¶¯ à·Ŀ
Ġà¶¢ à¶»à·ıà·Ģà¶ļà·Ĭ
à¶¸à·Ĭà¶¶ à·Ĵ
Ġà·Ģà·Ļà¶± à¶¸
âĢįà¶º à¶±à·Ĭ
M E
Ġà¶´à·Ĵ à¶łà·Ĭà¶ł
à¶¸à·Ļ à·Ħà·ıà¶§
Ġh ow
à¶´à·Ļ à¶½
à¶ļà·Ķ à·ħà·Ķ
Ġà¶ļà·Ĳ à¶½à·ĳ
f rance
Ġà¶ħà¶¸à·Ĭ à¶¸à¶ºà·Ĵ
Ġà·ĥà¶³ à·Ħà¶±à·Ĭ
à¶¸ à¶»à¶«
Ġà¶ħ à¶³à·Ĵ
Ġà¶Ń à·ıà¶»
Ġà·ģ à·ĵà¶Ń
Ġà·Ħà·ľà¶ºà·ıà¶ľà¶Ńà·Ĭà¶Ń à·Ļ
Ġà·ĥ à·ľà¶»
à¶ľà¶±à·ĵ à·Ģà·Ĵ
r om
Ġà·ĥ à¶Ńà·Ķà·Ģ
Ġà¶¶ à¶¯à·Ķ
Ġà¶ļ à¶½à·Ķ
Ġà¶¸ à·Ļà¶ļà·Ĭà·ĥà·Ĵ
Ġà¶´ à·Ķà·Ģà¶Ńà·Ĭ
à¶ºà·Ĵ à¶±à·ļ
à¶ľà·Ĭ à¶ľ
Ġà¶»à·Ŀà·Ħ à¶½à·ļ
Ġà¶ļà¶¯ à·Ģà·Ķà¶»
à·Ģà·Ĭ à·Ģà¶¯
Ġà¶īà¶³ à·ĵà·Ģà·Ĵ
Ġà¶´à¶½ à¶¸à·Ķ
Ġà¶Ńà·ļà¶» à·Ļà¶±à·Ĭà¶±
à¶§ à·Ģà¶Ńà·Ĭ
Ġà·ĥà¶¯à·Ĭà¶¯ à¶ºà¶ļà·Ĭ
4 5
Ġà·Ħà·ľà¶» à·Ļà¶ļà·Ĭ
à¶Ń à¶¯
à¶ħà¶´à·Ĵ à¶Ńà·Ĭ
à¶½à·Ĭ à·Ģ
Ġ [
i v
à¶¢ à·Ĵà¶Ń
Ġà¶¢ à¶½
Ġà¶» à¶±à·Ĭ
Ġà¶º à¶¯à·Ĭà¶¯à·ĵ
Ġà¶Ńà·ıà¶Ńà·Ĭà¶Ńà·ı à¶ľà·ļ
à¶ºà¶±à·Ĭ à·Ģ
à¶¢ à·Ļà¶±
Ġà¶ħà¶±à·Ĭà¶Ńà¶»à·Ĭ à¶¢à·ı
in e
Ġà¶ļ à¶®
Ġà¶º à·Ģà¶±à·Ģà·ı
Ġà¶¯à·Ļ à·ĥà¶§
à¶»à·Ļ à¶¯à·Ĭà¶¯
Ġà·ĥà·Ĳ à¶ļà¶ºà·Ĵ
à¶ľà·ı à¶±à·ļ
Ġà·Ģà·Ļ à·Ħà·Ļ
Ġà·Ħà¶¸à·Ķà¶¯ à·ıà·Ģà·ļ
Ġà¶´à¶»à·ı à¶¢à¶º
Ġà¶Ĩ à¶ºà·Ķà¶¶à·Ŀà·Ģà¶±à·Ĭ
à¶ļà·ľ à¶½
Ġà·Ģà·ı à·ĥà·Ķ
à¶±à·Ĳà·Ģà¶Ń à¶Ńà·Ĭ
Ġà¶· à¶§
Ġà¶¯à·Ķà·Ģ à¶±à·Ģà·ı
Ġà¶´à·ĸ à¶¢à·ı
Ġà¶¯à·Ļà¶´à·ıà¶»à·Ĭà¶Ńà¶¸à·ļà¶±à·Ĭ à¶Ńà·Ķà·Ģ
Ġà¶ħà¶·à·Ĵ à¶´à·Ĭ
Ġà¶¢ à¶Ĥà¶ľà¶¸
à¶¯ à¶ºà¶ļà·Ĭ
à¶ī à¶Ńà·Ĵ
à¶§ à·ľà¶¸à·Ĭ
Ġà¶±à·Ĳà¶ľà·Ĵ à¶§à·Ĭà¶§
Ġà¶´à·Ĳ à¶ºà¶ļà·Ĭ
Ġà¶¯à·Ļà¶ļ à¶ļ
b ia
Ġà¶´à·Ĳà·Ħà·Ĳà¶¯à·Ĵà¶½à·Ĵ à·Ģ
à¶´à¶±à·Ĭ à¶¯à·Ķ
Ġà¶ħà·ĥ à¶½à·Ĭ
Ġà¶ħ à·Ģà·Ĭ
à¶»à·Ĭ à¶Ŀ
Ġà¶ļà·Ĳ à¶³
Ġit em
Ġà¶Ĩà¶ºà·Ķà¶° à¶º
Ġà·ĥà·Ķà¶» à¶Ĥà¶ľ
à¶ºà·Ĵ à¶ļ
Ġà·Ļ à·Ģà¶½à·ı
Ġà¶´à·ıà¶© à·Ķà·Ģà·ļ
à¶©à·Ĭ à¶±à·Ĵ
Ġà¶Ńà¶» à·Ķà·Ģ
il ipp
à·ĥà·Ĭ à¶´
Ġà¶±à·Ģà¶Ńà·Ĭà¶Ń à¶½à·ı
à¶´à·Ħà·Ķ à¶ľà·Ĵà¶º
Ġà¶¸à¶ľà·Ķ à¶½à¶ļà·Ĭ
Ġà¶±à·Ķà¶¹ à·ļ
Ġà·Ģà¶§à·Ĵà¶±à·ı à¶ļà¶¸
Ġà¶ļ à¶«
à¶ºà·Ļ à¶ļà·Ķà¶§
Ġà¶ļà¶» à¶¯à·Ĭà¶¯à·ĵ
à¶ļà·Ĵà¶±à·Ĭ à¶¯
à·ĥà·Ĵà¶º à·ħà·Ķ
à¶¸à·ļà¶ļ à¶±à¶¸à·Ĭ
Ġà¶´à¶»à·ı à¶¯
Ġà¶ļà¶±à¶ľà·ı à¶§à·Ķà¶ºà·Ĵ
Ġà¶¯à¶ļà·Ĵ à¶±à·Ĭà¶±à·ļ
Ġà¶ħ à¶Ńà·Ĭà¶Ń
Ġà¶´à·Ļà¶±à·Ĭà¶± à·Ķà·Ģà·ı
Ġà¶·à·ıà·Ĥ à·ıà·Ģ
à¶Ķà·Ģà·Ķà¶±à·Ĭ à·Ģ
Ġà¶§ à·Ļà¶ļà·Ĭ
Ġà¶´à·Ļ à¶§à·Ĭà¶§à·Ĵ
Ġà¶ħà¶Ńà¶» à·Ļ
Ġà¶´à·Ķà¶¯à·Ķà¶¸ à¶ºà¶ļà·Ĭ
Ġà·Ģ à¶¸à¶§
à¶¸à·Ĳ à·Ģà·Ķà¶¸à·Ĭ
Ġà¶½à¶ľ à·Ĵà¶±à·Ĭ
Ġà¶¸à·Ļ à¶Ńà·Ļà¶±à·Ĭà¶§
Ġà¶¸à·Ķ à¶¯à·Ĭà¶¯
Ġà¶ļà·Ŀ à¶§à·Ĭ
Ġà¶Ĭà¶§ à¶´à·ĥà·Ĭà·ĥà·ļ
Ġà¶ĳà¶ļà¶Ńà·Ķà·Ģ à·Ļà¶½à·ı
Ġà¶´à·Ģà¶Ńà·Ĵ à¶±
Ġà¶´à·ĵ à¶±à¶±à·Ĭà¶±
Ġà¶Ķà¶ºà·ı à¶Ńà·Ĭ
Ġà¶±à·Ģà¶Ńà·Ĵ à¶±à·Ģà·ı
Ġà¶´à¶» à¶±
Ġà·ĥà·Ĳ à·Ħà·Ĳ
Ġà·ĥà¶Ĥ à¶¥à·ıà·Ģ
r ou
Ġà¶Ī à¶Ńà¶§
Ġà¶´ à·Ĳà¶±à·Ĭ
à¶±à·ı à¶ľà·ıà¶»
Ġà¶¸à·ľà¶ļ à·Ķà¶Ńà·Ĭà¶¸
à¶Ńà·Ķà·Ģ à¶ļà·Ĭà¶ļà·Ķ
Ġà¶§à·Ĵà¶ļ à¶ºà·Ĵ
Ġà¶Ńà·Ŀà¶» à¶ľà¶±à·Ĭà¶±
i x
à¶ºà·Ĵ à¶±à·Ĭà¶§
Ġà¶ĭà¶¯à·ļ à¶§
à¶±à·Ĭà¶± à¶ºà·Ĵ
à·ĥ à·Ķà·Ģà¶ļà·Ĭ
Ġà·Ģà·Ĵà¶ļà·Ĭ à¶§à¶»à·Ĭ
à¶ľ à·ĥà·Ĭ
à¶¯à·Ķ à¶±à·Ĭà¶±
Ġà¶ļà·ĵà¶´ à¶ºà¶ļà¶§
Ġà·Ħà¶¸à·Ĭà¶¶ à·Ģà·Ļà¶½à·ı
ol d
Ġà¶»à¶¢ à¶Ńà·Ķà¶¸à·ı
Ġà¶ļà·Ŀ à·Ģà·Ĵ
à¶Ńà·Ĭà¶Ńà·Ķ à·Ģà·ı
Ġà¶´à·Ļ à¶Ńà·Ĵ
à¶ĩà¶» à·ľà¶±à·Ĭ
Ġà¶Ńà·ľà¶» à¶Ńà·Ķà¶»à¶ļà·Ĭ
Ġw indow
Ġà¶¸ à·Ĵà¶±à·Ĭ
l and
Ġà¶¸à¶«à·Ĭà¶© à¶½à¶º
à¶¸à·ı à¶ºà·ı
Ġà¶¯à·Ļ à¶ļà·ļ
à·Ħà·ľ à¶Ńà·Ĭ
G ener
Ġà¶½à·Ĳ à·ĥà·Ĭà¶Ńà·Ĵ
Ġà¶´ à¶´
Ġà¶ħ à¶»à·Ķ
à·Ģà·Ĵ à¶¯à·Ķ
Ġà¶¸à·Ĵà¶±à·Ĵ à¶Ńà·Ĭà¶Ńà·Ķà·Ģà¶ļà·Ĭ
Ġà¶Ńà·ľà¶» à·Ģ
Ġà¶Ĩ à¶Ńà·Ĭ
Ġà¶¸à·Ĵà¶±à·Ĵ à·Ħà·Ļ
Ġà¶ļà¶»à·Ķ à¶«à·ıà·Ģ
Ġà¶ĩà¶¸ à¶Ńà·Ķà¶¸à·Ĭ
Ġà¶¸à·Ĵà¶±à·Ĵ à·ĥà·Ļà¶ļà·Ĭ
Ġà·ĥà·Ħ à¶Ńà·Ĵ
à¶Ń à·ľà¶»
à¶ħ à¶ļà·Ĭ
Ġà¶¸à¶Łà·Ķ à¶½
Ġà¶±à·Ĵà·Ģà·ĥ à¶§
Ġà¶ľà¶«à·Ķà¶¯à·Ļà¶± à·Ķà·Ģ
an ia
Ġà¶Ĩà¶¯à¶» à·Ļà¶±à·Ĭ
à¶¸à·ıà¶±à·Ĭ à¶©à¶»à·Ĭ
Ġà·Ģ à·ĥà·ı
âĢįà¶ºà·Ģ à¶ļà·ıà·ģ
Ġà¶´à·Ļ à¶¸à·Ĭ
à·ģ à·ļà·Ĥ
Ġà·ĥà·Ħ à¶·à·ı
an k
à¶Ńà¶¸à·Ķ à¶±à·Ĭà¶§
à·ħà·Ķà·Ģ à·Ļà¶ļà·Ĭ
Ġ {\
i me
à¶½à·Ĭ à·ĥà¶±à·Ĭ
Ġà¶ľà·Ĳà¶½à¶´ à·Ļà¶±à·Ģà·ı
Ġà¶ļà·ľ à·Ħà·Ļà¶±à·Ĭ
Ġà¶ļà·ĳ à·Ģà·ı
Ġà¶ĳà¶ļà·Ĵà¶±à·Ļ à¶ļà·ıà¶§
à¶±à·Ĭà¶Ń à·ıà¶»
Ġà¶ļà·Ŀà¶łà·Ĭà¶ł à·Ĵà¶º
Ġà¶ļà·ıà¶¸ à¶»à¶ºà¶ļà·Ĭ
Ġà·Ħà¶¸à·Ĭà¶¶à·Ķ à¶±à·ļ
Ġà¶ļ à·ŀ
à·ģ à·ĸ
Ġà¶¸à·ı à·ĥà·Ļ
Ġà·ĥà·ļ à¶»à·ı
Ġà¶ħà¶¸à·Ĭ à¶¸à¶ľà·ļ
Ġà¶ĩà¶» à·ľà¶±à·Ĭ
à¶ļà·Ĵà¶º à¶±à·Ģà·ı
Ġà¶īà¶ľà·Ļà¶± à¶ľà¶±à·Ĭà¶±
à¶½à·Ĭà¶½ à¶¸
à¶¯ à¶¸
à¶´à·ı à¶Ń
Ġà¶¶à¶½ à¶´
Ġà¶»à·ı à¶¢à·ı
Ġà¶¶à¶½ à¶Ĥ
Ġà¶ºà·ıà¶½à·Ķà·Ģ à·ľ
-a ction
Ġà¶¢à·ļ à·ĥà¶±à·Ĭ
Ġà¶ķà¶± à¶½à·Ķ
Ġà¶¯à·Ļà·Ģà·Ĵà¶º à¶±à·Ĵ
Ġà¶¯à·Ĳà¶± à·Ļà¶±à·Ģ
Ġà¶±à·Ĳà¶Ńà·Ĵ à·Ģà·Ļà¶±à·Ĭà¶±
à¶ļà¶» à¶±à·Ĭà¶±à·ļ
à¶© à·Ĳ
Ġà¶»à¶ľ à¶´à·ı
Ġà¶Ķà¶»à¶½à·Ŀ à·ĥà·Ķà·Ģ
Ġà·ĥà·ľ à¶ºà¶±à·Ĭà¶±
Ġà¶´ à·Ģà·Ĭ
à¶¶à·Ĭ à¶½à·ĸ
Ġà¶ĳà¶ļà·ļ à¶¯à·Ĵ
Ġà·Ħ à·ĺà¶¯
Ġà¶ļà·Ĵà¶ºà·ı à·Ģà·Ĵ
à¶´à·Ŀ à¶§à·Ĭ
Ġà¶ĩà·Ħà·Ķ à¶±
à¶¯à¶±à·Ĭà¶±à·Ģ à¶±à·ļ
Ġà·ĥà·Ĭ à¶ļ
Ġà¶¯à·Ģà·ĥ à¶¸
à¶¸à·Ļà¶ºà·ı à¶§
à¶± à¶ļà·ľà¶§
Ġà¶ļà·Ĵà¶ºà¶±à·Ĭà¶± à¶ļà·Ŀ
Ġà·Ħà·ľà¶¯ à¶¯
Ġà¶±à·Ĳ à·Ģà·Ĭ
à¶»à·Ĵà¶ļà·ı à¶±à·Ķ
à¶ļà¶«à¶ľà·ı à¶§à·Ķà¶ºà·Ĵ
Ġà·Ħà·Ĳ à¶´à·Ĭà¶´
à¶´ à¶«
à¶ħ à¶Ĥà¶ļ
Ġà¶¶à·Ĳ à¶§à·Ĭ
à·Ļà¶± à¶¸à·Ĭ
Ġà¶±à·Ĵà¶½à¶°à·ı à¶»à·Ĵà¶ºà·ı
Ġà·Ħ à¶¯à·Ķà¶±à·ı
Ġà¶±à·ľ à¶¸à·Ĵ
Ġà¶» à·ĥà·Ĵ
à¶¸à·ı à¶ľà·ļ
Ġà¶ħà¶´ à¶ľà·ļ
Ġmon th
Ġà¶±à·Ļ à¶¸à·ĵ
Ġà¶Ńà·ı à¶±à·ıà¶´à¶Ńà·Ĵ
ilipp ines
à¶¯à·ı à¶±à·Ĭà¶±
Ġà¶±à·Ĵà¶¯ à·Ĵà¶º
à·ĥà¶¸à·Ĭà¶¶ à¶±à·Ĭà¶°
à¶´ à¶±à·Ĭà¶±
Ġà¶ī à¶©à¶ļà·Ĭ
Ġà·Ħà·Ĵà¶Ń à·Ķà·Ģà¶§
à¶Ĥà·ģ à¶º
à¶´à·Ļà¶± à·Ļà¶±
Ġà·Ģà·Ĳà¶©à·ĥà¶§ à·Ħà¶±à·Ĭ
ĠS h
Ġà¶ļà·Ĵà¶ºà¶½à·ı à¶¯
Ġà·Ģà·Ĳà¶» à¶¯à·Ĭà¶¯à¶ļà·Ĭ
Ġà¶īà·Ħ à¶½à¶§
Ġà¶¡à·ı à¶ºà·ıà¶»à·ĸà¶´
à·Ģà·Ķ à¶©à·ı
à¶ļà¶§ à·Ģà·Ħ
à¶« à·Ļ
Ġà·Ħ à·Ļà¶±
-- --
Ġà¶¸à·Ĵà¶±à·ĵà¶¸à·Ĳ à¶»à·Ķà¶¸à·Ĭ
Ġà¶Ĩ à·ģà·Ĵà¶»à·Ĭ
à¶ļà·ı à¶½à·ĵà¶±
Ġà¶ĳà¶ļ à¶ļà·Ķà¶Ńà·Ĭ
Ġà·ĥà·Ĳ à¶Ńà·Ĭ
à¶¸à·Ķ à¶½à·Ĵà¶±à·Ĭ
Ġà¶¯à·Ĵà¶ļà·Ĭà¶ļ à·ĥà·ıà¶¯
Ġà·ĥà·Ĭà¶®à·ı à¶±à¶ºà¶ļà·Ĭ
u re
à·Ģà·ı à·ĥà·Ĵ
à¶ħ à¶»à·Ĭ
à¶ħ à¶°à·Ĵ
Ġà¶ĳà¶ļà·Ĭà¶ļ à·Ŀ
Ġà¶ľà·Ĵ à¶½à¶±à·Ĭ
as k
Ġà¶´à·ıà·ĥ à¶½à·ļ
Ġà·Ģà·Ĵà¶ļà¶½à·Ĭ à¶´
Ġà¶´ à·ħà·Ĵ
Ġà¶Ĩà¶»à¶ļà·Ĭà·Ĥ à·ıà·Ģà¶§
Ġà·Ħ à·ĸ
à¶½à·Ĭà¶½ à·ļ
Ġà¶ħà·Ģà·ĥà·ı à¶±à¶ºà·ļ
ri p
Ġà·Ħà·ľà¶³ à¶¯
Ġà·Ħà¶º à·Ĵà¶ºà¶ļà·Ĭ
à¶½à·Ĵ à¶´à·Ĵ
à¶± à¶Ńà¶»
à¶ļà·Ķ à¶¸
Ġà·Ħà·Ŀà¶§ à¶½à·ļ
ĠC al
à¶ļà·Ĭ à¶½à·Ļ
à¶» à¶±à·Ģà·ı
Ġà¶¯à·Ļ à·Ģà·Ĳà¶±à·Ĵ
Ġà·ĥà·ľà¶½à·Ĭà¶¯à·ı à¶¯à·Ķà·Ģ
Ġà·ĥà·ı à¶¸à·Ĭà¶´
Ġà¶¶à·ľ à¶±
Ġà¶¯à·Ķà¶» à·ĥà·Ĭà¶®
à¶¢à·ļ à¶¸à·Ĭà·ĥà·Ĭ
Ġà¶¶à·Ĳà¶½à·Ķà·Ģ à·ľà¶Ńà·Ĭ
, à¶Ķà¶ºà·ıà¶§
Ġà·Ħ à¶¸à·Ĭ
Ġà¶ĩ à¶«
Ġà·Ħà¶¸à·Ĭà¶¶ à·Ģà·Ļà¶¸à·Ķ
Ġà·Ģà·Ĵà¶±à·ı à¶©à·Ĵà¶º
T h
Ġà¶ħà¶³à·Ķ à¶»à·Ķ
à¶ļà·ľ à·Ħà·ľ
à¶±à·Ĵà¶º à¶»à·Ĭ
à¶ļ à¶¶à¶©à·Ĵ
Ġà·ĥ à¶Ł
à¶»à·Ķ à¶«à·Ĵ
Ġà¶»à·Ĵà¶¯ à·Ļà¶±à·Ģà·ı
Ġà·Ģà·Ħà¶±à·Ĭ à·ĥà·ļ
Ġà¶Ńà·Ĵà¶ºà·ı à¶ľà¶±à·Ĭà¶±à·Ģà·ı
à·Ģà·ĥ à¶¸à·Ĭ
à¶Ĭ à¶ºà·Ļ
à¶±à·Ĭà¶© à·²
Ġà·Ģà·Ĵà·ĥ à¶³à·Ķ
à¶ĳà¶ļà·Ĭà¶ļ à·Ŀ
Ġà·Ģà·Ĳ à¶¯à·Ķ
Ġà¶¢à·Ĵà·Ģà·Ĵ à¶Ńà¶º
un g
Ġà¶Ńà¶» à¶ľà¶º
Ġà¶±à·Ĵà¶»à·Ĭà¶¸à·ı à¶«
à¶´ à·ĥà·Ĵà¶±à·Ĭ
Ġà¶ļà¶±à·Ļ à¶ļà·Ŀ
Ġà¶ļà·Ļà¶± à·Ļà¶ļà·Ķ
Ġà¶¸ à·ĳ
Ġà·Ħà¶¯à·Ģ à¶Ńà·ļ
Ġà¶ĭà¶Ńà·Ĭà·ĥ à·Ģà¶º
a il
Ġà¶© à·Ĳà¶±à·Ĵà¶º
Ġà·Ģà·Ĵ à·ĥà·Ĭà·ĥ
à¶½à·Ĵ à¶¸à·Ĭ
Ġà·Ģà·Ĵà·ģà·Ĵ à·Ĥà·Ĭà¶¨
Ġà¶¶à·Ĳ à¶¯
Ġà·ĥà·Ĭ à¶§à·Ĭ
Ġ- čĊ
Ġà¶ħà·ĥà·ı à¶¸à·ıà¶±à·Ĭ
Ġà¶±à·Ĵ à¶ļà·Ĭ
à¶¶à·Ĭ à¶¶
Ġà¶±à¶Ĥà¶ľà·Ĵ à·Ģ
Ġà·Ģ à¶¸
à·ĥà·Ĭ à·Ģà¶ºà¶Ĥ
Ġà¶½à·ļ à·ĥà·Ĵà¶ºà·Ļà¶±à·Ĭ
à¶ļ à·ħà·Ķ
Ġà¶¶à·ı à¶Ńà·Ĭ
- à¶ĩà¶ºà·Ĵ
à¶½à·ı à¶§
à·ľà¶ļ à¶§à·Ĭ
Ġà¶ĩà¶º à¶ľà·Ļ
à·Ĥà·Ĭ à¶«
Ġà¶±à·Ĵà·ģà·Ĭ à¶ł
Ġ =
à¶ļ à¶´à·Ĵà¶Ńà·ıà¶±à·Ĭ
Ġ us
Ġà¶ľà·Ĵà·Ģà·Ĵ à·ĥà·Ķà¶¸
à¶¸à·Ĭ à·Ħà·ı
Ġà¶ºà·Ķ à¶»à·Ŀ
à¶±à·Ķ à¶¸à·Ĭ
Ġà¶ľà·ľ à¶¯à·Ķà¶»
Ġà¶±à·Ĳ à¶±à·Ĭ
Ġà¶¸à·ľ à¶»à·Ĵà¶ºà·ıà¶§à·Ĵ
Ġà¶ļà·Ĳà¶¸ à¶Ńà·ĵ
Ġà¶ĳà¶ļà·Ĭ à·ĥà¶Ńà·Ĭ
à¶½à·ľ à¶ļà·Ĭà¶ļà·ı
à¶´à·Ķ à·ħà·Ķà·Ģà¶±à·Ĭ
Ġà¶ħà·ĥà·ı à¶»à·Ĭà¶®à¶ļà¶ºà·Ĵ
à¶ļ à¶»à·Ĭà·ģ
à¶ħà¶´ à·Ŀ
Ġà·Ģà·ıà¶©à·Ĵ à·Ģà·Ļà¶±à·Ĭà¶±
Ġà¶ĭà¶¯à·ı à·Ħà¶»
ph ilippines
Ġ ."čĊ
Ġà¶¯à·Ļ à¶ºà¶ļà¶§
Ġà¶© à¶º
à¶¸à¶± à¶ļà·Ĭ
Ġà·Ħà·Ĳà·ĥà·Ĵà¶» à·ĵà¶¸
Ġà¶Ń à·Ŀà¶¸à·ĥà·Ĭ
Ġà·Ģà·Ĳà¶© à¶ļà¶»à¶±
à·Ħà·Ĵ à¶Ńà·Ģ
Ġà·Ģà·Ĵà¶¯à·Ĵà·Ħ à¶ļà¶§
Ġà¶Ĩà¶»à¶ļà·Ĭà·Ĥà·Ĵà¶Ń à·Ģ
Ġà¶¯à¶» à·Ķà·Ģà¶±à·Ĭ
à¶½ à¶ºà·ı
Ġà¶±à·Ģà¶Ńà·Ĭ à·Ģà¶±à·Ģà·ı
Ġà¶ļà·Ģà¶¯ à¶¯
Ġà¶Ńà·ıà¶Ńà·Ĭà¶Ńà·ı à¶§
Ġà¶ľà¶±à·Ķà¶¯à·Ļà¶± à·Ķà·Ģ
à¶ľà·Ļ à¶§
Ġà¶ļà¶»à¶¯à¶» à·ļ
Ġà¶ļà¶»à¶ºà·Ĵ à¶¯
à¶½à·Ĭà¶½ à¶¸à·Ĭ
Ġà¶ļà·Ĵà¶ºà·Ļ à·Ģà·Ĭà·Ģà·ı
à¶½à·ı à¶±à·ı
Ġà¶Ĩ à¶°à·ıà¶»
Ġà·Ģà·Ĳà¶© à¶Ń
Ġà¶ľà·ĳ à¶±à·Ĵ
à¶Ĩà¶»à¶ļà·Ĭà·Ĥ à¶ļ
Ġà¶¶à·Ĳà¶»à·Ĵ à·Ģà·Ļà¶ºà·Ĵ
Ġà·ĥà¶§ à¶±à¶ļà·Ĭ
à¶±à·Ĵ à·Ģà·Ĭ
à¶Ĥà¶ł à·Ķ
à·ĥ à¶½à·ı
Ġà¶ļà·ľ à·Ħà·ıà¶§à¶¯
ig ht
à¶¸à¶±à·Ĭ à¶Ńà·Ĵ
Ġà¶´à·Ĵà·ħà·Ĵ à¶Ńà·Ķà¶»à·Ķ
Ġà¶ļà·Ģà·Ķ à·ħà·Ķà·Ģ
2 1
i re
à·Ħ à¶ºà·Ĵà¶º
Ġà·Ħà·Ĳ à¶Ńà·Ĳ
Ġà¶ľà¶Ńà·Ĭà¶Ń à¶¸
Ġà·ħà¶¸à¶ºà·Ĵ à¶±à·Ĭà·Ģ
Ġà¶ľà·ľ à·ĥà·Ĭ
Ġà¶´à·Ļà¶±à·Ĭà¶± à¶±à·Ĭà¶±à¶¸à·Ĭ
Ġà¶īà·ĥà·Ĭà¶ļà·Ŀ à¶½à·ļ
Ġà·Ħà·Ĳà¶ľ à·ĵà¶¸à·Ĭ
Ġà¶¯à·Ķ à¶´à¶Ńà·ļ
, .čĊ
Ġà¶¸à·Ķ à¶±à·Ĭ
Ġà¶½à·Ŀà¶ļ à¶ºà¶§
à¶¸à·Ļ à¶ļ
à·Ķ à¶«à·ı
à¶´ à¶§
à¶¶ à¶¶à·Ŀ
Ġà¶´à·Ĵà¶§ à¶Ńà¶§
Ġà·ĥà·Ĳà¶½à¶ļà·Ĵ à¶½à·Ĭà¶½à¶ļà·Ĭ
Ġà¶ļà·Ĳà¶¸à·Ĳ à¶Ńà·Ĵ
à¶Ńà·Ķà¶¸ à·Ĵà¶º
i le
à¶´à·Ĭ à¶´à·Ĵ
Ġà¶ł à·ŀà¶¯à·Ĭ
Ġà¶»à·Ĳ à¶³
Ġà¶¶à·Ĵ à¶Ńà·Ĭà¶Ńà¶»
Ġà·Ħà·Ĳà¶¸à·Ŀ à¶ľà·Ļà¶¸
Ġà¶´à¶»à·ĵ à¶ļà·Ĭà·ģ
Gener ic
Ġà¶ľà·Ħ à¶½
Ġà¶ķ à·Ħà·Ĭ
à·Ħà·Ķ à·ĥà·Ĭà¶¸
Ġà¶¶à·Ĵ à¶¯
Ġà¶½à·Ĳà¶¶à·Ķ à·Ģà·ı
Ġà¶Ńà¶»à¶Ł à¶º
à¶ļà·Ĭ à¶½à·Ĵà¶±à·Ĭ
Ġà¶» à¶¯
Ġà¶½à·Ĳà¶¶à·Ķ à¶«à·Ķ
Ġà¶ħà¶°à·Ĵ à¶»à·ıà¶¢à·Ĭ
à·Ģà·Ĵ à·ģà·Ĵ
Ġà¶ļà·ľ à¶Ńà¶±
à¶§à·Ĭà¶§ à¶ļà·Ĭ
Ġà¶´à¶» à¶¯à·Ĭà¶¯
à¶¶à¶º à·Ģà·Ļà¶±à·Ĭà¶±
Ġà¶ĭà¶´ à¶ļà¶»à¶«à¶º
à¶ħà·Ģà·ĥà·ı à¶±
Ġà¶ĩà¶ľà·Ĵ à¶½à·Ĵ
Ġà¶ºà·ı à¶¸
Ġà¶± à·ĸ
à¶¸à·ļà¶ļ à·Ļ
à¶´à¶»à·Ĵà·ĥà·Ĭà·ĥ à¶¸à·Ļà¶±à·Ĭ
Ġà¶ĩà·Ħ à·Ļà¶±à·Ĭà¶±à·ļ
Ġà¶¸à¶» à¶±
Ġà·Ļ à·Ģà¶±
à¶´à·Ĭ à¶´à¶Ńà·Ĭ
Ġà·ĥà·Ĭ à¶ļà·Ŀ
à¶´ à·ıà·Ģ
Ġà¶ħà·Ģ à·Ħà·Ĵà¶»
à¶¸à·Ķà¶¯ à¶½à·Ĭ
à¶´à·Ķà¶»à·Ķ à¶¯à·Ķ
Ġà¶¶à·ļà¶» à¶ľà¶Ńà·Ĭà¶Ńà·ı
Ġà·ĥà·ı à¶¢à¶±à·Ĭà¶§à·Ĭ
Ġà¶Ńà¶¸à·Ķà·ĥà·Ļ à·Ģ
à¶Ńà¶±à·Ĭ à¶¯à¶»
Ġà¶Ĭ à¶§à¶Ńà·Ĭ
Ġà·ĥà¶¸à·Ĭà¶´ à¶Ńà·Ĭ
Ġà·ĥà·Ĭà¶§ à·ıà¶»à·Ĭ
Ġà¶ħà·Ħà¶±à·Ĭà¶± à¶¯
Ġà¶´à·Ĵà¶»à·Ĵ à¶ļà·Ĭ
Ġà¶ľà·ı à¶±à·Ļ
Ġà¶¶à·ļ à¶»à·Ĵà¶½à·ı
Ġà¶¶à·ļ à¶»à·Ķà·Ģà·ı
Ġà¶¯à·ĸà¶´ à¶Ńà¶§
Ġà·ĥà·Ĭà¶§à·ĵ à·Ģà·Ĭ
à¶¯à·ļ à·Ģà¶½à·Ĭ
Ġà¶Ķà¶Ńà¶± à·Ĵà¶±à·Ĭ
Ġà¶Ķ à¶ļà·Ĭà·ĥà·Ĵà¶¢à¶±à·Ĭ
Ġà¶¶à¶½ à¶ļà·ı
Ġà¶Ķà¶¶ à¶Ńà·Ķà¶¸à·ı
Ġà¶Ńà·ı à¶ļà·Ĭà·Ĥà¶«à¶º
Ġà·ĥà·Ļ à¶½à·Ĭ
à¶¢à·ļ à·ĥà¶±à·Ĭ
à·Ļà·Ħ à¶¯
à¶¸ à·ĳà¶±à·Ĭ
à·Ĳà¶± à·ļ
Ġà¶ļà·Ĳ à·ĥà·Ĵ
Ġà¶½à¶Ł à·ı
à¶¯à·Ķ à¶ļà·Ĭ
à¶Į à·Ģ
à¶º à¶ºà·Ļà¶±à·Ĭ
à¶ľà¶Ńà·Ĭà¶Ń à¶§
Ġà¶ħà¶±à·Ķ à¶ľà·Ĭ
Ġà¶¸à·Ķà¶«à¶ľà·Ĳ à·Ħà·Ķ
c he
Ġà·Ĩ à·ĵ
Ġà¶´à·Ģà¶Ńà·Ĵ à¶±à·Ģà·ı
Ġà¶ľ à¶½à·Ģ
à¶§ à·ıà¶»à·Ĭ
Ġà¶ļà·Ĵà·Ģà·Ĭ à·Ģà¶¸
Ġà¶¸à·Ĵà¶±à·Ĵà·Ħ à¶ľà·ļ
Ġà¶ħà·Ģ à¶§
à¶´à¶»à·Ĵà·ĥà·Ĭà·ĥ à¶¸à·Ĵà¶±à·Ĭ
à¶ħ à·ħà·Ķ
Ġà¶´à·ı à·ĥà¶½à·Ĭ
Ġs y
Ġà¶īà·ĥà·Ĭà·ĥà¶» à·Ħà·Ĵà¶±à·Ĭ
à¶ºà·Ĵ à¶ļà·ıà¶±à·Ĭà¶Ńà·Ĭ
Ġà·Ģà·ļà¶½à·ı à¶ºà·Ķà¶°à¶¸à·Ĭ
à¶ļà·Ĳà¶¸ à¶Ńà·Ĵ
Ġà¶¸à·Ĵ à¶±à·Ĵà¶º
Ġà¶¢à·ĵà·Ģà·Ĵà¶Ń à¶ºà¶§
Ġà¶´à·Ķà·ħà·Ķà·Ģ à¶±à·Ĭà¶±à·ļ
Ġà·ĥà·Ħà·ı à¶ºà¶ļ
Ġà¶§à·Ĵà¶ļ à¶ļà·Ĵà¶±à·Ĭ
Ġà¶ļà·ıà¶»à·Ĭà¶º à¶¶à·Ħà·Ķ
Ġà¶ļà·Ĭà¶½ à¶¶à·Ĭ
Ġà¶¶à·Ŀ à¶§à·Ĭà¶§à·Ķà·Ģà¶ļà·Ĭ
Ġà¶łà¶»à·Ĵ à¶Ńà¶º
à·ĥ à·Ķà·Ģà·Ļà¶±à·Ĭ
à¶ĭ à¶Ńà·Ķà¶¸à·ıà¶«
Ġs ome
Ġà·ĥà·Ĭà¶®à·ı à¶±à¶ºà·ļ
Ġà¶·à·ĸ à¶¸
à·Ģ à¶¸à·Ķ
à¶±à·Ĭà¶± à·ĳ
à¶ļà·ļ à¶§à·Ĭ
Ġà¶ĳà¶±à·Ĭ à¶¢à·Ĵ
à¶Ń à·Ģà¶¯à·Ķà¶»à¶§à¶Ńà·Ĭ
à¶´ à·Ģà·Ķ
Ġà¶ĭà¶Ńà·Ķà¶¸à·ıà¶« à·Ļà¶±à·Ĵ
Âł à¶Ķà¶ºà·ı
Ġà·ĥà¶¸à·Ĭà¶´à·Ķà¶»à·Ĭà¶« à¶ºà·Ļà¶±à·Ĭà¶¸
à·ĥà·Ĵ à¶»à·Ķ
Ġà¶ºà·Ķà¶¯à·Ĭà¶° à¶ºà¶ļà·Ĭ
Ġà¶ħà¶± à¶ļà·ļ
Ġà¶±à·ľ à·Ģà·Ļà¶±
Ġà¶Ńà¶±à·Ĵà¶º à·Ļà¶±à·Ĭ
Ġà¶ľà·ľ à¶¯à·Ķà¶»à·Ķ
Ġà¶·à·ı à¶ľà¶ºà¶ļà·Ĭ
Ġà¶ĭà¶¯à·Ģà·Ĭ à·Ģ
à¶ļà¶§ à·Ķ
à¶Ńà·Ĵà¶º à·Ļà¶±à·Ĭ
Ġà·Ģà·Ļà¶± à·Ķà·Ģà¶±à·ļ
à¶¸à·Ĭà¶¶à·ı à¶ºà·Ĵ
à¶«à·Ĭ à¶©à·Ĵ
à¶½à·Ĭà¶½à·Ķ à·Ģà·ı
Ġà¶¯à·Ĵ à¶½à·ı
Ġà¶»à·ľ à¶¶à¶§à·Ĭ
à¶´ à·ĥà·Ĭ
à¶Ńà·Ķ à¶±
Ġà¶ļà·ĳ à¶ľà·Ħ
8 0
à¶¸à¶¯ à·ı
Ġà¶´à·Ĳ à·ħ
Ġà·Ģà¶»à·Ĭ à¶ľà¶º
Ġà¶¸à·Ħà·ı à¶łà·ıà¶»à·Ĭà¶º
Ġà¶¯à·Ĳà¶±à¶ľà¶Ńà·Ĭà¶Ń à·ľà¶Ńà·Ĭ
Ġà·Ħà·ľà¶½à·Ĭ à¶¸à¶±à·Ĭ
à¶» à·ĥ
à¶±à·Ĭà¶± à¶¯
Ġà¶ľ à·Ĵà¶±à·Ĭ
à¶ħ à·Ģà·ıà·ĥà¶±à·ıà·Ģ
âĢįà¶» à·ģ
Ġà¶ľà·Ļ à¶ºà¶ļà·Ĭ
à·ĥà¶½ à¶ļà·ı
Ġà¶ħ à¶ļà·Ĭà¶ļà·ı
à¶¯à·ļ à·Ģà·Ĵ
Ġà¶īà·ĥà·Ĭà·ĥà·Ļ à¶½à·Ĭà¶½à·ı
Ġà¶¯à·ľà¶» à·Ļà¶±à·Ĭ
Ġ e
p er
à¶¶ à·²
Ġà¶Ĵ à¶¢à¶±à·Ĭà¶Ń
à¶¸à¶± à·Ĵà¶±à·Ĭà¶¸
à¶¸à·Ļ à¶Ńà·Ĳà¶±
à¶¶à¶½ à¶¸à·Ķ
Ġà·Ħà·ľ à¶»à·ı
i b
à·Ģà·Ĵ à¶±à·Ŀ
Ġà¶ľà·Ļà¶±à·Ĵà¶º à¶±à·Ģà·ı
à¶½à·Ĭ à¶§
Ġà·ĥ à¶Ńà·Ĭà¶Ńà¶ļà·Ĵà¶±à·Ĭà¶¸
à¶¸à¶ºà·Ĵ à¶½à·Ĭà·ĥà·Ĭ
à·ĥà·Ĵ à¶§à·Ĵ
19 9
Ġà·ĥà·Ĭà·Ģà¶ºà¶Ĥ à¶ļà·Ĭ
à·Ļ à·Ħà·ıà¶§
Ġà¶ħà·Ħ à¶´à·Ķ
Ġà¶¶à¶½à·ı à¶ľà¶±à·Ĭà¶±à·Ģà·ı
Ġà¶Ĩà¶¯à¶» à¶ºà¶ļà·Ĭ
à¶Ńà¶¸à¶±à·Ĭ à¶ľà·ļ
à¶± à¶§à·Ĭ
à¶© à·Ĵà¶ºà·ļ
Ġà¶© à·ľà¶ļà·Ĭ
" à¶ħà¶´à·Ĵ
Ġà¶º à¶¸à·Ĵà¶±à·Ĭ
Ġà¶¶à·Ĵ à¶Ńà·Ĭà¶Ńà·Ĵ
à¶©à·Ĵà¶±à·Ĭ à¶§à¶±à·Ĭ
4 2
Ġ {
Ġà·Ģà·Ļ à¶¯à·Ĭà¶¯à·ĵ
Ġà¶ļà·ı à¶Ńà·Ĭ
Ġà¶Ķà·Ħà·Ķ à¶ľà·Ļà¶±à·Ĭ
u g
Ġà¶ļ à·Ģà¶»
Ġà¶±à·Ĵ à¶»à·ĵà¶ļà·Ĭà·Ĥ
Ġà¶»à·Ĳ à¶ºà¶ļà·Ĭ
Ġà·ĥà·Ĳà¶½ à·ĥà·Ķà¶¸
us t
Ġà¶Ĵà·Ģà·ı à¶§
Ġà¶ħà·Ģà·Ķà¶»à·Ķà¶¯à·Ĭà¶¯ à¶ļà·Ĭ
à·Ĥà·Ĭ à·Ĥà·Ĭ
, à¶¸à¶ľà·ļ
Ġà·Ģà·ı à¶Ńà¶º
Ġà¶īà¶±à·Ĭà¶±à·Ģ à¶±à¶¸à·Ĭ
Ġà·ĥà·Ķà·ħà·Ķ à¶ºà·Ĵ
Ġà¶± à¶¸à·Ļ
à¶ļà·ľ à¶½à·Ĭà¶½à·Ŀ
Ġà·Ļ à·Ģà¶±à·Ģà·ı
Ġà·Ģà¶Ńà·Ķà¶» à¶§
à¶ĩà¶Ńà·Ĭà¶Ń à¶¸
Ġà¶ļà·ĸ à¶©à·Ķà·Ģ
Ġà·ĥà·Ĭà¶® à·ıà·Ģ
à¶ºà¶ļ à¶§à¶¸
Ġà·Ģ à¶ļà·Ķ
Ġà¶¯à·Ķ à·Ĥà·Ĭ
Ġà¶¸à¶ľà·Ļ à¶ºà·Ĵ
à¶Ńà·Ģ à¶¸à¶Ńà·Ĭ
Ġà¶ħà¶ļ à¶¸à·Ĳ
Ġà¶ĭà¶±à·Ĭ à¶ľà·Ļ
à¶«à·Ĭà¶© à·Ķà·Ģ
à¶Ńà·Ĵ à¶ļà·Ĭ
Ġà·Ħà·ľ à¶»à·Ķ
Ġà¶ħà¶·à·Ĵà¶ºà·Ŀ à¶ľ
- s
Ġà¶ī à¶»à¶«à¶¸
à¶¸à·Ĵ à¶½à·Ĭ
Ġà¶¯à¶»à·Ķà·Ģ à·Ŀ
s h
Ġà¶ļà¶»à¶±à·Ĭà¶± à¶¸
à¶Ńà·ĵ à¶±à·Ĭ
Ġà¶¯à·Ĵ à¶±à¶ºà¶ļà·Ĭ
Ġà¶īà¶´ à¶¯à·Ķà¶±à·ļ
à·ĥà·Ĭà·ĥ à¶½à·ı
à·ĥà·ļ à¶»à·ı
Ġà¶ĳà¶ļà·Ĭ à¶Ńà¶»à·ı
Ġà·Ļ à¶ļà·Ļà¶±
Ġà¶¸à·Ĳ à¶Ńà·Ĵ
à¶½ à·Ĳà¶±à·Ĭ
Ġà·ĥ à¶´à¶º
à¶ł à·Ĳà¶´à·ĵ
Ġà·Ģà·Ļà¶±à·Ĭà¶± à·Ĳà¶Ńà·Ĵ
od e
Ġà¶´ à¶Ńà·Ĭà¶Ńà·Ķ
à¶¶ à¶ºà·Ĵ
à·Ģà·Ķ à·ĥà·Ĭ
à¶ĭ à¶Ĥ
Ġà¶ħà·Ģ à¶±à·Ĭ
à¶½à·Ĭà¶½ à·Ļà¶±à·Ĭà¶±
à¶ľà·Ķ à¶»à·Ķ
Ġà¶±à·Ĵà·ģà·Ĭ à·ģà¶¶à·Ĭà¶¯
Ġà¶´à¶»à·Ĵà·Ģà¶»à·Ĭ à¶Ńà¶±à¶º
Ġà·ĥà·Ĳ à¶Ł
Ġà·Ħà¶¸à·Ķà¶¯ à·ıà·Ģà¶ļà·Ĭ
. à¶¸à¶§
Ġà·ĥà·Ĭ à¶§à·ı
Ġà·ģà·Ķ à¶¯à·Ĭà¶°
Ġà¶´à·ı à¶§à·Ĵà¶º
Ġà¶¸à·Ĵà¶±à·Ĵà·ĥà·Ĭà·ĥà·Ķ à¶±à·Ĭà¶ľà·ļ
à¶ĭà¶¶ à·ļ
Ġà¶ļ à¶½à·Ĭà¶½
à¶ļà·ĺ à¶Ńà·Ĵà¶º
Ġà¶ļà·ľ à¶§à·Ķ
à¶º à¶±à·Ĭà¶±à·ļ
Ġà¶ºà·ı à¶¸à¶§
Ġà¶ºà·ı à¶½à·Ķ
or m
is h
à¶»à·Ķ à¶±
à¶½à·Ĵ à·Ģ
Ġà¶µ à¶½
à¶¢ à·ĥà·Ĭ
Ġà¶·à·ĸ à¶¸à·Ĵà¶º
Ġà·Ħà·Ĵ à¶½à·Ĭ
Ġà¶ĳà¶½à·Ĵà¶º à·Ļ
Ġà·Ħà¶» à·Ĵà¶ºà·ļ
Ġà¶ļà¶»à·Ķ à¶«à·Ķ
Ġà·Ģà¶º à¶»à·Ĭ
H ow
à¶ħ à¶¸
- à¶ĳà¶ºà·ı
Ġà¶½à·Ŀà¶ļà·Ļ à¶§
à¶ĳ à·Ħà·Ļà¶±à¶Ĥ
Ġà¶ºà¶ºà·Ĵ à¶¯
à¶±à·Ĵ à¶½
à¶ľà·ı à¶©à·Ĭ
Ġà¶Ķà¶½ à·Ķà·Ģà·ļ
Ġà·Ħà¶¸ à·Ķà·Ģà·Ļà¶½à·ı
à¶´à·Ļ à·ħ
Ġà¶´ à¶¯à·Ĵ
à¶ļà·ı à¶±à·Ĭ
à·Ĩà·Ĵ à¶ļà·Ĭ
Ġà·ĥà·ļà·Ģà·ı à¶¯à·ıà¶ºà¶ļ
à·Ģà·Ĳà¶¯ à¶ľà¶Ńà·Ĭ
Ġà¶ļà·ľà¶½à·Ĭà¶½ à¶§
Ġà·ĥ à·Ģà·Ĵ
Ġà¶¶à·Ĳà¶³ à¶½à·ı
s s
ĠG ermany
Ġà¶ļ à¶Ńà¶±à·Ĭà¶¯à¶»
n e
Ġà·Ģà¶§ à·Ħà·ı
à¶¸à·ļ à¶¸
Ġà¶ļà·Ļà¶±à·Ļà¶ļà·Ĭ à¶ľà·ļ
à¶¯à·ıà¶± à¶¸à·Ĵà¶±à·Ĭ
à¶¯ à¶±à·Ĭ
à¶»à·Ĭ à·Ģ
mb ol
Ġà¶ĭ à¶ľà¶±à·Ĭà·Ģ
Ġà¶ķ à·Ļà¶±à·Ĭ
Ġà·Ģà¶»à·Ĭ à¶°à¶±à¶º
à¶¢à·ĵà·Ģà·Ĵ à¶Ńà¶º
Ġà¶Ń à·Ļà¶ļà·Ĭ
Ġà·Ģà¶ľà·ļ à¶±à·ļ
Ġà¶ļà·Ĵà¶ºà¶± à¶¯à·ļ
Ġà·Ĩ à·ļà¶±à·Ĭ
Ġà¶¯à·ıà¶±à·Ĭà¶± à¶¸à·Ĭ
Ġà¶Ķà¶ļà·Ĭà¶ļ à·Ŀà¶¸
Ġà¶ĭà¶´ à¶ļà·ıà¶»
à¶±à·Ķ à¶¸à·Ĭà¶´
à¶½à·Ļ à·ĥ
à¶¶à·Ĵ à¶¸à·Ĭ
Ġà¶ĩà·Ħà·Ķ à¶«à·ı
O h
à¶±à·Ĳ à¶Ńà·Ĭà¶Ń
Ġà¶ħà¶Ń à¶ļà·Ĭ
Ġà·ĥà·Ĵà·Ħà·Ĵ à¶±à¶º
à¶Ńà¶Ńà·Ĭ à¶´à¶»
Ġà·Ĩ à¶ºà·Ĵà¶½à·Ĭ
Ġà¶½ à¶ºà·Ĵà¶±à·Ĭ
Ġà¶Ńà·Ĵà¶º à·ļ
Ġà¶īà¶Ńà·Ĵ à·Ħà·ıà·ĥà¶º
à¶« à·Ĵà¶ºà¶ļà·Ĭ
Ġà¶¯à¶¬à·Ķà·Ģ à¶¸à·Ĭ
Ġà¶ħ à¶¯à·Ķà¶±
Ġà¶±à¶ľ à¶»à¶ºà¶ļà·Ĭ
Ġà¶ħà¶Ĥà·ģ à¶º
Ġ op
Ġà¶±à¶¸à·Ĭ à¶¶à¶»à·Ĭ
à¶±à·Ļ à¶ºà·Ĵ
à¶ľà·Ĭ à¶±à¶½à·Ĭ
à¶´ à·Ĳà¶±à·Ĭ
Ġà¶» à·ľà¶ļà·Ĭ
Ġà¶ķà¶±à·Ĵ à¶¯
Ġà¶ħà¶±à·Ķ à¶¸à¶Ń
Ġà¶ļà·Ĵà¶º à·Ģà·Ļà¶±à·Ĭà¶±à·ļ
à·Ĩ à¶±à·Ĭ
Ġà¶Ńà¶» à¶¸à¶ļà·Ĭ
Ġà¶ºà·Ķ à¶¯à·Ĭà¶¯
à¶½ à·Ļà¶±à·Ģà·ı
à¶ī à·Ģà¶Ńà·Ĭ
Ġà¶ľà·ļ à¶±à·Ģà·ı
Ġà¶½à·Ĳà¶ºà·Ĵà·ĥà·Ĭà¶Ńà·Ķà·Ģ à¶ļà·Ĭ
Ġà¶´à·ĵà¶© à¶±à¶º
Ġà¶±à·Ĵà¶¸ à·Ģà¶±à·Ĭà¶±
Ġà¶¸à·Ĵ à·ģà·Ĭ
Ġà·ĥà¶Ĥ à¶ľà·Ĭ
à·Ħ à¶¯à·ı
à¶¯à·Ķ à¶±à·Ĭà¶±à·ı
à·ĥà·ı à¶ł
Ġà¶´à·Ĵà¶§à·Ķ à¶´à·ĥ
à¶±à·Ĳ à¶¯à·Ĭà¶¯
Ġà¶¶à·Ĵ à¶½à·Ĵà¶ºà¶±
Ġà¶ļà·Ķ à¶½à·ĵ
Ġà·ĥà¶¸à·ı à¶±à¶ºà·Ĵ
Ġà¶Ńà·ľ à¶´à·Ĭà¶´
à¶´à·ľà¶½à·ĵ à·ĥà·Ĵà¶º
Ġà¶ľà·Ĵà¶±à·Ĭ à¶¯à¶»
Ġà¶»à¶Ńà·Ĭà¶Ńà¶» à¶Ĥ
à¶Ĭà¶½à¶Ł à¶§
c ol
Ġà¶ĭà¶± à¶±à·Ĭà¶¯à·Ķ
à·Ģ à·ľà¶Ńà·Ĭ
à·Ģà·Ķ à¶«à·Ķ
Ġà¶½à·ı à¶·
à¶»à·Ķ à¶±à·Ķ
à¶Ĩ à¶łà·ıà¶»à·Ĭà¶º
à·Ģà·Ĵ à¶°
Ġà¶±à·ľ à·Ģà·Ĵ
à¶Ĩ à¶łà·Ĭà¶łà·Ĵ
Ġà·ĥ à·Ĵà¶±à·Ĭà¶¯
Ġà¶ħà·Ģà·ĥà·ı à¶±à¶ºà·Ĵ
à·Ļ à·Ģà¶±à·Ĭ
Ġà¶ļ à¶½à¶º
Ġà¶¸à¶ľà·Ķ à¶½à·Ļ
à¶« à·Ĵà¶ļ
Ġà¶ĩ à¶½à·Ĵ
Ġà·Ģà·Ĵ à¶»à·Ħà·Ĵà¶Ń
Ġà¶§ à¶»à·Ĭ
or y
Ġà¶´à·Ķà¶¯à·Ķ à¶¸à·ıà¶ļà·ıà¶»
1 20
à·Ļà¶± à·Ķà¶ºà·Ĵ
Ġà¶±à¶¸à·Ĭ à¶¶
Ġà¶¶à¶½ à¶±à·Ģ
âĪĻâĪĻâĪĻ âĪĻčĊ
à·Ħà·Ŀ à¶¸à·Ĭà·ĥà·Ĭ
Ġà·Ħà·Ĳà¶ļà·Ĵ à¶¯
Ġà·ĥà¶½ à·ĥà·Ĭ
Ġà·Ģà·Ĵà¶ļà·Ķ à¶±
Ġà¶ľà·Ļà¶±à·Ĵ à¶łà·Ĭà¶ł
à·Ļà¶ļà·Ĭ à·ĥà·Ĭ
Ġà¶īà¶±à·Ĭà¶± à¶¯
Ġà·ĥà·Ĳ à¶¸à·Ĵà¶º
Ġà·Ģà¶½à¶§ à¶Ńà·Ĭ
Ġà·Ħà·ı à·Ħà·Ĭ
Ġà¶ħà¶¸à·ıà¶» à·Ķà·Ģà·Ļà¶±à·Ĭ
à·Ļ à¶ºà¶±à·Ĭ
Ġà¶ļà¶©à·ı à¶ľà·Ļà¶±
à¶³à·Ĵ à¶½à·ı
Ġà¶¯à·Ļà¶±à·Ĭà¶± à·Ģ
à¶ľà¶±à·Ĭ à¶Ńà·Ķ
Ġà¶Ĩà¶»à¶Ĥà¶ł à·Ĵà¶º
Ġà¶±à·Ĳà·Ģà·Ĳ à¶Ńà·Ĭà¶Ńà·Ķà·Ģà·ı
Ġà·Ħà·ľà¶ºà·ıà¶ľà¶Ńà·Ĭà¶Ń à¶¯
Ġà¶± à·Ķà·Ģ
Ġà·ĥ à¶¶à·Ĭ
à¶ļà·Ĭà¶ļ à·ļ
à¶º à¶ļà¶º
Ġà¶ļà·Ķà¶¸ à¶»à·Ĵà¶º
Ġà¶¯à·Ķ à¶ļà¶ºà·Ĵ
Ġà¶ľà·Ħ à¶´à¶±à·Ĭ
Ġà¶°à·ıà·Ģ à¶±
à¶ļ à·Ģà¶Ńà·Ĭ
à¶¯ à·ĸ
Ġà¶ļà·ı à¶±à·Ĭà¶Ńà·ıà¶»
Ġà¶Ńà·ı à¶ļà·Ĭ
Ġà¶ħ à¶ľà·Ĭ
Ġà¶Ĵà¶ļ à¶ļ
Ġà¶ľà·ĳ à·ĥà·Ĭ
Ġà¶Ńà·Ĵà¶¶à·Ķ à¶«à·Ķ
Ġà¶»à·Ĳ à¶½à·Ĭà·Ĩà·Ĭ
Ġà·Ħà·ľà¶ºà·ıà¶ľà¶±à·Ĭà¶± à¶¸à·Ĭ
à¶Ńà·Ķ à¶ļà·ıà¶ľà·ıà¶»
Ġà¶¯à·Ħ à¶º
à¶¯à·Ļ à·Ģà·Ĭ
Ġà¶ľà·Ħ à¶´à·Ķ
à¶¸à·Ĵà¶±à·Ĵ à·Ħ
à·Ĵà¶ļà·ı à¶ľà·Ŀ
Ġà¶´à·Ĵ à¶»
à¶ļà·ľà·Ħà·ľà¶¸ à·Ħà¶»à·Ĵ
Ġà·Ħà¶»à·Ĵà¶ľ à·ĥà·Ĭà·ĥà¶±à·Ĭà¶±
Ġà¶ħ à¶ļà·Ķ
7 0
or ea
Ġà·Ħ à¶¯à·Ķ
Ġà·Ģà·ıà·ĥ à·Ĵà¶ºà¶ļà·Ĭ
Ġà¶¯à·Ĳ à¶¸
Ġà¶ħà¶¯à·ı à·ħ
bo x
Ġà¶½à·Ĵà¶ºà·ı à¶´à¶¯à·Ĵ
à·Ļ à¶Ńà¶±à·Ĭ
Ġà·ĥà¶Ńà·Ķà¶§ à·Ļà¶±à·Ĭ
à¶īà¶ļà·Ĭ à¶¸à¶«
Ġà·ĥà¶Ĥà¶ľ à·ĵà¶Ńà¶º
Ġà·Ģà·Ĵ à¶±à·Ĵà·ģà·Ĭà¶ł
à¶ľà·Ĵ à·Ħà·Ĵ
à¶¶à·ľ à¶¶à·Ĭ
à¶« à·Ķà·Ģà¶ļà·Ĭ
à¶»à·ļ à·Ģà·Ĵ
Ġà·ĥà¶¸à·Ĭà¶¶à¶±à·Ĭà¶° à·Ģ
Ġà¶ļà¶»à¶±à·Ģ à¶§
à·ĥà·Ĭà¶Ń à·Ŀ
Ġà¶±à·Ĵà·Ģà·ı à¶©à·Ķ
à·Ħ à¶¯à·Ĵà·ĥà·Ĵ
à·ĥ à¶¶à·Ļ
Ġà¶Ķ à¶±à·Ĭ
à¶¸à·Ķ à¶½à·Ĭ
Ġà·Ģà¶ł à¶±à·ļ
Ġà¶Ńà¶¶ à¶±à·Ĭà¶±
Ġà¶´à·ı à¶´à¶±à·Ĭà¶¯à·Ķ
à·Ģà·Ĳ à¶½à·Ĭ
à·Ħà·Ļà¶±à·Ĭ à¶»à·Ĵ
Ġà·ĥà·Ĳà¶½à·Ĳ à·ĥà·Ĭ
Ġà¶ħà·Ħà·Ĭ à·Ħà·Ĭ
Ġà¶» à·Ħà·Ĵà¶Ń
Ġà¶© à·Ķ
à¶Ńà·ļ à¶»à·Ķà¶«à·ı
à·ĥà·Ĵà¶º à¶½à·Ķà¶¸
à¶¯à·Ĳà¶± à¶§à¶¸à¶Ńà·Ĭ
Ġà¶¸à·ľà·Ħà·ľ à¶Ńà¶ļà·Ĭ
Ġà·Ģà·Ķà¶±à·ı à¶±à¶¸à·Ĭ
à¶½à·Ĵà¶º à¶±à·Ĭ
Ġà¶ĩà·Ħà·Ķ à¶«
à¶ľ à¶ºà·ļ
Ġà¶Ķà¶¶ à¶Ńà·Ĭ
à¶¸à·Ĵ à¶½à·Ĵà¶ºà¶±
à¶¯à·Ļ à¶ºà·Ĵà¶º
Ġà¶´à·Ķ à¶Ńà·Ĭ
à¶ļà·Ķ à¶©à·ı
Ġà·Ģ à¶¯à·Ĵà¶±à·Ĭà¶±
Ġà¶¯ à¶Ł
à·ģ à·Ķ
Ġà¶´à·ı à¶¯
à¶»à·ĵ à¶¸à·ļ
Ġà·Ģà·ıà¶»à·Ĭ à¶Ńà·ıà·Ģà¶ļà·Ĭ
Ġà¶»à·ĥà·ı à¶ºà¶±
Ġà¶´à·ı à¶´à·ľ
Ġà¶ħà¶¸ à¶Ń
Ġà¶¯à·Ķ à·Ĥà·Ĭà¶§
arl es
à¶ľ à·Ķà·Ģ
Ġà¶ľ à¶±à·Ļ
ment s
Ġà·Ħà·Ĳ à¶»à·Ĵà¶½à·ı
Ġà¶ļà·Ĳ à·ħ
à¶ĭ à·Ħà·Ĭ
Ġà¶¶à·Ĳà·Ħà·Ĳ à¶½à·ı
Ġà¶´à·Ķà¶» à·Ģà¶±à·Ĭà¶±
à¶ĳ à¶©à·Ĭ
Ġà·Ģà·ı à·ĥà·Ĵ
Ġà¶ºà·Ķà¶Ńà·Ķ à¶º
Ġà¶±à·Ĵà¶¯à·Ħ à·ĥà·ļ
à·Ħà¶ºà·Ĵà¶º à·Ļà¶±à·Ĭ
Ġà¶ķ à¶ļà¶§
Ġà¶¶à·Ĳ à¶¯à¶½à·ı
Ġà¶ľà·Ķà·Ħ à·ıà·Ģ
Ġbut ton
c rip
Ġà¶ľ à¶½à·ı
Ġà¶ħà¶´ à·ĸ
Ġà¶ĩà¶Ńà·Ĵ à·Ģà·Ļà¶½à·ı
in a
à·ĥà·Ĭà¶® à·ıà¶±
à·Ģà·Ĵà¶ļà·Ĭ à¶§à¶»à·Ĭ
Ġà¶¶à¶½à·ıà¶´à·ľà¶»à·ľ à¶Ńà·Ĭà¶Ńà·Ķà·Ģà·Ļà¶±à·Ĭ
Ġà¶¶à·Ĳà¶»à·Ĵ à¶±à¶¸à·Ĭ
à¶ħ à¶Ńà·Ĵ
Ġà¶´à·Ķà¶½à·Ķà·Ģ à¶±à·Ĭà¶±à¶¸à·Ĭ
Ġà¶§à·ļ à¶½à¶»à·Ĭ
à·Ģà·ĥ à¶±à·Ĭ
à¶´à·Ĭ à¶§à¶»à·Ĭ
Ġà¶½à·Ĳà¶¶à·Ķ à¶±à¶¯
Ġà¶ĭà¶´ à¶ļà·Ĭ
Ġà·Ħà·Ĵà¶Ń à¶½
at or
à·ĥà·Ĭà¶§ à·ı
à·ģà·ı à¶½à·ı
Ġà·Ģà·ıà¶» à¶º
à¶´à·ĳ à¶¸à¶ļà·Ĭ
âĢį à¶ħ
Ġà¶»à·Ŀà·Ħ à¶½à¶§
S t
à¶« à·ĵ
à·ħ à·Ķà·Ģà·ļ
Ġà·Ģà¶ľ à¶ļà·Ĵà¶ºà¶±à·Ĭà¶±
Ġà·Ģà¶»à·Ĭà¶ľ à¶ºà¶ļà·Ĭ
Ġà·ĥà·ıà¶¯ à¶ºà¶ļà·Ĭ
" à¶¸à¶§
Ġà¶¯à·Ģà·ĥ à¶ļà¶§
à¶ľà·ľà¶½à·Ĭà¶½ à¶±à·Ĭà¶§
Ġà¶ļà¶© à¶±à·Ĭ
Ġà¶±à·ľà¶ļ à¶½
Ġà¶»à¶Ł à¶´à·ı
à¶½ à¶±à¶º
à¶´à·Ķ à¶Ńà·ļ
Ġà¶īà¶½à·Ĭà¶½ à¶±à·Ĭà¶±à·ļ
à¶ħà¶½à·Ĭà¶½ à¶ľà¶±à·Ĭà¶±
Ġà¶ħ à·ĥà·Ĵ
à·Ħà·ľ à·ĥà¶Ńà·Ĭ
à¶ºà¶§ à¶Ńà·Ĭ
à¶´à·ľ à·ħ
Ġà¶¯à¶±à·Ĭ à·Ģà¶±à·Ĭà¶±
âĢįà¶º à¶¯
à¶¹ à·Ķà¶»
Ġà¶¸à·ı à¶Ńà·ĺ
Ġà·Ĩ à·Ķ
Ġà¶ĭà¶´ à¶ļà¶»à¶«à¶ºà¶ļà·Ĭ
Ġà¶ľà·Ĵà·Ģà·Ĵ à·ĥ
Ġà¶Ĵà¶ļ à¶ļà¶º
Ġà¶¸à·Ķ à¶¯à·ı
Ġà¶±à·ľà¶ļ à·Ĵà¶º
Ġ all
Ġà¶±à·Ķ à¶¶
Ġà¶ĭà¶ľà·Ķ à¶½à¶ļà·Ĭ
Ġà¶ļà·ľà¶±à·Ĭà¶¯à·ļ à·ĥà·Ĵ
Ġà·Ģà·Ĵ à¶°à·ıà¶±à¶º
Ġor g
Ġà¶īà¶Ńà·ı à¶¸
w ay
à¶Ń à·Ŀà¶¸à·ĥà·Ĭ
à¶¸à·Ĵà¶±à·Ĵ à·Ħà·Ļà¶ļà·Ĭ
Ġà¶± à·Ģà·ı
à¶ī à·Ħ
" %
Ġà¶ļà¶» à¶ľà¶Ńà·Ĭà¶Ńà·ļ
à¶© à·Ļà¶½à·Ĭ
Ġà¶Ńà¶§à·Ĭà¶§ à·Ķà·Ģà¶§
à·Ļ à·Ģà¶±à·Ĭà¶±
à¶¸à·ı à¶»à·Ķà·Ģ
Ġà¶ľà·Ļà¶± à¶½à·Ĭà¶½à·ı
Ġà¶Ńà·Ĵà¶º à¶±à·Ĭà¶±à·Ļ
à¶® à¶±à¶º
à·ľà¶» à¶Ńà·Ĵ
Ġà¶¸à·ľà·Ħà·ľ à¶Ńà¶ļ
Ġà¶½à·Ĳà¶¶ à·Ĭ
Ġ âĪĻâĪĻ
Ġà¶Ķ à·Ħà·Ļà¶§
à¶¸à·ı à¶»à·Ĭà¶ľ
à¶ļà·ľ à·ħ
Ġà¶¯à·Ĵ à¶½à·Ĵ
Ġà¶ļà·Ļ à¶½à·Ĵ
à¶ĳ à·ĥà·ļ
Ġà¶¯à·Ģà·ĥà·Ĭ à·Ģà¶½
à¶½ à¶·
Ġà¶¯à¶©à·Ķà·Ģ à¶¸à·Ĭ
à¶Ńà·ľà¶» à¶Ńà·Ķà¶»à·Ķ
Ġà¶ī à¶Ńà·Ķà¶»
à¶»à·ı à¶¯
à·ħà·Ķ à¶ºà·Ĵ
Ġà·Ħà¶»à·Ĵà¶º à¶±à·Ĭà¶±à·ļ
Ġà¶´à¶»à·Ĭ à·ĥà·Ĭ
Ġà¶¯ à·Ŀ
âĢį à·Ģà·ļ
Ġà¶¯à·Ĳà¶¸à·Ĭ à¶¸à·Ļ
Ġà·ĥà¶¯à·Ĭà¶¯ à·Ļ
Ġà·Ħà·Ĭ à¶¸à·Ĭà¶¸à·Ĭ
à·ĥà·ĵ à¶¸à¶§
Ġà¶ľà·ľà¶©à¶ļà·Ĭ à¶¸
qu er
Ġà¶¢à·ĵà·Ģà·Ĵà¶Ńà·ļ à¶§
Ġh t
à¶´à·Ĵ à¶Ńà¶±à·Ĭ
Ġà¶¶à·ľ à¶±à·Ģà·ı
if orn
iforn ia
Ġà¶ļà·ıà·Ģ à¶¯
n am
Ġà·ĥà·ĵ à¶¸à·ı
Ġà¶´à·Ļà¶» à¶±à·Ĵà¶¸à·Ĵ
à¶ħ à¶©à·Ĵ
Ġà¶ļà·Ĵà·ĥà·Ĵ à¶¯à·Ķ
Ġà¶ľà¶½ à·Ģà¶½à·ı
à¶ļ à·ĸà¶´à¶»à·Ĭ
Ġà¶¸ à¶¸à¶¸
20 1
Ġà·Ħà¶Ĥ à¶ľà¶±à·Ĭà¶±
Ġà·Ģ à¶°
à¶ĩ à·Ģà·Ĵà¶Ńà·Ĭ
Ġà¶Ķà¶¶ à·Ļà¶±à·Ĭ
à¶½à·ĵ à¶±à·Ĭ
à¶ħ à¶±à·Ĭà¶Ń
Ġà·Ģà·Ĵ à·ĥà¶±à·Ĭ
Ġà¶Ĵà¶ļ à¶±à·ļ
Ġà¶Ķà¶¶ à¶±à·Ĭà¶±
Ġà¶±à·Ĵà¶»à·Ĭ à¶¯à·ļà·ģ
à¶ļà·Ĭà¶ļ à¶¯
Ġà¶¯à·Ĳà¶± à·Ļà¶±à·Ģà¶¯
Ġà¶¯à·Ĵ à¶ļà·Ĭ
Ġà·ĥà¶½ à¶ļà¶±à·Ĭà¶±
à¶¸à·ľà¶ļà¶ļà·Ĭ à·Ħà¶»à·Ĵ
Ġà¶´ à¶Ńà·Ķ
Ġà·ĥà·ı à¶¸à¶º
à¶Į à¶§
à¶łà·Ĵ à¶Ńà·Ĭ
) ,
à¶±à·Ĵ à¶ļà·ı
à¶ļà¶» à¶±à·Ģ
Ġà¶Ńà¶» à·Ħà·Ĵà¶±à·Ĭ
Ġà¶¯à·ĵ à¶´à·Ĭ
Ġà¶¯ à¶¸à·ı
Ġà·Ħà·Ĳ à¶łà·Ĭ
Ġà¶ļà·ı à¶½à·Ĭ
Ġà¶ľà·Ļ à·Ģà¶±à·Ģà·ı
Ġà¶ļà¶Ńà·ı à¶ļà¶½à·ı
à·Ķà·Ģà·Ļ à¶ºà·Ĵ
Ġà¶¯à·ĸà¶´ à¶Ńà·ļ
Ġà¶¯à·Ĵà·Ħ à·ıà·Ģà¶§
Ġ ex
à¶©à·ı à¶»à·Ĭ
Ġà¶ľà·Ļ à·Ģà¶±à·Ĭà¶±à·ļ
Ġà¶¶à·ıà¶° à¶ļà¶º
Ġà¶¸à¶ľà·Ķ à¶½à·ļ
Ġà¶¢à·ļ à·ĥà·Ķ
Ġà¶´à¶»à·Ĵà·ĥà·Ĭà·ĥ à¶¸à·Ļà¶±à·Ĭ
à¶ļ à¶Ńà·ıà·Ģ
Ġà¶ħà¶½à·Ĭà¶½ à¶ľà¶Ńà·Ĭà¶Ń
Ġà¶īà¶ļà·Ĭ à¶¸
Ġà¶ºà·Ŀ à¶°
Ġà·Ĥà·Ļ à¶»à·Ĵà·Ĩà·Ĭ
, à¶Ĵ
Ġà¶¶à¶½ à·Ķ
à¶§à·Ĵà¶º à·Ĵ
à¶¢à·ĵ à·Ģà·ĵ
Ġà¶·à·ı à¶«à·Ĭà¶©
Ġà¶¶ à·²
à¶± à·Ļà¶±à·Ĭ
à¶ľà·ı à¶±à·Ļ
Ġà·Ģà¶§ à¶´à·Ĵà¶§
à¶ĭà¶¯ à·Ģà·Ķ
à¶º à¶Ĥ
Ġà¶»à·Ŀ à·ĥà·Ĭ
Ġà·ĥà¶¸à·Ĭà¶´ à·ĸà¶»à·Ĭ
à·Ģà·ıà·Ħ à¶±à·ļ
à·Ħà·Ĳà¶¸à¶¯ à·ıà¶¸
Ġà¶ľà·Ĵà¶«à·Ķ à¶¸à·Ĭ
Ġà¶±à·ľ à·ĥà¶½à¶ļà·ı
Ġà¶±à·Ĳà¶Ńà·Ĵà·Ģ à·Ļà¶±à·Ģà·ı
Ġà¶ĳ à¶»à·Ĵà¶ļà·Ĭ
Ġà¶Ķ à¶§à·Ĭà¶§à·Ķà·Ģà¶ļà·Ĭ
Ġà¶ļà·Ķ à·Ħà¶»
Ġà·Ģà·Ĵà·ĥà·Ĵà¶±à·Ĭ à¶¸
à¶©à·ĵ à¶±à·Ĭ
à·Ģà·Ķ à¶©à·Ĭ
on quer
Ġà·ģà·ı à¶´
Ġà·ĥà¶ºà·Ĵ à¶¸à¶±à·Ĭ
onquer or
Ġà¶»à·ĥ à·Ģà¶Ńà·Ĭ
à¶ļà·ı à¶ľà·ļ
Ġà¶¯à·Ĵà·Ģà·Ķà¶» à¶±à·Ģà·ı
âĪ ŀ
Ġà·ĥà¶Ńà·Ĵà¶º à¶ļà¶§
Ġà¶´à·Ĳ à¶ļà·ļ
Ġà¶ħà¶ľ à¶±à·Ķà·Ģ
à¶¸à·Ĵà¶±à·Ĵà·ĥà·Ĭà·ĥà·Ķ à¶±à·Ĭà¶§
Ġà¶´à¶»à·ı à¶¢à·Ĵà¶Ń
Ġà·ĥ à·Ģà¶±à·Ĭ
ab le
Ġà·Ģà·ļ à¶½à·ıà·Ģ
Ġà¶ļà·Ĵà·Ģà·Ĭ à·Ģà¶Ńà·Ĭ
Ġà¶ħà¶´ à·Ģ
Ġà¶ļà·ľà·Ħà·ļ à·Ģà¶Ńà·Ĭ
à·Ħà·ľ à¶¸à¶¸
ar io
Ġà·ĥà·Ĵà¶ºà¶½à·Ĭà¶½ à¶¸
Ġà¶¯ à¶±à·ļà¶±
Ġà¶¸à·Ĵ à¶ºà·ı
à·Ħà·ı à·Ħà·Ĭ
Ġà·ģ à·ļ
Ġà¶Ńà¶¸à·Ķ à¶±à·Ĭà¶ľà·Ļ
à¶¢à·Ķ à¶§à·ı
Ġà·ĥà¶¸à·Ĭ à¶¸à·Ķà¶Ľ
Ġà¶´à¶¯ à·Ģà¶±à·Ĭà¶±
Ġà¶Ĩà¶º à¶Ń
à¶´à·Ĳà¶Ńà·Ĭà¶Ń à¶ļà¶§
Ġà¶ļà¶» à¶ľà¶±à·Ĭà¶±à·ļ
Ġà¶· à·ŀà¶Ńà·Ĵà¶ļ
à¶´à¶½ à·Ģà·Ļà¶±à·Ĵ
à¶ħ à¶»à¶ļ
à¶Ńà·Ĵà¶ļ à¶©
Ġà¶ļà¶» à·Ķà·Ģà¶±à·Ĭ
à·Ĥ à·ĵ
Ġà¶īà¶½à·Ĭà¶½ à·Ķà·Ģà·ı
à¶īà¶±à·Ĭ à¶¯à·Ĵà¶ºà·ı
Ġà¶´à·ĺà¶®à·Ĵ à·Ģà·Ĵà¶º
à¶¸à¶Łà·Ķ à¶½
Ġà¶ļ à¶ºà·Ĵ
Ġà¶Ńà·Ĵà¶¶ à·ļ
Ġà¶±à·Ģà¶Ńà·Ĭà¶Ń à¶ľà¶±à·Ĭà¶±
Ġà¶½à·ľ à·ĥà·Ĭ
Ġà·Ĩà·Ĭ à¶½à·ĳà·Ĥà·Ĭ
à¶±à·Ķà·Ģ à·Ļà¶ļà·Ĭ
à¶© à¶ºà·Ĵ
Ġwor ld
Ġ Y
Ġà¶¯à·Ĵ à¶±à·ļ
Ġà·Ħà·Ĳà¶¸à¶¯à·ļ à¶§à¶¸
Ġà¶¢à·ı à·Ģà·ıà¶»
Ġà·ĥà¶Ńà·Ķ à¶±à·Ĭ
à¶±à·Ĭà¶± à·Ķ
Ġà¶¶ à¶±à·Ĭà¶°
Ġà¶¶à¶½ à¶´à·ı
Ġà·Ħà·ı à¶¯à¶º
à¶ļà·Ĵà¶º à¶´à¶±à·Ĭ
Ġà·Ħà·Ĵà¶»à·ļ à¶§
Ġà¶ħà·Ģ à·ĥà¶»à¶º
Ġà·Ħà·Ĳà¶ļà·Ĵà¶ºà·ıà·Ģ à¶±à·Ĭ
Ġà¶Ĩ à¶ºà·Ŀ
Ġà¶´à·Ĵà¶ºà·ı à·ĥà¶»
Ġà¶Ń à¶ļà·Ĭà¶ļ
à¶¯à·Ķ à¶»à¶ļ
Ġà·Ģà·Ĳà¶© à¶ļà¶»à¶±à·Ĭà¶±
à¶½à¶º à·ľ
à¶±à·Ĭà·Ģ à¶½à·ı
k ey
à·ĥà·Ĭ à¶Ńà·ĸ
Ġà¶Ĵà¶ļ à¶¯
à¶Ł à¶±à·Ĭ
Ġà¶ļà·Ĵà·Ģà·Ĭ à·Ģà¶§
Ġà¶¸à·Ļà·Ħà·Ļà¶ºà·Ķ à¶¸à¶ļà·Ĭ
Ġà¶ĳà¶º à¶ºà·Ĵ
à·Ģà¶»à·Ķ à¶±à·Ĭ
Ġà·Ģà·Ĵ à¶ļà·ĺà¶Ńà·Ĵ
à¶ºà¶ļ à¶¸
Ġà·Ħà¶¸à·Ķà¶¯ à·ıà·Ģà¶§
à¶¸à·Ķ à¶»
à¶ļà¶§ à·Ģà¶Ńà·Ĭ
Ġà·ĥà¶¸à·ıà·Ģ à¶±à·ļà¶±
Ġà¶¯à·Ĳà¶±à·Ķ à¶±à·ļ
Ġà¶Ĭà¶½à¶ľ à¶§
Ġà·Ģà·ĺ à¶Ńà·Ĭà¶Ń
à¶ļà¶» à¶±à·Ĭà¶±à·Ļ
Ġà¶¶à·ľ à¶¶à·ĵ
Ġà·ĥà·Ķ à¶´à·Ĭ
à·ħ à·Ķà·Ģà·Ļà¶±à·Ĭ
Ġc h
Ġà¶ħ à¶³à·Ĵà¶±à·Ĭà¶±
Ġà·ĥà¶¸ à¶Ńà·Ĭ
Ġà¶¢à·ı à¶Ńà·Ĵ
Ġà¶Ĭà¶½à¶Ł à¶§
Ġà¶ħà¶±à·Ĵ à·Ģà·ıà¶»
t ype
à·Ģà·Ĵ à¶½à·Ĭà¶½à¶ļà·Ĭ
ol um
à¶±à·ı à¶Ńà·Ĭà¶¸à¶ļ
à¶ºà·Ķ à¶¸
Ġà¶¶à·Ļ à¶½à·ı
Ġà¶¸à·Ĳà¶»à·Ķ à¶±à·ļ
à¶ļà·Ĳ à·Ģà·Ĵà¶½à·Ĵ
Ġà¶¸à·Ĵà·ĥà¶ºà·Ĵ à¶½
Ġà·Ģ à·ĥà¶±à·Ĭà¶±
Ġà¶´à·Ĳ à¶±à·Ĭà¶±à·ı
Ġà¶´à·ľà¶»à·ľ à¶±à·Ĭà¶¯à·Ķà·Ģà¶ļà·Ĭ
à¶īà¶ļà·Ĭà¶¸à¶± à·Ĵà¶±à·Ĭ
Ġà¶ļà·ıà¶»à·Ĭà¶ºà·ı à¶½à¶ºà¶§
g e
Ġà¶ļà·Ĵà¶º à·Ģà¶½à·ı
Ġà¶ĳà¶±à·Ĭà¶± à¶¯
Ġà¶¶à·Ļ à¶»à·ĵ
Ġà¶ļà·Ĵà¶»à·ĵà¶¸ à·Ļà¶±à·Ĭ
Ġà·ĥà¶±à·Ĭà¶± à¶¯à·Ĭà¶°
à·Ļ à¶ļà·Ķà¶Ńà·Ĭ
Ġà¶´ à¶«à·Ĵà·Ģà·Ķ
Ġà·Ħà·Ĳà¶¸ à·Ģà·Ĵà¶§à¶¸
à¶³à·Ķ à¶»
Ġà·ĥà·Ĵà¶§à·Ĵ à¶±à·Ĭà¶±à·ļ
Ġà¶ĭà¶Ńà·Ĭà·ĥ à·Ħà·ı
Ġà¶»à·ĸà¶´ à·Ģà·ıà·Ħà·Ĵ
" à¶¸à·ı
à·Ļ à¶§à·Ĭ
Ġà¶´à·ľà¶½à·Ĵ à·ĥà·Ĵà¶ºà·ļ
Ġà¶ĩà·Ħà·Ķ à¶±à·ļ
Ġà¶¸à·ıà¶»à·Ĭà¶ľ à¶ºà·ļ
Ġà·Ģà·Ĳà¶©à·Ĵ à¶¯
os s
Ġà¶°à·Ľ à¶»à·Ĭà¶º
Ġà·Ģà·Ĳà·ĥà·Ĵ à¶ļà·Ĵ
- à·Ħà·ļà¶ºà·Ĵ
ou nd
Ġà·ĥ à·ıà¶»
Ġà·Ģà¶¯ à·Ģà·Ļà¶±à·Ĭà¶±
Ġà¶ħà·ĥà·ı à¶»à·Ĭà¶®à¶ļ
Ġà·ħà¶¸à¶º à¶ļà·ļ
à·ľà¶ºà·Ĵ à·ĥà·Ĭ
Ġà·Ģà·Ļ à¶½à·Ĭà·ĥà·Ĭ
Ġà¶Ĩà¶¯à¶» à¶«à·ĵà¶º
Ġà¶Ńà·Ĳà¶± à·Ĵà¶±à·Ĭ
Ġsub ject
Ġà¶Ķ à·ħà·Ķà·Ģà¶§
Ġà·Ħà·Ļà¶½à·Ĵà¶ļà·ľ à¶´à·Ĭà¶§
Ġà¶Ĩ à¶¯à·ı
à¶° à·Ĵà¶º
à¶½ à·Ķà·Ģà¶±à·Ĭ
Ġà¶ĳà·Ħà·ı à¶ºà·Ĵà¶±à·Ĭ
Ġà¶łà·ı à¶½à·Ĵ
à¶¸à·Ĳà¶ļà·Ĭ à·ĥà·Ĭ
Ġà¶ľà·Ĳ à¶¶à·Ĭ
à¶¸à·ľà¶±à·Ģ à·Ħà¶»à·Ĵ
Ġà¶ºà·Ħ à¶´à¶Ńà·Ĭ
à¶© à·ľà¶ļà·Ĭ
Ġà¶ľà·Ħ à¶ľà¶±à·Ĭà¶±
à¶´à·Ĵà¶§ à¶½à·Ĭ
Ġà¶°à·ıà·Ģ à¶±à¶º
Ġà¶ł à·Ĳ
Ġà¶¯à·Ķà·Ģ à¶ľà·ļ
Ġà·Ģà·ıà¶©à·Ĵ à·Ģà·Ļà¶½à·ı
à¶±à·Ĳà¶Ńà·Ĵ à¶±à¶¸à·Ĭ
à¶±à·Ĵ à¶½à·Ĭ
à¶½à·Ĭà¶½à·Ĵ à¶½à·ı
à¶¶à·Ĵ à¶½à·Ĭ
Ġà¶Ńà·Ķà¶± à¶ļà·Ĵà¶±à·Ĭ
Ġà·ĥà·Ĵà¶±à·Ĭ à¶¯à·Ķ
Ġà·ĥà·Ĵà¶Ńà·Ĭ à¶ľà¶±à·Ĭà¶±à·ı
à¶´ à·Ļà¶±à·Ĭà¶±
à¶ħ à¶±à·ı
Ġà¶½ à¶¸à¶º
Ġà¶īà¶¯ à·Ĵà¶ºà·Ĵ
à¶·à·ıà·Ģ à·Ĵà¶ļ
à¶Ńà·Ĭà·Ģ à·Ļà¶±à·Ĭà¶±
à¶©à·ļ à·Ģà·Ĵà¶©à·Ĭ
à¶±à·Ĵ à¶ļà¶¸à·Ĭ
Ġà¶¶à¶½à·ıà¶´à·ľà¶»à·ľ à¶Ńà·Ĭà¶Ńà·Ķà·Ģà¶ļà·Ĭ
Ġà¶¶à·ı à¶ľ
ĠCal ifornia
Ġà¶ĭà¶´ à¶¯
à·Ĵà¶ºà·Ķ à¶ļà·Ĭ
à·ģ à¶ļ
Ġà¶´à·ıà¶© à¶¸à¶ļà·Ĭ
à¶Ń à¶¸à¶ºà·Ĵ
à¶ĳ à·ĥà·Ĭ
à·ĵ à¶±
Ġà·ĥà·Ŀ à¶¯à·Ĵà·ĥà·Ĵ
à¶¢à·Ļ à¶¸à·Ĭ
, à¶¸à¶Ĥ
on d
Ġà¶»à·Ķ à¶´à·Ĵà¶ºà¶½à·Ĭ
Ġà¶ĳ à·Ħ
Ġà¶±à·ľ à¶¯à¶±à·Ĭà¶±
Ġà¶° à·ıà¶»
à¶« à¶§
Ġà¶ļà·ľ à¶±à·Ĭà¶Ńà·Ĭ
à¶ļà·Ĵ à¶ºà·ı
Ġà¶ľà·Ĳ à·ħ
Ġà¶» à·Ŀà¶¸
à¶ļà·Ķ à¶½
Ġà¶· à·ĸà¶Ń
Ġà¶»à·ıà¶¢ à¶°à·ı
à¶´à·ħ à¶¸à·Ķ
Ġà¶ĳ à¶¯à·Ĭà¶¯à·Ĵ
à¶¸à·Ĭ à¶½à·Ĭà·Ģà·Ĵà¶½à·Ĭ
Ġà¶ļà¶© à·Ģà·ĥà¶¸à·Ĭ
à¶±à·ı à¶»à·Ĭ
Ġà¶¯à·Ļ à¶ļà¶§
à·ĥà·Ķ à·Ģà·ı
Ġà¶ħà¶Ńà·ĳ à¶»à¶½à·ı
Ġà·Ģà·Ĵà¶¯à·Ĵ à¶±à·Ĭà¶±
Ġà¶´à¶ļà·Ĭà·Ĥ à¶´à·ı
Ġà·Ħà·Ĳ à¶¶à·ĳ
Ġà¶ļ à·Ģà·Ķà¶±à·Ĭ
Ġà¶±à¶ľ à¶»à·ļ
Ġà¶´à·ıà¶½ à¶±
on ia
Ġà·ģà¶ļà·Ĭ à¶Ńà·Ĵà¶ºà¶ļà·Ĭ
Ġà¶ļà·ħà¶¸ à¶«à·ı
et t
O L
à·ľà¶ļ à¶½à¶§à·Ĭ
à·ĥà·Ĵ à¶§
Ġà¶ļà·Ĵà¶ºà¶½ à¶±à·ļ
à¶©à·ľ à¶ľà·Ĭ
Ġà¶ľà¶±à·Ĭà¶± à·ı
Ġà¶ħà·Ģ à¶°à·ı
Ġà¶¯à·ı à¶´à¶±à·Ĭ
à¶¶à·Ĳ à¶³
à¶Ĭà¶§ à¶´à·ĥà·Ĭà·ĥà·Ļ
" à¶Ķà¶¶
Ġà¶ĩà¶» à¶½
l ic
à·Ģà·Ĵ à·Ģà·ıà·Ħ
Ġà¶¯à·Ļà¶± à·ıà¶¸
Ġà¶»à·Ŀ à·ĥ
à¶Ńà·Ŀ à¶»à·ı
à·Ħ à¶½à·ļ
à·ħ à·Ķà·Ģà·Ļ
Ġà¶¸à·ļ à·ĥà·Ļ
Ġà¶±à·ĳ à¶¯à·ĳ
Ġà¶ļà·Ļ à·ĥà·Ĭ
Ġa b
Ġà¶¶à·Ħà·Ĵ à¶±à·Ģà·ı
à·Ķ à¶«à·Ķ
à¶´ à·ĥà·Ķà·Ģ
Ġt here
à¶© à·Ĵà¶ļ
Ġà¶ħà¶Ńà·Ĭ à·Ħà·Ĳà¶»
Ġà·ĥà·ŀ à¶Ľà·Ĭ
Ġà¶´ à·ıà·Ģ
à·Ĵà¶ļ à·ıà·Ģà¶ļà·Ĭ
à·Ģà·Ĳ à¶©à¶ļà·Ĭ
à¶»à·Ķà·Ģ à·Ŀ
à¶´à·Ĳ à¶½à·Ĭ
Ġà¶´à·Ĵà¶§à·ĥà¶ļà·Ĭ à·Ģà¶½
à¶±à·Ĳ à¶Ńà·Ķà·Ģ
Ġà¶´à·ľ à¶Ńà·ļ
Ġà¶ļà·Ļ à·Ħà·Ļ
Ġà¶¯à·Ĵà·Ħà·ı à¶§
Ġà¶ĳà·Ģà¶±à·Ĭà¶± à¶¸à·Ĭ
vi ew
Ġà¶´à¶±à·Ĭ à¶Ńà·Ĵà¶ºà·ļ
à¶³ à·ı
Ġà¶±à·Ĵ à·ĥ
à¶´ à¶±à·Ĵ
à¶½à·ľ à·ĥà·Ĭ
Ġà¶ħà·ĥà·Ĭà·ĥ à·ļ
Ġà¶īà·Ģà¶» à¶¯
à·Ģà·ľ à¶§à·Ĭà·ĥà¶±à·Ĭ
Ġà·Ļà¶ļà·Ļà¶± à¶ļà·Ĭ
à¶»à·Ĵ à·Ĥà·Ĭ
à·Ĵà¶ļ à·ıà·Ģ
à¶¯à·Ļ à·Ģà·Ļà¶±à·Ĵ
Ġà¶½à¶¶à·ı à¶¯à·Ļà¶±à·Ĭà¶±
Ġà¶´à·ĥà·Ķ à¶ľà·Ĵà¶º
Ġà·ĥ à·ıà¶»à·ı
à¶±à·ı à¶©à·Ĭ
Ġà·Ħà·Ĳ à¶³à·Ķ
à¶¸à·Ĭà¶¶ à·Ĭ
Ġà¶ħà·Ģà·Ķ à¶½à·Ļà¶±à·Ĭ
Ġà¶´à·Ĵà·ħà·Ĵ à·Ģà·Ļ
Ġà·Ģà·ıà·ĥ à¶±à·ıà·Ģà¶ļà·Ĭ
âĢįà¶»à·Ļ à¶©à·Ĵ
à¶¸ à¶»
Ġà¶¯ à¶¸à·Ĭ
Ġà¶ļà¶» à·Ŀ
à¶¸à·Ĭà¶¶ à·Ĵà¶º
Ġà¶ľà·ľà¶©à¶±à·Ĳà¶ľà·Ĵ à¶½à·Ĵ
à¶ľ à¶±à·Ķ
Ġà¶±à·Ĵ à¶ļà·ĵ
Ġà¶¶à·Ĳà¶½à·Ĭà¶½à·Ĵ à¶ľà·Ļ
Ġà·Ģ à·ĥà¶±à·Ĭ
Ġà·Ħà·ľà¶³ à¶ļà·Ĭ
âĻª čĊ
à¶¶à·Ĳ à¶½à·Ĭà¶½à·Ĵ
h y
à¶ĳà¶ļà·Ĭà¶ļ à·Ļà¶±à·Ļà¶ļà·Ĭ
Ġà¶´à·Ļà¶§à·Ĭà¶§à·Ĵà¶º à¶ļà·Ĭ
à¶¤ à·Ĭ
à¶±à·Ĵà¶»à·Ĭ à¶¸à·ı
à¶Ń à¶ºà·ļ
à·Ĥ à·Ŀ
Ġà¶¸à·Ļà¶ºà·ı à¶ľà·Ļ
o ok
à¶Ńà·Ķ à¶¸à¶±à·Ĭ
Ġà¶´à¶»à·Ĵà¶´ à·ĸà¶»à·Ĭà¶«
à·Ļ à¶´à·Ĭ
Ġà¶¶à¶º à¶ľà·Ķ
à¶´à·ı à¶Ńà·Ĭ
Ġà·Ļ à¶ļ
w at
à¶¸à·Ķ à¶¯à·ı
a w
Ġà¶´à·ıà¶´à·ľ à¶łà·Ĭà¶łà·ıà¶»
Ġà¶´à·ı à¶±à·Ĭà¶¯à¶»
Ġà¶ĩà¶Ńà·Ķ à·ħà·Ķà·Ģ
Ġà¶ļà·Ŀ à¶´à·Ĭà¶´
à·Ģà·ļ à·Ģà·ı
Ġà¶ľà·ľ à¶½à·Ĭà¶½
P I
Ġà¶ļ à¶§à·Ĭ
à¶Ńà·Ĭà¶¸ à·Ĵà¶ļ
à¶»à·Ĵà¶ļ à·ıà·Ģà¶§
Ġà¶´ à¶Ńà·Ķà¶»
Ġà·ĥ à¶·à·ıà¶´à¶Ńà·Ĵ
Ġà·Ħà¶¯ à·Ģà¶Ńà·Ĭ
à¶¶à¶»à·Ĭ à¶ľà·Ĭ
Ġà¶ļà·Ĵà¶»à·Ĵ à¶¸
d o
âĢį à¶¶
Ġà·Ģà·Ĳ à¶½à·Ĵ
à¶ī à¶»
ĠO nt
Ġà·Ģ à·ıà·Ģà·Ĭ
Ġà¶±à·Ĳ à¶ľà·ĵ
à¶±à·Ģ à¶±à·ļ
à¶±à·ľ à¶¯à¶±à·Ĭà¶±à·ı
Ġ )
Ġà¶± à·Ħà¶º
à¶ļà·Ĵà¶º à·Ŀ
Ġà¶ħà¶© à¶Ĥà¶ľà·Ķà·Ģà¶§
Ġà¶¢à·Ļà¶± à¶»à¶½à·Ĭ
à¶ļ à·ļà¶¯
Ġà¶ľà·Ĳà¶± à·Ģà¶Ńà·Ĭ
à¶½à·Ĵà¶º à·Ŀ
Ġà¶īà¶³ à·Ĵ
Ġà¶´à·Ķà¶´à·Ķà¶» à·Ģà¶±à·Ĭà¶±
Ġà¶ħà¶ľà·Ķ à·ħà·Ķ
Ġà·Ħ à¶»à·Ĭ
Ġà¶ĭà¶¹ à¶½à¶§
Ġà¶»à·Ŀ à¶ľà·ĵ
à¶ļà·Ģà·Ķ à·ħà·Ķ
à¶¯à·Ĵ à¶±à·Ĭà¶±à·Ļ
Ġà¶±à·Ĵà¶½à¶°à·ıà¶» à·ĵ
âĢį à¶Ķ
à·Ĳà¶± à·ľà¶±à·Ĭ
à·ĥà·ĳ à·Ħà·Ļà¶±
à¶ºà·ı à·ħà·Ķà·Ģà·ı
Ġà¶¯à·Ķ à¶´à·Ĭà¶´à¶Ńà·Ĭ
Ġà¶¸à·Ħ à¶Ń
Ġà¶ĳà·Ħà·Ļ à¶¯à·Ĵ
à·ıà·Ģà·Ļ à¶½à·ı
Ġà¶´à·Ĳà¶¸à·Ĵà¶«à·Ĵ à¶½à·Ĵ
Ġà¶Ĩà¶©à¶¸à·Ĭà¶¶à¶» à¶ºà·Ĵ
à¶« à¶ºà¶§
Ġà·Ħà·Ķ à¶Ł
Ġà·Ħà¶»à·Ĵà¶º à¶±
à·ĥà¶§ à·Ħà¶±à·Ĭ
à·Ģà·Ŀ à¶½à·Ĭà¶§à¶»à·Ĭ
à¶´à¶«à·Ĵà·Ģà·Ĵ à¶©à¶º
à¶Ĥ à·ĥà·ı
Ġà¶ļà·ľ à¶±à·Ĭ
âĢįà¶º à·Ķ
Ġà¶´à·Ĵà·Ħà·Ĵ à¶§à·Ķà·Ģ
Ġà¶ļà·Ĳà¶» à¶½à·Ĵ
Ġà¶´à·Ĵà¶»à·Ĵ à·ĥà·Ĵ
Ġà¶ļà¶»à¶±à·Ģ à¶±à¶¸à·Ĭ
Ġà¶»à·Ļ à¶¯à·Ĵ
. A
à¶ļ à¶¶à·Ĭ
Ġà¶¶à¶½ à¶½
à¶ľà·Ĳà¶± à·Ĵ
à¶ľ à¶¸à·Ļ
âĢį à¶ľà·Ļ
à¶¶ à¶½à·Ĵ
Ġà¶º à·ĸ
Ġà¶Ķ à¶ļà·Ĭ
Ġà¶Ĩ à¶ļà¶»à·Ĭ
Ġà¶»à·Ĵ à¶łà¶©à·Ĭ
ĠOnt ario
à·Ģà·Ļ à¶ºà¶±à·Ĭ
Ġà¶Ĭ à·Ģà·Ŀ
Ġà¶īà¶±à·Ĭà¶±à·Ģ à¶±à·ļ
Ġà·Ħà·Ĳà·ĥà·Ĵà¶» à·Ļà¶±à·Ĭà¶±
à¶½ à¶±à·Ĭà¶§
Ġà·ĥ à·ļà¶»
Ġà¶ľà·Ĳà¶± à·ĵà¶¸à¶ļà·Ĭ
Ġà¶ħà¶Ĥà·ģ à¶ºà·ļ
Ġà·ĥà·ľà¶» à¶ļà¶¸à·Ĭ
à¶¸ à¶»à¶«à¶º
à¶ļà·Ĵà¶º à·Ģà·Ĵà¶½à·Ĵ
à·Ĥà·Ĵ à¶ļà·Ĭ
Ġà¶ĭà¶Ńà·Ĭà¶Ń à¶»à¶º
Ġà·ĥà·ĵ à¶Ń
Ġà¶½à¶Ł à·Ĵà¶±à·Ĭ
à¶´à¶»à·Ĵ à·ģà·ĵà¶½à¶ļ
âĢį à¶½à·Ĵ
à¶¸à·Ķ à¶½à·Ķ
Ġà¶ħà·Ħ à·ĥ
Ġà·ģ à·ĸ
Ġà·ĥà¶Ĥ à·Ģà·ıà¶¯
Ġà·Ģà·Ĵà¶»à·Ķ à¶¯à·Ĭà¶¯
Ġà¶¯à·Ĳà¶± à·Ķà·Ģà¶Ńà·Ĭ
à¶¯ à·Ħ
Ġà·Ħà·Ĵà¶Ń à¶¸à·Ķ
à¶¸à·Ħ à¶Ńà·Ĭà¶¸
Ġà¶Ĵ à¶ľà·ľà¶½à·Ĭà¶½à·Ŀ
Ġà¶Ńà¶»à·Ĭ à¶¢à¶±
à¶ħ à·Ģà·ĥà¶±à·Ĭ
à¶½à·ı à¶ľà·ļ
Ġà¶¯à·ľà¶» à¶§
à¶ī à¶©
Ġà¶Ĭà¶§ à¶´à·ĥà·Ĭà·ĥà·Ļ
Ġà¶ħ à¶¯à·Ķà¶»à·Ķ
à·ĥà·Ĵà¶º à¶¸à·Ĭ
Ġà¶§à·Ĵà¶ļ à¶ļà¶§
Ġà¶±à·Ĵà¶º à¶¸à·Ĵà¶Ń
à·ĥà·Ĭà¶Ńà·Ĵ à¶ºà·ı
Ġà·ģà·ı à¶½à·ıà·Ģ
Ġà¶´à·Ĵà·Ħ à·Ĵà¶ºà¶ļà·Ĭ
Ġà¶´à·Ķ à¶¢
à¶ļà·Ļ à·Ģà·Ĵà¶±à·Ĭ
Ġà¶¯à·Ĳà¶¸à·Ĭà¶¸ à·ľà¶Ńà·Ĭ
r ic
Ġà¶ºà·ı à¶±à¶ºà¶ļà·Ĭ
Ġà¶¯à·Ĵà¶º à¶¸à¶±à·Ĭà¶Ńà·Ĵ
Ġà¶ļà·Ķà¶»à·Ķ à¶½à·Ĭà¶½
Ġà¶ľà¶±à·Ķà¶¯à·Ļà¶± à·Ķà·Ģà¶ļà·Ĭ
ĠU RL
à¶ļà·Ķ à¶»à·ıà¶¯à·ı
à¶¶à·Ĭ à¶°
Ġà¶¯à·Ĵà¶ľ à·Ĵà¶±à·Ĭ
à¶¸ à¶°à·Ĭ
Ġà¶ľà·ļ à¶§à·Ĭà¶§à·Ķà·Ģ
Ġà¶´à·Ĳà¶Ńà·Ĭà¶Ń à¶ļà·Ĵà¶±à·Ĭ
Ġà¶ħ à¶¸à¶±
Ġà¶ħà¶» à¶ľà¶±à·Ĭà¶±à·Ģà·ı
à¶¶à·Ķ à¶¯à·Ĭà¶°
à¶½ à·Ļà¶±
Ġà¶±à·Ĵ à¶Ńà·Ĵ
Ġà¶± à¶Ńà·Ĭà¶Ń
Ġà¶ļà·Ĳ à¶½
à¶¶à·Ĳ à·Ħà·Ĵ
Ġà¶¶à·ľ à·Ħà·Ŀà¶¸
à¶¸à·ĸ à¶½à·Ĵà¶ļ
à¶¯à·Ķ à¶±à·Ķ
à¶´à¶»à·ĵà¶ļà·Ĭà·Ĥ à¶ļ
Ġà·Ģà·Ħ à¶´à¶±à·Ĭ
à¶·à·ıà·Ģ à¶º
à¶º à·ĥà·Ĭ
Ġ $
Ġà¶ºà¶±à·Ĭà¶± à¶§
Ġà¶´à·Ĵà¶§à·Ĵ à¶´à·ĥà·Ĭà·ĥà¶§
Ġà¶¸à·ĥà·Ĭà·ĥà·Ĵ à¶±à·ı
Ġ un
Ġà¶ļà·Ļ à¶½à·Ģ
à¶» à¶¸à·Ĭ
Ġà¶ĭ à¶±à·Ķ
à¶Ńà¶± à¶ºà¶ļà·Ĭ
Ġà·ĥà·Ĭ à¶±à·ı
à¶ºà·Ķ à¶ļà·Ĭ
à¶ļà·Ģà·Ķ à·ħà·Ķà·Ģ
Ġà¶¸à·ľà¶± à·Ħà¶»à·Ĵ
Ġà·ĥà¶¸à·ıà¶ľ à¶¸à·Ĭ
Ġà¶§à·Ĵà¶ļ à¶Ńà·Ĭ
Ġà¶±à·Ĳà¶§à·Ķ à¶¸à·Ĭ
à¶»à·Ĵ à¶ļà¶±à·Ĭ
Ġà¶±à·Ĳ à·Ģà·ļ
à¶ºà¶±à·Ĭ à¶ľà·Ļà¶±à·Ĭ
à¶¸à·ıà·Ģ à·Ĵà¶º
Ġà·Ħ à¶½à·Ļ
Ġà¶¸à·Ĳà¶»à·Ķ à¶«à·Ķ
Ġà·Ģà·Ŀ à¶½à·Ĭà¶§à¶»à·Ĭ
Ġà¶¯à·Ļà¶¸à·Ģà·Ĭ à¶´à·Ĵà¶º
2 7
Ġà¶ī à¶¯à·ĵ
Ġà¶Ĩ à¶Ńà¶½à·Ĭ
Ġà·ĥà¶ļ à·ĥ
F BI
Ġà¶±à·Ĵ à¶´à¶¯
Ġà·ĥà·Ĭ à·Ģà·ľ
à¶Ńà·Ķà¶¸ à¶«à·Ĵ
Ġà¶ļà·Ĵ à¶¸à·Ĵ
Ġà¶ħà¶Ĥà·ģ à¶ļ
Ġà¶ħà¶°à·Ĵ à¶ļà¶»à¶«
Ġà¶Ķà¶ºà·ıà¶½ à¶Ńà·Ĭ
Ġà¶½à·Ŀà¶ļ à¶ºà¶ļà·Ĭ
Ġà¶¯à·Ļ à·Ģà¶±
Ġà¶´à·Ĳ à·Ģ
à¶¹ à¶±à·Ĭà¶±
Ġà¶ĳà¶±à·Ĭà¶± à¶Ńà·Ĭ
Ġà¶º à·Ģà¶½à·ı
à¶½à·Ķà·Ģ à·Ļà¶ļà·Ĭ
Ġà¶ĭà¶´à¶±à·Ĭà¶¯à·Ĵ à¶±à¶ºà¶ļà·Ĭ
à¶Ń à¶¸à·ıà¶±
Ġà·Ģà·Ļà¶± à·Ģà¶§
Ġà¶´à·ĥà·Ķ à¶Ńà·Ĳ
Ġà¶ĭà¶Ńà·Ĭà¶Ń à¶»à·ļ
Ġà¶´à·ħ à·ı
Ġà·ħà¶¸à¶º à·Ģ
Ġà¶ī à¶±à·Ĭà¶¯
à·Ģà·Ļ à·ĥà·Ĭ
à¶»à·ı à·Ħà·Ķà¶½à·Ĭ
Ġà¶¸à·Ļà¶Ńà¶± à¶¸
Ġà¶ĳà¶ļà·Ĭà¶ļ à¶ºà·Ĵ
à¶±à·Ĵà¶º à¶¸à·Ĭ
Ġà·ĥà¶Ĥ à¶¥à·ıà·Ģà¶ļà·Ĭ
15 0
4 00
P D
Ġà¶¯à·Ķà¶±à·Ĭà¶± à¶§
Ġà¶ļà¶© à¶¯à·ı
à¶½à·Ŀà¶ļ à¶ºà·ļ
t le
Ġà¶ĳà¶ļ à·ļà¶¯à·ĵ
Ġà·Ħà·Ĵà¶Ń à¶ºà·Ĵ
Ġà¶´à·Ļà¶±à·Ĭ à·Ģà¶±à·Ģà·ı
Ġà·ĥà·Ķà·Ģ à·Ĵ
Ġà·Ħà·Ĵà¶Ńà·ıà¶ľà¶±à·Ĭà¶± à·Ģà¶Ńà·Ĭ
Ġà¶ļà·ıà¶»à·Ĭ à¶¸à·Ĵà¶ļ
à·Ħà·Ĳ à¶±à·Ĭ
à¶¸à·ļà¶ļ à¶Ńà·Ĭ
à¶±à·Ŀ à¶±à·ıà·Ģà¶»à·Ķà¶±à·Ĵ
à·ĥ à·Ĳà¶ļà·Ĭ
Ġà¶± à·Ħ
à¶´ à·ľà¶»
Ġà¶ħà¶¸à·Ĭ à¶¸à¶ľà·Ļ
Ġà¶ĳà¶±à·Ĭ à¶¢à·Ĵà¶±à·Ĭ
r ussia
à¶īà·Ģà¶» à¶ºà·Ĵ
Ġb y
à¶ľà·ı à¶ļà·Ĭ
Ġà¶Ńà·Ĵà¶ºà¶±à·Ĭà¶± à¶¸à·Ĭ
Ġà¶ĭà¶¯à·ĳà·ĥ à¶±
Ġà¶±à·ľà¶¸à·Ĵ à¶½à·ļ
. E
à¶ł à·Ķ
Ġà¶ħà¶» à¶ļà·Ĭà¶ļà·Ķ
à¶½à·Ŀ à¶ļà·Ļ
Ġà¶´à¶Ń à¶±à·Ģà·ı
à¶» à¶ºà¶§
Ġà·ĥ à¶»à·ı
Ġà¶Ŀà·ı à¶Ńà¶ļ
Ġà¶ĭà¶´à¶±à·Ĭà¶¯à·Ĵ à¶±à·ļ
Ġà·ĥà·Ĭà¶´ à¶»à·Ĭà·ģ
à¶±à·Ĵ à·Ĥà·Ĭ
Ġà¶Ń à¶«
Ġà·Ģà·Ĵ à¶§à·Ĭà¶±à·Ĵ
Ġà¶¯à·Ĵ à¶½à·Ĭà¶½à·Ĵ
Ġà¶ħà¶½à·Ĭà¶½ à¶±
Ġà¶»à·ĥà·Ĭà·ĥ à·ı
à¶ºà¶ļà·Ĭ à·Ĥ
Ġà¶¶à¶½ à·Ļà¶±à·Ĭ
Ġà¶ħà¶´ à·Ħà·Ķ
à¶ļà·Ĭà¶ļ à·Ŀ
Ġà¶¶à·Ĳ à¶½à·Ĭà¶½
à·Ģà·ĺ à¶Ń
à¶¤à·Ĭ à¶¤
à¶± à·Ĳà¶±à·Ĭ
Ġà·ĥ à¶Ńà·Ĭà·Ģ
à¶ºà·Ĵà¶±à·Ĭ à¶ľà·ļ
Ġà¶±à·Ĵà¶¯ à¶±
Ġà¶»à·ıà¶¢ à¶ļà·ĵà¶º
à·ıà¶½ à¶§à·Ĭ
Ġà¶±à·ľà¶ļà¶» à¶±
Ġà¶ļà·ľà¶±à·Ĭà¶© à·ļ
Ġà¶ľà·ĳ à¶«à·Ĵ
à¶´à·Ĵà¶±à·Ĭ à¶§à·Ķ
Ġà¶ħà·Ģà·ĥà·ı à¶±à¶ºà¶ļà·Ĭ
à¶¢à·Ĵ à¶¸à·Ĭ
Ġ j
Ġ Qu
Ġà¶ĩ à·ĥ
Ġà¶ºà·ı à¶±à·ıà·Ģ
Ġà·Ģà·Ĵ à¶³
Ġà¶¯à·Ļ à¶ºà·Ĵà¶±à·Ĭ
Ġà¶¶à¶º à·Ģà·Ļà¶±à·Ĭà¶±
à¶¯à·Ļà¶± à·Ģ
Ġà·Ĥ à¶»à·Ĭà¶½à·ľà¶ļà·Ĭ
Ġà·Ħà·Ķà¶» à¶Ńà¶½à·Ĭ
Ġà¶½ à·Ķà·Ģ
Ġà¶¸à·Ĳà¶»à·Ķ à¶±
à·Ħ à¶½à·Ļ
Ġà¶ĳ à¶Ńà·Ļà¶±à·Ĭà¶§
Ġà¶ħà¶º à·Ķ
Ġà¶¸à·Ĵà¶Ńà·Ķà¶» à¶±à·Ĭ
Ġà¶ļà·Ĭà¶½à·Ļ à¶ºà¶»à·Ĭ
, à¶ĳà¶ºà·ı
Ġà¶¯ à·Ķà·Ģà·ļ
âĢį à¶´à·Ĵ
à¶Ńà·Ĵ à¶ºà·ı
à¶¸à¶§ à·Ĭ
Ġà·Ħà·ľà¶ºà·ı à¶ľà¶±à·Ĭà¶±à·ļ
à¶ħ à¶»à·Ĵà¶±à·Ĭà¶±
Ġà¶ħà¶¯à·Ĭ à¶·à·ĸà¶Ń
Ġà¶±à·Ĳ à¶±à·Ĭà¶¯à·ļ
à¶±à¶º à¶ļ
Ġà¶¯à·ı à¶±à·Ĭà¶±à·Ļ
à¶ļ à·Ļà¶ļà·Ĭ
à¶ľà·Ķ à¶©à·Ĭ
Ġà¶īà¶¯ à¶±à·Ĭà¶¯
Ġà¶ļà·Ĵà¶ºà·Ģà¶±à·Ĭà¶± à·Ļ
Ġà¶ħ à·ĳ
Ġà¶ļà¶§à·Ĭà¶§à·Ĵà¶º à¶¸
à¶ļà·Ĭà·Ĥ à·Ĵà¶Ń
à¶½à·Ķ à¶¸à·Ĭ
Ġà¶»à·Ĵà¶¯à·Ĭà¶¯ à¶±à·Ĭà¶±
Ġà¶Ńà·ıà·Ģ à¶ļà·ıà¶½à·Ĵà¶ļ
Ġ as
Ġà¶¸à·Ļà¶ºà·ı à¶½à·ı
Ġl ove
Ġà¶¯à·Ķà¶»à·Ĭ à¶½à¶·
Ġà¶¯ à·ľà¶©
Ġà¶¶ à¶±à·Ĭà¶¯
Ġà¶Ķà¶ºà·ıà¶ľà·Ļ à¶¸
Ġà·Ĩà·Ĭ à¶»à·ĳà¶±à·Ĭà¶ļà·Ĭ
à·Ĳ à¶Ńà·Ķà·Ģ
Ġà¶± à¶±à·Ĭà¶¯à·Ķ
er b
âĢį à¶´à·ļ
Ġà¶±à·Ģ à¶º
Ġà·Ģà·Ĵ à¶§à¶¸
Ġ' %
Ġà¶¸à·Ŀà¶© à¶ºà·Ĵ
Ġà·Ģà·ıà·Ħ à¶±à¶ºà¶ļà·Ĭ
à·ıà¶» à·ĵ
Ġà¶¸à·Ĵà¶±à·Ĵ à¶Ńà·Ĭà¶Ńà·Ķà·Ģ
Ġà·Ħà·Ĵ à¶§à·Ĭ
à·Ģà·ļ à¶ľà¶º
à¶´ à¶½à¶ºà¶±à·Ĭ
Ġà¶¸à·Ķà¶» à¶«à·Ĭà¶©à·Ķ
Ġà¶ĩà·Ħà·Ķà·Ģ à·ľà¶Ńà·Ĭ
Ġà¶ĳ à¶¸à·Ĵà¶½à·Ĵ
Ġà·Ģà·Ĵà¶ļà·Ĵ à¶»à¶«
Ġà¶ĭà¶½à·Ĭ à¶ļà·ı
Ġà¶Ńà·Ĵ à¶»à·Ĵ
à·Ģà¶»à·Ĭ à¶§à¶±à·Ĭ
Ġà·Ħà·Ĵà¶§ à¶´à¶±à·Ĭ
Ġstat us
Ġà¶¶ à¶ºà·Ļà¶±à·Ĭ
à¶ºà·Ļà¶ļà·Ĭ à·Ģ
à¶łà·Ĭ à¶łà·Ĭ
à·ĥà·Ĵà¶º à¶±à·Ĭ
à¶© à¶»à¶½à·Ĭ
Ġà¶´à·ı à¶§à·Ĵ
Ġà·ĥà·ı à¶¯à¶º
Ġà·ĥà·Ķ à¶±à·Ĭ
Ġà¶ľà¶±à·Ĵ à¶¸à·Ķ
Ġà¶ľ à¶½à¶ļà·Ĭ
à¶¸à·ľà¶± à·Ģà¶Ńà·Ĭ
Ġà¶¯à·Ļà·Ģà·Ĵà¶º à·Ŀ
Ġà¶Ńà¶±à·Ĵ à·Ģà¶¸
à¶½à·ı à¶·
âĢį à¶´à·ı
Ġà·Ħà·ľ à¶§
Ġà¶ħà¶´à·ļ à¶ļà·Ĭà·Ĥà·ı
Ġà·ĥà¶» à¶½à¶ºà·Ĵ
Ġà¶ĭ à¶ºà¶±à·Ĭà¶±
Ġà·ĥà·Ĵ à¶»à·ıà·Ģà¶§à¶¸
à·Ģà·Ĵà¶º à¶±à·Ĭ
à¶´à·Ķ à¶»à·ı
Ġà¶»à¶§ à¶§
Ġà¶ħà¶´à·Ĵà¶§ à¶Ńà·Ĭ
à¶¸à·Ĵ à¶±à·ĵà¶¸
à¶½à·ľ à·Ģ
Ġà¶ľ à¶«à·Ĵ
Ġà¶ļà¶Ńà·ıà¶ļà¶» à¶±à·Ģà·ı
Ġà¶´ à·Ģà¶Ńà·ĵ
à·ĥà·Ĭ à¶¶à·Ŀà¶½à·Ĭ
r ain
Ġà·ĥà¶Ĥà·Ģà·Ĵ à¶°à·ıà¶±à¶º
à¶¶ à·Ħà·Ĵ
Ġà¶ļà·ıà¶½à·Ļ à¶ļà·Ĵà¶±à·Ĭ
Ġà¶¸à·Ĳà¶»à·Ķà·Ģ à·Ļ
à¶¯ à¶»à·Ĭ
Ġà¶ĳ à¶´à·Ĳ
à¶§à·Ĵ à·ĥà·Ĭ
Ġà¶ľà·Ĵ à¶½à·Ĵ
Ġà¶ļà·Ĭà·Ĥ à·ļà¶Ńà·Ĭ
à·Ģà·Ĵ à¶ļà¶½à·Ĭà¶´
Ġà·ģ à·ĵ
Ġà¶¸à·Ļà¶Ńà·Ĳà¶± à·Ĵà¶±à·Ĭ
à·Ģ à¶ľà·Ļà¶±
Ġà¶ļà·Ĵà¶º à·Ģà·Ļà¶±à·Ĭà¶±à·Ļ
Ġà¶±à·ľ à¶½à·Ĳ
à¶¢à·Ĵ à¶´à·Ĭ
Ġà¶Ńà·ľ à¶»à·ı
Ġà¶½à·Ĵà¶±à·Ĭ à¶ļà¶±à·Ĭ
à¶¸à·ľà¶© à·Ĵà¶ºà·Ķà¶½à¶º
Ġà·Ħà¶¯à·Ģà¶Ń à¶§
Ġà¶Ĩà·ĥ à¶±
Ġà¶ļà·ľà¶½à·ļ à¶¢à·Ĭ
à¶ºà·Ļ à¶¯à·Ĵ
me nu
Ġà¶ľà·ıà¶± à¶ļ
Ġà¶±à·Ĵà·ħ à¶°à·ı
Ġà¶§à·ĵ à·Ģà·ĵ
à¶ļà¶»à·Ķà¶±à·ı à¶ļà¶»à¶½
Ġà¶¯ à¶¸à·Ļ
Ġà¶±à·Ĳ à·Ģà¶ļà·Ĭ
Ġà¶Ĩ à¶ľà¶±à·Ĭà¶Ńà·Ķ
Ġà¶±à·Ĳà¶ľ à¶½à·ı
Ġà¶¸ à¶±à·ı
à¶ĳ à·Ħà·ıà¶§
à¶Ĵ à¶ľà·ľà¶½à·Ĭà¶½à·Ŀ
Ġà¶±à·ľ à·Ģ
Ġà¶ºà·Ķ à¶Ńà·Ĭà¶Ńà·ļ
à¶ħà·Ħ à¶ļà¶§
à¶ħ à¶ľà·Ĭ
Ġà¶ĳà¶ļà·Ĭà¶ļ à¶Ĥ
âĪĻâĪĻ âĪĻâĪĻ
à¶¶à¶½à·ı à¶´à·ľà¶»à·ľ
à¶¸ à·ħ
Ġà¶ľ à·Ģà·ļ
Ġà¶Ńà·Ĵ à¶»à¶º
Ġà¶Ńà¶¸à·Ķ à¶±à·Ĭà·Ģ
à¶§à·Ĭ à¶§à·Ķà¶ºà·Ĵ
Ġà¶±à·ĵ à¶Ńà·Ĭ
Ġà¶±à·Ĳà¶Ńà·Ĵ à¶¯
Ġà¶¶à·ıà¶» à¶ľà¶±à·Ĭà¶±
Ġà¶ľà·Ĳ à¶«à·Ķ
Ġà¶§ à·ľà¶¸à·ĵ
Ġà¶ļà¶»à·Ĭ à¶±à¶½à·Ĭ
Ġà·ĥà·Ħà·Ĵà¶Ń à¶ºà·Ĵ
Ġà¶ĭà¶´à·ı à¶º
ear ch
à¶´à·Ķ à¶¯à·Ķ
à·Ģ à·Ķà·Ģà·ļ
à·Ļ à·Ħà¶§
Ġà·Ħà·Ķ à·ĥà·Ĭà¶¸à¶ļà·Ĭ
Ġà¶ĩà¶¯ à¶½
Ġà¶»à·Ĳà¶¢à·Ĵ à¶«
à¶¯ à·Ŀà·Ĥ
Ġà¶Ĵ à¶ľà·Ĳà¶±
Ġà¶ļà·ľ à¶Ńà¶»à¶¸à·Ĭ
à¶«à·ı à¶ľà·ıà¶»
Ġà·Ħà·ľà¶¯ à¶ļà·Ĭ
Ġà¶¢à·Ĵà·Ģà·Ĵà¶Ń à¶ºà¶ļà·Ĭ
Ġà·Ģà·Ĵà¶½ à·Ģà·Ķà¶±à·Ĭ
Ġà¶ĩ à¶½à·Ĭà¶½à·Ķà·Ģà·ı
Ġà¶ļà·Ĭ à¶½à·Ŀà¶ºà·Ĵ
Ġà¶¯à·Ĵà¶º à¶Ńà·Ĭ
Ġà¶Ńà·ĳ à¶ľà·Ĵ
Ġà·Ģà¶±à·Ĭ à¶¯à·Ĵ
Ġà·Ħà·Ĳ à¶¯à·Ļà¶±à·Ĭà¶±
Ġà¶ĳà¶±à·Ĭà¶± à¶ļà·Ŀ
Ġà¶¯à·Ĳà¶± à·Ļà¶ºà·Ĵ
à·ĥà¶§ à·Ħà¶±
Ġà¶Ńà¶Ńà·Ĭ à¶Ńà·Ĭà·Ģà¶º
Ġà¶ľà·Ĳà¶± à·Ĵ
Ġà¶¸à·Ĵà¶±à·Ĵà·Ħà·Ļà¶ļà·Ĭ à·Ģ
Ġà·ĥà·Ĵà¶Ńà·Ĵà¶º à¶¸à¶ļà·Ĭ
Ġà¶ĳà¶ļ à¶´à·ıà¶»à¶ļà·Ĭ
à·Ħà·Ķ à¶Łà¶ļà·Ĭ
Ġà¶¶à¶½ à¶ºà¶±à·Ĭ
Ġà·Ħà¶¸à·Ķà·Ģ à·Ķà¶±à·ı
Ġà¶ļà·ıà¶»à·Ĭà¶ºà·ı à¶½à¶ºà·ļ
Ġà¶¸à·Ĳà¶¯à·Ĵ à·Ħà¶Ńà·Ĭ
Ġà·Ģà·Ĳà¶»à¶¯ à·ĵà¶¸à¶ļà·Ĭ
Ġà¶ºà·Ķà¶ļà·Ĭ à¶Ńà·Ĵà¶º
Ġà¶§ à·ľ
Ġà¶¯à·Ļ à·ĥ
Ġà·Ģà·ļà¶¯ à¶±à·ıà·Ģà¶ļà·Ĭ
Ġà¶¯à¶»à·Ķà¶«à·Ķ à¶ºà·Ĵ
Ġà¶ĭà¶» à·Ħà·Ĵ
b er
Ġà¶ĳà¶ļ à¶§à¶¸
à¶»à¶º à¶ļà¶§
Ġà¶´à·Ĳà¶Ńà·Ĵ à¶»
à¶´ à¶§à¶±à·Ĭ
Ġà¶¯à·Ļà¶±à·Ĭà¶± à¶ļà·Ŀ
Ġà¶· à·ıà·Ģ
ac e
Ġà·ĥà·Ĭà·Ģà·ľ à¶ºà¶»à·Ĭ
Ġà¶ľ à¶Ńà·Ĵà¶ºà¶ļà·Ĭ
Ġà¶Ĩ à¶ºà·ı
Ġà¶ħà¶Ĥ à¶ļà¶½à·Ĭ
à¶½à·ĥà·Ĭà·ĥà¶± à¶ºà·Ĵ
à¶«à·ı à¶Ńà·Ĭà¶¸à¶ļ
Ġà¶´à·Ĵà¶§ à¶§
à¶±à·Ĭà¶Ń à·Ŀ
Ġà¶Ńà·ıà¶Ńà·Ĭà¶Ń à¶Ńà·Ĭ
m a
Ġà¶± à¶ºà·Ĵ
à¶¢à·ĵ à·Ģà¶Ńà·Ĭ
Ġà¶ĳà¶ºà·ıà¶½ à¶Ńà·Ĭ
Ġà¶ļà¶© à¶½à·ı
à·ĥ à·ıà¶»à·ı
Ġà¶»à¶® à¶º
Ġà¶±à·Ĵà¶½à¶°à·ı à¶»à·Ĵ
à·Ĵ à·ĥà·Ĭ
Ġà¶ħà·Ħ à·Ķà·Ģà·Ļà¶½à·ı
à¶±à·Ĭà·Ģ à¶±
Ġà·ĥà·ħ à¶ļà·Ķà¶«à·Ķ
Ġà¶Ńà·Ĵà¶¶ à·Ĵà¶½
Ġà¶ļà·Ĭ à¶½à·ıà¶»à·Ĭà¶ļà·Ĭ
Ġà¶¶à·Ĳà¶½ à·Ķà·Ģà·Ļ
Ġà¶ļà¶½à¶º à·Ķà¶Ńà·Ķ
Ġà¶¸ à·Ĳà¶±à·Ĭ
Ġà·Ħà·Ĳ à¶ļà·Ĭ
à·ĥà·Ķ à¶ºà·Ĵ
à¶ľà·ľà¶© à·ıà¶ļà·Ĭ
Ġà¶Ĩà¶»à¶ļà·Ĭà·ģ à¶ļ
à¶» à¶Ńà·Ĭ
à¶ļà·ľ à¶±à·Ĭ
R S
Ġà¶ľ à¶Ńà·Ĵ
à¶¶ à¶©
Ġà¶Ķ à¶ºà¶§
Ġà¶ĭ à¶¯à·Ķà¶»
Ġà¶ļà·Ķ à¶ļà·Ķ
he n
Ġà¶Ńà·ıà¶Ńà·Ĭà¶Ń à·ıà·Ģ
Ġà¶»à·Ĵ à¶ļà·Ĭ
ha w
Ġab out
à¶ºà·ı à·Ģà·Ĵ
à·Ķà·Ģ à¶»
Ġà·Ħà·Ĳ à¶±à·Ĭ
à¶½à·ļ à¶ºà¶»à·Ĭ
Ġà¶Ńà·Ķà¶±à·Ĭà¶¯ à·Ļà¶±
2 6
à¶Ń à¶½à·ı
à¶»à·Ļ à·Ģà·Ĭà·Ģà·ı
à·ĥà¶ºà·Ĵ à¶¸à¶±à·Ĭ
Ġà·ĥà·Ļà¶± à·ĥà·Ķ
Ġà·Ħà·Ļ à·Ģà·Ĭà·Ģà·ı
à¶±à·Ģ à¶±à¶¸à·Ĭ
Ġà¶ľà·ıà¶± à¶§
Ġà¶¢à·ĵà·Ģà·Ĵà¶Ńà·ļ à¶¸
\ i
à·Ģ à·Ĳà¶±à·Ĭ
Ġà¶ļà·Ķà¶«à·ı à¶§à·Ķà·Ģ
Ġà¶ļà·ľà¶½à·Ĭà¶½ à·Ģ
Ġsubject s
à·Ĥ à·Ŀà¶±à·Ĭ
wat ers
Ġcl ass
Ġà¶Ĵà·Ģà·ı à¶ºà·ļ
B AR
Ġà¶ĩà¶¯ à¶±à·Ĭ
Ġà¶ļà·Ĵà·Ģà·Ķà·Ģ à·ľà¶Ńà·Ĭ
Ġà·ĥà¶Ĥà·Ģà·Ĵ à¶°à·ı
S h
Ġà¶ķ à·Ĩà·Ĭ
à·Ħà·Ĵ à¶»à·Ĵ
Ġà¶ĩà¶Ńà·Ĵ à·Ģà·Ļà¶±à·Ĭà¶±
à¶´à·Ļà¶± à·ĵ
à¶¸à·ľà¶±à·ı à·Ħà¶»à·Ĵ
Ġà¶ĳà¶´à·Ĳ à¶ºà·Ĵ
à¶ºà·Ĵ à¶©à¶»à·Ĭ
Ġà¶ĩ à¶±à·Ĭà¶§
à¶»à·Ĭ à·Ĥ
à¶¸à·ı à¶»à·Ĭà¶®
à·Ħà·ľà¶³ à·Ĵà¶±à·Ĭ
Ġà¶ļà¶½à·Ĵ à¶±à·Ķà¶Ńà·Ĭ
à·Ĵà¶º à¶¸
à¶±à·Ķ à¶¶
Ġà¶¶à·Ĵ à¶½à·ĵ
Ġà¶¯à·ıà¶±à·Ĭà¶± à¶¯
Ġà¶´à¶»à·Ĵ à¶ļà·Ĭà·ģ
Ġà·Ļà·ĥà·ı à¶ºà·ı
à¶ºà·ı à·Ģà¶Ńà·Ĭ
à¶ľà¶±à·Ĭà¶± à·Ģ
Ġà¶½à·Ĳ à¶¢à·Ĭà¶¢à·ı
Ġà¶¶à·ľ à¶±à·Ĭà¶±à·ļ
Ġà·Ħà¶»à·Ĵà¶º à¶±à·Ĭà¶±à·Ļ
Ġà¶ļà¶»à·Ķà¶±à·ı à¶ļà¶»à¶½à·ı
Ġà¶ī à¶ľà¶±
Ġà¶´à·Ĳ à¶§à·Ĵà¶ºà·ı
à¶ļà·Ĵ à¶»à·ĵà¶¸à¶ļà·Ĭ
Ġà¶ħà¶» à¶ľà¶±à·Ļ
Ġin menu
Ġà¶´à·Ĵà¶»à·Ĵ à·ĥ
à¶§à·Ŀ à¶»à·Ĵà¶ºà·ı
Ġà¶»à·Ķ à·ĥà·Ĵà¶ºà·ıà¶±à·Ķ
à¶ļà·ĸ à¶½
Ġà¶¯ à¶«
Ġà¶ĳ à·Ģà¶±à·Ģà·ı
Ġà·ĥ à¶¸à·Ĵ
à¶ł à·Ĵà¶º
Ġà¶ħà·Ģ à¶¸
Ġà¶ľà·Ĳ à¶¹à·Ķà¶»à·Ķ
Ġà¶¯à·ı à¶ºà¶ļ
Ġà·ĥà·Ħ à¶ºà¶ļ
Ġà¶´à·ľ à·Ħà·ľà·ĥà¶Ńà·Ĭ
Ġà¶´à¶»à·Ĵ à¶Ńà·Ĭ
Ġà¶ļà·Ļà¶±à·ı à¶ľà·ļ
Ġà·Ģà¶ľà·Ŀ à¶¯
Ġà¶īà¶¯à·Ĵà¶»à·Ĵà¶º à·Ļà¶±à·Ĭ
à¶ļ à·ıà·Ģà¶ļà·Ĭ
à¶Ń à¶»à·Ķà¶«
Ġà¶ĳà¶ºà·ıà¶½ à¶ľà·Ļà¶±à·Ĭ
Ġà¶§à·Ļà¶ļà·Ĭ à·ĥà·ıà·ĥà·Ĭ
Ġà·ĥà¶¸à·Ĭà¶¶à¶±à·Ĭà¶° à¶Ńà·ı
Ġà·Ģà·Ķà¶«à·ı à¶¸
Ġà¶ļà¶»à·ı à¶¸
à¶´à·ľ à¶½
à¶ļà·ıà¶§ à·Ħà¶»à·Ĵ
à¶¶à·ı à¶¯à·Ĭ
à·Ģà·Ĵ à¶¯à·Ĵ
Ġà¶ļà·Ķ à¶§à·Ĵà¶º
à¶½ à¶Ĥ
Ġà¶ħà¶Ńà·Ĭà¶¯à·Ĳ à¶ļà·ĵà¶¸à·Ĭ
à¶§à·Ĭ à¶§à¶¸
à¶±à·Ĵà¶º à·Ŀà¶¢à·Ĵà¶Ń
à¶ºà·Ĵ à¶±à·Ĵ
Ġà¶ĳà·Ļ à·Ħà¶¸
Ġà¶¯ à¶±
Ġà·ĥà·Ĵ à¶ľà·Ĭà¶±à¶½à·Ĭ
Ġà·ģà·Ĵ à¶ļà·Ĭ
Ġà·ĥà·ıà¶ļà¶łà·Ĭà¶¡ à·ı
Ġs ee
Ġà·Ħà¶¸ à·Ķà·Ģà¶ļà·Ĭ
Ġà¶¶ à¶¯à·ı
Ġà·Ħà·Ļ à·ħà·Ĵ
à¶¸à·Ĵà¶±à·Ĵ à¶Ńà·Ĭà¶Ńà·Ķ
Ġà·Ģà¶ļà·Ķ à¶ľ
Ġà¶ĳ à·Ģà¶½à·ı
à¶±à¶º à·Ļ
Ġà¶¸à¶ľ à·Ħà·Ĳà¶»
à¶Ń à¶ºà¶§
à¶±à·Ĳà¶ľà·Ĵ à¶§
Ġà¶¸à¶Ńà·Ķ à¶´à·Ĵà¶§
Ġà¶ļà·Ļà¶±à¶ļà·ļ à¶§
Ġà·Ħà¶¸à·Ķà·Ģà·Ļà¶±à·Ĭà¶± à¶¸à·Ĭ
Ġà¶Ķà¶» à¶½à·ľ
Ġà¶Ĩà¶ļà·ıà¶» à¶ºà¶§
âĢį à¶ļà·Ŀ
à¶© à·Ĳà¶±à·Ĵà¶º
à¶ī à¶Ńà·Ķà¶»à·Ķ
Ġà¶±à·Ļà¶¸à·ļ à¶¯
à¶ļà·Ĵà¶º à¶±
Ġà¶ħà¶Ł à·Ķ
Ġà·ĥà·Ĵ à·Ģà·Ĵà¶½à·Ĭ
Ġà¶¶à·ľà¶» à·Ķà·Ģ
Ġà¶ľà¶¶ à¶©à·ıà·Ģ
Ġà¶±à·Ĵà¶º à¶¸à·Ķà·Ģà·ı
à·Ħà·ľà¶³ à¶§à¶¸
Ġà·Ģà·Ĵà·Ħà·Ĵ à·ħà·Ķà·Ģ
à·Ģà·Ķ à¶«à·ļ
Ġà¶ļà·ı à¶ľà·Ļà¶±à·Ĭ
Ġà¶ļà¶§à·Ĭà¶§ à·Ĵà¶ºà¶§
Ġà¶ĳ à¶Ńà¶»à¶¸à·Ĭ
à¶½à·Ĭ à¶ľà·ļ
Ġà¶ľà·ļ à¶±à·Ĭà¶±à¶¸à·Ĭ
Ġà·Ģà¶Ńà·ıà·Ģ à·Ļ
Ġà·ĥà·ļà·Ģà·ı à·Ģ
Ġà¶ļà·Ĵà·Ģà·Ĭà·Ģ à¶±à·Ļ
Ġà¶īà·Ģà·ĥ à¶±à·Ĭà¶±
Ġà·ĥ à·Ľ
Ġà¶½à·Ŀ à·Ħ
à·Ĩà·Ĭ à¶»à·ĳà¶±à·Ĭà¶ļà·Ĭ
Ġà·Ģà·Ļà·ħ à¶¯
Ġà¶´à¶»à·ıà¶¢à·Ĵà¶Ń à¶ºà·Ļà¶ļà·Ĭ
à¶¯ à¶±
à·Ģà·Ĵ à·ĥà·Ĭà¶Ńà¶»
Ġà¶ºà·ı à·ħà·Ķ
Ġà¶´à·ıà¶½ à¶¸
Ġà¶¶à·ļ à¶»à·ıà¶ľà¶±à·Ĭà¶±
Ġà¶´à·ľà¶½à·Ĵà·ĥà·Ĭ à¶ļà·ıà¶»à¶ºà·Ļà¶ļà·Ĭ
Ġà¶ľà¶±à·Ĭ à·Ģà¶±à·Ĭà¶±
Ġà¶ĭà¶¯à·Ģ à·Ķà·Ģà¶ļà·Ĭ
3 5
à¶¶ à¶©à·Ķ
Ġà¶¶ à¶³
Ġà¶© à¶ľà·Ĭ
Ġà¶ĭà·ĥà·Ĭà·ĥ à¶ľà·Ļà¶±
Ġà¶ļà·ŀ à¶Ńà·Ķà¶ļà·ıà¶ľà·ıà¶»
. I
Ġà¶ħ à·Ģà·ı
Ġà¶¯à·Ļ à¶ºà¶ºà·Ĵ
à¶±à·ĵ à¶Ńà·Ĵ
Ġà¶ļà·ıà¶» à¶º
Ġà¶»à¶§ à·ıà·Ģ
Ġà¶¸à·Ĵà¶º à¶ľà·Ĵà¶ºà·ı
à¶º à¶Ńà·Ķà¶»à·Ķ
Ġà¶ľ à¶»à·Ĭ
Ġà¶¸à·ı à¶±à·Ģ
à¶Ńà·Ķà¶¸à·ı à¶§
Ġà¶ºà¶§ à¶§
Ġh ave
Ġà¶¶à·Ĳà¶§ à¶»à·Ĵà¶º
Ġà¶ľ à¶Ĥ
Ġà·ĥà¶¸à¶ľ à·Ĵà¶±à·Ĭ
à¶»à·ĸ à¶¸à·Ĭ
Ġà¶ħà¶¸à·Ķà¶Ńà·Ĭà¶Ń à·Ļà¶ļà·Ĭ
à·ĥ à¶±à¶ļà·Ĭ
Ġà¶¶à·Ŀ à¶§à·Ĭà¶§à·Ķ
ĠD r
à¶ºà·ıà¶± à¶ļ
Ġà¶¸à·Ĳà¶»à·Ĵ à¶łà·Ĭà¶ł
Ġà¶¸ à¶Ńà·Ķà·Ģ
Ġà¶¸à·Ķà·Ħà·Ķ à¶¯
Ġà¶ĩ à¶¯à·Ķ
in k
Ġà·Ģà·Ļà¶±à·Ķà·Ģà·Ļà¶±à·Ĭ à¶¯
à¶´ à·Ĵà¶ºà¶ļà·Ĭ
Ġà¶ĩ à¶¯à·Ķà¶¸à¶ļà·Ĭ
19 7
Ġà¶ļà·ĺ à¶Ń
à¶¶à¶½ à¶´à¶±à·Ĭ
Ġà·Ģà·Ĵà¶¯à·Ĵà·Ħ à¶ļ
Ġà¶¶à¶½ à¶ļà·ľà¶§
à·Ħà·Ĵ à¶Ńà·ı
Ġà¶»à·Ŀ à¶¯
Ġà·Ģà·Ĵà·ģà·ļà·Ĥ à¶ºà·Ļà¶±à·Ĭà¶¸
Ġà¶½à·ļà¶Ľ à¶±
à·ıà·Ģ à·ĵ
Ġà¶ļà·ıà¶» à¶«à¶ºà¶ļà·Ĭ
Ġà¶ľà·ı à¶º
Ġà·Ģà·Ĳà¶©à·ĥà¶§ à·Ħà¶±à¶ļà·Ĭ
Ġà¶ĩà¶Łà·Ĵ à¶½à·Ĭà¶½
Ġà·Ħà·ľà¶ºà·ı à¶ľà¶¸à·Ķ
Ġà¶´à·Ĵà·ħà·Ĵ à¶¶à¶¯
Ġà¶ĳ à·Ģà·Ĭà·Ģà·Ļ
Ġà¶»à¶Ńà·Ĭà¶Ńà¶» à¶±à·Ĭ
Ġà¶´à·Ĵà¶§à·Ķà·Ģ à·Ħà¶½à·Ĭ
Ġà¶±à·Ĵ à¶ļà¶¸à¶§
Ġà¶ĭà¶Ńà·Ķà¶¸à·ıà¶« à¶±à·Ĵ
à¶ļ à·Ĵà¶ºà·Ĵ
Ġà¶¶à¶½ à¶±à·Ģà¶¯
Ġà¶ļà·ĵ à¶±à·Ĭ
Ġà·ĥà·Ħà¶ºà·Ŀ à¶ľà¶º
à·Ħ à¶Ĥ
à¶ĩ à¶¸à·Ļ
à¶ļà·ıà¶» à¶ļ
Âł à¶¸à·ļ
à·Ĳà¶ļà·Ĭ à¶¸
à¶° à¶ļ
Ġà¶»à·ı à¶¢à·Ķ
Ġà¶´à·Ħ à¶ºà·Ĵ
Ġà¶´à·Ĳà·Ħà·Ĳà¶¯à·Ĵà¶½à·Ĵ à·Ģà¶¸
à·Ģà·ļ à¶½à·ı
à¶Ĥà¶ľ à·ı
Ġà¶¶à·Ĳà·Ħà·Ĳ à¶»
Ġà·ĥà·ļ à¶±à·ı
Ġà¶½à·Ĵà¶º à¶´à·Ķ
Ġà¶½à·Ĳà·Ħà·Ĳ à·ĥà·Ĭà¶Ńà·Ĵ
' .čĊ
Ġà¶ºà·ı à¶¥à·ı
_ čĊ
Ġà·Ģà·Ļ à¶½à¶Ńà·Ĭ
Ġà¶ľà·Ĳ à¶¹à·Ķà¶»
Ġà¶ļà¶»à·Ķ à¶«
Ġà·ĥà·ļà·Ģ à¶ļà¶ºà·Ļà¶ļà·Ĭ
. à¶Ķà¶ºà·ı
à·Ĳ à¶ºà·Ĵ
Ġà·Ģà·Ļ à¶ºà·Ĵà¶±à·Ĭ
Ġà¶¸à·ľ à·Ħà·Ķ
à¶¢à¶± à¶Ńà·ıà·Ģ
Ġà¶ĩà¶¶à·Ĭ à¶¶à·Ĳà·Ħà·Ĵ
Ġà¶´à·Ļà¶¸à·Ĭ à·Ģà¶Ń
Ġà·Ģà¶Ńà·Ĭ à¶ļà¶¸à·Ĭ
Ġà·Ģà¶º à·ĥà¶§
Ġà¶¸à·ı à¶½à·Ķ
Ġà¶łà·ıà¶»à·Ĭ à¶½à·Ĭà·ĥà·Ĭ
Ġà·Ģà¶§à·ļ à¶§
à¶Ńà·ļ à¶»à·Ķà¶±à·ı
Ġà¶Ĩà¶ºà·Ĵ à¶Ńà·Ĭ
Ġt ype
Ġà¶¯à·Ķà¶»à·Ĭà·Ģà¶½ à¶ºà·Ĵ
à¶ºà·ı à·ħà·Ķà·Ģ
Ġà¶¯à¶ļà·Ĭ à·Ģà¶±à·Ģà·ı
à¶±à·Ĵ à¶¯à·ľ
Ġà¶Ĩà·Ģà¶» à¶«à¶ºà¶ļà·Ĭ
Ġà¶Ńà·ı à¶´à·Ĭà¶´
Ġà·ĥà·Ĳà¶½ à·ĥà·Ķà¶¸à¶ļà·Ĭ
à¶ľà·Ħ à¶´à¶±à·Ĭ
à¶¸à·Ķ à¶«
à·Ħà·Ļà¶¸ à·Ĵà¶±à·Ĭ
à¶ĭ à¶¯à·ı
Ġà·ĥà¶Ńà·Ķà¶» à¶±à·Ĭ
à¶» à¶´à·Ķ
Ġà¶ĩà·Ģà·Ĵ à¶¯à·Ĵà¶±
Ġd ep
. C
à·Ģà·Ĵà¶º à¶ļà·Ĭ
Ġà¶»à·ļ à¶łà¶½à·Ĭ
à¶ľà·Ļà¶¯à¶» à¶§
Ġà¶´à¶½à·Ĭà¶½ à·Ļà·Ħà·ıà¶§
Ġà¶Ĩ à·ĥà·Ĵà¶ºà·ı
Ġà¶¯à¶ļà·Ĵ à¶±à·Ĭà¶±à·Ļ
Ġà·ħà¶¸ à¶ºà¶§
Ġà¶ħà¶±à·ı à¶®
Ġà¶ĩà¶³ à¶§
à¶ħ à¶¯à·Ĭ
à·Ģà·Ĵ à¶ºà·ı
à¶©à·ı à¶±à·Ĭ
Ġà¶ħà¶Ńà·Ħà·Ĳà¶» à¶½à·ı
Ġà¶»à·Ĳà¶±à·Ĭ à¶łà·Ŀ
Ġà¶ĭ à¶Ĥ
Ġà¶¸à¶»à¶±à·Ĭà¶± à¶¯
Ġà·ĥà¶Ĥà¶łà·ıà¶» à¶º
Ġà¶Ńà·Ĵà¶ºà·Ļ à¶¯à·Ĭà¶¯à·Ĵ
à·Ĳ à¶¸à·Ĭ
à¶´ à¶§à·Ĵ
Ġà¶ĭ à·ĥà¶ºà·Ĵ
à¶¢à·ĵà·Ģà·Ĵ à¶Ńà·ļ
iz e
Ġà¶ĳ à·Ħà·Ļà¶±à¶Ĥ
Ġà¶½ à·Ģà·Ķà¶©à·ı
Ġà¶Ĩ à¶´à·Ĵà¶§
Ġà·ĥà·Ĳà¶½à¶ļà·Ĵ à¶½à·Ĵà¶¸à¶Ńà·Ĭ
Ġà·ĥà¶¸ à¶»à¶±à·Ĭà¶±
à¶¢à·Ķ à¶½à·Ĵà¶ºà¶§à·Ĭ
Ġà¶ļà¶»à¶¸à·Ķ à¶¯
à¶§à·Ĵ à¶ľà·Ĭ
Ġà¶»à·ıà¶ļà·Ĭà·Ĥ à¶ºà·Ļà¶ļà·Ĭ
is s
Ġà¶ļà·ĥà·ı à¶¯à·ļ
à¶¸à¶±à·Ķ à·Ĥà·Ĭ
Ġà¶¯à·Ĵ à·ĥà·Ĭà¶Ńà·Ĭ
à¶´à·Ĵà¶º à·Ļà¶ļà·Ĭ
à¶´à·ı à¶½à¶ļ
Ġà¶¸à·ı à¶ºà·ıà·Ģ
Ġà¶±à·Ķà¶¹ à¶§
\\ \\
c ard
Ġà¶ħ à·ĥà·Ĭà¶®
Ġà¶¸à·ĸ à¶½à·ı
Ġà¶¸à·Ķà·Ħà·Ķ à¶±
à·ĵ à¶§
à¶±à·ı à¶¸
an a
à¶ļà·Ģà¶¯ à¶¯
Ġà¶ĳ à¶Ĥà¶ľ
Ġà·Ħ à·Ĵà¶±à·Ĭ
Ġà¶¶ à¶½à·Ĭà¶½à·Ŀ
Ġà¶ĩ à¶Ńà·Ķà·Ģ
à¶Ĵà¶ļ à¶±à·ļ
Ġà¶łà·Ĵ à¶ļà·Ĵà¶Ńà·Ĭ
Ġà¶¯à·Ĳà¶ļ à·ĵà¶¸
Ġà·Ļ à·Ģà¶ºà·Ĵ
Ġà·Ħà·ľà¶º à¶½
à¶ķ à¶±à¶¸
à¶½à·Ļà¶ļà·Ĭ à·ĥà·Ĳà¶±à·Ĭ
à¶¸à·Ħà¶Ńà·Ĭà¶Ń à¶ºà·ı
à¶ľ à¶ºà·Ĵ
à¶ľ à¶»à·Ķ
à¶¯à·ĵ à¶¸à·Ĭ
Ġà·ĥà·Ħ à¶ºà¶ļà¶ºà·ı
er n
à¶´à·ĸ à¶¢
Ġà·Ģà·Ķà·Ģ à¶¸à¶±
à¶ħà¶· à·Ĭ
Ġà·ĥà·ĵ à¶±à·Ķà·Ģ
Ġà¶± à·Ĵà¶±à·Ĭ
Ġà¶¢à·ıà·Ģà·ıà¶» à¶¸à·Ĭ
à¶§à·Ŀ à¶¶à·Ŀ
à¶ļà·ľ à¶§à¶¸
à·Ħ à¶¸à·Ķà¶¯
à¶ľ à¶¸à¶±
à·Ħ à·Ļà¶±à·Ģà·ı
à¶¶ à¶¶à·ı
Ġà¶¸à·ı à·ĥà·ļ
Ġà¶´à·ı à¶»à·Ĵ
Ġà¶´à·ıà¶» à¶§à¶¸
Ġà¶´à¶¯à·Ĭà¶° à¶Ńà·Ĵà¶ºà¶ļà·Ĭ
Ġà¶ĳà¶łà·Ĭà¶łà¶» à¶¸
Ġà¶¢à·ı à¶Ńà·Ĭ
à¶¸à·ĸ à¶½
Ġà¶½à·Ŀà¶ļà·Ļ à¶¸
à¶¸à·Ħà¶Ńà·Ĭà·Ģ à¶»à·Ķà¶±à·Ĵ
Ġà¶´à¶»à·Ĭ à¶ºà¶±à·Ĭ
Ġà¶½à·Ķà·Ħà·Ķà¶¶ à¶³à·Ĵ
à·Ħà¶¸à·Ķà·Ģ à·ĵà¶¸
Ġà·Ģà·Ļà¶± à·Ķà·Ģ
Ġà·Ħà·Ĵà¶Ń à·Ļà¶±à·Ģ
Ġà¶ļà·ļ à¶±à·Ĭà¶Ńà·Ĵ
Ġà¶´à·Ĳà¶¸à·Ĵ à¶±
Ġà¶´à·Ļà¶±à·Ķ à¶¸à¶ļà·Ĭ
Ġà¶½à¶¶ à¶±à·Ģà·ı
Ġà·Ģà·Ĵà·ĥà¶±à·Ĭ à¶°à·Ĵ
Ġà·ĥà·Ĵ à¶©à·Ĭà¶±à·Ĵ
Ġw ant
Ġà¶ľà·Ŀ à·Ģà·ı
Ġà¶¸à¶Łà·Ķ à¶½à·ļ
' à¶»à·Ĭ
, à·Ħà¶»à·Ĵ
à·Ģà¶» à¶«à¶º
Ġà¶ĩà¶Ńà·Ķ à¶½à·Ļà¶±à·Ĭ
Ġà¶ĭà¶±à·ı à¶±à¶¸à·Ĭ
Ġà¶»à·Ĳà¶ļà·Ĵ à¶ºà·ı
Ġà·ĥà·ıà¶ļ à¶łà·Ĭà¶ł
à¶± à¶ľà¶»
Ġà¶ĩ à¶ľà·Ļ
Ġà¶Ĩ à·Ģà¶Ńà·Ĭ
à¶§à·Ĭ à¶±à·ĥà·Ĭ
à·ĵà¶¸ à·Ĳ
. à¶Ĵ
Ġà¶ĩà¶Ńà·Ĵ à¶±à·ļ
à¶ľà·Ĳ à¶½
Ġà¶¸à¶»à¶±à·Ĭà¶± à¶ºà·Ĵ
Ġà¶Ńà·Ĳà¶±à·Ĭ à¶´à¶Ńà·Ĭ
Ġà¶¯ à·ıà·Ģà·Ĵ
à¶ļà·Ļ à¶½à·Ĭà¶½à·Ļà¶ļà·Ĭ
Ġà¶ħà¶© à·Ĵà¶ºà¶ļà·Ĭ
Ġà·Ģ à·Ķà·Ģà¶Ńà·Ĭ
Ġà¶¢ à·ľà¶±à·Ĭ
Ġà¶ħà·Ģ à·Ģà·ıà¶¯
à¶ļà·ļ à¶Ń
âĢį à¶½à·Ķ
Ġà·ĥà¶¸ à¶»
Ġà¶¶ à¶±à·ļ
Ġà·ĥà·Ĵà¶Ńà·Ĵà¶º à¶¸
Ġà·Ģà·Ĵà·ĥà¶³ à¶±à·Ĭà¶±
à·Ģà·Ĵ à¶§à·Ĭà¶±à·Ĵ
Ġà¶´à·ľ à¶½
Ġà·Ħà·ı à·ĥà·Ĭ
Ġà¶¶à·Ĳà¶½à·Ķà·Ģ à¶¸
à¶½à¶ºà·ľ à¶»à·Ĭ
Ġà¶¸ à¶ļà¶»
Ġà¶ļà¶» à·Ħà¶±à·Ĭ
Ġà¶ºà¶±à·Ĭà¶± à¶¸
Ġà¶ĳ à¶¸à·Ĭ
Ġà·Ģà·ļ à¶½à·Ĭà¶½
Ġà¶ļà¶½à·ı à¶´
Ġà¶±à·Ĳà¶ľà·Ĵà¶§ à¶½à·ı
à·ĥà¶±à·Ĭ à¶§à·Ĭ
à·ĥà·Ħ à¶ľà¶Ń
Ġà¶´à·Ĳà¶§à·Ĵà¶º à·ľ
Ġà¶¶à¶¶ à·Ļà¶ļà·Ĭ
n er
à·Ħà·Ĵ à¶±
Ġà¶ĩà¶Ńà·Ĵ à¶¯
à¶±à·Ĭà·Ģ à¶½
à¶´à·ľ à¶ºà·Ĵ
Ġà¶´à·Ĳà¶¸à·Ĵà¶« à·ĵà¶¸
à¶¯ à¶±à·Ĭà¶±à·ļ
Ġà¶± à¶©à·Ķà·Ģà¶ļà·Ĭ
Ġà¶ħ à¶¸à¶±à·Ĭ
Ġà¶ĩ à¶»à·Ĵà¶º
Ġà¶¸à·Ĵ à¶½à·Ĵà¶º
à¶ļà¶º à¶±à·Ĭà¶§
Ġà¶¸à·Ĳà¶» à·Ļà¶±à·Ĭà¶±à·ļ
Ġà¶¸à·Ĳà¶»à·Ļà¶±à·Ĭà¶± à¶ºà·Ĵ
à¶»à¶±à·Ĭ à·ĥà·Ĭ
Ġà¶½à·Ŀà¶ļà¶º à¶¸
Ġà¶¸à·ıà¶½à·Ĵ à¶ľ
Ġà¶ºà¶±à·Ĭà¶Ń à¶¸à·Ĭ
Ġà¶Ĩà·ģà·Ĵà¶»à·Ĭ à·Ģà·ıà¶¯
9 9
à·Ķ à¶¸
Ġà¶ĳ à¶©à·ĵ
Ġà¶ĭ à¶©à·Ķ
Ġà¶¸à·ļ à¶»à·Ĵ
Ġà¶Ĩ à·ĥà·ı
à·Ħà·Ĵ à¶½
Ġà·Ħà¶¸à·Ĭà¶¶ à·Ģà·Ķà¶±à·ļ
Ġà¶ļà·Ĵà¶º à·Ģ
Ġà¶ĳà¶ļà¶´à·ıà¶» à¶§à¶¸
à¶» à¶½
Ġà¶Ń à¶§à·Ĭà¶§à·Ķà·Ģ
Ġà¶±à·Ĳ à¶±à·Ĭà¶¯
Ġà¶ļà·ĵ à¶»à·Ĭ
ĠT V
Ġà¶´à¶¯ à¶±à¶¸à·Ĭ
Ġà¶´à·Ĳà¶¸à·Ĵà¶« à·Ļà¶±à·Ĭà¶±
à¶ļ à·ħà·ı
à¶½à·Ĵ à¶§
Ġà¶ĭ à·Ĥà·Ĭà¶«
Ġà¶¸à·ľ à·ħà·ļ
Ġà¶īà¶© à¶¸à·Ĭ
ĠM ar
Ġà·Ģà·Ĵà¶¯à·Ĵà¶º à¶ļà¶§
Ġà¶»à·ĥà·ı à¶º
à¶°à·ıà¶» à·ĵ
à¶Ńà·Ĭà¶Ń à·Ĵà¶ºà¶ļà·Ĭ
Ġà·ĥà·Ĳ à¶ľ
Ġà¶Ķ à¶ļ
à·ĥà·Ķ à¶»à·Ĳ
à¶± à·ĸ
à¶³à·Ķ à¶¸à·Ĭ
à¶¶à¶½à¶±à·Ĭà¶± à¶ļà·Ŀ
à·Ģ à·ģ
Ġà¶¯ à¶©à¶ºà¶ļà·Ĭ
Ġà¶» à¶§à·ı
Ġà¶Ĩà¶»à¶ļà·Ĭà·Ĥ à·ıà·Ģà¶ļà·Ĭ
ĠS p
à¶Ķ à·Ħà·Ļ
Ġà·Ģà·Ĳà¶©à·Ĵ à¶¸
Ġà¶´à·Ħà¶» à¶ļà·Ĭ
4 8
Ġà¶¸ à·Ģà·ı
Ġà¶´à·ı à¶§à·Ĵà¶ºà¶ļà·Ĭ
Ġà·ĥà·Ĵà¶Ńà·Ķà·Ģà·Ĵ à¶½à·Ĵ
à¶¢ à¶±à¶ºà¶§
Ġà·Ħà·Ĳà¶» à·Ļà¶±à·Ģà·ı
à¶ĳ à·Ģà·Ĵà¶§
à¶¢ à¶¸à·Ĵà¶±à·Ĭ
à¶łà·Ĭà¶ł à·Ĵà¶º
à¶ľà·ı à¶¸à·ĵ
à¶»à·Ĳ à¶¯à·Ĭà¶¯à¶ļà·Ĭ
à¶´à·ıà¶» à·Ļà¶±à·Ĭ
à¶Ĵà·Ģ à¶ľà·Ŀà¶¸
Ġà·Ħà¶¯à·Ģ à¶Ńà·Ĵà¶±à·Ĭ
à·Ģ à¶ºà·ļ
à·ĥ à¶¸à·Ķ
à¶¯ à·Ķà·Ģà¶ļà·Ĭ
Ġà¶±à·ľ à·Ģà·Ĳ
Ġà¶Ĩà·Ģ à·Ħà¶¸
à¶ļà¶«à·Ĭ à¶©à·ıà¶º
à¶ļà¶» à¶ľà¶Ńà·Ĭà¶Ńà·ı
on t
à·ĥà·Ĵà¶º à·Ļà¶±à·Ĭà¶¸
Ġà¶¯à·Ķà·Ģ à¶±
Ġà¶±à¶ľà¶» à¶ºà·Ļà¶±à·Ĭ
Ġà¶ļà·Ģà¶¯ à·Ħà¶»à·Ĵ
Ġà¶ļ à¶±à·Ĭà¶±à·Ļ
Ġà·ĥà·Ĵ à¶§à·Ĵà¶ºà·ļ
à¶ķ à¶±à·ļ
Ġà·Ģà·ĵ à¶¯à·Ĵà¶º
ĠA r
Ġà¶Ńà·Ķà·Ģà·ı à¶½à¶ºà¶ļà·Ĭ
Ġà¶´à·Ķà·ħà·Ķà·Ģ à¶±à·Ĭà¶±à¶¸à·Ĭ
Ġà¶ħà¶§ à¶ļà·Ĭ
, "
à¶± à¶ľà·Ĵà¶±à·Ĭà¶±
Ġà¶ļ à·Ĳà¶±
Ġà¶Ĩ à·ĥà·ıà¶¯
à·Ħà·Ļ à¶½à·Ģà·Ļà¶±à·Ĭà¶±
Ġà¶ħà¶´à·ļ à¶ļà·Ĭà·Ĥ
Ġà·Ħà·Ķ à¶¯
Ġà¶±à·Ĵ à·Ħà¶©
Ġà¶½à·Ŀ à¶ļà·Ĭ
à¶´à¶»à·Ĵà·ĥà·Ĭà·ĥ à¶¸à·Ĭ
Ġà¶´à·Ĵà¶ºà·Ģà¶» à¶ļà·Ĭ
Ġà¶ĩ à¶©à·Ĭ
à·Ħà·ľà¶¯ à·Ĵà¶±à·Ĭ
à¶±à·Ķà¶¹ à·ļ
Ġht tp
à¶Ńà·Ĵ à·Ħà·ı
Ġà¶Ńà·ı à¶ļà·Ĭà·Ĥà¶«à·Ĵà¶ļ
Ġà·ħ à¶ľà¶§
Ġà¶ħà¶Ń à·Ħà¶»à·Ĵà¶±à·Ĭà¶±
Ġà¶¶à·Ĳà¶§ à¶»à·Ĵ
à¶±à·Ĭ à¶Ńà¶º
on es
à·Ģà·Ĵ à·ģà·ı
Ġà¶ļà·Ķ à¶ļà·Ķà¶½à·Ĭ
Ġà¶łà·ı à¶»à·Ĵà¶Ńà·Ĭ
Ġà¶»à·ĥ à¶ļà·Ĳà·Ģà·Ĵà¶½à·Ĵ
Ġà·Ħà·Ĳà¶Ł à·ĵà¶¸
Ġà·ĥà·Ĭà¶±à·ı à¶ºà·Ķ
à¶º à¶¸à·Ĵà¶±à·Ĭ
Ġà¶Ķ à¶±à·Ĵ
à¶±à·Ĵà¶º à·Ŀ
à·Ģà·Ļà¶± à¶Ńà·Ĭ
Ġà·Ģà·ĥ à¶Ĥà¶ľ
Ġà¶¯à·Ĵà¶±à·Ķ à·Ģà·ı
à¶´ à¶Ńà·Ĵà¶º
à¶¸à·ļ à¶½à·Ĭ
Ġà¶´à·Ķ à·ĥà·Ĭà¶Ń
Ġà¶¸à¶Ńà¶ļ à¶ºà¶ļà·Ĭ
à·ĥà·Ĭà·Ģ à·ĵà¶¸à¶ļà·Ĭ
Ġà¶Ńà¶»à¶¸à¶§ à¶¸
Ġà¶ĩà¶±à·Ĭà¶¢ à¶½à·ĵà·ĥà·Ĭ
Ġà¶ĩ à¶ļà·Ĭ
Ġà¶ļà·Ģà·Ķà¶»à·Ķ à¶±à·Ĭ
Ġà¶ĩà¶» à¶½à·Ģà¶±à·Ĭà¶±
Ġà¶īà·Ħ à¶½à·Ĵà¶±à·Ĭ
- m
à·ĥà·Ĵ à¶Ńà·Ĭ
à¶±à¶º à¶ļà¶§
Ġà¶¸à·ı à¶¸
Ġà¶´à¶»à·Ĵ à·ĥà¶»
à·Ģ à¶±à·Ĭà¶¯
à¶¯ à¶ļà·Ĭà·Ĥ
Ġà¶¸ à¶ļà¶±à·Ĭà¶±
Ġà·ĥ à·Ħà·Ĵà¶Ńà·Ģ
à¶Ńà·ıà·Ģ à¶ºà¶§
Ġà¶ľà·Ħ à¶ļà·Ĭ
à¶ļà·Ļ à¶½
Ġà¶± à¶Łà·Ĵ
Ġà¶Ĩ à¶ºà·Ķ
Ġà·Ģà·Ļ à¶½à·Ĭ
Ġà·ĥà·Ĭ à¶´à·ı
Ġà¶ºà·ı à¶±à¶ºà¶§
à¶» à¶ľà·Ļà¶±
à¶ļà·Ĭ à·Ģ
Ġà¶Ĩ à¶½à·Ŀà¶ļ
à¶¯à·Ĳà¶±à·Ĭ à¶¸à¶¸
Ġà¶´à¶¯à·Ĭà¶° à¶Ńà·Ĵà¶ºà·ļ
Ġà¶Ńà·Ķà¶±à·Ĭà¶¯ à·Ļà¶±à·ı
à·ľà¶ļà·Ĭ à·ĥà·Ĭ
Ġà¶¯à·ľ à·ĥà·Ĭ
Ġà¶Ĵà¶ļà·Ĵ à·Ģ
Ġà·ĥà·Ĵ à¶¸à·Ĭ
Ġà¶¸à·ľà¶© à·Ĵà¶ºà·Ķà¶½à¶º
Ġà¶ħà¶±à¶Ńà·Ķà¶» à¶ļ
à¶´à·ı à¶ļ
Ġà¶ļà·Ķà¶»à·Ķ à¶½à·Ĭà¶½à·Ļà¶ļà·Ĭ
Ġà·ĥà¶¸à·Ĭà¶· à¶±à·Ĭà¶¯
Ġà·Ħà·ľà¶ºà·ıà¶ľà¶Ńà·Ĭà¶Ń à·ľà¶Ńà·Ĭ
c am
Ġà¶± à¶¸à¶§
Ġà¶¸à·Ĵà¶±à·ĵà¶¸ à¶»à·Ķà·Ģà·Ļà¶ļà·Ĭ
Ġà¶ħà¶´à·ı à¶ºà¶§
Ġà·Ħà¶» à·ĥà·Ĭ
à¶ħ à¶Ńà·ı
à¶ķ à¶±à·Ļ
Ġk de
Ġà¶¯à·Ĵà¶º à¶«à·Ĵà¶º
Ġà¶¸à·ıà¶» à¶ºà·Ĵ
Ġà¶»à¶« à·ģà·ĸ
Ġ **
à¶Ńà·Ĭà¶Ń à·Ļ
Ġà·ĥà·Ĭ à·Ģà¶»
Ġà·Ģà·Ļà¶±à·ĥà·Ĭ à¶ļà¶¸à·Ĭ
Ġà¶¸à·Ħà¶±à·Ĭ à·ĥà·Ĵà¶ºà·Ĵ
Ġsy mbol
Ġ at
à·Ħ à¶¯à·Ĵ
Ġà¶ĩ à¶¯à·Ĭà¶¯
à¶±à·Ĵ à¶Ĩ
Ġà·Ĥ à¶»à·Ĭà¶§à·Ĭ
ĠB r
Ġà¶ļà¶±à·Ĭ à¶©à·ıà¶º
à¶´à·Ĳà·Ħà·Ĳà¶¯à·Ĵà¶½à·Ĵ à·Ģà¶¸
Ġà·Ģ à¶½à·ı
Ġà·Ģà·Ĵ à¶°à·ıà¶±
Ġà¶ħà¶Ńà¶» à¶§
Ġà¶ļà·ıà¶½à·Ļ à¶¸
Ġà¶¯à¶ļà·Ĭ à·Ģà¶±
Ġà¶´à¶»à¶¸à·Ĭà¶´ à¶»à·ıà·Ģ
Ġà¶¸ à¶ļ
Ġà¶º à¶§à·Ĵ
Ġà¶ļà¶»à¶±à·Ĭà¶± à¶§
à·Ĵà¶ºà·Ķ à¶«à·Ķ
Ġà¶ľà·Ĳà·Ħà·Ĳà¶± à·Ķ
à¶¢ à·Ĳ
Ġà·Ģà·Ķ à¶±à·Ļ
Ġà¶Ńà¶» à·Ķà·Ģà¶ļà·Ĭ
Ġà¶´à¶Ńà·Ĭ à·Ģà·Ļà¶½à·ı
à·ĥà·ľ à¶ºà¶±à·Ĭà¶±
Ġà¶¸à·ļ à·ĥ
à·Ĥ à¶»à·Ĭ
Ġà·Ģà·ĥ à¶»à·ļ
Ġà·ĥà·ľà¶ºà·ı à¶ľà¶±à·Ĭà¶±
ri g
A r
à·Ģà·ı à¶»à·Ĵ
Ġà¶Ńà·Ĵà¶¶ à·Ļà¶±à·Ĭà¶±à·ļ
Ġà¶ĩà·Ģà·Ĵ à¶¯à·Ĵà¶±à·Ģà·ı
Ġà¶½à·Ĳà¶¶à·Ķ à¶±à·Ļ
Ġà·Ģà·ļà¶¯à·Ĵ à¶ļà·ıà·Ģ
Ġà¶īà¶³ à¶±à·Ĭà¶¯
Ġà¶¯à·Ĵ à¶ľà·ı
Ġà¶½à¶¶ à¶±à·Ĭà¶±
à¶ļà·Ĭà¶ļ à·ıà¶±
Ġà¶Ĩà¶¯à¶» à¶ºà·Ļà¶±à·Ĭ
Ġà¶±à·ľà¶ļ à·Ĵà¶ºà·ı
à¶ħ à·Ģà·Ķà¶»à·Ķà¶¯à·Ĭà¶¯
Ġà¶ħà¶ºà·Ĵà¶Ńà·Ĵ à¶ļà·ıà¶»à¶ºà·ı
ero on
Ġ al
Ġà¶łà·Ĵ à¶´à·Ĭ
Ġà¶©à¶ºà·Ĵ à¶±
Ġ Z
Ġà¶ļ à·Ļà¶±à·Ĭ
Ġà¶ĩ à¶»à·Ĵà¶ºà·ı
Ġà·Ģà¶ł à¶±à·Ļ
à·ĥà¶¶à·Ļ à¶Ńà·Ĭ
à¶±à·Ĭ à¶Ńà·Ĵà¶º
à¶»à·Ĭ à¶¸à·Ĭ
à¶® à¶±
Ġà¶īà¶½à·Ĭà¶½ à·ĵà¶¸
Ġà¶¶à·Ļà¶¯à·ı à¶ľà¶±à·Ĭà¶±
à¶´à·Ĭà¶½ à¶ľà·Ĵà¶±
6 4
S L
Ġà¶´à·Ĵ à·ĥà·ıà¶ł
an i
es crip
Ġà¶ħà¶ļà¶¸à·Ĳ à¶Ńà·Ĵà¶ºà·Ĵ
Ġà¶¸à·Ļ à¶½à·Ŀ
Ġà·ĥà·Ĭ à¶¸à·Ĭà¶½à·Ĭà·Ģà·Ĵà¶½à·Ĭ
Ġà¶ļà·Ķ à¶½à·Ķ
Ġà¶ļà·ħà·ı à¶§
Ġà¶»à·ľ à¶¶à·Ĭ
à·ĥà·Ķà¶· à¶´à·Ĳà¶Ńà·Ķà¶¸à·Ĭ
ĠI t
Ġà·Ģà¶»à·Ĭà¶ľ à¶ºà·ļ
Ġà·ĥà·Ĵà¶± à¶¸à·ı
Ġà¶¸à·Ĵà¶±à·Ĵ à¶¸
à¶©à·Ĭ à·ĥà¶±à·Ĭ
Ġà·ĥà·ı à¶°à·ıà¶»
Ġà¶Ĩà¶»à¶¸à·Ĭà¶· à¶ºà¶ļà·Ĭ
Ġà·Ħ à·ĳà¶±à·Ĭà¶ļà·Ĭ
Ġà¶¯à·Ļà¶±à·Ĭà¶± à·Ģà¶¸
Ġà¶´à¶» à·Ļ
Ġà·Ģà·Ĵà·Ħà·Ĵ à¶½à·Ķà·Ģ
Ġà¶ħà¶º à¶ľà·Ļ
Ġà¶ļà·Ĳà¶¸à¶Ńà·Ĵ à¶±à¶¸à·Ĭ
à¶¯à·Ķà¶» à¶§
Ġà¶´à·Ĵà·ĥà·Ĭà·ĥ à·Ļà¶ļà·Ĭ
ob b
Ġà·ĥà·Ĵà¶»à·Ķ à¶»à·Ķ
Ġà·Ģà·Ļà¶» à·ħ
à·Ĩ à·Ĵà¶±à·Ĭ
Ġà·Ħà·Ķ à¶ľà·ıà¶ļà·Ĭ
Ġà¶¸à·Ĵ à·ĥà·Ĵà·ĥà·Ĭ
à·Ļ à·Ģà·Ĭ
Ġà¶ĭà·ĥà·Ĭà·ĥ à¶±à·Ĭ
à·ĵà¶¸ à·Ŀ
Ġà¶¶à¶½à¶±à·Ĭà¶± à¶¯
à¶¶à·Ĵ à¶§à·Ĭ
Ġà¶ļà¶» à·Ķà·Ģà·Ļà¶ļà·Ĭ
Ġà¶ĭà¶¯à·Ģà·Ĭ à·Ģà¶§
en p
Ġà¶ļà¶Ńà·ıà·Ģ à¶§
Ġà¶ļà¶½à·Ĵ à·ĥ
Ġà·ĥà·Ħà¶Ńà·Ĵ à¶ļà¶ºà·Ĵ
Ġdep art
à·Ļ à·Ģà·Ĭà·Ģà·ı
à¶ł à·Ĵà¶±à·Ĭ
à¶´à·Ķ à¶½à·Ķà·Ģà¶±à·Ĭ
à¶· à·Ĭ
Ġà¶Ńà¶»à¶¸à·Ĭ à¶¸
à·ĥà·ĵ à·ĥà¶»à·Ĭ
Ġà¶¸à¶»à·Ĭ à·Ĩà·Ĭ
" à¶Ķà·Ħà·Ķ
Ġà·ĥà·Ħ à¶¢
à¶±à·Ķà·Ģ à·Ŀ
à¶¯à·Ļà·Ģà·Ĵà¶º à¶±à·Ĭà¶ľà·ļ
Ġà·Ħà¶¯à·ı à¶ľà·Ļà¶±
Ġà¶łà·ŀà¶¯à·Ĭ à¶»à·Ĵ
Ġà¶»à·ıà¶¢à¶°à·ı à¶±à·Ĵà¶º
à·ĥ à¶³
à¶»à·Ĭ à¶ļà·Ĵ
à¶¢ à¶»à·ı
Ġà¶ĩà¶Ńà·Ĵ à·Ģ
Ġà¶ļà¶§ à·Ħà¶¬
Ġà¶¸à·Ŀ à¶¯à·ĵ
à¶Ńà·Ķà¶¸à·ı à¶±
Ġà·ĥà·Ĭà¶§ à·ļ
Ġà¶ĭà·ĥà·Ĭà·ĥ à¶½à·ı
Ġà¶ĳ à¶½à·Ĭà¶½à·Ĵà¶½à·ı
Ġà·Ģà·ĵ à¶¯à·Ķà¶»à·Ķà·Ģ
Ġà¶ļà·Ĵà¶º à·Ģà¶±
Ġà¶Ńà·Ĳà¶± à¶ļà·Ĵà¶±à·Ĭ
Ġà¶Ńà·Ķà¶±à·Ĭà¶¯ à·Ļà¶±à·Ļà¶ļà·Ĭ
Ġà¶ħà¶±à·Ĭà¶Ńà·Ĵà¶¸à·ļ à¶¯à·ĵ
Ġà¶¶à·ĳ à¶±à·ļ
Ġà¶´à·Ķà¶» à·ıà·Ģà¶§
Ġà·Ģà·Ĳà¶©à¶ļà¶» à¶±à·Ĭà¶±à·ļ
à¶±à·Ĭ à¶§à·Ĵ
à¶ļà·ľ à¶½à·Ĭà¶½à·ı
à·ĥà·ı à¶¸à·Ĭ
à¶ļà·Ļ à¶§à·Ĵ
Ġà¶¯à·ľà¶» à¶ļà·Ĭ
à¶´à·ıà¶½ à¶±à¶º
à¶¸à¶ł à¶Ĥ
g r
Ġà¶ħà·Ħ à¶Ĥà¶ļà·ıà¶»
Ġà·ĥà·ĵ à¶½à·Ĭ
Ġà¶¯à·Ķà¶ļ à¶ļà·Ĭ
à·ĥ à·Ļà¶±à·Ĭà¶±
ou th
Ġà·Ģà·Ķà¶«à·ı à¶§
Ġà¶»à·Ĳà·Ģ à¶§à·Ĵ
Ġà¶Ńà¶Ńà·Ĭà·Ģà·Ļ à¶§
Ġà¶½ à·Ģà·Ĭ
Ġà¶·à·ĸ à¶¸à·Ĵ
Ġà¶º à·ıà·Ģà¶Ńà·Ĭ
Ġà¶ħà¶±à·Ĵà·Ģà·ıà¶»à·Ĭ à¶ºà·Ļà¶±à·Ĭ
Ġà¶ħà·ĥ à¶½
Ġà¶Ńà·Ĵà¶¶ à·Ĵà¶º
Ġà¶ĳà·Ħà·Ļà¶¸ à¶Ńà·Ĭ
Ġà¶ĩà¶Ńà·Ĭà¶Ńà¶§à¶¸ à¶¯
à¶¸à·Ĳ à¶»à·Ļà¶±à·Ĭà¶±
Ġà·ĥà·Ŀ à¶´à·ı
à¶Ńà·Ĵ à¶»
à·ģ à·ļ
Ġà·Ģà·Ĵ à·Ģà·Ĵà¶°
Ġà¶±à·ĳ à¶±à·ı
à·ĺ à·ģà·Ĭ
Ġà¶¸à·Ķà·Ħà·Ķ à¶¯à¶§
Ġà¶ºà·ıà·ħà·Ķà·Ģ à¶±à·ļ
Ġà·ĥà·ıà¶ļà·Ĭà·Ĥ à·Ĵà¶º
Ġà¶¸à·ĸà¶« à¶§
Ġà·Ħà¶»à·Ĵà¶ľ à·ĥà·Ĭà·ĥ
Ġà¶ľà·ľà¶± à·Ķà·Ģà¶ļà·Ĭ
Ġà¶¯à·Ķà·Ĥà·Ĭ à¶ļà¶»
, à·Ħà¶»à·Ĵà¶¯
Ġ up
Ġà¶ľà·Ļ à·Ģà¶±
Ġp h
Ġà¶±à·Ĳà¶±à·Ĭ à¶¯à·ı
à¶¹ à·ı
à¶»à·ı à¶°à·Ĵà¶´à¶Ńà·Ĵ
Ġà¶´à·Ļ à¶¯à·Ļ
Ġà¶§à·ļ à¶´à·Ĭ
Ġà¶´à¶»à·Ĭà¶ºà·ļ à·Ĥà¶«
u e
Ġà¶¯à¶±à·Ĭà¶±à·Ģ à¶±à¶¸à·Ĭ
Ġà¶ħà¶±à·Ĭà¶Ńà·Ĵà¶¸à·ļ à¶¯à·Ĵ
Ġà¶»à·Ĳà·ĥà·Ĭ à·Ģà·ĵà¶¸
à¶±à·Ĳà¶Ńà·Ĭà¶Ń à¶Ĥ
Ġà¶ĭ à¶Ńà·Ķà¶¸à·Ĭ
Ġà¶Ńà·Ĵà¶º à¶±à·ļà¶±à·ļ
Ġà·Ħà·Ĳ à¶´à·Ĭà¶´à·Ķ
Ġà¶´à·Ĳ à¶¯
Ġà¶ļà·Ķ à¶¸à¶±à·Ĭà¶Ńà·Ĭ
Ġà¶´à·Ĳà¶§ à·Ģà·Ķà¶±à·Ĭ
à·ĥà·Ĭ à·Ģà·ı
Ġà¶¯à¶±à·Ĭà¶±à·Ģà·ı à¶±à·ļ
Ġà¶ł à·ĳà¶±à·Ĭà¶ľà·Ĭ
Ġà¶½à·Ĳà¶¶ à·Ļà¶±à·Ģ
Ġà¶¶à·ľ à¶¸à·Ĭà¶¶
Ġà¶ħà¶¸à·Ĭ à¶¸à¶Ńà·Ĭ
Ġà¶Ńà·Ĵà¶ºà·ı à¶ľà¶Ńà·Ĭà¶Ńà·ı
Ġà¶īà¶½à·Ĭà¶½ à¶±
Ġà¶Ńà¶Ńà·Ĭà·Ģ à¶ºà¶ļ
Ġà¶ħà¶½à·Ķ à¶Ńà·Ĭà¶¸
à¶¢à·Ļà¶± à¶»à¶½à·Ĭ
à¶»à·Ĵ à¶ļà·Ŀ
Ġà¶»à·ıà¶¢ à¶ļà·ıà¶»à·Ĵ
Ġà¶Ńà·Ĳ à¶´à·Ĳà¶½à·Ĭ
Ġà¶ļà·Ĳ à¶½à·Ĭ
Ġà¶´à¶§à¶±à·Ĭ à¶ľà¶Ńà·Ĭà¶Ńà·ı
Ġà¶Ńà¶´à·Ĭà¶´ à¶»
à¶± à·Ķà·Ģà¶±à·Ĭ
à¶¯à·ļ à·Ģà·Ĭ
ĠF rance
âĪŀ âĪŀ
â Ĺ
Ġà¶´à·ĥà·Ĭà·ĥà·Ļ à¶Ńà·Ĭ
à·Ļà¶± à·ĳ
à¶½à·ı à¶¸à·Ĭ
Ġà¶´à·Ķ à¶§
Ġà¶´à·Ķ à¶»à·Ģ
Ġà¶ľà·Ĵ à¶¸à·Ĭà·Ħà·ı
Ġà¶ħà·Ħ à¶±à·Ĭ
Ġà¶ħà·Ħ à¶¸à·Ĭà¶¶
Ġà¶ļà·ıà¶» à¶«
à¶īà¶³ à¶ľà¶±à·Ĭà¶±
Ġà¶ļ à¶´à·Ĵà¶Ńà·ıà¶±à·Ĭ
à·Ģà·ļ à¶¯à·Ĵ
Ġà¶¸à¶Łà·Ķ à¶½à¶ļà·Ĭ
Ġà¶´à¶»à·Ĵà¶ľà¶« à¶ļà¶º
Ġà¶ļà·ħà¶¸à¶«à·ı à¶ļà¶»à·Ķ
cam eroon
Ġdepart ments
Ġà¶ļà·Ķ à¶Ńà·Ķ
Ġà·Ģà·ĵ à¶»à¶º
Ġà¶´à¶»à·ĵà¶ļà·Ĭà·Ĥ à¶ļà¶ºà·Ļà¶ļà·Ĭ
à¶Ńà·Ķ à¶ļà¶ºà·ı
Ġà¶ľà·ľà¶© à¶±
Ġà¶ļà·ľà¶§ à·ĥà·ļ
à¶½à·Ķà·Ģ à·Ŀ
Ġà·ĥà·ĸ à¶¯à·ıà¶±à¶¸à·Ĵà¶±à·Ĭ
Ġà·ĥà·Ķà·Ģ à¶¯
Ġà¶ļà¶½à·Ĵ à·ĥà¶¸
Ġà¶ľà·Ĳà¶±à·Ĭ à·Ģà·ĵà¶¸à¶ļà·Ĭ
Ġà¶±à·Ĳà·Ģà·Ĳ à¶Ńà·Ĭà¶Ńà·Ķà·Ģà·ļ
Ġà·Ĥà·Ĵ à¶§à·Ĭ
. R
à¶© à·ĥà·Ĭ
à¶ľà·Ĭ à¶ľà¶½à·Ĭ
Ġà¶ºà·Ķ à¶±à·Ĵ
Ġà¶´à·Ĳà¶§à·Ĵà¶º à·Ļà¶ļà·Ĭ
à¶ħà·Ģà¶Ĥà¶ļ à·Ģà¶¸
escrip tion
? "
u d
à·Ļà¶± à¶§à·Ĭ
Ġà¶¸à·ļ à·Ģà¶ľà·ļ
à¶±à¶º à¶±à·Ĭ
à¶ºà·Ķ à¶¯à·Ĭà¶°
à¶±à·Ĭ à¶¯à·Ļ
à·Ĥ à¶º
Ġà¶±à·Ĵ à¶¸à·Ĳà·Ģà·Ķà¶¸à·Ĭ
Ġà¶½à·Ĵà¶º à¶ļà·Ĵà¶ºà·Ģà·Ĵà¶½à·Ĵ
à¶´à·Ħ à¶½à¶§
Ġà¶»à·Ĵà¶¯ à·Ģà¶±à·Ĭà¶±
Ġà¶ļà¶» à·Ļ
à¶ħ à¶½à·Ĭà¶½à·ı
Ġà¶¯à·Ķ à¶§à·Ķ
Ġà¶ļà¶§ à·Ħà¶©
Ġà¶¸à·Ļà¶ºà·ı à¶½
à¶´à·Ĵà¶»à·Ĵ à¶¸à·Ĵ
à¶¶à¶»à·Ĭ à¶§à·Ĭ
Ġà·Ģà¶§à·Ĵà¶±à·ı à¶ļà¶¸à¶ļà·Ĭ
à¶» à¶©à·ļ
Ġà¶´ à¶½à¶º
Ġà¶Ĩà¶¯à¶» à·Ģà¶±à·Ĭà¶Ń
Ġà¶Ńà·Ĳ à¶§à·Ĵà¶º
Ġà¶Ńà¶± à¶Ńà·Ķà¶»
Ġà·ĥà·Ķà·Ģà·Ĵ à·ģà·ļà·Ĥ
à¶ħ à¶ļà·Ķà¶»à·Ķ
à·Ħà·Ķ à·Ģà·ı
à¶´à·ľ à¶Ń
Ġà¶Ķ à¶§à·Ķ
à¶©à·Ĭ à¶¸à¶±à·Ĭ
Ġà·Ħà·Ĵà¶§ à·Ĵà¶ºà¶§
Ġà¶ħà¶© à·Ĵà¶º
à¶´à¶»à·Ĵ à·Ģà¶»à·Ĭ
Ġà¶Ńà·ļà¶»à·Ļà¶±à·Ĭà¶± à·ĳ
Ġà¶ĩ à¶±à·ĵ
Ġà·Ļà¶± à·Ģà·ļ
Ġà¶§ à·ĸ
à¶ļà·Ĭ à¶½à·ıà¶»à·Ĭà¶ļà·Ĭ
à¶¸à¶§ à¶ºà·Ĵ
à¶ĭ à¶Ńà·Ĭà¶Ńà¶»
à¶»à·ľ à¶¶à·Ĭ
Ġà·Ħà·Ĳà¶¯à·Ķà·Ģ à·ľà¶Ńà·Ĭ
Ġà·Ģ à¶»à·Ķ
à·Ļà¶±à·Ĵ à·Ĩà¶»à·Ĭ
Ġà·Ģà·Ĵà¶±à·Ĭ à¶©à·Ŀ
Ġop tion
Ġà¶¶ à·Ĳà¶±
à¶³à·Ķ à¶»à·Ķ
Ġà·Ģà·Ļà¶©à·Ĵ à¶Ńà·Ĵà¶º
Ġà¶´à·Ĵà¶»à·Ĵ à¶¸à·Ĵà¶ºà·Ļà¶ļà·Ĭ
Ġà·ĥà¶· à·Ĵà¶ļ
à¶¶ à¶±à·Ĭà¶°
Ġà¶īà¶³à¶±à·Ĭ à¶¸
à¶ħà·ħà·Ķ à¶Ńà·Ĭ
Ġà·Ħà·Ĳà¶ľ à·ĵà¶¸à¶ļà·Ĭ
Ġà¶½à·Ĳà¶¢à·Ĭà¶¢ à·ıà·Ģà¶ļà·Ĭ
O M
à¶« à·Ļà¶±à·Ĵ
à·Ĥ à·Ĵà¶Ń
Ġà¶´à·Ħ à¶ļà¶§
à¶ľ à¶ºà·ı
Ġà·Ħà¶¸à·Ĭà¶¶ à·Ģà·Ķà¶«à·ı
Ġà·ĥà·ĵ à¶ºà·ļ
Ġà¶¶à¶½à¶± à¶ļà·ľà¶§
Ġà¶½à·Ĵà¶ºà·Ķ à¶¸à¶ļà·Ĭ
Ġà¶´à·Ķà·Ģ à¶»à·Ķà·Ģ
Ġà¶ħà·Ģà¶¯à·ıà¶± à¶¸à¶ļà·Ĭ
Ġà¶§ à·ľà¶±à·Ĭ
Ġà¶ł à·Ĵà¶ļà·ıà¶ľà·Ŀ
Ġà·Ģà·Ĵà¶¯ à·ļà·ģ
Ġà·Ģà·ľ à¶½à·Ĭ
9 11
à·Ģ à¶»à·ı
Ġà¶Ĩ à·ĥà¶¸
à¶¢à·ľ à¶±à·ĵ
à¶īà¶½à¶ļà·Ĭà¶ļ à¶º
à¶½à·ı à¶½à·Ĭ
à¶±à·Ĵ à¶ļà·ĵ
Ġà¶´à·Ĵ à¶»à·Ķà¶«à·Ķ
Ġà¶ļà¶»à¶± à¶ļà¶¸à·Ĭ
à¶ľà·Ħ à¶ľà·Ļà¶±
Ġà·Ģà·Ĵà¶±à·Ŀà¶¯ à¶ºà¶ļà·Ĭ
Ġà¶ĩà¶Ł à·ļ
' m
Ġà¶º à¶®à·ı
Ġà¶¸à·Ĳà¶»à·Ķ à¶¸à·Ĭ
Ġà¶¸à·ľà·Ħà·ľà¶Ń à¶ļà¶§
2 8
Ġà·Ģà·Ĵ à¶ļà¶§
à·Ĥà·Ĭ à¶´
Ġà¶½à¶¸ à¶ºà·ı
à¶±à·Ĭà¶Ń à¶ºà·Ĵ
Ġà¶ľà·Ķ à¶§à·Ĵ
à¶´à·Ĳ à¶¸à·Ĵ
Ġà·ĥà·Ķ à¶»à·Ĵ
Ġà·Ģà·ļ à¶ľà·Ļà¶±
à¶´ à¶«à¶º
Ġà¶ĳà¶±à·Ĭà¶± à¶¸
Ġà¶ļà·Ĵ à·ĥà·Ĭ
à·Ħà·ľ à¶¯à¶»
Ġà¶Ńà·Ĵ à¶»à¶«à¶º
Ġà¶ĳà·Ħà·Ļà¶¸ à¶±à¶¸à·Ĭ
vi et
Ġà¶Ńà·Ĵà¶¶à·Ķà¶± à·ľà¶Ńà·Ĭ
Ġà¶¶à·Ķà¶¯à·Ĭà¶°à·Ĵ à¶¸
Ġà¶ļà·Ķà·ħà·Ķ à¶«
à¶¸ à¶Ł
à¶» à·Ķà·Ģà·ļ
Ġà¶±à·Ĵ à¶»
à¶Ŀ à·ı
Ġà¶¶ à·Ħà·ı
Ġà¶¸à·Ķ à¶Ńà·Ĭ
er r
à¶ľà·Ĳ à·Ħà·Ĳ
Ġ.. ...čĊ
à¶ļà¶»à·Ĭ à¶±à¶½à·Ĭ
Ġà¶»à·Ļ à¶©à·Ĵà¶±à·Ĭà¶§à¶±à·Ĭ
- à¶¸à¶Ĥ
Ġà¶Ķ à·Ļà·Ħ
à¶Ńà·Ĵ à¶¶à·Ķ
Ġà¶ļà·ľ à·ħà·Ķà·Ģ
à·Ĥ à¶½à·Ĭ
Ġà¶¸à·Ļ à¶Ńà·Ļà¶ļà·Ĭ
à¶ľà·Ķ à¶«à¶º
Ġà¶ĳà¶± à¶ļà¶½à·Ĭ
Ġà¶§à·Ļ à¶©à·Ĭ
à¶±à·Ĭ à¶ļà¶»à·Ĭ
Ġà¶ĩ à·ĥà·Ķ
Ġà¶ĩ à·Ħà·Ļà¶±à·Ĭà¶±
Ġà·Ģà·Ĳà¶© à¶ļà¶»à¶±à·Ģà·ı
Ġà¶ļà·Ĳ à¶½à·Ĵ
à¶©à·Ĵ à¶ļà·Ĭ
Ġà¶© à·ĸ
Ġà¶±à·ľà¶ļ à·ħ
Ġà¶½à·Ĵà¶ºà·Ķ à¶¸
Ġà¶Ĩ à¶Ń
Ġà·ĥà·ĵ à¶±à·Ĵ
ac h
Ġà¶± à·Ģà¶Ń
Ġà¶ľà·Ļ à·Ģà¶½à·ı
Ġà¶´à·ĥà·Ĭà·ĥ à¶±à·ļ
à¶»à·ļ à¶łà¶½à·Ĭ
à·ĥà·Ĵà¶º à·Ŀ
à·Ĭ à¶Ńà·Ĭ
Ġà¶ľ à·ĵ
à¶ļà·Ĵ à¶½à·Ĭ
Ġà¶½à·ľ à·Ģ
P S
d om
à¶½à·Ŀ à¶ľà¶±à·Ĭ
Ġà¶ºà·ıà¶½ à·Ķà·Ģà¶±à·Ĭ
Ġ à·Ļà¶±à·Ĭà¶¯
à·Ļ à¶¸à·Ķ
Ġ *
Ġà¶ļà¶»à¶±à·Ĭà¶± à·Ģà¶Ńà·Ĭ
Ġà·ĥà¶¸à·Ĭà¶´à·ĸà¶»à·Ĭà¶« à¶ºà·Ĵ
Ġà¶±à·Ĵà·Ģà·ĥ à·ļ
à¶ºà·Ļà¶ļà·Ĭ à¶¯
à¶½à·Ŀ à¶ļà·ļ
à¶ĭ à¶«à·Ķ
à·Ģà·Ĵà·ģà·ļà·Ĥ à¶ºà·Ļà¶±à·Ĭà¶¸
Ġà¶ľ à¶Ńà·Ĵà¶º
à¶½à¶§ à·Ļ
Ġà¶¯à·Ĳà¶± à¶ľà¶±à·Ĭà¶±à·ļ
Ġà·Ģà·Ĳ à¶º
Ġà¶¯à·ı à¶¸
Ġà¶Ńà¶» à¶ľà¶ºà¶ļà·Ĭ
Ġà¶ļà·Ĵ à¶§à·Ĭà¶§à·Ķ
Ġà¶§ à·Ĳà¶ļà·Ĭ
à¶¸à·Ļà¶Ńà¶± à¶§
Ġà¶¸à·ļ à¶¢à¶»à·Ĭ
Ġà¶¯à·Ļ à¶¯à·Ļà¶±à·ı
Ġà¶´à·Ĳ à¶¸à·Ĵà¶±à·Ĵ
Ġà¶¸à·ľà¶± à¶Ńà¶»à¶¸à·Ĭ
à¶´à·Ĳ à¶»
à·ģà·ĵ à¶½à·Ĵ
Ġà·ĥà·Ĳà¶´à¶ºà·Ķ à¶¸à·Ĭ
à·Ļ à¶º
à¶¯à·Ĵ à¶±à·Ģ
Ġà¶ļà¶½ à¶ļà·Ĵ
Ġà¶ħà¶ºà·Ĵ à¶Ńà·Ĵà¶ºà·Ĵ
à¶¸à¶§ à¶±à¶¸à·Ĭ
Ġà·Ħà·Ĳ à¶»à·Ĵà·ĥà·Ĭ
Ġà¶ħà·Ħ à·ĥà·ļ
Ġà¶´à·Ĵà¶½à·Ĵ à¶¶à¶¯
à·Ħà·Ĵ à¶¸
à¶ļà·Ķ à¶«à·ı
Ġà¶© à·ľà¶±à·Ĭ
Ġà¶ļà·Ļ à¶»à·Ķà·Ģ
Ġà¶ļà¶§ à·Ŀ
Ġà¶´à·Ļà¶±à·Ĭà¶± à·Ķà¶¸à·Ĭ
à¶»à·Ĵ à¶łà¶©à·Ĭ
Ġà¶±à·ľ à·Ģà·ĸ
Ġà¶ĭà·Ģà¶¸à¶± à·ıà·Ģà¶ļà·Ĭ
Ġà¶ľà·Ħ à¶±à·Ĭà¶±à·Ļ
Ġà¶ļà·ıà¶» à¶ºà·ľ
Ġà¶¸à·Ļà·Ħà·ļ à¶§
Ġà¶¸à·ıà¶ºà·ı à·Ģà¶ļà·Ĭ
Ġà¶ļà¶Ńà·ıà¶ļà¶» à¶½à·ı
Ġà¶ľà·ľà¶© à¶±à·Ĳ
Ġà·Ģà·Ĵà·ģà·ļà·Ĥ à·Ĵà¶Ń
Ġà¶·à·ıà·Ģà·Ĵ à¶Ńà¶º
% čĊ
Ġà¶ļà·ľ à¶½à·Ĭ
à¶»à·Ŀ à¶±à·Ĭ
Ġ ro
à¶¯ à·Ķà·Ģà¶§
Ġà¶ļ à·Ģà·Ĵ
à¶±à·Ĵ à¶¯à·ıà¶ľà¶±à·Ĭà¶±
Ġà¶° à·Ĭ
Ġà¶±à·Ĵà·Ģà·ı à¶©à·Ķà·Ģ
Ġà¶Ńà·ľà¶» à¶Ńà·Ķà¶»
Ġà¶Ńà·Ĵà¶¶à·Ķà¶± à¶Ńà·Ĭ
à¶ļà·Ĭà¶ļà·ıà¶± à¶¸
à¶¯ à¶ļà·Ķà¶«
Ġc he
ht tp
à·Ģà·Ĵà¶±à·Ŀ à¶¯
à¶¸à·Ķ à¶½
Ġà¶ľà·Ĳ à¶§à·Ķ
Ġà¶¯à·Ĳà¶ļà·Ĭà¶ļ à¶±à·ļ
Ġà¶½à·Ĳà¶¶à·Ķ à¶±à·ľà¶Ńà·Ĭ
Ġà¶ľà·Ĵà¶º à·Ħà¶¸
Ġd ist
Ġà¶ľà·Ļà¶±à·ı à¶´à·Ķ
Ġà¶¯à·Ļà¶¸à·Ģà·Ĭ à¶´à·Ĵà¶ºà·Ŀ
à¶ĭ à¶´à¶»à·Ĵ
Ġà¶ħà¶½à·Ĭà¶½ à¶±à·Ĭà¶±à·ļ
à¶¸à¶±à·Ĭ à·ĥà·Ĭ
à·ĥà·ļ à·Ģà·ı
à¶¶à·Ļ à¶½à·ı
Ġà¶¸à·Ĵà¶º à¶ľà·Ĵà¶º
Ġà¶¯à·Ħ à¶ºà¶ºà·Ĵ
Ġà¶ļà¶¸à·Ĭ à¶¸à·Ĳà¶½à·Ĵ
Ġà¶¯à·Ļà¶¸à·Ģà·Ĭ à¶´à·Ĵà¶ºà¶±à·Ĭ
= \\\\
Ġà¶ĳ à·ĥà·Ĭ
Ġà¶ĳ à¶¶
à¶ķ à¶±à·ĳ
Ġà¶ļà·ıà¶»à·Ĭ à¶Ńà·Ĵà¶ļà·Ĭ
Ġà¶¶à·ļ à¶»à·Ķà¶±à·ı
à¶ħà¶ºà·Ĵ à·ĥà·Ĭ
Ġà·ĥà·ĵà¶¸ à·ıà·Ģà¶ļà·Ĭ
à·Ħà·Ĵà¶§ à¶´à·Ķ
à¶½ à·ľà¶ļ
Ġà¶Ń à¶§à·ı
à¶ł à¶±à·Ĭà¶¯à·Ĭ
à¶Ńà¶» à¶¸à·ļ
à¶¯à·ļ à¶¯à·Ĵ
Ġà¶½à·Ļ à¶©à¶ļà·Ĭ
Ġà¶ħà¶±à·Ķà¶ļà¶¸à·Ĭ à¶´à·ı
Ġà¶´ à¶¸
Ġà·ĥ à¶¢à·ĵà·Ģà·ĵ
à·Ģà·Ķ à¶»à·ļ
à·Ħà·ľà¶³ à¶¸
Ġà¶Ńà·ļ à¶¸à·ıà·Ģ
à·Ħà¶±à·Ĭ à¶§à·Ĭ
Ġà¶´à·Ĵà¶§à·Ķ à¶´à·ĥà·Ĵà¶±à·Ĭ
Ġà·Ģà·Ĵà·ĥà·Ĭà·Ģà·ıà·ĥ à¶ºà·Ĵ
à·Ħ à¶¸à·Ĭà¶¶
à·Ģà·Ĵ à¶°à·ıà¶±à¶º
Ġà·ĥà·ĵ à·ĥà¶»à·Ĭ
à·Ĥà·Ĵà¶±à·Ĭ à¶§à¶±à·Ĭ
à¶´à·Ĭ à¶¸
on s
à¶¶à·Ļ à¶»à·ĵ
ll ye
How llye
âĢįà¶»à·ı à¶±à·Ĭà¶Ń
Ġà¶ľà¶±à·Ĭà¶± à¶Ńà·Ĭ
à·Ļ à·Ħà·Ĵ
à¶ĳ à¶±à·Ģ
à¶ļà·ı à¶ľà·Ļ
Ġà¶´à¶ºà·Ĵ à¶´à·Ĭà¶´
Ġà¶¸à·Ŀ à¶§à¶»à·Ĭ
à¶¯à·ļà·ģ à·ĵà¶º
Ġà¶´ à·ĳà¶±à·Ĭ
Ġà¶±à·Ĳà·Ģà¶Ńà·Ķ à¶±à·ı
Ġà·Ħà·Ĳà¶¸à¶¯à·ı à¶§à¶¸
Ġà¶ļà¶»à¶ľà¶±à·Ĭà¶± à¶¸à·Ĭ
Ġà¶ļà·Ĭà¶½à·Ļ à¶ºà·ıà¶»à·Ĭ
Ġà¶īà¶±à·Ĭà¶±à·Ģà·ı à¶¯
Ġà¶´à·Ĳà¶§à·Ĵà¶º à·ļ
Ġà¶ĩ à·Ģà·Ĳà·ĥà·Ĵ
Ġà¶ĭà¶¶ à¶½à·ı
ion s
à·Ļà·Ħà·ı à¶¯à¶ºà·Ĵ
Ġà¶´à¶»à¶¯à·Ĭà¶¯ à¶±à·Ĭà¶±
- type
Ġà¶¸à·Ĳà¶»à·Ķ à¶«à·ļ
Ġà¶ºà·ıà¶½à·Ķà·Ģ à¶±à·ļ
à·ģà·ı à¶´
à¶´à·Ķà·Ģ à·Ħà¶¸
à¶´à·ħ à·Ģà·Ļà¶±à·Ĵ
à·ĥ à·Ķà·Ģà¶§
Ġà·Ħà·Ĳ à¶»à·Ķà¶±à·ı
à¶ļà·ľ à¶ļà·Ĭ
à·ĥà·Ķ à¶¸à·ļ
Ġà¶¯à·Ĳà¶±à·Ķ à¶¸
Ġà¶īà¶½à¶ļà·Ĭà¶ļ à¶ºà¶ļà·Ĭ
Ġà¶ħà·Ģà¶Ĥà¶ļ à·Ģà¶¸
Ġà·Ħ à·ĥà·Ķà¶»
Ġà¶ħ à¶½à·Ĵ
à¶¯à·ĵ à¶¸à·ļ
ar n
Ġs o
Ġà¶īà¶½à·Ĭà¶½ à·Ķà·Ģà·ļ
Ġà¶»à¶§ à¶ļ
Ġà·Ģà¶»à·Ĭà¶ľ à¶ºà·ı
Ġà¶½à·Ĳà¶ºà·Ĵà·ĥà·Ĭà¶Ńà·Ķà·Ģ à·ļ
Ġà¶īà·Ģ à·ĥà·Ĵ
à¶Ķ à·ĥà·Ĭ
Ġà·Ħà·Ļ à¶½
Ġà¶ļà·ıà¶½à¶º à¶ļà¶§
Ġà¶ļà¶©à¶¯à·ı à·ĥà·Ĵ
à·Ļà¶±à·Ĭà¶± à·ı
à·Ħà·Ļ à¶½à·Ĭà¶½à·Ļà¶±à·Ĭà¶±
à¶ĭ à¶±à·Ĭà·Ģ
Ġà·Ģà·Ĵà¶¯à·Ĵ à·Ħà·Ļ
Ġà¶¯à¶±à·Ĭà¶±à·Ļ à¶Ńà·Ĭ
à¶ļà·ľà·Ħà·Ļ à¶Ńà·Ĭà¶¸
à¶ĩ à¶±à·Ĭà¶©à·²
à¶ļà·Ĵà¶º à·Ķ
Ġà¶¶à·ļà¶» à¶ľà¶Ńà·Ĭà¶Ń
Ġà¶´à·ľà¶½à·Ĵ à·ĥà·Ĵà¶ºà·Ļà¶±à·Ĭ
à¶´à·ľà¶»à·ľ à¶±à·Ĭà¶¯à·Ķ
Ġà¶Ńà¶Ńà·Ĭ à¶´
Ġà·Ħà¶¯à·Ģà¶Ń à¶ļà·Ĭ
Ġà¶»à·Ĳà¶ļà·Ĵ à¶ºà·ıà·Ģà¶ļà·Ĭ
3 2
7 5
à¶ºà¶§ à·Ģà¶Ńà·Ĭ
à¶ļà·ı à¶½à·Ļ
Ġà¶ļà¶§ à¶ºà·Ķ
Ġà¶¸à·ıà·ĥ à¶ºà¶ļà·Ĭ
Ġà¶¸à·Ĵ à¶½à¶§
à¶½à·ĵ à·ĥà·ı
Ġà¶±à·Ĳà¶ľà·Ĵ à¶§à·Ĵ
Ġà·Ħà·Ĭ à¶¸à·Ĭ
Ġà·Ģ à·Ĳà¶±
à¶ĳ à¶¸à·Ĭ
Ġà¶±à·Ĵà·ĥà·ı à¶¸
Ġà¶ħà·Ģà·Ķà¶»à·Ķà¶¯à·Ĭà¶¯ à¶ļà¶§
à·Ģà·Ĵ à¶»à·Ŀà¶°
à¶½à·Ĵà¶ļ à·ıà·Ģ
à¶¸à·Ķ à¶¯à·Ĭ
Ġà¶ºà·Ķ à¶Ńà·Ķà·Ģ
- à¶ħ
à·Ģ à¶´à¶±à·Ĭ
Ġà¶ĳ à·Ģà¶´à·Ķ
à¶±à·Ŀ à¶±à·ı
à¶ļà¶»à·Ķà·Ģ à·Ŀ
viet nam
à¶ħà¶´ à¶»à·ıà¶°
Ġà¶ľà·Ĵà¶ºà·ı à¶±à¶¸à·Ĭ
à¶´ à¶½à·ı
Ġà¶ħ à¶°à·Ĵà¶´à¶Ńà·Ĵ
Ġà¶¸à·ļ à·Ģà¶§
à¶Ńà¶± à·Ĵà¶ºà¶¸
à·Ļà¶ļà·Ķ à¶ľà·ļ
Ġà¶±à·ıà¶¸ à¶ºà·Ļà¶±à·Ĭ
Ġà¶ļà·ľà¶łà·Ĭà¶łà¶» à¶ļà·Ĭ
à¶ĳà·Ħà·Ļà¶¸ à¶±à¶¸à·Ĭ
Ġà¶ĩà·Ħà·Ķ à¶±à·Ĭ
Ġà·Ģà·Ĳà¶©à·Ĵà·Ħà·Ĵ à¶§à·Ĵà¶º
Ġà¶ļà·ľà¶ļ à·ı
" à¶Ĵ
à¶½ à¶ļà·Ĭà·Ĥ
à·Ļà¶± à·ıà¶¸
à¶±à·Ĵ à¶ļà¶Ĥ
à¶¸à·ı à¶°à·Ĭ
Ġà¶ļà¶»à¶±à·Ĭà¶±à·Ļ à¶Ńà·Ĭ
Ġà¶±à·ľà¶ļ à·Ĵ
ĠU n
Ġà¶łà·ı à¶½à·Ĭà·ĥà·Ĭ
enp ai
o od
âĢ Į
Ġà¶ĳà·Ħà·Ļ à¶¸à¶¸
à¶¢à·ı à¶Ńà¶ļ
Ġà¶¯à·Ķà¶»à¶ļ à¶Ńà¶±
Ġà¶Ĩà¶»à¶ļà·Ĭà·Ĥà¶ļ à¶ºà·Ĵà¶±à·Ĭ
ĠL ong
" ...
2 50
à¶» à·Ļà¶ļà·Ĭ
Ġà·Ģ à¶±à·Ģà·ı
Ġà·Ħ à¶ºà¶ļà¶§
âĢį à¶ĳ
à¶±à·Ĭà¶¯ à·ĳ
Ġà¶ħà¶Ńà·Ĭ à·Ħà¶¯à·ı
Ġà¶¶à·ı à¶½
Ġà¶ľà·Ļà¶±à·Ĵà¶º à¶±à·Ĭà¶±à·ļ
à¶īà¶ļà·Ĭà¶¸à¶± à·Ĵà¶±à·Ĭà¶¸
à¶´à¶» à¶ļà·Ĭà¶ļà·Ķ
Ġà·Ģà·ıà¶» à·ļ
à·Ķ à¶±à·ľà¶Ńà·Ĭ
âĢįà¶» à·ĥ
à¶Ķ à¶½à·Ĵà·Ģà¶»à·Ĭ
Ġà¶¸à·Ķ à¶½à·ı
Ġà·Ħà¶¯ à¶±à·Ģ
à¶ľà·Ķ à¶«à¶ºà¶ļà·Ĭ
à¶¯à¶±à·Ĭà¶±à·Ģ à¶±à·Ļ
. à¶ļà·ļ
Ġà¶ħà·Ħà¶±à·Ĭà¶± à¶¸à·Ĭ
ĠK onqueror
Ġà¶¯ à·ģ
Ġà¶ħà·Ģ à¶ļà·ıà·ģ
Ġà¶ļà¶´ à·ĸà¶»à·Ĭ
Ġà¶ĩà·Ħà·Ļà¶± à·Ģ
Ġà¶Ĭà·ħà¶Ł à¶§
âĢį à¶«
Ġà¶¸à¶» à¶±à·Ĭà¶±à·Ļ
Ġà¶¯à·ı à¶±à·Ģà¶¯
Ġà¶´à·Ħ à·ĥà·Ķà·Ģà·Ļà¶±à·Ĭ
Ġà·Ħà·ľ à¶½à·Ĭà¶½
Ġà·ĥà¶Ńà·Ĵà¶º à·Ļ
à¶ļà·Ļ à¶½à·Ĵà¶±à·Ĭà¶¸
Ġà¶ľà·Ĳà¶½ à·Ģà·Ļà¶±à·Ĭà¶±
à¶ħ à¶»à·Ķ
à¶» à·ľà¶©à·Ĭ
à¶¸à·ı à¶ľà·Ĭ
à¶´à·Ĭ à¶´à·ı
Ġà¶ł à·ľà¶ļà¶½à¶§à·Ĭ
à¶±à·Ģ à·ľ
Ġà¶¯à·Ĵà¶ľ à¶§
à¶ħà¶· à·Ĵ
isc her
à¶īà¶ļà·Ĭà¶¸à¶« à¶§
Ġà·Ħà·Ĳ à¶¸à·ļà¶¸
Ġà¶¯à·Ĳà¶±à·Ĭ à·Ģà¶Ńà·Ĭ
Ġà·Ģà·ı à·ĥà·Ĵà¶º
à·Ģà¶»à·Ĭ à¶Ńà¶¸à·ıà¶±
à¶ľà¶±à·Ĵ à¶¸à·Ķ
à¶¸ à¶»à¶±à·Ĭà¶±
à¶»à·Ĵ à¶ºà·ıà·Ģ
Ġà¶¸à·Ĳ à¶½à·ļ
Ġà·ĥà·Ĭ à¶ļà¶ºà·Ĵ
Ġà¶ºà·Ķà¶Ńà·Ķ à¶¯
Ġà·Ģà·Ĵà·ģà·ļà·Ĥ à¶ºà·Ĵ
à¶´à·ĥà·Ķ à¶ľà·Ĵà¶º
à¶Ĩà¶» à¶¸à·Ĭà¶·
Ġà·Ħà·Ķà·Ģ à¶¸à·ıà¶»à·Ķà·Ģ
Ġà¶¸à·Ļà¶ļà·Ĭà·ĥà·Ĵ à¶ļà·Ŀ
à¶½ à¶¸à¶ºà·Ĵ
Ġà¶ĳà¶ļ à¶ļà·ļ
à¶´à·Ķ à·Ħà·Ķ
Ġà¶ºà·ı à¶ľà¶±à·Ĭà¶±
à¶Ńà¶Ńà·Ĭ à¶´à¶»à¶ºà¶ļà·Ĭ
Ġà¶´ à¶¯à·Ĵà¶±à·Ĭà¶±
à·Ģà·Ĵ à¶¸à¶ļà·Ĭ
Ġà¶´à¶»à·Ĵ à·ģà·ĵà¶½à¶ļ
Ġà·Ģà·Ĳà¶»à¶¯à·Ĵ à¶½à·ı
à·ĥà·Ĭà¶®à·ı à¶´à¶±à¶º
à¶¯à·Ģà·ĥ à¶ļ
Ġà·ĥà·Ĭà·Ģà¶·à·ıà·Ģ à·Ĵà¶ļ
- à¶¸à·ľà¶ļà¶ļà·Ĭ
à¶§ à¶º
à¶ļà·Ķ à¶¸à·Ĭ
Ġà¶ļà·Ļ à·ĥà·ļ
à·ĥà¶¸ à·Ħà¶»à·Ķ
Ġà¶»à·Ŀ à¶ľà¶º
à·ģà·Ĵ à¶ļà·Ĭ
Ġà·ĥà¶´ à¶ºà¶±à·Ĭà¶±
Ġà¶ļà·ıà¶»à·Ĭà¶º à¶º
Ġà¶īà¶Ńà·Ĵà·Ħà·ıà·ĥ à¶ºà·ļ
Ġà·Ħà·ľà¶º à¶±à·Ģ
Ġà¶Ńà¶±à·Ĵ à·Ģà·Ļà¶½à·ı
Ġà¶ħà·Ģà·Ķà¶»à·Ķà¶¯à·Ĭà¶¯ à·Ļ
Ġà¶ħà·Ģà¶°à·ıà¶±à¶º à·Ļà¶±à·Ĭ
à¶īà·ĥà·Ĭà·ĥà¶» à·Ħà¶§
M y
Ġà¶¯ à¶»à·Ķ
Ġà¶ļà·ľ à¶´à·Ĵ
Ġà·Ģà·Ħ à¶ľà¶±à·Ĭà¶±à·Ģà·ı
Ġà¶Ńà·ľ à¶½à·Ĭ
à¶Ĵà¶ļ à¶¸
Ġà·Ĥ à·Ĳ
à·ĥà·Ĭ à¶ļà·Ģà·Ĭ
Ġà¶º à·Ģà¶±à·Ĭà¶±à·ļ
Ġà¶ļà·ĳ à¶ľà·Ĳ
Ġà¶»à·ĥà·Ĵ à¶ļà¶ºà·Ļà¶ļà·Ĭ
âĢįà¶» à¶ľ
à¶¶à¶½ à¶±à·Ģà·ı
à¶¯à·Ĵ à¶±à¶º
ĠC on
Ġà¶īà·Ģà¶Ń à¶§
Ġà¶ħà¶ºà·Ĵ à¶Ńà¶¸
à·ĥ à·ļà¶¯
Ġ en
Ġà¶Ńà·Ĵà¶¶à·Ķ à¶±à·Ķ
Ġà¶¢à·ĵà·Ģà¶Ńà·Ĭ à·Ģà·Ļà¶±à·Ĭà¶±
Ġà¶¯à·Ķ à¶±à·Ĭ
Ġà¶´à·ı à·Ģà·ı
Ġà¶¶à·Ĳà¶½à·Ķà·Ģ à¶¯
Ġà·Ģà·Ĵà¶±à·Ĵà·ģà·Ĭà¶ł à¶º
4 9
à·Ħ à¶»à·Ĭà¶½à·Ĵ
âĢį à¶»à·Ĭ
à·Ħà¶» à·ĵ
Ġà¶¯à·Ķà·Ģ à¶½à·ı
" à¶Ķà¶ºà·ı
- à¶¸à·ļà¶ļ
à·Ħ à·Ĵà¶ºà·Ķà¶ľà·Ŀ
à·Ķà·Ģ à¶¸
Ġà¶Ńà¶±à·Ĵ à¶ļà¶©
Ġà¶¸à·Ĳà¶¯à·Ĵ à¶»à·Ĵà¶º
Ġà¶½à¶ºà·Ĵ à·ĥà¶±à·Ĭ
Ġà·ĥ à·Ģà·Ķ
à¶±à¶¸à·Ĭ à¶¸à·ı
à·Ģà¶» à·Ĵà¶º
Ġà¶±à·ĵà¶Ńà·Ĵ à¶¥
Ġà¶ħà¶¸à·ıà¶» à·Ķà·Ģà¶ļà·Ĭ
Ġà¶»à·Ŀà¶ľ à·Ĵà¶ºà·Ļà¶ļà·Ĭ
Ġà¶ĳà·Ħ à¶¸à¶ºà·Ĵ
à¶´ à·Ģà¶Ńà·Ĵ
Ġà¶© à·ıà¶»à·Ĭ
à¶ļà¶½à·Ĭ à¶´à¶±à¶º
Ġà·ģà¶ļà·Ĭ à¶Ńà·Ĵ
Ġà¶´à·Ħà·ĥà·Ķ à¶ļà¶¸à·Ĭ
Ġà·ĥà¶¯à·ı à¶ļà·ıà¶½à·Ĵà¶ļ
Ġà¶ħà·ĥà¶½à·Ĭ à·Ģà·Ĳà·ĥà·Ĵà¶º
Ġà·Ģà·Ĵà·ĥà·Ĭà·ĥ à¶ļà·Ĭ
- à¶´à·Ĭ
Ġ :
Ġà¶Ĩ à¶·
Ġà·ģ à¶ºà·Ĵà¶©à·Ĭ
Ġà¶ħà¶© à¶Ĥà¶ľà·Ķ
à·ĥ à¶§à¶±à·Ĭ
Ġà¶º à¶ļà·Ĭà¶ļà·Ķ
Ġà¶Ĩ à¶¯à·ļà·ģ
Ġà¶Ĩ à¶°à·Ķ
Ġà·ĥà·Ĭ à¶¸à·ı
à¶¶à·Ĭ à¶¯à¶º
à¶½à·ĵ à¶º
Ġà¶´à¶§à¶±à·Ĭ à¶ľà¶¸à·Ķ
à·Ļà¶±à·Ĵ à·ĥà·Ĭ
Ġà·ĥà·Ķà¶¯à·Ķà·ĥà·Ķ à¶ºà·Ĵ
à¶Ń à·Ģà¶»à·Ĭ
Ġà¶ļà¶» à·Ĳ
à¶ĭ à¶Ńà·Ĭà¶Ń
it t
Ġà¶Ĭ à·ĥà·Ĭà¶§à¶»à·Ĭ
Ġà·ĥà·Ħà·Ŀà¶¯à¶» à¶º
à¶¸à·Ļà¶ºà·ı à¶ľà·ļ
à¶¢à¶± à¶ļà¶ºà·Ĵ
Ġà¶Ńà¶Ńà·Ĭ à·Ģà·ļ
à·Ģà·ı à·Ģà·Ĵ
à¶¸à·Ķ à¶±
Ġà·ĥà·ı à¶¢à¶±à·Ĭ
à¶»à·Ĭà¶® à¶º
Ġà¶ľà·Ĳà¶½à¶´ à·Ļà¶±à·Ĭà¶±à·ļ
Ġà·Ģà·Ļà·Ħà·Ļ à·ĥ
. à¶Ĵà¶ļ
Ġà¶´à·Ĵ à¶łà·Ĭà¶łà·Ĵ
à¶ħà·Ģ à·ģà·Ĭ
à¶½à·ıà·ĥà·Ĭ à¶§à·Ĵà¶ļà·Ĭ
Ġà¶»à·Ķà¶°à·Ĵ à¶»
à¶¯ à¶ļà·Ĵà¶±à·Ĭà¶±
Ġà¶»à·Ŀ à¶ļà·Ĭ
Ġà¶§à·Ĵ à¶ļà¶§
Ġà¶©à·Ĵà¶»à·Ļà¶ļà·Ĭà¶§ à¶»à·Ĵ
an n
Ġà¶Ńà·Ĵà¶¶à·Ĭà¶¶ à¶¯
à¶ħà¶¸à·Ĭ à¶¸à¶§
Ġà¶ħà¶±à·Ķ à¶¸à·Ĳ
Ġà·Ģà¶§ à·Ļà¶±à·Ĭ
Ġà¶ĭà·ĥà·ıà·Ģ à·Ĵà¶º
Ġà·Ħ à¶»à·ĵ
à·ĥà·Ĵ à¶»à·ıà·Ģà¶§à¶¸
rou p
Ġà¶¯à¶±à·Ĭà¶± à·Ĳ
Ġà¶ħà·Ģà¶¯à·ı à¶±à¶¸à·Ĭ
à¶¸à·ľà¶ļ à·ı
Ġà¶¸à·Ĵà¶±à·Ĵà·ĥà·Ĭà·ĥà·Ķ à¶±à·Ĭà¶ľà·Ļ
Ġà¶±à·ľà¶¸à·Ĳà¶Ńà·Ĵ à·Ģ
Ġà¶Ń à¶©à·Ĵ
Ġà¶Ĩ à¶ļà¶»à·Ĭà·ģ
Ġà¶ķà¶± à·Ļà¶±à¶¸à·Ĭ
à¶ļà·Ĵà¶±à·Ĭ à·ĥà·Ĭ
Ġà·ĥà¶Ĥ à·Ģà·ļà¶¯
Ġà¶¸à·Ĳà¶»à·Ķà·Ģ à·ľà¶Ńà·Ĭ
Ġà¶¯à·Ļà¶¸à·ı à¶´à·Ĵà¶ºà¶±à·Ĭ
Ġ à·´
à·Ĥ à¶»à·Ĭà¶½à·ľà¶ļà·Ĭ
Ġà¶Ńà·ı à¶ļà·Ĭà·Ĥ
Ġà¶ĭà¶¯à·Ģà·Ĭ à¶ļà¶»à¶±à·Ĭà¶±
Ġà¶ħà¶¸à·ı à¶Ńà·Ĭ
Ġà¶¯à¶¸ à¶±à·Ģà·ı
à¶¯à·Ģà·ĥ à¶ļà·Ĭ
Ġà¶§ à·Ģà·Ķ
Ġà·ĥà·Ĵ à¶½à·Ĭ
à¶Ńà·Ĭà·Ģ à·Ļà¶±à·Ģà·ı
Ġà¶Ĵà·Ģ à¶ľà·Ļà¶±à·Ĭ
Ġà¶»à·Ļ à·ĥà·Ĭ
Ġà¶´à¶¯à·Ĭà¶° à¶Ńà·Ĵà¶ºà¶§
à¶ħà¶± à·Ļà¶ļà·Ĭ
Ġà·ĥà·Ĭà¶§à·ĵ à·Ĩà¶±à·Ĭ
à¶±à·Ĵà¶¯ à·Ħà·ĥà·Ĭ
à¶ĭà¶´à¶»à·Ĵ à¶¸
Ġà¶īà¶±à·Ĭà¶± à·Ģà¶§
Ġà¶ºà¶±à·Ĭà¶± à¶Ńà·Ĭ
à¶ĩ à·Ģà·Ĵ
âĢįà¶º à·Ļà¶±à·Ĭ
à¶¯à¶±à·Ĭà¶± à·Ģà·ı
ĠCh arles
Ġà¶± à·ħ
Ġà¶¶ à¶§à¶»à·Ĭ
Ġà¶Ķ à¶ºà·Ĵà¶§
Ġà¶» à¶ļà·Ĵà¶±à·Ĭà¶±
Ġà¶¸à·Ļ à·Ģà¶½à¶¸à·Ĭ
Ġà¶ħà¶´ à·Ļ
Ġà¶¯à·Ĵ à·Ģà·Ĭà·Ģà·ı
à¶· à·ıà¶»
Ġà¶ļà·Ļà¶½à·Ĭà¶½ à¶±à·ļ
Ġà·Ģà·Ħ à¶±à·Ģ
Ġà¶° à¶»à·Ĭà¶¸
Qu ery
Ġà·Ħà·Ĵà¶»à·Ĵ à·Ħà·Ĳà¶»
- à¶Ĩ
Ġà·Ģà·Ĵ à·Ħà·Ĵà¶±à·Ĭ
Ġà¶´à·Ķà·ħ à·Ķ
Ġà·Ģà·ı à¶ļà·Ĭ
Âł à¶¸à¶§
Ġà·ĥà·Ļ à·Ģà¶±à·Ĳ
à¶¶à·Ħ à¶½à·Ķà¶¸
r a
à¶ħ à¶½à·Ķ
à¶¯à·Ĵ à¶½
à¶¶à·ı à¶ľ
à·ĥà·ļ à¶»à·Ķ
à¶¸à·Ĵà¶±à·Ĵ à·Ħà·Ŀ
à¶¶à·Ĳ à¶§
Ġà¶īà¶ļà·Ĭà¶¸à¶« à·Ĵà¶±à·Ĭ
Ġà¶¶à¶¶ à·ıà·Ģ
Ġà¶¸à·Ķ à¶ľà·ļ
Ġà¶¸à·Ĳà¶» à·Ļà¶±à·Ģ
Ġà·Ģà·Ļà¶½à·ıà·Ģ à¶ºà·Ĵ
âĢį à¶Ĵ
à¶¸à·ı à¶±à¶ºà¶ļà·Ĭ
Ġà¶ļà·Ĭ à·Ģà·ĵà¶±à·Ĭ
à¶¯à·ļ à·Ģà·ı
à¶»à·ıà·Ģ à·ĺ
Ġà·Ģà·Ĳà¶§à·Ĵ à¶½
à¶¯à·Ĵ à¶Ń
Ġà¶¯à·Ļà¶± à·Ķ
Ġà¶§à·Ŀ à¶±à·Ĵ
Ġà¶¢à·Ķ à¶½à·Ĵà¶ºà¶§à·Ĭ
Ġà¶´à·ľà¶© à·Ĵà¶ºà·Ĵ
, à¶Ķà¶ºà·ıà¶ľà·ļ
Ġà¶Ķ à·ĥà·Ĭ
Ġà¶±à·Ĳ à·Ģà¶§
Ġà¶©à·ļ à·Ģà·Ĭ
à·Ģ à¶¸à·Ĵà¶±à·Ĭ
à¶©à·Ĵà¶º à¶±à·Ĭ
Ġà¶Ńà·ĵ à¶±à·Ĭà¶Ń
Ġà¶ħà¶´ à·Ħà·ıà·ĥ
Ġà¶ļ à¶´à·Ĵà¶Ńà¶±à·Ĭ
Ġà¶ļà¶» à·Ķà·Ģ
Ġà¶ļà¶© à·ıà·Ģ
Ġà¶¯à·Ļà¶¸à·ı à¶´à·Ĵà¶º
à¶¸à¶§ à·Ģà¶Ńà·Ĭ
à·Ļà¶ļà·Ķ à¶ºà·Ĵ
Ġà·Ģà·ı à¶±
le ct
Ġà¶¶à·ļ à¶Ńà·Ĭ
à¶§à·Ĭà¶§à·Ķ à·Ģà·ı
à¶»à·ľ à·Ģà·Ĭ
Ġà·ĥà¶¸à·ıà¶ľ à¶¸à¶ļà·Ĭ
Ġà¶īà¶ľà·Ĳà¶±à·Ĭà¶± à·Ķà·Ģà·ı
@ }
à·Ħ à¶¸à·Ķà¶¯à·ı
Ġà¶± à¶Ł
à·Ħà·Ķ à¶ľà¶ļà·Ĭ
à¶¸à·Ĭà¶¶ à·Ŀ
à¶½à·ĵ à¶¸à·Ĭ
Ġ{ @}
Ġà¶´ à¶§à·Ŀ
à¶ļà·Ķ à¶ľà·ļ
Ġà¶±à·Ļ à¶¸à¶ºà·Ĵ
à¶½à·Ĵà¶±à·Ĭ à¶©à·ı
à·ĥà·ļ à¶¢à·Ĭ
à¶¢à·Ĭ à¶¢à·Ķ
Ġà¶ļà·Ķà¶»à·Ķ à¶¸à·Ĵ
à¶¯à·Ĳà¶ļà·Ĭà¶ļ à¶±à·ļ
Ġà¶ĭ à¶¶à¶½
à¶½à·Ĭà¶½ à·Ļ
Ġà¶ħà·Ħ à¶´à¶±à·Ĭ
Ġà¶±à·ľ à¶±à·Ĳ
Ġà¶´à·Ĳà¶Ńà·Ĭà¶Ń à¶ļà·Ĭ
Ġà¶ļà·ĳà¶¸ à¶ļà¶§
Ġà¶´à·ĥà·Ķ à¶¸à·Ĭà¶¶à·Ĵà¶º
à¶Ķà·Ħà·ļ à¶ľà·ļ
Ġà¶ļà·Ĳà·ĥà·Ĵ à¶±à·Ŀ
Ġà·ĥà·Ľ à¶½
, à¶¯à·Ĳà¶±à·Ĭ
Ġà¶¶ à·ĺ
à¶±à·Ĵ à¶¸
Ġà¶±à·Ĵ à·Ģà·ļà¶¯
Ġà¶¯à·Ĵ à¶½à·Ĭà¶½
à¶ºà·Ĵà¶±à·Ĭ à·ĥà·Ĭ
Ġà¶´à¶±à·Ĵ à·Ģà·Ĵ
Ġà·ĥà·Ĭà·Ģà·ı à¶¸à·Ĵà¶ºà·ı
os e
Ġà¶ºà·Ŀà¶¢ à¶±à·ıà·Ģ
Ġà¶Ĩ à¶Łà¶±à·Ĭ
Ġà¶ĩà¶» à¶¹
Ġà·Ĥ à·Ŀà¶±à·Ĭ
Ġà·Ļà¶± à¶¸à¶ºà·Ĵ
Ġà¶ĭà¶Ńà·Ķà¶» à¶§
Ġà·Ģ à·ĳ
Ġà¶ķà¶±à·Ļ à¶½à·Ķ
à¶½à¶±à·Ĭ à¶Ńà¶º
à¶´à·ĵ à¶§à·Ĭ
ĠR ussia
Ġà¶±à·Ĵà¶ºà·Ŀ à¶ľà¶ºà¶ļà·Ĭ
Ġà·Ģà·Ĵà¶½à·ı à·ĥà·Ĵ
ĠSh ort
âĢį à¶Ńà·ı
Ġà·Ģà·Ļà¶± à¶ļà¶Ĥ
Ġà¶ľà·Ĳ à·ĥà·Ĭà·ĥ
Ġà¶ħà¶±à¶Ńà·Ķà¶» à¶ļà·Ĵà¶±à·Ĭ
Ġà·Ħà·Ĵà¶Ńà·Ķà·Ģ à·ľà¶Ńà·Ĭ
Ġà¶ĳ à¶Ń
Ġà¶» à·ĥà¶ºà·Ĵ
à¶ĳà¶ºà·ı à¶ľà·Ļà¶±à·Ĭ
Ġà¶ľà·Ļà¶¯à¶» à¶ļà·Ĭ
Ġà·Ģà¶±à·Ļ à·ĥà·Ĭ
Ġà¶»à·Ĳà¶ļ à¶ľà¶±à·Ĭà¶±
à·ĥà·Ĵà¶»à·Ķ à¶»
à¶Ĥ à·ĥ
à¶ļà¶» à¶±à·Ĭ
à·ĥà·Ķ à¶¸à¶§
Ġà¶ļà·Ļà¶½à·Ĭà¶½ à·Ļ
Ġà¶ļà·ıà¶½ à¶ļà¶±à·Ĭà¶±
eb ec
Ġà¶±à·ľà¶ļà¶» à¶±à·Ĭà¶±
à¶Ńà·Ķà¶» à¶ļà·Ĵà¶±à·Ĭ
Ġà¶¸à·Ļà·Ħà·Ļ à¶¯à·Ĵ
à¶¸à·Ĵà¶±à·Ĵ à·ĥà·ı
Ġà¶´à·ĸ à¶»à·Ĭ
Ġà¶ļà·ħà¶¸à¶±à·ı à¶ļà¶»à·Ķ
4 7
Ġà¶Ĩà¶»à¶ļà·Ĭà·ģ à·Ĵà¶Ń
à¶» à·Ķà·Ģà¶±à·Ĭ
Ġà¶´à¶»à·ĵ à¶ļà·Ĭ
Ġà¶¸ à¶»à·Ķà·Ģà·ı
Ġà¶ī à¶±à·Ĭà¶§
Ġà¶Ķà¶º à¶ľà·ľà¶½à·Ĭà¶½à·Ŀ
Ġà¶ħà¶±à¶Ńà·Ķà¶» à¶§
Ġà¶ĩà·Ħà·Ĳ à¶ļà·Ĭ
Ġà¶¸à¶Ńà·Ĭ à¶´à·Ĳà¶±à·Ĭ
à¶´à·ĸ à¶»à·Ĭ
Ġà¶±à·Ĵà¶½à¶°à·ıà¶» à·ĵà¶±à·Ĭ
à¶ħà¶± à¶Ńà·Ķà¶»à·Ķ
à¶»à·Ĵ à¶¯
Ġà¶ĳà¶ļ à¶±à¶¸à·Ĭ
Ġà¶ļà·ľ à¶´à¶¸à¶«
Ġà¶¸à·Ķ à¶¸à·Ĭà¶¶à·ıà¶ºà·Ĵ
Ġà·Ģà·ĵ à¶»à·Ĭ
à¶½à·ĳ à·ĥà·Ĭà¶Ńà·Ĵ
Ġà¶´à·ıà¶´à·ľà¶łà·Ĭà¶łà·ıà¶» à¶«à¶º
à¶¸ à·Ļà¶±
à¶±à·ı à¶©à·Ĵ
Ġà¶īà¶½à·Ĭà¶½ à¶´à·Ķ
à¶»à·Ĭà¶ľ à¶»à·Ĭ
Ġà·Ģà·Ĵà¶±à·Ŀ à¶¯à·ı
Ġà¶¸à·Ĵà¶±à·ĵà¶¸ à¶»à·Ķà·Ģ
Ġà¶ĭà¶´à¶±à·Ĭ à¶¯à·Ĵà¶±
o st
à·Ģà·Ĭ à·Ģà¶§
Ġà¶±à·Ĵ à¶¸à·Ĭ
à¶±à·Ĵà¶º à·ĥà·Ĭ
Ġà¶´à¶»à·Ĵ à¶Ŀ
à¶°à·ıà¶» à·ĵà¶±à·Ĭ
Ġon e
Ġà¶´à·ĺ à¶Ńà·Ķà·Ģ
à·Ģ à¶§à¶»à·Ĭ
Ġà¶Ńà·Ĵà¶º à¶´à·Ķ
Ġà¶´à·ı à¶±à·Ĭ
Ġà¶´à·Ĵà¶§ à¶´à¶Ń
Ġà¶Ĩà¶»à¶ļà·Ĭà·ģ à·ıà·Ģ
à¶ļà·ı à¶½à·Ĭ
Ġà·ĥà¶Ĥ à¶¯à¶»à·Ĭà·ģ
Ġà¶¢à·ı à¶Ńà·Ĵà¶ºà¶ļà·Ĭ
Ġà¶Ńà·Ĳà¶±à·Ĭ à·Ģà¶½
Ġà¶´à¶± à¶´à·Ĵà¶§à·Ĵà¶±à·Ĭ
Ġà·Ħ à¶±à·Ĭ
Ġà¶ľ à·ĥà·Ĭà·ĥ
à·ħ à¶Ĥ
Ġà·Ģà·Ĵ à¶©à·Ĭ
Ġà¶¸à·Ĵ à¶½à·Ĵ
Ġà¶´à·Ĵ à·ĥà·Ĭà¶Ńà·Ŀ
Ġà·ĥà¶Ĥ à·Ģà·ļà¶¯à·ĵ
Ġà¶½à·ļ à¶ļà¶¸à·Ĭ
Ġà¶ļà·ıà¶§à·Ģà¶Ńà·Ĭ à¶¸
Ġà·ĥà¶½à¶ļ à¶±à·Ĭà¶±à·ļ
à·Ģ à·Ĵà¶ºà¶§
à¶ħ à¶ºà·Ĵà¶º
à·Ģà·Ĵ à·Ģà·ļ
Ġà¶¶à¶© à·Ķà·Ģà¶ļà·Ĭ
Ġà¶ľà·Ļà·Ģà¶±à·Ĭà¶± à¶¸à·Ĭ
Ġà¶¸à·Ĵà¶±à·ĵà¶¸à·Ĳ à¶»à·Ķà¶¸
Ġà¶Ńà·ļà¶»à·Ļà¶±à·Ģ à¶±à·ļ
à¶ļà¶»à·Ķà¶±à·ı à¶ļà¶»à¶½à·ı
à·ĥà·Ĭ à¶¸à·Ĵà¶±à·Ĭ
à¶Ńà¶¸à·Ķà·ĥà·Ļ à¶ľà·Ļ
à¶½à·ĳ à·ĥà·Ĭà¶Ńà·Ĵà¶¯
Ġà·ĥà·Ļà¶±à·Ĭ à¶§à¶»à·Ĭ
Ġà¶ļà¶½à·Ĭ à¶´
Ġà¶± à¶Ĥà¶ľ
à·Ģà·ĵ à¶©à·Ĵ
Ġà·Ģà·Ľ à¶¯à¶º
à·Ħà·Ĳà¶± à·ı
Ġà¶ļà·Ļ à¶»à·Ļà·Ħà·Ĵ
Ġà¶¸à·Ķà·ħà·Ķ à¶¸à¶±à·Ĵà¶±à·Ĭà¶¸
ĠT he
Ġà¶´à¶½à·Ĭà¶½ à·Ļà·Ħà·ı
à·ľ à·ĥà·Ĭ
à¶ļà·Ŀ à¶§à·Ĭ
Ġà¶´à·ľà¶©à·Ĭà¶© à·Ļà¶±à·Ĭ
rain e
Ġ ed
Ġà·Ħ à¶¯à·Ķà¶±
Ġà¶ļà¶½ à·Ļà¶ļà·Ĭà¶§à¶»à·Ĭ
à·Ħà·Ĳà¶¸à¶¯ à·ı
Ġà·Ģà·Ĵ à¶°à·ı
Ġà¶¢à·ĵ à¶±à·Ĭ
Ġà¶ħà¶Ńà·Ĭ à¶´à¶Ńà·Ĭ
Ġà¶ļà·ĵ à¶ºà¶§à¶¯
à¶¯à·Ļà·Ģà·Ĵà¶º à·Ŀ
Ġà¶ļà·Ĵà¶ºà¶´à·Ķ à·Ģà·ı
Ġà¶¸à·Ĳà¶»à·Ĵ à¶½à¶¯
Ġà¶¯à·Ļà¶±à·Ĭà¶± à¶ļà·ļ
à·Ĩ à·ľ
Ġà¶±à·Ŀ à·Ģà·ı
Ġà·ĥà·Ķà¶¯à·Ķà·ĥà·Ķ à¶ļà¶¸à·Ĭ
Ġà·ĥà·Ħà¶ľà¶Ń à¶ºà·Ĵ
, ?čĊ
d ay
p u
à·Ģ à·ħ
Ġà¶ľà·Ħ à¶±à·Ģ
Ġà¶¯à·Ļà¶± à¶ļà·ļ
al y
Ġà·Ģà·Ķà¶«à·ı à¶¯
Ġà¶¶à·Ŀà¶¸à·Ĭà¶¶ à·Ļ
Ġà·ĥà·Ĭà¶®à·ıà¶± à¶ľà¶Ń
Ġà·ģ à·Ķà¶»
Ġà¶ħà¶Ń à·Ĳ
Ġà¶ĳà·ħ à·Ģà¶±à·Ĭà¶±
Ġà¶´à¶Ńà·Ĭà¶Ń à¶»à·ļ
Ġà¶ĭ à¶»à·Ķ
Ġà¶´à·Ĭ à¶½à·Ļà¶±à·Ĭ
à¶¯à¶» à·Ģà·Ĭ
Ġà¶¸à·Ĳ à¶©
à·Ģà·Ĵà¶º à·Ļà¶ļà·Ĭ
à¶ºà·Ķ à¶¸à·Ĭ
Ġà¶ħà¶Ń à·Ħà¶»à·Ĵ
Ġà¶±à·ı à¶¸à·Ļà¶§
à·ĥà·Ĭà¶§ à¶½à·Ĭ
Ġà¶Ńà·ĵ à¶»à·Ķà·Ģ
à¶±à¶ºà·Ĵ à¶§à·Ĭ
à¶łà·ı à¶½à·Ĵ
Ġà¶łà·Ķ à¶§à·Ĭà¶§à¶ļà·Ĭ
à·Ķ à¶«
à¶½à·Ķ à¶Ńà·Ĵà¶±à¶±à·Ĭ
Ġà¶ļà·ľà¶§ à·Ķà·Ģ
Ġà·Ħà·Ŀ à¶©à·Ķà·Ģà·ı
Ġà¶ļà¶´ à¶½
ot e
Ġ ev
Ġà¶ĳ à·Ħà·Ļà¶±à·Ĭ
âĢį à¶¸à·Ķ
Ġà¶» à·Ģà·Ķà¶¸à¶ļà·Ĭ
à·ĥà·Ķ à¶´à·Ĵà¶»à·Ĵ
Ġà·Ģà·ı à¶ľà·ļ
ĠK orea
Ġà¶¯à·Ļà¶±à·Ļà¶ļà·Ĭ à·Ģ
th i
Ġà·Ħà¶¸à·Ĭà¶¶à·Ķ à¶«à·ı
Ġà¶ħà·Ģà¶°à·ıà¶± à¶¸à¶ļà·Ĭ
Ġà·ĥà·Ħà¶·à·ı à¶ľà·ĵ
à·Ģà·ıà·Ħ à¶±
ad d
Ġà¶¢à¶± à¶´à¶¯à¶º
Ġà¶ĳà¶ļà¶Ł à¶ºà·Ĵ
âĢįà¶ºà·ıà·Ģ à·ģà·Ĭ
Ġà¶¸à·Ĵà¶±à·Ĵà·ĥà·Ķ à¶±à·Ĭà·Ģ
à¶» à¶¸à·Ŀà¶±à·ı
à¶½ à¶¸à·Ĭ
à¶ļà·ı à¶½à·Ĵ
à·Ħà·ľà¶¯ à¶¸
Ġà·Ģà¶º à·ĥà·ļ
Ġà·ĥà¶§ à·Ħà¶±à¶ļà·Ĭ
à¶±à·Ĵà¶º à¶±à·Ĭ
Ġà¶´à·Ĵà¶ºà·ıà¶¹ à¶±à·Ĭà¶±
Ġà¶±à·Ĵ à¶Ĩ
Ġà¶©à·Ĵ à·Ģà·ĵà¶©à·Ĵ
Ġà¶ľà¶¸à·Ĭ à¶¸à·Ķ
Ġà·ĥà¶¸à·ĸ à·Ħ
ri k
u gin
Ġà·ĥà¶½ à¶ļà·Ķà¶«
à¶» à·ıà·Ģà¶§
Ġà¶ĩà¶³ à·ļ
o x
Ġà¶´ à¶§à·Ĵà¶º
à·ĥà·Ļ à¶½à·Ĭà¶½à¶¸à·Ĭ
Ġ.. ....
Ġà·ĥà·Ĳà¶±à·Ĭ à¶©à·Ĭ
Ġà·Ħà·Ĵà¶Ńà¶±à·Ģà·ı à¶¯
Ġà·ĥà·Ĵà¶¯à·Ķà·Ģ à·Ļà¶±à·Ģà·ı
Ġà¶¯ à·ĸà¶Ń
Ġà·Ģà·Ĵ à¶³à·Ĵ
à¶¢à¶± à·ıà·Ģà¶ļà·Ĭ
à¶Ńà·Ĭà¶Ń à·Ļà¶±à·Ĭ
Ġà·Ħà¶» à¶ļà·Ĭ
Ġà·ĥà·Ļ à¶¶à¶½
Ġà¶¶à·Ķà¶¯à·Ĭà¶° à·Ĵà¶º
Ġà¶ į
Ġà¶Ń à¶½à·Ĭà¶¸
Ġà¶¶à¶½ à¶´à·ĳà¶¸à¶ļà·Ĭ
à¶ļà·Ŀ à¶´à·Ĵ
à¶ºà·Ķ à¶»à·Ŀ
Ġà·Ħà·Ĵà¶Ńà¶±à·Ĭà¶± à·Ģà¶Ńà·Ĭ
à·ĥà¶Ĥ à·ĥà·Ĭ
à¶´à·Ĭà¶§ à·ľà¶´à·Ĭ
à¶¯ à·Ģà¶½à·Ĭ
Ġà¶¢ à·ĥà·Ĭà¶§à·Ĵà¶±à·Ĭ
Ġà·ĥà·Ķ à¶½à·Ķ
à¶§à·ı à¶½à·ı
Ġà·ģà·ı à¶ļ
Ġà¶ħà¶´à·ļ à¶¸
à¶Ńà·Ĭà·Ģ à¶ºà·ļ
à¶Ńà·Ķà¶¸à·ı à¶ľà·ļ
Ġà¶ħà¶ºà¶§ à¶Ńà·Ĭ
Ġà¶±à·Ŀ à¶±
à¶©à·Ĵà¶º à·ĥà·Ĭ
Ġà¶±à¶Ĥà¶ľà·Ĵ à¶§
Th is
y l
Ġà¶¸ à·Ļà¶±à·Ĭà¶¸
âĢį à¶±à·Ķ
à¶ħ à¶Ńà·ĵ
à·ģ à¶ºà·Ĵà¶±à·Ĭ
à¶§à·Ĭ à¶±à·Ĭ
à·ĥà·Ĵ à¶¯à·Ĭà¶¯
Ġà¶ļà·Ĭ à¶½à·Ŀ
ic e
à¶´à¶Ń à¶§
un it
Ġà·Ħà¶³à·Ķ à¶±
Ġà·Ħà·Ĵà¶¸à·Ĵà¶ļ à¶¸à·Ĭ
à¶Ķà¶ºà·ı à¶±à¶¸à·Ĭ
à¶Ńà·Ķ à¶ºà·Ĵ
Ġà¶ĳà·Ħà·Ļ à¶Ńà·Ĭ
Ġà¶Ĩà·Ģà¶» à¶«
Ġà·Ħà¶Ĥà¶ľ à¶½à·ı
à¶Ĭà¶½à¶ľ à¶§
à¶ľ à¶§à·Ĭ
Ġà¶½ à¶¯à·ĵ
Ġà¶¸à·ļ à·ĥà·ļ
à¶Ńà·Ĵà¶º à¶±à·Ĭ
Ġà¶ļà·ıà¶» à·Ļà¶ļ
Ġà·Ģà¶ľ à¶ºà·Ĵ
à¶¶à·Ķ à¶ļà·Ĭ
Ġà·ĥà·Ĵà¶´ à¶ľà¶±à·Ĭà¶±
à·Ģ à¶ºà¶§
Ġà¶ļ à¶¸à·ıà¶±à·Ĭà¶©à¶»à·Ĭ
à¶¯ à¶Ńà·Ĭ
à¶¯à·ı à¶ľà·Ļà¶±
à¶¶à·ı à¶»à·Ĭ
à¶§à·Ĭà¶§ à·Ķà·Ģà¶§
Ġà·Ħà·Ļ à¶¸à·ĵà¶§
à·Ģà·Ĵà¶±à·ı à·ģ
Ġà¶ħà·Ħà·Ķà·Ģ à·Ļà¶±à·Ĭà¶±
Ġà·Ģà·Ĵà·ģà·Ĵ à·Ĥà·Ĭà¶§à¶ºà·Ĵ
à¶´ à¶ºà·Ĵ
à¶´ à¶Ńà·Ĵà¶±à·Ĭ
à¶ľà·ı à·ĥà·Ĭ
à¶»à·Ŀ à·ĥà·Ĭ
Ġà¶©à·Ĵ à¶ļà·Ĭ
à·ĥà·ĸ à¶¯à·ıà¶±à¶¸à·Ĭ
Ġà·Ħà·Ĵà¶±à·Ĭà¶¯ à¶¯
à¶ľà·ıà¶± à¶ļà·Ĭ
Ġà·Ģ à¶±à·ļ
à¶±à·Ĵ à¶ºà·ıà·Ģ
Ġà¶ļà·Ĵà·ĥà·Ĵ à¶¯à·ı
Ġà·Ģà·ĵ à¶¯à·Ķà¶»à·Ķ
à¶±à·Ĵà¶¯ à·Ħ
Ġà¶ļà¶»à¶´à·Ķ à·Ģà·ı
Ġà·Ħà¶¯à·Ĵà·ĥà·Ĭà·ĥ à·Ĵà¶º
Ġà·ĥà·Ĵà¶¯ à·Ķà·Ģà·ļ
ĠQu ebec
Ġà·Ģà·Ĵà¶Ńà¶» à¶¸à¶ºà·Ĵ
Ġà¶¢à·Ŀà¶±à·Ĭ à·ĥà·Ĭ
Ġà¶ħà¶Ńà·Ĭà·Ģà·Ĳ à¶»
à¶ĩà¶¸ à¶»à·Ĵà¶ļà·ıà¶±à·Ķ
Ġà¶Ĩ à¶´à·ĥà·Ĭà·ĥà¶§
Ġà¶¯à·Ĳà¶± à¶ľà¶Ń
Ġà¶īà¶³ à·Ĵà¶ºà·Ĵ
à¶ĭà¶¹ à¶½à¶§
Ġà¶Ńà¶¸à¶±à·Ĭ à¶§
à·Ģ à¶Ńà·ıà·Ģà¶ļà·Ĭ
âĢį à¶¯à·Ĵ
Ġà¶¸à·ļ à¶½à·Ĭ
à¶±à·Ĳà¶ľà·Ĵ à¶§à·Ĵà¶±à·Ģà·ı
Ġà¶± à·ĵà¶¸à·Ŀ
Ġà¶ļà·Ĵà¶º à¶ļà·Ĭ
à¶Ķ à¶łà·Ĭà¶łà¶»
Ġà¶ħà¶½à·Ĭà¶½ à¶ľà¶±à·Ĭà¶±à·Ģà·ı
Ġà¶¯à·ĵ à¶¸à¶§
Ġà¶½à¶Ł à¶¯à·Ĵ
Ġà¶Ķà·Ħà·Ĭ à·Ħà·Ĭ
à¶ĳà¶łà·Ĭà¶łà¶» à¶¯
Ġà·ĥà·Ĭà¶§à·ĵ à·Ģà¶±à·Ĭ
Ġà·ĥà¶±à·Ĭà¶±à·Ĵà·Ģà·ļà¶¯ à¶±à¶º
Ġà·Ģà·Ĵà·ģà·ı à¶½à·Ĭ
à¶±à·Ĭ à¶¸
Ġà·ĥ à¶Ń
Ġà·Ģà·Ĳà¶© à¶Ńà¶½
à¶ļà¶» à¶¸à·Ĵà¶±à·Ĭ
Ġà¶Ĩà¶»à¶ļà·Ĭà·Ĥ à¶ļà¶ºà·ı
Ġà¶Ńà·ļà¶» à·Ļà¶±
Ġà¶¶à·ľà¶»à·Ķ à¶ļà·ıà¶»à¶ºà·Ļà¶ļà·Ĭ
Ġà¶īà¶±à·Ĭ à¶¯à·Ĵà¶ºà·ıà·Ģ
Ġà·Ģà·Ĵà·ĥ à¶¯à¶±à·Ĭà¶±
qu es
Ġà¶½à·ľà¶ļ à·Ķà·Ģà¶§
à¶¸à·ı à¶»à·Ĭà¶ļà·Ĭ
à¶° à¶±
à·ĥà·Ĵ à·Ĩà·Ĵà¶ļà·Ĭ
Ġà¶´à·Ĵ à¶´à·Ķà¶»à·Ķ
Ġà¶Ńà·ļà¶» à·ĵà¶¸à¶ļà·Ĭ
Ġà·Ģà·Ļà¶½à·ıà·Ģ à¶ļà¶¸
Ġà·ĥà¶§ à·Ħà¶±
Ġà¶¸à·Ķà¶¯ à¶½à¶ļà·Ĭ
Ġà·Ģà·Ĳà¶§à·Ķ à¶±à·ļ
à¶ļà·Ļà¶½à·Ĭà¶½ à·ļ
à¶± à¶½à·Ĭà¶©à·Ĭ
à¶© à¶±à·Ĭà¶§à·Ĭ
à¶¸à·ı à¶¯
Ġà¶§ à¶ºà¶»à·Ĭ
Ġà¶¯à·Ĵ à·Ģà·Ķà¶»à·Ķ
Ġà·ħ à¶¸à·ı
Ġà¶´à·Ĵà¶§ à¶´à¶Ńà¶ļà·Ĭ
Ġs p
Ġà¶¢à·ľ à¶±à·ĵ
Ġà¶ĳà¶¸ à·Ļà¶±à·Ĭà¶¸
Ġà¶ļà·Ļà¶½ à·Ģà¶»
Ġà¶īà·ĥà·Ĭà·ĥà·Ļ à¶½à·Ĭà¶½
Ġà¶±à·Ĵà·Ģà·Ĭà¶ºà·Ŀ à¶»à·Ĭà¶ļà·Ĭ
ĠIt aly
à¶¸ à¶łà·Ŀ
à¶¶ à·Ļà¶ļà·Ĭ
Ġà¶§à·Ĵà¶ļ à·Ļà¶±à·Ĭ
Ġà¶Ĭ à·ħà¶ľà¶§
en n
Ġà¶¸à·ĸ à·Ģ
Ġà¶±à¶»à¶ļ à¶¯
Ġà·ĥà·ĸ à·ĥà¶±à·Ĭ
Ġà¶»à·ıà¶¢ à¶ļà·ıà¶»à·Ĵà¶ºà¶ļà·Ĭ
Ġà¶»à·Ĳà¶¢à·Ĵ à¶±
Ġà¶¢à·ıà¶Ńà·Ĵà¶º à·Ļ
à¶Ńà·Ŀà¶»à·ı à¶ľà¶Ńà·Ĭ
Ġà¶¸ à¶ļà·ı
à·ĥà·Ĭ à¶ļà·Ĵ
à¶±à·ı à¶±à·Ĭà¶Ńà¶»
à¶´à·Ķ à¶»à·Ĭ
Ġà·ĥà·Ĵ à¶ļà·Ķà¶»à·ıà¶¯à·ı
in c
Ġà¶¸à·Ĳà¶» à·Ļ
Ġà¶ĳà¶Ńà¶± à¶¯à·Ĵ
Ġà¶ºà¶±à·Ģ à¶±à¶¸à·Ĭ
Ġà¶±à·ľà¶ļà¶» à¶±à·Ĭà¶±à·ļ
Ġà¶¸à¶»à¶« à¶ºà·ļ
Ġà¶±à·ıà¶ºà¶ļ à¶ºà·Ļà¶ļà·Ĭ
Ġ :čĊ
à¶ºà·ı à¶½à·Ķà·Ģà·ı
Ġà¶ĳ à¶¯à·Ĭà¶¯à·ĵ
Ġà¶ľà·Ļà¶± à·ıà·Ģà·Ļ
à¶¯à·Ļà¶± à·Ķ
à¶»à·Ĵà¶º à·Ļ
à·ĥà·Ĳ à¶»
Ġà¶ľà·Ķ à¶©à·Ĭ
Ġà¶¸à·ľà¶±à·Ģ à¶§à¶¯
Ġà·Ħà¶Ńà¶» à¶ºà·Ĵ
Ġà¶ħà¶ºà·Ĵà¶Ńà·Ĵ à·Ģà·ıà·ĥà·Ĵ
Ġà¶»à·Ĵà¶º à¶¯à·Ķà¶»
à¶¸ à·ĳ
Ġà¶¶ à¶¸à·Ĭà¶¶
Ġà¶¶ à¶»à·Ļ
à¶»à·Ĭ à¶Ńà·Ĵ
Ġà¶´à·Ĳ à¶«à·Ĵ
Ġà¶ļà·Ĳ à¶§
à¶ħà¶¸à·Ĭ à¶¸à·Ŀ
Ġà¶½à¶Ł à¶ºà·Ĵ
Ġà¶Ńà·ĵà¶» à¶±à¶º
à·ĵ à¶»
Ġà¶ł à¶ļà·Ĭ
re e
à¶ļ à¶ļà·Ĭ
Ġà¶±à·Ĵà·ģà·Ĭà¶ł à·Ĵà¶Ń
Ġb l
ou se
, à¶ĳà·Ħà·Ļà¶¸
Ġà¶¯à·Ĳ à¶¸à·Ķà·Ģà·ı
à¶ķ à¶ºà·Ĵ
Ġà¶´à·Ļà¶±à·Ĭà¶± à¶±à·Ģà·ı
Ġà·Ħà·Ŀà¶§ à¶½à·Ĭ
Ġà¶¶à¶±à·Ĭà¶° à¶±à·ıà¶ľà·ıà¶»
Ġà¶¸à·Ļà¶Ńà·Ĳà¶± à¶§
Ġà¶ĳà¶ļ à¶ļà·Ķà¶ºà·Ĵ
à¶»à·ļ à¶©à·Ĵà¶ºà·Ŀ
Ġà¶¶à·Ĳà¶»à·Ĵ à·Ģà·Ķà¶«à·ı
ĠM an
Ġà·Ħà¶Ńà¶» à¶ļà¶§
Ġà·Ģà·Ĳà¶©à¶ļà¶» à¶±à·Ĭà¶±à·Ļ
Ġà¶ļà·ıà·ħ à¶º
à·ĥ à¶¯
Ġà·ĥà·Ĳà¶½ à¶ļ
Ġà·Ģà·Ĵà¶ļà·Ķ à¶±à¶±à·Ĭà¶±
ĠSp ain
Ġà¶¯à·Ĳà¶±à·Ĭ à·Ģà·ĵà¶¸à·Ĭ
à¶»à·ı à¶§
à¶§à·Ĭà¶§ à·Ŀ
Ġà·Ģà·Ļà¶±à·Ĭà¶±à·Ļ à¶Ńà·Ĭ
Ġà¶½à·Ķ à¶ºà·Ĵà·ĥà·Ĭ
ĠT h
Ġà¶ļà·ľà¶ºà·Ĵ à¶Ńà¶»à¶¸à·Ĭ
à¶ĩà¶±à·Ĭ à¶©à·Ĵ
Ġà·ĥà¶Ĥà¶ļà·ĵà¶»à·Ĭà¶« à¶ºà·Ĵ
E A
à¶ļ à·Ģ
Ġà¶ħ à¶ļà·Ĭà·Ĥ
Ġà¶Ĩ à¶ľà¶¸
Ġà¶´à·Ķ à¶±
Ġà¶¸à·Ķ à¶«à·Ķ
Ġà·Ħà¶¯ à¶±à·Ģà¶¯
ar a
à¶¶à·Ĵ à¶½à·ĵ
Ġà¶½à·ĥà·Ĭà·ĥà¶± à¶¸
Ġà¶¸à¶±à·Ķà·ĥà·Ĭà·ĥ à¶º
e f
à¶§ à¶ļà·Ĭ
Ġà¶ļ à¶¹
Ġà¶Ĩ à¶¶à·ıà¶°
Ġà¶¸à·ľà¶ļ à¶§
Ġà¶ºà·ı à¶±à·Ĭà¶Ńà·Ĭ
Ġà¶īà¶½à·Ĭà¶½ à·ĵà¶¸à¶ļà·Ĭ
Ġà¶ļà¶´ à¶±à·Ģà·ı
à¶½à·Ļà¶ļà·Ĭ à¶§à·Ĭ
Ġà¶¶à·Ĳà¶±à·Ĭ à¶¯à·ı
Ġà¶ľà·Ķà¶»à·Ķà·Ģ à¶»à¶ºà·Ļà¶ļà·Ĭ
Ġà¶¯à·ļà·ģà¶´à·ıà¶½ à¶±
A l
A nd
n g
Ġà·Ģà¶½à¶§ à¶ºà·Ĵ
Ġà¶±à·Ļà¶¸à·Ļà¶ºà·Ĵ à¶¯
ou ld
Ġà¶¸à·Ķà·Ħà·Ķ à¶«à·Ķ
à·Ģà·Ĵ à·ĥà·Ĵ
à¶ĩ à¶½à·Ĵà·ĥà·Ĭ
ot her
Ġà¶ºà·Ļ à¶¯à·Ķà¶¸à·Ĭ
8 15
Ġà¶ħ à¶¶à·Ĵ
à¶§à·Ĭà¶§ à·Ķà·Ģà·ļ
Ġà·Ģà·Ĵà·ģà·Ĭà·Ģ à·Ģà·Ĵà¶¯à·Ĭ
Ġà¶¯à·Ĵà¶±à·ı à¶ľà¶±à·Ĭà¶±
Ġà¶ĭ à·ĥà·Ĭ
Ġà¶ļà·Ĵà¶ºà¶± à¶ļà·ľà¶§
Ġà¶¯à¶¸à·Ļ à·Ģà·Ĭ
B l
Ġà¶¸à·Ļ à·Ħà·ı
Ġà·ĥà·Ĭ à¶¸à·Ĵà¶Ńà·Ĭ
Ġà·Ģà·Ļà¶±à·Ģ à¶±à¶¸à·Ĭ
Ġà¶¯à·ľà¶» à¶§à·Ķà·Ģ
Ġà¶¶à·Ĵà¶»à·Ĵà¶³ à¶§
Ġà¶Į à¶»à·Ķ
Ġà¶¯à·Ĳà¶¸ à·ĵà¶¸
à·ĥà·ĵ à¶¸à·Ĭ
Ġà¶ľà·Ļà¶± à¶ºà¶±à·Ĭà¶±
à¶¸à¶ľà·Ļ à¶Ńà·Ĭ
à·ı à¶±à·Ĭà¶Ń
Ġà¶ĭà¶´à¶»à·Ĵ à¶¸à¶º
Ġà·ĥà·Ĭà¶§à·ı à·Ĩà·Ĭ
c at
à·Ļ à¶ķ
à¶ĭà¶¶ à¶½à·ı
à¶±à·Ĵà¶ºà·ı à¶±à·Ķ
Ġà¶¶à·ļ à·ĥà·Ĭà¶¶à·Ŀà¶½à·Ĭ
à·ģà·ĵ à¶½
à¶¯ à¶Ńà·Ĭà¶Ń
Ġà·Ģ à¶»à·ı
âĢį à¶«à¶º
Ġà¶» à¶ºà¶±à·Ĭ
à¶ħà¶´ à·Ļà¶±à·Ĭ
Ġa m
Ġà¶ĭà¶´à·ı à¶°à·Ĵà¶º
Ġà·ĥà·ıà¶¸à·ıà¶¢à·Ĵà¶ļ à¶ºà·Ļà¶ļà·Ĭ
4 3
M AN
Ġà¶¯à·Ĳà¶±à·Ķ à¶±
Ġà¶¸à¶Łà·Ķ à¶½à·Ĭ
tur key
à¶§ à·Ļà¶ļà·Ĭ
à¶´ à·Ģà¶Ńà·Ĭ
à¶´ à¶§à·Ĭà¶§
à¶Ńà·Ĵ à¶¶à·Ĭ
à¶¸à·ļ à¶¯à·ĵ
Ġà¶±à·Ļà·Ģà·Ļà¶ºà·Ĵ à¶±à·ļ
à¶ļà·ĵ à¶¸à¶§
Ġà¶½à·Ķ à·ĥà·ĵ
Ġà¶ļà·Ļà¶½à·Ĭà¶½à·Ļà¶ļà·Ĭ à·Ģ
M L
Ġ à·Ļà¶±à·ı
à·Ģ à¶¸à¶§
Ġà¶ĳà¶ļ à·ļà¶¯
à¶±à·Ĵà¶º à·Ļà¶ļà·Ĭ
à¶¯à·ĵ à¶¸à¶§
Ġà¶½à·ļ à¶±à·Ĭ
Ġà¶ľà¶Ń à¶ļà¶»à¶±à·Ĭà¶±
Ġà·Ģà·ľ à¶½à·Ĭà¶§à·Ĭ
Ġà¶łà·ĵ à·ĥà·Ĭ
à¶¶à·ĸ à¶¸à·Ĭ
Ġà¶±à¶ľà¶»à·Ļ à¶§
Ġà·Ģà·ıà¶»à·Ĭà¶® à·ıà·Ģ
Ġà·Ħ à·ĵà¶Ń
Ġà¶ļà·ľ à¶¸à·Ĵ
Ġà¶¢ à¶ºà·Ĵà¶ļà·ıà¶±à·Ĭà¶Ńà·Ĭ
Ġà¶¶à¶½ à·Ŀ
Ġà¶¸à·ļà¶ļ à·ı
Ġà¶±à·Ĳà¶Ńà·Ĵ à¶ļà¶»à¶ľà¶±à·Ĭà¶±
Ġà¶ħà·Ħ à·Ģà¶»
Ġà¶Ńà·Ķ à¶¸à¶±à·Ĵ
Ġà¶»à·Ĳ à·Ģà¶§
Ġà¶¯à¶±à·Ĭà¶±à·Ļ à·Ģà¶Ńà·Ĭ
Ġà¶Ĩà¶ºà·Ļ à¶¸
nd ian
Ġà¶´à¶¸ à¶«à·Ĵ
à·ĥ à¶¯à·ı
âĢį à¶¢
Ġà¶ĳà¶±à·Ĭà¶± à¶ºà·Ĵ
Ġà¶¢à·ļ à¶ļà¶¶à·Ĭ
am p
Ġà¶łà¶»à·Ĵ à¶Ń
Ġà¶ļà·Ļà·ħ à·Ģà¶»
Ġà·Ħà·Ĵà¶±à·Ĭà¶¯ à¶ºà·Ĵ
Ġà¶±à¶»à·Ĭ à·ĥà·Ĵà¶±à·Ĭ
à¶¸à·ıà·Ģà·Ĵà¶º à¶±à·Ĵ
Ġà·ĥà·Ĭà·Ģà¶» à·ĸà¶´
à¶± à¶Ĥà¶ľà·Ĵ
Ġà¶Ķ à¶½à·Ĵà·Ģà¶»à·Ĭ
Ġà·Ħà·Ĵ à¶Ł
à¶»à·Ŀ à·ĥ
Ġà¶ĭà¶«à·Ĭà¶© à¶ºà¶ļà·Ĭ
Ġà¶ľà·Ļà¶±à·ıà·Ģ à¶¯
Ġà¶ĩà¶½à·Ĵ à·ĥà¶±à·Ĭ
Ġà¶ħà¶´à·ĸ à¶»à·Ķ
Ġà·ĥà·ĵà¶Ń à¶½à¶ºà·Ĵ
à¶§ à·ľà¶¸à·ĵ
Ġà¶Ń à¶ļà·Ĭ
à·Ļà¶± à¶ļà·Ĭ
Ġà¶´à·ı à¶©à¶¸à·Ĭ
Ġà·Ļ à¶´à·ı
Ġà·Ģà·Ķà¶± à·Ħà¶¸
Ġà¶¯à·ĵà¶´à·Ĭ à¶Ńà·Ĵà¶¸à¶Ńà·Ĭ
Ġà¶ºà¶±à·Ĭà¶± à·ĳ
Ġà¶ħà¶½à·Ĭà¶½à·ı à¶ľà¶±à·Ĭà¶±
Ġà¶´à·Ŀ à·ĥà¶Ńà·Ĭ
Ġà¶īà¶±à·Ĭà¶¯à·Ĵà¶ºà·ı à·Ģà·ļ
Ġà¶¶à·Ŀà¶Ń à¶½à¶ºà¶ļà·Ĭ
à¶ļ à·ıà·Ģà¶§
à¶ºà·ı à¶±à¶º
à¶ĩ à¶Łà·Ĵ
Ġà·ĥà·Ĭ à¶ļà·ľ
Ġà¶Ŀ à¶±
Ġà·Ģà·Ļà¶±à·Ĵ à¶¯à·ı
Ġ à·Ĥà·Ĭ
à¶±à·Ĭà¶± à¶Ńà·Ĭ
Ġà¶»à·ļ à¶Ľ
_ BAR
Ġà¶º à¶¸à¶Ĥ
Ġh im
Ġà·Ģà·Ķ à¶«à·Ķ
Ġà·ĥà¶Ĥ à¶¢à·ļ
à¶»à·Ĳ à¶¯à·Ĭà¶¯
à·Ļà¶±à·ı à¶§à·ĥà·Ĭ
Ġà¶¯à·Ĵ à·ģ
à¶ĳà¶ļ à¶Ł
Ġà¶īà¶½à·Ĭà¶½ à¶±à·Ĭà¶±à·Ļ
Ġà¶´à·Ĳà¶¸à·Ĵà¶« à·Ļà¶±à·Ģà·ı
Ġà¶ľà·Ĳà¶§ à·ħà·Ķà·Ģà¶ļà·Ĭ
à·ģà¶ļà·Ĭ à¶Ńà·Ĵ
s on
Ġà·Ģà·Ĵ à¶³à·Ĵà¶±à·Ĭà¶±
Ġà¶Ĩ à·ģà·ıà·Ģ
à¶´à·ļ à¶±à·Ģà¶¯
Ġà¶Ńà¶»à·Ĭ à¶ļ
Ġà·ĥà·ļà·Ģà·ı à¶¯à·ı
Ġà¶ļà¶»à·Ķà¶±à·ı à¶ļà¶»à¶½
Ġà·Ģà·Ļ à¶½à·Ĭà¶§à·Ĭ
Ġà¶¸à·ľ à¶ļà·Ĭà¶ļà¶¯
Ġà¶´à¶½à·Ĭà¶½ à·Ĵà¶º
Ġà¶Ķà¶¶à¶½à·ı à¶§
à¶¸à¶±à·Ķ à·ĥà·Ĭà·ĥ
à·Ħà·Ĵà¶Ńà·ı à¶ľà¶±à·Ĭà¶±
à¶´ à·ŀ
Ġà¶ĳ à·Ģà¶±à·Ĭ
à¶ĳ à¶ºà¶ºà·Ĵ
ĠâĢį âĢį
Ġà¶ļà¶Ńà·ı à¶ļà¶½à·ļ
Ġà¶¯à·Ĳà¶±à¶ľà¶Ńà·Ĭà¶Ń à¶¸
Ġà¶ĭà¶¯à·ıà·Ħà¶» à¶«à¶ºà¶ļà·Ĭ
Ġph p
b ab
Ġà¶ļà¶»à¶±à·Ĭà¶± à·ı
à·ĥà·ı à¶ļà·Ĭà·Ĥà·Ĵ
Ġà¶´à·Ĳà·Ħà·Ĳà¶» à¶ľà¶±à·Ĭà¶±
à¶Ńà·Ĭà·Ģà·Ĳ à¶©à·Ĵà¶ºà·ı
n or
à·Ģ à¶±à·Ļ
Ġà¶Ķ à¶½à·Ķ
Ġà·Ħà·Ĳ à¶§à·Ĵà¶º
à¶Ńà·ı à¶ľà·ıà¶»
à¶¯à·Ķ à¶»à·Ĭ
à¶Ĩ à·ĥà·Ĵà¶ºà·ıà·Ģ
Ġà¶¯à·Ķà·Ģ à¶±à·Ĭà¶±à·ļ
Ġà¶ĩà¶» à¶±à·Ĭ
a ut
Ġà¶¯ à¶½à·ı
Ġà¶±à·Ĳ à¶ľà·Ĭ
Ġà·ĥà¶¸ à·Ħà¶»à·Ķ
Ġà¶īà¶³ à¶½à¶¸
Ġà¶½à·Ĳà¶¶à·Ķ à¶«à·ļ
à·ĥà·ĵ à¶ºà·ı
à·Ģà·Ĵà·ģà·ı à¶½à·Ĭ
Ġà¶¯ à¶ļà·Ķ
Ġà¶Ĵ à·Ģà¶Ńà·Ĭ
Ġà¶¸à·Ļ à·Ħà·Ĭ
Ġà¶¸à·ļà¶ļ à¶¯
Ġà¶¸à·Ĵà¶±à·Ĵ à·Ħà·ľ
Ġà¶¸à·ı à·ħà·Ĵ
Ġà¶±à·ľ à¶¯à·ĵ
à¶Ńà·ļ à¶»à·Ķà¶¸à·Ĭ
à¶»à·Ķà¶« à·Ĵà¶ļ
Ġà¶ĭà·ĥà·Ĭà·ĥ à¶±à·Ģà·ı
Ġà¶Ńà¶»à·Ħ à¶ļà·Ĭ
Ġà¶¸à·Ĳà¶¯ à·Ĵà¶±à·Ĭ
Ġà¶¶à¶±à·Ĵ à¶±à·Ĭà¶±
Ġà¶ļà¶³à·Ģà·Ķà¶» à¶§
Ġà¶ķ à·Ģ
à¶»à·ļ à¶©à·Ĭ
- à¶¸à¶ľà·ļ
à¶ħ à·Ģà·ĥà¶»
Ġà¶ļà·ı à¶½à·Ĵ
à·Ģà¶»à·Ĭ à¶½à·Ĵ
à¶ľà·ľà¶© à¶±à·Ĳà¶ľà·Ĵ
à¶½à·ľ à¶§à·Ĭ
à·Ħà¶½à·Ĭ à¶´à¶Ńà·Ĵ
à¶¸à¶¸ à¶±à¶¸à·Ĭ
Ġà¶ļà·Ĳ à¶»à·Ĳ
Ġà¶łà¶»à·Ĵ à¶Ńà¶ºà¶ļà·Ĭ
à·Ģ à¶±à·ļ
ik e
Ġà¶ľà·Ļ à·Ģ
Ġ à·Ĳ
à·ı à¶Ńà·Ĭ
à·ģà·ĵ à¶º
à¶©à·Ĵ à¶Ńà·Ĭ
Ġà¶ºà·ľà¶¯ à·Ģà¶±à·Ĭà¶±
à·Ģà·ģ à¶ºà·Ļà¶±à·Ĭà¶¸
à¶ĳ à¶»à·Ĵà¶ļà·Ĭ
Ġs earch
Ġà¶¸à·Ħà¶Ńà·Ĭà¶Ń à¶ºà¶§
à¶ľà¶± à¶±à·Ĭ
Ġà¶Ńà·Ĵà¶º à¶ºà·Ĵ
Ġà¶¸à·Ĵà¶½à·Ĭ à·Ģà¶»à·Ĭà¶§à¶±à·Ĭ
à¶ļ à¶±à·Ĭà¶¯
à·Ħ à·ıà·Ģ
à¶Ķà¶ºà·ı à¶Ńà·Ĭ
à¶¢ à¶±à·ļ
Ġà¶ķà¶± à·Ĳ
Ġà¶¸à·Ĳ à¶»à·ļà·Ģà·Ĵ
à¶ĭà¶¹ à¶½
Ġà¶¶à·ı à¶½à·Ĭ
Ġà¶ļà¶»à¶½ à¶¯
Ġà·ĥà·Ĳà¶ļ à·ĥà·Ķà¶¸
Ġà¶ĩà·Ħ à·Ļà¶±à·Ĭà¶±à·Ļ
Ġà·Ģà·Ĵ à¶ļà·ıà·ģà¶º
Ġà¶¶à¶½ à¶ºà·Ļà¶±à·Ĭ
Ġà¶§ à·Ģà·Ķà¶±à·Ĭ
Ġà¶¯à·ı à·Ħà¶ļà·Ĭ
Ġà·ħ à¶Ĥ
Ġà¶ļà¶»à¶ľà¶±à·Ĭà¶± à·Ļ
Ġà¶¢à¶»à·Ĭ à¶¸à¶±à·Ĭ
à¶¶ à¶±à·Ĭà¶±
Ġà¶ķ à·Ļà¶±
à·Ĥ à·Ļ
à·ĥà·ı à¶»à·Ĭ
à¶ĭ à·ĥà·ĥà·Ĭ
à·ĥà·Ļ à·ĥà·Ĭ
Ġà·ĥà¶Ĥ à·Ģà¶»à·Ĭ
Ġà·ĥà·Ĵà¶¯à·Ĭà¶° à·Ĵà¶ºà¶ļà·Ĭ
Ġà¶´à·Ļà¶±à·Ĭà¶± à¶±
Ġà·ĥà·Ĭà¶ļ à·ĳà¶±à·Ĭ
à¶Ķà¶ºà·ı à¶ľà·Ļà¶±à·Ĭ
à¶¸à·Ĵà¶±à·Ĵ à·ĥà·Ĭ
à¶ħà¶±à·Ĵ à·Ģà·ıà¶»
Ġà¶´à·ĥà·Ķ à¶¶à·Ĵà¶¸
Ġà¶¢à·Ŀ à¶»à·Ĭà¶¢à·Ĭ
Ġà¶ļà¶©à·ļ à¶§
à¶¸à·Ķà·Ħà·Ķ à¶«
6 1
Ġà¶ĩ à¶ľà¶§
à¶ħ à¶»à·Ĵ
à¶¯à·ĵ à¶½à·ı
it z
à¶ļà·Ĳ à¶»
à¶ļà·ĵ à¶»à·Ĭ
Ġà¶»à¶® à¶ºà¶ļà·Ĭ
à¶ļ à¶½à·Ĵ
à¶» à·Ĵà¶ºà·Ĵ
âĢį à¶¸à·Ĵ
Ġà¶ĩ à¶½à¶±à·Ĭ
à¶ĭ à¶½à·Ĭ
Ġà·ħà¶¸ à¶ºà·Ŀ
à¶´à·Ħ à¶½
Ġre p
Ġà¶ĭà¶¹ à¶Ńà·Ĭ
Ġà¶¢à·ı à¶½à¶º
à¶łà·ıà¶» à¶º
Ġà¶Ńà¶±à·Ĵ à¶ļà¶»
Ġà¶ĩà·Ħà·Ķà¶« à¶¯
Ġà·Ħà·Ĳ à¶ľà·Ĵ
Ġà¶´à·Ĳ à·Ģà·ĥ
Ġà¶´à·ĵ à¶§à·Ĭ
Ġà¶¸à·Ĵà¶±à·Ĵà·Ħà·Ļà¶ļà·Ĭ à¶§
à¶§à·Ŀ à¶±à·Ĵ
Ġà¶ļà¶³à·Ķ à·ħà·Ķ
Ġà¶¶à¶©à¶ľà·Ĵ à¶±à·Ĵà¶ºà·Ĵ
à¶´à·Ĵ à·Ħà·Ĵ
Ġà¶´à·Ķ à¶§à·Ķà·Ģ
Ġà¶´à·ľ à¶½à·Ĭ
Ġà·Ħà·ľà¶º à¶¸à·Ĵà¶±à·Ĭ
à¶½à·Ĭà¶½ à·ĵ
Ġà¶½à·Ĳà¶¶ à·Ĵà¶½
à·Ģà·Ĵà·ģà·Ĭà·Ģà·ıà·ĥ à¶¯
I t
Ġà¶¶à¶½à·Ĭà¶½ à·ľ
Ġà·Ħà¶¸à·Ĭà¶¶ à·Ģà·Ļà¶±
à¶¶à·Ĵ à¶¸à¶§
Ġà·Ħà¶¸à·Ķà¶¯ à·ıà·Ģà·Ļ
Ġà¶ľà·ľà·Ģà·Ĵ à¶´à¶½
Ġà·ĥ à·Ļà¶±à·Ĭà¶§à·Ĭ
Ġà¶½à·Ķ à¶Ńà·Ĵà¶±à¶±à·Ĭ
Ġà¶ļà·Ĵà·Ħà·Ĵ à¶´à¶ºà¶ļà·Ĵà¶±à·Ĭ
Ġà¶´ à·Ģà¶»
Ġà¶¸à¶¸ à¶¯
à¶¯à·ĵ à¶´à·Ĭ
à¶»à·Ĵà¶ļ à·ıà·Ģà¶ļà·Ĭ
Ġà¶± à¶Ńà·Ĭà¶Ńà¶½à·Ĭ
Ġà¶¶à¶½à¶±à·Ĭà¶± à¶ļà·ľ
à¶´à·ľà¶© à·Ĭ
Ġà¶´à·ĸ à¶»à¶«à¶º
à·Ĵà¶º à·ľ
à·Ģà·Ķ à¶±à·ıà¶¯
Ġà¶´à·Ĵà·Ħà·Ĵà¶º à·Ļà¶±à·Ĭ
à¶ļà·ľà·Ħà·ľ à¶¸à¶Ńà·Ĭ
- à¶Ĵà¶Ńà·Ĭ
à¶Ń à¶½à¶º
à·Ħ à¶±à¶§
Ġà¶ĳ à¶½à·Ļ
Ġà¶ļà¶»à¶±à·Ĭà¶± à¶ļà·Ŀ
à¶ļà¶» à·ļ
Ġà·Ģà·Ĵà·ĥà·Ĭà¶Ńà¶» à¶ºà¶ļà·Ĭ
Ġà¶¢à·Ĳ à¶ļà¶§à·Ĭ
Ġà¶¯à·Ĵà¶±à·Ķ à¶¸à·Ĭ
Ġà¶ľà·ĺ à·Ħ
Ġà·ĥ à·Ħà·ľà¶¯à¶»
à¶ĳ à¶ºà·Ĵà¶±à·Ĭ
à¶ļà·ı à¶ºà·Ĵ
à·Ģà·Ĳ à¶©à·Ĵà¶º
à¶¯à·Ĳà¶± à¶ľà¶±à·Ĭà¶±
Ġà¶´à·ľà·ħ à·ľ
Ġà¶ļà·ıà¶»à·Ĭà¶ºà¶¶à·Ħà·Ķ à¶½
à¶¯ à·Ľ
Ġà¶ħ à¶¯à·Ĵà¶±à·Ģà·ı
Ġà¶¸à¶¸ à·ĵ
à¶ļà·Ĭà·Ĥ à¶ļ
Ġà·ĥà·ı à¶´à·Ĭà¶´à·Ķ
à·Ģà·Ĳ à¶½
à¶±à·Ĭà¶¯ à¶¸à·Ĭ
Ġà¶īà¶¯à¶±à·Ĭ à¶¸
Ġà¶´à·Ķà¶¯à·Ķà¶¸ à¶ºà¶§
Ġà¶ħ à¶±à·Ļ
à¶»à·Ķ à·Ħà¶»à·Ĵ
à¶ĭ à¶Ńà·Ķà¶»à·Ķ
Ġà¶±à·ľ à¶¯à¶±à·Ĭà¶±à·ı
à·ĥà·Ĭà¶§ à·Ŀà¶±à·Ĭ
Ġà¶±à·ĵ à¶Ńà·Ĵà¶ºà¶ļà·Ĭ
Ġà·Ģà¶Ńà·Ķà¶» à·Ļà¶±à·Ĭ
Ġà¶ħà¶·à·Ĵ à¶»à·Ħà·ĥà·Ĭ
Ġà¶Ĩà¶»à·Ĭ à¶ºà¶±à·Ĭ
à¶ľà·ŀ à¶»
Ġà¶¶à¶½à¶´ à·ĳà¶¸à·Ĭ
% d
Ġ âĢĵ
Ġà¶¯ à¶ļà·Ĭà·ģ
Ġà·ĥà·Ĭà¶§ à·Ļ
à¶ľà¶±à·Ĵ à¶¸à·Ĵà¶±à·Ĭ
Ġà¶¸ à·Ģà·Ĭ
Ġà·Ħà·Ĵ à¶Ńà·Ĭ
Ġà¶ļà·Ĳ à·ĥà·Ĭ
Ġà¶¯à·Ĵ à¶±à·Ĭà¶±à·ı
à¶ļà·ļ à¶Ńà¶±à¶º
Ġà¶Ńà¶» à¶¸à·Ļ
Ġà¶ĳà·ħ à¶¯à·Ļà¶±
Ġà¶ºà¶± à¶ļà¶±à·Ĭ
à¶© à·ĸ
à¶ļà·Ĭà¶ļ à·Ļ
Ġà¶ĭ à¶Ķ
à·ĥà¶¸à·Ĭà¶´à·ĸà¶»à·Ĭà¶« à¶ºà·Ļà¶±à·Ĭà¶¸
Ġà¶ľà·ıà¶± à¶ļà·Ĵà¶±à·Ĭ
à¶ºà·Ĵà·ĥà·Ĭ à¶Ńà·Ķ
Ġà¶ħà·Ģà¶¯à·ıà¶± à¶¸
à·Ĩà·Ĵ à¶½à·Ĭ
Ġà¶¸à·Ĳà¶»à·Ķà·Ģ à¶¯
à·Ļ à·Ļà·Ĭ
à¶½ à¶±à·Ĭà¶©
Ġà¶ľà·Ļ à·Ģà·Ĭà·Ģà·ı
à¶´à·Ķà¶¯à·Ķ à¶¸à¶ºà·Ĵ
Ġà¶ļà·ıà·Ģ à·Ħà¶»à·Ĵ
Ġ qu
Ġà·Ħ à¶Ńà¶ļà·Ĭ
Ġà¶© à·Ĵà¶ºà·Ķà¶ļà·Ĭ
Ġà¶ħà¶Ń à¶ĩ
Ġà¶ħà·ĥà·ı à¶°à·ıà¶»à¶«
à·ľ à¶§à¶¸
Ġà¶º à¶¸à¶±à·Ĭ
Ġà¶ľà·Ĵà·Ħà·Ĵà¶±à·Ĭ à¶¯
Ġà·ĥà·ĵ à¶º
Ġà·ĥà·ļ à¶´à·Ĭà¶´
Ġà·Ħà·Ķà·ĥà·Ĭà¶¸ à¶ľà¶±à·Ĭà¶±
Ġà·ĥà·Ĵà¶Ńà·Ĵà¶º à¶¸à·Ĭ
à¶´ à¶½à¶ļà·Ĭ
Ġà¶´ à·ľà¶ļà·Ķ
Ġà¶½ à·ľà¶ºà·Ĵà¶©à·Ĭ
à¶ļà·ıà¶» à¶ºà¶§
à¶· à·ıà·Ģà·Ĵ
Ġà¶±à·ľ à¶´
Ġà¶Ķà·Ģà·Ķà¶±à·Ĭ à¶ľà·Ļà¶±à·Ĭ
Ġà¶´à·ľ à¶½à·Ģ
Ġà¶īà¶¯ à¶´à¶±à·Ĭ
Ġà¶´à·Ĵà·ħà·Ĵ à¶´
Ġà·Ģà¶§à·Ĵ à¶±à·Ĭà¶±à·ļ
Ġà·ĥà·Ĭà¶§ à·ļà·Ĥ
ĠP lease
Ġà·ģà·Ĵà¶½à·Ĭ à¶´à·Ĵà¶ºà·Ļà¶ļà·Ĭ
Ġà¶ħà¶±à·ıà·Ģ à·Ĳ
Ġà·ĥà¶±à·Ĭà¶±à·Ĵà·Ģà·ļà¶¯ à¶±
à¶¸à·Ļ à¶§à·Ĭ
in t
Ġà¶ĩà¶Ńà·Ķ à¶½à·Ķ
Ġà¶ļà¶»à¶±à·Ĭà¶±à·Ļ à¶´à·ı
Ġà¶¸à·ıà¶»à·Ĭ à¶ļà·Ĭ
Ġà·ĥà·Ĵà·Ħà·Ĵ à¶±à¶ºà¶ļà·Ĭ
à¶ĳà¶ļà·Ĭà¶ļ à·ľ
Ġà¶łà·ĸ à¶§à·Ĵ
à¶ľà·Ĵà·Ħà·Ĵ à¶½à·Ĭà¶½à·ı
à¶¸ à·ĥà·ı
Ġà¶ħ à¶»à·ı
à¶¸à·Ĭ à¶§
à¶¶ à¶¶à·Ĭà¶½à·ĸ
Ġà·ĥà·Ķ à¶´à¶»à·Ĭ
Ġà¶ļà·Ķ à·ĥà¶½à·ı
Ġà¶¢à·ı à¶½à¶ºà¶ļà·Ĭ
Ġà¶ľà·Ļà¶±à·Ĵà¶º à¶±
Ġà·ĥà·Ĵà¶§ à·ĵ
Ġà·Ģà·Ĵà¶ļà¶½à·Ĭ à¶´à¶º
à¶±à¶»à¶ļ à¶¸
C A
à¶Ń à·Ĳà¶ļà·Ĭà¶¸
à·Ħà·Ļ à¶¸à·Ķ
à·Ĥ à¶°
à¶´à·ıà¶» à·Ģà¶½à·Ĭ
Ġà¶¯à·Ĳà¶¸à·Ĭ à¶¸à¶¯
Ġà¶ĩà¶¸à¶»à·Ĵà¶ļà·ıà·Ģ à·ļ
Ġà·Ģà·Ĵà¶±à·Ĵ à·ĥà·Ķà¶»à·Ķ
Ġà¶± à¶¸à¶Ńà·Ĭ
Ġà¶ĳ à·Ļà·Ħ
Ġà·Ħ à¶¸à·ıà¶»
Ġà¶ĩ à¶½à·Ĵà·ĥà·Ĭ
à¶ĳ à¶½à·Ĵà¶º
à¶¸à¶§ à¶¸
Ġà¶¯à·ľà¶» à¶§à·Ķ
Ġà¶±à·Ģà¶Ńà·Ĭ à·Ģà¶½à·ı
Ġà·Ħà¶¯à·Ĵ à·ĥà·Ĵà¶ºà·ļ
Ġà¶´à·Ĳà¶§ à¶½à·Ĵà¶½à·ı
Ġà¶´à·Ĳà¶¸à·Ĵà¶«à·Ĵ à¶ºà·ı
- à¶¸à·ľà¶ļà¶¯
à¶» à·Ķà·Ģà¶ļà·Ĭ
Ġà¶¯ à·ĥà·Ķà¶±
à¶ħ à¶Ĥà·ģ
Ġà¶Ķà¶¶ à¶ºà·Ĵ
à·Ĵà¶ļ à¶±à·Ĭ
Ġà¶±à·Ĳà¶Ńà·Ĵ à·Ģà·Ķà¶«à·ı
Ġà¶ļà·Ļà¶±à·ı à¶¸
Ġà¶ļà¶Ńà·ıà¶ļà¶» à¶±
Ġà¶¸à·ıà¶»à·Ĭà¶ľ à¶ºà·Ļà¶±à·Ĭ
Ġà¶´à·Ķà¶»à·Ķà¶¯à·Ķ à¶ºà·Ĵ
- à·Ħà·ıà¶ºà·Ĵ
Ġà¶ī à¶¸à·Ĭà¶¸à·Ĵ
Ġà·Ģà·Ĵ à¶°à·Ĵ
Ġà·Ħà¶»à·Ĵ à¶±à¶¸à·Ĭ
Ġà¶¸à·ľà¶ļ à·Ļà¶ļà·Ĭà¶¯
Ġà¶´à·ıà¶© à·Ķà·Ģà·Ļ
à¶ļ à¶³à·Ķ
Ġà¶ļà·ı à¶«à·Ĭà¶©
Ġà·Ģà¶º à·ĥà¶ºà·Ĵ
Ġà¶ħà¶±à·Ķà¶¸à·Ĳ à¶Ńà·Ĵà¶º
Ġà·ĥ à¶½à·ı
Ġà·Ģà¶ºà·Ĵ à¶¯
à¶¸à·Ķà·Ħà·Ķ à¶¯à·Ķ
ai j
Ġà¶Ĭ à¶Ńà¶±à·Ĭ
Ġà¶ºà·ľ à¶¯à¶±à·Ĭà¶±
Ġà¶º à·ĳ
à¶»à·Ĳ à¶¢à·Ĵ
Ġà¶¶à·Ĳ à¶½à·Ĭ
à¶¸à·Ĭà¶´ à·ĥà·Ĭ
à¶¸à·Ĵà¶±à·Ĵ à¶Ńà·Ĭà¶Ńà·Ķà·Ģà¶ļà·Ĭ
à¶¯ à·ıà·Ģ
Ġà·ĥ à¶±à·Ĭà¶Ńà·Ŀ
à¶ĩ à¶±à·ĵ
à¶«à·Ĭ à¶©à·ı
à¶ħà¶±à·Ĭà¶Ńà·Ĵà¶¸à·ļ à¶¯à·Ĵ
à¶ĭà¶Ńà·Ĭ à·ĥà·Ħ
à·ĥà·Ĭ à¶½à·Ĵà¶¸à·Ĭ
à¶½à·Ĭà¶½ à·Ķà·Ģà·Ļà¶±à·Ĭ
à·ĥà·Ħ à¶Ńà·Ĵà¶ļ
Ġà¶ļà¶Ńà·ıà¶ļà¶»à¶±à·Ĭà¶± à¶¸à·Ĭ
à·ĥà·Ĭ à¶ļà·ľà¶§à·Ĭ
Ġà¶ĭ à¶ľà·Ļ
Ġà·ĥà·ĵ à¶ºà¶ļà·Ĭ
Ġà·Ħà·Ĵà¶Ńà·Ķ à¶±à·ļ
Ġà¶±à·ľà¶ļà¶» à¶´à·Ķ
Ġà¶Ńà·Ĵà¶¶à·Ķà¶± à¶¯
Ġà·Ģà·Ĵà¶° à·Ĵà¶º
à¶Ń à¶ļà¶§
à¶ħ à¶Ńà·Ķà¶»à·Ķ
à·ĵà¶¸ à¶ļà¶§
Ġà¶¸à·Ħ à¶¢à¶±
Ġà¶ļà·Ļà¶±à·ı à¶¯
Ġà·ĥà¶¸à·Ĭà¶¶à¶±à·Ĭà¶° à¶ļà¶¸à·Ĭ
Ġà¶´à·Ĵà¶½à·Ĵ à¶¶à¶³
à¶¸à·ļà¶±à·Ĭ à¶Ńà·Ķà·Ģ
à¶¯ à·Ĵà¶ºà·ļ
Ġà·Ģ à¶§à·ı
Ġà·Ħ à·Ĳà¶±à·ı
Ġà¶Ń à¶½
Ġà¶´à·ıà¶½ à¶±à¶ºà¶ļà·Ĭ
Ġà¶¢à·ı à¶½
Ġà·Ģà·Ļà¶±à¶ļà¶¸à·Ĭ à¶¸
Ġà¶ĩà¶±à·Ĭ à¶§à·Ĵ
à¶±à·Ĵà·Ģà·Ĭ à¶ºà·Ŀ
à¶§ à¶ºà·ı
à¶§ à¶½à¶ºà·Ĵà¶§à·Ĭ
à¶ºà·ı à¶±à·Ķ
à¶¸à·ļ à¶»à·Ĵ
Ġà·ĥà¶Ĥ à·Ģà¶Ńà·Ĭ
à¶¯à·Ļà¶± à·ıà¶¸
Ġà·Ģà·Ĵà¶±à·ıà·ģ à¶º
Ġà¶ľà·Ĵà·Ģà·Ĵ à·ĥà·Ķà¶¸à¶ļà·Ĭ
Ġà¶¢à·Ļà¶± à¶»à·ıà¶½à·Ĭ
Ġà¶ħà¶±à·ıà·Ģ à¶»à¶«à¶º
à¶»à·Ĭ à¶¢à·Ĵ
Ġà¶±à·Ĵ à·Ħà¶¬
Ġà¶© à¶±à·Ĭ
Ġw h
Ġà¶ļà·Ģà·Ķ à¶»à·Ĳ
Ġà¶¯à·Ĳà¶ļ à¶ľà¶±à·Ĭà¶±
Ġà¶¢à·Ĵà·Ģà·Ĵà¶Ń à¶ºà·ļ
Ġà¶ļà·Ķà¶¸à·ıà¶» à¶ºà·ı
Ġà¶ļà·ľà¶Ńà¶± à¶¯
Ġà·ĥà·ļà¶» à¶§à¶¸
Ġà·ĥà·Ļà¶±à·ĥà·Ķ à¶»à·ıà¶¯à·ı
à¶©à·Ĭ à¶§
Ġà·ĥà·Ĳ à·Ħà·Ļà¶±à·Ĭà¶±
à¶±à·Ĵà¶º à¶¸à·Ļà¶§
Ġà¶Ĭ à·ħà¶ľ
Ġà·Ģà·Ļà¶©à·Ĵ à¶Ńà·Ĵà¶ºà¶±à·Ĭà¶±
Ġw e
Ġà¶¸à¶»à¶« à¶ºà·Ļà¶±à·Ĭ
Ġà¶ºà¶¸à·Ĭ à¶ļà·Ĵà·ĥà·Ĵ
Ġà·ĥà·Ĳà¶±à·Ĭ à¶¯à·ĳ
ev er
ang o
à¶» à¶¢à¶º
Ġà¶ļà·Ĵ à¶§à·Ĭà¶§à·Ķà·Ģ
à¶¯à·ı à¶±à¶º
à¶±à·Ļ à¶§
Ġà·Ĥ à·Ķà·Ģà¶»à·Ĭ
Ġà·Ħà·Ĵà¶» à¶ľà·Ļà¶¯à¶»
Ġà¶¸à¶Ł à·Ħà·Ĳ
ĠT R
Ġà¶±à·Ĵà·Ģà·ı à¶©à·Ķà·Ģà¶ļà·Ĭ
Ġà¶´à·Ķà·Ģ à¶»à·Ķ
Ġà¶´à¶¯à¶ļà·Ĭà¶ļ à¶¸
AT O
u x
Ġà¶º à·Ģà¶±
Ġà¶ļà¶Ńà·ı à¶¶à·Ħ
Ġà¶´à·ľ à¶´à·Ĭ
he ll
Ġà·ĥà·ľà¶ºà·ı à¶ľà¶Ń
Ġà¶¯à·Ĭ à·Ģà·Ĵ
à¶ħà·Ģà·ıà·ĥà¶±à·ıà·Ģ à¶§
Ġà¶© à·Ļà¶±à·Ĭ
à¶Ĥà·ģ à·ı
Ġà¶° à¶»à·Ĭ
Ġà¶¯à·Ķà¶ļ à·Ļà¶±à·Ĭ
Ġà¶ĩà¶Ńà·Ķà·ħ à·ļ
Ġà¶ħà¶»à¶¸à·Ķ à¶«à¶ļà·Ĭ
' ,
Ġà¶Ńà¶»à¶Ł à¶ºà¶ļà·Ĭ
ist box
Ġà¶»à·ĸ à¶¸à·Ĭ
Ġà·Ħà·Ļ à¶Ńà·Ķà·Ģ
- à¶ħà¶´à·Ĵà¶§
à¶±à·Ģà¶Ńà·Ĵ à¶±à·Ģà·ı
Ġà¶Ĩà¶» à·Ŀ
Ġà·Ĥ à·ı
à¶± à¶Ń
à¶ºà¶ļ à¶©
Ġà·Ģà·Ļà¶½à·ıà·Ģà·Ļ à¶¯à·Ĵ
Ġà·Ģ à¶¯à·Ĵà¶±à·Ģà·ı
Ġà¶º à·ľà¶¸
Ġà¶ħà¶» à¶¸à·Ķà¶¯à¶½à·Ĭ
à·ĥà·Ĭà¶§ à·ıà¶»à·Ĭ
Ġà¶¯à·Ĳà¶±à·Ķ à¶ºà·Ĵ
Ġà·ĥà·Ĵà¶¯à·Ķà·Ģ à¶±
r ess
Ġ #
Ġà·Ģà·Ĵ à¶½à·Ĵà¶ºà¶¸à·Ĭ
à¶ĳ à¶ºà¶§
Ġt ext
Ġà¶¸à¶ľ à¶±à·ļ
à¶ļ à¶´à·Ĭà¶´
Ġà¶±à·Ĵ à¶»à·ı
à¶¸à·Ĵ à·ĥà¶ºà·Ĵ
Ġà·Ħà·ı à¶¯à·Ķ
à¶½à·Ĳ à¶¢à·Ĭà¶¢
Ġà·Ģà·Ĵà¶·à·ı à¶ľ
R I
Ġà¶ĳ à·Ģà·Ĳà¶±à·Ĵ
Ġà·Ģà·Ĵ à¶´à·Ĭ
Ġà¶¯à·Ķ à·Ĥà·Ĭà¶¨
Ġà¶»à·Ĳ à·Ģà·Ķà¶½
Ġà·ĥà¶¸à·Ĭà¶¶à¶±à·Ĭà¶° à¶Ńà·ıà·Ģà¶º
Ġà¶´à·Ĵà·ħà·Ĵ à¶ļà·Ķà¶½à·Ĭ
à¶¯à·Ļà¶±à·Ĭà¶± à¶¸
Ġà¶ľà¶½ à·Ģà·ı
Ġà·ĥà·Ĭà¶Ńà·ĸà¶Ńà·Ĵ à·Ģà¶±à·Ĭà¶Ń
. S
Ġà·Ģà·Ļ à¶¸à·Ĵ
à·Ĥ à¶±à¶º
Ġà¶¶à¶½ à¶´à·Ķ
Ġà¶ļà·Ĵà¶ºà¶±à·Ĭà¶± à¶Ńà·Ĭ
Ġà¶½à·ļ à·ĥà·Ĵà¶ºà·Ļà¶±à·Ĭà¶¸
Ġà¶±à·ıà¶ºà¶ļ à¶Ńà·Ĭà·Ģà¶º
Y PD
Ġà¶¶à·Ĳ à·ĥà·Ĭà·ĥ
Ġà¶ļà·Ĳà¶¸ à¶»à·ıà·Ģà¶ļà·Ĭ
Ġà¶ļà·ĵ à¶¯à·Ļà¶±à·Ļà¶ļà·Ĭ
à·ĥà·Ĳ à¶½à·Ĳ
Ġà·Ģà·Ĵà¶±à·Ŀà¶¯ à¶ºà·Ĵ
D ev
à¶¸à·ļ à¶»à·Ĭ
Ġà¶ļà·Ļà¶±à·Ļà¶ļà·Ĭ à¶ľà·Ļ
Ġà¶»à·ı à¶Ńà·Ĭà¶Ńà¶½à·Ĭ
or ico
Ġà¶´à·Ĵà·ĥà·Ĭà·ĥ à·Ķà·Ģà·Ļà¶±à·Ĭ
ert orico
Ġà·Ģà¶½à¶ļà·Ĭ à·Ģà¶±à·Ĭà¶±
Ġà¶¶à·Ŀà¶§à·Ĭà¶§ à·Ķà·Ģà·ļ
pu ertorico
Ġà·Ģà·Ĵ à¶ļà·Ķà¶«à·Ķ
à¶¯à·Ĭ à·Ģ
Ġà¶¶à·Ĳ à¶ľà·Ĭ
à¶½à·Ĵà¶±à·Ĭ à·ĥà·Ĭ
Ġà¶Ńà·Ĳà¶± à¶ļà¶¸
Ġà¶Ńà·Ĵà¶ºà¶±à·Ģà·ı à¶¯
Ġà¶Ńà·Ŀà¶»à·ı à¶ľà·Ĳà¶±à·ĵà¶¸
à¶½à·Ŀà¶ļ à¶±à¶º
Ġà¶Ķà·ĥ à·Ģà¶±à·Ĭà¶±
0 1
Ġà¶´ à·ĥ
Ġà·Ħà·Ĳ à¶¯à·ĵ
Ġà¶¶à·Ĵ à¶¸à·Ĵà¶±à·Ĭ
Ġà¶Ķà¶º à¶ľà·ļ
Ġà¶¸à·ĵ à¶ºà·Ļà¶ļà·Ĭ
à¶īà¶ļà·Ĭà¶¸à¶± à¶§à¶¸
à¶½à·Ĵ à¶ļà·ı
Ġà·ĥà¶»à·Ĭ à·Ģ
Ġà·ĥà¶»à·Ĭ à¶´
Ġà¶ľà·Ĳ à¶¹à·Ķ
Ġà¶»à·ı à¶¸à·Ĭ
à¶łà·Ĭà¶łà·Ĵ à¶»à·ıà¶¢à·Ķ
Ġà¶Ńà·Ĵà¶ºà·Ļà¶±à·Ģ à¶±à·ļ
Ġà¶´à¶»à¶« à¶ºà·Ĵ
à¶»à·ı à¶¢à·ı
Ġà¶ļà·ħ à¶Ńà·Ĭ
Ġà·ĥà·Ļ à¶»à·Ļ
Ġà¶ļà·Ļà¶½à·Ĭà¶½ à¶ľà·ļ
Ġà¶´à·Ĵà¶±à·Ĭà¶Ńà·ĸ à¶»à¶º
Ġà¶¸ à¶½à·ı
Ġà¶ī à¶§à·Ĵ
à¶»à·ļ à·ĥà·Ĵ
à¶ļ à·Ĳà¶±à·Ĭ
à¶¸à·Ĭà¶´ à·ļà¶±à·Ĭ
à¶ľà·Ħ à¶±à·Ģà·ı
az erb
Ġà¶īà¶Ńà·Ķà¶» à·Ķà·Ģà·Ļà¶½à·ı
aij an
azerb aijan
à¶¸à·Ĵà¶±à·Ĵ à·ĥà·Ķà¶±à·Ĭ
Ġà¶ħà¶±à·ıà¶ľà¶Ń à¶ºà¶ļà·Ĭ
à¶¶ à¶Ĥ
à¶ļà·ļ à¶ļà·Ĭ
Ġà¶¢à·Ļ à¶»à·ĵ
ul t
à¶½ à·Ķà·Ģà¶§
à¶¸à·ļ à¶¢à¶»à·Ĭ
Ġà¶±à·Ĳà¶Ńà·Ĵ à·Ģà·Ķà¶±
Ġà¶ł à·ļ
ĠB rit
Ġà·ĥà¶¸à·Ĭà¶¶à¶±à·Ĭà¶¯ à¶ºà¶ļà·Ĭ
Ġà·Ģà·Ĵà¶»à·Ŀà¶° à·ĵ
Ġà¶¥à·ı à¶Ńà·Ĵ
Ġà·Ģà·Ĵà¶±à·Ĭà¶©à·Ŀ à·Ģà·ļ
m p
Ġà¶±à·Ĵ à¶ľà¶¸à¶±à¶º
Ġà·ĥà·Ħ à¶±à¶ºà¶ļà·Ĭ
Ġà¶ĭà¶¯ à·ļà¶¸
Ġà¶½à·Ĵ à¶´à·Ĵà¶º
Ġà¶¸à¶Ń à¶ºà·Ĵ
Ġà¶´à·Ħà¶» à¶¯à·Ļà¶±à·Ĭà¶±
Ġà¶½à·Ķà·Ģ à·Ĵà·ĥà·Ĭ
Ġà¶ļ à¶´à·Ķ
Ġà¶¯ à¶ļà·ĵ
à¶½à·Ĵà¶ļ à·ıà·Ģà¶ļà·Ĭ
Ġ >
Ġà¶´ à¶§à·Ķ
Ġà¶ī à¶Ł
à¶»à·Ĭ à¶Ńà·Ķ
Ġà¶±à·Ĳà·Ħà·Ĳ à¶ºà·Ĵ
à¶ī à¶¯à¶ľà¶±à·Ĭà¶±
Ġà¶¸à·Ĳ à·ĥà·ļà¶¢à·Ĭ
à¶¸à·Ĭà¶¶ à·Ķ
Ġà¶Ńà¶» à¶¸
m ark
à¶ħ à¶´à·ı
Ġà¶ļà·ľà·Ħà·ļ à·Ħà¶»à·Ĵ
Ġà¶´à·Ļà¶±à·Ĭ à·Ģà¶±
Ġà¶»à¶¢ à¶ºà¶§
Ġà¶Ńà·ľ à¶§à·Ķ
Ġà¶Ĩà¶»à¶¸à·Ĭà¶· à¶º
Ġà¶ĩà¶Ł à¶§
à·ĥà¶Ńà·Ķ à¶§à·Ĵà¶±à·Ĭ
b r
Ġà¶ ĸ
à¶± à·ıà·Ģà·Ĵ
Ġà¶ļà·Ĳ à¶´à·Ĵà¶§à¶½à·Ĭ
à·ĥà·Ļ à¶ºà·Ĵ
à·ĥà·Ħ à·Ŀ
Ġà¶¸à¶ľà·Ķ à¶½à¶ºà·Ĵ
Ġà¶ħà¶´à¶»à·ıà¶° à¶ļà·ıà¶»à¶ºà·Ļà¶ļà·Ĭ
Ġà¶»à·Ĳà¶³ à·ĵ
3 6
à¶ļ à·ĥà·ı
Ġà¶¸ à·ĵà¶¸à·Ĳ
Ġà·Ģ à¶§à·Ĭ
Ġà·Ħà·ľ à¶ºà¶±à·Ĭ
à·Ģà·Ĵ à·Ģà·ĺà¶Ń
à¶¯à·ı à¶ºà·Ĵ
à¶»à·ı à¶¸à·Ĭ
Ġà·ĥà·Ĭ à¶§à·Ŀ
à¶ľà·Ļà¶±à·Ĭ à¶¯
Ġà¶´à·Ĵà¶§ à·Ģà·Ļà¶½à·ı
à¶ħà¶» à¶±à·Ĭ
Ġà¶ļà·ıà¶½ à¶ºà¶§
Ġà·Ģà¶»à·Ĭ à·Ĥ
Ġà·Ģà·Ĳà¶§à·Ķ à¶«à·ı
à¶¢à·Ŀ à¶ºà·Ĵ
Ġà¶ºà·Ļ à¶¯
Ġà¶¸à·ıà¶½à·Ĵ à¶ľà·ıà·Ģ
Ġà¶¸ à·Ģà·Ķ
à¶ľ à·ĺ
à·Ĩ à¶½à·Ĭ
Ġà¶¯à·Ķà¶±à·Ĭà¶± à·Ķ
Ġà¶ļà·Ļà¶±à¶ļà·ļ à·Ģ
Ġà¶ļà·Ĳà¶»à¶ļ à·Ļà¶±à·Ģà·ı
Ġà¶Ķà¶§à·Ķ à¶±à·Ĭà¶±
Ġà¶ļà¶» à¶ļ
Ġà¶Ķ à¶½à·Ĭ
Ġà¶ļà¶½ à¶ļà·Ĭ
Ġà¶½à·Ĵà¶º à¶±à·Ģà·ı
à¶¯à·Ķà¶¸à·Ĭ à¶»à·Ĵà¶º
Ġà·ĥà·Ĵà¶¯à·Ķà·Ģ à·ĵà¶¸à·Ĭ
Ġà¶ĭà¶´à¶±à·Ĭà¶¯à·Ĵ à¶±à¶º
Ġà¶»à·Ķà¶°à·Ĵ à¶»à¶º
Ġà¶»à·ı à¶ļà·ļ
Ġà¶½à·Ļ à·ĥà¶§
à¶±à·Ĵ à·ĥà·Ĭ
Ġà¶» à¶§à·Ĵà¶±à·Ĭ
Ġà¶´à·Ĵ à¶§à·Ĭà¶§
Ġà¶¸à·ıà·Ģ à¶¸
Ġà¶»à¶¢ à¶ºà·Ļà¶±à·Ĭ
Ġà¶±à·Ĵà¶ºà·Ŀ à¶ľà¶º
Ġà¶ħà¶½à·Ĭà¶½ à·ĥà·Ĭ
ic ha
Ġà¶´à·ľà¶» à¶ļà·Ĭ
Ġà·Ģà·Ļ à·ĥà·Ĭà¶§à·Ĭ
à¶Ńà·Ĭà·Ģ à·ĵà¶¸
Ġà¶» à¶Ĥà¶ľ
Ġà¶Ńà¶Ńà·Ĭà·Ģ à¶ºà·ļ
ar ques
Ġà¶īà·Ħ à·ħà¶§
or k
à¶¶à·Ķ à·Ħà·Ķ
Ġà·Ģà·Ľà¶» à·ĥà·Ĭ
à·Ļ à·Ĵ
à¶© à·ľà¶»à¶Ńà·Ĵ
à¶ĩ à¶´à¶½à·Ĭ
Âł à¶Ķà¶ºà·ıà¶§
Ġà¶ļà·Ĵà·Ģà·Ķà·Ģ à¶¯
Ġà¶ļà¶¯à·Ģà·Ķà¶» à¶§
Ġà·ĥà·Ĭà¶®à·ıà·Ģ à¶»
. à¶ħà¶´à·Ĵ
Ġà¶ĳ à¶´
à¶ĳ à¶©à·ĵ
à·Ĥ à¶«à¶ºà¶ļà·Ĭ
à¶ľà·Ĭ à·ĥà·Ĵ
à¶ºà¶±à·Ĭà¶± à¶¸à·Ĭ
à¶ĩà¶Ńà·Ķ à¶½à·ļ
id e
Ġà¶ĭà¶Ńà·Ķà¶¸à·ıà¶« à¶±à·Ĭ
Ġà·Ħà·Ĳà¶ľ à·ĵà¶¸
Ġà·ĥà·Ģà·Ķ à¶Ńà·Ĭà¶Ńà·Ķ
Ġà¶º à¶ļà·Ļà¶ļà·Ĭ
Ġà·Ģà·Ĵ à¶ļà·ıà·ģ
Ġ- -
Ġà·Ħà·Ļ à¶½à·Ģà·Ļà¶±à·Ĭà¶±
à¶ļà·Ļ à·ħ
Ġà¶¸à·Ķà·Ħà·Ķ à¶¯à·ļ
ad y
Ġà¶ĭà¶´à·ı à¶°à·Ĵ
Ġà¶īà¶´ à¶¯à·Ķà¶±
à·Ģà·Ĵà¶¯à·Ķ à¶½à·Ĵ
Ġà¶´ à¶¯à·ı
Ġà¶ļà·ı à¶§à¶Ńà·Ĭ
à·ĥà·ı à¶¸
à¶ļà¶» à·Ĳ
it o
Ġà·Ħà¶»à·Ĵà¶º à¶±à·Ĭà¶±
Ġà·ħà¶Ł à·Ĵà¶±à·Ĭ
Ġà¶´à·ĵ à·ĥà·ı
à¶ĩà¶Ńà·Ķ à·ħà¶§
Ġà¶ļà¶¶à·ı à¶º
Ġà¶¶à·Ħ à¶½à·Ķà¶¸
Ġà¶¸à·Ĵà¶±à·Ĵà·Ħà·Ļ à¶ļà·Ķà¶§
à·Ļ à·ĥà·ı
Ġà¶Ķà¶ºà·ı à¶ľà¶±à·ļ
à¶Ķà¶ºà·ı à¶ľà·Ŀ
à·Ħà·Ĳ à¶»à¶ºà¶ļà·Ĭ
Ġà¶±à·Ĵ à¶ļà¶¸
Ġà¶´à·Ĳ à¶½
Ġà¶ļà¶½ à·Ķà·Ģà¶»
Ġà·Ģà·ĵ à¶¯à·Ķà¶»
Ġà¶ĳà·ħ à·Ĵà¶ºà·Ļ
Ġà¶±à¶ľ à¶»à·ıà¶°à·Ĵà¶´à¶Ńà·Ĵ
à¶ĳà¶ºà·ıà¶½ à¶ľà·Ļ
à¶¶à·ľ à¶±à·Ĭà¶±
Ġà·Ģà·ľ à·Ĥà·Ĵà¶±à·Ĭà¶§à¶±à·Ĭ
Ġà¶»à¶¢à·Ķ à¶ľà·ļ
Ġà¶ħà¶¸à·ıà¶» à·Ķà·Ģà·ļ
à¶©à·Ĵà¶ļ à·ļ
à¶½ à·ľà¶±à·Ĭ
à·ľ à¶§à·Ĭ
à¶ĳ à¶¸à·Ĵà¶½à·Ĵ
à·Ĥ à·Ĵà¶º
à¶»à·ı à¶ºà·Ĵ
Ġà¶ħà¶» à·ĸ
Ġà·Ħà·ľà¶ºà·ı à¶ľà¶±à·ĵ
à¶Ńà¶º à·ľ
Ġà¶Ńà·ļà¶» à·Ļà¶ºà·Ĵ
Ġà¶½à·Ĵ à·Ģà·Ĭà·Ģà·ı
Ġà¶ļà¶»à¶½ à¶ºà·Ĵ
Ġà·ĥà¶¸à·ıà¶ľ à¶¸à¶§
Ġà¶´à·Ķà¶½à·Ķà·Ģ à¶±à·Ĭà¶±à·ļ
Ġà¶¯à¶»à·ı à¶ľà·Ļà¶±
à¶±à·Ĵà¶»à·Ĭà¶¸à·ı à¶«à¶º
à¶¸à·Ķ à¶Ńà·Ķ
Ġà¶¸à·ľà¶ļ à·Ļà¶ļà·Ĭ
Ġà¶¸à·Ĳ à·Ĥà·Ĵà¶±à·Ĭ
Ġà·ĥà¶»à·Ĭ à¶ļà·ĥà·Ĭ
à¶ļà¶½à·Ĭ à¶´à¶±à·ı
ĠO F
Ġà¶´à·ıà·ĥ à¶½à¶§
Ġà¶Ĩà¶ºà¶Ń à¶±à¶ºà·ļ
Ġà·Ģà·Ĳà¶©à·Ĵà¶¯ à·Ĵà¶ºà·Ķà¶«à·Ķ
Ġà¶¯ à¶±à·Ļ
Ġà¶¶ à·Ļà¶ļà·Ĭ
Ġà¶¶ à¶ºà·ļ
Ġà¶ļà·Ĵà¶ºà¶±à·Ĭà¶± à¶ºà·Ĵ
Ġà¶¯à¶ļà·Ĭ à·Ģà¶±à·Ĭà¶±à·ļ
Ġà¶´à¶»à·Ĭ à·ĥà·Ĵ
à·ĥà¶Ńà·Ķ à¶§à·Ķ
à¶¶à·Ĵà¶º à·ĥà·Ĭ
à¶±à·Ĵ à¶ļà·Ĭà¶ļ
Ġà¶¸à¶§ à¶±à¶¸à·Ĭ
Ġà¶¸à·Ļà¶ºà·ı à¶½à·Ģ
Ġà·Ģà·ĸ à¶ºà·ļ
à¶¸à·Ĭà¶´ à·ĵ
à¶ħà¶¯ à·Ħ
Ġà¶ļà·Ĳà¶©à·Ķ à·Ģà·ı
à·ĥà·Ĳ à¶½à·Ĭ
à·Ģà·ı à¶ºà·Ĵ
Ġà¶¶à·Ŀ à¶½à·Ĭ
à¶´ à·ľà¶Ńà·Ĭ
à¶ºà·ı à¶½à·Ķà·Ģ
à¶Ĩ à¶Ńà·Ĭà¶¸
à¶¸à·ļ à¶ļà·ı
à¶§à·Ĭ à¶½à·Ĭ
Ġà¶ħà¶» à¶ľà¶±à·Ĭà¶±à·ļ
à¶ļà·ıà¶» à¶ºà·Ĵ
al onia
à¶ºà·ıà¶± à·Ķà·Ģà¶±à·Ĭ
Ġà¶ħà¶« à¶¯à·Ļà¶±
Ġà·Ħà·Ĳà·ĥà·Ĵà¶» à·Ļà¶±à·Ĭà¶±à·ļ
Ġcom arques
cat alonia
à¶º à·Ħà·Ĭà·Ħà·Ĭ
à·ĥ à·ĵà¶¸à¶ļà·Ĭ
âĢį à·Ģà·Ķ
à¶¶ à·ľà¶»
Ġà¶ļà¶»à¶±à·Ģ à¶±à·ļ
Ġà¶ļà¶´ à¶§à·Ĵ
Ġà¶ļà¶©à·ıà·Ģ à·Ĳ
, à¶¸à¶±à·Ĭ
à¶» à¶Ńà·Ĭà¶Ńà¶»
Ġà¶ļà·Ĭ à·Ĥà¶«
Ġà¶ħà·Ħ à·Ŀ
Ġà¶¯à·Ģà·ĥ à¶ļà·Ĵà¶±à·Ĭ
Ġà¶ľà·ľ à¶±à·Ĭ
à¶¸à·Ĳ à¶»
Ġà¶ķà¶ļ à·Ļà¶±à·Ĭ
Ġà¶´à·Ģà¶Ńà·Ĭ à·Ģà·ıà¶ľà·Ļà¶±
à¶±à¶ľ à¶»à¶º
Ġà¶Ĩà¶Ńà·Ĭ à¶¸à·ıà¶»à·Ĭà¶®
. D
à¶Ń à¶ºà·Ļà¶ļà·Ĭ
à¶´à¶½ à¶¸à·Ķ
19 8
Ġà·Ģà·Ļà¶±à·Ĭà¶± à¶¸
Ġà¶¢ à·Ĳà¶±à¶§à·Ĭ
Âł à¶Ĵà¶ļ
à¶¯à·Ļà¶± à·Ģà¶¯
Ġà¶¯à¶¸ à¶½à·ı
à¶±à·Ģà¶Ńà·Ĭà¶Ń à¶±à·Ģà·ı
Ġà¶Ĭ à¶¢à·Ĵà¶´à·Ĭ
Âł à¶ħà¶´à·Ĵ
à·ĥà·ĵ à¶ºà·ļ
Ġà¶´à·Ĳà¶º à¶ļà·Ĵà¶±à·Ĭ
Ġà¶ĭà¶´à·ı à¶ºà¶ļà·Ĭ
Ġà¶ºà·ľà¶¯à·ı à¶ľà¶±à·Ĭà¶±
Ġà¶ĭ à¶«à·ļ
Ġà¶±à·Ĵ à¶»à·ĸà¶´
à¶³à·Ķ à¶±
à¶¶à·Ĳ à¶»à·Ĵ
Ġà¶¯à·Ķà¶» à¶ºà·Ĵ
à¶´à·Ĵà¶§ à¶´à¶Ńà·Ĭ
Ġà¶Ńà·Ķà·Ģà·ı à¶½à¶ºà·Ĵ
à¶łà·ıà¶»à·Ĭ à¶½à·Ĭà·ĥà·Ĭ
Ġà¶ħà¶±à·Ĵà·Ģà·ıà¶»à·Ĭ à¶ºà¶ºà·Ļà¶±à·Ĭ
à¶´à·ĸ à¶¢à·ı
im bab
imbab we
- à·Ħà·ı
à¶± à·Ĵà¶ºà·ļ
Ġà¶ļà·Ĵà¶º à·Ķ
Ġà¶ĳà¶ļ à·ıà·Ģ
à¶¯à·Ĵ à¶»à·Ĵ
Ġà¶ĳà¶ļà·Ĭà¶ļ à¶»à¶ľà·Ļà¶±
Ġà·ĥà·Ĭ à¶ļà·Ĭ
or a
Ġà¶ľà·ļ à¶±
à¶ľà¶Ńà·Ĭà¶Ń à¶¸
Ġw hat
Ġà·Ģà¶¯ à¶ºà¶ļà·Ĭ
Ġà¶¯à¶»à·Ĭà·ģ à¶±à¶ºà¶ļà·Ĭ
Ġà¶´à·Ĳà¶» à¶¯à·Ķà¶±à·ı
Ġà¶»à·Ĵà¶º à¶¯à·Ķà¶»à·ı
Ġà¶ħà¶´à·Ħà·ĥà·Ķ à¶Ńà·ıà·Ģà¶ºà¶§
Ġà¶ħà·Ģà¶¯à·ı à¶±à¶º
à·ĥà·Ĭà¶´ à·Ļà¶ļà·Ĭà¶§à¶»à·Ĭ
à¶½à·Ļà¶ļà·Ĭà·ĥà·Ĳà¶±à·Ĭ à¶©à¶»à·Ĭ
à¶´ à¶½à·Ĵ
à¶© à·ľà¶±à·Ĭ
à·ľà¶ļ à·ĵ
à¶¯à·ı à¶¸
à¶»à·ı à·ĥà·Ĭ
Ġt ime
Ġà¶´à·Ļ à¶§à·Ĭ
Ġà·Ģà·Ĵà¶¯à·Ĵà·Ħà¶§ à¶ºà·Ĵ
Ġà¶ĭà¶± à¶±à·Ĭà¶¯à·Ķà·Ģà¶ļà·Ĭ
à·Ģà·Ķà¶±à·ı à¶¸
Ġà·Ħà·ļà¶Ńà·Ķà·Ģ à¶ļà¶§
Ġà¶ħà¶»à·Ĭ à¶°
*** čĊ
à¶ľà·ŀ à¶»à·Ģ
Ġà¶©à·ľà¶ļà·Ĭ à¶§
à·Ļ à¶¯
Ġà¶¶ à¶½à·Ĭ
Ġà¶¸à¶± à·ĥà·ļ
Ġà·ĥà¶¶à·Ĭ à¶¸à·Ĳ
Ġà¶´à·Ĵà¶łà·Ĭà¶łà·Ĵ à¶½à·ı
Ġà¶ĳà¶ºà·ı à¶¯
Ġà¶ĩà·Ħà·Ĳ à¶ľà·Ħà¶ľà·Ļà¶±
Ġà·ĥà¶¯ à·Ħà¶±à·Ĭ
à¶±à·ĵ à¶±à·ı
Ġà¶½à·Ĵ à¶´à·Ĵà¶ºà¶ļà·Ĭ
O N
Ġà¶´à·ı à¶»à·Ĭà¶ļà·Ĭ
icha el
Ġà·Ħà·Ŀà¶§ à¶½à¶º
à·Ļà¶±à·Ĭà¶¯ à¶»à·Ĭ
Ġà¶´à·Ķà¶¯à·Ĭà¶ľà¶½à·Ĵà¶ļ à·Ģ
Ġà¶ļà·ĳ à¶¯à¶»
Ġà¶¯à·Ŀà·Ĥ à¶ºà¶ļà·Ĭ
à·Ħà·Ĵ à¶½à·Ĭ
à¶¢à·ĵà·Ģà·Ĵ à¶Ń
à¶Ńà·ľ à¶´à·Ĵ
à¶ĭà¶¯à·ı à·Ħà¶»
à¶½à·ı à·Ģà¶ļà·Ĭ
à¶Ķà¶ºà·ı à·Ģà¶Ńà·Ĭ
à¶ĩà¶Ńà·Ĭà¶Ń à¶¯
à¶Ķà¶º à¶ľà·ľà¶½à·Ĭà¶½à·Ŀ
Ġà¶¶à·ı à¶¶à·ı
Ġà¶ľà·Ļà¶±à·Ĵà¶º à¶±à·Ĭà¶±à¶¸à·Ĭ
à¶¸à·Ļà·Ħà·Ļ à¶ºà·Ķà¶¸
à¶´à·Ĵà¶±à·Ĭ à¶Ńà·ĸ
à¶Ńà·ı à¶Ńà·Ĭ
à·Ħà·ľ à¶ºà·ı
Ġà·Ħà·Ĵà¶Ń à¶¸à·Ĵà¶±à·Ĭ
Ġà¶¯à·Ĵà¶± à¶±à·Ģà·ı
Ġà¶ħà¶Ĥ à¶¢à¶½à·ĵ
Ġpro per
à¶«à·Ĭ à¶±
Ġà¶ĳà¶± à¶ľà¶¸à¶±à·Ĭ
Ġà¶¸à·Ĳà¶»à·Ķ à¶±à·ľà¶Ńà·Ĭ
ing s
à¶» à¶¢à·Ķ
Ġà¶¸ à¶±à·Ĵ
à·Ģà·ı à¶§
Ġà¶ļà¶» à¶Ńà·Ĭà¶Ń
Ġà¶ī à·ĥ
à·ģ à¶ºà¶ļà·Ĭ
à¶±à¶ºà·ļ à¶¯à·Ĵ
Ġà·Ģà·Ĵà¶¯à·Ĵà¶º à¶ļ
ĠN A
à¶ħà·Ģ à¶°à·ıà¶±à¶º
Ġre g
ul es
Ġà·Ħà·ĥà·Ķ à¶»à·Ķà·Ģ
l p
à¶Ĵ à·Ģà¶ľà·ļ
Ġà¶Ĵà¶ļ à¶¸à¶ºà·Ĵ
à¶±à·Ĵ à¶Ńà¶»
Ġà¶ĩà¶Ńà·Ķà·ħ à¶Ń
à¶ķà¶±à·ĳ à¶¸
b ert
Ġà¶Ń à·ĺ
Ġà·ĥ à¶·à·ıà·Ģ
Ġà¶¶ à·Ļà¶±à¶§à·Ĭ
Ġà¶Ĵ à¶ºà·ı
à¶ħ à·ģà·Ĭ
à¶ħ à·ĥà¶»
Ġà¶ļà·Ĵ à·ĥà·Ĵà¶ºà¶¸à·Ĭ
Ġà¶¶à·Ĳ à¶ľà·Ĵà¶±à·Ĭ
Ġà¶±à·ľ à·Ħà·Ĵ
Ġà·ĥà·Ļ à·Ģà·Ķà¶¸à·Ĭ
Ġs e
à¶¶à·ľ à¶¶à·ĵ
Ġà¶´à·Ļà¶±à·Ķ à¶±à·ļ
Ġà¶»à·Ĵà¶º à¶¯à·Ķà¶»à·Ķ
à¶´à·Ĳà¶± à¶½à·ı
Ġà¶ħà¶»à·Ķ à·ģà·Ĭ
à¶± à¶ļ
Ġà¶¸ à·Ķà·Ģ
à¶ºà·ı à¶±à·ı
Ġà¶ī à¶ľà·Ĵ
Ġà¶½ à·ľà¶»
Ġà¶¯à·Ķ à¶ļà·Ĵà¶±à·Ĭ
Ġà¶´à·ı à¶½à·Ķà¶ºà·Ĵ
à¶¯à·Ļ à·Ģà·Ĭà·Ģà·ı
Ġà·Ģà¶½ à¶Ĥà¶ľà·Ķ
Ġà¶ĳà¶ļà¶§ à¶¯
à¶¶à·Ĭ à¶¢à·Ĵ
à¶Ĥà¶ľ à·Ķà·Ģà·ļ
Ġà·Ģà·Ĵà·ģà·ļà·Ĥ à¶¥à¶ºà·Ļà¶ļà·Ĭ
Ġà¶»à·ıà¶¢ à¶°à·ıà¶±
Ġà¶īà¶±à·Ĭà¶¯à·Ĵà¶ºà·ı à·Ģà¶§
Ġà¶ħà¶´à·Ħà·ĥà·Ķ à¶ºà·Ĵ
à¶´à¶¯à·Ĭà¶° à¶Ńà·Ĵ
2 9
à·Ģ à¶±à¶º
à·Ħ à¶ļ
Ġà·Ģà·Ļà¶±à·Ģà·ı à¶¯
Ġ( %
Ġà¶¯à·Ķà¶»à¶ļ à¶Ńà¶±à¶º
Ġà¶¸à·Ĵà¶±à·Ĵà·ĥà·Ķà¶±à·Ĭ à¶ľà·ļ
à¶¶à¶½à·ıà¶´à·ľà¶»à·ľ à¶Ńà·Ĭà¶Ńà·Ķ
âĢį à¶±à·ĵ
à¶ĳ à¶½à·Ĵ
à·Ģà·Ĵà¶º à¶§à·Ĭ
Ġà¶¯à·Ģà·ĥ à¶ļà¶¸
Ġà¶´à·ĵ à¶©à·ı
ro do
à¶ħà¶± à¶Ńà·Ķà¶»
Ġà·ĥà·Ĳà¶» à·ĥà·Ĵ
Ġà·Ģà·Ĵà·ģà·Ĭà¶½à·ļ à·Ĥà¶«à¶º
Ġà·Ħà·Ĳà¶Ńà·Ĳ à¶´à·Ĭà¶¸
Ġà¶ĳ à·Ģ
Ġà¶´ à¶±à·Ĭà¶Ńà·Ĵ
à¶¯à·Ķ à¶±à·Ĭ
Ġà¶ł à·Ĳà¶±
Ġà¶Ń à·Ļà¶Ńà·Ĭ
Ġà·Ģà·Ĳà¶© à·Ģà¶½à¶§
à¶ī à¶±à·Ĭà·ĥà·Ĭ
à¶¸à¶±à·Ĭ à¶§à·Ĭ
à¶· à¶ºà·ıà¶±à¶ļ
à¶´à¶»à·Ĭ à¶©à·Ĭ
Ġà¶´à·Ķà¶½à·Ķà·Ģ à¶¸à·Ĭ
à¶¶à·ļà¶» à¶ľà¶±à·Ĭà¶±
à¶īà¶±à·Ĭà·ĥà·Ĭ à¶´
Ġà¶ĭ à¶»à·ı
Ġà¶Ńà·Ķ à¶±à·ļ
Ġà¶ħà¶ľ à¶¸à·Ĳà¶Ńà·Ĵ
Ġà¶´à·Ŀ à¶½à·Ĭ
Ġà·Ģà·Ĳ à¶¯à·Ķà¶±
à·Ģà·Ļ à¶¸à·Ĵà¶±à·Ĭ
Ġg roup
Ġà¶ºà·ıà·Ģà¶Ńà·Ĭ à¶ļà·ıà¶½à·ĵà¶±
Ġà¶¯à·ļ à¶ļà·Ĵà¶±à·Ĭ
à¶¸à¶±à·Ĭ à¶¯
Ġà¶ĳà¶ºà·ıà¶§ à¶Ńà·Ĭ
à¶Ķà·Ģà·Ķà¶±à·Ĭ à¶ľà·Ļ
Ġà¶´à·Ĵà·ħà·Ĵà¶ľà¶±à·Ĭà¶± à·Ģ
J ohn
à¶ħ à¶°à·Ĭ
à·Ģà·Ĵ à·ĥ
Ġà·ĥà¶¸à·Ĭ à¶¸à¶Ń
à¶Ĩà¶» à¶ļà·Ĭà·ģ
Ġà¶¸à·Ĵà¶±à·ĵà¶¸ à¶»à·Ķà·Ģà·ı
Ġà¶ĭà¶Ńà·Ĭà·ĥà·Ģ à¶ºà¶ļà·Ĭ
Ġà¶ľà·Ĵà¶±à·Ĭà¶± à¶ļà·Ĭ
à¶» à·Ķà·Ģà·Ļà¶±à·Ĭ
Ġà¶ħà·Ħ à¶±à·Ģ
Ġà¶ºà·Ķ à¶¯
Ġà·Ģà·Ĳà¶» à·Ĳ
Ġà·ĥà·Ħà·Ŀà¶¯à¶» à¶ºà¶§
à¶¸à·ľà¶±à·Ģ à¶ľà·ļ
à·ģà¶ļà·Ĭ à¶Ńà·Ĵà¶¸à¶Ńà·Ĭ
Ġà¶ħà¶ľà¶±à·Ķà·Ģ à¶»
Ġà¶ļà¶» à·Ģà¶±
Ġà¶¸à·Ļà¶Ńà¶± à¶¯à·Ĵ
or g
Ġà¶´à·Ħ à¶½à·Ĵà¶±à·Ĭ
Ġà¶¶à·Ķ à¶»à·Ķ
Ġà¶¶à·ıà¶° à·ıà·Ģà¶ļà·Ĭ
à·Ģà·ıà¶©à·Ĵ à·Ģà·Ļà¶±à·Ĭà¶±
ask a
Ġà¶īà¶ļà·Ĭà¶¸ à·Ģà·ı
Ġà¶ļà·Ķà¶Ńà·Ķ à·Ħ
P oss
Ġà¶ĩ à¶¸à·ĵ
Ġà¶ħà¶» à·Ļ
Ġà·ĥà¶½à·Ĭà¶½à·Ĵ à¶Ńà·Ĭ
ol l
Ġà¶±à·Ĳà¶ľà·Ĵ à¶§à·Ĵà¶±à·Ģà·ı
Ġà¶ĳà¶ļà·Ĵà¶±à·Ļ à¶ļà·ıà·Ģ
ess ive
Poss essive
, à¶¸à·ľà¶ļà¶¯
Ġà·Ģ à·ģà·ĵ
à¶ħ à¶¯à·Ĵà¶±à·Ĭà¶±
Ġà¶¸à·ľà¶ļ à·ıà¶¯
Ġà·Ģà·Ļà¶½à·ı à·Ģà¶½à·Ĭ
à·ħà·Ķ à¶¸à·Ĭ
à¶Ńà¶ļ à·Ĵà¶±à·Ĭ
à·Ģà·Ļà¶± à·Ģà¶¯
à¶ľà·Ĳ à¶Ńà·Ĵ
Ġà¶»à·Ĵ à¶¯à·ĵ
Ġà·ĥà¶§ à¶±à¶§
Ġà¶±à¶Ĥà¶ľà·Ĵ à¶ľà·ļ
Ġà¶¢à¶±à·ıà¶°à·Ĵà¶´à¶Ńà·Ĵ à¶Ńà·Ķà¶¸à·ı
ation al
ĠAl bert
Ġà¶¶à·Ĳà¶¯ à¶´à·Ķ
à¶¶à·Ķà¶¯à·Ĭà¶° à·Ĵ
i ent
âĢį à·ĥà·ı
Ġà¶±à·Ĳ à·Ģà·Ķà¶¸à·Ĭ
Ġà¶§ à·ıà¶»à·Ĭ
à¶ļà·Ķ à¶±à·Ĭ
Ġà¶¸à¶Ĥ à¶ľà¶½
Ġà¶Ĩà¶»à¶ļà·Ĭà·Ĥ à¶ļà¶ºà·Ļà¶ļà·Ĭ
Ġà¶¸à·ľà¶± à¶¸
Ġà·ĥà·Ļà¶½à·Ĭà¶½ à¶¸à¶§
à¶¶à·ĳ à¶ľà·Ĭ
Ġà¶ļà·Ĵà¶»à·Ĵ à¶¸à¶ļà·Ĭ
Ġà¶« à¶ºà¶§
à·ĥà¶½ à¶ļà·Ķà¶«à·Ķ
Ġà¶ħà¶´à·ı à¶º
Ġà·Ħà·Ĵà¶»à·Ĵ à·Ħà·Ĳà¶»à¶ºà¶ļà·Ĭ
, à¶Ķà·Ģà·Ĭ
n ow
Ġà¶¯ à·Ļà¶±à·Ĭ
Ġà¶¶ à·Ģà¶Ńà·Ĭ
à¶»à·Ĭ à·Ĥà·Ĭ
à¶Ķ à·Ħà·ľà¶¸à¶¸
Ġà¶ħà·Ģ à¶Ńà·ıà¶»
Ġà·Ģà¶½ à¶Ńà·Ĭ
Ġà·ĥà·Ķ à¶¯à·Ĭà¶°
Ġà¶¯à·Ķà·Ģ à·Ļà¶ļà·Ĭ
à¶´à·ĺ à¶®à·Ĵ
Ġà¶´à·Ĵà·Ģà·Ĵ à·ĥà·Ķà¶¸à·Ĭ
à¶´à¶«à·Ĵà·Ģà·Ĵ à¶©
Ġdist ric
Ġà¶ħà¶ºà·Ĵà¶Ńà·Ĵà·Ģà·ıà·ĥà·Ĵ à¶ļà¶¸à·Ĭ
Ġà·Ģ à¶Ĥà¶ļ
à·Ģà·Ĵ à¶½
à¶ļà¶» à¶±à¶º
à¶ļà·Ķ à·ĥà·Ĭà·ĥ
à¶¸à·Ļà¶ºà·ı à¶½
Ġà¶ħà¶ľ à·Ģà¶±à·Ĭà¶±
Ġà¶¶à¶½à·Ĭà¶½ à·Ģ
Ġà·Ĩà·Ļ à¶©à¶»à¶½à·Ĭ
Ġà·Ģà·Ĵà·ĥà¶³ à¶ľà¶±à·Ĭà¶±
Ġà¶ļà·Ĳà¶» à¶ļà·Ĵ
AN SL
ĠTR ANSL
ATO RS
ĠTRANSL ATORS
à¶º à·ĸ
à¶Ńà·Ķ à¶±à¶ºà·Ĵ
à¶¸à·ı à¶°à·ıà¶»
Ġà¶¶à·ľ à¶±à·Ģà¶¯
Ġà·ĥà·Ļà¶½à·Ĭà¶½ à¶Ĥ
à¶±à·Ķà·Ģ à·ľ
Ġd is
Ġà¶¢à·Ŀ à¶ºà·Ĵ
à¶ļà·Ģà·Ķ à¶»à·Ĳ
Ġà¶±à·Ĵà¶½à·Ĭ à¶´à·ıà¶§
à¶ļ à·ĥà·ıà¶¯
Ġà¶ĳ à·Ģà·Ĵà¶§
Ġà¶´à·Ģà·Ķà¶½ à¶¸
Ġà·ĥà·Ĳà·Ħà·Ĳ à¶½à·Ĭà¶½à·Ķ
Ġà¶¶à·ıà¶Ńà·Ĭ à¶»à·ĸà¶¸à·Ĭ
à¶´à¶»à·Ĵà·Ģà¶»à·Ĭ à¶Ńà¶±à¶º
Ġà·Ģ à¶Ńà·Ĭà¶Ń
à¶ĳ à¶±
Ġà¶ļà·ĵ à¶´à¶ºà¶ļà·Ĵà¶±à·Ĭ
à·ĥ à·ļà¶»
Ġà·Ħà¶¸à·Ĭà¶¶ à·Ļà¶½à·ı
à¶½à·Ĵ à¶ºà·ıà·Ģ
Ġà¶ľ à·ĵà¶Ńà¶º
Ġà·ģ à·Ĳà¶±à·ľà¶±à·Ĭ
Ġà¶¶à·Ĳà¶»à·Ĵ à·Ģ
Ġà¶©à¶ºà·Ĵà¶± à·ĥà·Ŀ
à¶ľà·Ĭ à¶½à·Ĵ
Ġà¶´à¶±à·Ĵ à¶±à·Ģà·ı
Ġà¶¸à·Ļà·Ħà·Ĵ à¶¯à·ĵ
Ġà¶´à¶® à¶º
Ġà·ĥà·Ĵà¶±à·Ĭà¶¯ à·Ķà·Ģ
Ġà¶ľà·ıà¶º à¶±à·ı
à·Ĭ à¶ļ
Ġà¶ħ à·ĥà·Ķ
Ġà¶ļà¶» à¶ľà¶¸à·Ķ
à¶« à·Ĵà¶ºà·ļ
à¶Ĵ à¶ºà·ı
Ġà·ĥà·Ĭ à¶ļà·ĸ
à¶±à·Ĳ à·Ģ
Ġà¶½à·Ĳà¶¶ à·ļ
à¶½à·Ĵà¶º à·Ļà¶±à·Ĭ
à·Ĵà¶ºà·Ŀ à¶±à·Ĭ
Ġà·ģà·Ŀ à·Ģà·Ĭ
à¶±à·Ĭ à·ĥ
Ġà¶ľ à·ĥà·Ĭà·ĥà¶±à·Ĭà¶±
âĢį à¶½à·ļ
Ġà¶»à·Ĳ à¶¯à·ĵ
Ġà¶ħà¶Ł à·Ģà¶±à·Ĭà¶±
Ġed u
à·Ħ à¶»à·Ķà·Ģà·ı
Ġà¶ľ à·ĸ
âĢįà¶» à·ĳ
à·Ģà¶» à·Ĵà¶ºà¶ļà·Ĭ
Ġà¶¯à·Ģà·ĥ à·Ļà¶¸
Ġà¶±à·ĵ à¶±à·ı
Ġà¶´à·ħ à¶½
à·Ŀà¶¢ à¶±à¶º
Ġà¶´à·ıà¶§ à¶§
Ġà¶ĭà¶«à·Ķ à·ĥà·Ķà¶¸
à¶¯ à·ıà¶»
à·Ĥ à·Ĵà¶ļ
Ġà¶¸à·Ĵ à¶Ńà·Ķà¶»à·ı
Ġà¶ļà¶© à¶±à·Ģà·ı
Ġà¶¯à·Ĵà¶º à¶±à·Ĭ
Ġà¶¸à¶½à·Ĭà¶½ à·ĵ
Ġà¶»à¶³ à·ı
Ġà¶ĩ à¶±à·Ĭà¶¯
Ġà·Ģà·Ĳà¶© à·ĵ
Ġà¶½à·Ĳ à¶´à·Ĭà¶§à·ľà¶´à·Ĭ
à¶½à·Ŀ à¶ļà¶ºà¶ļà·Ĭ
Ġà¶Ńà·Ķ à¶±à¶§
Ġà¶ļà·ĳ à¶ľ
at h
Ġà¶»à·Ĳ à·Ģà·Ĳ
Ġà¶ľà·Ķ à¶«
Ġà·Ģà·Ĵà¶ļà·ıà¶» à¶ºà¶ļà·Ĭà¶¯
à¶Ĭà·ħà¶Ł à¶§
à¶Ńà·Ķà·Ģà·ı à¶½
ĠAlbert a
, à¶¸à·ļà¶ļ
O k
Ġà¶ļ à·Ģ
à¶¸à·Ĭ à¶¸à¶ļà·Ĭ
à¶ī à¶¸à·Ĭà¶¸à·Ĵ
Ġà¶ĭà¶¹ à¶½
Ġk ey
Ġà¶±à·Ģà¶Ńà·Ĭà¶Ń à¶±à·Ĭà¶±à·ļ
Ġà¶¸à¶Ł à·Ĵà¶±à·Ĭ
Ġà·ĥà¶±à·Ĭ à·ĥà·Ķà¶±à·Ĭà·Ģ
indow s
à¶¶à¶§ à·Ħà·Ĵà¶»
Ġà·Ļà·Ħà·ıà¶¯ à·Ĵà¶±à·Ĭ
à·Ķà·Ģ à·Ļà¶±à·Ĭà¶±
à¶Ńà·Ķ à¶¸à·ıà·Ģ
à·ĥà·Ĵ à·ĥà·Ĭà¶ļà·Ŀ
Ġà¶ļà·Ĳ à¶Ńà¶ºà·Ĵ
Ġà¶¶à·Ĳ à·Ģà·Ĵà¶±à·Ĭ
Ġ" %
Ġà¶¶à·ı à·Ħà·Ķ
Ġà·Ħà¶¯à¶±à·Ĭà¶± à¶¸à·Ĭ
Ġà¶ľà¶« à¶±à·ıà·Ģà¶ļà·Ĭ
Ġh as
à·ĥà·Ĭà·Ģ à·ľ
Ġà¶´à·Ĭà¶½ à·ĳà¶±à·Ĭ
Ġà·Ģà·ħ à¶ļà·Ĭ
Ġà¶ĭà¶Ńà·Ĭà·ĥà·Ģ à¶ºà¶§
Ġà¶±à¶ľà·Ĵ à¶±à·Ģà·ı
Ġà¶Ĩà·ĥà·ıà¶¯ à¶±à¶º
à¶©à·Ĵà¶ļà·ļ à¶§à·Ĭ
Ġà¶ħ à¶Ńà·Ĭà·Ģ
à¶Ńà·Ĵ à¶¸
Ġà¶ħà·Ģ à¶¢à·ıà¶Ńà¶ļ
Ġà¶ļà·Ķ à¶§à·ĵ
à¶ļà¶º à¶±à·Ĭà¶ľà·ļ
Ġà¶ĳà¶ļà¶Ńà·Ķà·Ģ à·Ļà¶±à·Ĭà¶±
Ġà¶ĩà¶±à·Ĭà¶¢ à¶½à·Ĵà·ĥà·Ĭ
Ġà¶ļà·Ģà·Ķà¶±à·Ĭ à·ĥà·Ĵ
Ġdistric ts
Ġà¶´ à¶¯à·Ĭà¶¯
âĢį à¶¯à·Ķ
Ġà¶º à¶¸
à¶ľà·Ļ à·Ģà¶½à·Ĭ
Ġà¶´à·Ĭ à¶½à·ıà·ĥà·Ĭà¶§à·Ĵà¶ļà·Ĭ
à·ĥà·Ķ à·ħà·Ķ
Ġà·ĥà·ı à¶´à·Ĭà¶´
à·Ħà·Ĵà¶Ń à¶±à·Ģà·ı
Ġf rom
Ġà¶±à·Ĳà·Ħà·Ĳà¶± à·Ļ
Ġà¶±à·Ĵà·ħà¶°à·ıà¶» à·Ĵà¶ºà·Ļà¶ļà·Ĭ
Ġà¶¶à¶½à¶ļà·ı à¶º
Ġà¶ĭà·Ĥà·Ĭà¶« à¶Ńà·Ĭà·Ģà¶º
Ġà·ĥà·Ĳà¶±à·Ĭà¶¯à·ĳ à·Ģà¶ļà·Ĭ
à¶½à·Ĭ à¶ļà¶»à·Ĭ
Ġà·Ħà¶¸à·Ĭà¶¶ à·Ļà¶¸à·Ķ
ĠS outh
Ġà¶©à·Ĳà¶±à·Ĵà¶º à¶½à·Ĭ
à·Ģà·Ļà¶± à·Ĵà¶ºà¶§
Ġà¶´à·ļà¶±à·Ģ à¶±à·ļ
Ġà¶¶à·Ĵà·ĥà·Ĭ à¶ļà¶§à·Ĭ
Ġà¶¡à¶±à·Ĭà¶¯ à¶º
Ġà¶´à·Ļà¶±à·Ĭ à·Ģà¶ºà·Ĵ
à¶ļà·Ĵà·ĥà·Ĵ à·Ģà¶ļà·Ĭ
à¶¢ à·Ļà¶±à·Ĭà¶¯à¶»à·Ĭ
Ġà¶ļà·ıà¶±à·Ĭà¶Ńà·ıà·Ģ à¶±à·Ĭ
Ġà¶´à·ĸà¶¢ à¶ļ
Ġhe art
Ġà¶ħà¶½à·Ĭà¶½ à¶½
r of
à¶ļà·Ļ à·ĥà·ļ
à¶´à·ľ à¶Ńà·Ķ
Ġà¶ľà·ı à·ĥà·Ĭà¶Ńà·Ķà·Ģ
à¶Ŀ à·Ĭ
- à¶¸à·ľà¶ļà¶¯à·Ĭà¶¯
Ġà¶Į à¶±à·Ĭ
Ġà·Ģà·Ĵà¶°à·ı à¶ºà¶ļ
C op
Ġà¶¸ à¶°à·Ķ
à¶¸à·ı à·ħà·Ķ
à¶¢ à·Ĳà¶±à¶§à·Ĭ
Ġà¶±à·Ĵ à·Ģà·Ķ
Ġà¶ļà·ħà·ı à¶¸
Ġà¶±à·Ģà¶Ńà·Ĭà¶Ń à¶´à¶±à·Ĭ
Ġà¶ĭà·ĥà·ıà·Ģ à·Ĵà¶ºà¶§
Ġproper ly
à¶ļà·ļ à¶§
Ġà¶ļà·ıà¶» à¶«à·ļ
à·ľà¶±à·Ĭ à¶ľà·Ĭ
Ġà¶ĩà¶±à·Ĭ à¶©à·Ĵ
Ġtransl ator
Ġr ules
Ġà¶±à·Ĳà¶§à·Ķ à¶¸
Ġà¶ħà¶¸à¶Ńà¶» à·Ģ
à¶ļà·Ĭà¶½à·Ļ à¶ºà¶»à·Ĭ
Ġà·ĥ à¶¶à¶³
Ġà¶½ à·Ģà·ı
Ġà·Ħà·Ĵ à¶§à¶±à·Ĭ
à¶±à·Ķ à·Ģà·ı
à¶ļà·ļ à¶Ńà¶º
ĠS haw
Ġà·Ħà·Ĵà¶» à·Ļà¶±à·Ĭ
Ġà¶·à·ı à¶¢à¶±à¶º
Ġà¶ķà¶±à·ĳ à·Ģà¶§
Ġà¶¸à¶ļ à¶¶à·ĳ
Ġà¶ļà·Ĭà·Ĥà¶« à·Ĵà¶ļ
à¶Ń à·Ħ
à·Ĩ à·Ķà·Ģà¶»à·Ĭ
Ġà¶¶à·Ĭ à¶½à·ļ
Ġà¶ļà·Ķà¶»à·Ķ à¶½à·Ĭà¶½à·ľ
Ġà¶ħà¶Ńà·ıà¶»à·Ĵ à¶±à·Ģà·ı
à¶» à¶±
à¶» à·Ļà¶ºà·Ĵ
Ġà·Ģ à¶±à·ıà¶±à·Ĭà¶Ńà¶»
Ġà¶¯à·Ļ à¶ºà·Ĵà¶º
Ġà¶ļà·Ļ à¶»à·Ļà¶±à·Ĭà¶±
Ġà¶±à·ı à¶ľ
ĠM I
à¶Ķà¶ºà·ıà¶½ à·Ģ
et h
Ġà¶±à¶§ à¶±
à¶ļà·ľà·Ħà·Ļ à¶§à¶¯
Ġà¶»à¶ºà·Ĵ à¶½à·Ĵ
Ġà·Ģà·Ĳà¶©à¶Ń à¶½à¶ºà¶§
Ġà·ĥà¶ļà·ĥ à·Ķà·Ģà·ļ
à¶łà·Ĭà¶łà·Ĭ à¶»
Ġà¶¶ à·Ĵà¶±à·Ĭ
Ġà¶´à·Ĳ à·Ģà¶»à·Ķ
à¶±à·Ģ à¶½
à¶ļà·Ĵ à¶¸à·Ĭ
à¶ĭ à¶´à·ı
Ġà¶Ńà·ı à¶Ńà·Ĭ
à¶ķ à·Ģà·Ĭ
à¶¢à·Ŀ à¶»à·Ĭà¶¢à·Ĭ
Ġà¶ļà·ıà·ħ à¶ºà¶ļà·Ĭ
à¶¸ à·Ħà·Ļ
à¶Ķ à¶½à·Ķà·Ģ
Ġà¶¶à¶½à·ı à¶ľà¶Ńà·Ĭà¶Ńà·ı
Ġà¶½à¶ľ à¶¸
Ġà·Ģà·Ĵà¶±à·ıà·ģ à¶ºà¶ļà·Ĭ
Ġà¶ħà¶© à¶±à·Ĭà¶±
Ġà¶½à·Ĵà¶´à·Ĵ à¶ľà·ľà¶±à·Ķ
Ġà¶ħà¶±à·ıà¶ľ à¶Ńà·ļ
Ġà¶ľà¶¸ à¶±à·ļ
à¶½à·Ĵà¶´à·Ĵ à¶±à¶º
Ġà·ĥà·ľà¶½à·Ĭà¶¯à·ıà¶¯à·Ķà·Ģ à·Ļà¶ļà·Ĭ
Ġà¶´à·Ķ à¶»à·ıà·Ģà·ĺ
Ġà¶´à·ı à·ĥà¶½
Ġà·ĥà·Ħà·Ŀà¶¯à¶» à¶ºà·Ŀ
Ġp re
Ġà¶±à·Ĳà·Ģ à¶Ńà·Ķà¶¸
Ġà¶±à·Ĳà·Ģà·Ĳ à¶Ńà·Ĭà¶Ńà·Ķà·Ģ
Ġà¶ĳà¶±à·Ĭà¶¢à·Ĵ à¶¸
â ĺ
Ġà¶ļà·Ĳ à¶¯
à¶©à·Ĵ à¶½à¶±à·Ĭ
à¶©à·Ĭ à¶½à·Ĭ
Ġà¶ĳà·Ħà·Ļà¶¸ à¶±à·ļ
ĠK ing
Ġà¶¶à·Ĵà¶½à·Ĭ à¶©à·Ĵ
Ġà¶ĳà¶ļà·Ĭà¶ļ à·Ģà¶Ńà·Ĭ
Ġà¶¸à·Ļà·Ħà·Ļ à¶¸à¶ºà·Ĵ
à¶ºà¶±à·Ĭ à¶ľà·Ļ
Ġà·Ħà·Ĳà¶¸à¶¯à·ı à¶¸à¶Ńà·Ĭ
Ġà¶Ńà¶» à¶«à¶º
Ġà¶±à·Ĵà¶º à¶¸à·Ĵ
à¶Ńà·ıà¶Ńà·Ĭà¶Ń à¶§
Ġà¶´à·ŀà¶¯à·Ĭà¶ľà¶½à·Ĵà¶ļ à·Ģ
d er
à¶ĳ à¶Ńà·Ĳà¶±
Ġà¶Ĩ à¶ļà¶»
Ġà¶ħà·Ģ à¶±à¶Ń
Ġà¶½à·Ĳ à¶ºà·Ĵà·ĥà·Ĭà¶Ńà·Ķ
Ġà¶ľà·Ķà·Ģà¶±à·Ĭ à¶Ńà·ľ
Ġà¶Ŀà·ı à¶Ńà¶±
à¶ħà¶Ĥ à¶¢à¶½à·ĵ
ĠC olum
Ġà¶½à¶ľ à¶ºà·Ĵ
à·Ħà·Ĵà¶Ń à¶±à·Ĭà¶±à·ļ
Ġw as
Ġà¶ħà¶¯à·Ĭ à·ĥà¶»à·Ĭ
à¶ĩ à¶§
à¶ĩ à¶½à·Ĵ
Ġà¶ľà·ı à¶©à·Ĭ
Ġà·ĥà·Ĳà¶ļ à·ĥà·Ĵà¶º
Ġà·Ħà·Ĳà¶» à·Ģà·ĵà¶¸à¶§
Ġà¶ľà·Ŀ à¶½à¶º
Ġà·ĥà·ı à¶¸à·Ĭà¶´à·Ĭ
Ġà·ĥà¶¸à·Ĭà¶´ à¶±à·Ĭà¶±
à·Ģà·Ŀ à·Ģà·Ĭ
' ll
) :
- à¶Ķà·Ħà·Ĭ
à¶»à·Ĵ à¶§
à¶¯à·Ļ à¶ļà¶¸
Ġà¶ľà·Ļà¶¯à¶» à¶¯à·Ĵ
Ġà·Ħà·Ŀ à¶¯
Ġk tur
Ġà¶Ĩà·Ģ à¶±à¶¸à·Ĭ
Ġà¶¶à·ļ à¶»à·Ķà¶«à·ı
Ġà·Ħà¶¸à·Ķà·Ģ à·ĵà¶¸à¶ļà·Ĭ
Ġà¶¶à·Ķ à¶±à·Ĭ
à¶ĳà¶Ńà¶± à·Ĵà¶±à·Ĭ
Ġle arn
Ġktur tle
à¶ľ à¶¸à·ļ
à¶»à·Ķ à·ĥà·Ĵà¶ºà·ıà¶±à·Ķ
à¶±à·Ĵ à¶ļà·ľ
à¶ļà¶»à¶±à·Ĭà¶± à¶¸à·Ĭ
Ġà¶ĩà¶¯ à¶ľà¶±à·Ĭà¶±
Ġà¶»à·ĥà·Ĭà·ĥ à·ıà·Ģà·Ļà¶±à·Ĭ
Ġà¶ĩà¶§ à¶ļà¶§à·Ķ
ones ia
à·ĥ à·Ļà¶±à·Ģà·ı
âĢį à¶´à·Ķ
à¶»à·Ĵ à¶¸
à¶Ńà¶» à¶º
à¶½à·ļ à¶§
à¶§à·Ķ à¶¸
Ġà¶ł à¶½à¶±à¶º
à¶ļà·Ŀ à¶§à·Ĵ
à¶ĭà¶¹ à¶Ńà·Ĭ
Ġà·Ħà·Ļ à¶½à·Ĭ
Ġà¶¸à·Ķà¶¯ à·Ģà·ı
Ġà¶´à¶Ńà·Ĭà·Ģ à·Ļà¶±à·Ģà·ı
Ġà¶µà¶½ à¶ļà¶º
Ġà·ĥà·Ķà¶±à·Ĭ à¶¶à·Ķà¶±à·Ĭ
D r
a pp
Ġà¶¯ à¶«à·Ĭà¶©
Ġà¶ľ à¶¯
Ġà·ĥà·Ĭ à¶Ńà·Ķ
à¶¯à·Ļ à¶ļà¶½à·ı
Ġà¶¸à¶» à¶«à¶ºà¶ļà·Ĭ
Ġà¶¸à¶Ń à¶§
Ġà¶ļà¶© à¶ºà¶ļà·Ĭ
Ġà¶ľà·Ķ à¶«à¶ºà¶ļà·Ĭ
Ġà¶ļà·ıà¶½à·Ļ à¶¯à·Ĵ
à¶ĭà¶¯ à·ĳà·ĥ
à¶½à¶Ł à¶¯à·ĵ
Ġà¶Ńà¶¶à·ı à¶ľà¶±à·Ĭà¶±
à¶¯à·Ļà¶ļ à¶ļà·Ĭ
Ġà¶¸à·Ĳà¶¯à·Ĭà¶¯ à·ļ
Ġà¶´à¶´ à·Ķà·Ģà·ļ
Ġà¶»à·ĥà·ıà¶º à¶±à·Ĵà¶ļ
Ġà¶ºà·Ķà¶±à·Ĵ à¶§à·Ĭ
Ġà¶Ĩà¶· à¶»à¶«
z imbabwe
Ġà¶ļ à¶±à¶§
Ġà·ĥ à¶§à¶»à·Ĭ
Ġà¶¶ à·Ĵà¶±à·Ĭà¶¯
à¶»à·Ĵ à·ĥà·Ĵà¶¯à·Ķ
Ġà¶§ à·ĵà¶¸à·Ĭ
Ġà¶ľà·Ĵ à¶½à·Ĭ
à¶ĭà¶¹ à·Ģ
à·ĥà¶¸à·Ħà¶» à·Ģà·Ļà¶½à·ıà·Ģà¶§
à¶¸à·Ĵà¶±à·Ĵ à·Ħà¶§
Ġà·ĥà·ĵ à¶ºà¶§
Ġw hen
Ġà¶¶à¶»à·Ĭ à¶½à·Ĵà¶±à·Ĭ
Ġà¶´à·Ĳà·ħ à¶³
à¶ħà¶¯à·Ĭ à·ĥà¶»à·Ĭ
à·ĥ à¶Ńà·Ķà¶»
Ġà·Ħ à¶©à·Ĭà·ĥà¶±à·Ĭ
Ġà¶ľ à¶¸à¶±à·ı
Ġà¶Ĩ à¶¯à¶»à·Ĭà·ģ
à·Ģà·Ĵ à¶±à·Ĵ
à¶»à·ı à¶±à·Ĭ
Ġà¶¢à·ĵ à·Ģà·Ĵà¶±à·Ĭ
Ġà¶ļà¶Ńà·ıà·Ģ à·ļ
Ġà¶īà¶±à·Ĭ à·ĥà·Ĭà¶´à·Ļà¶ļà·Ĭà¶§à¶»à·Ĭ
Ġà¶ĩà¶³ à¶±à·Ĭ
à¶ºà·Ķà¶Ńà·Ķ à¶ºà·Ĵ
Ġme ss
Ġà¶Ĩà¶º à¶Ńà¶±
Ġà¶īà¶Ĥà¶¢à·Ĵà¶±à·ļ à¶»à·Ķ
Ġà¶ºà·ıà·ħà·Ķà·Ģà¶±à·Ĭ à¶§
Ġà·ĥ à¶¸à·ıà¶±à·Ĭ
Ġà¶¢ à·ĥà·Ĭà¶¸à·Ĵà¶±à·Ĭ
Ġà¶¶à·ĳ à¶±à·ı
Ġà¶ļà·Ļà¶±à·Ļà¶ļà·Ĭ à¶ľà·Ļà¶±à·Ĭ
à¶Ńà¶ļ à¶±à·Ĭ
à·Ĵà¶ºà·Ŀ à¶±à·ı
Ġà¶Ĩà·Ģà·ı à¶¸
Ġ.. ...
Ġà·Ģà¶» à¶ºà·Ļà¶ļà·Ĭ
Ġà¶´à·Ĳà¶§ à·Ģà·Ĭ
Ġà·Ħà·ĵà¶± à·Ļà¶±à·Ĭ
Ġà·ĥà¶Ĥà¶ļà·ļ à¶Ń
Ġà¶±à·Ĳà¶Ńà·Ĵ à·Ģà¶ºà·Ĵ
Ġà¶¯à·Ļà¶ļ à¶§à¶¸
à·Ģà·Ĵà¶¯à·Ĵ à·Ħà¶§
I P
Ġà·Ģà·Ĳ à¶±à·Ĭ
Ġà·Ħà¶»à·Ĵ à¶ºà·ıà·Ģà·Ĵ
Ġm an
-m ode
Ġà¶ļà·Ĵà¶ºà¶± à¶ļà¶¸à·Ĭ
Ġl ike
Ġà¶Ńà·ľà¶´à·Ĭà¶´ à·Ĵà¶º
Ġà¶ħà¶º à¶¯
à¶ĭ à¶Ńà·Ķà¶»
à¶½à·Ĭ à·ĥà·ı
Ġà¶ļà·Ļ à·ĥà·ļà¶¯
Ġà¶Ķà¶ºà·ıà¶½ à¶ľà·Ļà¶±à·Ĭ
Ġà¶·à·ı à·Ĥà·ı
Ġà¶¶à·ľà·Ħà·Ŀ à·Ģà·Ĵà¶§
Ġà·Ģ à¶±à¶º
Ġà¶Ń à¶ļ
Ġà¶Ńà¶» à·Ħà·Ļà¶±à·Ĭ
Ġà¶´à·ĵ à¶±
Ġà¶¢à¶± à¶ľà·Ħ
Ġà·ģà·ıà¶½à·ı à·Ģà·ļ
Ġà¶Ńà·ľà¶»à·ı à¶ľà·Ĳà¶±à·ĵà¶¸à·Ĭ
3 3
à¶» à¶¸
Ġà¶¢à·Ĵ à·Ģ
Ġà·ĥà·Ļà¶¶à¶½ à·Ļà¶ļà·Ĭ
à¶¸ à¶»à·Ķ
à·ĥ à¶§à·Ĭ
à¶ĳ à¶½à·Ĵà·ĥà·Ĭ
à¶ļà·Ĵ à·Ģà·Ĭ
Ġà¶´à·ı à¶±à¶º
à¶¸à¶ł à¶±à·Ĭ
Ġà¶ī à¶½à·Ļà¶ļà·Ĭà¶§à·Ĭ
à¶¸à¶¯ à·Ļà¶ºà¶ļà·Ĭ
Ġà¶ħà¶º à·Ļà¶Ńà·Ĭ
Ġà·ĥà¶Ĥ à¶ºà·Ķ
ar e
à¶¸à·ĵ à¶¸à¶§
Ġà¶Ńà·Ĵà¶ºà¶±à·Ģ à·ľ
Ġà¶´à·Ĭà¶½ à¶ľà·Ĵ
Ġà¶¸à¶§à·Ĭà¶§ à¶¸à·Ĭ
Ġà·ģà·ıà¶½à·ı à·Ģà¶§
à¶ļà·Ĭà¶½à·Ļ à¶ºà·ıà¶»à·Ĭ
Ġche ck
à·ļ à¶ļ
à·ĥ à·Ħà·ı
âĢį à·Ģà·Ĵ
à¶© à¶½à·Ĭ
à·ģ à¶ºà·Ĵà¶©à·Ĭ
Ġà¶» à¶¢à·ı
à¶½à·Ŀ à¶©à·Ĭ
Ġà¶Ńà·ļ à¶¸à·ı
Ġà¶¸à·Ĳà¶» à·Ļà¶±à·Ĭà¶±à·Ļ
ĠD en
et s
ĠF ischer
Ġà¶´à·Ĳà¶¸à·Ĵà¶« à·Ļà¶±
à¶ļà·Ĳà¶¸ à¶»à·ıà·Ģ
Ġà¶¯à·ļà·ģà¶´à·ıà¶½ à¶±à¶º
t ic
à·ļ à¶§
Ġà¶´ à¶½à·Ĭà¶½à·ı
Ġà·Ħ à¶Ńà·Ĭ
Ġà·Ħ à¶¹à·ı
Ġà·Ħà·ľ à¶½à·Ģà¶±à·Ĭà¶±
Ġà¶¯à·ļ à¶ļà¶§à¶¸
à¶ĩà¶º à¶Ńà·Ĭ
or e
à·ĥà·Ĭà¶§ à·ļ
Ġà¶ĩà¶» à¶´à¶±à·Ĭ
Ġà·ħà¶Ł à·ı
Ġà¶ļà¶±à·Ĭà¶± à·ı
Ġà¶Ķà¶± à¶¯
Ġà¶ļà·ĸ à¶©à·Ķ
Ġà¶¯à·Ĳà¶±à¶ľà¶Ńà·Ĭà¶Ń à·Ļ
Ġà¶´à·Ķà¶½à·Ķà·Ģ à¶±à·Ĵ
Ġà¶¯à·Ļà¶´à·ıà¶»à·Ĭà¶Ńà¶¸à·ļà¶±à·Ĭ à¶Ńà·Ķà·Ģà·ļ
à¶ħà¶±à·Ĭ à¶¢à·Ķà¶§à·ı
Ġà·Ħà·Ĳà¶³à·Ķ à¶±à·Ķà¶¸à·Ĭà¶´
I ndian
Ġà¶´à·Ĵ à¶§à·Ĭ
âĢįà¶º à¶§
Ġà·Ĩ à·Ĳà¶ļà·Ĭ
Ġà¶´à·Ħ à¶ļà·Ĵà¶±à·Ĭ
Ġà·Ģà·Ĵà·ģà·ļà·Ĥ à¶ºà·Ļà¶±à·Ĭ
âĢįà¶»à·Ŀ à·Ħ
Ġà·ĥà·Ħà·ı à¶ºà¶ļà¶ºà·ı
à¶ĭà¶Ńà·Ķà¶¸à·ıà¶« à·Ļà¶±à·Ĵ
Ġà¶±à·Ģà·ı à¶Ńà·Ĳà¶±à·Ĭ
à·ĥà·Ĭà·Ģà·ľ à¶ºà¶»à·Ĭ
à¶º à·Ķà·Ģ
à¶¶ à¶½à·Ĭà¶½
à¶« à·Ĵà¶ºà·Ļà¶ļà·Ĭ
à¶ļà¶» à·Ģà¶±à·Ĭà¶±
Ġà¶´à·Ĳ à¶§à·Ĭ
Ġà¶¯à·Ķà·Ģ à¶Ńà·Ĭ
Ġà¶Ī à¶Ńà·Ĵà¶±à·Ĭ
à¶»à·ľ à¶±à·ĵ
Ġà¶Ķ à·Ĩà·Ĭ
à¶¢ à·ĥà·Ĭà¶§à·Ĵà¶±à·Ĭ
Ġà¶¶à·ľ à¶Ńà·Ĭà¶Ńà¶¸à·Ĭ
Ġà¶ļà¶© à¶½
Ġà¶´à·ľà¶©à·Ĭà¶©à¶ļà·Ĭ à·Ģà¶Ńà·Ĭ
à·ĥà·Ĭà·Ģ à¶½à·Ĵà¶±à·Ĭ
Ġà·Ģà·ıà·ĥà¶±à·ıà·Ģ à¶§
Ġà¶´à·Ĵà·Ħà·Ĵ à¶§à¶ºà·Ĵ
à·Ħà¶± à¶¸à·ļ
Ġpro v
Ġà¶´à·ĺà¶®à·Ĵ à·Ģà·Ĵà¶ºà·ļ
Ġà¶ļ à¶¸à·Ķ
Ġà¶» à·ľà¶ļà¶§à·Ĭ
à¶ļà·ı à¶±à·Ķ
Ġà¶ºà¶±à·Ģà·ı à¶¯
à¶´à·Ĳ à¶Ńà·Ĵà¶ļà¶©
à¶ļà·Ļ à¶½à·ĵ
Ġà·Ģà¶ľ à¶ļà·Ĵà·Ģ
ff ff
Ġà¶ºà·ıà¶½ à·Ķà·Ģà·Ļ
à¶īà¶±à·Ĭà·ĥà·Ĭà¶´ à·Ļà¶ļà·Ĭà¶§à¶»à·Ĭ
' à¶¸à¶¸
à¶§ à·ĸ
à·ĥ à¶±à·Ģà·ı
Ġà¶ĳ à¶¸à·Ķ
à¶¶à·Ļ à¶»à·Ĵ
rig ht
à¶Ń à¶Ńà·Ĭà·Ģà¶º
à¶° à·ıà·Ģ
Ġà¶ħà¶» à¶¸à·Ķà¶¯
à¶¸à·Ŀ à¶»à·Ĭ
à¶Ĩà¶ºà·Ļ à¶¸à¶Ńà·Ĭ
Ġà¶¶à·Ĳà¶±à·Ĭ à¶¯
Ġà¶ĳà¶ºà·ı à·Ģà¶Ńà·Ĭ
à·Ģà·ļ à¶ľà·ĵ
Ġn ew
Ġà·Ħà·Ĳà¶¯à·Ĵ à¶½à¶¯
à·Ģà·Ĵ à¶ļà·ı
Ġà¶ħà¶¸à·ıà¶»à·Ķ à¶¯
Ġa pp
à¶´à¶»à·Ĵ à¶ľà¶«
ĠBrit ish
Ġà¶Ķà¶ºà·ıà·Ģ à¶ºà·Ĵ
à¶Ĭ à·ħà¶ľà¶§
Ġà¶»à·Ķ à·ĥà·Ĵà¶ºà·ı
à·ľà¶©à·Ĭ à¶ļà·ı
Ġà¶¸à·Ķà¶«à¶ľà·Ĳà·Ħà·Ļà¶±à·Ĭà¶± à¶¸à·Ĭ
à¶ļà·Ĳà¶¸ à¶»à·ı
à¶¯à¶ļà·Ķà¶« à¶§
à¶ħà¶»à·Ķ à·ģà·Ĭ
à¶º à¶¸à¶ļà·Ĭ
à¶¯ à·Ļà¶±à·Ĭà¶±à·ļ
Ġà¶ĭ à·Ļà¶ķ
à¶¸à·ľà¶ļ à·Ģà¶Ńà·Ĭ
à¶»à·ĵ à¶ļà·Ĭ
Ġà·Ģà·ļ à¶©à·Ĭ
à¶¶à¶½ à¶±à·Ĭ
Ġà¶¶à·Ĵà¶»à·Ĵà¶¯ à¶§
Ġà¶´à·Ģà¶Ńà·Ĭ à·Ģà¶±à·Ĭà¶±
C IA
Ġà¶Ķ à¶§
Ġà·Ģà·Ļ à·Ģà·Ĵ
à·Ŀà¶¸ à·Ĵà¶ºà·Ŀ
à¶¸à·ľà¶± à¶Ńà¶»à¶¸à·Ĭ
Ġà¶±à·Ĵà¶ºà¶¸ à·Ķà·Ģà·Ļà¶ļà·Ĭ
à¶¯à·Ļà·Ģà·Ĵà¶º à¶±à·Ĵ
Ġà·Ħà·Ĳà¶¯ à·Ļà¶±à·Ģà·ı
, à¶ħà¶´à·Ĵà¶§
e ans
à¶¸ à·ĺ
à·ĥ à¶ļà·Ĵ
Ġà·Ģ à¶±à·Ģà·ľ
Ġà¶ľ à¶Ńà¶ļ
à¶¸à·Ĭ à¶¸à·ı
à¶© à¶½à·Ĭà·Ĩà·Ĭ
Ġà¶Ĩ à·Ģà·Ĭ
Ġà¶» à¶ļà·Ĭà·Ĥ
à¶Ńà·Ĵà¶º à¶ļà¶§
Ġà·ģ à·ģà·ĵ
à¶ºà·Ŀ à¶ľà·Ĵà¶ļ
à¶Ĥà¶ł à·Ĵà¶º
à·ħà·Ķà·Ģ à·Ŀ
Ġà¶īà¶© à¶¸
Ġà·Ħà·ľà¶¯à¶ºà·Ĵ à¶¯
Ġà¶ľà·Ĳà·Ħà·Ĳ à¶«à·Ĵà¶º
Ġà¶¸à·Ĭ à¶¸à·Ĭà¶¸à·Ĭ
Ġà¶īà¶ļà·Ĭà¶¸à¶« à·Ĵà¶±à·Ĭà¶¸
Ġà¶ħà·ĥà·Ĭà·ĥ à·Ļ
Ġà¶´à·ľà·ħ à¶¹
Ġà·ĥà·Ĭà¶´ à¶ºà·Ĵà¶©à¶»à·Ĭ
Ġà¶»à¶³ à·Ģà·ı
Ġà·Ģà·Ĵà·ģà·ı à¶½à¶ºà·Ĵ
b u
r es
Ġà¶ļ à¶¯à·Ĵà¶¸
Ġà¶ļ à¶Ńà·ĺ
Ġà¶ħ à¶ºà·Ļà¶ļà·Ĭ
Ġà¶ĩ à¶»à·Ĵà¶½à·ı
à¶¸à·ı à¶§à·Ĵà¶±à·Ĭ
à¶Ķà¶ºà·ıà¶§ à¶ºà·Ĵ
Ġà¶ĭà¶´ à¶Ń
Ġà·Ģà·Ļà¶±à·Ĭà¶±à·Ļ à¶´à·ı
Ġà¶¶à·ļ à¶¶
Ġà¶´à·ıà¶½à¶±à¶º à·Ļà¶±à·Ĭ
if e
à·Ħà¶¯ à·Ģà¶Ń
à¶´à·ŀ à¶¯à·Ĭà¶ľà¶½à·Ĵà¶ļ
Ġà¶ĳ à¶©à·Ĵ
Ġà·Ħ à¶´à·Ĭà¶´
à·ħ à·Ĵà¶ºà¶§
Ġà·Ħà·Ĵà¶Ń à·Ļà¶ºà·Ĵ
Ġà¶´à·ı à¶ļà·Ĭ
Ġà·Ħà¶¯ à¶¸à·Ķ
Ġà·Ħà¶³à·Ķ à¶±à·Ĭà·Ģà·ı
Ġà¶ľà¶± à¶±à¶ļà·Ĭ
Ġme nu
Ġà¶ĭà¶ľà¶±à·Ĭà¶± à¶±à·Ĭà¶±
à¶¸ à¶±à·ļ
âĢį à¶©à·Ĵ
à¶´à·ı à·Ħà¶»
Ġà¶¯à·Ķ à·ĥà·Ĵà¶¸à·Ĭ
Ġà·Ħà·ľà¶¯ à·ļ
Ġà·ĥà·ı à·Ħ
Ġà·Ħà¶¯à·Ĵ à·ĥà·Ĭà·ĥà·Ĵ
à¶ľà·ľà¶½à·Ĭà¶½ à¶±à·Ĭà¶ľà·ļ
Ġà¶´à¶»à·ĵà¶ļà·Ĭà·Ĥà¶« à¶ºà¶§
Ġà·ĥà·Ĭà·Ģà¶·à·ıà·Ģ à¶º
rom ania
Ġà¶ħà·ĥà·Ĵ à¶´à¶Ń
C K
à¶¶ à¶¯à·Ĭà¶°
Ġà¶¸à·ľ à·ĥà·Ĭà¶ļà·Ģà·Ĭ
Ġà¶ļà·Ĳ à¶©à·Ķà·Ģ
Ġà·Ģà·ļ à¶ľà·ıà·ĥà·Ĭ
Ġà·ģ à·Ļ
Ġà·ģ à¶Ńà·Ģà¶»à·Ĭ
Ġà¶´à·ľ à¶¸à·Ĭà¶´
à¶¯à·Ĭà·Ģ à¶ľà¶»à·Ĭ
, à¶ħ
Ġà¶ķ à·Ģà¶»à·Ĭ
Ġà·ĥà·ı à¶´
à·Ģà·Ĳ à¶±à·Ĭà¶±
Ġc ur
Ġn o
Ġà¶´à·Ĵà¶±à·Ĭà¶Ńà·Ķà¶» à¶ºà¶ļà·Ĭ
Ġà¶¸à·ľ à·Ģà·Ķà¶±à·Ĭ
Ġà·Ģà¶©à·ı à¶Ńà·Ĭà¶¸
Ġà¶»à·Ħ à¶ļà·Ĭ
à¶ħà¶½à·Ĭà¶½ à¶±à·Ĭà¶±
à¶´à·ıà¶¯ à¶ļ
Ġà¶±à·Ĵà¶»à·ĵà¶ļà·Ĭà·Ĥ à¶«à¶º
Ġà·Ģà·Ĵà¶»à·Ķà¶¯à·Ĭà¶¯ à·Ģ
à¶½à·Ļ à·Ģà·Ĵ
Ġà¶¸à·Ħà¶Ńà·Ĭà·Ģ à¶»à·Ķà¶«à·Ĵ
5 5
à¶¯ à·Ĵà¶ºà¶ļà·Ĭ
Ġà¶¢à¶±à¶Ńà·ıà·Ģ à¶§
à¶ļà·Ĵ à¶»à·ĵà¶¸à·ļ
à¶ļà·ı à¶©à·Ĭ
à¶´à·Ĵ à·ĥà·Ĭà·ĥ
à¶īà¶¯à·Ĵ à¶»à·Ĵ
Ġà¶ħà¶¬ à¶±à·Ĭà¶±
Ġà¶¯à·ıà¶±à·Ĭà¶± à¶ºà·Ĵ
à·Ģà·Ļ à·ħà·Ķà¶¸
Ġà¶ļà·Ĳ à¶¶à·Ĵà¶±à·Ĭ
à¶ļà·Ĵà¶º à¶±à·Ĭà¶±à·Ļ
Ġhe ad
à·Ĵà¶º à¶ļà·ļ
Ġà¶ĩ à·Ħà·Ĵ
ĠC OM
à¶½à·ĸ à·Ģà·ı
Ġà¶ħà¶¸à·Ĭà¶¸ à¶½à·ı
à¶¯à·ĵà¶¸ à¶ļà·Ĵà¶±à·Ĭ
Ġà¶ľà·Ķà¶»à·Ķà·Ģ à¶»à¶ºà·ı
à¶ī à¶»à·Ĵ
Ġà¶© à·Ļà¶½à·Ĭ
Ġà¶¸à·Ļà¶ºà·ı à¶½à¶§
Ġà¶ľà·Ļà·Ģà¶±à·Ĭà¶± à·Ļ
Ġà·Ħà¶Ĥà¶ľ à¶ľà·Ļà¶±
à¶¢à·ļà·ĥà·Ķ à¶±à·ļ
Ġà¶¶ à¶§à·Ĭà¶±à·Ĭ
Ġà·ĥà·Ĵ à¶±à·ı
Ġà¶¶à·Ĳ à¶½à·Ĭà¶¸
à¶»à·ı à¶ļà·Ĭà·Ĥ
Ġà¶ļà·Ĵà·ĥà·Ĵ à·Ģà·Ļ
Ġà¶´à¶§à¶±à·Ĭ à¶ľà¶Ńà·Ĭà¶Ń
âĢįà¶»à·ļ à¶¸à¶±à·Ĭ
Ġà¶¯à·ĵ à¶»à·Ĭà¶Ŀ
Ġà¶±à·Ģà¶Ńà·Ĵ à¶±à·Ĭà¶±à·ļ
Ġà¶±à·Ķà¶¹ à·Ģ
à¶ħà¶±à·Ĵà·Ģà·ıà¶»à·Ĭ à¶ºà·Ļà¶±à·Ĭ
Ġà¶©à·Ĳ à¶©à·ĵ
Ġà¶¸à·Ĳà·ĥà·Ĭà·ĥ à¶±à·Ĭ
à¶ľà¶¸à·Ĭ à¶¸à·Ķ
M S
N o
à¶¯ à·Ĵà¶ºà¶§
Ġà·Ģ à¶±à·Ĭà¶¯
à¶¶ à·Ĳà¶±à·Ĭ
à¶½à·Ĵ à¶ļà·Ĭà·ĥà·Ĭ
Ġà¶¸à·Ķ à¶±à·Ķ
à¶ĭ à¶«à·Ĭà¶©
Ġà·ĥà·Ĭ à·Ģà·Ĵà¶łà·Ĭ
Ġà¶¯à·Ĵà·Ħà·ı à¶¯
Ġà·ĥà¶¸à¶ľ à¶¸
Ġà¶»à·ľ à¶±à·ĵ
Ġà·Ģà¶ľà·Ļ à¶¸
Ġà¶´à¶»à·Ĵà·ĥà·Ĭà·ĥ à¶¸à¶§
à¶ĳà·ħ à·Ĵà¶ºà·ļ
à¶ļà¶«à·Ĭ à¶©à·ıà¶ºà¶¸
Ġà·ĥà·Ĭà¶ļà·Ŀ à·Ĩà·ĵà¶½à·Ĭà¶©à·Ĭ
[...]
