{
  "version": "1.0",
  "truncation": null,
  "padding": null,
  "added_tokens": [
    {
      "id": 32000,
      "content": "<|endoftext|>",
      "single_word": false,
      "lstrip": false,
      "rstrip": false,
      "normalized": false,
      "special": true
    },
    {
      "id": 32001,
      "content": "[PAD]",
      "single_word": false,
      "lstrip": false,
      "rstrip": false,
      "normalized": false,
      "special": true
    },
    {
      "id": 32002,
      "content": "[UNK]",
      "single_word": false,
      "lstrip": false,
      "rstrip": false,
      "normalized": false,
      "special": true
    },
    {
      "id": 32003,
      "content": "[BOS]",
      "single_word": false,
      "lstrip": false,
      "rstrip": false,
      "normalized": false,
      "special": true
    },
    {
      "id": 32004,
      "content": "[EOS]",
      "single_word": false,
      "lstrip": false,
      "rstrip": false,
      "normalized": false,
      "special": true
    }
  ],
  "normalizer": null,
  "pre_tokenizer": {
    "type": "Sequence",
    "pretokenizers": [
      {
        "type": "Split",
        "pattern": {
          "Regex": "\\p{N}{1,3}| ?[^\\s\\p{L}\\p{N}]{2,}[\\r\\n/]*| +(?!\\S)"
        },
        "behavior": "Isolated",
        "invert": false
      },
      {
        "type": "ByteLevel",
        "add_prefix_space": false,
        "trim_offsets": true,
        "use_regex": false
      }
    ]
  },
  "post_processor": null,
  "decoder": {
    "type": "ByteLevel",
    "add_prefix_space": true,
    "trim_offsets": true,
    "use_regex": true
  },
  "model": {
    "type": "BPE",
    "dropout": null,
    "unk_token": null,
    "continuing_subword_prefix": null,
    "end_of_word_suffix": null,
    "fuse_unk": false,
    "byte_fallback": false,
    "ignore_merges": false,
    "vocab": {
      "!": 0,
      "\"": 1,
      "#": 2,
      "$": 3,
      "%": 4,
      "&": 5,
      "'": 6,
      "(": 7,
      ")": 8,
      "*": 9,
      "+": 10,
      ",": 11,
      "-": 12,
      ".": 13,
      "/": 14,
      "0": 15,
      "1": 16,
      "2": 17,
      "3": 18,
      "4": 19,
      "5": 20,
      "6": 21,
      "7": 22,
      "8": 23,
      "9": 24,
      ":": 25,
      ";": 26,
      "<": 27,
      "=": 28,
      ">": 29,
      "?": 30,
      "@": 31,
      "A": 32,
      "B": 33,
      "C": 34,
      "D": 35,
      "E": 36,
      "F": 37,
      "G": 38,
      "H": 39,
      "I": 40,
      "J": 41,
      "K": 42,
      "L": 43,
      "M": 44,
      "N": 45,
      "O": 46,
      "P": 47,
      "Q": 48,
      "R": 49,
      "S": 50,
      "T": 51,
      "U": 52,
      "V": 53,
      "W": 54,
      "X": 55,
      "Y": 56,
      "Z": 57,
      "[": 58,
      "\\": 59,
      "]": 60,
      "^": 61,
      "_": 62,
      "`": 63,
      "a": 64,
      "b": 65,
      "c": 66,
      "d": 67,
      "e": 68,
      "f": 69,
      "g": 70,
      "h": 71,
      "i": 72,
      "j": 73,
      "k": 74,
      "l": 75,
      "m": 76,
      "n": 77,
      "o": 78,
      "p": 79,
      "q": 80,
      "r": 81,
      "s": 82,
      "t": 83,
      "u": 84,
      "v": 85,
      "w": 86,
      "x": 87,
      "y": 88,
      "z": 89,
      "{": 90,
      "}": 91,
      "~": 92,
      "¡": 93,
      "¢": 94,
      "£": 95,
      "¤": 96,
      "¥": 97,
      "¦": 98,
      "§": 99,
      "¨": 100,
      "©": 101,
      "ª": 102,
      "«": 103,
      "¬": 104,
      "®": 105,
      "¯": 106,
      "°": 107,
      "±": 108,
      "²": 109,
      "³": 110,
      "´": 111,
      "µ": 112,
      "¶": 113,
      "·": 114,
      "¸": 115,
      "¹": 116,
      "º": 117,
      "»": 118,
      "¼": 119,
      "½": 120,
      "¿": 121,
      "Â": 122,
      "Ã": 123,
      "Ä": 124,
      "Å": 125,
      "Ë": 126,
      "Î": 127,
      "Ò": 128,
      "Û": 129,
      "à": 130,
      "â": 131,
      "ï": 132,
      "Ċ": 133,
      "č": 134,
      "Ġ": 135,
      "Ģ": 136,
      "ģ": 137,
      "Ĥ": 138,
      "ĥ": 139,
      "Ħ": 140,
      "ħ": 141,
      "Ĩ": 142,
      "ĩ": 143,
      "Ī": 144,
      "ī": 145,
      "Ĭ": 146,
      "ĭ": 147,
      "Į": 148,
      "į": 149,
      "İ": 150,
      "ı": 151,
      "Ĳ": 152,
      "ĳ": 153,
      "Ĵ": 154,
      "ĵ": 155,
      "Ķ": 156,
      "ķ": 157,
      "ĸ": 158,
      "Ĺ": 159,
      "ĺ": 160,
      "Ļ": 161,
      "ļ": 162,
      "Ľ": 163,
      "ľ": 164,
      "Ŀ": 165,
      "ŀ": 166,
      "Ł": 167,
      "ł": 168,
      "Ń": 169,
      "à¶": 170,
      "à·": 171,
      "Ġà¶": 172,
      "à·Ĭ": 173,
      "à¶±": 174,
      "à·Ĵ": 175,
      "à·Ģ": 176,
      "à·ı": 177,
      "à¶º": 178,
      "čĊ": 179,
      "à¶¸": 180,
      "à¶ļ": 181,
      "à¶±à·Ĭ": 182,
      "à·Ļ": 183,
      "à¶»": 184,
      "à¶Ń": 185,
      "à·Ķ": 186,
      "à·ļ": 187,
      "à·Ħ": 188,
      "à¶½": 189,
      "à¶§": 190,
      ".čĊ": 191,
      "à¶±à·Ĭà¶±": 192,
      "Ġà¶ļ": 193,
      "à·ĥ": 194,
      "à¶¯": 195,
      "à·Ĳ": 196,
      "Ġà¶¸": 197,
      "Ġà·Ģ": 198,
      "à¶ļà·Ĭ": 199,
      "à¶ºà·ı": 200,
      "à¶ľ": 201,
      "à·ľ": 202,
      "à·Ĵà¶º": 203,
      "à¶Ńà·Ĭ": 204,
      "à¶´": 205,
      "Ġà¶±": 206,
      "Ġà¶¯": 207,
      "Ġà¶ĳ": 208,
      "Ġà¶´": 209,
      "Ġà·Ħ": 210,
      "Ġà¶ħ": 211,
      "à¶ºà·Ĵ": 212,
      "Ķà¶ºà·ı": 213,
      "à·Ģà·ı": 214,
      "Ġà¶Ń": 215,
      "?čĊ": 216,
      "Ġà¶ľ": 217,
      "Ġà·ĥ": 218,
      "à¶½à·ı": 219,
      "à·Ļà¶±": 220,
      "à¶¸à·Ĭ": 221,
      "âĢ": 222,
      "Ġà¶ļà¶»": 223,
      "âĢį": 224,
      "à¶©": 225,
      "..": 226,
      "à·ĥà·Ĭ": 227,
      "à·Ķà·Ģ": 228,
      "à¶¶": 229,
      "à·ĵ": 230,
      "Ġà¶Ķà¶ºà·ı": 231,
      "Ġà¶¶": 232,
      "à¶ľà·ļ": 233,
      "à·Ŀ": 234,
      "Ġà¶ļà·Ĵà¶º": 235,
      "à·ĳ": 236,
      "à·Ļà¶±à·Ĭà¶±": 237,
      "à¶½à·Ĭ": 238,
      "Ġà¶ī": 239,
      "à¶»à·Ĵ": 240,
      "Ġà¶Ĵ": 241,
      "à¶«": 242,
      "Ġà¶º": 243,
      "Ġà¶ĩ": 244,
      "à¶´à·Ĵ": 245,
      "!čĊ": 246,
      "à¶Ķà¶ºà·ı": 247,
      "à·Ĵà¶±à·Ĭ": 248,
      "à¶»à·Ĭ": 249,
      "à·ıà·Ģ": 250,
      "à¶Ńà·Ĭà¶Ń": 251,
      "à¶ħ": 252,
      "à¶¸à¶¸": 253,
      "à·ħ": 254,
      "Ġà¶ĳà¶ļ": 255,
      "Ġà¶ļà¶»à¶±à·Ĭà¶±": 256,
      "Ġà¶Ķ": 257,
      "à·Ļà¶±à·Ĭ": 258,
      "Ġà·Ģà·Ĵ": 259,
      "Ġà¶±à·Ĳ": 260,
      "à¶Ĥ": 261,
      "à·Ĳà¶±": 262,
      "à¶Ńà·Ĵ": 263,
      "à¶ĳ": 264,
      "à¶Ĵ": 265,
      "Ġà¶ĭ": 266,
      "à¶±à·Ģà·ı": 267,
      "à¶ºà¶ļà·Ĭ": 268,
      "à¶±à·ļ": 269,
      "à¶»à·Ķ": 270,
      "à·ģ": 271,
      "Ġà¶¸à¶¸": 272,
      "Ġà¶½": 273,
      "âĢįà¶»": 274,
      "Ġà¶¸à·ļ": 275,
      "à¶±à·Ĭà¶±à·ļ": 276,
      "à·Ģà·Ķ": 277,
      "à¶±à·ı": 278,
      "à·Ģà·Ĭ": 279,
      "Ġà¶±à·ĳ": 280,
      "Ġà¶Ńà·Ĵà¶º": 281,
      "Ġà¶ķ": 282,
      "Ġà·Ħà·Ĵ": 283,
      "Ġà¶Ĩ": 284,
      "âĪ": 285,
      "à¶Ńà·Ķ": 286,
      "âĪĻ": 287,
      "Ġà¶Ĵà¶ļ": 288,
      "à¶ł": 289,
      "à·ľà¶ļ": 290,
      "à¶±à·Ĵ": 291,
      "à¶¸à¶§": 292,
      "à¶Ķ": 293,
      "Ġà¶ĳà¶ºà·ı": 294,
      "à·Ħà·Ĳ": 295,
      "Ġà¶¸à¶§": 296,
      "Ġà·Ħà·ľ": 297,
      "Ġà¶ļà·Ĵà¶ºà¶½à·ı": 298,
      "à·Ħà·Ļ": 299,
      "à¶³": 300,
      "à¶¸à·ļ": 301,
      "à¶ļà·Ĭà¶ļ": 302,
      "à·Ģà·Ĵ": 303,
      "Ġà¶´à·Ķ": 304,
      "à·ĥà·Ĭà·ĥ": 305,
      "à¶½à·Ĭà¶½": 306,
      "à·Ļà¶ļà·Ĭ": 307,
      "Ġà¶ħà¶´à·Ĵ": 308,
      "Ġà¶»": 309,
      "à¶¯à·Ĭ": 310,
      "à·Ħà·Ķ": 311,
      "...": 312,
      "Ġà·Ģà·Ĳ": 313,
      "Ġà·Ģà·Ļ": 314,
      "à¶¯à·Ĵ": 315,
      "Ġà·Ģà·Ļà¶±": 316,
      "à¶¸à·Ķ": 317,
      "à¶ľà¶±à·Ĭà¶±": 318,
      "Ġà¶ļà·ľ": 319,
      "Ġà¶īà¶±à·Ĭà¶±": 320,
      "...čĊ": 321,
      "à·Ģà¶¯": 322,
      "Ġà¶ļà·Ĵ": 323,
      "à·Ĥ": 324,
      "à¶¸à·ı": 325,
      "à¶ľà·Ļ": 326,
      "Ġà·Ħà·Ĳ": 327,
      "à¶¢": 328,
      "Ġà¶¸à·Ļ": 329,
      "Ġà·Ģà·Ļà¶±à·Ĭà¶±": 330,
      "à·ıà¶»": 331,
      "à¶°": 332,
      "à¶ħà¶´à·Ĵ": 333,
      "à¶§à·Ĭ": 334,
      "à·ĸ": 335,
      "à¶Ńà·ı": 336,
      "Ġà¶¯à·Ļ": 337,
      "à·Ħà·ľ": 338,
      "à·Ĳà¶±à·Ĭ": 339,
      "Ġà¶±à·Ĵ": 340,
      "âĪĻčĊ": 341,
      "Ġà¶Ķà¶ºà·ıà¶§": 342,
      "à¶Ĵà¶ļ": 343,
      "à¶¸à¶ºà·Ĵ": 344,
      "à·Ķà·Ģà¶±à·Ĭ": 345,
      "Ġà¶ľà·Ĳà¶±": 346,
      "Ġà¶ºà¶±à·Ĭà¶±": 347,
      "Ġà¶¢": 348,
      "à¶ĳà¶ºà·ı": 349,
      "Ġà·Ħà·Ĵà¶Ń": 350,
      "à·ĥà·Ĵ": 351,
      "Ġà·Ħà¶»à·Ĵ": 352,
      "Ġà·Ģà¶ľà·ļ": 353,
      "à¶¯à·Ķ": 354,
      "à¶´à·ı": 355,
      "à¶½à·Ĵ": 356,
      "Ġà¶ķà¶±": 357,
      "à·ģà·Ĭ": 358,
      "Ġà¶¸à·ľà¶ļ": 359,
      "à·Ļà¶±à·Ģà·ı": 360,
      "à·Ģà·Ļ": 361,
      "à·Ģà¶Ńà·Ĭ": 362,
      "à¶ĩ": 363,
      "Ġà¶¸à¶ľà·ļ": 364,
      "..čĊ": 365,
      "à¶§à¶¸": 366,
      "Ġà·Ģà·Ĳà¶©": 367,
      "à¶Ńà¶»": 368,
      "Ġà¶¯à¶±à·Ĭà¶±": 369,
      "Ġà¶¸à·Ĵ": 370,
      "Ġà¶´à·Ĭ": 371,
      "à·ľà¶©": 372,
      "Ġà¶´à·Ĵ": 373,
      "Ġà¶±à·Ĳà·Ħà·Ĳ": 374,
      "à¶±à¶º": 375,
      "à¶ľà·Ļà¶±": 376,
      "Ġà¶ļà·ı": 377,
      "à¶ļà·ľ": 378,
      "Ġà¶¸à·ľ": 379,
      "Ġà·Ģà·Ļà¶½à·ı": 380,
      "Ġà¶¶à¶½": 381,
      "Ġ?čĊ": 382,
      "à·ĥà·ı": 383,
      "Ġà¶ľà¶±à·Ĭà¶±": 384,
      "à¶ļà¶»": 385,
      "à¶´à·Ķ": 386,
      "à·Ħà·ı": 387,
      "à¶ļà¶§": 388,
      "à¶¯à·Ĭà¶¯": 389,
      "à¶¯à¶»": 390,
      "à¶½à¶§": 391,
      "à¶§à·Ĵ": 392,
      "Ġà¶ļà·Ĵà¶ºà¶±à·Ĭà¶±": 393,
      "Ġà¶Ńà·Ĵ": 394,
      "Ġà¶ĳà¶ļà·Ĭà¶ļ": 395,
      "à·Ĵà¶ºà¶§": 396,
      "à¶¸à¶¯": 397,
      "Ġà¶¯à·Ļà¶±à·Ĭà¶±": 398,
      "à¶Ńà·Ĵà¶º": 399,
      "à·Ģà·ļ": 400,
      "Ġà¶§": 401,
      "à¶Ńà¶±": 402,
      "Ġà·Ģà·Ķ": 403,
      "à·Ħà·Ĵ": 404,
      "Ġà¶¯à·ļ": 405,
      "à·ĵà¶¸": 406,
      "Ġà¶´à·Ĳ": 407,
      "à¶łà·Ĭ": 408,
      "âĢįà¶º": 409,
      "à¶ļà·Ķ": 410,
      "Ġà¶±à·Ļ": 411,
      "Ġà¶ļà·Ĳ": 412,
      "Ġà·ĥà·Ĵ": 413,
      "à·Ħà¶»à·Ĵ": 414,
      "à¶±à·Ģ": 415,
      "Ġà¶¶à·Ĳ": 416,
      "à·ĥà·Ķ": 417,
      "à¶¸à·Ļ": 418,
      "à¶Ł": 419,
      "à¶½à·Ĵà¶±à·Ĭ": 420,
      "à¶ļà·Ĵ": 421,
      "à¶Ķà¶ºà·ıà¶§": 422,
      "Ġ.čĊ": 423,
      "à¶ī": 424,
      "à¶¹": 425,
      "à¶´à·Ĭ": 426,
      "à·Ħà·ļ": 427,
      "à¶ļà·Ĭà·Ĥ": 428,
      "Ġà·Ħà·ľà¶³": 429,
      "Ġà¶¸à·ļà¶ļ": 430,
      "Ġà¶Ńà¶¸à¶ºà·Ĵ": 431,
      "Ġà¶ļà·Ļà¶±": 432,
      "Ġà¶´à·Ķà·ħ": 433,
      "Ġà¶±à¶¸à·Ĭ": 434,
      "Ġà¶¯à·Ļà¶ºà¶ļà·Ĭ": 435,
      "à¶±à¶¸à·Ĭ": 436,
      "Ġà¶ļà·Ĵà¶ºà¶½": 437,
      "à¶¯à·ı": 438,
      "Ġà¶¯à·Ĳà¶±à·Ĭ": 439,
      "Ġà¶ļà·Ĵà·Ģà·Ĭ": 440,
      "Ġà¶ĳà¶´à·ı": 441,
      "à¶§à·Ĵà¶º": 442,
      "à¶¸à·ľà¶ļ": 443,
      "à¶±à·Ģà¶¯": 444,
      "Ġà¶Ķà¶¶": 445,
      "à·Ĵà¶ļ": 446,
      "à¶łà·Ĭà¶ł": 447,
      "Ġà¶´à·Ķà·ħà·Ķà·Ģà¶±à·Ĭ": 448,
      "Ġà¶ľà·Ĵ": 449,
      "à¶½à·ļ": 450,
      "Ġà¶¸à·Ĵà¶±à·Ĵ": 451,
      "à¶±à·Ķ": 452,
      "à¶»à·ı": 453,
      "à¶ºà¶§": 454,
      "à·Ħà·Ļà¶¸": 455,
      "Ġà¶ħà¶»": 456,
      "Ġà¶ĳà¶±à·Ĭà¶±": 457,
      "Ġà¶¸à·Ķ": 458,
      "à¶ĭ": 459,
      "ĠâĢį": 460,
      "Ġà¶ķà¶±à·ļ": 461,
      "à¶±à·Ļ": 462,
      "Ġà¶¯à·Ĳà¶±": 463,
      "Ġà¶ħà·Ģ": 464,
      "à¶ºà·ļ": 465,
      "à¶ļà·Ĭà¶¯": 466,
      "Ġà¶¸à·ı": 467,
      "Ġà¶¸à·Ĳ": 468,
      "Ġà·ĥà·Ĭ": 469,
      "à·Ħà·Ĭ": 470,
      "à·Ĩ": 471,
      "à¶¸à·Ĵ": 472,
      "Ġ,": 473,
      "Ġà¶ļà¶Ńà·ı": 474,
      "Ġà¶Ńà·Ĵà¶¶": 475,
      "à¶®": 476,
      "Ġà¶¯à·ı": 477,
      "Ġà¶ħà¶´": 478,
      "à¶¸à¶Ĥ": 479,
      "Ġà¶¯à·Ķ": 480,
      "Ġà¶Ńà·Ĵà¶ºà·Ļà¶±à·Ĭà¶±": 481,
      "à¶ļà·ı": 482,
      "Ġà¶Ńà·Ĵà¶ºà·Ļà¶±à·Ģà·ı": 483,
      "à¶Ńà·Ĭà¶Ńà·ı": 484,
      "à¶¸à·Ĭà¶¶": 485,
      "Ġà¶¯à·Ĵ": 486,
      "à¶©à·ı": 487,
      "à¶¸à¶ļà·Ĭ": 488,
      "Ġà¶Ńà·ı": 489,
      "à·Ģà¶±à·Ĭà¶±": 490,
      "Ġà¶¯à·Ĳ": 491,
      "Ġà¶Ķà·Ħà·Ķ": 492,
      "Ġà¶Ķà¶ºà·ıà¶ľà·ļ": 493,
      "Ġà¶ļà¶»à¶±à·Ģà·ı": 494,
      "Ġà¶ĩà¶Ńà·Ĵ": 495,
      "à¶©à·Ĵ": 496,
      "à·Ħà·ľà¶¸à¶¯": 497,
      "Ġà·Ħà·Ĳà¶¸": 498,
      "à¶©à·Ĭ": 499,
      "à¶«à·ı": 500,
      "à·ľà¶Ńà·Ĭ": 501,
      "Ġà·ĥà¶¸": 502,
      "à·Ģà·Ķà¶±à·Ĭ": 503,
      "Ġà·Ģà·Ļà¶±à·Ģà·ı": 504,
      "Ġà¶ĳà¶ļà¶ļà·Ĭ": 505,
      "à¶½à·Ķ": 506,
      "Ġà·ĥà·Ħ": 507,
      "Ġà·Ħà·ľà¶¯": 508,
      "Ġà¶±à·Ĳà¶Ńà·Ĵ": 509,
      "à·Ģà·Ķà¶»à·Ķ": 510,
      "Ġà¶¸à·ıà·Ģ": 511,
      "à·ħà·Ķ": 512,
      "Ġà¶ħà¶´à·Ĵà¶§": 513,
      "Ġà¶ľà·ľà¶©": 514,
      "Ġà¶ĩà¶Ńà·Ĭà¶Ń": 515,
      "à¶±à·Ĭà¶±à·Ļ": 516,
      "Ġà¶ļà·Ĭ": 517,
      "Ġà¶ļà¶»à¶±à·Ĭà¶±à·ļ": 518,
      "à·ļà¶¯": 519,
      ",čĊ": 520,
      "à·ľà¶»": 521,
      "Ġà¶¸à¶Ĥ": 522,
      "à¶¸à¶ľà·ļ": 523,
      "Ġà¶ļà·Ĳà¶¸": 524,
      "à¶¸à¶±à·Ĭ": 525,
      "Ġà¶¶à·ĳ": 526,
      "Ġà¶ħà·Ħ": 527,
      "Ġà¶´à·Ķà¶½": 528,
      "Ġà¶ĭà¶¯": 529,
      "à¶§à·Ķ": 530,
      "Ġà¶¶à¶½à¶±à·Ĭà¶±": 531,
      "à¶Ńà·Ķà·Ģ": 532,
      "à·Ģà¶»": 533,
      "Ġà·Ģà·Ĵà¶Ńà¶»": 534,
      "à¶Ńà·Ĵà¶±à·Ĭ": 535,
      "à·Ħà¶»": 536,
      "à¶ºà·Ļà¶±à·Ĭ": 537,
      "à¶Ķà·Ģà·Ĭ": 538,
      "Ġà¶ĳà·Ħà·Ļà¶¸": 539,
      "Ġà¶¯à¶±à·Ĭà¶±à·Ģà·ı": 540,
      "à·Ģà·ıà·ĥ": 541,
      "à¶ļà·ıà¶»": 542,
      "à¶Ĵà¶Ńà·Ĭ": 543,
      "Ġà¶ľà·Ļ": 544,
      "à¶ºà·Ļà¶ļà·Ĭ": 545,
      "à¶·": 546,
      "Ġà¶´à·Ķà¶½à·Ķà·Ģà¶±à·Ĭ": 547,
      "à·ĥà·Ĭà·ĥà·Ķ": 548,
      "Ġà¶§à·Ĵà¶ļ": 549,
      "Ġà¶´à·ı": 550,
      "à¶Ńà·Ĵà¶ºà·Ĵ": 551,
      "à¶»à·ĵ": 552,
      "à¶¸à·ļà¶ļ": 553,
      "Ġà·ĥà·Ĳ": 554,
      "à¶«à·Ķ": 555,
      "Ġà¶½à·Ĳ": 556,
      "Ġà¶ļà·Ļà¶±à·Ļà¶ļà·Ĭ": 557,
      "Ġà¶´à·ĥà·Ĭà·ĥ": 558,
      "in": 559,
      "à¶¸à·ľ": 560,
      "Ġà¶±à·ľ": 561,
      "Ġà¶Ķà¶ºà·ıà·Ģ": 562,
      "Ġà·Ħà¶¯": 563,
      "Ġ!čĊ": 564,
      "à¶Ńà·ıà·Ģ": 565,
      "Ġà¶¸à·Ļà¶Ńà¶±": 566,
      "à·ļà¶»": 567,
      "Ġà¶īà¶±à·Ĭà¶±à·ļ": 568,
      "âĪĻâĪĻ": 569,
      "à¶ľà·Ĭ": 570,
      "à·Ģà¶½à·Ĭ": 571,
      "Ġ...": 572,
      "Ġà¶ºà·ı": 573,
      "Ġà¶Ńà·Ĵà¶ºà·Ļà¶±": 574,
      "à¶¯à·Ĳà¶±à·Ĭ": 575,
      "à¶Ķà¶¶": 576,
      "à¶«à¶º": 577,
      "Ġà¶¸à·ľà¶ļà¶¯": 578,
      "Ġà¶©": 579,
      "Ġ-": 580,
      "Ġà¶ļà·ľà·Ħà·ľà¶¸à¶¯": 581,
      "à¶±à·Ĳ": 582,
      "à¶ľà·Ĵ": 583,
      "à¶¯à·Ļ": 584,
      "Ġà·Ģà·Ĵà·ģà·Ĭ": 585,
      "Ġà·Ħà·ľà¶ºà·ı": 586,
      "Ġà¶ļà·Ļ": 587,
      "à¶Ĩ": 588,
      "Ġà·Ģà¶½": 589,
      "à·Ķà·Ģà·ļ": 590,
      "Ġà¶ļà·Ĵà¶ºà¶±à·Ĭà¶±à·ļ": 591,
      "à·Ģà·Ļà¶ºà·Ĵ": 592,
      "Ġà¶ł": 593,
      "à¶Ńà¶ļ": 594,
      "Ġà¶ļà·ħ": 595,
      "à¶ľà·Ļà¶±à·Ĭ": 596,
      "Ġà¶±à·Ĵà·ĥà·ı": 597,
      "à¶Ńà·Ĭà¶Ńà·ļ": 598,
      "à¶ļà·Ŀ": 599,
      "Ġà¶Ĩà¶»": 600,
      "à¶§à¶±à·Ĭ": 601,
      "à¶¶à·ı": 602,
      "Ġà¶ħà¶´à·ļ": 603,
      "Ġà·Ħà·Ĵà¶§à·Ĵà¶º": 604,
      "à¶Ķà·Ħà·Ķ": 605,
      "à¶ħà¶´à·Ĵà¶§": 606,
      "Ġà¶¢à·ĵ": 607,
      "à¶ļà·ľà¶§": 608,
      "à¶ļà·ļ": 609,
      "à¶łà·Ĭà¶łà¶»": 610,
      "à¶±à·Ĭà¶§": 611,
      "à·Ģà·Ķà¶¯": 612,
      "Ġà¶Ńà·Ĵà¶ºà·Ļà¶±à·Ĭà¶±à·ļ": 613,
      "Ġà¶ļà¶»à¶½à·ı": 614,
      "âĢįà¶»à·Ĵ": 615,
      "Ġà¶ľà·ľà¶©à¶ļà·Ĭ": 616,
      "Ġà·Ħà¶»": 617,
      "à·Ħà·Ļà¶±": 618,
      "Ġà·ĥà·ı": 619,
      "Ġà¶ħà¶º": 620,
      "Ġà¶ħà¶¯": 621,
      "Ġà¶¸à¶»": 622,
      "Ġà·Ģà·Ĵà·ģà·Ĭà·Ģà·ıà·ĥ": 623,
      "Ġà·ĥà·Ķ": 624,
      "à·Ķà·Ģà·Ļà¶±à·Ĭ": 625,
      "Ġà¶¶à¶½à·ı": 626,
      "Ġà·Ģà·ı": 627,
      "Ġà¶īà¶±à·Ĭà¶±à·Ģà·ı": 628,
      "à·Ģà·ĥ": 629,
      "à¶±à·ĳ": 630,
      "Ġà¶¶à·Ĵ": 631,
      "Ġà¶½à·Ĳà¶¶": 632,
      "Ġà¶ĩà¶º": 633,
      "à¶½à·Ŀ": 634,
      "à¶¸à¶Ńà·Ĭ": 635,
      "Ġà¶Ńà¶»": 636,
      "Ġà¶¸à·Ħ": 637,
      "Ġà¶Ńà·Ĳà¶±": 638,
      "à¶ļà·Ĵà¶±à·Ĭ": 639,
      "Ġà¶Ĵà¶Ńà·Ĭ": 640,
      "Ġà¶ĩà¶Ńà·Ķ": 641,
      "Ġà¶±à·ļà¶¯": 642,
      "Ġà¶ļà¶»à¶±": 643,
      "à¶Ńà·Ķà¶»": 644,
      "à¶¯à·Ĭà¶°": 645,
      "à·Ĵà¶ºà·ļ": 646,
      "Ġà¶¶à·ľ": 647,
      "Ġà¶ķà¶±à·Ļ": 648,
      "Ġà¶Ķà¶ºà·ıà¶ľà·Ļ": 649,
      "Ġà¶ļà¶½à·Ĵà¶±à·Ĭ": 650,
      "Ġà¶¸à·Ļà·Ħà·Ļ": 651,
      "Ġà·Ģà·ļ": 652,
      "Ġà¶ļà·Ĵà·ĥà·Ĵ": 653,
      "à¶¸à¶±": 654,
      "âĢįà¶ºà·ı": 655,
      "\"čĊ": 656,
      "Ġà¶Ńà·Ķ": 657,
      "Ġà¶ºà¶±à·Ģà·ı": 658,
      "à·ĺ": 659,
      "Ġà¶ĳà¶ºà·ıà¶§": 660,
      "Ġà¶ĭà¶¹": 661,
      "à·Ķà·Ģà¶ļà·Ĭ": 662,
      "à¶ĩà¶ºà·Ĵ": 663,
      "Ġà·ģ": 664,
      "Ġà¶±à·Ļà·Ģà·Ļà¶ºà·Ĵ": 665,
      "Ġà¶ļà·Ķ": 666,
      "à¶±à·Ĵà¶º": 667,
      "Ġà·Ģà¶½à¶§": 668,
      "à¶©à·Ķ": 669,
      "à¶Ńà·ļ": 670,
      "âĢįà¶»à·ģà·Ĭ": 671,
      "à¶ļà¶¸à·Ĭ": 672,
      "à¶ºà·Ĵà¶±à·Ĭ": 673,
      "Ġà¶Ńà·Ģ": 674,
      "à¶±à¶ºà¶ļà·Ĭ": 675,
      "Ġà¶±à·Ĵà¶º": 676,
      "à·Ģà·Ĵà¶º": 677,
      "à¶½à·Ļ": 678,
      "Ġà·Ħà·Ĵà¶Ńà¶±à·Ĭà¶±à·ļ": 679,
      "à·ĥà¶¸": 680,
      "à¶§à¶»à·Ĭ": 681,
      "an": 682,
      "à·Ħà·Ĵà¶±à·Ĭ": 683,
      "er": 684,
      "Ġà¶ºà¶±à·Ĭà¶±à·ļ": 685,
      "à¶Ńà·Ĭà·Ģ": 686,
      "à¶½à¶º": 687,
      "à¶ļà¶º": 688,
      "Ġà·Ģà·Ļà¶±à·Ĭà¶±à·ļ": 689,
      "Ġà¶Ķà·Ģà·Ķà¶±à·Ĭ": 690,
      "Ġà·Ģà·Ĵà¶¯à·Ĵ": 691,
      "à¶Ńà·Ĭà¶¸": 692,
      "Ġà¶Ńà·Ĵà¶¶à·Ķ": 693,
      "à¶¯à·ĵ": 694,
      "à¶´à·Ħà·Ķ": 695,
      "Ġà·ĥà¶»à·Ĭ": 696,
      "Ġà¶ľà·Ĳ": 697,
      "it": 698,
      "Ġà¶´à·ľà¶©": 699,
      "Ġà¶Ķà¶º": 700,
      "Ġà¶ļà·Ĵà¶ºà¶±": 701,
      "à·Ģà¶§": 702,
      "Ġà·Ģà¶ľà·ļà¶¸": 703,
      "Ġà·Ģà·Ķà¶±à·ı": 704,
      "Ġà¶´à·ľ": 705,
      "à¶ľà·Ķ": 706,
      "on": 707,
      "Ġà¶ļà¶½à·ı": 708,
      "Ġà¶ĭà¶¯à·Ģà·Ĭ": 709,
      "Ġà·Ģà·Ĵà¶Ńà¶»à¶ºà·Ĵ": 710,
      "Ġà¶¸à·ľà¶ļà¶ļà·Ĭà¶¯": 711,
      "Ġà¶ĩà·Ģà·Ĵ": 712,
      "Ġà¶Ĩà¶¯à¶»": 713,
      "à·Ĵà¶ºà¶ļà·Ĭ": 714,
      "Ġà¶ĳà¶ļà¶§": 715,
      "Ġà¶ĩà¶ºà·Ĵ": 716,
      "Ġà¶ĳà¶ºà·ıà·Ģ": 717,
      "à¶¸à·ľà¶ļà¶¯": 718,
      "Ġà·ħ": 719,
      "à¶Ńà·Ķà¶»à·Ķ": 720,
      "Ġà·Ģà¶©à·ı": 721,
      "à¶¶à·Ĭ": 722,
      "Ġà¶·": 723,
      "à·Ĥà·Ĭ": 724,
      "à¶«à·Ĭ": 725,
      "à¶¶à¶½": 726,
      "à·ıà·Ģà·Ļà¶±à·Ĭà¶±": 727,
      "Ġà¶¯à·ļà·Ģà¶½à·Ĭ": 728,
      "Ġà¶¸à·Ĵà¶±à·Ĵà·ĥà·Ĭà·ĥà·Ķ": 729,
      "Ġà·Ħà·ı": 730,
      "à¶»à·Ķà·Ģ": 731,
      "à·Ģà·Ĳ": 732,
      "Ġà·Ĩ": 733,
      "à¶½à·Ĭà¶½à·ı": 734,
      "à·ıà·Ģà·Ĵ": 735,
      "à·Ħà·Ļà¶±à¶¸à·Ĭ": 736,
      "à·Ģà·Ļà¶±": 737,
      "à·Ħà·ľà¶³": 738,
      "à¶ºà·Ķ": 739,
      "Ġà¶¯à·Ĳà¶ļà·Ĭà¶ļ": 740,
      "Ġà¶ľà·Ļà¶¯à¶»": 741,
      "à¶ºà·Ļ": 742,
      "Ġà·Ģà·Ļà¶±à·Ķà·Ģà·Ļà¶±à·Ĭ": 743,
      "Ġà·Ģà·Ĵà¶¯à·Ĵà·Ħ": 744,
      "à¶īà¶Ńà·Ĵà¶±à·Ĭ": 745,
      "Ġà¶ħà¶¸à·Ĭ": 746,
      "Ġ\"": 747,
      "à·ĥà¶±à·Ĭ": 748,
      "Ġà·Ģà·Ĵà¶¯": 749,
      "Ġà¶ļà·Ģà¶¯": 750,
      "à¶ĳà¶ļ": 751,
      "Ġà¶¸à·ľà¶±à·Ģà¶¯": 752,
      "à¶½à·Ĭà¶½à·Ĵ": 753,
      "Ġà¶Ńà·ļ": 754,
      "à·ıà¶±": 755,
      "à·Ģà·Ļà¶±à·Ĭà¶±": 756,
      "Ġà¶Ĭ": 757,
      "me": 758,
      "à¶±à·Ĭà¶¯": 759,
      "Ġà¶Ĩà¶´à·Ħà·Ķ": 760,
      "Ġà¶ļà·Ĳà¶¸à¶Ńà·Ĵ": 761,
      "Ġà¶ļà¶»à¶±à·Ĭà¶±à·Ļ": 762,
      "à¶»à¶ļ": 763,
      "Ġà¶ħà¶½à·Ĭà¶½": 764,
      "Ġà¶īà·Ģà¶»": 765,
      "à·ıà·Ģà¶ļà·Ĭ": 766,
      "Ġà¶Ķà·Ģà·Ĭ": 767,
      "à¶ħà¶´": 768,
      "Ġà¶§à·Ĵà¶ļà¶ļà·Ĭ": 769,
      "à·Ģà¶Ń": 770,
      "Ġà¶ºà·Ķ": 771,
      "Ġà¶ļà·Ĵà·Ģà·Ĭà·Ģà·ı": 772,
      "à·ıà·Ģà¶Ńà·Ĭ": 773,
      "à¶Ĥà¶ľ": 774,
      "Ġà¶ľà·Ĵà¶ºà·ı": 775,
      "Ġà¶ľà·Ĵà·Ħà·Ĵà¶±à·Ĭ": 776,
      "à¶ºà·Ŀ": 777,
      "à¶»à·ļ": 778,
      "Ġà¶¯à¶±à·Ĭà¶±à·ļ": 779,
      "à¶§à·Ĭà¶§": 780,
      "à·ľà¶ļà·Ķ": 781,
      "à·ĥà·Ĵà¶º": 782,
      "à·Ŀà¶¸": 783,
      "Ġt": 784,
      "Ġà¶ĩà¶Ńà·Ĭà¶Ńà¶§à¶¸": 785,
      "Ġà¶ļà·Ģà·Ķà¶¯": 786,
      "à·Ħà·Ļà¶¯": 787,
      "à·Ģà¶ļà·Ĭ": 788,
      "à¶ĩà¶º": 789,
      "Ġà¶±à·Ĳà¶¯à·Ĭà¶¯": 790,
      "à¶ºà¶±à·Ĭ": 791,
      "Ġà¶¶à·Ĳà¶»à·Ĵ": 792,
      "Ġà¶Ĩà¶»à¶ļà·Ĭà·Ĥ": 793,
      "à¶¸à·Ķà¶Ńà·Ĭ": 794,
      "à·Ħà·ľà¶¸": 795,
      "à¶Ķà¶ºà·ıà¶ľà·ļ": 796,
      "à¶¸à·Ĵà¶±à·Ĭ": 797,
      "Ġà·Ģà·Ļà¶ºà·Ĵ": 798,
      "Ġà¶ħà¶Ń": 799,
      "à¶ķ": 800,
      "Ġà·Ģà·Ĳà¶»": 801,
      "Ġ(": 802,
      "à¶½à·ĵ": 803,
      "Ġà¶Ńà¶¸à·ı": 804,
      "Ġà¶ļà·Ĵà¶ºà¶±à·Ĭà¶±à·Ļ": 805,
      "Ġà¶ļà·ĳ": 806,
      "Ġà¶ķà¶±à·ı": 807,
      "à·ľà¶¸": 808,
      "Ġà¶ļà·Ŀ": 809,
      "Ġà¶¯à·Ļà¶ļ": 810,
      "à¶ĭà¶¹": 811,
      "à¶Ńà·Ĭà¶Ńà·Ķ": 812,
      "Ġà¶´à·Ļ": 813,
      "Ġà¶±à·Ģ": 814,
      "à¶³à·Ķ": 815,
      "à¶´à¶±à·Ĭ": 816,
      "à·Ķà·Ģà·Ļ": 817,
      "Ġà¶´à·ļ": 818,
      "Ġà¶ļà·ıà¶»à·Ĭ": 819,
      "Ġà¶¶à·Ĳà·Ħà·Ĳ": 820,
      "Ġà¶»à·ı": 821,
      "Ġà¶ĭà¶±à·ı": 822,
      "à¶½à·Ĵà¶º": 823,
      "Ġà·Ħà·Ļ": 824,
      "à·ĥà·Ļ": 825,
      "à¶ļà¶±à·Ĭ": 826,
      "Ġà¶Ńà·ļà¶»à·Ķ": 827,
      "à¶±à·ĵ": 828,
      "Ġà¶ľà·Ļà¶±": 829,
      "à¶Ńà¶ļà·ľà¶§": 830,
      "Ġà¶ĳà¶ļà·ļ": 831,
      "Ġà¶¢à·ĵà·Ģà·Ĵ": 832,
      "à·Ķà·Ģà¶§": 833,
      "Ġà¶´à·ıà¶»": 834,
      "à¶Ńà¶º": 835,
      "à¶¸à·Ĭà¶´": 836,
      "or": 837,
      "Ġà¶½à·Ŀ": 838,
      "à·Ħà·ĥà·Ĭ": 839,
      "Ġà·ĥà¶Ńà·Ķ": 840,
      "à¶Ńà·ĸ": 841,
      "Ġà¶´à·Ħ": 842,
      "à¶±à·Ĭà¶°": 843,
      "à·ħà·Ĵ": 844,
      "Ġà¶ľà·Ħ": 845,
      "Ġà·ĥà¶Ĥ": 846,
      "à·ĵà¶¸à¶ļà·Ĭ": 847,
      "Ġà¶ĳà¶±à·Ģà·ı": 848,
      "00": 849,
      "Ġà¶Ńà·Ĵà¶¶à·Ĭ": 850,
      "Ġin": 851,
      "Âł": 852,
      "Ġà¶ĳà¶ºà·ıà¶½": 853,
      "Ġà¶īà¶ļà·Ĭ": 854,
      "Ġà¶Ķà¶ļà·Ĭà¶ļ": 855,
      "Ġà¶±à¶¸": 856,
      "Ġà¶½à·ľà¶ļà·Ķ": 857,
      "Ġà¶¯à·Ģà·ĥ": 858,
      "à·Ģà·ĵ": 859,
      "Ġà¶īà¶±à·Ĭà¶±à·Ļ": 860,
      "Ġà·Ħà¶¸à·Ĭà¶¶": 861,
      "Ġà¶ħà¶±": 862,
      "Ġà·Ħà·Ķ": 863,
      "Ġà¶ļà¶½": 864,
      "à¶«à·Ĵ": 865,
      "à¶®à·ı": 866,
      "Ġà¶´à·Ĵà¶§": 867,
      "à·Ģà·Ļà¶½à·ı": 868,
      "Ġà¶ļà·Ĵà·ĥà·Ĵà¶¸": 869,
      "Ġà·Ħà·ľà¶³à¶ºà·Ĵ": 870,
      "à¶ľà·ı": 871,
      "âĻ": 872,
      "à·ĥà¶ļà·Ĭ": 873,
      "à¶«à·ıà¶ļà¶»": 874,
      "Ġà¶ľà·ļ": 875,
      "à·Ħà·ľà¶³à¶ºà·Ĵ": 876,
      "Ġà¶´à·ĥà·Ĭà·ĥà·ļ": 877,
      "Ġà·Ģà·Ļà¶±à·ĥà·Ĭ": 878,
      "à·ĥà·ļ": 879,
      "Ġà¶¯à·ıà¶±à·Ĭà¶±": 880,
      "Ġà¶ļà·Ģà¶¯à·ıà·Ģà¶Ńà·Ĭ": 881,
      "à¶ºà¶±à·Ĭà¶±": 882,
      "Ġà¶Ĵà¶ļà¶§": 883,
      "ar": 884,
      "at": 885,
      "Ġà¶ħà¶±à·Ĵ": 886,
      "Ġà¶ļà¶»à¶ľà¶±à·Ĭà¶±": 887,
      "âĢįâĢį": 888,
      "Ġà·ĥà·Ļ": 889,
      "à¶ľà¶Ńà·Ĭà¶Ńà·ı": 890,
      "Ġà·Ģà·Ĵà¶±à·ı": 891,
      "Ġà¶¸à·Ĳà¶»": 892,
      "Ġà¶Ĵà·Ģà·ı": 893,
      "Ġà¶´à·Ĳà¶Ńà·Ĭà¶Ń": 894,
      "Ġà·Ħà·Ĵà¶§à·Ĵà¶ºà·ļ": 895,
      "à¶½à¶ļà·Ĭ": 896,
      "Ġà¶ļà¶½à·ļ": 897,
      "à¶ľà¶Ńà·Ĭà¶Ń": 898,
      "Ġà¶ļà¶»à·ı": 899,
      "Ġà¶ĳà¶ºà·ıà¶ľà·ļ": 900,
      "à·Ĵà¶ºà·Ĵ": 901,
      "à¶ºà·ıà·Ģ": 902,
      "Ġà¶´à¶»à·Ĵ": 903,
      "Ġà¶¯à·Ļà¶±": 904,
      "à¶Ńà·Ĭà¶±à¶¸à·Ĭ": 905,
      "à·Ļà¶ºà·Ĵ": 906,
      "Ġà¶¸à¶ľà·Ļ": 907,
      "à·Ĳà¶ļà·Ĭ": 908,
      "Ġà¶ļà·ħà·ı": 909,
      "Ġà¶Ńà·Ĵà¶ºà·Ļà¶±à·Ĭà¶±à·Ļ": 910,
      "à¶ºà¶ļ": 911,
      "à·Ĵà¶Ń": 912,
      "Ġà¶»à·Ĳ": 913,
      "Ġà¶īà¶¯": 914,
      "Ġà¶Ńà·Ĵà¶ºà¶±à·Ģà·ı": 915,
      "Ġà¶īà¶³": 916,
      "à¶Ķà·Ģà·Ķà¶±à·Ĭ": 917,
      "à·Ļà¶±à·Ĭà¶±à·ļ": 918,
      "à¶ľà·Ŀ": 919,
      "Ġà¶ºà¶¸à·Ķ": 920,
      "à¶¯à·ļ": 921,
      "Ġà¶ħà·Ħà¶±à·Ĭà¶±": 922,
      "Ġà¶ĭà¶Ńà·Ĭ": 923,
      "à¶¸à·Ļà¶ºà·Ĵ": 924,
      "à¶±à·Ĭà¶Ń": 925,
      "Ġà¶ĳà¶½": 926,
      "à·ľà¶»à·ľ": 927,
      "Ġà·Ħà·Ĵà¶Ńà¶±à·Ĭà¶±à·Ļ": 928,
      "à·Ģà·Ķà¶»à·Ķà¶¯à·Ķ": 929,
      "à¶§à¶¯": 930,
      "Ġà¶¸à·ľà¶±": 931,
      "à¶±à·Ĭà·Ģ": 932,
      "à¶±à·ıà¶¯": 933,
      "Ġà¶ºà¶±": 934,
      "Ġà¶ļà·Ļà¶½à·Ĭà¶½": 935,
      "Ġà¶±à·Ļà¶¸à·Ļà¶ºà·Ĵ": 936,
      "Ġà¶Ĩà·Ģà·ļ": 937,
      "Ġà¶ļà·Ĵà·Ģà·Ĭà·Ģà·ļ": 938,
      "Ġà·Ģà·Ķà¶±à·ļ": 939,
      "à¶¸à·ľà¶ļà¶ļà·Ĭà¶¯": 940,
      "Ġà·Ģà·Ĵà¶¯à·Ĵà·Ħà¶§": 941,
      "Ġà¶´à·ľà¶©à·Ĵ": 942,
      ")čĊ": 943,
      "Ġà¶Ńà·ıà¶Ńà·Ĭà¶Ńà·ı": 944,
      "à¶Ķà·Ħà·Ĭ": 945,
      "âĢįà¶»à·ĵ": 946,
      "Ġà¶±à·ı": 947,
      "Ġà·Ģà¶½à·Ĵà¶±à·Ĭ": 948,
      "à¶±à·ıà·Ģ": 949,
      "Ġà¶ħà¶ºà·Ĵ": 950,
      "à¶ĩà¶Ńà·Ĭà¶Ń": 951,
      "à¶ļà¶»à·Ķ": 952,
      "à·Ģà¶¸": 953,
      "Ġ...čĊ": 954,
      "Ġà¶ĭà¶´": 955,
      "Ġà¶ľà·ľ": 956,
      "Ġà¶¸à¶Ńà¶ļ": 957,
      "à·Ħà·Ķà·Ģ": 958,
      "âĢįà¶»à·ı": 959,
      "à·Ģà¶½": 960,
      "à·Ħà·ļà¶ºà·Ĵ": 961,
      "Ġà·Ļ": 962,
      "Ġà¶ľà¶Ńà·Ĭà¶Ńà·ı": 963,
      "Ġà·ĥà¶¸à·Ĭà¶¶": 964,
      "Ġà¶´à¶§à¶±à·Ĭ": 965,
      "à¶©à¶ļà·Ĭ": 966,
      "Ġà·Ħà·ľà¶ºà·ıà¶ľà¶±à·Ĭà¶±": 967,
      "Ġà·Ħà·Ĳà¶¸à¶¯": 968,
      "Ġà¶¯à¶±à·Ĭà¶±à·Ģ": 969,
      "à¶ļà¶»à¶±à·Ĭà¶±": 970,
      "à¶§à·Ĵà¶ºà·ı": 971,
      "Ġà¶»à·ĳ": 972,
      "Ġà¶Ńà·Ĵà¶ºà·ı": 973,
      "Ġà¶ļà·ľà·Ħà·Ļà¶¯": 974,
      "Ġà·Ģà·ĵ": 975,
      "Ġà¶Ķà¶¶à¶§": 976,
      "Ġà¶ļà·Ļà¶±à·ı": 977,
      "à¶»à¶º": 978,
      "Ġà¶¯à¶±à·Ĭà¶±à·Ģà¶¯": 979,
      "à¶ļà·Ķà¶Ńà·Ĭ": 980,
      "Ġà¶ħà¶Ńà·Ĭ": 981,
      "à¶¸à·ıà·Ģ": 982,
      "à¶¢à·Ĭ": 983,
      "Ġà·ĥà¶¸à·ıà·Ģà·Ļà¶±à·Ĭà¶±": 984,
      "à·Ħà·Ĳà¶¸": 985,
      "Ġà¶´à¶»": 986,
      "Ġà·Ģà·Ļà¶±à·Ĭà¶±à·Ļ": 987,
      "à·Ģà·Ĵà¶§": 988,
      "Ġà¶ħà·Ģà·ģà·Ĭ": 989,
      "Ġà¶Ńà·ļà¶»": 990,
      "à¶¸à·Ĳ": 991,
      "Ġà·ĥà¶½à·Ĭà¶½à·Ĵ": 992,
      "Ġà¶ļà·ĵ": 993,
      "Ġà·Ģà·Ĳà¶©à·Ĵ": 994,
      "Ġà¶ļà¶»à¶´à·Ķ": 995,
      "à¶ĳà¶±à·Ĭà¶±": 996,
      "Ġà¶ľà¶Ńà·Ĭà¶Ń": 997,
      "Ġà¶ļà·ľà¶§": 998,
      "Ġà¶¶à¶º": 999,
      "à¶Ķà¶º": 1000,
      "à¶Ĥà¶ł": 1001,
      "à·ĥà·Ħ": 1002,
      "à·Ĵà¶±à·Ĭà¶¯": 1003,
      "à¶»à·Ĭà¶«": 1004,
      "Ġà¶¯à·Ķà¶±à·Ĭà¶±": 1005,
      "Ġà·Ģà·Ĳà¶©à¶ļà·Ĭ": 1006,
      "à¶Ĭ": 1007,
      "à·ĥà¶»à·Ĭ": 1008,
      "Ġà·Ģà·Ķà¶±": 1009,
      "Ġà¶¶à·ı": 1010,
      "Ġà·Ģà·Ļà¶½à·ıà·Ģ": 1011,
      "à·Ĩà·Ĭ": 1012,
      "Ġà¶ĭà¶±": 1013,
      "Ġà¶¶à·Ļ": 1014,
      "âĻª": 1015,
      "à¶´à·Ĳ": 1016,
      "à¶ļà·Ĵà¶º": 1017,
      "à¶ļà¶½à·Ĭ": 1018,
      "à¶ļà·Ļ": 1019,
      "à·Ħà·ľà¶¯": 1020,
      "Ġà¶ħà·Ģà·Ķ": 1021,
      "à¶ļà·ľà·Ħà·ľà¶¸à¶¯": 1022,
      "Ġà¶¯à·Ĵà·Ħà·ı": 1023,
      "à¶ľà¶º": 1024,
      "à¶ĳà¶ºà·ıà¶§": 1025,
      "Ġà¶Ķà¶ļà·Ĭà¶ļà·ľà¶¸": 1026,
      "Ġà¶½à·Ĵ": 1027,
      "Ġà¶¯à¶±à·Ĭà¶±à·Ļ": 1028,
      "Ġà·Ħà·Ŀ": 1029,
      "Ġà¶ħà¶¸": 1030,
      "Ġà·Ģà·Ĵà¶¯à·Ĵà¶ºà¶§": 1031,
      "Ġà¶ļà·Ģà·Ķà¶»à·Ķ": 1032,
      "Ġà¶½à·Ļ": 1033,
      "Ġà¶¯à·Ĳà¶±à¶ľà¶±à·Ĭà¶±": 1034,
      "à¶½à·Ķà·Ģ": 1035,
      "à¶´à·ĥà·Ĭà·ĥ": 1036,
      "Ġà¶ķà¶±à·Ĵ": 1037,
      "Ġà¶¶à·Ģ": 1038,
      "Ġà·Ģà·Ĵà·ģ": 1039,
      "Ġà¶ļà¶§": 1040,
      "ity": 1041,
      "âĪĻâĪĻâĪĻ": 1042,
      ".\"čĊ": 1043,
      "Ġà¶ĳà¶ļà¶¸": 1044,
      "Ġà¶ĳà¶º": 1045,
      "Ġà·Ħà·ļ": 1046,
      "Ġà¶½à·Ĳà¶¶à·Ķ": 1047,
      "à¶¶à·Ĵ": 1048,
      "Ġà·Ħà¶»à·Ĵà¶ºà¶§": 1049,
      "Ġà·Ģà·Ħ": 1050,
      "à¶¶à¶½à¶±à·Ĭà¶±": 1051,
      "à¶¸à·ľà¶±": 1052,
      "Ġk": 1053,
      "à·ĥà¶¸à·Ħà¶»": 1054,
      "Ġà¶Ķà¶ºà·ıà¶½": 1055,
      "âĢįà¶»à·ļ": 1056,
      "Ġà¶½à·ļ": 1057,
      "Ġà¶ĩà·Ģà·Ĵà¶Ńà·Ĭ": 1058,
      "à·Ĵà¶ºà·Ŀ": 1059,
      "he": 1060,
      "Ġs": 1061,
      "Ġà¶¸à·ľà¶ļà¶ļà·Ĭ": 1062,
      "Ġà¶ºà¶±à·Ĭà¶±à·Ļ": 1063,
      "Ġà¶±à·Ĳà¶Ńà·Ĭà¶±à¶¸à·Ĭ": 1064,
      "ou": 1065,
      "Ġà¶¯à·Ķà·Ģ": 1066,
      "à·ĥà·Ĭà·ĥà¶±": 1067,
      "Ġà¶¶à·Ŀ": 1068,
      "à¶¸à¶º": 1069,
      "City": 1070,
      "Ġà¶ħà¶»à¶ľà·Ļà¶±": 1071,
      "à¶±à·Ĭà¶Ńà·Ĵ": 1072,
      "Ġà¶ļà·ľà¶½à·Ĭà¶½": 1073,
      "à¶°à·ı": 1074,
      "à¶¯à·Ļà¶±": 1075,
      "Ġà¶±à·Ĳà¶Ńà·Ķà·Ģ": 1076,
      "à·ħà·Ķà·Ģ": 1077,
      "Ġà·ĥà¶¸à·Ĭà¶¶à¶±à·Ĭà¶°": 1078,
      "Ġà¶ĳà·Ħà·Ļ": 1079,
      "Ġà¶ĳà¶½à·Ĵà¶ºà¶§": 1080,
      "à¶»à·ĵà¶ļà·Ĭà·Ĥ": 1081,
      "Ġà·Ħà·Ĵà¶§à·Ĵà¶ºà·ı": 1082,
      "Ġà¶Ńà¶¸à·Ķ": 1083,
      "Ġà¶Ńà·Ĵà¶¶à·Ĭà¶¶": 1084,
      "es": 1085,
      "Ġà¶ħà¶»à¶±à·Ĭ": 1086,
      "Ġà¶ļà¶»à·Ķ": 1087,
      "Ġà¶ľà·Ĵà¶º": 1088,
      "à¶łà·Ĭà¶łà·Ĵ": 1089,
      "ame": 1090,
      "à¶»à·Ĵà¶º": 1091,
      "Ġà¶ħà¶Ńà¶»": 1092,
      "âĢįà¶»à¶Ńà·Ĵ": 1093,
      "à·Ľ": 1094,
      "à¶«à¶ºà¶ļà·Ĭ": 1095,
      "à¶§à¶Ńà·Ĭ": 1096,
      "Ġà¶īà¶ļà·Ĭà¶¸à¶±": 1097,
      "à¶¶à·Ŀ": 1098,
      "à¶»à·Ŀ": 1099,
      "Ġà¶Ńà¶»à¶¸à·Ĭ": 1100,
      "à·Ĭà¶©à¶ļà·Ĭ": 1101,
      "Ġà¶ĳà¶ºà·ıà¶½à·ı": 1102,
      "Ġà¶¸à·Ŀ": 1103,
      "Ġà¶Ńà·ıà¶Ńà·Ĭà¶Ń": 1104,
      "à¶Ķà¶ºà·ıà¶ľà·Ļ": 1105,
      "Ġà¶ħà·Ģà·Ķà¶»à·Ķà¶¯à·Ķ": 1106,
      "à¶ĳà·Ħà·Ļà¶±à¶¸à·Ĭ": 1107,
      "Ġà¶ļà·Ĳà¶¸à¶Ńà·Ĵà¶ºà·Ĵ": 1108,
      "Ġà¶ĳà¶Ńà¶±": 1109,
      "à¶Ĥà¶ļ": 1110,
      "Ġà·ĥà·Ĳà¶½": 1111,
      "à·Ģà¶»à·Ĭ": 1112,
      "à·ŀ": 1113,
      "Ġà¶¯à¶ļà·Ĵ": 1114,
      "à¶±à·Ŀ": 1115,
      "à¶¸à·Ĵà¶±à·Ĵ": 1116,
      "Ġà¶ĳà¶±": 1117,
      ":čĊ": 1118,
      "à¶¢à·Ĵ": 1119,
      "Ġà¶ļà·Ĵà¶ºà¶±à·Ģà·ı": 1120,
      "Ġà·ĥà·Ĵà¶º": 1121,
      "Ġà¶¯à·Ļà·Ģà·Ĵà¶º": 1122,
      "Ġà¶ļà·ıà¶»": 1123,
      "à¶±à¶ļà·Ĭ": 1124,
      "Ġà¶ĭà¶©": 1125,
      "Ġà¶½à¶¶à·ı": 1126,
      "Ġà¶¸à·ľà¶±à·Ģà·ı": 1127,
      "à¶ħà¶´à·ļ": 1128,
      "ĠC": 1129,
      "à¶Ńà·Ķà¶Ńà·Ĵà¶ºà·Ĵ": 1130,
      "à¶¶à·Ĳ": 1131,
      "à¶ľà¶Ń": 1132,
      "à¶»à·Ļ": 1133,
      "Ġà¶ħà¶´à·Ĵà·Ģ": 1134,
      "en": 1135,
      "à¶ľà¶±à·Ĭà¶±à·Ģà·ı": 1136,
      "à·Ħà·Ļà¶±à·Ĭ": 1137,
      "Ġà¶±à·Ĳà·Ģà¶Ń": 1138,
      "à·ĥà·Ĭà¶®": 1139,
      "à·Ģà¶ºà·Ĵ": 1140,
      "à¶ļà·Ģà·Ķà¶¯": 1141,
      "à·ıà·Ģà¶§": 1142,
      "Ġà¶ĭà¶±à·ļ": 1143,
      "à·Ŀà¶±à·Ĭ": 1144,
      "à¶ľà·Ĳ": 1145,
      "Ġà¶ĳà·ħ": 1146,
      "à¶ħà¶»": 1147,
      "à¶©à·ıà¶º": 1148,
      "Ġà¶´à·Ĵà·ħà·Ĵ": 1149,
      "Ġà·Ģà·Ļà¶©à·Ĵ": 1150,
      "Ġà¶ļà·Ĵà·Ģà·Ĭà·Ģ": 1151,
      "à¶ľà¶Ńà·Ĭ": 1152,
      "Ġà¶ľà¶¸à¶±à·Ĭ": 1153,
      "Ġà¶±à·Ļà¶¸à·ļ": 1154,
      "Ġà¶´à·ıà¶½": 1155,
      "Ġà¶īà¶Ńà·Ĵà¶±à·Ĭ": 1156,
      "Ġà¶±à·Ģà¶Ńà·Ĭà¶Ń": 1157,
      "Ġà¶Į": 1158,
      "à·ĳà¶±à·Ĭ": 1159,
      "Ġà¶¸à·Ĳà¶»à·Ķ": 1160,
      "à¶ļà¶½à·ı": 1161,
      "Ġà¶ĳà·Ħà·Ļà¶±à¶¸à·Ĭ": 1162,
      "Ġà¶ļà·ıà¶½": 1163,
      "à·ľà¶ļà·Ĭ": 1164,
      "à¶Ńà·ĸà¶Ńà·Ĵà¶ºà·Ĵ": 1165,
      "à¶¸à·ĵ": 1166,
      "Ġà¶±à·Ĳà¶Ńà·Ĭà¶Ń": 1167,
      "Ġà¶±à·ļ": 1168,
      "Ġà¶¯à·ĵ": 1169,
      "Ġà·ĥà·ĵ": 1170,
      "à¶ĳà¶Ńà¶ļà·ľà¶§": 1171,
      "Ġà¶Ĩà·Ģà·ı": 1172,
      "Ġà·Ģà·Ĳà¶©à·ļ": 1173,
      "Ġà¶´à·Ģà·Ķ": 1174,
      "Ġà¶¸à·ĸ": 1175,
      "à·ĥà¶ºà·Ĵ": 1176,
      "Ġà¶ºà·Ķà¶Ńà·Ķ": 1177,
      "Ġà¶īà¶©": 1178,
      "Ġà¶¢à·Ĵ": 1179,
      "gm": 1180,
      "Ġà¶¸à¶Ń": 1181,
      "Ġà·Ħà¶¸": 1182,
      "Ġà¶±à¶»à¶ļ": 1183,
      "à¶«à·ıà¶ļà¶»à¶½à·ı": 1184,
      "Ġà¶´à·Ĳà¶±": 1185,
      "à·Ģà¶±": 1186,
      "à¶»à·Ĳ": 1187,
      "à¶±à¶¸à·Ķà¶Ńà·Ĭ": 1188,
      "Ġà¶´à·Ĳà·Ħà·Ĳ": 1189,
      "Ġkgm": 1190,
      "à¶´à·ľ": 1191,
      "Ġà¶¶à·ļà¶»": 1192,
      "à¶§à·Ĵà¶±à·Ĭ": 1193,
      "à·Ħà¶±à·Ĭ": 1194,
      "à·Ģà·ĥà·Ĭ": 1195,
      "à¶ļà¶¸": 1196,
      "Ġà¶½à·ĥà·Ĭà·ĥà¶±": 1197,
      "Ġà¶´à¶»à·ĵà¶ļà·Ĭà·Ĥ": 1198,
      "Ġ.": 1199,
      "Ġà¶´à·ĥà·Ĭà·ĥà·Ļ": 1200,
      "à¶ħà¶±à·ļ": 1201,
      "à¶Ńà·Ģ": 1202,
      "Ġà¶ļà·ıà¶¸": 1203,
      "à¶§à·Ĭà¶§à·Ĵà¶º": 1204,
      "Ġà¶ļà·Ĵà¶ºà¶½à¶¯": 1205,
      "Ġà·Ħà·ľà¶¯à¶ºà·Ĵ": 1206,
      "à·Ģà¶ľà·ļ": 1207,
      "à¶¯à·Ķà·Ģ": 1208,
      "à·Ħà·Ŀ": 1209,
      "à¶ºà·Ļà¶±à·Ĭà¶¸": 1210,
      "Ġc": 1211,
      "is": 1212,
      "à·ĥà·Ķà¶±à·Ĭ": 1213,
      "Ġà¶½à¶ľ": 1214,
      "à¶´à¶Ńà·Ĭ": 1215,
      "Ġà¶»à·Ŀ": 1216,
      "à·Ģà·Ļà¶±à·Ĵ": 1217,
      "Ġà¶Ķà¶¶à·ļ": 1218,
      "Ġà¶´à·Ķà¶Ńà·ı": 1219,
      "à¶¥": 1220,
      "Ġà·Ħà¶»à·Ĵà¶¯": 1221,
      "Ġà·ĥà·ļ": 1222,
      "à¶ľà·Ĳà¶±": 1223,
      "à·Ģà¶º": 1224,
      "à¶¸à·ıà¶±à·Ĭ": 1225,
      "Ġà¶¸à·ľà¶ļà¶¯à·Ĭà¶¯": 1226,
      "à·Ŀà¶¯à¶»": 1227,
      "Ġà·Ħà·ľà¶º": 1228,
      "à·Ģà¶±à·Ĭ": 1229,
      "Ġà¶ļà·ľà¶łà·Ĭà¶łà¶»": 1230,
      "à¶ħà¶±à·Ĵ": 1231,
      "à¶§à·Ķà¶ºà·Ĵ": 1232,
      "Ġà¶ļà¶«à·Ĭ": 1233,
      "Ġà¶ħà¶¸à·ı": 1234,
      "à·ĥà·Ĭà¶Ńà¶»": 1235,
      "Ġà¶Ńà·Ĵà¶ºà¶±à·Ĭà¶±": 1236,
      "Ġà¶ļà·Ĵà·Ģà·Ĭà·Ģà·Ļ": 1237,
      "à·ĥà¶»": 1238,
      "à·ĥà·Ĭà¶Ńà·Ĵ": 1239,
      "à·ļà¶¸": 1240,
      "Ġà·ĥà¶¸à·Ħà¶»": 1241,
      "Ġà¶¸à·Ļà·Ħà·ļ": 1242,
      "Ġà·Ħà·Ĵà¶Ńà¶±à·Ģà·ı": 1243,
      "à·ıà¶»à·Ĭ": 1244,
      "à¶°à·Ĵ": 1245,
      "Ġà¶ĭà¶±à·Ĭ": 1246,
      "à¶«à·ļ": 1247,
      "à¶Ńà¶¸à·Ķ": 1248,
      "Ġà¶Ķà·Ħà·Ķà¶§": 1249,
      "à¶ĳà¶ºà·ıà¶½à·ı": 1250,
      "Ġà¶¸à¶»à¶±à·Ĭà¶±": 1251,
      "à¶ľà·ľ": 1252,
      "Ġà·Ħà¶»à·Ĵà¶º": 1253,
      "Ġà¶±à¶ľ": 1254,
      "à¶¸à·Ļà¶Ńà¶±": 1255,
      "Ġà·Ħà·Ĳà¶ļà·Ĵ": 1256,
      "Ġà¶ĭà¶¶": 1257,
      "Ġà·ĥà·ľ": 1258,
      "à¶ļà·Ĳ": 1259,
      "Ġà·Ģà·Ļà¶±à·Ģ": 1260,
      "Ġ..": 1261,
      "à¶ĳà¶ºà·ıà¶½": 1262,
      "Ġà·Ģà·ļà·Ģà·Ĵ": 1263,
      "à¶ļà¶ºà·Ĵ": 1264,
      "Ġà¶ļà·Ĵà¶»": 1265,
      "à·Ģà¶±à·Ģà·ı": 1266,
      "à¶ĳà·Ħà·Ļà¶¸": 1267,
      "à·ĥà·ĵ": 1268,
      "Ġà·Ģà¶»": 1269,
      "à¶ħà¶¸à·Ĭ": 1270,
      "Ġà·Ģà¶ľ": 1271,
      "à¶´à·Ĭà¶´": 1272,
      "Ġà¶¯à·ıà¶½à·ı": 1273,
      "Ġà¶ľà¶±à·Ĭà¶±à·Ģà·ı": 1274,
      "Ġà¶īà·ĥà·Ĭà·ĥ": 1275,
      "Ġà¶´à·ľà¶½à·Ĵ": 1276,
      "Ġà¶Ķà¶ºà·ıà¶½à·ı": 1277,
      "à·Ļà¶±à·Ĭà¶±à·Ļ": 1278,
      "Ġà¶¸à·Ļà¶ºà·ı": 1279,
      "Ġà¶Ńà·Ĵà¶ºà¶±": 1280,
      "Ġà¶ĩà·Ħà·Ķ": 1281,
      "Ġà¶īà·Ģà¶»à¶ºà·Ĵ": 1282,
      "Ġà¶´à·Ĵà¶»à·Ĵ": 1283,
      "Ġà¶¶à·ľà¶»à·Ķ": 1284,
      "Ġà¶Ńà·Ģà¶Ńà·Ĭ": 1285,
      "Ġà¶ļà¶¸à¶ļà·Ĭ": 1286,
      "à·ĥà·Ĭà¶§": 1287,
      "à¶ļà·ĵ": 1288,
      "Ġà¶Ńà·ĵ": 1289,
      "al": 1290,
      "Ġà¶ĳà¶ºà·ıà¶ľà·Ļ": 1291,
      "Ġà·Ħà·Ĵà¶Ńà¶±à·Ĭà¶±": 1292,
      "Ġà·Ģà·Ĵà¶§": 1293,
      "Ġà¶ļà¶«à·Ĭà¶©à·ıà¶º": 1294,
      "Ġà¶¢à·ĵà·Ģà¶Ńà·Ĭ": 1295,
      "Ġà·ĥà·Ļà¶½à·Ĭà¶½": 1296,
      "Ġà¶īà¶¯à·Ĵ": 1297,
      "Ġà¶Ķà·Ħà·ļ": 1298,
      "Ġà¶ĩà¶Ńà·Ķà¶½à¶§": 1299,
      "à¶½à¶»à·Ĭ": 1300,
      "Ġà¶Ķà·Ħà·Ķà·Ģ": 1301,
      "à·Ļà¶±à·Ĭà¶¸": 1302,
      "à¶ļà·Ĭà¶ļà·Ķ": 1303,
      "à¶Ńà·Ĭà·Ģà¶º": 1304,
      "Ġà¶¯à·Ļà¶±à·Ģà·ı": 1305,
      "Ġà¶ħà¶¸à·Ĭà¶¸à·ı": 1306,
      "à·Ħà·ľà¶¯à¶ºà·Ĵ": 1307,
      "à¶Ĵà¶ºà·Ĵ": 1308,
      "Ġà¶ħà¶¸à¶Ńà¶ļ": 1309,
      "à·ļà·Ĥ": 1310,
      "à¶Ńà·ıà·Ģà¶ļà·Ĭ": 1311,
      "à·ĸà¶»à·Ĭà¶«": 1312,
      "à¶´à·ıà¶»": 1313,
      "Ġà¶ļà¶»à¶±à·Ģ": 1314,
      "Ġà¶ļà¶©": 1315,
      "âĢįà¶»à·ģà·Ĭà¶±à¶ºà¶ļà·Ĭ": 1316,
      "Ġà¶ħà¶¯à·Ħ": 1317,
      "à¶±à·Ĭà¶¯à·Ķ": 1318,
      "Name": 1319,
      "à¶ħà¶¯": 1320,
      "Ġà·Ħà·Ĳà¶¸à·Ŀà¶¸": 1321,
      "à·ĥà·Ĳ": 1322,
      "Ġà¶¶à·Ĭ": 1323,
      "Ġà¶»à·Ĵ": 1324,
      "Ġà·Ħà¶¸à·Ķ": 1325,
      "à¶»à·Ĭà¶®": 1326,
      "Ġà¶±à¶¸à·Ķà¶Ńà·Ĭ": 1327,
      "Ġà¶ĳà¶ļà·Ļà¶±à·Ĭ": 1328,
      "Ġà·ĥà·Ħà·Ŀà¶¯à¶»": 1329,
      "Ġà·ĥà¶¸à·ı": 1330,
      "Ġà¶¯à·Ĳà¶¸à·Ĭ": 1331,
      "Ġà¶¸à·ľà¶±à·ıà¶¯": 1332,
      "Ġà·Ģà·Ĵà¶º": 1333,
      "à¶»à¶ºà¶ļà·Ĭ": 1334,
      "as": 1335,
      "Ġà·Ħà·Ĵà¶§": 1336,
      "Ġà·Ħà·ľà¶³à·Ĵà¶±à·Ĭ": 1337,
      "à¶½à·Ĵà¶ļ": 1338,
      "Ġà·ĥà·ĳ": 1339,
      "à¶¢à·ı": 1340,
      "Ġà¶ļà¶»à¶±à·Ĭà¶±à¶¸à·Ĭ": 1341,
      "à·ĥà¶§": 1342,
      "Ġà¶±à·Ĵà¶¯": 1343,
      "Ġà¶īà¶½à·Ĭà¶½": 1344,
      "à·ĥà·Ĵà¶±à·Ĭ": 1345,
      "--": 1346,
      "à·ĸà¶´": 1347,
      "ion": 1348,
      "Ġà¶¸à·ĵ": 1349,
      "Ġà¶¸à·Ħà¶Ńà·Ĭà¶Ń": 1350,
      "Ġà·Ģà·Ĵà·Ħà·Ĵ": 1351,
      "Ġà¶±à·Ĵà¶ºà¶¸à¶ºà·Ĵ": 1352,
      "Ġà¶±à·Ĳà¶Ńà·Ĵà·Ģ": 1353,
      "à¶±à·Ĭà¶ľà·ļ": 1354,
      "Ġà¶±à·ĵ": 1355,
      "à¶´à·ľà¶»à·ľ": 1356,
      "à¶īà¶ļà·Ĭ": 1357,
      "à¶¯à·Ķà¶¸": 1358,
      "Ġà¶´à·Ķà¶½à·Ķà·Ģà¶±à·Ĭà¶¯": 1359,
      "Ġà¶¸à¶ľ": 1360,
      "Ġ'": 1361,
      "Ġà¶ļà¶»à¶½": 1362,
      "Ġà¶ļà·ļ": 1363,
      "Ġà·ĥà¶³": 1364,
      "Ġà¶ļà·Ĵà¶»à·ĵ": 1365,
      "Ġà¶ħà¶©à·Ķ": 1366,
      "à¶½à·Ķà¶Ńà·Ĭ": 1367,
      "Ġà·ĥà·Ĵà¶¯à·Ĭà¶°": 1368,
      "à¶¯à·Ĭà¶¯à·Ĵ": 1369,
      "Ġà¶ľà·Ķ": 1370,
      "Ġà¶ħà¶ºà·Ĵà¶±à·Ĭ": 1371,
      "à¶»à·Ĭà·ģ": 1372,
      "Ġà¶¯à·Ķà¶»": 1373,
      "à·ĥà·Ĭà¶¸": 1374,
      "Ġà·Ģà·Ĵà¶±à·ıà·ģ": 1375,
      "Ġà¶¯à·Ĵà¶ľ": 1376,
      "Ġà¶Ńà·Ĵà¶ºà·Ļà¶±à·Ģà¶¯": 1377,
      "à¶Ńà·Ķà¶¸à·ı": 1378,
      "ĠM": 1379,
      "Ġà¶Ńà·ļà¶»à·Ķà¶¸à·Ĭ": 1380,
      "Ġà¶ļà¶»à¶¯à¶»": 1381,
      "à·Ķà¶Ńà·Ĭ": 1382,
      "Ġà¶ļà·ľà·Ħà·ļ": 1383,
      "Ġà¶¸à·Ŀà¶©": 1384,
      "Ġà·Ģà·Ĳà¶»à¶¯à·Ĵ": 1385,
      "Ġà·Ģà·Ķà¶«à·ı": 1386,
      "le": 1387,
      "Ġà·ĥà¶¸à·Ĭà¶´": 1388,
      "à¶ĩà¶Ńà·Ĭà¶Ńà¶§à¶¸": 1389,
      "Ġà¶Ńà·Ĵà¶ºà¶±à·Ģ": 1390,
      "Ġà¶´à·Ĵà·ĥà·Ĭà·ĥà·Ķ": 1391,
      "Ġà¶ħà¶±à·Ĭà¶Ńà·Ĵ": 1392,
      "à·ļà¶»à¶¸": 1393,
      "Ġà¶¶à¶½à·ıà¶ľà¶±à·Ĭà¶±": 1394,
      "Ġà¶´à·ıà·Ģà·Ĵ": 1395,
      "à¶Ĵà¶ļà¶§": 1396,
      "Ġà¶´à·Ļà¶±à·Ĭ": 1397,
      "Ġà¶±à·Ĵà¶ºà¶¸": 1398,
      "à·ĥà·Ķà¶¸à·Ĭ": 1399,
      "à¶»à·Ĵà¶½à·ı": 1400,
      "Ġà¶´à·Ļà¶±à·Ĭà¶±": 1401,
      "Ġà¶Ĩà¶ºà·Ļ": 1402,
      "à¶«à·Ĭà¶©": 1403,
      "Ġà¶´à¶Ńà·Ĭ": 1404,
      "Ġà¶Ńà·Ŀ": 1405,
      "ic": 1406,
      "Ġà¶ľà·ı": 1407,
      "à·Ĵà¶ºà·Ķ": 1408,
      "à¶ºà·Ĵà¶º": 1409,
      "Ġà·Ħà¶»à·Ĵà¶¸": 1410,
      "à¶ļà·Ķà¶«à·Ķ": 1411,
      "Ġà·ĥà·ĸ": 1412,
      "Ġà¶ļà¶»à·ļ": 1413,
      "Ġà¶ħà·Ģà·ĥà·Ĭà¶®": 1414,
      "Ġà¶¸à¶ľà·Ķ": 1415,
      "Ġà¶ľà·Ĵà¶ºà·ļ": 1416,
      "Ġà¶´à·Ļà¶±": 1417,
      "à¶»à·Ĭà¶ľ": 1418,
      "Ġà¶´à·ľà¶©à·Ĭà¶©à¶ļà·Ĭ": 1419,
      "à¶±à·Ĳà·Ħà·Ĳ": 1420,
      "à¶Ĥà¶łà·Ĵ": 1421,
      "à·ĥà·Ĭà¶§à¶»à·Ĭ": 1422,
      "à¶½à¶ºà·Ĵ": 1423,
      "Ġà¶¢à·ļ": 1424,
      "à¶Ľ": 1425,
      "Ġà¶´à·ıà·Ģà·Ĵà¶łà·Ĭà¶łà·Ĵ": 1426,
      "à¶¶à·ľ": 1427,
      "Ġà¶ĩà¶»": 1428,
      "Ġà·Ģà·Ĳà¶¯": 1429,
      "à¶Ķà¶ºà·ıà¶½à·ı": 1430,
      "Ġà¶ļà¶»à¶ºà·Ĵ": 1431,
      "Ġà¶ĩà¶ºà·Ģ": 1432,
      "Ġà¶ľà·ıà·Ģ": 1433,
      "Ġà¶ħà¶±à·Ķ": 1434,
      "à·Ģà¶ľà·ļà¶¸": 1435,
      "Ġà¶īà·ĥà·Ĭà·ĥà¶»": 1436,
      "Ġà¶ħà¶±à·Ĵà¶Ńà·Ĭ": 1437,
      "à·ĥà¶¸à·ıà·Ģà·Ļà¶±à·Ĭà¶±": 1438,
      "Ġà¶¯à·Ĳà¶ļà·Ĭà¶ļà·ı": 1439,
      "à·Ħà·Ĵà¶Ń": 1440,
      "Ġà·Ħà·Ĵà¶Ńà·Ķà·Ģà·ļ": 1441,
      "à¶±à·Ĭà¶©": 1442,
      "à¶±à¶ºà¶§": 1443,
      "Ġà¶ĳà¶Ńà¶ļà·ľà¶§": 1444,
      "à¶ļà·Ģà·Ķà¶»à·Ķ": 1445,
      "Ġà¶ĩà¶ºà¶§": 1446,
      "Ġà·Ħà¶¯à¶±à·Ĭà¶±à·ļ": 1447,
      "à¶±à·Ĵà¶ºà¶¸": 1448,
      "Ġw": 1449,
      "à¶°à·ıà¶»": 1450,
      "ĠS": 1451,
      "à·ľà¶ºà·Ĵ": 1452,
      "à·Ģà¶½à·ı": 1453,
      "à¶¸à¶«": 1454,
      "Ġà¶¢à·ĵà·Ģà·Ĵà¶Ń": 1455,
      "Ġà·Ħà·Ĵà¶Ńà·Ķ": 1456,
      "om": 1457,
      "Ġà¶ĩà¶¸": 1458,
      "Ġà¶ļà·ĳà¶¸": 1459,
      "à¶°à·Ĭ": 1460,
      "Ġà¶ĳà¶łà·Ĭà¶łà¶»": 1461,
      "Ġà·Ħà·ľà¶»": 1462,
      "Ġà·Ģà·Ĵà¶Ńà¶»à¶ļà·Ĭ": 1463,
      "Ġà¶±à·ľà¶ļ": 1464,
      "Ġà·ħà¶Ł": 1465,
      "à¶´à·ľà¶©": 1466,
      "à¶¯à¶±à·Ĭà¶±": 1467,
      "Ġà·Ħà·ľà¶¯à·Ĵà¶±à·Ĭ": 1468,
      "à¶¯à·Ĭà¶ľ": 1469,
      "Ġà¶¸à·Ħà¶Ńà·Ĭà¶¸": 1470,
      "Ġà¶ļà¶»à¶¸à·Ķ": 1471,
      "Ġà¶Ńà·Ķà·Ģ": 1472,
      "Ġà¶Ĩà·Ģ": 1473,
      "à¶Ńà·Ĳà¶±": 1474,
      "Ġà¶¸à·Ķà·Ħà·Ķ": 1475,
      "Ġà¶Ńà·ıà¶¸": 1476,
      "à¶³à·Ĵ": 1477,
      "Ġà¶±à·Ĳà¶Ńà·Ĭà¶Ńà·ļ": 1478,
      "à·Ħà·ıà¶§": 1479,
      "à¶¸à·ľà¶±à·Ģà¶¯": 1480,
      "Ġà¶ķà¶ļ": 1481,
      "à¶½à·Ĵà¶±à·Ĭà¶¸": 1482,
      "Ġà¶¶à·ļ": 1483,
      "Ġà·Ĥ": 1484,
      "Ġà¶½à¶Ł": 1485,
      "à¶´à¶Ńà·Ĵ": 1486,
      "Ġà·ĥà¶½": 1487,
      "à¶¸à¶ľà·Ļ": 1488,
      "à¶ĳà¶´à·ı": 1489,
      "Ġà¶ĩà¶Ń": 1490,
      "à¶¸à·ľà¶ļà¶¯à·Ĭà¶¯": 1491,
      "à¶ºà¶ºà·Ĵ": 1492,
      "Ġà¶¯à·ľà¶»": 1493,
      "à·Ģà·Ķà¶±à·ı": 1494,
      "Ġà¶ĳà¶ºà·ıà¶½à¶§": 1495,
      "ĠU": 1496,
      "10": 1497,
      "à·Ģà·Ĭà·Ģà·ı": 1498,
      "Ġà¶¶à¶½à·ıà¶´à·ľà¶»à·ľ": 1499,
      "à¶¸à·ľà¶ļà¶ļà·Ĭ": 1500,
      "Ġà·ĥà¶³à·Ħà·ı": 1501,
      "Ġà¶Ńà·ľà¶»": 1502,
      "Ġà¶ľà·ıà¶±": 1503,
      "Ġà¶Ĭà¶§": 1504,
      "Ġà·ĥà·Ĵà¶§à·Ĵ": 1505,
      "Ġà¶Ńà·ĵà¶»": 1506,
      "à·Ħà·Ļà¶ļà·Ĭ": 1507,
      "à¶¯à·Ĳ": 1508,
      "Ġà¶¯à¶ļà·Ĵà¶±à·Ĭà¶±": 1509,
      "Ġà¶¸à·Ĵà¶±à·Ĵà·Ħ": 1510,
      "à¶¯à·Ĵà¶±à·Ĭà¶±": 1511,
      "Ġà¶±à·Ĵà¶»à·Ĭ": 1512,
      "Ġà¶¶à¶½à·ıà¶ľà·Ļà¶±": 1513,
      "Ġà·ĥà·Ĭà¶Ńà·Ķà¶Ńà·Ĵà¶ºà·Ĵ": 1514,
      "à¶¸à·Ļà¶±à·Ĭà¶±": 1515,
      "à¶¯à·Ļà¶±à·Ĭà¶±": 1516,
      "Ġà¶ļà·ıà¶½à¶º": 1517,
      "à¶½à·Ķà·Ģà·ı": 1518,
      "Ġà·Ħà¶¸à·Ķà·Ģ": 1519,
      "Ġà¶¢à·ı": 1520,
      "Ġà¶¸à·ľà¶±à·Ģ": 1521,
      "re": 1522,
      "Ġà·Ģà·Ĭ": 1523,
      "Ġà¶´à·Ĳà·Ħà·Ĳà¶¯à·Ĵ": 1524,
      "à¶Ńà·Ĭà¶Ńà¶»": 1525,
      "Ġà¶¸à·ıà¶Ńà·Ĭ": 1526,
      "Ġà¶±à·Ģà¶Ńà·Ĭ": 1527,
      "à·Ħà¶¸": 1528,
      "Ġà¶Ńà·Ĵà¶ºà·ıà¶ľà¶±à·Ĭà¶±": 1529,
      "à¶´à·ļ": 1530,
      "Ġà¶¸à¶±à·Ķ": 1531,
      "Ġ..čĊ": 1532,
      "Ġà¶ĳà¶ļà¶Ńà·Ķ": 1533,
      "à·ľà¶±à·Ĭ": 1534,
      "à¶»à·ıà·Ģ": 1535,
      "à¶Ķà¶¶à¶§": 1536,
      "Ġà¶ħà¶¸à·ıà¶»à·Ķ": 1537,
      "Ġà·Ģà¶ł": 1538,
      "Ġà·Ģà¶Ńà·Ķà¶»": 1539,
      "Ġà¶ħà¶©": 1540,
      "Ġà¶Ķà·Ħà·Ķà¶ľà·ļ": 1541,
      "à¶±à¶ºà·ļ": 1542,
      "à¶Ĥà·ģ": 1543,
      "à¶ºà¶ļà¶§": 1544,
      "à¶ħà·Ħ": 1545,
      "Ġà¶Ĩà¶»à¶ļà·Ĭà·Ĥà·ı": 1546,
      "à¶§à·ı": 1547,
      "ia": 1548,
      "Ġà¶´à·ľà¶»à·ľ": 1549,
      "Ġà¶ĩà¶¯": 1550,
      "Ġà¶īà¶¯à¶±à·Ĭ": 1551,
      "à·Ģà·ıà·Ħ": 1552,
      "à¶ĭà¶¶": 1553,
      "Ġà¶¸à·Ļà·Ħà·Ļà¶§": 1554,
      "Ġà·ĥà¶Ńà·Ķà¶§": 1555,
      "à¶¢à·Ķ": 1556,
      "à¶°à·ıà¶±": 1557,
      "Ġà¶¯à·Ķà¶±à·Ĭà¶±à·ı": 1558,
      "à¶ļà·ıà·Ģ": 1559,
      "Ġà¶Ńà·Ĵà¶¶à·Ķà¶±à·ı": 1560,
      "Ġà¶Ĩà¶¯à¶»à·Ļà¶ºà·Ĵ": 1561,
      "Ġf": 1562,
      "Ġà¶ĩà·ĥà·Ĭ": 1563,
      "à·ĥà¶¸à·Ħà¶»à·Ģà·Ĵà¶§": 1564,
      "Ġà·Ģà·ıà¶»à·Ĭ": 1565,
      "Ġà¶ľà·Ĭ": 1566,
      "Ġà¶ļà·ıà¶§": 1567,
      "Ġà¶¯à·Ģà·ĥà·Ĭ": 1568,
      "Ġà¶ĳà¶ļà·Ĭ": 1569,
      "à¶»à·ıà¶°": 1570,
      "Ġà¶ĭà¶Ńà·Ĭà·ĥà·Ħ": 1571,
      "Ġà¶½à·ĳ": 1572,
      "Ġà¶´à·Ħà¶»": 1573,
      "à¶ľà·ľà¶©": 1574,
      "à¶ļà·Ķà¶«": 1575,
      "à¶»à·Ĵà¶ºà·ı": 1576,
      "à¶±à·Ķà·Ģ": 1577,
      "Ġà¶ļà¶»à¶±à·Ģà¶¯": 1578,
      "Ġà·ĥà·Ĭà¶Ńà·ĸà¶Ńà·Ĵà¶ºà·Ĵ": 1579,
      "Ġà·Ħà·Ĵà¶»": 1580,
      "à¶½à¶±à·Ĭ": 1581,
      "Ġb": 1582,
      "à¶ĭà¶±à·Ĭ": 1583,
      "Ġà¶¯à·Ļà¶ļà¶ļà·Ĭ": 1584,
      "Ġà¶ļà¶§à·Ĭà¶§à·Ĵà¶º": 1585,
      "à¶¶à·Ķ": 1586,
      "à¶´à¶Ń": 1587,
      "Ġà¶ħà¶½à·Ķà¶Ńà·Ĭ": 1588,
      "Ġà¶¸à¶Ł": 1589,
      "Ġà¶ļà·Ĵà·Ģ": 1590,
      "Ġ(_": 1591,
      "Ġà¶Ĵà¶ļà·Ļà¶±à·Ĭ": 1592,
      "Ġà¶¸à·Ļà·Ħà·Ļà¶¸": 1593,
      "Ġà¶´à·Ķà·ħà·Ķà·Ģà¶±à·Ĭà¶¯": 1594,
      "Ġà¶°": 1595,
      "Ġà·ĥà·Ĳà¶ļ": 1596,
      "âĢįà¶»à¶¸": 1597,
      "à·Ģà·ĵà¶¸": 1598,
      "à¶¸à·Ĭà¶¸à·Ĭ": 1599,
      "Ġà¶ľà·ĳ": 1600,
      "à¶ºà¶ļà·Ĭà¶¸": 1601,
      "Ġà¶´à·ıà¶½à¶±à¶º": 1602,
      "à¶¢à·ļ": 1603,
      "à·ħà·Ķà·Ģà·ı": 1604,
      "à¶´à·Ĵà¶º": 1605,
      "Ġà¶¸à¶ºà·Ĵ": 1606,
      "Ġà¶´à·ħ": 1607,
      "Ġà¶ļà¶½à·Ĭ": 1608,
      "à¶»à·Ĵà¶±à·Ĭ": 1609,
      "Ġà¶īà¶ļà·Ĭà¶¸à¶±à¶§": 1610,
      "à¶½à·ľ": 1611,
      "Ġà¶ļà·ħà·ļ": 1612,
      "Ġà¶´à·ĵ": 1613,
      "Ġà¶½à·Ļà·ĥ": 1614,
      "Ġà·Ģà·Ĳà¶¯à¶ľà¶Ńà·Ĭ": 1615,
      "à¶Ķà¶ºà·ıà¶½": 1616,
      "Ġà¶ĳà·ħà·Ĵà¶ºà¶§": 1617,
      "nt": 1618,
      "Ġà¶łà·Ĵ": 1619,
      "Ġà¶¶à·Ĵà¶»à·Ĵ": 1620,
      "à¶¯à·Ļà·Ģà·Ĵà¶º": 1621,
      "Ġà¶Ķà¶ºà·ıà¶½à¶§": 1622,
      "à¶»à·Ĵà¶±à·Ĭà¶±": 1623,
      "ĠâĻª": 1624,
      "à¶±à·ļà¶±": 1625,
      "Ġà¶±à·Ĵà¶ļà¶±à·Ĭ": 1626,
      "Ġà·Ģà·Ĵà·ģà·ļà·Ĥ": 1627,
      "à¶ļà·Ĭà·ģ": 1628,
      "à¶±à·Ĵà¶ºà¶¸à¶ºà·Ĵ": 1629,
      "Ġà·Ħà¶¯à¶±à·Ĭà¶±": 1630,
      "Ġà·Ħà·ļà¶Ńà·Ķà·Ģ": 1631,
      "à¶¯à¶º": 1632,
      "à¶¸à·Ŀ": 1633,
      "Ġà·Ħà·Ĵà¶§à·Ĵà¶ºà·Ļ": 1634,
      "Ġà·Ģà·Ľ": 1635,
      "Ġà¶ľà·Ļà¶±à·Ĵà¶º": 1636,
      "Ġà¶ļà·Ĵà¶»à·ĵà¶¸": 1637,
      "à¶¯à·ıà¶±à¶¸à·Ĭ": 1638,
      "Ġà·ĥà¶¸à·Ĭà¶´à·ĸà¶»à·Ĭà¶«": 1639,
      "à·Ļà·Ĭ": 1640,
      "Ġà¶ĳà¶±à·Ĭà¶±à¶¸à·Ĭ": 1641,
      "Ġà·ĥà¶¸à·Ĭ": 1642,
      "à·Ģà·ıà¶»à·Ĭ": 1643,
      "Ġ?": 1644,
      "âĢįà¶»à¶¸à·ı": 1645,
      "Ġà·ĥà·ļà¶»à¶¸": 1646,
      "Ġà¶´à·ĥà·Ķ": 1647,
      "Ġà¶ľà¶Ń": 1648,
      "Ġà¶¢à·Ĳà¶ļà·Ĭ": 1649,
      "à·Ħà·Ļà¶±à·Ĭà¶±": 1650,
      "à¶ļà¶»à·Ĭ": 1651,
      "Ġà¶¶à·Ķ": 1652,
      "Ġà¶ļà·ıà¶½à·Ļ": 1653,
      "à¶«à¶ľà·ı": 1654,
      "à¶Į": 1655,
      "Ġà¶ľà¶«": 1656,
      "à¶Ńà·Ĵà¶ļ": 1657,
      "Ġà·ĥà·Ĭà¶®à·ı": 1658,
      "Ġà¶Ĩà·Ģà·Ļ": 1659,
      "Ġthe": 1660,
      "Ġà¶ħà·Ģà·ĥà·ı": 1661,
      "âĪĻâĪĻâĪĻčĊ": 1662,
      "Ġà·Ģà¶±": 1663,
      "Ġà¶±à·Ģà¶Ńà·Ĭà¶Ńà¶±à·Ĭà¶±": 1664,
      "à¶īà¶±à·Ĭà¶±": 1665,
      "Ġà¶¸à·Ļà¶Ńà¶±à·Ĵà¶±à·Ĭ": 1666,
      "Ġà¶īà¶±à·Ĭà¶±à·Ģ": 1667,
      "Ġà¶½à·Ĵà¶º": 1668,
      "à¶ļà·Ĵà·ĥà·Ĵ": 1669,
      "Ġà¶¸à·ļà¶ļà¶§": 1670,
      "à¶Ńà·ĵ": 1671,
      "Ġà¶ºà¶§": 1672,
      "Ġà·Ģà¶§": 1673,
      "Ġà¶¸à·ľà¶±à·ı": 1674,
      "Ġà¶ºà·ľ": 1675,
      "ing": 1676,
      "ad": 1677,
      "Ġà·ģà¶ļà·Ĭ": 1678,
      "Ġà¶ļà·Ŀà¶½à·Ĭ": 1679,
      "Ġà·ĥà¶¸à¶ľ": 1680,
      "Ġà¶¸à·Ĵà¶±à·Ĵà·Ħà·ı": 1681,
      "Ġà¶¸à·Ĵà¶±à·Ĵà·Ħà·Ļà¶ļà·Ĭ": 1682,
      "à·Ļà¶ļà·Ķ": 1683,
      "à·Ģà·ĺ": 1684,
      "Ġà¶¸à·Ĳà¶»à·Ļà¶±à·Ĭà¶±": 1685,
      "à·ĥà·ıà·Ħ": 1686,
      "Ġà¶Ĩà¶¯à¶»à¶º": 1687,
      "à·Ĳà¶¯à·Ĭà¶¯": 1688,
      "ol": 1689,
      "à¶§à¶ºà·Ĵ": 1690,
      "Ġà¶ĳà¶±à·Ĭà¶±à·ļ": 1691,
      "à¶¸à·Ļà¶ºà·ı": 1692,
      "el": 1693,
      "Ġà¶ļà¶±à·Ĭà¶±": 1694,
      "à¶ĳà¶Ńà·Ĭ": 1695,
      "Ġà¶½à·ľ": 1696,
      "à¶¸à·Ļà·Ħà·Ļ": 1697,
      "Ġà·ħà¶¸à¶ºà·Ĵ": 1698,
      "à·ĥà·Ĭà¶Ńà·Ķà·Ģ": 1699,
      "Ġà¶¸à·Ķà¶«": 1700,
      "à¶½à·Ĭà¶½à¶ļà·Ĭ": 1701,
      "à¶¶à·ĳ": 1702,
      "à¶Ĭà¶§": 1703,
      "Ġà·Ģà¶º": 1704,
      "Ġà·Ģà¶Ńà·Ĭ": 1705,
      "à¶¸à·Ļà¶±à·Ĭ": 1706,
      "Ġà·Ģà·Ĳà¶§": 1707,
      "Ġà¶Ķà¶ºà¶Ńà·Ĭ": 1708,
      "Ġà¶ļà¶»à¶ľà·Ļà¶±": 1709,
      "SA": 1710,
      "à¶´à·ĵ": 1711,
      "Ġa": 1712,
      "Ġà¶±à·Ĵà¶¯à·ı": 1713,
      "Ġà¶´à·Ļà¶»": 1714,
      "Ġà¶ĭà¶Ńà·Ĭà·ĥà·ıà·Ħ": 1715,
      "Ġà¶¯à·Ĳà¶±à·Ĭà¶¸": 1716,
      "à¶ºà·Ķà¶°": 1717,
      "Ġà·Ħà·Ĵà¶Ńà·ı": 1718,
      "il": 1719,
      "à¶»à·Ķà·Ģà·ı": 1720,
      "à¶Ńà·Ĵà¶ºà¶ļà·Ĭ": 1721,
      "à¶§à·Ŀ": 1722,
      "à¶´à¶ºà¶ļà·Ĭ": 1723,
      "Ġà·Ħà·Ĳà¶»": 1724,
      "Ġà¶´à·Ĳà¶¸à·Ĵ": 1725,
      "Ġà¶Ńà·Ĵà¶¶à·Ĭà¶¶à·ı": 1726,
      "à¶´à·Ķà¶»": 1727,
      "à¶½à·Ģ": 1728,
      "Ġà¶¸à·Ķà·ħà·Ķ": 1729,
      "à¶¯à·ļà·ģ": 1730,
      "her": 1731,
      "Ġà¶ºà·Ķà¶Ńà·Ķà¶ºà·Ĵ": 1732,
      "Ġà¶¯à·Ĳà¶±à¶§à¶¸": 1733,
      "à¶ľà¶Ńà·Ĭà¶Ńà·ļ": 1734,
      "Ġà¶ħà¶¯à·Ħà·ĥà·Ĭ": 1735,
      "à¶Ķà·Ħà·ļ": 1736,
      "Ġà¶ļà·Ģà·Ķ": 1737,
      "Ġà¶¢à·ĵà·Ģà·Ĵà¶Ńà·ļ": 1738,
      "Ġà¶ħà¶¸à·Ķ": 1739,
      "à¶©à¶º": 1740,
      "Ġà¶Ńà·ıà¶¸à¶Ńà·Ĭ": 1741,
      "à¶ľà¶±à·Ĭ": 1742,
      "à¶¢à¶±": 1743,
      "Ġd": 1744,
      "Ġà¶ħà¶¯à·Ħà·ĥà¶ļà·Ĭ": 1745,
      "Ġà¶´à·Ĵà¶½à·Ĵ": 1746,
      "ĠâĪĻâĪĻâĪĻ": 1747,
      "Ġà¶ļà·Ļà¶±à¶ļà·ļ": 1748,
      "à·Ħà¶¯à·Ļ": 1749,
      "Ġà¶´à·Ķà¶¯à·Ķà¶¸": 1750,
      "Ġà¶¯à·Ļà¶ºà¶ļà·Ĭà¶¸": 1751,
      "Ġà¶ĭà¶¯à·ļ": 1752,
      "Ġà·Ģà·Ļà¶Ń": 1753,
      "à¶±à·Ĭà¶Ńà·Ĭ": 1754,
      "ĠA": 1755,
      "à·Ļà¶±à·Ģ": 1756,
      "Ġà¶ļà¶»à¶±à·Ĭà¶±à¶¯": 1757,
      "Ġà¶¸à·Ķà¶ļà·Ķà¶Ńà·Ĭ": 1758,
      "Ġà·Ģà·Ķà¶±à¶Ńà·Ĭ": 1759,
      "Ġà¶ļà·Ĵà¶ºà¶´à·Ķ": 1760,
      "à·ıà¶¸": 1761,
      "à·Ĵà¶ºà·Ļà¶ļà·Ĭ": 1762,
      "Ġà¶ļà¶Ńà·ıà·Ģ": 1763,
      "Ġà·ĥà¶§à¶±à·Ĭ": 1764,
      "à·ĵà¶¸à¶§": 1765,
      "à·Ĵà¶±à·Ĭà¶¸": 1766,
      "Ġà·ĥà·Ļà¶½à·Ĭà¶½à¶¸à·Ĭ": 1767,
      "à¶łà·ıà¶»": 1768,
      "Ġà¶Ī": 1769,
      "Ġà¶¯à·Ĵà¶±": 1770,
      "Ġà¶¸à¶±à·Ķà·ĥà·Ĭà·ĥ": 1771,
      "ĠD": 1772,
      "Ġà·Ģà·Ļà¶½à·ıà·Ģà¶§": 1773,
      "ow": 1774,
      "Ġà·Ģà·Ĵà¶¯à·Ĭ": 1775,
      "Ġà¶ĭà¶¹à¶§": 1776,
      "Ġà·Ħà·ľà¶³à¶§": 1777,
      "Ġà¶ħà¶±à¶Ńà·Ķà¶»": 1778,
      "à¶ĳà¶º": 1779,
      "Ġà·ħà¶¸": 1780,
      "à¶»à·Ķà·Ģà¶Ńà·Ĭ": 1781,
      "Ġà¶ħà·ĥ": 1782,
      "Ġà·Ħà·Ĳà¶¸à¶¯à·ļà¶¸": 1783,
      "Ġà·Ģà¶¯": 1784,
      "Ġà¶Ńà¶¸à¶±à·Ĭ": 1785,
      "Ġà¶īà¶³à¶±à·Ĭ": 1786,
      "Ġà¶¯à·Ĳà¶±à·Ķ": 1787,
      "à¶ļà¶½": 1788,
      "à·Ļà¶½à·Ĭ": 1789,
      "Ġà·Ģà¶§à·Ĵ": 1790,
      "Ġà¶ħà¶·": 1791,
      "Ġà¶»à·ıà¶¢": 1792,
      "Ġà·Ħà·Ĳà¶¸à·Ŀ": 1793,
      "Ġm": 1794,
      "à¶½à¶ļà·Ĭà¶¯": 1795,
      "Ġà¶ļà·ıà¶½à¶ºà¶ļà·Ĭ": 1796,
      "à·ĵà¶¸à·Ĭ": 1797,
      "à¶¯à·Ĭà¶¯à·ĵ": 1798,
      "Ġà¶ħà¶±à·ļ": 1799,
      "Ġà¶±à·ľà·Ħà·Ĳ": 1800,
      "Ġà·Ĩà·Ĭ": 1801,
      "Ġà¶¯à·Ĳà¶±à¶ľà·Ļà¶±": 1802,
      "à¶±à¶§": 1803,
      "Ġà¶¸à·Ħà¶Ńà·Ĭà¶Ńà¶ºà·ı": 1804,
      "à¶§à·Ĵà¶ļ": 1805,
      "Ġà·Ħà¶»à·Ĵà¶ºà¶§à¶¸": 1806,
      "Ġà¶ĳà¶Ńà·Ĭ": 1807,
      "Ġà¶ºà·ıà·ħà·Ķà·Ģ": 1808,
      "Ġà¶´à·Ĳà¶º": 1809,
      "à·Ģà¶±à·Ĭà¶±à·ļ": 1810,
      "Ġà¶Ńà·Ķà·Ģà¶ļà·Ĭà¶ļ": 1811,
      "Ġà¶ļà¶»à·Ķà¶«à·ıà¶ļà¶»à¶½à·ı": 1812,
      "à¶½à·Ļà¶±à·Ĭ": 1813,
      "à¶ľà¶ļà·Ĭ": 1814,
      "Ġà¶§à·Ĭ": 1815,
      "à¶¬": 1816,
      "Ġn": 1817,
      "Ġà¶´à·Ĵà¶§à·Ĵ": 1818,
      "Ġà¶´à·ľà¶»à·ľà¶±à·Ĭà¶¯à·Ķ": 1819,
      "à¶ºà·ıà¶±": 1820,
      "à¶§à·Ĭà¶§à·Ķ": 1821,
      "Ġl": 1822,
      "Ġà¶´à¶½": 1823,
      "Ġà¶ļà¶«à¶ľà·ı": 1824,
      "Ġà·ĥà·ıà¶¸à·ıà¶±à·Ĭ": 1825,
      "à¶½à·Ĭà·ĥà·Ĭ": 1826,
      "Ġp": 1827,
      "à¶Ńà·Ĭà¶¸à¶ļ": 1828,
      "Ġà¶ħà·Ģà·Ķà¶½à¶ļà·Ĭ": 1829,
      "Ġà¶Ńà¶Ńà·Ĭ": 1830,
      "à¶Ĥà¶ľà·Ĵ": 1831,
      "Ġà¶ľà·Ķà·Ģà¶±à·Ĭ": 1832,
      "à¶´à·Ĵà¶§": 1833,
      "Ġà¶ľà¶Ńà·Ĭà¶Ńà·ļ": 1834,
      "Ġà¶ļà·Ĵà¶ºà·ı": 1835,
      "Ġà·Ģà·ıà·ĥ": 1836,
      "à¶©à·ļ": 1837,
      "Ġà¶Ńà¶¸à·Ķà·ĥà·Ļ": 1838,
      "Ġà·Ģà·ıà·Ħ": 1839,
      "Ġà¶ĭà¶±à¶Ńà·Ĭ": 1840,
      "Ġà¶½à·Ŀà¶ļ": 1841,
      "ĠUSA": 1842,
      "Ġà¶±à·Ĵà¶½": 1843,
      "Ġà¶īà¶±à·Ĭà¶±à·Ģà¶¯": 1844,
      "à¶±à·Ĳà¶ľà·Ĵ": 1845,
      "Ġà¶¸à¶ľà·Ļà¶±à·Ĭ": 1846,
      "Ġà¶¸à·ľà¶ļà¶§à¶¯": 1847,
      "à¶īà¶ļà·Ĭà¶¸à¶±": 1848,
      "à¶±à·Ĭà¶±à¶¸à·Ĭ": 1849,
      "FF": 1850,
      "Ġà¶¯à·Ļà·Ģà·Ĵà¶ºà¶±à·ļ": 1851,
      "à¶ļà·ľà·Ħà·Ļà¶¯": 1852,
      "Ġà¶Ńà·Ĳà¶±à¶ļà·Ĭ": 1853,
      "Ġà¶¸à¶ł": 1854,
      "Ġà¶±à·Ĳà¶Ńà·Ĭà¶Ńà¶¸à·Ĭ": 1855,
      "Ġà¶ºà¶±à·Ģ": 1856,
      "à·ıà¶½": 1857,
      "Ġà¶´à·Ĵà¶±à·Ĭ": 1858,
      "à¶ĳà¶ºà·ıà¶ľà·ļ": 1859,
      "à¶´à·Ļ": 1860,
      "Ġà·Ħà·Ĵà¶Ńà·Ķà·Ģà·ı": 1861,
      "à¶«à·Ĵà·Ģà·Ĵ": 1862,
      "à¶Ķà¶ºà·ıà·Ģ": 1863,
      "à·Ŀà¶¢": 1864,
      "Ġà·Ģà·Ĳà¶»à·Ĳà¶¯à·Ĭà¶¯": 1865,
      "Ġà¶ļà·ľà·Ħà·Ļ": 1866,
      "à·Ĳà¶±à·Ĵ": 1867,
      "à¶¯à·Ķà¶»": 1868,
      "Ġà¶ĭà¶¯à·Ģà·Ķ": 1869,
      "20": 1870,
      "Ġà¶¯à·Ĵà¶ľà¶§à¶¸": 1871,
      "à¶ļà¶ºà·Ļà¶ļà·Ĭ": 1872,
      "à·ĵà¶Ń": 1873,
      "Ġà¶īà¶ľà·Ļà¶±": 1874,
      "Ġà¶»à·ľ": 1875,
      "Ġà¶ħà¶ºà¶§": 1876,
      "à¶´à¶»à·Ĵ": 1877,
      "Ġà¶©à·Ĵ": 1878,
      "Ġà¶©à·ľ": 1879,
      "Ġà¶Ĩà¶¯à¶»à·ļ": 1880,
      "à¶ħà¶±à·Ĭà¶±": 1881,
      "à·Ļà¶±à·Ļà¶ļà·Ĭ": 1882,
      "à·ĥà·ıà¶¯": 1883,
      "us": 1884,
      "à¶¢à·ĵ": 1885,
      "à·ĥà·Ĭà¶§à·Ĭ": 1886,
      "Ġà·Ħà·Ĵà¶§à¶´à·Ķ": 1887,
      "âĢįà¶§": 1888,
      "Ġà¶±à·Ŀ": 1889,
      "Ġà¶±à·Ķ": 1890,
      "Ġà·Ħà·Ĳà¶¯": 1891,
      "Ġà¶±à·Ģà¶Ńà·Ĭà·Ģà¶±à·Ĭà¶±": 1892,
      "Ġà¶¶à¶½à·ıà¶´à·ľà¶»à·ľà¶Ńà·Ĭà¶Ńà·Ķ": 1893,
      "Ġà¶´à·Ĳà·Ħà·Ĳà¶¯à·Ĵà¶½à·Ĵ": 1894,
      "Ġà¶·à·ıà·Ģà·Ĵ": 1895,
      "Ġà¶īà·Ģà¶Ńà·Ĭ": 1896,
      "Ġà¶¯à¶±à·Ĭà¶±à·Ģà¶±à·ļ": 1897,
      "Ġà¶¢à¶±": 1898,
      "à¶ľà¶±": 1899,
      "à·Ħà·Ĳà¶»": 1900,
      "ĠâĻªčĊ": 1901,
      "à¶§à·Ĵà¶ºà¶§": 1902,
      "à¶Ńà·Ķà¶¸": 1903,
      "Ġà¶ļà·Ĵà¶»à·ĵà¶¸à¶§": 1904,
      "Ġà¶Ĩà¶ºà·ļ": 1905,
      "âĢįà¶±": 1906,
      "Ġà¶ľà·Ĵà·Ħà·Ĵ": 1907,
      "à¶ļà·Ĵà¶ºà¶±à·Ĭà¶±": 1908,
      "Ġà¶»à·ļ": 1909,
      "Ġà¶ºà·ıà·ħà·Ķà·Ģà·ı": 1910,
      "Ġà¶¸à·Ħà¶Ńà·Ĭà¶¸à¶ºà·ı": 1911,
      "Ġà¶»à¶§": 1912,
      "Ġà·Ģà·Ļà¶½à·ıà·Ģà¶ļà·Ĭ": 1913,
      "Ġà¶Ńà·Ĵà¶ºà·Ļà¶±à·Ģ": 1914,
      "Ġà·Ģà·Ĵà¶¯à·Ĵà¶º": 1915,
      "à¶±à¶ºà·Ĵ": 1916,
      "Ġà¶ĩà¶³à·Ķ": 1917,
      "Ġà¶ºà·Ģà¶±à·Ĭà¶±": 1918,
      "Ġà¶ľà·Ħà¶±à·Ĭà¶±": 1919,
      "à¶½à·Ĭà¶½à·Ŀ": 1920,
      "à·ĥà·Ĭà¶ļà·Ŀ": 1921,
      "Ġà¶¸à·ľà¶ļà·Ķà¶Ńà·Ĭ": 1922,
      "à¶Ĵà¶ļà·Ļà¶±à·Ĭ": 1923,
      "Ġà·Ħà¶Ńà¶»": 1924,
      "à·ĥà·Ķà¶·": 1925,
      "à¶ļà¶»à·Ķà¶«à·ıà¶ļà¶»à¶½à·ı": 1926,
      "Ġà¶»à·ıà¶Ńà·Ĭ": 1927,
      "Ġà¶¶à¶½à¶±à·Ĭ": 1928,
      "Ġà¶¯à·Ĳà¶±à¶§à¶¸à¶Ńà·Ĭ": 1929,
      "Ġà¶´à·Ĵà¶ºà·ı": 1930,
      "Ġà¶½à·ĳà·ĥà·Ĭà¶Ńà·Ĵ": 1931,
      "Ġà¶½à·Ķ": 1932,
      "Ġà¶´à·ĥà·Ĭà·ĥà·Ļà¶±à·Ĭ": 1933,
      "à¶ľà·ľà¶©à¶ļà·Ĭ": 1934,
      "à¶½à¶ºà¶ļà·Ĭ": 1935,
      "Ġà·Ģà¶Ńà·ıà·Ģ": 1936,
      "à¶ľà·Ĵà¶º": 1937,
      "Ġà¶¯à·Ĳà¶ļà¶½à·ı": 1938,
      "Ġà¶´à·ľà¶½à·Ĵà·ĥà·Ĭ": 1939,
      "Ġà¶Ĩà¶ºà·Ļà¶Ńà·Ĭ": 1940,
      "à·ļà¶¯à·ĵ": 1941,
      "Ġà¶¯à·Ļà¶±à·Ĭà¶±à¶¸à·Ĭ": 1942,
      "Ġà·ĥà·Ĵà¶¯à·Ĭà¶¯": 1943,
      "à·Ħà·ıà¶ºà·Ĵ": 1944,
      "à·ıà¶ļà·Ĭ": 1945,
      "et": 1946,
      "à·Ģà·ıà¶¯": 1947,
      "Ġà¶¢à·Ĵà·Ģà·Ĵ": 1948,
      "Ġà·ĥà·Ķà¶¯à·Ķ": 1949,
      "à¶©à·Ķà·Ģ": 1950,
      "Ġà¶¢à·ĵà·Ģà·Ĵà¶Ńà¶º": 1951,
      "à¶Ńà·Ķà¶¸à·Ĭ": 1952,
      "Ġà·ĥà·Ĭà¶§": 1953,
      "Ġà¶ħà¶ºà·Ĵà¶Ńà·Ĵ": 1954,
      "Ġà¶±à¶Ńà¶»": 1955,
      "Ġà¶¯à¶ļà·Ĭ": 1956,
      "Ġà¶ºà·ıà¶½à·Ķà·Ģ": 1957,
      "à¶½à·Ĵà¶ºà¶±": 1958,
      "Ġà¶Ńà·Ĵà¶¶à·Ķà¶±à·ļ": 1959,
      "à¶Ńà¶ļà·Ĭ": 1960,
      "Ġà¶¸à¶±à·Ĭ": 1961,
      "Ġà¶´à·Ķà¶¯à·Ĭà¶ľ": 1962,
      "âĢįà¶»à·Ļ": 1963,
      "Ġà¶´à·ıà¶»à¶ļà·Ĭ": 1964,
      "à¶Łà¶ļà·Ĭ": 1965,
      "Ġà·Ħà·ľà¶³à¶¸": 1966,
      "à¶»à·Ģ": 1967,
      "à·Ķà¶»": 1968,
      "à¶¸à·Ĭà¶·": 1969,
      "Ġà¶Ĵà·Ģ": 1970,
      "Ġà¶ħà¶½à·Ĭà¶½à¶ľà¶±à·Ĭà¶±": 1971,
      "à¶ľà¶±à·Ĭà¶±à·ļ": 1972,
      "Ġà¶·à·ı": 1973,
      "Ġà¶ļà·Ĵà·Ħà·Ĵ": 1974,
      "Ġà¶´à·Ļà¶±à·Ĭà·Ģà¶±à·Ĭà¶±": 1975,
      "Ġà¶ĭà·ĥ": 1976,
      "Ġà¶ħà¶±à·Ĭà¶Ńà·Ĵà¶¸": 1977,
      "Ġà¶Ńà·ľà¶»à¶Ńà·Ķà¶»à·Ķ": 1978,
      "ct": 1979,
      "Ġà·Ģà·Ĵà¶ļà·ıà¶»": 1980,
      "à¶Łà·Ĵ": 1981,
      "à¶ľà·Ħ": 1982,
      "ed": 1983,
      "Ġà¶¯à·ıà¶±à·Ģà·ı": 1984,
      "ĠT": 1985,
      "à·ĥà·Ķà·Ģ": 1986,
      "Ġà¶īà¶±à·Ĭ": 1987,
      "à¶´à·ĥà·Ĭà·ĥà·ļ": 1988,
      "à¶´à¶º": 1989,
      "Ġà¶¶à·ļà¶»à¶ľà¶±à·Ĭà¶±": 1990,
      "Ġà¶ĩà¶Ńà·Ķà¶½à·ļ": 1991,
      "Ġà¶»à·Ļ": 1992,
      "Ġto": 1993,
      "âĢįà¶»à·ģà·Ĭà¶±": 1994,
      "Ġà¶īà·Ħ": 1995,
      "Ġà¶Ńà·Ĳ": 1996,
      "Ġà¶±à·Ĵà¶¯à·Ħà·ĥà·Ĭ": 1997,
      "Ġà¶ľà·Ŀ": 1998,
      "Ġà¶ĩà·Ħ": 1999,
      "Ġà¶Ķà·Ģà·Ķà¶±à·Ĭà¶§": 2000,
      "Ġà¶»à¶¢": 2001,
      "Ġà¶ļà·ľà·Ħà·ľà¶¸": 2002,
      "Ġà·Ģà·Ļà¶±à·Ĭ": 2003,
      "à¶ľà¶ºà¶ļà·Ĭ": 2004,
      "Ġà¶¸à¶Ńà¶ļà·Ĭ": 2005,
      "à¶´à·Ĵà¶»à·Ĵ": 2006,
      "ĠF": 2007,
      "à·ĥà¶±à·Ĭà¶±": 2008,
      "à·ĥà·Ŀ": 2009,
      "Ġà¶Ńà¶±à·Ĵà¶ºà¶¸": 2010,
      "à¶Ńà·ıà¶Ńà·Ĭà¶Ńà·ļ": 2011,
      "à¶Ĵà·Ģà·ı": 2012,
      "Ġà¶´à·Ĳà¶±à¶½à·ı": 2013,
      "à·Ģà·Ĵà¶±à·Ĭ": 2014,
      "à¶ºà¶»à·Ĭ": 2015,
      "à¶ľà·ĵ": 2016,
      "Ġà·Ħà·Ļà¶§": 2017,
      "Ġà¶±à·Ĳà·Ģ": 2018,
      "à·Ħà¶§": 2019,
      "à¶±à·ľ": 2020,
      "à·ıà·Ģà·ļ": 2021,
      "Ġy": 2022,
      "à¶ĳà¶ºà·ıà·Ģ": 2023,
      "Ġà¶ĩà·Ģà·Ĵà¶½à·Ĭà¶½à·ı": 2024,
      "Ġà¶ħà¶´à¶»à·ıà¶°": 2025,
      "Ġà·Ģà·Ĳà¶©à·Ĵà¶º": 2026,
      "à·Ĩà·Ĵ": 2027,
      "à·Ļà¶¸": 2028,
      "à¶½à·Ĳ": 2029,
      "Ġà·ĥà·ıà¶ļà·Ĭà·Ĥ": 2030,
      "à¶Ķà¶¶à·ļ": 2031,
      "ĠB": 2032,
      "Ġà¶»à·ĥà·Ĭà·ĥ": 2033,
      "Ġà·Ħà·ĵ": 2034,
      "à¶ļà·ıà¶»à¶º": 2035,
      "à¶ļà·Ĭà¶ļà·ı": 2036,
      "Ġà¶±à·Ļà·Ģà·ļ": 2037,
      "à¶ķà·Ħà·Ĭ": 2038,
      "Ġà¶¶à¶½à¶¸à·Ķ": 2039,
      "à¶´à·Ĭà¶´à·Ķ": 2040,
      "à·ĳà¶¸": 2041,
      "Ġà¶łà·Ĵà¶Ńà·Ĭ": 2042,
      "Ġà¶ľà¶±à·Ĭà¶±à·ļ": 2043,
      "Ġà¶ħà·ħà·Ķ": 2044,
      "Ġà·ĥà¶§": 2045,
      "à¶»à¶«": 2046,
      "à¶ħà·Ħà·Ĭ": 2047,
      "Ġà¶´à·Ĳà¶Ńà·Ĭà¶Ńà¶§": 2048,
      "Ġà¶ļà¶Ńà·ıà¶ļà¶»": 2049,
      "Ġà·Ģà¶»à·Ĭ": 2050,
      "Ġà¶¸à·Ĳà¶»à·Ĵà¶½à·ı": 2051,
      "Ġà·ĥà¶¸à·ıà·Ģ": 2052,
      "ĠâĪĻčĊ": 2053,
      "Ġà·ĥà·Ĳà¶½à·Ĳ": 2054,
      "ĠN": 2055,
      "à·Ħà·Ĳà¶¸à·Ŀà¶¸": 2056,
      "Ġà·Ħà·ľà¶ºà¶±à·Ĭà¶±": 2057,
      "âĢįà·Ģ": 2058,
      "Ġà·Ģà¶ºà·Ĵ": 2059,
      "à¶±à·Ĭà¶±à·ı": 2060,
      "à·Ļà¶ºà¶ļà·Ĭà¶¸": 2061,
      "à¶¨": 2062,
      "à·Ħà·Ĳà¶¸à¶¯": 2063,
      "Ġà·Ģà·Ĵà·ĥà·Ĭà¶Ńà¶»": 2064,
      "Ġà¶¶à¶»": 2065,
      "à·ģà·ĵ": 2066,
      "Ġà¶½à·ı": 2067,
      "Ġà¶Ķà¶¶à·Ģ": 2068,
      "Ġà¶¸à·ıà·ĥ": 2069,
      "Ġà¶±à¶ľà¶»": 2070,
      "Ġà·Ħà¶¸à·Ķà¶¯": 2071,
      "Ġà·Ģà·Ĵà¶±à·ıà¶©à·Ĵ": 2072,
      "Ġà¶±à·Ļà·Ģà¶ºà·Ĵ": 2073,
      "Ġà¶¯à·Ļà¶±à·Ĭà¶±à·ļ": 2074,
      "à·ģà·Ĵ": 2075,
      "Ġà·ģà·ı": 2076,
      "Ġà¶±à·ľà¶ļà¶»": 2077,
      "Ġà¶ļà¶®à·ı": 2078,
      "à¶¶à·Ļ": 2079,
      "Ġà¶ľà·Ĳà¶½": 2080,
      "à¶ħà·Ħà¶±à·Ĭà¶±": 2081,
      "Ġà¶´à·ĸ": 2082,
      "Ġà¶ľà·Ĳà¶±à¶¯": 2083,
      "à¶ļà·ıà·ģ": 2084,
      "Ġà¶´à¶»à¶«": 2085,
      "ay": 2086,
      "Ġh": 2087,
      "Ġà¶¸à·Ļà¶łà·Ĭà¶łà¶»": 2088,
      "à¶ļà¶Ĥ": 2089,
      "à¶±à¶±à·Ĭ": 2090,
      "à¶©à·Ŀ": 2091,
      "Ġà¶¸à·ıà¶»à·Ĭ": 2092,
      "Ġà¶¸à¶»à¶«": 2093,
      "Ġà·Ħà·ľà¶¯à¶§": 2094,
      "Ġà¶´à·Ĳà¶§à·Ĵà¶º": 2095,
      "âĢįà¶»à¶°à·ıà¶±": 2096,
      "Ġà¶īà¶Ńà·ı": 2097,
      "à·ħà¶§": 2098,
      "and": 2099,
      "Ġà¶ļà¶´": 2100,
      "Ġà·ĥà·ĸà¶¯à·ıà¶±à¶¸à·Ĭ": 2101,
      "Ġà¶±à·Ĳà¶Ń": 2102,
      "âĢįà·Ĥ": 2103,
      "ĠK": 2104,
      "à·ĥà·Ĭà·Ģ": 2105,
      "Ġà¶¯à¶ļà·Ĭà·Ĥ": 2106,
      "âĢįà¶»à¶º": 2107,
      "Ġà¶ļà·Ĵà¶ºà¶±à·Ĭà¶±à¶¸à·Ĭ": 2108,
      "Ġà¶Ĩà¶´à·Ķ": 2109,
      "**": 2110,
      "Ġà·ĥà·Ŀ": 2111,
      "à¶¶à·ĵ": 2112,
      "Ġà·Ģà·ĸ": 2113,
      "à¶ĭà¶¯": 2114,
      "Ġà¶Ńà·Ģà¶¸à¶Ńà·Ĭ": 2115,
      "ĠI": 2116,
      "à·ĥà·Ĭà¶®à·ı": 2117,
      "Ġà·ĥà¶¸à·Ħà¶»à·Ģà·Ĵà¶§": 2118,
      "à·Ģà·Ĳà¶»": 2119,
      "Ġà¶ºà¶ºà·Ĵ": 2120,
      "à¶ĳà·Ħà·Ļ": 2121,
      "Ġà·Ģà·Ĵà·ĥ": 2122,
      "Ġà¶¸à·Ķà¶¯": 2123,
      "ot": 2124,
      "Ġà·ĥà¶Ńà·Ķà¶§à¶ļà·Ĭ": 2125,
      "Ġà¶ħà¶Ĥà¶ļ": 2126,
      "à·Ķà¶±à·ı": 2127,
      "âĢįà¶¸": 2128,
      "Ġà·ĥà·Ħà·Ŀà¶¯à¶»à¶ºà·ı": 2129,
      "Ġà¶¸à·Ļà¶Ńà¶±à¶§": 2130,
      "Ġà¶¯à·Ĳà¶ļà·Ĭà¶ļà¶¯": 2131,
      "Ġà¶Ńà·ľ": 2132,
      "Ġà¶¯à·Ĳà¶¸à·Ĭà¶¸à·ı": 2133,
      "Ġà¶ļà·ıà¶§à·Ģà¶Ńà·Ĭ": 2134,
      "Ġà¶¯à·ľ": 2135,
      "Ġà·Ģà·Ĳà¶©à·Ĵà¶ºà·Ĵ": 2136,
      "Ġà¶¸à¶¸à¶ºà·Ĵ": 2137,
      "à¶ļà·ıà¶»à¶ºà·Ļà¶ļà·Ĭ": 2138,
      "à¶Ńà·Ĵà¶ºà·ļ": 2139,
      "à¶°à·ıà¶±à¶º": 2140,
      "à¶¯à·Ĳà¶±": 2141,
      "à¶¯à·Ĵà¶ºà·Ĵ": 2142,
      "Ġà·Ħà·ľà¶¯à·Ĵà¶±à·Ĭà¶¯": 2143,
      "Ġà¶Ńà·Ĵà¶¶à·Ķà¶±": 2144,
      "à¶½à·Ļà¶ļà·Ĭ": 2145,
      "Ġà¶ħà¶»à·Ĵà¶±à·Ĭà¶±": 2146,
      "Ġà¶±à·Ĳà¶ľà·Ĵ": 2147,
      "à·Ģà·Ļà¶±à·Ģà·ı": 2148,
      "Ġà¶¯à·Ģà·ĥà¶ļà·Ĭ": 2149,
      "Ġà¶Ĩà¶»à¶ļà·Ĭà·Ĥà·Ĵà¶Ń": 2150,
      "Ġà¶īà¶Ńà·Ĵ": 2151,
      "à¶»à·ľ": 2152,
      "Ġà¶Ńà·ıà¶Ńà·Ĭà¶Ńà·ļ": 2153,
      "Ġà¶ļà·ıà¶¸à¶»": 2154,
      "Ġà¶Ķà¶±": 2155,
      "à·ĥà·Ĭà¶Ńà·Ķà¶Ńà·Ĵà¶ºà·Ĵ": 2156,
      "Ġà¶Ķà¶ºà·ıà¶ľà·Ļà¶±à·Ĭ": 2157,
      "à¶»à·Ķà¶«": 2158,
      "am": 2159,
      "à¶©à·Ĵà¶º": 2160,
      "Ġà·Ħà·ľà¶»à¶ļà¶¸à·Ĭ": 2161,
      "à·ĥà¶Ĥ": 2162,
      "à¶¸à·Ĵà¶±à·Ĵà·ĥà·Ĭà·ĥà·Ķ": 2163,
      "à·Ļà¶±à·Ĵ": 2164,
      "Ġà¶¸à·Ĵà¶º": 2165,
      "Ġà¶»à·Ķ": 2166,
      "Ġyou": 2167,
      "Ġà¶¯à·Ļà¶±à·Ĭà¶±à·ı": 2168,
      "Ġà·Ģà·Ĵà·ĥà·Ĵà¶±à·Ĭ": 2169,
      "Ġà¶ĳà¶ļà¶ºà·Ĵ": 2170,
      "Ġà¶±à·Ģà¶Ńà·Ĵ": 2171,
      "Ġà¶ĳà¶ºà·ıà¶½à·Ģ": 2172,
      "à¶±à·ĵà¶¸": 2173,
      "Ġà¶¯à·Ķà¶»à¶ļ": 2174,
      "Ġà¶´à¶«à·Ĵà·Ģà·Ĵ": 2175,
      "Ġà¶Ńà·Ķà·Ģà·ı": 2176,
      "à¶»à·Ĵà¶ºà¶§": 2177,
      "à¶Ńà¶±à·Ĭ": 2178,
      "Ġà¶Ķà·Ħà·Ķà¶ľà·Ļ": 2179,
      "à·ĥà·Ĭà¶Ńà·ĸà¶Ńà·Ĵà¶ºà·Ĵ": 2180,
      "Ġà·Ģà·Ĵà·Ģà·ıà·Ħ": 2181,
      "ĠP": 2182,
      "à¶Ĵà·Ģà¶ľà·ļà¶¸": 2183,
      "à¶½à¶ļà·Ĭà¶ļ": 2184,
      "Ġà·ĥà·Ĵà¶¯à·Ķ": 2185,
      "Ġà¶¶à¶±à·Ĭ": 2186,
      "Ġà·Ģà·Ĳà¶§à·Ķ": 2187,
      "Ġà·Ħà·ľà¶³à·Ĵà¶±à·Ĭà¶¯": 2188,
      "Ġà·Ħà¶¯à·Ĵ": 2189,
      "Ġà·ĥà¶Ńà·Ķà¶§à·Ķ": 2190,
      "Ġà¶ķà¶±à¶¯": 2191,
      "à¶Ńà¶»à¶¸à·Ĭ": 2192,
      "Ġà·Ħà·Ĳà¶¯à·Ķ": 2193,
      "Ġà·Ģà·Ļà¶łà·Ĭà¶ł": 2194,
      "à¶½à·ĸ": 2195,
      "Ġà¶´à¶«": 2196,
      "Ġà¶¸à·ļà·Ģà·ı": 2197,
      "à¶¸à·ľà¶±à·Ģà·ı": 2198,
      "à¶´à·ľà¶©à·Ĭà¶©à¶ļà·Ĭ": 2199,
      "à¶©à¶¸à·Ĭ": 2200,
      "à·Ħà·Ļà¶±à·Ĭà¶¯": 2201,
      "à·Ħà·Ĵà¶»": 2202,
      "Ġà¶Ńà¶¯": 2203,
      "of": 2204,
      "à¶ħà¶º": 2205,
      "à¶Ńà·Ĵà¶¸à¶Ńà·Ĭ": 2206,
      "à¶ļà¶»à¶«": 2207,
      "Ġà¶ħà¶±à·ı": 2208,
      "Ġà¶ľà¶½": 2209,
      "à¶½à¶ľ": 2210,
      "à¶Ńà¶±à¶º": 2211,
      "Ġà·Ģà·Ĵà·ģà·Ĭà·Ģà·ıà·ĥà¶ºà·Ĵ": 2212,
      "Ġà¶·à¶ºà·ıà¶±": 2213,
      "Ġà¶ļà¶Ńà·ıà¶ļà¶»à¶±à·Ĭà¶±": 2214,
      "Ġà¶¯à·Ħ": 2215,
      "Ġà¶ħà¶¸à·Ĭà¶¸": 2216,
      "Ġà·Ħà·Ĵà¶Ńà·Ķà·Ģà·Ļ": 2217,
      "à¶·à·ı": 2218,
      "Ġà¶Ńà·Ħ": 2219,
      "à¶¸à·Ħ": 2220,
      "à¶ļà¶ºà·ı": 2221,
      "Ġà¶ħà¶Ńà·Ķà¶»à·Ķ": 2222,
      "Ġà·Ģà·Ĵà·ĥà·Ĵ": 2223,
      "Ġà¶īà¶¯à¶½à·ı": 2224,
      "Ġà·Ģà·Ļà¶½à·ıà·Ģà·Ļ": 2225,
      "Ġà·ĥà¶±à·Ĭ": 2226,
      "Ġà¶Ńà·Ĭ": 2227,
      "Ġà¶ļà·Ĳà¶¸à·Ĳ": 2228,
      "Ġà¶¸à¶»à¶½à·ı": 2229,
      "15": 2230,
      "Ġà¶¯à·Ĵà¶º": 2231,
      "à¶´à·ĥà·Ķ": 2232,
      "à¶ºà·Ĵà¶ºà¶±à·ļ": 2233,
      "Ġà¶´à¶»à¶ļà·Ĭà¶ļà·Ķ": 2234,
      "Ġ!": 2235,
      "à¶½à·ļà¶¸": 2236,
      "à¶¸à·Ĭà·ĥà·Ĭ": 2237,
      "Ġà¶ļà¶ļà·Ķ": 2238,
      "à¶§à·Ĭà¶§à·Ķà·Ģ": 2239,
      "Ġà¶¶à·Ŀà¶¸à·Ĭà¶¶": 2240,
      "à¶łà·ıà¶»à·Ĭ": 2241,
      "Ġà¶½à·ĥà·Ĭà·ĥà¶±à¶ºà·Ĵ": 2242,
      "Ġà¶»à·Ħ": 2243,
      "Ġà·Ħà·Ķà¶Łà¶ļà·Ĭ": 2244,
      "Ġà¶Ńà·ĵà¶»à¶«à¶º": 2245,
      "à¶Ķà·Ħà·Ķà¶§": 2246,
      "à¶īà¶ļà·Ĭà¶¸à¶±à¶§": 2247,
      "Ġà·Ģà·Ķà¶«à·ļ": 2248,
      "à¶©à·ĵ": 2249,
      "à¶Ķà¶ļà·Ĭà¶ļ": 2250,
      "Ġà¶½à·Ĳà¶¶à·Ķà¶±à·ı": 2251,
      "Ġà¶¸à¶Łà·Ķ": 2252,
      "Ġà¶ļà¶«à¶ľà·ıà¶§à·Ķà¶ºà·Ĵ": 2253,
      "Ġà¶¸à·ĵà¶§": 2254,
      "à·ļà·Ģà·Ĵ": 2255,
      "à¶´à¶»à·Ĭ": 2256,
      "à¶»à¶±à·Ĭ": 2257,
      "Ġà¶Ńà¶±à·Ĵ": 2258,
      "à·Ħà¶»à·Ĵà¶ºà¶§": 2259,
      "à·Ĵà¶½à·ı": 2260,
      "Ġà·Ģà·Ķà¶«": 2261,
      "Ġà¶»à·Ħà·ĥà·Ĭ": 2262,
      "à¶¸à·ıà¶±": 2263,
      "Ġà¶¸à·ľà·Ħà·ľ": 2264,
      "à¶¢à·Ĳà¶ļà·Ĭ": 2265,
      "à¶ħà·Ģ": 2266,
      "à¶½à·ıà¶ļà·Ĭ": 2267,
      "à·ĥà·Ĭà¶Ń": 2268,
      "Ġà¶½à·Ŀà¶ļà¶º": 2269,
      "Ġà·Ħà·Ĳà¶§à·Ĵà¶ºà¶§": 2270,
      "à¶Ńà¶¸à·Ķà·ĥà·Ļ": 2271,
      "à¶»à·Ķà¶«à·Ķ": 2272,
      "Ġà¶¸à·ıà¶»": 2273,
      "à¶¶à·Ĳà¶ºà·Ĵ": 2274,
      "Ġà¶ĳà¶±à·Ĭà¶±à·Ļ": 2275,
      "Ġà¶ļà·ľà·Ħà¶¯à·Ļ": 2276,
      "à·Ģà·Ķà·Ģà·ı": 2277,
      "Ġà¶¶à·ĵ": 2278,
      "à¶½à¶¯": 2279,
      "Ġà¶´à¶¸à¶«": 2280,
      "Ġà¶´à¶¯à·Ĭà¶°": 2281,
      "à¶§à·Ķà·Ģ": 2282,
      "Ġà¶ħà¶±à·Ķà·Ģ": 2283,
      "Ġà¶Ńà·Ĵà¶¶à·Ĭà¶¶à·ļ": 2284,
      "Ġà¶ħà·Ģà·ĥà·Ĭà¶®à·ıà·Ģ": 2285,
      "Ġà·Ģà·Ļà¶½à·ıà·Ģà·ļ": 2286,
      "Ġà·Ħà¶¯à·ı": 2287,
      "Ġà¶¶à·ľà·Ħà·ľà¶¸": 2288,
      "Ġà¶¶à·Ģà¶§": 2289,
      "Ġà¶ĳà·Ħà·Ļà¶¸à¶ºà·Ĵ": 2290,
      "Ġà¶ĩà¶ľà·ļ": 2291,
      "à·Ħà·Ĳà¶±": 2292,
      "Ġà¶Ńà·Ĵà¶ºà¶±à·Ģà¶¯": 2293,
      "Ġà¶ľà·ŀ": 2294,
      "Ġà¶¸à·Ļà·Ħà·Ļà¶ºà·Ķ": 2295,
      "Ġà·ĥà·ľà¶ºà·ı": 2296,
      "Ġà·ģà·Ĵ": 2297,
      "Ġà·Ħà·Ĳà¶§à·Ĵ": 2298,
      "Ġà¶´à·ļà¶±à·Ģà·ı": 2299,
      "à¶ľà¶¸": 2300,
      "Ġà·Ģà·Ĵà¶±à·Ŀ": 2301,
      "à·Ģà¶½à¶§": 2302,
      "Ġà¶±à·ĵà¶Ńà·Ĵ": 2303,
      "à¶©à¶»à·Ĭ": 2304,
      "Ġà·Ģà·ľ": 2305,
      "à¶ļà¶ºà¶ļà·Ĭ": 2306,
      "Ġà¶´à·Ķà¶»à·Ķ": 2307,
      "Ġà¶½à·Ĵà¶´à·Ĵ": 2308,
      "Ġà·Ħà·ļà¶ºà·Ĵ": 2309,
      "à¶ļà·Ĭà·ĥà·Ĭ": 2310,
      "Ġà¶ļà·ľà·Ħà·ļà¶¯": 2311,
      "Ġà¶ºà¶¸à¶ļà·Ĭ": 2312,
      "à·Ģà·Ķà¶»à·Ķà¶¯à·Ĭà¶¯": 2313,
      "à¶ħà¶´à·ľà¶ºà·Ĵ": 2314,
      "Ġà¶ĩà¶³": 2315,
      "Ġà¶ľà·ıà¶±à¶ļà·Ĭ": 2316,
      "Ġà¶¶à¶½à¶º": 2317,
      "Ġà¶¶à·Ĵà¶¸": 2318,
      "âĢįà¶»à·Ŀ": 2319,
      "Ġà¶±à·Ĵà¶»à·Ĭà¶¸à·ı": 2320,
      "Ġà¶ĳà¶±à·Ģ": 2321,
      "Ġà¶´à·ıà¶§": 2322,
      "Ġà¶ħà¶»à¶ľà¶±à·Ĭà¶±": 2323,
      "Ġà¶ħà·Ģà·Ķà¶½à·Ĭ": 2324,
      "à¶±à·ľà¶Ńà·Ĭ": 2325,
      "ĠG": 2326,
      "Ġà¶´à·Ĵà¶º": 2327,
      "à¶©à·Ĵà¶ºà·Ŀ": 2328,
      "à¶ħà·Ģà·Ķà¶»à·Ķà¶¯à·Ķ": 2329,
      "à¶Ńà¶§": 2330,
      "à¶´à·Ĭà¶§à¶±à·Ĭ": 2331,
      "Ġà¶¸à·Ļà·Ħà·Ļà¶±à·Ĭ": 2332,
      "à¶Ńà·ıà¶Ńà·Ĭà¶Ńà·ı": 2333,
      "Ġà·Ģà¶»à¶¯": 2334,
      "à¶´à¶½": 2335,
      "Ġà·Ħà·Ĵà¶Ńà¶±à·Ģà¶¯": 2336,
      "à·Ħà¶»à·Ĵà¶¯": 2337,
      "à¶´à¶»": 2338,
      "Ġà¶´à·Ĳà¶Ńà·Ĭà¶Ńà·ļ": 2339,
      "à¶ļà¶¸à¶ļà·Ĭ": 2340,
      "Ġà·ĥà·Ĵà¶§": 2341,
      "Ġà·Ħà¶¯à·Ģà¶Ń": 2342,
      "Ġà¶ļà·Ļà¶½à·Ĭà¶½à·Ļà¶ļà·Ĭ": 2343,
      "Ġà¶¯à·ĵà¶½à·ı": 2344,
      "à¶ľà·ıà¶»": 2345,
      "à¶»à·Ĵà¶ļà·ı": 2346,
      "à¶±à·Ļà·Ģà·ı": 2347,
      "à·ĥà·Ĵà¶»": 2348,
      "Ġà¶ºà·ıà¶½à·Ķà·Ģà·ı": 2349,
      "à¶±à·Ĭà¶§à·Ĭ": 2350,
      "Ġà·ĥà¶¸à¶Ł": 2351,
      "à·ģà·ı": 2352,
      "Ġà¶¶à¶©à·Ķ": 2353,
      "à¶ķà¶ļ": 2354,
      "Ġà¶¢à·Ŀ": 2355,
      "Ġà¶Ńà·Ŀà¶»": 2356,
      "à¶ļà·ıà¶§": 2357,
      "ĠR": 2358,
      "à¶¸à¶Ńà¶ļ": 2359,
      "Ġà¶´à·Ķà·Ħà·Ķ": 2360,
      "Ġà·ĥà¶¯à·Ĭà¶¯": 2361,
      "Ġà¶Ĩà¶»à¶ļà·Ĭà·Ĥà¶ļ": 2362,
      "à¶ĳà¶Ńà¶±": 2363,
      "Ġà¶¸à·Ħà·ı": 2364,
      "Ġà·ĥà·Ĵà·Ħà·Ĵ": 2365,
      "à¶ļà·Ģà·Ķ": 2366,
      "Ġà¶ºà¶¸à·Ĭ": 2367,
      "à·ĥà¶ļ": 2368,
      "Ġà·Ģà·Ĵà·Ģà·ĺ": 2369,
      "Ġà¶Ĩà¶ºà·Ķà¶°": 2370,
      "à¶¯à·Ķà¶¸à·Ĭ": 2371,
      "30": 2372,
      "Ġà¶ĭà¶Ńà·Ĭà¶Ńà¶»": 2373,
      "ment": 2374,
      "Ġà¶Ńà·Ģà¶¸": 2375,
      "Ġà·Ģà·Ĵà¶»à·Ķ": 2376,
      "Ġà¶´à·Ĵà·ĥà·Ĭà·ĥ": 2377,
      "à¶¶à¶½à·ı": 2378,
      "Ġà¶¸à¶±": 2379,
      "Ġà¶¸à·Ļà¶¸": 2380,
      "Ġà¶¶à¶©": 2381,
      "à¶´à·Ħ": 2382,
      "Ġà¶¸à¶ľà·Ŀ": 2383,
      "Ġà¶ĭà¶¹à·ļ": 2384,
      "à¶°à·Ĵà¶´à¶Ńà·Ĵ": 2385,
      "Ġà¶ħà·Ģà·ĥà¶±à·Ĭ": 2386,
      "Ġà·Ħà·ľà¶ºà·ıà¶ľà·Ļà¶±": 2387,
      "Ġà¶¶à·Ĵà¶»à·Ĵà¶³": 2388,
      "à¶§à·Ĵà¶±à·Ĭà¶±": 2389,
      "à·Ĵà¶±à·Ĭà¶¯à·ı": 2390,
      "12": 2391,
      "Ġà¶ħà¶´à¶§": 2392,
      "à¶ĳà¶ºà·ıà¶½à¶§": 2393,
      "Ġà·ĥà·Ĵà¶¯à·Ķà·Ģ": 2394,
      "à¶½à¶ļ": 2395,
      "à¶½à¶Ł": 2396,
      "à·ħà¶Ł": 2397,
      "à¶¸à¶§à¶Ńà·Ĭ": 2398,
      "Ġà¶ĳà¶ºà·Ĵ": 2399,
      "st": 2400,
      "Ġà·ĥà·Ĭà¶®": 2401,
      "à·ľà¶ļà·Ĭà¶§à¶»à·Ĭ": 2402,
      "Ġà¶ľà·Ļà¶±à·Ĵà¶ºà¶±à·Ĭà¶±": 2403,
      "Ġà¶īà¶³à¶½à·ı": 2404,
      "Ġà·ĥà·Ķà¶»": 2405,
      "Ġà¶Ńà·Ŀà¶»à·ı": 2406,
      "à¶±à·Ĭà¶ľà·Ļ": 2407,
      "Ġà¶¸à·Ķà¶«à¶ľà·Ĳ": 2408,
      "à¶ĳà¶ºà·ıà¶ľà·Ļ": 2409,
      "à·ĥà·Ĵà¶ºà¶§": 2410,
      "Ġà¶ĩà¶Ńà·Ķà¶½à·Ĭ": 2411,
      "à·Ļà¶Ńà·Ĭ": 2412,
      "Ġà¶ħà·Ģà·ĥà·Ĭà¶®à·ıà·Ģà¶ļà·Ĭ": 2413,
      "à¶½à·Ĵà·ĥà·Ĭ": 2414,
      "à¶¶à¶»à·Ĭ": 2415,
      "Ġà¶Ńà·Ķà¶±": 2416,
      "Ġà¶±à·Ĵà¶ļà¶¸à·Ĭ": 2417,
      "Ġà¶´à¶»à·ĵà¶ļà·Ĭà·Ĥà·ı": 2418,
      "Ġà·Ħà·Ĳà¶¸à·Ŀà¶§à¶¸": 2419,
      "Ġà¶ļà·ıà¶¸à¶»à·ļ": 2420,
      "à·Ļà¶ļà·Ķà¶§": 2421,
      "à¶½à·Ĭà¶½à·Ķ": 2422,
      "à¶ļà·Ĵà·ĥà·Ĵà¶¸": 2423,
      "Ġà·Ħà¶¯à¶±à·Ĭà¶±à·Ļ": 2424,
      "à¶¸à·ľà¶±à·ıà¶¯": 2425,
      "Ġà¶Ńà¶Ńà·Ĭà·Ģ": 2426,
      "Ġà¶¸à·ıà¶»à·Ķ": 2427,
      "Ġà·Ħà·Ĵà¶Ńà¶±": 2428,
      "Ġà¶¸à·Ĵà¶±à·Ĵà·ĥà·Ĭà·ĥà·Ķà¶±à·Ĭà¶§": 2429,
      "--čĊ": 2430,
      "Ġà¶ħà¶½à·Ĭà¶½à¶±à·Ĭà¶±": 2431,
      "Ġà¶¸à·Ļà¶±à·Ĭà¶±": 2432,
      "Ġà¶Ńà·Ĵà·ĥà·Ĭà·ĥ": 2433,
      "à¶ĩà¶ºà¶§": 2434,
      "Ġà¶Ĩà¶»à¶¸à·Ĭà¶·": 2435,
      "Ġà¶ĭà¶©à¶§": 2436,
      "Ġà¶¯à·Ļà¶±à·Ļà¶ļà·Ĭ": 2437,
      "Ġà¶Ńà·ļà¶»à·Ļà¶±à·Ģà·ı": 2438,
      "à¶ļà¶»à¶½à·ı": 2439,
      "Ġà¶ķà¶±à·Ļà¶¯": 2440,
      "Ġà¶¸à·Ĵà¶½à·Ĵà¶ºà¶±": 2441,
      "Ġà·Ħà¶»à·Ħà·ı": 2442,
      "Ġà¶ļà·ıà¶±à·Ĭ": 2443,
      "à¶ħà¶ºà·Ĵ": 2444,
      "à¶´à·ļà¶±": 2445,
      "Ġà¶¯à·Ķà¶±à·Ĭà¶±à·ļ": 2446,
      "Ġà¶¶à·ıà¶»": 2447,
      "à¶ļà·Ģà¶¯": 2448,
      "à·Ĥà·Ĭà¶¨": 2449,
      "Ġà¶ļà·ıà¶½à·ļ": 2450,
      "Ġà·Ħà·Ĳà¶ļ": 2451,
      "âĢįà¶¯": 2452,
      "Ġà¶Ńà¶»à·Ĭ": 2453,
      "Ġà·Ģà¶ľà·Ļ": 2454,
      "Ġà·Ģà·ıà¶»à·Ĭà¶Ńà·ı": 2455,
      "à·Ħà·Ļà¶ºà·Ĵ": 2456,
      "we": 2457,
      "Ġà¶ľà·Ļà¶¯à¶»à¶§": 2458,
      "à¶¯à·Ĵà¶½à·ı": 2459,
      "Ġà¶±à·ĳà¶±à·ļ": 2460,
      "à¶Ķà¶ºà·ıà¶½à¶§": 2461,
      "Ġà¶´à·Ĳà¶Ńà·Ĭà¶Ńà·Ļà¶±à·Ĭ": 2462,
      "Ġà¶´à¶¯": 2463,
      "Ġà¶Ķà·Ħà·ľà¶¸": 2464,
      "Ġà¶ĭà·ĥà·Ĭà·ĥ": 2465,
      "Ġà¶¯à·ıà¶½": 2466,
      "ab": 2467,
      "Ġà¶±à¶Ĥà¶ľà·Ĵ": 2468,
      "à¶ļà·ıà¶»à·Ĭ": 2469,
      "à¶´à·Ļà¶±": 2470,
      "Ġà¶¸à·ıà¶»à·Ĭà¶ľ": 2471,
      "ve": 2472,
      "à¶½à¶ºà¶§": 2473,
      "Ġà¶¯à¶»à·Ĭà·ģ": 2474,
      "Ġà¶Ńà·Ĳà¶±à¶§": 2475,
      "Ġà¶ħà¶³à·Ķ": 2476,
      "ĠL": 2477,
      "50": 2478,
      "à·Ļà¶±à·ı": 2479,
      "à¶ħà¶¸à·Ĭà¶¸à·ı": 2480,
      "Ġà¶´à¶»à·Ĵà·ĥà·Ĭà·ĥ": 2481,
      "à¶½à·Ĭà¶½à·Ļà¶ļà·Ĭ": 2482,
      "à·Ģà·ľ": 2483,
      "Ġà¶¯à·Ĭ": 2484,
      "Ġà¶ħà¶¸à·Ĭà¶¸à·ļ": 2485,
      "à¶±à¶¯": 2486,
      "à·Ģà·Ķà¶¸à·Ĭ": 2487,
      "Ġà¶īà¶½à¶ļà·Ĭà¶ļ": 2488,
      "Ġà¶Ķà·Ħà·Ĭ": 2489,
      "Ġà¶¸à¶¸à¶Ńà·Ĭ": 2490,
      "Ġà¶ľà·ľà¶©à·ıà¶ļà·Ĭ": 2491,
      "à¶¶à¶º": 2492,
      "à·ıà·Ģà·Ļà¶±à·Ĭ": 2493,
      "-à¶¸à¶¸": 2494,
      "Ġà¶¸à¶§à¶Ńà·Ĭ": 2495,
      "à·ĥà·Ĵà¶ºà·ı": 2496,
      "à¶±à·Ĳà¶Ńà·Ĭà¶±à¶¸à·Ĭ": 2497,
      "à¶Ķà¶ļà·Ĭà¶ļà·ľà¶¸": 2498,
      "à¶´à·ĥà·Ĭà·ĥà·Ļ": 2499,
      "Ġà¶ľà·Ĵà¶ºà·ľà¶Ńà·Ĭ": 2500,
      "Ġà·Ģà·ıà·ĥà¶±à·ıà·Ģ": 2501,
      "Ġà¶±à·Ķà¶¹": 2502,
      "Ġà¶ħà·Ģà·Ķà¶»à·Ķà¶¯à·Ĭà¶¯": 2503,
      "Ġà¶Ńà·Ķà·Ģà¶ļà·Ĭà¶ļà·Ķà·Ģ": 2504,
      "Ġà·Ħà·Ĳà¶¸à¶¯à·Ļà¶ºà¶ļà·Ĭà¶¸": 2505,
      "Ġà¶¢à·Ĵà·Ģà¶Ńà·Ĭ": 2506,
      "Ġà¶Ńà·Ĵà¶¶à·Ļà¶±à·Ģà·ı": 2507,
      "Ġà¶īà¶Ńà·Ķà¶»à·Ķ": 2508,
      "Ġà¶¢à¶º": 2509,
      "à¶¸à·ĸ": 2510,
      "à¶±à¶¸": 2511,
      "à¶ĭà¶¹à¶§": 2512,
      "Ġà¶¸à·Ķà¶½à·Ĵà¶±à·Ĭà¶¸": 2513,
      "ac": 2514,
      "th": 2515,
      "Ġà¶īà¶ļà·Ĭà¶¸à¶±à·Ĭ": 2516,
      "Ġà·ĥà·Ķà·Ģ": 2517,
      "Ġà¶Ńà·Ĳà¶±à·Ĭ": 2518,
      "âĻ«": 2519,
      "à¶¸à¶¸à¶ºà·Ĵ": 2520,
      "Ġà¶ħà¶±à¶Ńà·Ķà¶»à·Ķ": 2521,
      "à¶ºà¶±à·Ģà·ı": 2522,
      "Ġfor": 2523,
      "à¶´à¶Ĥ": 2524,
      "Ġà¶¸à¶ľà·Ķà¶½à¶ļà·Ĭà¶¯": 2525,
      "à¶±à·Ĵà¶ºà·ı": 2526,
      "Ġà¶ĳà¶ļà·Ļà¶ļà·Ĭ": 2527,
      "à·Ģà·Ŀ": 2528,
      "Ġà¶´à·Ģà·Ķà¶½": 2529,
      "Ġà¶ľà¶±à·Ĭà¶±à¶¸à·Ĭ": 2530,
      "Ġà¶ĳà·Ħà·ı": 2531,
      "ur": 2532,
      "à¶´à·ĺ": 2533,
      "à¶ļà¶»à·Ķà¶«à·ıà¶ļà¶»": 2534,
      "Ġà·Ħà·ľà¶ºà·ıà¶ľà¶Ńà·Ĭà¶Ń": 2535,
      "à·Ģà¶¯à·Ķà¶»": 2536,
      "à·ĳà·ĥ": 2537,
      "à·Ħà·Ļà¶§": 2538,
      "Ġà¶¯à·Ļà¶±à·Ĭà¶±à¶¸": 2539,
      "Ġà¶ħà·Ģà·ĥà¶»": 2540,
      "à¶ľà¶±à·Ļ": 2541,
      "ran": 2542,
      "âĢįà¶»à¶´": 2543,
      "à¶½à·Ĵà¶ºà¶§": 2544,
      "à¶½à¶ºà·ļ": 2545,
      "Ġà¶¸à·Ķà·Ħà·Ķà¶«": 2546,
      "Ġà¶Ńà·Ĵà¶ºà¶½à·ı": 2547,
      "Ġà¶Ńà·Ķà¶½": 2548,
      "Ġà·Ģà·Ĵà¶±à·Ŀà¶¯": 2549,
      "Ġà¶ļà·Ģà·Ķà¶»à·Ķà·Ħà¶»à·Ĵ": 2550,
      "Ġà¶ļà·Ģà·Ķà¶»à·Ķà¶Ńà·Ĭ": 2551,
      "à¶½à·Ĭà¶©à·Ĭ": 2552,
      "100": 2553,
      "Ġà¶ľà·ľà¶±à·Ķ": 2554,
      "Ġà¶ļà·ľà¶ºà·Ĵ": 2555,
      "Ġà¶¶à·Ķà¶¯à·Ĭà¶°": 2556,
      "à·Ģà·Ķà¶»": 2557,
      "à¶¢à¶º": 2558,
      "à·Ģà·Ĭà¶¯": 2559,
      "Ġà¶ļà·Ĵà¶ºà¶±à·Ģ": 2560,
      "à¶ļà·ıà¶»à¶ºà·ı": 2561,
      "à¶ĩà¶Ńà·Ķ": 2562,
      "à·ĥà·ľ": 2563,
      "Ġà·Ģà¶ľà·Ŀ": 2564,
      "Ġà¶īà¶¯à·Ĵà¶»à·Ĵ": 2565,
      "Ġà¶ĩà·Ħà·Ĳ": 2566,
      "Ġà·ĥà¶Ńà·Ĵ": 2567,
      "Ġà¶ħà¶½à·Ĭà¶½à·ı": 2568,
      "à¶ĭà¶¯à·Ģà·Ĭ": 2569,
      "Ġà¶łà·ı": 2570,
      "un": 2571,
      "à¶¯à·Ĵà¶±": 2572,
      "Ġà¶ľà·ļà¶±à·Ĭà¶±": 2573,
      "à¶łà·Ĵ": 2574,
      "Ġà¶¯à·ļà·ģ": 2575,
      "Ġà¶ļà¶«à·Ĭà¶©à·ıà¶ºà¶¸": 2576,
      "ro": 2577,
      "Ġà¶Ĵà·Ģà¶ľà·ļà¶¸": 2578,
      "à¶Ĩà¶»": 2579,
      "à¶¸à¶¸à¶Ńà·Ĭ": 2580,
      "Ġà¶ºà·Ķà¶¯à·Ĭà¶°": 2581,
      "Ġà·Ģà·ģ": 2582,
      "Ġà¶´à·Ļà¶±à·Ķ": 2583,
      "Ġà·Ģà·ĵà¶»": 2584,
      "Ġà¶¸à·Ļà·Ħà·ıà¶§": 2585,
      "à·Ħà·Ļà¶½à·Ŀ": 2586,
      "Ġà·ĥà¶¯": 2587,
      "à·Ģà¶¯à·Ķà¶»à¶§à¶Ńà·Ĭ": 2588,
      "à·Ģà·Ĭà·Ģ": 2589,
      "Ġà¶Ķà¶Ńà¶±": 2590,
      "Ġà¶ħà¶¸à·ıà¶»à·Ķà¶ºà·Ĵ": 2591,
      "à¶¸à·Ĭà·Ģ": 2592,
      "à¶¸à·ıà¶»": 2593,
      "Ġà¶ħà¶Ńà·Ķà¶»à·Ķà¶¯": 2594,
      ".\"": 2595,
      "à¶¯à·Ķà¶±à·ı": 2596,
      "à¶¯à·Ļà·Ģà·Ĵà¶ºà¶±à·ļ": 2597,
      "à·ĸà¶Ń": 2598,
      "à¶·à·ıà·Ģ": 2599,
      "Ġà·Ģà·Ĵà·ģà·ıà¶½": 2600,
      "à·Ŀà¶¢à·Ĵà¶Ń": 2601,
      "Ġà·Ģà·Ķà¶±à·ľà¶Ńà·Ĭ": 2602,
      "Ġà¶ħà¶ľ": 2603,
      "Ġà·Ģà·ļà¶ľ": 2604,
      "Ġà¶ĭà¶¯à·Ģà·Ĭà·Ģà¶ļà·Ĭ": 2605,
      "à¶»à·Ĭà¶Ń": 2606,
      "à¶½à·ĳ": 2607,
      "Ġà¶¸à·Ĵà¶±à·ĵà¶¸": 2608,
      "Ġà·Ħà·ľà¶¯à¶¸": 2609,
      "Ġà¶±à·Ĳà¶Ńà·Ĭà¶Ńà·Ļ": 2610,
      "à¶©à·ľ": 2611,
      "Ġà¶ļà·ľà¶½à·Ĭà¶½à·Ŀ": 2612,
      "à·ĥà¶º": 2613,
      "Ġà¶Ĵà¶ļà·Ļ": 2614,
      "Ġà¶Ńà·ļà¶»à·Ķà¶¸": 2615,
      "Ġà¶ļà·Ĵà¶»à·Ĵ": 2616,
      "à¶ļà·ľà¶½à·Ĭà¶½": 2617,
      "Ġà¶ĳà¶ļà¶Ńà·Ĭ": 2618,
      "ec": 2619,
      "Ġà¶ļà·ĸ": 2620,
      "Ġà·Ħà·Ĵà¶±à·Ĭà¶¯à·ı": 2621,
      "Ġà¶´à·Ĳà¶§": 2622,
      "Ġà¶ħà¶±à·Ĵà·Ģà·ıà¶»à·Ĭ": 2623,
      "Ġà¶ºà·Ĳ": 2624,
      "Ġà¶ļà·ľà¶§à·ĥ": 2625,
      "Ġà¶ļà·Ĳà¶¸à·Ĳà¶Ńà·Ĭà¶Ń": 2626,
      "Ġà¶Ńà¶Ńà·Ĭà·Ģà¶º": 2627,
      "Ġà¶¯à¶»à·Ķà·Ģ": 2628,
      "à·ĥà·Ĳà¶ļ": 2629,
      "Ġà¶ļà¶Ńà·ıà·Ģà¶ļà·Ĭ": 2630,
      "Ġà·Ħà¶¯à¶±à·Ģà·ı": 2631,
      "Ġà¶©à·ľà¶½à¶»à·Ĭ": 2632,
      "Ġà¶Ńà·Ķà¶±à¶ļà·Ĭ": 2633,
      "Ġà·Ħà·ľà¶ºà·ıà¶ľà¶Ńà·Ĭà¶Ńà·ı": 2634,
      "à·ĥà·Ķà¶¶": 2635,
      "Ġà·Ģà·Ĵà¶»à·Ķà¶¯à·Ĭà¶°": 2636,
      "Ġà¶´à·Ĵà¶±à·Ĭà¶Ńà·ĸ": 2637,
      "Ġà¶´à¶»à·ı": 2638,
      "à¶´à·ľà¶©à·Ĵ": 2639,
      "Ġà¶±à¶§": 2640,
      "à·ħà·Ķà·Ģà¶ļà·Ĭ": 2641,
      "Ġà·Ģà·Ĵà·Ģà·ĺà¶Ń": 2642,
      "à¶Ĩà¶´à·Ħà·Ķ": 2643,
      "à¶ļà¶»à¶±à·Ģà·ı": 2644,
      "Ġà¶ľà·Ļà·Ģà¶±à·Ĭà¶±": 2645,
      "19": 2646,
      "Ġà¶ħà¶Ĥà·ģ": 2647,
      "à¶¶à·ļ": 2648,
      "Ġà·Ģà·Ľà¶»": 2649,
      "Ġà¶Ķà·Ģà·Ķà¶±à·Ĭà¶ľà·ļ": 2650,
      "Ġà¶ĭà¶´à¶±à·Ĭ": 2651,
      "à·Ģà¶»à·Ķ": 2652,
      "ut": 2653,
      "à¶ºà·Ĵà¶§à·Ĭ": 2654,
      "à·ĵà¶¸à·ļ": 2655,
      "Ġà·ĥà·Ķà¶·": 2656,
      "à·ĳà¶±à·Ĭà¶ļà·Ĭ": 2657,
      "Ġà¶±à·Ĵà¶Ńà¶»": 2658,
      "à¶Ĥà¶ľà·Ĭ": 2659,
      "à¶ļà·ĺ": 2660,
      "Ġà¶ļà·Ĵà·Ģà·Ĭà·Ģà·ľà¶Ńà·Ĭ": 2661,
      "Ġà¶¶à¶½à·ıà¶ľà¶±à·Ĭà¶±à¶¸à·Ĭ": 2662,
      "à·Ļà·Ħ": 2663,
      "à¶±à·Ĭà·ĥà·Ĭ": 2664,
      "à¶¸à·Ķà¶¯": 2665,
      "Ġà·Ħà·Ķà¶ľà¶ļà·Ĭ": 2666,
      "Ġà·ĥà¶Ńà·Ķà¶§à·Ķà¶ºà·Ĵ": 2667,
      "à·ĳà¶¸à·Ĭ": 2668,
      "à¶»à·Ĵà·ĥà·Ĭ": 2669,
      "Ġà·Ģà·Ĵà·ģà·Ĭà·Ģà·ıà·ĥà¶¯": 2670,
      "à¶³à·Ĵà¶±à·Ĭà¶±": 2671,
      "Ġà·Ħà·Ķà·ĥà·Ĭà¶¸": 2672,
      "à¶Ĵà¶ļà¶ºà·Ĵ": 2673,
      "à¶ºà·ıà¶§": 2674,
      "à¶±à·ļà¶±à·Ļ": 2675,
      "ĠO": 2676,
      "à¶¸à·ıà¶Ńà·Ĭ": 2677,
      "âĢįà¶½": 2678,
      "à¶¹à·Ķ": 2679,
      "à·Ģà·Ĵà¶±à·ı": 2680,
      "à¶Ŀ": 2681,
      "Ġà¶´à·Ĵà·Ħà·Ĵ": 2682,
      "à·Ķà·Ģà¶Ńà·Ĭ": 2683,
      "Ġà¶ĳà¶ļà·Ĭà¶ļà¶¸": 2684,
      "à¶¢à·Ŀ": 2685,
      "Ġà¶¯à·ľà·ĥà·Ĭà¶Ńà¶»": 2686,
      "Ġà¶ĭà¶±à·ľà¶Ńà·Ĭ": 2687,
      "Ġà¶¯à·Ķà¶»à¶ļà¶®": 2688,
      "à¶Ķà·Ħà·ľà¶¸": 2689,
      "Ġà¶ĩà¶Ńà·Ķà¶½": 2690,
      "Ġà¶ħà·Ħà·Ĵ": 2691,
      "Ġ,čĊ": 2692,
      "Ġà¶¶à¶½à¶±à·Ģà·ı": 2693,
      "à¶¸à·Ĵà¶ļ": 2694,
      "âĢįà¶½à·ı": 2695,
      "Ġà¶ħà·ħà·Ķà¶Ńà·Ĭ": 2696,
      "Ġà¶Ŀ": 2697,
      "Ġà¶ħà¶¸à·Ķà¶Ńà·Ķ": 2698,
      "Ġà¶´à¶»à·Ĭ": 2699,
      "à·Ģà·Ĳà¶»à¶¯à·Ĵ": 2700,
      "Ġà¶ļà·ľà¶§à·ĥà¶ļà·Ĭ": 2701,
      "à¶ļà·ľà·Ħà·ľà¶¸": 2702,
      "Ġà·ĥà·Ĵà¶ºà¶½à·Ķ": 2703,
      "Ġà¶Ńà·ĳ": 2704,
      "Ġà¶ļà·Ģà·Ķà¶»à·Ķà·Ģà¶Ńà·Ĭ": 2705,
      "à¶ļà·ľà¶łà·Ĭà¶łà¶»": 2706,
      "Ġà¶ºà¶±à·Ĭà¶±à¶¸à·Ĭ": 2707,
      "Ġà¶¶à·ľà¶±à·Ĭà¶±": 2708,
      "Ġà¶½à·Ŀà¶ļà·Ļ": 2709,
      "à·Ļà¶¯à·Ĵ": 2710,
      "Ġà¶Ńà·Ĵà¶ºà·ıà¶ľà·Ļà¶±": 2711,
      "Ġà·Ģà·ĵà¶¸": 2712,
      "à¶½à·ıà·Ģ": 2713,
      "Ġà¶Ńà·ļà¶»à·Ļà¶±à·Ĭà¶±à·ļ": 2714,
      "Ġà¶«": 2715,
      "Ġà¶ļà·ľà·Ħà·Ļà¶±à·Ĭà¶¯": 2716,
      "Ġà¶Ķà¶ºà·ıà¶½à¶ľà·ļ": 2717,
      "à¶¶à¶»": 2718,
      "Ġà¶ħà¶Ĥ": 2719,
      "Ġà·Ĩà·Ŀà¶±à·Ĭ": 2720,
      "Ġà¶ĭà¶¯à·ĳà·ĥ": 2721,
      "Ġà·ĥà·Ĳà¶½à·ĥà·Ķà¶¸à·Ĭ": 2722,
      "à·Ķà·Ģà·Ļà¶½à·ı": 2723,
      "ri": 2724,
      "Ġà¶¸à¶ºà·Ĵà¶ļà¶½à·Ĭ": 2725,
      "à·Ĥà·Ĵ": 2726,
      "à·Ĥà·Ĭà¶§": 2727,
      "à¶ħà¶±à·Ĵà¶Ńà·Ĭ": 2728,
      "Ġà¶ħà¶«": 2729,
      "à·ĥà¶Ńà·Ĭ": 2730,
      "à¶Ńà·Ļà¶ļà·Ĭ": 2731,
      "à¶ļà·ĸ": 2732,
      "à¶»à·Ĭà¶ļà·Ĭ": 2733,
      "âĢįà¶»à·ľ": 2734,
      "Ġà¶¯à¶±à·Ĭà¶±à·ĳ": 2735,
      "Ġà¶ħà·Ħà·Ķ": 2736,
      "Ġà·Ģà¶ľà¶ºà¶ļà·Ĭ": 2737,
      "Ġà·Ģà·ļà¶¯": 2738,
      "à¶¸à·Ĳà¶Ńà·Ĵ": 2739,
      "Ġà¶¯à·Ĳà¶±à·Ļà¶±à·Ģà·ı": 2740,
      "âĢįà¶ºà¶ļà·Ĭ": 2741,
      "Ġà¶ļà·Ķà¶»à·Ķ": 2742,
      "à·Ģà·ļà·ģ": 2743,
      "Ġà¶¯à·Ķà¶»à·Ĭ": 2744,
      "à¶ºà·Ĵà·ĥà·Ĭà¶Ńà·Ķà·Ģ": 2745,
      "à¶±à·ıà·Ģà¶ļà·Ĭ": 2746,
      "à·Ħà¶±": 2747,
      "âĢįà¶ºà·Ĵ": 2748,
      "à¶Ķà¶±à·Ĭà¶±": 2749,
      "à¶ºà¶±": 2750,
      "à¶¯à·Ĵà¶º": 2751,
      "Ġà¶Ķà¶´à·Ĭà¶´à·Ķ": 2752,
      "Ġà¶»à·ĥ": 2753,
      "âĢįà¶»à·ģà·Ĭà¶«à¶ºà¶ļà·Ĭ": 2754,
      "à¶ļà·Ĭà·Ĥà·ı": 2755,
      "Ġà¶Ĵà¶ºà·Ĵ": 2756,
      "à¶ļà¶»à¶±": 2757,
      "ather": 2758,
      "à¶Ńà·Ĭà¶Ńà·Ķà·Ģ": 2759,
      "à¶´à¶±à¶º": 2760,
      "Ġà·ģà·Ĭ": 2761,
      "Ġà¶´à·Ĳà¶§à·Ĵà¶ºà·Ŀ": 2762,
      "à¶´à·Ķà¶»à·Ķ": 2763,
      "Ġg": 2764,
      "Ġà¶¢à·Ļ": 2765,
      "Ġà¶¸à·ĸà¶«": 2766,
      "Ġà¶ħà·ĥà·ı": 2767,
      "Ġà¶´à·Ĳà¶¸à·Ĵà¶«": 2768,
      "âĢįà¶ļ": 2769,
      "à¶¸à·Ĵà¶º": 2770,
      "à¶©à¶ºà¶ļà·Ĭ": 2771,
      "Ġà¶´à·Ļà¶±à·Ĭà¶±à¶±à·Ĭà¶±": 2772,
      "Ġà¶ļà¶»à¶¸à·Ĵà¶±à·Ĭ": 2773,
      "Ġà¶´à·ľà¶½à·ĵ": 2774,
      "Ġà¶Ķà·Ģà·Ķà¶±à·Ĭà·Ģ": 2775,
      "Ġà¶ļà¶»à·Ķà¶«à·ıà¶ļà¶»": 2776,
      "Ġà·ĥà¶ļ": 2777,
      "Ġà¶ľà·Ĵà¶±à·Ĵ": 2778,
      "Ġà·Ģà·ıà¶©à·Ĵ": 2779,
      "Ġà¶ħà¶´à·Ĭ": 2780,
      "Ġà¶¶à¶Ĥ": 2781,
      "Ġà¶Ĩà·ĥ": 2782,
      "200": 2783,
      "ĠE": 2784,
      "Ġà¶ĩà·Ħà·Ļà¶±": 2785,
      "Ġà¶Ĩà·Ģà¶»": 2786,
      "à¶Ńà·Ĳ": 2787,
      "Ġà¶´à·Ŀ": 2788,
      "ĠH": 2789,
      "Ġà·Ģà¶»à·Ĭà¶ľ": 2790,
      "à·Ģà·Ļà¶±à·Ĭà¶±à·ļ": 2791,
      "Ġà¶´à·Ķà¶»": 2792,
      "Ġà¶¯à·Ķà¶¸à·Ĭ": 2793,
      "Ġà¶Ĩà¶»à¶ļà·Ĭà·ģ": 2794,
      "à·Ģà·Ĵà·ģà·Ĭ": 2795,
      "à¶ºà·ıà¶ľà·ļ": 2796,
      "weather": 2797,
      "Ġà¶´à¶±à·Ĵ": 2798,
      "Ġà¶ļà·Ĵà¶ºà·Ģà¶±à·Ĭà¶±": 2799,
      "Ġà¶Ńà·Ĵà¶¶à·Ķà¶«à·ı": 2800,
      "à·²": 2801,
      "à·Ģà·ļà¶¯": 2802,
      "Ġà¶¸à¶Ńà·Ĭ": 2803,
      "Ġà¶¯à·Ļà¶±à·Ĭà¶±à·Ļà¶ļà·Ĭ": 2804,
      "Ġà¶ºà·Ĵ": 2805,
      "à¶ħà¶±à·Ĭà¶Ńà·Ĵ": 2806,
      "Ġà¶ļà¶»à·ıà·Ģà·Ĵ": 2807,
      "Ġà¶¯à·Ĳà¶ļ": 2808,
      "à¶ľà·Ļà¶¯à¶»": 2809,
      "à¶¯à·Ķà¶»à·Ķ": 2810,
      "Ġà·Ħà·Ĵà¶Ńà·ıà¶ľà¶±à·Ĭà¶±": 2811,
      "Ġà¶¶à·Ĵà¶»à·Ĵà¶¯": 2812,
      "à¶ļà·ıà¶»à·ĵ": 2813,
      "à·Ģà·Ĭà·Ģà·ļ": 2814,
      "Ġà¶ļà¶±": 2815,
      "Ġà·Ģà·Ĳà¶©à·ĥà¶§": 2816,
      "Ġà·Ħà·Ĳà¶Ł": 2817,
      "ĠJ": 2818,
      "000": 2819,
      "à¶ļà·Ģà·Ķà¶»à·Ķà·Ħà¶»à·Ĵ": 2820,
      "Ġà¶Ĵà¶ļà·ļ": 2821,
      "Ġà·Ģà·Ļà¶±à¶ļà¶¸à·Ĭ": 2822,
      "Ġà¶±à·Ĵà¶ļà¶Ĥ": 2823,
      "Ġà¶ľà¶¸à¶±": 2824,
      "Ġà·Ħà·Ĳà¶¸à¶¯à·ıà¶¸": 2825,
      ",à¶¸à¶¸": 2826,
      "Ġà¶ĳà¶ºà·ıà¶½à¶ľà·ļ": 2827,
      "Ġà·ĥà¶ºà·Ĵ": 2828,
      "Ġth": 2829,
      "à¶©à·Ĵà¶ºà¶ļà·Ĭ": 2830,
      "Ġà·ĥà·ıà¶ļà·Ĭà·Ĥà·Ĵ": 2831,
      "à¶§à·Ļ": 2832,
      "Ġà·Ģà·Ĳà¶§à·Ĵ": 2833,
      "Ġà·Ħà·Ĳà¶¯à·Ķà·Ģà·ļ": 2834,
      "à·ĥà·Ķà¶¸": 2835,
      "Ġà¶īà¶ļà·Ĭà¶¸à¶±à·Ĵà¶±à·Ĭ": 2836,
      "à¶ľà·Ĵà¶±à·Ĭà¶±": 2837,
      "âĢįà¶»à·ģà·Ĭà¶«": 2838,
      "Ġà¶½à¶ľà¶§": 2839,
      "Ġà¶´à·ļà¶±à·Ĭà¶±à·ļ": 2840,
      "à·ĥà¶½": 2841,
      "Ġà¶ħà¶´à·Ĵà¶Ńà·Ĭ": 2842,
      "Ġà¶ļà·ıà·Ģ": 2843,
      "Ġà¶´à·Ķà·ħà·Ķà·Ģ": 2844,
      "à¶ºà·Ķà¶Ńà·Ķ": 2845,
      "Ġà·ĥà¶´": 2846,
      "à¶´à·ĥà·Ĭà·ĥà¶§": 2847,
      "à·Ģà¶Ńà·Ĵ": 2848,
      "à¶¯à·Ĵà¶ºà·ı": 2849,
      "Ġà¶ĩà¶±à·Ĭ": 2850,
      "Ġà¶±à·ľà·Ģà·ļ": 2851,
      "à·Ļà¶±à·ĵ": 2852,
      "à¶ļà¶»à¶«à¶º": 2853,
      "à¶´à·Ŀ": 2854,
      "Ġà¶§à·Ĳ": 2855,
      "à¶ļà·Ķà¶»à·Ķ": 2856,
      "à·Ħà·ıà¶»": 2857,
      "Ġà¶´à·Ĳà·Ħà·Ĳà¶»": 2858,
      "Ġà¶¸à¶§à·Ĭ": 2859,
      "à¶ļà¶±à·Ĭà¶±": 2860,
      "à·ĵà¶º": 2861,
      "à¶ĳà¶łà·Ĭà¶łà¶»": 2862,
      "Ġà¶ļà¶»à·Ĭ": 2863,
      "Ġà¶§à·Ļ": 2864,
      "Ġà¶ķà¶±à¶¸": 2865,
      "Ġà¶ľà·Ĵà·Ħà·Ĵà¶½à·Ĭà¶½à·ı": 2866,
      "Ġà¶¸à·Ļà¶ºà·ıà·Ģ": 2867,
      "Ġà¶Ńà·Ķà¶±à·Ĭ": 2868,
      "Ġà¶¸à·ľà¶±à·Ģà·Ħà¶»à·Ĵ": 2869,
      "Ġà¶±à·ľà·Ħà·Ĳà¶ļà·Ĵ": 2870,
      "Ġà·ĥà·ĵà¶¸": 2871,
      "Ġà¶¶à·ľà¶»": 2872,
      "à¶ļà¶§à·Ĭ": 2873,
      "Ġà¶´à·ļà¶±": 2874,
      "Ġà¶¯à·Ĳà¶ļà·Ĭà¶ļà·ļ": 2875,
      "à·Ģà·Ķà¶±": 2876,
      "Ġà·Ħà·ľà¶³à¶§à¶¸": 2877,
      "à¶¶à¶³": 2878,
      "Ġà¶¸à·Ķà¶»": 2879,
      "à·Ķà·Ģà·Ļà¶ļà·Ĭ": 2880,
      "Ġà¶ľà·Ĳà¶§": 2881,
      "Ġà¶ļà¶½à¶¶à¶½": 2882,
      "à¶©à·Ĵà¶±à·Ĭ": 2883,
      "à¶ºà¶¸à·Ķ": 2884,
      "Ġà¶¶à·Ļà·Ħà·Ļ": 2885,
      "ate": 2886,
      "Ġà·Ħà·Ĳà¶¯à·Ķà·Ģà·ı": 2887,
      "à¶ħà¶¸à·Ĭà¶¸à·ļ": 2888,
      "Ġà·ģà¶ļà·Ĭà¶Ńà·Ĵà¶¸à¶Ńà·Ĭ": 2889,
      "à¶½à·Ĭà¶§à·Ĭ": 2890,
      "Ġà¶´à·Ķà¶´à·Ķà¶»": 2891,
      "Ġà¶·à·ıà·Ģà·Ĵà¶Ń": 2892,
      "à¶»à¶«à¶º": 2893,
      "Ġà¶¯à¶»à·Ķà¶«à·Ķ": 2894,
      "Ġà·ĥà¶»": 2895,
      "à·ĥà·Ĵà¶¯à·Ķ": 2896,
      "Ġà¶ļà·Ĳà¶¸à¶Ńà·Ĵà¶¯": 2897,
      "Ġà·Ħà·Ĵà¶Ńà·Ķà·Ģ": 2898,
      "à¶±à¶»à·Ĭ": 2899,
      "Ġst": 2900,
      "à¶Ĥà¶ľà·Ķ": 2901,
      "à¶Ńà·ıà¶±à·Ĭ": 2902,
      "Ġà¶ļà·Ļà¶±à·Ļà¶ļà·Ĭà·Ģ": 2903,
      "Ġà¶¶à·Ĳà¶»à·Ĵà¶¯": 2904,
      "Ġà¶ºà¶±à·Ģà¶¯": 2905,
      "ĠW": 2906,
      "Ġof": 2907,
      "Ġà·Ģà·ĥà·Ĭà¶Ńà·Ķà·Ģ": 2908,
      "à¶ħà¶©": 2909,
      "Ġà·Ħà¶¯à¶½à·ı": 2910,
      "Ġà·ĥà·ļà·Ģà·ı": 2911,
      "à¶ħà¶ºà·Ĵà¶ºà·Ŀ": 2912,
      "à¶¢à¶±à¶º": 2913,
      "Ġà¶ħà·Ħà·Ĭ": 2914,
      "à¶ºà·Ĵà¶¯": 2915,
      "Ġà¶¯à¶¸": 2916,
      "Ġà¶±à·Ĵà·ĥà¶ºà·Ĵ": 2917,
      "Ġà¶ºà·Ļ": 2918,
      "à¶Ĥà¶ľà·Ķà·Ģà¶§": 2919,
      "Ġà¶ļà·Ĵà¶»à·ĵà¶¸à¶ļà·Ĭ": 2920,
      "Ġà¶¸à·ľà¶±à·Ģà·ıà¶¯": 2921,
      "Ġà¶¢à·ļà¶±à·Ĭ": 2922,
      "à¶»à·Ķà¶±à·ı": 2923,
      "Ġà·Ģà·Ľà¶¯à·Ĭ": 2924,
      "à¶´à·Ĵà¶§à·Ĵà¶±à·Ĭ": 2925,
      "à¶»à·Ķà¶±à·Ĵ": 2926,
      "à·ħà·Ķà¶¸": 2927,
      "Ġà·Ģà·Ĳà¶»à¶¯à·Ĵà¶ºà·Ĵ": 2928,
      "Ġà¶±à·Ĵà¶ºà·Ŀà¶¢à·Ĵà¶Ń": 2929,
      "Ġà·Ģà¶±à·ļà¶±": 2930,
      "Ġà¶ħà¶ľà¶º": 2931,
      "Ġà¶¯à·Ģà·ĥà·ļ": 2932,
      "Ġà¶ĩà¶Ńà·Ķà¶½à·Ļ": 2933,
      "Ġà¶´à·Ķà¶»à·ı": 2934,
      "à¶¸à·Ļà¶¸": 2935,
      "à¶¯à¶»à¶ºà·Ļà¶±à·Ĭ": 2936,
      "à¶½à·Ĭà¶¸": 2937,
      "Ġà·Ĩà·Ĵ": 2938,
      "à¶Ńà·Ĭà¶Ńà¶¸à·Ĭ": 2939,
      "Ġà¶ļà·ĥà·ıà¶¯": 2940,
      "Ġà¶¸à·ľà¶±à·Ģà¶Ńà·Ĭ": 2941,
      "Ġà·Ħà·Ĳà·ĥà·Ĵà¶»": 2942,
      "à¶¥à·ı": 2943,
      "Ġà¶¸à¶°à·Ĭ": 2944,
      "à¶Ńà¶¸": 2945,
      "à·Ļà¶±à·Ģà¶¯": 2946,
      "à¶½à·Ĵà¶ºà·ı": 2947,
      "à·Ģà·Ķà¶±à·ļ": 2948,
      "op": 2949,
      "Ġà¶¢à·Ĵà·Ģà·Ĵà¶Ń": 2950,
      "à¶±à·ĥà·Ĭ": 2951,
      "Ġà·Ģà·Ĵà·ĥà·Ĭ": 2952,
      "Ġà¶´à·Ķà¶»à·Ķà¶¯à·Ķ": 2953,
      "Ġà¶´à·ĥà·Ĭà·ĥà¶§": 2954,
      "Ġà¶¸à·Ĳà¶»à·Ķà·Ģà·ı": 2955,
      "à¶Ńà·Ŀ": 2956,
      "à·ĥà·Ĵà¶ļ": 2957,
      "Ġà¶ļà¶»à¶¯à¶»à¶ºà¶ļà·Ĭ": 2958,
      "Ġà¶ļà¶©à·ı": 2959,
      "à¶ľà¶¸à·Ķ": 2960,
      "à¶ħà¶±à·Ĵà¶ļ": 2961,
      "Ġà¶¯à·Ļà¶±à·Ĭà¶±à·Ļ": 2962,
      "Ġà¶ľà¶±à·Ķ": 2963,
      "Ġà¶ħà·Ħà·Ķà·Ģ": 2964,
      "à·Ģà·Ĵà¶½à·Ĭ": 2965,
      "Ġà¶´à¶§": 2966,
      "Ġà¶´à·ļà¶±à·Ĭà¶±à·Ļ": 2967,
      "Ġà·Ģà¶łà¶±": 2968,
      "Ġà¶Ńà·Ģà¶¯à·Ķà¶»à¶§à¶Ńà·Ĭ": 2969,
      "à¶¯à·Ĵà¶ľ": 2970,
      "Ġà·Ģà·Ĵà·Ģà·ļ": 2971,
      "ada": 2972,
      "à¶ºà·ľ": 2973,
      "à·Ģà·Ĵà·ģ": 2974,
      "Ġà·Ħà¶³à·Ķ": 2975,
      "Ġà¶ĳà¶½à·Ĭà¶½": 2976,
      "Ġà¶ļà·ľà¶§à·ĥà·Ĭ": 2977,
      "à¶»à·ıà¶¢à·Ĭ": 2978,
      "à¶±à·ıà¶°à·Ĵà¶´à¶Ńà·Ĵ": 2979,
      "Ġà¶Ńà·Ĳà¶±à¶ļ": 2980,
      "Ġà·ĥà·Ĵà¶ºà¶½à·Ĭà¶½": 2981,
      "à¶ļà·ıà¶»à·Ĵà¶º": 2982,
      "Ġà·Ģà¶§à·Ĵà¶±à·ı": 2983,
      "à¶Ķà¶ºà¶Ńà·Ĭ": 2984,
      "à·Ħà¶½à·Ŀ": 2985,
      "à·Ķà·Ģà·ı": 2986,
      "Ġà¶¶à·Ħà·Ĵ": 2987,
      "Ġà¶±à·ľà·Ħà·Ĳà¶ļ": 2988,
      "Ġà¶·à·ĸ": 2989,
      "à·Ģà·ĵà¶¸à¶ļà·Ĭ": 2990,
      "Ġà¶±à·ıà¶ºà¶ļ": 2991,
      "Ġà¶ħà¶Ńà¶±": 2992,
      "à·Ģà·ĸ": 2993,
      "à¶ļà¶»à·Ķà·Ģà¶±à·Ĭ": 2994,
      "Ġà¶ħà¶Ńà·ļ": 2995,
      "Ġà¶łà·ıà¶»à·Ĭ": 2996,
      "à¶¢à·Ļ": 2997,
      "Ġà¶ĭà¶Ńà·Ĭà·ĥ": 2998,
      "Ġà¶ħà¶Ńà¶§": 2999,
      "Ġà¶±à·Ĵà¶»à·Ĭà¶¸à·ıà¶«à¶º": 3000,
      "à¶¯à·Ķà¶±": 3001,
      "Ġà¶ĩà¶Ł": 3002,
      "à¶ľà¶«": 3003,
      "à¶»à·Ķà¶¸": 3004,
      "Ġà¶Įà·Ģ": 3005,
      "Ġà¶ļà·ľà¶½à·Ĭà¶½à·ı": 3006,
      "à·ĥà·Ĵà¶¯à·Ĭà¶°": 3007,
      "Ġà¶ħà¶°à·Ĵ": 3008,
      "ey": 3009,
      "Ġà¶ľà¶«à·Ķ": 3010,
      "à¶¸à·Ĭà¶¸": 3011,
      "Ġà¶½à·Ĳà¶ºà·Ĵà·ĥà·Ĭà¶Ńà·Ķà·Ģ": 3012,
      "à·ıà·Ģà·Ļ": 3013,
      "Ġà¶īà¶¯à·Ĵà¶»à·Ĵà¶ºà¶§": 3014,
      "ce": 3015,
      "Ġà¶Ńà·Ķà·Ģà·ıà¶½": 3016,
      "à¶Ńà·Ģà¶Ńà·Ĭ": 3017,
      "Ġà·Ģà·Ļà¶±à·Ģà¶¯": 3018,
      "Ġà¶±à·Ĵà¶¯à·ıà¶ľà¶±à·Ĭà¶±": 3019,
      "Ġà·Ħà·Ĵà·ĥà·Ĭ": 3020,
      "Ġà¶īà·Ģà¶»à¶ºà¶ļà·Ĭ": 3021,
      "Ġà¶¶à·Ķà¶¯à·Ĭà¶°à·Ĵ": 3022,
      "Ġà¶¸à·Ķà¶¯à¶½à·Ĭ": 3023,
      "à¶Ńà·Ķà¶±à·Ĭ": 3024,
      "à¶Ķà·Ħà·Ķà¶ľà·ļ": 3025,
      "Ġà¶ĳà¶Ńà¶±à¶§": 3026,
      "omment": 3027,
      "à¶»à·Ĵà¶ļà·ıà·Ģ": 3028,
      "Ġà¶±à·Ģà¶Ńà·Ĵà¶±à·Ĭà¶±": 3029,
      "Ġà·Ħà·Ĳà¶ļà·Ĵà¶ºà·ıà·Ģ": 3030,
      "à¶īà¶ļà·Ĭà¶¸à¶±à·Ĭ": 3031,
      "à¶±à·Ĭà¶¯à·Ĭ": 3032,
      "à¶ľà·Ĳà¶±à·ĵà¶¸": 3033,
      "Ġà¶Ńà¶»à¶Ł": 3034,
      "Ġà¶ĭà¶¹à·Ģ": 3035,
      "à¶Ńà·Ļà¶±à·Ĭ": 3036,
      "Ġà·ĥà¶Ńà·Ķà¶§à·Ĵà¶±à·Ĭ": 3037,
      "Ġà¶¸à·ļà¶ļà·Ļà¶±à·Ĭ": 3038,
      "Ġà¶ļà·Ĵà·Ģà·Ķà·Ģà·ı": 3039,
      "à¶´à¶¯": 3040,
      "à¶ļà¶©": 3041,
      "à¶¸à·Ĭà¶¶à¶»": 3042,
      "à·Ģà·Ļà¶±à·Ĭ": 3043,
      "Ġà¶ľà·ıà·Ģà¶§": 3044,
      "Ġà¶¸à·Ĵà¶±à·Ĵà·ĥà·Ķà¶±à·Ĭ": 3045,
      "à¶ħà¶©à·Ķ": 3046,
      "à¶ľà·Ĵà·Ħà·Ĵà¶±à·Ĭ": 3047,
      "ĠCan": 3048,
      "Ġà¶Ĩà¶Ńà·Ĭà¶¸": 3049,
      "Ġà¶ľà·Ĳà·Ħà·Ķ": 3050,
      "Ġà·ĥà·Ĵà¶»": 3051,
      "Ġà¶±à·Ĵà¶Ńà¶»à¶¸": 3052,
      "Ġà¶¯à·Ģà·ĥà¶ļ": 3053,
      "Ġà¶ļà·Ķà¶¸": 3054,
      "Ġà¶¸à¶Ńà¶ļà¶¯": 3055,
      "Ġà¶¸à¶Ńà¶ļà¶ºà·Ĵ": 3056,
      "Ġà·Ģà·Ŀ": 3057,
      "ain": 3058,
      "à¶½à·Ĭà·Ĩà·Ĭ": 3059,
      "Ġà¶ļà¶½à·ľà¶Ńà·Ĭ": 3060,
      "Ġà·ĥà·Ĭà·Ģà·ı": 3061,
      "à·ĥà·Ĵà¶ºà·Ļà¶±à·Ĭ": 3062,
      "à·Ģà·Ļà¶½à·ļà¶¸": 3063,
      "Ġà¶ĭà¶´à·ı": 3064,
      "à¶łà·ıà¶»à·Ĭà¶º": 3065,
      "Ġà¶ļà¶»à¶±à·Ĭ": 3066,
      "Ġà¶ĳà¶ļà¶ļ": 3067,
      "ĠâĪĻ": 3068,
      "à¶»à·Ĭà¶®à¶ļ": 3069,
      "à·Ħà·Ĵà¶º": 3070,
      "Ġ'čĊ": 3071,
      "à¶ļà·Ĭà¶¸": 3072,
      "Ġà¶ĳà¶¯à·ı": 3073,
      "à¶»à·Ĵà¶ļ": 3074,
      "Ġà¶ºà¶±à·Ĭà¶Ńà·Ĭ": 3075,
      "Ġà¶¯à·ĸà¶´": 3076,
      "à¶ļà·ļà·ĥà·Ĭ": 3077,
      "Ġà·ĥà·ļà·Ģ": 3078,
      "Ġà¶ļà·ıà¶»à·Ĭà¶ºà·ı": 3079,
      "Ġà¶±à·Ĵà·Ģà·ĥ": 3080,
      "Ġà¶ĳà¶ļà·Ĵ": 3081,
      "Ġà¶Ĭà¶ºà·ļ": 3082,
      "Ġà¶īà¶Ńà·Ĵà¶»à·Ĵ": 3083,
      "à¶±à·Ĭà¶Ńà¶»": 3084,
      "Ġà·Ģà·Ļà¶±à¶ļà·ľà¶§": 3085,
      "à¶¯à·Ĭà¶ľà¶½à·Ĵà¶ļ": 3086,
      "Ġà¶ĳà¶ļà·ı": 3087,
      "à·Ģà·Ĵà¶½à·Ĵ": 3088,
      "à¶ļà¶ºà¶±à·Ĭ": 3089,
      "à¶¶à·ıà¶ºà·Ĵ": 3090,
      "Ġà¶ħà¶Ńà·ı": 3091,
      "à·Ģà·Ħ": 3092,
      "Ġà¶ĳà¶±à¶ļà¶¸à·Ĭ": 3093,
      "à¶Ńà¶ºà·Ĵ": 3094,
      "Ġà·Ħà·ıà¶¯": 3095,
      "à¶±à·Ĵà¶ºà·Ĵ": 3096,
      "à¶½à¶¸": 3097,
      "à¶¸à·Ļà·Ħà·ļ": 3098,
      "à¶ľà·ľà¶½à·Ĭà¶½": 3099,
      "Ġà¶Ńà¶»à·Ķà¶«": 3100,
      "Ġà·ĥà·Ħà·Ĵà¶Ń": 3101,
      "Ġà¶»à·Ŀà·Ħ": 3102,
      "Ġà¶ľà·ľà¶©à¶±à·Ĳà¶ľà·Ĵ": 3103,
      "Ġà¶¸à¶»à¶±à·Ģà·ı": 3104,
      "Ġà¶Ńà·Ĵà¶¶à·Ķà¶«": 3105,
      "Ġà¶ĳà¶ļà¶Ł": 3106,
      "ir": 3107,
      "Ġà·Ħà·ıà¶ºà·Ĵ": 3108,
      "Ġà·Ģà¶ľà·ļà¶¯": 3109,
      "Ġà¶ºà·ıà·Ģà·Ĵ": 3110,
      "à¶Ķà·Ģà·Ķà¶±à·Ĭà¶§": 3111,
      "Ġit": 3112,
      "à¶Ĩà·Ħà·Ĭ": 3113,
      "à¶¯à·Ĳà¶±à·Ĭà¶¸": 3114,
      "à¶«à·Ĵà¶º": 3115,
      "Ġà¶Ĵà¶ļà¶ºà·Ĵ": 3116,
      "à¶¯à·Ĵà¶±à·Ģà·ı": 3117,
      "Ġà¶ħà¶ºà·Ĵà¶ºà·ı": 3118,
      "Ġà¶ĭà¶¯à·ĳà·ĥà¶±à¶ļà·Ĭ": 3119,
      "à¶±à¶ºà·Ļà¶±à·Ĭ": 3120,
      "à¶»à¶½à·ı": 3121,
      "Ġà¶ħà¶¯à·Ħà·ĥ": 3122,
      "Ġà¶Ńà·Ĳà¶±à¶ļà¶§": 3123,
      "Ġà¶½à¶¶": 3124,
      "Ġà¶ĩà¶³à·Ķà¶¸à·Ĭ": 3125,
      "à¶±à¶½à·Ĭ": 3126,
      "11": 3127,
      "Ġà¶ļà·Ĭà¶½à·ıà¶ļà·Ĭ": 3128,
      "à¶½à·Ŀà¶ļ": 3129,
      "Ġà¶´à·Ħà¶½à¶§": 3130,
      "Ġname": 3131,
      "Ġà¶´à·Ħà·Ķ": 3132,
      "Comment": 3133,
      "Ġà¶Ķà¶½à·Ķà·Ģ": 3134,
      "à·Ģà·Ĳà¶©": 3135,
      "à¶ļà·Ĭà·Ĥà¶«": 3136,
      "Ġà¶¸à·Ħà¶±à·Ĭ": 3137,
      "Ġà¶ļà·Ļà¶±à·Ļà¶ļà·Ĭà¶§": 3138,
      "à¶¯à¶±à·Ĭà¶±à·Ģà¶¯": 3139,
      "Ġà¶īà¶¯à·Ĵà¶»à·Ĵà¶´à¶Ńà·Ĭ": 3140,
      "Ġà¶Ńà¶»à·Ħ": 3141,
      "à¶ħà¶±à·Ĵà·Ģà·ıà¶»à·Ĭ": 3142,
      "Ġà·ĥà·Ķà¶¯à·Ķà·ĥà·Ķ": 3143,
      "Ġà¶´à·Ģà·Ķà¶½à·ļ": 3144,
      "à¶Ńà·Ĭà¶Ńà·Ĵ": 3145,
      "ag": 3146,
      "Ġà¶Ńà·ĳà¶ľà·Ĭ": 3147,
      "Ġà¶ľà¶±": 3148,
      "à·ĥà¶½à·Ĭ": 3149,
      "à¶Ńà¶¸à·Ķà·ĥà·ļ": 3150,
      "à¶´à·ĸ": 3151,
      "Ġà·Ģà·Ļà¶½à·ıà·Ģà¶ļ": 3152,
      "Ġà¶¶à·Ĳà¶½à·Ķà·Ģà·ı": 3153,
      "Ġà¶ļà·ıà¶»à·Ĭà¶º": 3154,
      "Ġà¶·à¶ºà·ıà¶±à¶ļ": 3155,
      "à¶¢à¶±à·Ĭ": 3156,
      "à¶ļà·Ķà¶§": 3157,
      "Ġà¶»à·ĳà¶§": 3158,
      "à¶ļà·Ĵà¶±à·Ĭà¶±": 3159,
      "Ġà¶Ķà¶ºà¶ºà·Ĵ": 3160,
      "à¶§à·Ĵà¶ļà¶ļà·Ĭ": 3161,
      "Ġà¶ħà¶°à·Ĭ": 3162,
      "Ġà·ĥà·ĳà·Ħà·Ļà¶±à·Ĭà¶±": 3163,
      "Ġà¶»à¶Ńà·Ķ": 3164,
      "à¶ļà·Ķà¶ºà·Ĵ": 3165,
      "Ġà¶ħà¶©à·Ĵ": 3166,
      "Ġà¶¢à·ľ": 3167,
      "Ġà¶¸à·ıà¶ºà·ı": 3168,
      "Ġà·Ģà¶±à·Ļ": 3169,
      "à¶¸à·Ĵà¶ºà·ı": 3170,
      "Ġà¶±à¶ľà¶»à¶º": 3171,
      "ast": 3172,
      "Ġà·Ħà·Ĵà¶»à·ļ": 3173,
      "à¶±à·Ģà¶Ńà·Ĭà¶Ń": 3174,
      "Ġà·Ħà·ļà¶Ńà·Ķà·Ģà¶ļà·Ĭ": 3175,
      "Ġà·Ħà¶¯à¶±": 3176,
      "à¶±à·Ĵà¶ļ": 3177,
      "Ġà¶ĩà¶Ńà·Ĭà¶Ńà·ļ": 3178,
      "âĢįà¶»à¶ºà·Ĵ": 3179,
      "Ġà¶¸à·Ĵà¶±à·Ĵà·Ħà·Ŀ": 3180,
      "âĢįà¶»à¶¸à¶ºà¶ļà·Ĭ": 3181,
      "Ġà¶Ńà·Ħà·Ģà·Ķà¶»à·Ķ": 3182,
      "à·ĵà¶±à·Ĭ": 3183,
      "à¶±à·Ĭà¶¯à·ļ": 3184,
      "à¶Ķà·Ħà·Ĭà·Ħà·Ĭ": 3185,
      "à¶¢à¶»à·Ĭ": 3186,
      "Ġà¶Ńà·Ļ": 3187,
      "Ġà¶ľà¶«à·Ķà¶¯à·Ļà¶±": 3188,
      "à·Ļà¶±à·Ĭà¶§à·Ĭ": 3189,
      "à¶ļà¶Ńà·ı": 3190,
      "Ġà¶ºà·ľà¶¸à·Ķ": 3191,
      "Ġà¶ľà¶±à·ĵ": 3192,
      "à¶ļà·Ĵà¶±à·Ĭà¶¸": 3193,
      "Ġà¶ĳà·Ħà·ļ": 3194,
      "à¶±à·ĵà¶´": 3195,
      "à¶łà·ı": 3196,
      "Ġà¶ļà¶±à·Ĭ": 3197,
      "Ġà¶ħà·Ħà¶½à·ı": 3198,
      "Ġà¶½à¶Ĥ": 3199,
      "âĢįà¶»à¶ļà·Ĭ": 3200,
      "âĢįà·Ģà·ı": 3201,
      "à¶¯à·Ļà¶ºà¶ļà·Ĭ": 3202,
      "Ġà¶±à¶¸à¶ļà·Ĭ": 3203,
      "Ġà¶ľà¶Ńà·Ĭà¶Ńà·Ļ": 3204,
      "Ġà¶ľà·Ĳà·Ħà·Ĳ": 3205,
      "Ġà¶¶à·ĳà¶ľà·Ĭ": 3206,
      "Ġà¶Ĩà¶»à¶ļà·Ĭà·Ĥà·ıà·Ģ": 3207,
      "ĠCanada": 3208,
      "Ġà¶±à·Ĵà¶¯à·Ħ": 3209,
      "Ġà¶ľà¶±à·Ĭà¶±à·Ļ": 3210,
      "Ġà¶´à·Ĳà¶Ńà·Ķà¶¸à·Ĭ": 3211,
      "Ġà¶ļà·Ĵà·Ģà·Ķà·Ģà·ļ": 3212,
      "à¶Ńà·Ķà¶¸à·ıà¶«": 3213,
      "à¶½à·ľà¶ļà·Ĭ": 3214,
      "Ġà·ĥà¶¸à·Ĭà¶´à·ĸà¶»à·Ĭà¶«à¶ºà·Ļà¶±à·Ĭà¶¸": 3215,
      "à¶½à·Ŀà¶ļà¶º": 3216,
      "Ġà·Ģà·Ļà¶±à·Ķà·Ģà¶§": 3217,
      "Ġà·ĥà·Ĭà¶Ńà·ĸ": 3218,
      "Ġà¶©à·Ĭ": 3219,
      "Ġà¶ļà·Ģà¶¯à·ı": 3220,
      "Ġà·Ģà·ģà¶ºà·Ļà¶±à·Ĭ": 3221,
      "à¶»à·Ĭà¶§à·Ĭ": 3222,
      "Ġà¶ļà¶¸à·Ĭ": 3223,
      "Ġà¶¯à·Ķà¶ļà·Ĭ": 3224,
      "à¶¯à·Ĭà¶¯à¶ļà·Ĭ": 3225,
      "à·ļà¶±à·Ĭ": 3226,
      "Ġà¶Ńà¶§à·Ĭà¶§": 3227,
      "Ġà¶¶à·Ĳà¶½à·Ķà·Ģ": 3228,
      "Ġà·ĥà¶¸à·ıà¶ľ": 3229,
      "Ġà·ħà¶¸à¶ºà·Ļà¶ļà·Ĭ": 3230,
      "Ġà¶´à·ŀ": 3231,
      "Ġà¶¯à¶±à·Ĭà¶±à·Ģà¶±à·Ļ": 3232,
      "Ġà¶ļà·Ĳà¶´à·Ĭà¶§à¶±à·Ĭ": 3233,
      "os": 3234,
      "Ġà·Ģà·Ļà·ħ": 3235,
      "Ġà·Ģà·Ĵà¶¯à·Ķ": 3236,
      "à¶±à·Ĳà·Ģà¶Ń": 3237,
      "Ġà·ĥà·Ĭà¶®à·ıà¶±à¶º": 3238,
      "Ġà¶Ńà·ıà¶Ńà·Ĭà¶Ńà¶§": 3239,
      "Ġà¶ħà·Ħà¶±à·Ĭà¶±à·ļ": 3240,
      "à¶ľà¶±à·Ĵ": 3241,
      "Ġà¶¯à·Ļà¶±à·Ģà¶¯": 3242,
      "à¶´à·ıà¶½": 3243,
      "à¶ļà·ıà¶»à¶ºà·Ŀ": 3244,
      "Ġà¶īà¶´": 3245,
      "à·Ģà·Ļà¶±à·Ĭà¶±à·Ļ": 3246,
      "Ġme": 3247,
      "Ġà·Ģà·Ĳà¶»à·Ĳà¶¯à·Ĭà¶¯à¶ļà·Ĭ": 3248,
      "à¶´à·ĥ": 3249,
      "Ġà¶¸à¶»à¶«à¶º": 3250,
      "Ġà¶ĳà¶ļà·Ĵà¶±à·Ļ": 3251,
      "id": 3252,
      "Ġà¶¸à·Ĵà·ĥà·Ĭà¶§à¶»à·Ĭ": 3253,
      "Ġà¶¸à·Ļà·Ħà·Ĵ": 3254,
      "Ġà¶ħà·Ģà·ĥà·ıà¶±": 3255,
      "Ġà·Ħà¶¸à·Ķà·Ģà·Ļà¶±à·Ĭà¶±": 3256,
      "à¶»à·Ķà¶¸à·Ĭ": 3257,
      "à¶¯à·Ĵà¶¸": 3258,
      "à¶ľà·Ļà¶¸": 3259,
      "Ġà¶ħà¶ºà·Ģ": 3260,
      "à·ĥà·Ĭà¶¸à¶ļà·Ĭ": 3261,
      "Ġà¶ħà¶·à·Ĵ": 3262,
      "Ġà¶±à·Ĵà¶½à¶°à·ıà¶»": 3263,
      "Ġis": 3264,
      "Ġà¶ļà¶»à¶±à·Ĭà¶±à¶ºà·Ĵ": 3265,
      "Ġà¶ľà¶±à·Ķà¶¯à·Ļà¶±": 3266,
      "Ġà¶½à·Ĳà¶¶à·Ļà¶±": 3267,
      "à¶¶à·Ĭà¶¯": 3268,
      "Ġà¶ľà·ľà¶±à·Ķà·Ģ": 3269,
      "Ġà¶¸à·Ĳà¶»à·Ķà·Ģ": 3270,
      "Ġà¶ħà¶Ńà·Ķà¶»à·Ķà¶¯à·Ħà¶±à·Ĭ": 3271,
      "à¶½à¶ºà¶±à·Ĭ": 3272,
      "Ġà¶¸à·Ļà¶Ńà·Ĳà¶±": 3273,
      "à¶¯à·Ĳà¶ļà·Ĭà¶ļ": 3274,
      "à¶¯à·ľ": 3275,
      "Ġà¶ĳà¶ļà¶Ńà·Ķà·Ģ": 3276,
      "Ġà¶ĩà·Ħà·Ļà¶±à·Ģà¶¯": 3277,
      "à¶¯à·ľà¶»": 3278,
      "Ġà¶ĳà¶ºà¶Ńà·Ĭ": 3279,
      "Ġà¶¸à·Ĭ": 3280,
      "Ġà¶ĳà¶±à·Ģà¶¯": 3281,
      "Ġà¶¯à·Ĳà¶±à¶ľà¶Ńà·Ĭà¶Ń": 3282,
      "Ġà¶´à·ľà¶Ń": 3283,
      "Ġà·Ģà·Ĵà·Ħà·Ĵà·ħà·Ķ": 3284,
      "Ġà¶Ńà¶¸à¶±à·Ĭà¶ľà·ļ": 3285,
      "Ġà¶ľà¶«à¶±à·Ĭ": 3286,
      "à·ĥà·ĸ": 3287,
      "-à¶Ķà¶ºà·ı": 3288,
      "Ġà¶ħà¶Ł": 3289,
      "Ġà¶¸à·Ĳà¶»à·Ķà¶«à·ı": 3290,
      "à¶½à¶Ńà·Ĭ": 3291,
      "à¶¯à·ĵà¶¸": 3292,
      "à¶ľà¶½à·Ĭ": 3293,
      "Ġà·ħà¶¸à¶º": 3294,
      "à¶»à·ĸ": 3295,
      "à¶ħà¶Ńà·Ĭ": 3296,
      "à¶Ńà¶½": 3297,
      "Ġà·ĥà¶Ńà·Ĭ": 3298,
      "à¶ĳà¶ļà·Ĭà¶ļ": 3299,
      "Ġà·ĥà·Ħà¶Ńà·Ĵà¶ļ": 3300,
      "Ġà¶±à·Ĵà·Ģà·Ĭ": 3301,
      "à·Ģà·ıà·ĥà¶±à·ıà·Ģ": 3302,
      "à·Ĥà¶«à¶º": 3303,
      "Ġà¶ľà·ŀà¶»à·Ģ": 3304,
      "Ġà¶Ķà¶¶à¶ľà·ļ": 3305,
      "Ġà¶ľà¶¶": 3306,
      "à¶»à¶±à·Ĭà¶±": 3307,
      "Ġà¶´à·Ļà·ħ": 3308,
      "Ġà·Ģà·Ĵà¶ļà·Ķà¶«": 3309,
      "à·Ĥà·ı": 3310,
      "à¶Ĩà¶¯à¶»": 3311,
      "Ġà¶ºà¶Ńà·Ķà¶»": 3312,
      "à¶¯à·ıà¶ºà¶ļ": 3313,
      "Ġà¶´à·Ļà¶¸à·Ĭà·Ģ": 3314,
      "Ġà·Ģà·Ļà¶±à¶Ńà·Ĭ": 3315,
      "Ġà·Ģà¶ºà·ĥ": 3316,
      "Ġà¶¯à·ıà¶ľà¶±à·Ĭà¶±": 3317,
      "à¶ļà·Ļà¶±à·Ļà¶ļà·Ĭ": 3318,
      "à¶½à·ľà¶ļà·Ķ": 3319,
      "à¶´à·Ķà¶»à·Ĭà¶«": 3320,
      "à·Ģà·ıà¶»": 3321,
      "à¶´à¶±à·ı": 3322,
      "Ġà¶ĭà¶Ńà·Ĭà¶Ń": 3323,
      "Ġà¶¸à·Ķà¶½à·Ķ": 3324,
      "od": 3325,
      "Ġà¶ļà·Ĵà·Ģà·Ķà·Ģ": 3326,
      "à¶¡": 3327,
      "Ġà·ĥà·Ĳà¶½à·Ĳà·ĥà·Ĭà¶¸": 3328,
      "à·Ģà¶¯à·Ĭà¶¯": 3329,
      ",à¶Ķà¶ºà·ı": 3330,
      "Ġà¶´à·ħà¶¸à·Ķ": 3331,
      "Ġà¶¯à·Ķà¶»à·Ĭà·Ģà¶½": 3332,
      "Ġà¶Ĩà¶º": 3333,
      "Ġà¶ºà·ıà¶±à¶º": 3334,
      "Ġà¶¸à·Ĳà¶©à¶¸à·Ĭ": 3335,
      "Ġà¶Īà¶Ńà·Ĭ": 3336,
      "à¶½à·Ļà¶ļà·Ĭà·ĥà·Ĭ": 3337,
      "Ġà¶ħà¶§": 3338,
      "em": 3339,
      "Ġà¶¸à·Ĳà¶¯": 3340,
      "à·Ļà¶ļà·Ĭà¶§": 3341,
      "Ġà¶½à·Ŀà¶ļà·ļ": 3342,
      "Ġà¶ħà·Ģà¶°à·ıà¶±à¶º": 3343,
      "Ġà¶»à·Ĵà¶¯": 3344,
      "Ġà·Ģà·Ļà¶±à·Ĵ": 3345,
      "Ġà¶ļà·ľà¶½à·Ĭà¶½à¶±à·ļ": 3346,
      "Ġà¶Ĩà¶©": 3347,
      "Ġà¶Ĩà¶»à¶Ĥà¶ł": 3348,
      "Ġà·ĥà¶±à·Ĭà·ĥà·Ķà¶±à·Ĭ": 3349,
      "Ġà¶´à·Ĵà¶»à·Ĵà·ĥà·Ĵà¶¯à·Ķ": 3350,
      "Ġà¶¯à·ıà¶ľà·Ļà¶±": 3351,
      "Ġà¶Ķà¶ºà·ıà¶½à·Ģ": 3352,
      "à¶ļà·ľà·Ħà·ļ": 3353,
      "Ġà¶¸à·Ļà¶º": 3354,
      "Ġà¶´à·ľà¶»": 3355,
      "à¶±à·Ķà¶¹": 3356,
      "à¶Ķà¶ºà¶ºà·Ĵ": 3357,
      "Ġà¶ħà¶±à·Ĭà¶±": 3358,
      "à¶ľà¶±à·ĵ": 3359,
      "um": 3360,
      "à¶ľà¶±à·Ĵà¶±à·Ĭ": 3361,
      "âĢįà¶»à¶ºà·Ŀ": 3362,
      "à¶¯à¶¸à·Ĭ": 3363,
      "Ġà¶ĳà¶¸": 3364,
      "Ġà¶ľà·Ļà¶±à·Ĭà¶±": 3365,
      "Ġà¶ĭà¶¶à¶§": 3366,
      "Ġà¶ļà·ľà·Ħà·ľ": 3367,
      "Ġà¶´à·Ħà¶½": 3368,
      "à¶¸à·ĵà¶§": 3369,
      "Ġà¶¯à·Ĳà¶±à¶±à·Ĭ": 3370,
      "Ġà¶´à·Ģà¶Ńà·Ĵ": 3371,
      "à¶Ńà·ıà¶Ńà·Ĭà¶Ń": 3372,
      "Ġà¶¯à·Ķà¶ļ": 3373,
      "à¶¸à·Ŀà¶©": 3374,
      "Ġà¶¸à·Ĵà¶Ńà·Ĭ": 3375,
      "à¶ľà·ľà¶½à·Ĭà¶½à·Ŀ": 3376,
      "âĢįà¶»à·Ĳ": 3377,
      "à·Ģà·Ĵà·ģà·Ĭà·Ģà·ıà·ĥ": 3378,
      "Ġà¶¶à·Ĵà¶º": 3379,
      "Ġà¶¢à¶»à·ı": 3380,
      "Ġà¶Ńà¶¸à·Ķà¶±à·Ĭ": 3381,
      "Ġà·Ħà·Ĵà¶Ńà·ļ": 3382,
      "Ġà¶¯à·Ķà·Ģà¶±à·Ĭà¶±": 3383,
      "ew": 3384,
      "Ġà·Ħà·Ĳà¶¸à·Ģà·Ļà¶½à·ļà¶¸": 3385,
      "Ġà¶ħà·Ģà¶¯": 3386,
      "à¶´à·ıà¶»à¶ļà·Ĭ": 3387,
      "Ġà¶¸à·Ħà¶Ńà·Ĭà¶¸à·Ĵà¶º": 3388,
      "Ġà¶Ńà·Ĵà¶¶à·Ķà¶±à·Ļ": 3389,
      "Ġà¶ļà·Ĵà¶ºà¶±à·Ĭà¶±à¶¯": 3390,
      "à¶»à¶ļà·Ĭ": 3391,
      "Ġà¶»à·ĥà·Ĭà·ĥà·ıà·Ģ": 3392,
      "Ġà¶ĳà·Ģà¶±à·Ĭà¶±": 3393,
      "Ġà·Ģà·Ĳà¶§à·Ĵà¶½à·ı": 3394,
      "Ġà¶¶à·ľà·Ħà·Ŀ": 3395,
      "Ġà·Ħà·Ĵà¶Ńà¶½à·ı": 3396,
      "Ġà¶ħà¶Ńà·Ĵ": 3397,
      "Ġà¶©à·ľà¶ļà·Ĭà¶§à¶»à·Ĭ": 3398,
      "à¶½à¶§à·Ĭ": 3399,
      "Ġà¶¯à¶Ńà·Ĭà¶Ń": 3400,
      "Ġà¶´à¶½à·Ģà·Ļà¶±à·Ĵ": 3401,
      "à¶Ńà·Ķà¶Ńà·Ĵ": 3402,
      "Ġà¶±à·Ĵà·ģà·Ĭ": 3403,
      "à¶¸à¶±à·ı": 3404,
      "Ġà¶¸à·Ĳà¶»à·Ļà¶±à·Ģà·ı": 3405,
      "à¶Ńà·ıà·Ģà¶º": 3406,
      "40": 3407,
      "Ġà¶ħà¶»à·Ĵ": 3408,
      "ent": 3409,
      "Ġà¶ĭà¶±à·Ĭà·Ģ": 3410,
      "Ġà¶¯à·Ļà¶º": 3411,
      "Ġà¶¶à¶½à¶±à·Ĭà¶±à¶¸à·Ĭ": 3412,
      "Ġà¶´à·Ķà¶¯à·Ĭà¶ľà¶½": 3413,
      "à¶»à¶½à·Ĭ": 3414,
      "Ġà·Ģà·ĺ": 3415,
      "Ġà¶½à·ľà¶ļà·Ĭà¶ļà·ı": 3416,
      "Ġà·ĥà·Ķà¶¶": 3417,
      "-čĊ": 3418,
      "à¶»à·Ĵà¶ļà·Ĭ": 3419,
      "Ġà¶¸à¶½à·Ĭ": 3420,
      "âĢįà¶ľà·ļ": 3421,
      "Ġà¶Ńà¶¸à·Ķà·ĥà·ļ": 3422,
      "Ġà¶¢à·Ŀà¶±à·Ĭ": 3423,
      "Ġà¶´à·Ķà·Ħà·Ķà¶«à·Ķ": 3424,
      "à¶Ńà¶¸à·Ķà¶±à·Ĭ": 3425,
      "à¶ħà¶´à·Ĵà·Ģ": 3426,
      "Ġà¶ĭà¶«à·Ķ": 3427,
      "ction": 3428,
      "Ġà¶ļà¶»à·Ģà¶±à·Ĭà¶±": 3429,
      "à·Ģà·Ķà¶½à·Ĭ": 3430,
      "Ġà¶´à¶½à·Ĭà¶½": 3431,
      "Ġà¶Ĩà¶´à·ĥà·Ķ": 3432,
      "Ġà¶ļà·ıà¶±à·Ĭà¶Ńà·ıà·Ģ": 3433,
      "Ġà¶ļà¶½à·Ĵ": 3434,
      "Ġà¶Ńà·ļà¶»à·Ķà¶«à·ı": 3435,
      "Ġà·Ģà·ıà·Ħà¶±à·ļ": 3436,
      "à¶ºà¶ļà·Ĭà¶¯": 3437,
      "Ġà¶ºà·Ŀ": 3438,
      "Ġà¶½à·Ĳà¶¶à·Ļà¶±à·Ģà·ı": 3439,
      "Ġà·Ħà¶º": 3440,
      "Ġà¶Ķà¶ļà·Ĭà¶ļà¶¸": 3441,
      "Ġà·ĥà·Ħà·ı": 3442,
      "à·ĥà·Ĭà¶Ńà·Ĵà¶ºà·Ĵ": 3443,
      "à¶Ķà·Ħà·Ķà·Ģ": 3444,
      "Ġà¶¸à·Ĳà¶»à·Ĵ": 3445,
      "Ġà¶±à·Ĵà·ĥà·ıà¶¯": 3446,
      "Ġà¶ĩà¶Ńà·Ķà·ħ": 3447,
      "à¶ĩà¶¸": 3448,
      "Ġà¶½à¶ļà·Ĭ": 3449,
      "Ġà¶¯à·Ļà·Ģà·Ĵà¶ºà¶±à·Ĭ": 3450,
      "Ġà·ģà¶ļà·Ĭà¶Ńà·Ĵà¶º": 3451,
      "Ġà·Ģà·Ĵà¶¸": 3452,
      "Ġà·Ħà·ľà¶¯à¶§à¶¸": 3453,
      "Ġà¶Ķà¶»": 3454,
      "Ġà¶´à·ļà¶±à·Ĭà¶±": 3455,
      "BI": 3456,
      "Ġà¶ħà¶¸à·Ĭà¶¸à¶§": 3457,
      "Ġà¶Ńà·Ķà·Ģà¶ļà·Ĭà¶ļà·Ķ": 3458,
      "à¶«à¶ļà·Ĭ": 3459,
      "à¶¯à¶»à·Ĭà·ģ": 3460,
      "Ġà¶ĳà¶łà·Ĭà¶łà¶»à¶ºà·Ĵ": 3461,
      "Ġà·Ģà¶§à·ļ": 3462,
      "Ġà¶¯à¶ļà·Ķà¶«à·Ķ": 3463,
      "oc": 3464,
      "Ġà¶ľà·Ĳà¶±à·ĵà¶¸": 3465,
      "à¶©à·Ļ": 3466,
      "Ġà·Ģà·Ļà¶ºà·Ĵà¶¯": 3467,
      "Ġà·Ģà·Ĵà·Ħà·Ĵà·ħà·Ķà·Ģà¶ļà·Ĭ": 3468,
      "à·ľà¶¸à·Ĭ": 3469,
      "Ġà·ĥà·Ķà¶´à·Ĵà¶»à·Ĵ": 3470,
      "à·Ģà·ĵà¶¸à¶§": 3471,
      "Ġà¶ļà·Ĵà·Ħà·Ĵà¶´à¶ºà¶ļà·Ĭ": 3472,
      "Ġà¶ħà¶±à·Ĭà¶Ńà·Ĵà¶¸à¶§": 3473,
      "Ġà¶ĳà·Ħà·Ĵ": 3474,
      "Ġà¶±à·Ĵà¶ºà·Ŀ": 3475,
      "Ġà¶¸à·ľà¶±à·ıà·Ħà¶»à·Ĵ": 3476,
      "à¶Ńà·Ĭà¶Ńà·Ĵà¶º": 3477,
      "Ġà¶ħà¶±à·Ĵà¶ļà·Ĭ": 3478,
      "Ġà¶±à·Ĭ": 3479,
      "pp": 3480,
      "ist": 3481,
      "ak": 3482,
      "à·Ģà·Ĳà¶±à·Ĵ": 3483,
      "à¶¸à·ļà·Ģà·ı": 3484,
      "à¶¸à·ľà¶±à·Ģ": 3485,
      "à¶Ńà¶Ńà·Ĭ": 3486,
      "-à¶Ķà·Ģà·Ĭ": 3487,
      "Ġà¶īà·ĥà·Ĭà¶ļà·Ŀ": 3488,
      "à¶ħà¶½à·Ĭà¶½": 3489,
      "Ġà¶´à·Ħà¶ļà·Ĭ": 3490,
      "if": 3491,
      "Ġà¶¸à¶łà¶Ĥ": 3492,
      "à¶±à·Ķà¶ºà·Ĵ": 3493,
      "Ġà¶´à·Ĳà¶¸à·Ĵà¶«à·Ĵ": 3494,
      "Ġà·Ħà¶¯à·Ĵà·ĥà·Ĵ": 3495,
      "Ġà¶´à·Ĵà¶§à·Ķ": 3496,
      "Ġà·Ģà·Ĵà·ĥà·Ĭà·Ģà·ıà·ĥ": 3497,
      "Ġà¶¶à·Ļà·Ħà·Ļà¶Ńà·Ĭ": 3498,
      "Ġà¶ħà¶±à·Ĭà¶Ń": 3499,
      "Ġà¶¸à·Ĵà¶±à·Ĵà¶Ńà·Ĭà¶Ńà·Ķ": 3500,
      "Ġà¶ļà·Ĵà¶ºà¶½à¶ºà·Ĵ": 3501,
      "à¶«à·ıà·Ģ": 3502,
      "Ġà¶ļà·Ĵà·Ħà·Ĵà¶´": 3503,
      "Ġà¶½à¶¸à¶ºà·Ĵ": 3504,
      "Ġà¶Ķà¶ºà·ıà¶½à¶ľà·Ļ": 3505,
      "Ġcon": 3506,
      "à¶¸à·ıà¶»à·Ĭ": 3507,
      "Ġà¶½à·Ķà·Ħà·Ķ": 3508,
      "âĢįà¶ºà·ıà·Ģ": 3509,
      "à·Ģà·Ķà¶«à·ı": 3510,
      "Ġà¶ľà·Ĵà·Ģà·Ĵ": 3511,
      "Ġà¶´à¶±à·Ĭ": 3512,
      "Ġà¶Ĩà·Ħà·ıà¶»": 3513,
      "Ġà¶ĳà¶ļà·Ĭà¶ļà¶±à·Ĭ": 3514,
      "Ġà¶Ľ": 3515,
      "Ġà·Ģà·ıà¶»": 3516,
      "à¶¸à·Ļà¶§": 3517,
      "à¶Ĵà·Ģ": 3518,
      "Ġà¶ľà¶½à·Ĭ": 3519,
      "Ġà¶ļà·ıà¶»à¶ºà·Ļà¶ļà·Ĭ": 3520,
      "Ġà¶ĭà¶´à¶»à·Ĵ": 3521,
      "Ġà·Ħà·Ŀà¶§": 3522,
      "à·ıà¶±à·Ĭ": 3523,
      "Ġà¶Ŀà·ı": 3524,
      "à¶»à·ıà¶ľà¶±à·Ĭà¶±": 3525,
      "Ġà·ĥà¶½à¶ļà·Ķà¶«à·Ķ": 3526,
      "à·ĥà¶¸à·Ĭà¶´": 3527,
      "à¶¢à·Ĭà¶¢": 3528,
      "Ġà¶¶à¶½à¶±à·Ĭà¶±à·ļ": 3529,
      "à¶ľà¶½": 3530,
      "à¶®à·Ĵ": 3531,
      "Ġà¶ħà¶Ńà·Ĵà¶±à·Ĭ": 3532,
      "à·ĥà¶¸à·Ĭ": 3533,
      "Ġà¶»à¶®": 3534,
      "Ġà·Ģà·Ĳà¶©à¶ļà¶§": 3535,
      "Ġà¶¸à·ļà¶ļà·ļ": 3536,
      "Ġà¶¡": 3537,
      "ig": 3538,
      "Ġà·Ħà¶¸à·Ķà¶¯à·ıà·Ģ": 3539,
      "ll": 3540,
      "à·Ģà·ıà·Ģà·Ĭ": 3541,
      "à·Ħà·Ĳà¶ļà·Ĵ": 3542,
      "à¶Ńà·Ĭà¶Ńà·Ķà·Ģà¶ļà·Ĭ": 3543,
      "Ġà¶ļà¶»à¶±à·Ĭà¶±à¶Ńà·Ĭ": 3544,
      "Ġà¶§à¶ºà·Ĵ": 3545,
      "Ġà¶ľà¶±à·Ĵ": 3546,
      "Ġà¶ĩà·Ħà·Ķà¶¸à·Ĭ": 3547,
      "Ġà¶ľà·Ĳà¶±à·Ĭ": 3548,
      "Ġà¶½à·ļà·ĥà·Ĵ": 3549,
      "à¶ļà·ĵà¶¸": 3550,
      "ill": 3551,
      "à¶±à·Ĭà¶¯à¶»": 3552,
      "Ġà·Ģà·Ļà¶±à·ĥà¶ļà·Ĭ": 3553,
      "à¶§à·Ĭà·ĥà·Ĭ": 3554,
      "à¶¸à·ļà¶±à·Ĭ": 3555,
      "Ġà¶ºà·ľà¶¯à·ı": 3556,
      "Ġà¶¶à¶¶à·ı": 3557,
      "Ġà¶ĳà¶ļà·Ĭà¶ļà¶ľà·Ļà¶±": 3558,
      "Ġà¶ĳà·Ħà·ıà¶§": 3559,
      "ĠMr": 3560,
      "Ġà·Ģà·Ĵà¶ļà¶½à·Ĭ": 3561,
      "Ġà¶ħà¶±à¶Ńà·Ķà¶»à¶ļà·Ĭ": 3562,
      "Ġà¶¸à·Ļà¶±": 3563,
      "Ġà¶ľà¶¸à·Ķ": 3564,
      "à¶±à·Ķà¶Ńà·Ĭ": 3565,
      "Ġà·ĥà¶Ĥà¶ľ": 3566,
      "à¶´à¶½à·Ĭ": 3567,
      "à·Ħà·Ĳà¶¶à·Ĳà¶ºà·Ĵ": 3568,
      "âĢĶ": 3569,
      "Ġà¶ħà¶ļà·Ĭ": 3570,
      "Ġà¶ħà¶¯à·ı": 3571,
      "Ġà¶¸à·ıà¶»à·Ĭà¶ľà¶º": 3572,
      "Ġà¶ļà¶½à·ıà¶¯": 3573,
      "Ġà¶Ńà·Ĵà¶¶à·Ĭà¶¶à·Ļ": 3574,
      "Ġà·ĥà¶ļà·Ĭ": 3575,
      "Ġà·ĥà¶Ńà·Ĵà¶º": 3576,
      "à¶´à·Ĭà¶§": 3577,
      "Ġà¶ħà¶©à·Ķà¶¸": 3578,
      "Ġà·ĥà·ĳà¶¸à·Ĭ": 3579,
      "à·Ħà·Ĳà¶¸à¶¯à·ļà¶¸": 3580,
      "Ġà¶¸à·Ĵà¶±à·Ĵà·Ħà·Ģ": 3581,
      "{\\": 3582,
      "Ġà¶ĭà¶±à·Ĭà¶§": 3583,
      "Ġà¶¶à·Ĳà¶½": 3584,
      "Ġà·ĥà·Ĳà¶±à·Ĭ": 3585,
      "à¶Ńà·Ĵà¶ºà¶§": 3586,
      "Ġà¶·à·ıà¶»": 3587,
      "à¶«à·Ķà·Ģ": 3588,
      "Ġà¶¯à¶©à¶º": 3589,
      "Ġà·Ħà·Ĳà¶¶à·Ĳà¶ºà·Ĵ": 3590,
      "Ġà¶ĩà¶ºà¶ľà·ļ": 3591,
      "Ġà¶ļà·Ĵà·Ģà·Ĭà·Ģà¶¯": 3592,
      "Ġà¶ļà·Ĵà¶ºà¶±à·Ģà¶¯": 3593,
      "Ġà¶¶à·Ĳà¶³": 3594,
      "à·ħà·Ķà·Ģà¶±à·Ĭ": 3595,
      "à¶Ľà·Ĭ": 3596,
      "Ġà¶±à·Ĳà·Ħà·Ĳà¶±": 3597,
      "Ġà¶ħà·Ģà¶Ĥà¶ļ": 3598,
      "Ġà¶¯à·Ĳà¶±à·Ļà¶±à·Ĭà¶±à·ļ": 3599,
      "à·Ģà·ĵà¶¸à·Ĭ": 3600,
      "Ġà¶ľà·Ĳà¶½à¶´": 3601,
      "Ġà¶ĭà¶´à¶ļà¶»à¶«": 3602,
      "Ġà¶¸à¶¯à·Ĵ": 3603,
      "Ġà·Ģà·ıà·ĥà¶±à·ıà·Ģà¶±à·Ĭà¶Ń": 3604,
      "à¶ķà¶±": 3605,
      "à¶ºà·Ĵà¶½à·Ĭ": 3606,
      "ess": 3607,
      "à¶Ńà¶½à·Ĭ": 3608,
      "Ġà¶±à·Ŀà¶±à·ı": 3609,
      "Ġà¶´à·ıà¶©": 3610,
      "Ġà·Ģà·ļà·Ģà·ı": 3611,
      "Ġà¶ľà·Ļà¶±à·ı": 3612,
      "à·Ħà·Ĭà¶¸à·Ĭà¶¸à·Ĭ": 3613,
      "Ġà¶¶à·ĸ": 3614,
      "Ġà·Ħà·Ĵà¶Ńà¶±à·Ĭ": 3615,
      "Ġà·Ħà·Ĵà¶Ńà·Ļà¶±à·Ģà·ı": 3616,
      "Ġà¶´à·ħà·Ģà·Ļà¶±à·Ĵ": 3617,
      "Ġà¶´à·Ĵà¶ºà·Ģà¶»": 3618,
      "à¶ļà·Ģà·Ķà¶»à·Ķà·Ģà¶Ńà·Ĭ": 3619,
      "Ġà¶´à·Ķà¶¯à·Ķ": 3620,
      "Ġà·ħà¶¸à¶ºà·ı": 3621,
      "Ġà¶ļà¶«à·Ĭà¶©à·ıà¶ºà¶¸à¶ļà·Ĭ": 3622,
      "Ġà¶ļà¶¸": 3623,
      "Ġà¶±à·Ĵà·Ģà·Ĳà¶»à¶¯à·Ĵ": 3624,
      "à¶§à·Ĵà¶ºà¶ļà·Ĭ": 3625,
      "Ġ\"čĊ": 3626,
      "Ġà¶Ķà¶Ńà·Ĭà¶Ńà·Ķ": 3627,
      "Ġà·Ģà·ĥ": 3628,
      "Ġà¶¯à¶ļà·Ĵà¶±": 3629,
      "à·ĥà·Ĵà¶ºà·ļ": 3630,
      "à¶§à·Ĭà·ĥà¶±à·Ĭ": 3631,
      "Ġon": 3632,
      "Ġà¶ĩà·Ģà·Ĵà¶¯": 3633,
      "Ġà¶ħà¶Ńà·Ĭà¶ħà¶©": 3634,
      "Ġà¶¯à·ļà¶¸": 3635,
      "Ġà¶ħà·Ģà·Ķà¶½": 3636,
      "à¶¯à·Ļà¶ºà·Ĵà¶ºà¶±à·ļ": 3637,
      "à¶´à·ıà¶¯": 3638,
      "Ġà¶±à·Ĳà·Ģà·Ĳ": 3639,
      "à¶»à·ĸà¶´": 3640,
      "à¶´à¶»à·Ĵà·ĥà·Ĭà·ĥ": 3641,
      "Ġà¶¯à·Ļà¶ļà¶ļà¶§": 3642,
      "à¶ĩà¶Ńà·Ĭà¶Ńà·Ļà¶±à·Ĭà¶¸": 3643,
      "Ġà¶ļà·Ĵà¶»à·ĵà¶¸à·ļ": 3644,
      "à¶ļà¶ºà·Ŀ": 3645,
      "Ġà¶ľà·Ĵà¶ºà·ıà¶¸": 3646,
      "à·Ļà·Ħà·ı": 3647,
      "ers": 3648,
      "Ġà·ĥà·Ĭà¶Ńà·ĸà¶Ńà·Ĵ": 3649,
      "à¶¯à¶ºà·Ĵ": 3650,
      "Ġà·Ħà¶ºà·Ĵ": 3651,
      "Ġà¶ļà·Ļà¶½": 3652,
      "à¶ļà¶»à¶ľà¶±à·Ĭà¶±": 3653,
      "à·ĵà¶Ńà¶º": 3654,
      "Ġà¶·à·ıà·Ģà·Ĵà¶Ńà·ı": 3655,
      "Ġà¶¶à¶ºà¶ºà·Ĵ": 3656,
      "Ġà·ĥà·ĳà·Ħà·Ļà¶±": 3657,
      "Ġà¶¯à·Ĳà¶¸à·Ĭà¶¸": 3658,
      "Ġà¶´à·Ļà¶§à·Ĭà¶§à·Ĵà¶º": 3659,
      "à¶«à·Ĭà¶©à·Ķ": 3660,
      "Ġà·Ħà¶¸à·Ĭà¶¶à·Ģà·Ļà¶±à·Ĭà¶±": 3661,
      "Ġà¶½à¶¶à·ıà¶ľà¶±à·Ĭà¶±": 3662,
      "-à¶¸à¶§": 3663,
      "Ġà¶¶à¶½à¶½à·ı": 3664,
      "à·ĥà·Ĳà¶ļà·Ģà¶¸": 3665,
      "13": 3666,
      "Ġà¶ļà·ĥà·ı": 3667,
      "ch": 3668,
      "Ġà¶Ķà¶½": 3669,
      "sl": 3670,
      "Ġà¶¯à·ļà¶§": 3671,
      "Ġà¶ļà·ħà·Ķ": 3672,
      "à¶©à·Ĵà¶ºà·ı": 3673,
      "Ġà¶´à·Ģà·ı": 3674,
      "à¶¸à¶ºà·Ĵà¶ļà¶½à·Ĭ": 3675,
      "à¶©à¶±à·Ĭ": 3676,
      "à¶Ńà¶ºà¶ļà·Ĭ": 3677,
      "à¶ºà·ļà¶¯à·ĵ": 3678,
      "à¶§à·ĵ": 3679,
      "Ġà·Ħà¶¯à¶´à·Ķ": 3680,
      "Ġà¶ļà·Ļà¶½à·Ĵà¶±à·Ĭà¶¸": 3681,
      "Ġà·ĥà·Ĵà¶§à·Ĵà¶±": 3682,
      "Ġà¶Ńà·Ķà·ħ": 3683,
      "Ġà¶īà¶ļà·Ĭà¶¸à¶«": 3684,
      "Ġà¶īà·ĥà·Ĭà·ĥà¶»à·Ħ": 3685,
      "ind": 3686,
      "Ġà¶´à¶»à·ĵà¶ļà·Ĭà·Ĥà¶«": 3687,
      "à¶¶à·ľà·Ħà·ľà¶¸": 3688,
      "Ġà¶´à·Ĳà¶»": 3689,
      "Ġà¶½à¶Łà¶§": 3690,
      "Ġà·ĥà·Ĵà¶§à·Ĵà¶±à·Ģà·ı": 3691,
      "qu": 3692,
      "à¶Ĩà¶ºà·Ļ": 3693,
      "Ġà¶ºà¶ļà·Ŀ": 3694,
      "Ġà¶´à·Ĵà¶´à·Ĵ": 3695,
      "Ġà¶Ĩà¶©à¶¸à·Ĭà¶¶à¶»": 3696,
      "à¶¸à¶ľà·Ķ": 3697,
      "Ġà·ĥà·Ķà·ħà·Ķ": 3698,
      "à·ĥà·ıà¶¸à·ıà¶±à·Ĭ": 3699,
      "art": 3700,
      "à¶½à·ĥà·Ĭ": 3701,
      "à·ĸà¶´à¶»à·Ĭ": 3702,
      "Ġà·Ħà¶¸à·Ĭà¶¶à·Ķ": 3703,
      "Ġà¶ĩà¶Ńà·Ĭà¶Ńà¶§": 3704,
      "Ġà¶ļà·ıà¶§à¶¯": 3705,
      "Ġà¶´à·Ķà¶Ńà·ļ": 3706,
      "à·Ħà·Ĭà¶¸à·Ĭ": 3707,
      "à·Ĵà¶ºà¶§à¶¸": 3708,
      "Ġà·ĥà¶¸à·Ĭà¶¶à¶±à·Ĭà¶¯": 3709,
      "Ġà·Ģà·Ĵà·ģà·Ĵ": 3710,
      "Ġà¶´à·Ķà¶½à·Ķà·Ģ": 3711,
      "Ġà·Ģà·Ĳà¶©à·Ĵà¶´à·Ķà¶»": 3712,
      "Ġà¶¶à¶½à¶±": 3713,
      "Ġà¶ĳà¶±à·Ĭ": 3714,
      "nd": 3715,
      "Ġà¶Ĩà·Ģà·ľà¶Ńà·Ĭ": 3716,
      "à¶ļà¶»à¶½": 3717,
      "à·ĥà·ļà¶»à¶¸": 3718,
      "à·ĥà¶½à·Ĭà¶½à·Ĵ": 3719,
      "Ġà¶´à¶§à·Ĵ": 3720,
      "à¶¯à·Ĵà¶ľà¶§à¶¸": 3721,
      "à¶´à·Ļà¶±à·Ĭ": 3722,
      "Ġà·Ģà¶Ńà·ıà·Ģà¶ļà·Ĭ": 3723,
      "Ġà¶Ńà·ļà¶»à·Ļà¶±à·Ĭà¶±à·Ļ": 3724,
      "Ġà¶±à·Ĳà¶Ńà·Ĭ": 3725,
      "Ġà·ĥà·ĳà¶¸": 3726,
      "Ġà¶ľà·Ĳà·Ħà·Ķà·Ģà·ı": 3727,
      "Ġà¶łà·ĵ": 3728,
      "Ġà¶ĩà¶§": 3729,
      "Ġà¶ĳà¶ļà¶ļà¶§": 3730,
      "Ġà¶ĳà¶ļà·Ĭà¶ļà·Ļà¶±à·Ļà¶ļà·Ĭ": 3731,
      "Ġà¶½à·ľà¶ļ": 3732,
      "dit": 3733,
      "Ġà·Ģà·Ĵà·ģà·Ĭà·Ģà·ıà·ĥà¶º": 3734,
      "à·Ģà·Ļà¶©à·Ĵ": 3735,
      "à¶¶à·Ŀà·Ģà¶±à·Ĭ": 3736,
      "Ġà¶ºà¶Ńà·Ķà¶»à·Ķ": 3737,
      "....": 3738,
      "Ġà¶µ": 3739,
      "Ġà¶¶à·Ĵà¶³": 3740,
      "à¶ĳà¶ļà·Ĭ": 3741,
      "ex": 3742,
      "Ġà¶ħà·ĥà·Ĭ": 3743,
      "Ġà¶±à·Ĵà·Ģà·ı": 3744,
      "Ġà¶¯à·ĸ": 3745,
      "Ġà¶´à·Ĵà·ħà·Ĵà¶¶à¶³": 3746,
      "Ġà·Ħà·Ĵà¶Ńà¶±à·Ģ": 3747,
      "à¶»à¶ºà·Ĵ": 3748,
      "Ġà¶Ĭà¶½à¶ľ": 3749,
      "Ġà¶´à·ļà¶±à·Ģà¶¯": 3750,
      "Ġà¶ħà¶½à·Ĭà¶½à¶ľà·Ļà¶±": 3751,
      "à¶ľà¶§": 3752,
      "à·Ħà¶ºà·Ĵ": 3753,
      "Ġà·Ħà·ľà¶ºà¶±à·Ģà·ı": 3754,
      "Ġà¶ħà·Ģà·ĥà·Ĭ": 3755,
      "à·ĥà·Ĵà¶ºà·Ĵ": 3756,
      "à¶Ĩà¶»à¶ļà·Ĭà·Ĥ": 3757,
      "Ġà¶±à·Ĳà¶Ńà·Ĵà¶±à¶¸à·Ĭ": 3758,
      "Ġà·ĥà·Ĭà¶Ńà·Ķà¶Ńà·Ĵ": 3759,
      "Ġà¶łà·Ŀ": 3760,
      "Ġà¶¸à·Ļà·Ħà·Ļà¶ºà·Ķà¶¸": 3761,
      "Ġà¶ļà¶³à·Ķ": 3762,
      "à·ĥà¶±à·Ĭà·ĥà·Ķà¶±à·Ĭ": 3763,
      "à¶Ńà·Ķà·Ģà·ļ": 3764,
      "Ġà¶ļà·ıà¶½à·Ļà¶ļà¶§": 3765,
      "Ġà·Ģà·Ĵà¶±à·Ĭ": 3766,
      "Ġà¶ĳà¶½à·Ĵà¶º": 3767,
      "Ġà¶ľà·Ļà¶±à·Ĭ": 3768,
      "à¶¶à¶½à·ıà¶ľà·Ļà¶±": 3769,
      "Ġà¶¢à·ĸ": 3770,
      "Ġà·Ģà·Ĵà¶¯à·Ĵà¶ºà¶ļà·Ĭ": 3771,
      "Ġà¶ħà·Ħà¶±à·Ģà·ı": 3772,
      "Ġà·Ģà·ĥà¶»": 3773,
      "à·Ģà¶ºà¶Ĥ": 3774,
      "Ġà¶±à·Ĵà¶±à·Ĭà¶¯": 3775,
      "à¶¢à·ĵà·Ģà·Ĵ": 3776,
      "à¶ľà¶±à·ļ": 3777,
      "Ġà¶´à·Ĳà¶Ńà·Ĵ": 3778,
      "Ġà¶ħà¶Ĥà¶ļà¶º": 3779,
      "-à¶Ĵà¶ļ": 3780,
      "Ġà¶ĩà¶¯à¶½à·ı": 3781,
      "Ġà¶ľà·Ħà¶±à·Ģà·ı": 3782,
      "à¶Ńà·ľ": 3783,
      "Ġà¶ħà¶ºà·Ĵà·ĥà·Ĭ": 3784,
      "Ġà¶īà·ĥà·Ĭà·ĥà¶»à·Ħà¶§": 3785,
      "Ġà¶¸à¶ºà·Ĵà¶ļà·Ĭ": 3786,
      "à¶´à·ıà¶§": 3787,
      "Ġà¶ºà·Ħ": 3788,
      "à¶ļà·Ģà·Ķà¶»à·Ķà¶Ńà·Ĭ": 3789,
      "à¶ļà·ĥà·Ĭ": 3790,
      "Ġà¶ĩà¶Ńà·Ĭà¶Ńà¶¸": 3791,
      "ee": 3792,
      "Ġà¶´à·Ĵà¶½à·Ĵà¶ľà¶±à·Ĭà¶±à·Ģà·ı": 3793,
      "Ġà¶ĭà·ĥà·ĥà·Ĭ": 3794,
      "à¶łà·Ŀ": 3795,
      "à·ħà·ı": 3796,
      "à¶Ńà·Ķà¶¸à¶±à·Ĵ": 3797,
      "à¶±à·Ĵà¶ºà¶ļà·Ĭ": 3798,
      "Ġà¶ļà·Ĵà·Ģà·Ĭà·Ģà¶±à·ļ": 3799,
      "Ġà¶´à¶«à¶´à·Ĵà¶§à·Ĵà¶±à·Ĭ": 3800,
      "Ġà¶´à·Ĵà·ħà·Ĵà¶ľà¶±à·Ĭà¶±à·Ģà·ı": 3801,
      "Ġà¶´à¶¯à·Ĭà¶°à¶Ńà·Ĵà¶º": 3802,
      "Ġà¶°à·ıà·Ģ": 3803,
      "Ġà¶¸à·Ħà¶Ńà·Ĭà·Ģ": 3804,
      "Ġà¶ļà¶¸à·Ĭà¶´": 3805,
      "Ġà¶Ķà¶±à·Ĭà¶±": 3806,
      "Ġà¶¸à¶±à·Ķà·ĥà·Ĭà·ĥà¶ºà·Ļà¶ļà·Ĭ": 3807,
      "à¶īà¶±à·Ĭ": 3808,
      "Ġà·ĥà·ıà¶¯à¶»à¶ºà·Ļà¶±à·Ĭ": 3809,
      "Ġà¶ĭà¶©à·Ĵà¶±à·Ĭ": 3810,
      "à·Ĩà·ĵ": 3811,
      "à¶´à·Ķà·Ģ": 3812,
      "Ġà¶ľà¶Ńà·Ĭà¶Ńà·ľà¶Ńà·Ĭ": 3813,
      "Ġà¶ļà¶§à¶ºà·Ķà¶Ńà·Ķ": 3814,
      "Ġà·Ģà¶»à·Ļà¶±à·Ĭ": 3815,
      "Ġà¶ĭà¶«à·Ĭà¶©": 3816,
      "Ġà¶´à·Ĭà¶½": 3817,
      "Ġà¶ļà·ľà¶½à·Ĭà¶½à·Ļà¶ļà·Ĭ": 3818,
      "à¶»à·Ĭà¶º": 3819,
      "à¶ľà¶»": 3820,
      "ha": 3821,
      "à·Ģà¶±à·Ĭà¶Ń": 3822,
      "Ġà¶ĩà¶Łà·Ĵ": 3823,
      "Ġà¶ľà·Ĳà¶±à·ĵà¶¸à¶§": 3824,
      "à¶½à·Ĵà¶ºà·Ĵ": 3825,
      "Ġà¶¯à¶±à·Ĭ": 3826,
      "Ġà¶ħà·ģà·Ĭ": 3827,
      "à¶ħà¶´à¶§": 3828,
      "im": 3829,
      "Ġà·Ģà¶łà¶±à¶ºà¶ļà·Ĭ": 3830,
      "Ġà¶½à·Ŀà¶ļà¶ºà·ļ": 3831,
      "à¶ºà·Ķà¶¶à·Ŀà·Ģà¶±à·Ĭ": 3832,
      "Ġà¶¯à·Ļà¶±à·ı": 3833,
      "16": 3834,
      "Ġà¶¸à·Ŀà¶©à¶ºà·Ļà¶ļà·Ĭ": 3835,
      "à·Ĥà¶«": 3836,
      "Ġà¶¯à·Ļà¶¸": 3837,
      "Ġà·Ģà·Ķà¶«à¶Ńà·Ĭ": 3838,
      "all": 3839,
      "Ġà¶ľà·Ķà¶»à·Ķ": 3840,
      "Ġà·Ħà¶¸à·Ķà¶¯à·ı": 3841,
      "Ġà·Ģà·Ļà¶±à¶ļà¶±à·Ĭ": 3842,
      "Ġà¶ļà·ĵà¶´": 3843,
      "Ġà·ĥà¶¸à·Ĭà¶´à·Ķà¶»à·Ĭà¶«": 3844,
      "Ġà¶´à·Ĳà¶Ńà·Ĭà¶Ńà¶ļà¶§": 3845,
      "Ġà¶»à·ıà¶¢à¶ļà·ıà¶»à·Ĵà¶º": 3846,
      "à¶ļà¶§à¶¸": 3847,
      "Ġà¶¯à¶»à·Ķà·Ģà·ı": 3848,
      "DE": 3849,
      "à·Ļà¶±à·Ĭà¶¯": 3850,
      "Ġà·Ļà·Ħà·ı": 3851,
      "Ġà¶´à¶»à·Ĵà¶ļà·Ĭà·Ĥà·ı": 3852,
      "Ġà·ĥà·Ĵà¶»à·Ķ": 3853,
      "à¶»à·ĵà¶¸": 3854,
      "Ġà·Ģà·Ĵà·Ħà·Ĵà¶½à·Ķ": 3855,
      "à¶»à¶§": 3856,
      "ev": 3857,
      "Ġà¶¯à·Ĳà¶ļà¶½": 3858,
      "Ġà¶ļà·Ģà·Ĭà¶¯": 3859,
      "Ġà¶ħà¶±à·ıà¶ľ": 3860,
      "Ġà·ĥà·ıà¶»à·Ĭà¶®à¶ļ": 3861,
      "à·Ħà·ıà·ĥ": 3862,
      "à¶©à·ıà·Ģ": 3863,
      "Ġà¶ĭà¶±à·ıà¶§": 3864,
      "Ġà¶¯à·Ķà¶±à·Ĭà¶±à·Ļ": 3865,
      "Ġà¶¶à¶ºà·Ĵ": 3866,
      "Ġà¶ľà·ĳà¶«à·Ķ": 3867,
      "Ġà¶±à¶ľà·Ĵà¶±à·Ĭà¶±": 3868,
      "Ġà¶¸à·ľà¶ļà·Ŀ": 3869,
      "Ġà¶¶à¶½à·Ĭà¶½": 3870,
      "Ġà¶Ķà¶ºà·ıà¶§à¶Ńà·Ĭ": 3871,
      "à¶ºà·ıà·Ģà¶ļà·Ĭ": 3872,
      "Ġà¶Ĩà·Ģà¶»à¶«à¶º": 3873,
      "à¶Ĵà¶ļà·Ļ": 3874,
      "-âĢį": 3875,
      "à·ıà¶»à·ı": 3876,
      "ount": 3877,
      "Ġà¶ħà¶ļ": 3878,
      "Ġà¶½à·ĵ": 3879,
      "Ġà¶©à·Ļ": 3880,
      "Ġ/": 3881,
      "à·ľà¶©à·Ĭ": 3882,
      "Ġà¶¶à¶¶à·Ŀ": 3883,
      "à¶ºà·Ģ": 3884,
      "Ġà¶¯à¶ļà·Ĭà·Ģà·ı": 3885,
      "Ġà¶¶à¶§": 3886,
      "Ġà¶ºà·ıà¶½à·Ķà·Ģà·Ļà¶ļà·Ĭ": 3887,
      "Ġà¶ľà¶Ńà·Ĭà¶Ńà¶¯": 3888,
      "Ġà¶Ńà¶»à¶¸à¶§": 3889,
      "Ġà¶ħà¶¸à·Ķà¶Ńà·Ĭà¶Ń": 3890,
      "Ġà·Ħà¶ºà·Ĵà¶º": 3891,
      "Ġà·Ģà·ıà¶¯": 3892,
      "Ġà¶±à·ıà·ĥà·Ĭà¶Ńà·Ĵ": 3893,
      "Ġà¶¸à¶Ńà·Ĭà¶¯à·Ĭ": 3894,
      "à¶¸à·ľà¶ļà¶§à¶¯": 3895,
      "à¶½à·ĥà·Ĭà·ĥà¶±": 3896,
      "à¶ļà·ıà¶»à·Ĵ": 3897,
      "Ġà¶ľà·Ļà¶±à¶Ńà·Ĭ": 3898,
      "Ġà¶½à·Ĵà¶ºà·Ķ": 3899,
      "Ġà¶´à·ĺ": 3900,
      "Ġà¶ļà·Ŀà¶´à·Ĵ": 3901,
      "Ġà¶¸à·ĺ": 3902,
      "Ġà¶ļà·ĳà¶½à·Ĵ": 3903,
      "Ġà¶¯à·Ļà¶±à·Ģ": 3904,
      "à¶»à·Ĵà¶ºà·ļ": 3905,
      "Ġ%": 3906,
      "Ġà¶ĩà¶Ńà·Ĭà¶Ńà·Ļà¶±à·Ĭà¶¸": 3907,
      "à¶§à·Ĭà¶§à·Ĵ": 3908,
      "à·Ķà·Ģà¶±à·ļ": 3909,
      "Ġà¶¯à¶»": 3910,
      "Ġà¶±à·ĳà¶±à·Ļ": 3911,
      "Ġà¶ļà·ĵà¶´à¶ºà¶ļà·Ĭ": 3912,
      "ĠâĻ«": 3913,
      "Ġà¶»à¶¢à·Ķ": 3914,
      "Ġà¶±à·Ĳà·Ģà¶Ńà¶Ńà·Ĭ": 3915,
      "à¶ºà¶ļà·Ŀ": 3916,
      "Ġà¶¸à·Ļà¶ºà·ıà¶§": 3917,
      "à¶½à·Ĵà¶ļà·Ĭ": 3918,
      "Ġà·Ģà·Ĵà¶¯à·Ĵà·Ħà¶ļà·Ĭ": 3919,
      "Ġà¶´à·ŀà¶¯à·Ĭà¶ľà¶½à·Ĵà¶ļ": 3920,
      "Ġà¶¸à¶ľà·Ĵà¶±à·Ĭ": 3921,
      "Ġà¶ħà¶Ńà·Ĭà¶ħà¶©à¶Ĥà¶ľà·Ķà·Ģà¶§": 3922,
      "à·Ģà·Ĭà·Ģà·Ļ": 3923,
      "à¶ļà·Ĭà·ĥà·Ĵ": 3924,
      "Ġà¶±à·Ĵà·ħ": 3925,
      "Ġà¶Ķà¶łà·Ĭà¶łà¶»": 3926,
      ",à¶¸à¶§": 3927,
      "500": 3928,
      "Ġà¶´à·ĥà·Ķà·Ģ": 3929,
      "HFF": 3930,
      "Ġà¶ļà·ıà¶¸à¶»à¶º": 3931,
      "Ġà·ģà¶»à·ĵ": 3932,
      "à¶»à·Ĭà¶½à·Ĵ": 3933,
      "Ġà¶ħà¶´à·Ħ": 3934,
      "Ġà¶±à·Ĵà¶ļà¶¸à·Ĭà¶¸": 3935,
      "'čĊ": 3936,
      "pe": 3937,
      "à·ĥà·Ĭà·ĥà·Ĵ": 3938,
      "Ġà¶¶à·ĥà·Ĭ": 3939,
      "à¶§à·Ĵà¶ºà·ļ": 3940,
      "à¶ľà·Ļà¶ºà·Ĵ": 3941,
      "Ġà¶´à·Ĵà¶§à¶Ńà·Ĭ": 3942,
      "à¶¸à·ľà¶±à·Ģà·ıà¶¯": 3943,
      "à¶ĩà¶Ńà·Ķà¶½à¶§": 3944,
      "Ġà¶ħà·Ħà¶ļà¶§": 3945,
      "à¶¸à·ļà¶ļà¶§": 3946,
      "24": 3947,
      "à·ļà¶´": 3948,
      "à¶»à·Ķà¶«à·ı": 3949,
      "à·Ģà·Ĵà¶¯": 3950,
      "Ġà¶ħà¶Ńà·Ĭà·ĥà¶±à·Ĭ": 3951,
      "Ġà¶ĭà¶¶à·ļ": 3952,
      "Ġà·Ħà·Ĵà¶Ńà·ıà¶ľà·Ļà¶±": 3953,
      "Ġà·ĥà·Ĵà¶±à·Ĭ": 3954,
      "Ġà¶ħà¶Ńà¶»à·ļ": 3955,
      "Ġar": 3956,
      "Ġà·Ģà·ĵà¶©à·Ĵà¶ºà·Ŀ": 3957,
      "Ġà¶ĩà·Ħà·Ķà¶¸à·Ĭà¶ļà¶±à·Ĭ": 3958,
      "Ġà¶´à·Ĵà·ħà·Ĵà¶ľà¶±à·Ĭà¶±": 3959,
      "Ġà¶ĭà¶Ńà·Ķà¶¸à·ıà¶«": 3960,
      "Ġà·Ħà¶¯à·ıà¶ľà¶±à·Ĭà¶±": 3961,
      "Ġà¶ļà·Ķà¶«à·Ķ": 3962,
      "Ġà¶´à¶»à·Ĵà·ĥà·Ĭà·ĥà¶¸à·Ĭ": 3963,
      "Ġà¶¸à·ľà·Ħà·ľà¶Ń": 3964,
      "Ġà¶±à¶ľà¶»à¶ºà·ļ": 3965,
      "Ġà¶ħà·Ģà·ĥà·ıà¶±à¶º": 3966,
      "à¶±à·Ĳà¶Ńà·Ĭà¶Ńà¶¸à·Ĭ": 3967,
      "à¶ĩà¶ºà·Ģ": 3968,
      "Ġà¶´à·Ķà¶¯à·Ĭà¶ľà¶½à·Ĵà¶ļ": 3969,
      "Ġà¶ħà¶°": 3970,
      "Ġà¶ĳà¶ºà·ıà¶½à¶ľà·Ļ": 3971,
      "Ġà¶¯à·Ļà¶ºà·Ĵà¶ºà¶±à·ļ": 3972,
      "à¶īà·ĥà·Ĭà·ĥ": 3973,
      "Ġà¶¯à·Ľ": 3974,
      "ub": 3975,
      "Ġà¶Ńà¶¶à·ı": 3976,
      "Ġà¶ļà¶½à·Ĭà¶´à¶±à·ı": 3977,
      "Ġà¶ľà·ľà¶©à¶±à·Ĳà¶ľà·Ĵà¶½à·Ĭà¶½": 3978,
      "à¶ħà¶±": 3979,
      "à¶»à·ĵà¶¸à·Ĭ": 3980,
      "à·Ģà¶½à·Ĵà¶±à·Ĭ": 3981,
      "Ġà¶Ĩà¶»à¶ļà·Ĭà·Ĥà·Ĵà¶Ńà¶ºà·Ĵ": 3982,
      "Ġà¶¯à¶ļà·Ķà¶«": 3983,
      "Ġà¶ľà·Ĳà·Ħà·Ĳà¶«à·Ķ": 3984,
      "Ġà¶¸à·ĥà·Ĭ": 3985,
      "Ġà¶Ĩà¶łà·Ĭà¶łà·Ĵ": 3986,
      "à¶µ": 3987,
      "à¶ĳà¶ļà¶§": 3988,
      "Ġà¶ľà·ĳà¶±à·Ķ": 3989,
      "Ġà¶Ńà·Ĵà¶¶à·Ĵà¶½à·ı": 3990,
      "Ġà¶Ńà·Ķà·Ģà¶ļà·Ĭà¶ļà·Ķà·Ģà¶ļà·Ĭ": 3991,
      "\".čĊ": 3992,
      "Ġà¶ļà¶³": 3993,
      "Ġà¶īà¶±à·Ĭà¶±à¶ļà·ľà¶§": 3994,
      "Ġà¶īà·ĥà·Ĭ": 3995,
      "Ġà¶¸à·Ĳà¶¯à·Ĵ": 3996,
      "à¶¯à·Ķà·Ģà¶±à·Ĭà¶±": 3997,
      "à·Ģà¶´à·Ķ": 3998,
      "Ġà¶¯à·Ļà¶ļà¶ºà·Ĵ": 3999,
      "Ġà¶ľà·ıà¶±à·ļ": 4000,
      "Ġà¶¯à·Ĳà¶±à¶§": 4001,
      "à¶Ńà·Ĵà·ĥà·Ĭà·ĥ": 4002,
      "Ġà¶¸à·Ķà¶½à·Ĭ": 4003,
      "Ġà¶¸à¶Łà·Ķà¶½à¶ļà·Ĭà¶¯": 4004,
      "Ġà¶±à·Ĳà·Ħà·Ĳà¶±à·ļ": 4005,
      "Ġà¶ĳà·Ħà·Ļà¶¸à¶¯": 4006,
      "Ġà¶§à·Ĵ": 4007,
      "à·Ģà·ıà¶¯à·ĵ": 4008,
      "Ġà¶ĳà·Ģà·ı": 4009,
      "Ġà¶ĭà¶ľà·Ķ": 4010,
      "Ġà·Ģà·Ĵà¶ļà·Ĭ": 4011,
      "à·Ħà¶»à·Ĵà¶ºà¶§à¶¸": 4012,
      "à¶°à·ıà¶»à¶«": 4013,
      "Ġà¶ºà¶±à·Ĭà¶±à¶¯": 4014,
      "à¶Ķà¶¶à¶ľà·ļ": 4015,
      "Ġà¶´à·ľà¶½à·Ĵà·ĥà·Ĵà¶º": 4016,
      "à·Ħà·Ĳà¶¯à·Ĵ": 4017,
      "Ġà·Ħà·ĵà¶±": 4018,
      "Ġà·Ģà·Ĵà¶»à·Ķà¶¯à·Ĭà¶°à·Ģ": 4019,
      "Ġà¶´à·Ģà¶Ńà·Ĭ": 4020,
      "Ġà·ĥà·Ĭà¶§à·ĵ": 4021,
      "à¶»à·Ĭà¶©à·Ĭ": 4022,
      "Ġà¶ľà¶¸à·ļ": 4023,
      "à¶¸à·Ķà¶½à·Ĵà¶±à·Ĭà¶¸": 4024,
      "Ġà·Ħà·ľà¶ºà¶±à·Ĭà¶±à·ļ": 4025,
      "Ġà·Ģà·Ļà¶½à·ıà¶¯": 4026,
      "Ġà¶¯à·Ķà¶¸à·Ĭà¶»à·Ĵà¶º": 4027,
      "Ġà¶¯à·Ĳà¶ļà·Ĭà¶ļà·Ļ": 4028,
      "Ġà·Ģà·Ĳà¶±à·Ĵ": 4029,
      "Ġà¶¢à¶±à·ıà¶°à·Ĵà¶´à¶Ńà·Ĵ": 4030,
      "Ġà¶Ńà·Ĵà·ĥà·Ĭà·ĥà·ļ": 4031,
      "Ġà¶īà¶±à·Ĭà¶±à¶¸à·Ĭ": 4032,
      "Ġà·Ģà·ĥà·Ĭà¶Ńà·Ķà·Ģà·ļ": 4033,
      "à¶¯à·Ļà¶±à·Ļà¶ļà·Ĭ": 4034,
      "à·Ŀà·Ĥ": 4035,
      "Ġà¶Ĩà·ĥà¶ºà·Ĵ": 4036,
      "Ġà·ĥà¶±à·Ĭà¶±": 4037,
      "Ġà¶ħà¶»à¶¸à·Ķ": 4038,
      "Ġà¶¸à·Ķà¶«à¶ľà·Ĳà·Ħà·Ļà¶±à·Ĭà¶±": 4039,
      "Ġà¶ħà¶½à·Ķ": 4040,
      "Ġà¶Ĵà¶ļà·Ĵ": 4041,
      "Ġà¶ļà¶«à·Ĭà¶©à·ıà¶ºà¶¸à·ļ": 4042,
      "âĢįà¶»à¶Ńà·Ĵà¶łà·ıà¶»": 4043,
      "Ġà·Ħà·ľà¶ºà¶½à·ı": 4044,
      "à·ħà·ļ": 4045,
      "Ġà¶¶à·ıà¶ºà·Ĵ": 4046,
      "Ġà¶´à·ľà¶½à·Ĵà·ĥà·Ĵà¶ºà¶§": 4047,
      "Ġà¶ľà·Ĳà·Ħ": 4048,
      "Ġà¶´à·Ĳà¶Ńà·Ĭà¶Ńà·Ļ": 4049,
      "Ġà¶´à¶¸à¶«à¶ºà·Ĵ": 4050,
      "Ġà·Ģà·Ĳà¶©à¶ļà¶»": 4051,
      "à·ĥà·ĵà¶¸": 4052,
      "à¶Ńà¶±à·Ĭà¶±": 4053,
      "à·Ģà·Ļà¶½à·ıà·Ģ": 4054,
      "ard": 4055,
      "à·Ħà¶º": 4056,
      "Ġà¶´à¶½à·ı": 4057,
      "Ġà¶ķà¶±à·ĳà¶¸": 4058,
      "Ġà¶¶à·Ļà¶¯à·ı": 4059,
      "à·Ĳà¶Ńà·Ĵ": 4060,
      "à¶±à·Ĭà¶¯à·Ķà·Ģ": 4061,
      "Ġà¶Ńà·ļà¶»à·Ķà¶±à·ı": 4062,
      "Ġà¶ļà·Ĵà·Ģà·ı": 4063,
      "à·Ķà¶¸à·Ĭ": 4064,
      "Ġà¶Ńà¶½à·Ĭà¶½à·Ķ": 4065,
      "Ġà¶ĩà·Ħà·Ķà·Ģà·ı": 4066,
      "à¶§à·Ĭà¶§à·Ķà·Ģà¶ļà·Ĭ": 4067,
      "à·Ļà¶ļ": 4068,
      "à¶īà·ĥà·Ĭà¶ļà·Ŀ": 4069,
      "Ġà¶ļà·Ķà¶©à·ı": 4070,
      "à¶ĭà¶©": 4071,
      "Ġà·ĥà¶Ĥà¶łà·ıà¶»": 4072,
      "ation": 4073,
      "Ġà¶¶à·Ļà¶½à·Ĭà¶½": 4074,
      "Ġà¶ĩà·Ħà·Ķà·Ģ": 4075,
      "Ġà¶łà¶»à·Ĵ": 4076,
      "Ġà¶ļà·ľà·Ħà·ľà¶¸à¶Ńà·Ĭ": 4077,
      "à¶»à·Ļà·Ħà·Ĵ": 4078,
      "Ġà·Ħà·Ĳà¶ľ": 4079,
      "Ġà·ĥà¶¸à·Ķ": 4080,
      "Ġà¶»à·Ĳà¶ļà·Ĵ": 4081,
      "Ġà·Ħà·Ĵà¶±à·ı": 4082,
      "Ġà¶¯à·Ĳà¶ļà·Ĭ": 4083,
      "Ġà¶´à·ľà¶Ńà·Ĭ": 4084,
      "'s": 4085,
      "Ġà¶ĳà·Ħà·Ļà¶§": 4086,
      "Ġà¶Įà¶§": 4087,
      "Ġà¶¸à¶»à·ı": 4088,
      "Ġà¶¸à·ıà¶±": 4089,
      "Ġà¶¯à·ıà¶±": 4090,
      "Ġà¶«à¶º": 4091,
      "Ġà¶»à·ĸ": 4092,
      "Ġà·Ģà·Ķà¶±à·ıà¶§": 4093,
      "Ġà·ĥà·Ĳà¶½à¶ļà·Ĵ": 4094,
      "à¶ĩà¶Ńà·Ĵ": 4095,
      "Ġà¶ħà¶´à·ı": 4096,
      "Ġà¶·à¶ºà·ıà¶±à¶ļà¶ºà·Ĵ": 4097,
      "Ġà¶±à·ĵà¶Ńà·Ĵà¶º": 4098,
      "Ġà¶´à·Ĵà¶§à·Ĵà¶´à·ĥà·Ĭà·ĥ": 4099,
      "à¶»à·ıà·Ģà¶§à¶¸": 4100,
      "Ġà·Ģà·ļà¶½à·ı": 4101,
      "Ġà¶¸à·Ĵà¶½": 4102,
      "Ġà¶ļà¶»à¶ľà¶Ńà·Ĭà¶Ńà·ı": 4103,
      "à¶©à·Ķà·Ģà¶ļà·Ĭ": 4104,
      "à¶Ńà¶´à·Ķ": 4105,
      "Ġà¶ĭà·Ģà¶¸": 4106,
      "Ġà¶ħà¶»à¶Ĥ": 4107,
      "à¶½à·Ŀà¶±à·Ĭ": 4108,
      "Ġà¶¶à·ıà¶°": 4109,
      "Ġà·Ħà·Ĳà¶¯à·Ķà·Ģ": 4110,
      "à·ĥà·Ĭà·ĥà¶±à·Ĭà¶±": 4111,
      "Ġà¶¸à·Ķà¶½à·Ĵà¶±à·Ĭ": 4112,
      "Ġà¶Ńà¶Ńà·Ĭà¶´à¶»": 4113,
      "Ġà¶»à·Ĵà¶º": 4114,
      "Ġà¶Ĩà¶»à¶ļà·Ĭ": 4115,
      "ht": 4116,
      "à¶´à·Ĵà¶ºà¶±à·Ĭ": 4117,
      "à¶¯à¶§": 4118,
      "Ġà¶ħà¶·à·Ĭ": 4119,
      "à¶Ĥà¶ľà·Ĵà¶ļ": 4120,
      "Ġà¶»à·Ĳà¶ļ": 4121,
      "Ġà·Ħà¶Ĥà¶ľ": 4122,
      "Ġà·ĥà¶´à¶Ńà·Ĭà¶Ńà·Ķ": 4123,
      "à¶¸à·Ĵà¶±à·Ĵà·Ħà·ı": 4124,
      "à¶¢à·Ĵà¶±à·Ĭ": 4125,
      "Ġà·Ģà·Ħà¶ľà¶±à·Ĭà¶±": 4126,
      "Ġà¶¶à¶»à¶´à¶Ń": 4127,
      "Ġà¶¸à·ıà¶¸à·ı": 4128,
      "Ġà·Ģà·Ļà¶±à·Ĭà¶±à¶ºà·Ĵ": 4129,
      "Ġà¶´à¶»à·Ĵà¶ľà¶«": 4130,
      "Ġà¶´à¶±à·Ĵà¶±à·Ĭà¶±": 4131,
      "Ġà¶ħà¶±à·Ĭ": 4132,
      "Ġà¶ľà·Ħà¶½à·ı": 4133,
      "Ġà¶±à·Ĳà¶ľà·Ĵà¶§à·Ĵà¶±à·Ĭà¶±": 4134,
      "Ġà¶ļà·Ĵà¶ºà¶ºà·Ĵ": 4135,
      "Ġà¶ĩà¶¸à¶»à·Ĵà¶ļà·ı": 4136,
      "Ġà¶´à·Ĵà¶±à·Ĭà¶Ńà·ĸà¶»": 4137,
      "Ġà¶ĭà¶´à¶¯à·Ļ": 4138,
      "av": 4139,
      "à·Ħà¶Ńà·Ĭ": 4140,
      "à¶ļà·Ļà¶½à·Ĭà¶½": 4141,
      "Ġà·Ģà·Ĳà¶©à¶§": 4142,
      "ome": 4143,
      "à¶ºà¶ºà·Ļà¶±à·Ĭà¶¸": 4144,
      "Ġà¶»à¶Ńà·Ĭ": 4145,
      "Ġà¶´à·Ķà¶»à·ıà¶¸": 4146,
      "ry": 4147,
      "à¶ĳà·ħ": 4148,
      "à¶±à¶»à¶ļ": 4149,
      "à¶Ńà·Ĳà¶±à¶¸": 4150,
      "Ġà·Ģà·ıà¶»à·Ĭà¶Ńà·ıà·Ģ": 4151,
      "Ġà¶±à·Ĳà·Ģà¶Ńà·Ķ": 4152,
      "à¶¸à·Ķà¶ļà·Ķà¶Ńà·Ĭ": 4153,
      "Ġà¶¸à·ļà·Ģ": 4154,
      "âĢįà¶»à·Ķ": 4155,
      "Ġà¶¶à·Ĵà¶½à·Ĭ": 4156,
      "à¶ļà·Ģà¶¯à·ıà·Ģà¶Ńà·Ĭ": 4157,
      "Ġà¶ļà¶»à·ľà¶Ńà·Ĭ": 4158,
      "Ġand": 4159,
      "Ġà¶ľà·ŀà¶»": 4160,
      "Ġà¶ĭà¶´à¶±à·Ĭà¶¯à·Ĵ": 4161,
      "Ġà¶¸à·Ĵà¶±à·Ĵà·ĥà·Ĭ": 4162,
      "Ġà¶Ńà·Ĵà¶ºà¶±à·Ļà·Ģà·ı": 4163,
      "à·Ģà·Ĵà¶½à·ı": 4164,
      "à¶ľà·Ĵà¶±à·Ĵ": 4165,
      "Ġà·Ģà·Ķà·Ģ": 4166,
      "Ġà¶ĳà¶ļà¶¯": 4167,
      "Ġà·Ģà·ıà·Ħà¶±": 4168,
      "Ġà¶¢à¶ºà¶ľà·Ĭ": 4169,
      "à¶ľà¶Ńà·Ĭà¶Ńà·Ļ": 4170,
      "Ġà¶¸à·Ĵà¶±à·ĵà¶¸à·Ĳ": 4171,
      "à·Ħà·ĵ": 4172,
      "à·Ļà¶½à·ı": 4173,
      "âĪĻâĪĻčĊ": 4174,
      "14": 4175,
      "à¶ºà·ıà¶»à·Ĭ": 4176,
      "Ġà¶½à·ĳà·ĥà·Ĭà¶Ńà·Ĵà¶ºà·Ĵ": 4177,
      "à¶ħà¶©à·Ķà¶¸": 4178,
      "Ġà·Ģà¶Ĥà¶ł": 4179,
      "Ġà·ĥà·ıà¶¯": 4180,
      "Ġà¶¯à·Ļà¶´à·ı": 4181,
      "à¶ľà¶»à·Ĭ": 4182,
      "Ġà¶´à·Ĳà¶±à¶½": 4183,
      "Mr": 4184,
      "Ġà¶ħà¶»à·Ĭ": 4185,
      "oh": 4186,
      "à¶ĳà¶½à·Ĵà¶ºà¶§": 4187,
      "à¶łà¶½à·Ĭ": 4188,
      "à¶´à·ĳ": 4189,
      "Ġà¶´à¶»à·Ĵà·Ģà¶»à·Ĭ": 4190,
      "Ġà¶½à·Ĳà¶¶à·Ķà¶±": 4191,
      "Ġà¶ļà¶ļà·Ķà¶½": 4192,
      "à¶±à¶±à·Ĭà¶±": 4193,
      "à·Ħà¶ļà·Ĭ": 4194,
      "Ġà¶¶à·Ĳà¶§": 4195,
      "âĢįà¶¸à·ı": 4196,
      "Ġà¶¸à·Ĳà¶»à·Ķà¶«": 4197,
      "à¶»à·ĥà·Ĭ": 4198,
      "à¶»à·Ŀà¶°": 4199,
      "Ġà·Ģà·Ħà¶±à·Ĭà¶±": 4200,
      "Ġà·Ģà·ļà¶¯à¶±à·ıà·Ģ": 4201,
      "Ġà¶¶à·Ĳà¶±à·Ĭ": 4202,
      "Ġà·Ħà·Ĳà¶»à·Ļà¶±à·Ĭà¶±": 4203,
      "à·ĥà·Ĵà¶»à·Ĳ": 4204,
      "Ġà·ĥà·Ĵà¶Ńà·Ĵà¶º": 4205,
      "Ġà¶´à·Ĵà·ĥà·Ĭà·ĥà·Ķà·Ģà¶ļà·Ĭ": 4206,
      "Ġà¶¸à·Ĵà¶±à·Ĵà·ĥà·ı": 4207,
      "Ġà·Ģà¶ľà·Ļà¶ºà·Ĵ": 4208,
      "Ġà¶¯à·Ĳà¶±à·Ķà¶¸à·Ĭ": 4209,
      "Ġà·ĥà·Ĳà¶´": 4210,
      "Ġà·ĥà·Ķà¶¯à·ıà¶±à¶¸à·Ĭ": 4211,
      "Ġà¶´à·Ļà¶±à·Ķà¶¸": 4212,
      "Ġà¶¸à¶½": 4213,
      "Ġà¶±à·Ĵà¶½à·Ĭ": 4214,
      "à¶Ńà·ĺ": 4215,
      "Ġà¶ļà·Ĳà¶©à·Ĵ": 4216,
      "Ġà¶¶à¶½à·Ĭà¶½à·Ļà¶ļà·Ĭ": 4217,
      "à¶¯à·Ģà·ĥà·Ĭ": 4218,
      "à¶¤": 4219,
      "Ġà¶½à·Ĳà¶¶à·Ļà¶±à·Ĭà¶±à·ļ": 4220,
      "Ġà¶´à¶±": 4221,
      "Ġà¶½à·ĳà·ĥà·Ĭà¶Ńà·Ĵà¶¯": 4222,
      "Ġà¶ºà·Ŀà¶¢": 4223,
      "à·Ģà·Ĵà¶Ńà·Ĭ": 4224,
      "à¶¸à·Ķà·ħà·Ķ": 4225,
      "à¶ļà·Ĭà¶½à·ıà¶ļà·Ĭ": 4226,
      "Ġà¶§à·Ŀ": 4227,
      "Ġà¶¢à·Ĵà·Ģà·Ĵà¶Ńà·ļ": 4228,
      "Ġforec": 4229,
      "Ġforecast": 4230,
      "Ġà¶½à·Ļà¶©": 4231,
      "Ġbe": 4232,
      "Ġà¶´à¶¸à¶«à¶ļà·Ĭ": 4233,
      "Ġà¶¯à·Ĳà¶±à¶ľà¶Ńà·Ĭà¶Ńà·ı": 4234,
      "à¶Łà·Ķ": 4235,
      "Ġà·ĥà·Ļà¶½à·Ĭà¶½à¶¸": 4236,
      "Ġà·Ģà·Ķà¶±à·ıà¶¯": 4237,
      "Ġà¶¸à·Ĵà¶±à·Ĵà·ĥà·Ĭà·ĥà·Ķà¶±à·Ĭà·Ģ": 4238,
      "à¶±à·ļà¶±à·ļ": 4239,
      "à·ĥà·ĳà¶¸à·Ĭ": 4240,
      "à¶Ķà·Ģà·Ķ": 4241,
      "Ġà¶ľà·Ĳà¶±à¶ºà·Ĵ": 4242,
      "Ġà·Ĩà·Ļ": 4243,
      "Ġà¶īà¶±à·Ĭà¶¯à·Ĵà¶ºà·ı": 4244,
      "à¶łà·Ĭà¶¡": 4245,
      "Ġà¶¸à¶łà·Ŀ": 4246,
      "à¶±à·Ĵà·ģà·Ĭ": 4247,
      "Ġà¶½à¶ºà·Ĵ": 4248,
      "Ġà¶»à·ıà¶¢à·Ĭ": 4249,
      "Ġà¶ļà·Ĳà¶¸à¶»à·ı": 4250,
      "Ġà¶Ĵà¶ļà¶Ńà·Ĭ": 4251,
      "Ġà¶ĭà¶«": 4252,
      "Ġre": 4253,
      "à¶´à·ħ": 4254,
      "à·Ļà¶§": 4255,
      "Ġà¶¢à¶»à·ıà·Ģ": 4256,
      "?\"čĊ": 4257,
      "Ġà·ĥà·Ļà¶±": 4258,
      "ort": 4259,
      "à¶Ńà·ıà¶¸": 4260,
      "Ġà¶¯à·Ĵà¶±à¶º": 4261,
      "Ġà¶¢à·ĵà·Ģà·Ĵà¶Ńà¶ºà¶ļà·Ĭ": 4262,
      "\\\\": 4263,
      "18": 4264,
      "à¶ļà·Ķà¶«à¶ļà·Ĭ": 4265,
      "Ġà¶´à·Ĵà¶§à·Ĵà¶´à·ĥà·Ĭà·ĥà·ļ": 4266,
      "ĠâĻ«čĊ": 4267,
      "à¶±à·Ĵà¶ļà·Ĭ": 4268,
      "Ġà¶ħà¶Ńà·ıà¶»à·Ĵà¶±à·Ĭà¶±": 4269,
      "à¶±à·Ĭà¶ľà·Ļà¶±à·Ĭ": 4270,
      "Ġà¶Ĩà·Ģà¶¸": 4271,
      "à¶±à·ļà¶¯": 4272,
      "Ġà¶łà·ıà¶»à·Ĭà¶½à·Ĵ": 4273,
      "à¶ĳà·Ħà·Ļà¶¸à¶¯": 4274,
      "à¶ĳà¶ļà¶ļà·Ĭ": 4275,
      "Ġà¶´à·Ħà·ĥà·Ķ": 4276,
      "Ġinf": 4277,
      "à¶±à·Ĳà¶Ńà·Ĵ": 4278,
      "à¶ľà¶±à·Ĭà¶±à·ı": 4279,
      "à¶´à·Ĳà¶º": 4280,
      "Ġà¶ĩà¶¯à·Ķà¶¸à·Ĭ": 4281,
      "à·Ģà·Ĳà¶©à·Ĵ": 4282,
      "à¶¶à¶¯": 4283,
      "à¶ļà·ľà¶§à·Ĭ": 4284,
      "ep": 4285,
      "à¶Ńà·Ķà¶»à¶ļà·Ĭ": 4286,
      "Ġà·ĥà¶¯à·Ħà·ı": 4287,
      "âĢįà¶ºà·Ģ": 4288,
      "Ġà¶ĩà¶¸à¶Ńà·Ķ": 4289,
      "à¶ļà·Ļà¶±": 4290,
      "à·Ĵà¶ºà¶±à·Ĭ": 4291,
      "Ġà¶ľà¶±à·Ĭà¶±à·Ģ": 4292,
      "Ġà¶½à·Ĳà¶¶à·Ļà¶ºà·Ĵ": 4293,
      "Ġà¶ĩà·Ģà·Ĵà¶½à·Ĭà¶½": 4294,
      "Ġà¶»à·ĸà¶´": 4295,
      "Ġà·Ģà¶»à¶¯à¶ļà·Ĭ": 4296,
      "à¶½à·Ķà¶¸": 4297,
      "à·Ħà·Ĳà¶¸à·Ŀ": 4298,
      "Ġà¶½à·Ĳà¶¶à·ĵà¶¸": 4299,
      "à¶¯à¶»à·Ĵà¶±à·Ĭ": 4300,
      "Ġà¶ľà·Ļà¶±à·ıà·Ģà·ı": 4301,
      "Ġà¶±à·Ĵà¶»à·Ĭà¶·": 4302,
      "Ġà¶ºà·ıà·ħà·Ķà·Ģà·ľ": 4303,
      "Ġà¶½à·Ĵà¶±à·Ĭ": 4304,
      "Ġà¶´à·ľà¶©à·Ĭ": 4305,
      "à¶ºà·Ĵà·ĥà·Ĭ": 4306,
      "à¶ĳà¶¯à·ı": 4307,
      "Ġà¶ļà·Ĳà¶´": 4308,
      "à¶´à·Ĳà·Ħà·Ĳà¶¯à·Ĵ": 4309,
      "ton": 4310,
      "Ġà·Ģà·Ħà¶½à·ı": 4311,
      "à¶±à·Ģà¶Ńà·Ĭà¶Ńà¶±à·Ĭà¶±": 4312,
      "Ġà¶¸à·ľà¶©": 4313,
      "à·Ħà¶»à·Ĵà¶±à·Ĭà¶±": 4314,
      "Ġà¶±à¶»à¶ļà¶ºà·Ĵ": 4315,
      "dition": 4316,
      "Ġà¶ħà¶¯à·Ĵà¶±à·Ĭà¶±": 4317,
      "à¶Ńà·Ĭà¶Ńà¶¸": 4318,
      "Ġà·ĥà·ļà·Ģà¶º": 4319,
      "Ġà¶ļà·ĺ": 4320,
      "à¶¸à·Ļà·Ħà·Ļà¶§": 4321,
      "Ġà¶ľà¶»à·Ķ": 4322,
      "Ġà¶īà¶½à·Ĭà¶½à¶±à·Ĭà¶±": 4323,
      "Ġà¶ļà·Ļà¶±à·Ļà¶ļà·Ķà¶§": 4324,
      "à·ĥà·Ĵà¶»à·Ĳà·ĥà·Ĵ": 4325,
      "Ġà¶Ĭà¶½à¶Ł": 4326,
      "à¶ļà¶»à·Ķà·Ģà·Ļà¶ļà·Ĭ": 4327,
      "Ġà·Ģà·Ĳà¶©à·ļà¶§": 4328,
      "à¶ľà·Ĵà¶±à·Ĭ": 4329,
      "Ġà¶Ńà¶»à¶¸à·ļ": 4330,
      "Ġà¶§à·ĵ": 4331,
      "à¶ļà·ĳ": 4332,
      "Ġà·Ģà·Ĵà·ĥà¶³": 4333,
      "à¶ļà·Ĳà¶´à·Ĭà¶§à¶±à·Ĭ": 4334,
      "Ġà¶Ĩà·Ģà¶¯": 4335,
      "25": 4336,
      "Ġà·Ħà·Ĵà¶§à·Ĵà¶ºà·ľà¶Ńà·Ĭ": 4337,
      "Ġà¶¸à·Ĳà¶»à·Ķà·Ģà·ļ": 4338,
      "Ġà·ĥà¶¸à·ıà¶¢": 4339,
      "Ġà¶±à¶¸à¶ºà·Ĵ": 4340,
      "Ġà¶¸à·Ķà·Ħà·Ķà¶¯à·Ķ": 4341,
      "Ġà¶´à¶«à·Ĵà·Ģà·Ĵà¶©à¶ºà¶ļà·Ĭ": 4342,
      "à·Ħà·Ĵà¶§": 4343,
      "à¶ħà·Ħà·Ĭà·Ħà·Ĭ": 4344,
      "Ġà¶ħà·Ħà¶ľà¶±à·Ĭà¶±": 4345,
      "à¶ľà·Ĵà¶±": 4346,
      "à¶»à·Ļà¶±à·Ĭà¶±": 4347,
      "Ġà¶ĭà¶´à¶»à·Ĵà¶¸": 4348,
      "Ġà¶Ĵà·Ģà·Ĵ": 4349,
      "Ġà¶¯à·ıà¶´à·Ķ": 4350,
      "Ġà·Ģà·Ĵà¶°": 4351,
      "Ġà·ĥà·Ĭà¶®à·ıà¶±": 4352,
      "):čĊ": 4353,
      "à¶ĭà¶¹à·ļ": 4354,
      "à¶¶à¶±à·Ĭ": 4355,
      "Ġà¶ħà·Ħà·Ĵà¶¸à·Ĵ": 4356,
      "Ġà¶Ńà¶±à·Ĵà¶º": 4357,
      "Ġà¶½à·Ĵà¶´à·Ĵà¶±à¶º": 4358,
      "Ġà¶ļà·ĵà¶ºà¶ļà·Ĭ": 4359,
      "ul": 4360,
      "Ġà¶Ńà·ĳà¶ľà·Ĭà¶ľà¶ļà·Ĭ": 4361,
      "Ġà¶ĳà¶ºà·ıà¶ľà·Ļà¶±à·Ĭ": 4362,
      "Ġà¶ķà¶±à·ĳ": 4363,
      "à·ĸà¶»à·Ĭ": 4364,
      "à·Ĳà¶±à·Ĵà¶º": 4365,
      "Ġà¶´à¶«à·Ĵà·Ģà·Ĵà¶©à¶º": 4366,
      "Ġà·Ģà·Ķà¶±à·ıà¶¸": 4367,
      "Ġà¶ħà¶±à·Ķà¶¸à·ıà¶±": 4368,
      "ong": 4369,
      "Ġà¶¶à·Ģà¶ļà·Ĭ": 4370,
      "Ġà·ĥà·Ĳà¶»à¶ºà¶ļà·Ĭ": 4371,
      "Ġà¶¸à·Ħà¶±à·Ĭà·ĥà·Ĵ": 4372,
      "Ġà¶ļà¶»à¶´à¶±à·Ĭ": 4373,
      "à·ĥà¶¸à·Ĭà¶´à·ĸà¶»à·Ĭà¶«": 4374,
      "Ġtran": 4375,
      "Ġà¶ħà¶±à·ıà¶ľà¶Ńà¶º": 4376,
      "âĢį,": 4377,
      "Ġà·Ħà·Ļà¶½à·Ŀ": 4378,
      "Ġà¶ļà·Ĵà¶»à·ĵà¶¸à·Ĭ": 4379,
      "Ġà¶ĭà·Ģà¶¸à¶±à·ı": 4380,
      "Ġà¶¸à·Ĵà¶±à·Ĵà·Ħà¶§": 4381,
      "à·Ģà¶Ńà·Ķà¶»": 4382,
      "à·Ĳà¶´à·ĵ": 4383,
      "à¶¸à·Ļà¶º": 4384,
      "à¶½à·ĵà·ĥà·Ĭ": 4385,
      "Ġà·Ħà·Ĳà¶ļà·Ĵà¶ºà·Ĵ": 4386,
      "à¶Ńà·Ļà¶±à·Ĭà¶§": 4387,
      "Ġà¶ļà·ıà·ħ": 4388,
      "à·ĥà¶Ńà·Ķ": 4389,
      "Ġà·ĥà·Ĳà¶¶à·ĳ": 4390,
      "à¶ħà·Ģà·ĥà·ı": 4391,
      "Ġà¶±à·Ĳà¶Ńà·Ĭà¶¯": 4392,
      "Ġà¶´à·Ļà¶±à·Ĭà¶±à·ļ": 4393,
      "à·ıà·Ģà¶Ńà·Ĭà¶¸": 4394,
      "à¶ºà·ıà¶ľà¶±à·Ĭà¶±": 4395,
      "Ġà¶¯à¶±à·Ĭà¶±à·Ģà·ıà¶¯": 4396,
      "Ġà¶Ķà·Ħà·ļà¶§": 4397,
      "Ġà¶īà¶ļà·Ĭà¶¸à¶±à¶§à¶¸": 4398,
      "à·Ģà·ĵà¶¸à·ļ": 4399,
      "Ġà¶Ķà¶¶à¶½à·ı": 4400,
      "Ġà¶ļà·Ļà¶§à·Ĵ": 4401,
      "Ġà¶¸à·ľà¶ļà¶ļà·Ĭà·Ħà¶»à·Ĵ": 4402,
      "Ġà¶ļà·Ĵà¶ºà·Ģà¶±à·Ĭà¶±à·ļ": 4403,
      "Ġà¶ĩà¶Ńà·Ķà¶½à¶Ń": 4404,
      "à·Ħà¶¸à·Ĭ": 4405,
      "Ġà·Ģà¶½à¶¯à·Ĵ": 4406,
      "à¶´à·ľà¶½à·Ĵ": 4407,
      "Ġà¶´à·ıà·ĥ": 4408,
      "Ġà¶½à¶¸": 4409,
      "à·ĥà·Ļà¶½à·Ĭ": 4410,
      "à¶±à·Ģà¶Ńà·Ĵ": 4411,
      "Ġà¶ħà¶±à·Ĵà¶ļ": 4412,
      "Ġà¶´à·ĵà¶§à¶»à·Ĭ": 4413,
      "Ġà·Ħà·Ķà·Ģ": 4414,
      "Ġà¶¶à¶¯à·Ĵà¶±à·Ĭà¶±": 4415,
      "Ġà·ĥà·Ĵà¶ºà¶½à·Ķà¶¸": 4416,
      "ob": 4417,
      "Ġà¶ħà¶ºà¶Ńà·Ĭ": 4418,
      "Ġà·Ģà·Ĵà¶±à·ıà·ĥ": 4419,
      "Ġà¶¸à·Ļà¶ļ": 4420,
      "Ġà¶¯à·Ļà¶ºà·Ĵ": 4421,
      "Ġà¶¸à·Ĵà¶±à·Ĵà·ĥà·Ķ": 4422,
      "Ġà¶´à¶±à·Ĭà¶±": 4423,
      "Ġà¶´à·Ĳà¶±à¶ľà¶±à·Ĭà¶±": 4424,
      "Ġà·Ħà·Ĭ": 4425,
      "Ġà¶ļà·ıà¶½à·ı": 4426,
      "Ġà¶ļà·ıà¶©à·Ĭ": 4427,
      "Ġà·ħà¶Łà¶§": 4428,
      "à¶Ńà¶¸à¶±à·Ĭ": 4429,
      "Ġà¶ĩà·Ģà·Ĵà¶¯à·Ĵà¶±à·Ĭà¶±": 4430,
      "Ġà¶ļà¶ļà·Ķà¶½à·Ĭ": 4431,
      "à¶¯à·Ļà¶ļ": 4432,
      "Ġà¶±à¶Ĥ": 4433,
      "Ġà¶ľà¶±à¶±à·Ĭ": 4434,
      "Ġà·Ģà·ļà¶ľà¶º": 4435,
      "à·Ĵà¶ºà·Ļ": 4436,
      "Ġà·ĥà¶Ńà·Ĭà¶Ńà·Ķ": 4437,
      "Ġà¶ºà·Ķà¶°": 4438,
      "Ġà·ĥà¶¸à·ıà¶±": 4439,
      "à·Ģà¶±à·Ģ": 4440,
      "Ġà¶ħà·ĥà·Ĭà·ĥ": 4441,
      "Ġà¶¯à·Ķà¶´à¶Ń": 4442,
      "Ġà·Ħà·Ĵà¶§à·Ĵà¶ºà¶¯": 4443,
      "Ġà¶ļà¶©à·ļ": 4444,
      "ĠV": 4445,
      "Ġ@": 4446,
      "à¶¸à·Ķà·Ħà·Ķ": 4447,
      "à·Ħà·Ķà¶½à·Ĭ": 4448,
      "Ġà·ĥà·ıà¶ļ": 4449,
      "à¶ľà·Ĳà¶±à·ĵà¶¸à¶§": 4450,
      "Ġà·ĥà·Ĭà·Ģ": 4451,
      "à¶Ńà·Ĭà¶Ńà¶ļà·Ĵà¶±à·Ĭà¶¸": 4452,
      "Ġcondition": 4453,
      "ĠFBI": 4454,
      "Ġà·Ħà·ľà¶ºà·ıà¶ľà¶Ńà·Ĭà¶Ńà·ļ": 4455,
      "à¶ļà·Ĳà¶¸": 4456,
      "Ġà¶īà¶³à¶½": 4457,
      "Ġà·Ħà¶¸à·Ĭà¶¶à·Ķà¶±à·ı": 4458,
      "à¶»à·Ĭà·ĥà·Ĭ": 4459,
      "Ġà¶Ĩà¶ļà·ıà¶»": 4460,
      "Ġà¶´à¶§à¶±à·Ĭà¶ľà¶±à·Ĭà¶±": 4461,
      "Ġà·Ģà·Ļà¶½à·ıà·Ģà·Ļà¶¸": 4462,
      "Ġà·ĥà·Ħà¶º": 4463,
      "Ġà¶łà·Ļ": 4464,
      "à¶ĭà¶´": 4465,
      "Ġà¶ħà¶ºà·Ĵà¶Ńà·Ĵà¶º": 4466,
      "Ġà¶½à¶ļà·Ķà¶«à·Ķ": 4467,
      "Ġà¶Ĭà·ħà¶Ł": 4468,
      "à¶ļà·ľà·Ħà·Ļ": 4469,
      "Ġà·ĥà·ĵà¶¸à·ıà·Ģ": 4470,
      "Ġà·Ĩà·ľ": 4471,
      "à¶½à·Ĳà¶ļà·Ĭ": 4472,
      "Ġà¶¸à¶§à·Ĭà¶§": 4473,
      "à¶¸à·ıà¶»à·Ķ": 4474,
      "Ġà·Ģà·ļà¶ľà¶ºà·Ļà¶±à·Ĭ": 4475,
      "Ġà¶ĭà¶¹à¶½à·ı": 4476,
      "Ġà¶ļà·Ļà·ħ": 4477,
      "Ġà¶ľà·ĥà·Ĭ": 4478,
      "Ġà·Ħà·Ĵà¶Ńà·Ļà¶±": 4479,
      "Ġà·ĥà¶Ĥà¶ļà·ĵ": 4480,
      "Ġà¶Ńà·Ķà¶±à·Ĭà¶¯": 4481,
      "Ġà·ĥà¶§à·Ħà¶±à·Ĭ": 4482,
      "Ġà¶ľà·Ļà·Ģà¶½à·Ĭ": 4483,
      "Ġà¶½à·Ĳà¶¶à·Ķà¶±à·ļ": 4484,
      "17": 4485,
      "à¶»à·Ķà·Ģà·Ļà¶ļà·Ĭ": 4486,
      "à¶¸à·Ļà¶Ńà¶±à·Ĵà¶±à·Ĭ": 4487,
      "à·Ħà¶½": 4488,
      "Ġà¶´à·Ĵà·Ģà·Ĵ": 4489,
      "à¶¶à·Ĵà¶¸": 4490,
      "Ġà¶ĭà¶±à·ıà¶¯": 4491,
      "à¶ļà·ıà¶§à·Ģà¶Ńà·Ĭ": 4492,
      "Ġà¶ĩà¶¯à¶ľà·Ļà¶±": 4493,
      "Ġà¶½à·Ĳà¶¢à·Ĭà¶¢": 4494,
      "à¶©à·ľà¶ļà·Ĭà¶§à¶»à·Ĭ": 4495,
      "Ġà¶īà¶»": 4496,
      "Ġà¶ºà¶§à¶Ńà·ļ": 4497,
      "à¶ħà¶Ń": 4498,
      "à¶ºà¶¯": 4499,
      "à¶¯à¶½à·ı": 4500,
      "Ġtransl": 4501,
      "Ġà¶¸à·ıà·ħà·Ķ": 4502,
      "à·Ħà¶§à¶¸": 4503,
      "à¶¯à·Ģà·ĥ": 4504,
      "Ġà¶¸à·ıà¶±à·ĥà·Ĵà¶ļ": 4505,
      "Ġà¶ħà¶ļà·Ķà¶»à·Ķ": 4506,
      "Ġà¶¶à·Ķà¶¯à·Ĭà¶°à·Ĵà¶¸à¶Ńà·Ĭ": 4507,
      "à¶¥à¶ºà·Ļà¶ļà·Ĭ": 4508,
      "Ġà¶©à·ļ": 4509,
      "Ġà·Ħà·Ĳà¶¯à·Ķà·Ģà·Ļ": 4510,
      "Ġà¶ĳà¶ļà¶ľ": 4511,
      "ert": 4512,
      "à¶ľà·Ĵà¶ºà·ı": 4513,
      "Ġà¶ĭà¶¯à·ı": 4514,
      "Ġà¶½à¶ļà·Ĭà·Ĥ": 4515,
      "à¶±à·Ģà¶Ńà·Ĭ": 4516,
      "à¶ľà¶±à·Ĭà·Ģà¶±à·Ĭà¶±": 4517,
      "Ġà¶¶à·ļà¶»à·ı": 4518,
      "Ġà¶¯à·ļà¶ļà¶§": 4519,
      "Ġà¶īà·Ģà·ĥ": 4520,
      "Ġà¶īà¶Ĥà¶ľà·Ĭ": 4521,
      "ea": 4522,
      "à¶±à·Ĳà¶ľà·Ĵà¶§à·Ĵà¶±à·Ĭà¶±": 4523,
      "à·Ĵà¶ļà·ı": 4524,
      "à¶ĳà¶łà·Ĭà¶łà¶»à¶ºà·Ĵ": 4525,
      "à¶ħà·Ģà·Ķ": 4526,
      "Ġà¶½à·ľà¶ļà·Ķà¶¸": 4527,
      "ack": 4528,
      "Ġà¶ļà¶§à·Ĭà¶§": 4529,
      "Ġà·ĥà¶¸à·Ĭà¶¶à¶±à·Ĭà¶°à¶ºà¶ļà·Ĭ": 4530,
      "Ġà¶ħà·Ģà·Ĵ": 4531,
      "à¶½à·Ķà·Ģà¶ļà·Ĭ": 4532,
      "Ġr": 4533,
      "à¶Ńà·Ļ": 4534,
      "à·Ĵà¶ºà·Ļà¶±à·Ĭ": 4535,
      "Ġà·Ħà·Ĵà¶±à·Ĭà¶¯": 4536,
      "à·Ļà¶ļà·ı": 4537,
      "Ġà¶ºà·ıà·ħà·Ķà·Ģà·Ļà¶ļà·Ĭ": 4538,
      "à¶Ķà¶ºà·ıà¶½à¶ľà·ļ": 4539,
      "Ġà·ĥà·Ĵà¶Ńà·Ķà·Ģ": 4540,
      "Ġà¶īà·ĥà·Ĭà·ĥà¶»à·Ħà·ı": 4541,
      "à·ĥà·Ķà¶»": 4542,
      "Ġà¶Ńà¶¸": 4543,
      "à¶ľà¶¸à¶±à¶º": 4544,
      "Ġà¶ħà¶¯à·Ĭ": 4545,
      "Ġà¶Ńà¶»à·Ķ": 4546,
      "Ġà¶Ńà¶»à·Ĭà¶¢à¶±à¶º": 4547,
      "à¶¶à·ĸ": 4548,
      "à¶ļà·ľà·Ħà¶¯à·Ļ": 4549,
      "Ġà¶ľà·ļà¶¸à·Ĭ": 4550,
      "Ġà¶¯à¶¸à¶±à·Ĭà¶±": 4551,
      "Ġà·Ģà·Ļà¶ºà¶±à·Ĭ": 4552,
      "Ġà·ĥà·Ĳà¶½à·Ĳà·ĥà·Ĭà¶¸à¶ļà·Ĭ": 4553,
      "Ġà¶ļà·Ģà¶¯à·Ĭà¶¯": 4554,
      "Ġà·Ģà·Ĵà¶ºà¶¯à¶¸à·Ĭ": 4555,
      "Ġà¶Ńà¶»à¶ľ": 4556,
      "à¶½à·ļà¶±à·Ĭ": 4557,
      "à¶±à¶Ĥ": 4558,
      "Ġà·Ģà·Ĳà¶»à¶¯": 4559,
      "à¶¢à·Ŀà¶±à·Ĭ": 4560,
      "Ġà¶ħà¶ľà·Ķ": 4561,
      "Ġà¶´à¶Ńà·Ĭà·Ģ": 4562,
      "à¶ļà¶»à·ı": 4563,
      "Ġà¶¸à·Ĳà¶»à·Ļà¶±": 4564,
      "Ġà¶¶à·Ĳà¶½à·Ĭà¶½à·Ĵ": 4565,
      "à¶ļà·Ķà¶½à·Ĭ": 4566,
      "ĠCh": 4567,
      "à¶ĳà¶±à·Ģà·ı": 4568,
      "Ġà·Ģà·ļà¶ľà·Ģà¶Ńà·Ĭ": 4569,
      "Ġà¶´à·ĥà·Ĭ": 4570,
      "Ġà¶¢à·Ķ": 4571,
      "Ġinfo": 4572,
      "à¶ľà¶Ńà·Ĭà¶Ńà·ľà¶Ńà·Ĭ": 4573,
      "à·Ģà·Ĵà¶±à·ıà¶©à·Ĵ": 4574,
      "Ġà¶ĳà¶ļà·Ĭà¶ļà¶¯": 4575,
      "Ġà¶Ĵà¶ļà·ı": 4576,
      "Ġà¶ĳà·ħà·Ĵà¶ºà·ļ": 4577,
      "à¶´à·Ĳà¶Ńà·Ĭà¶Ń": 4578,
      "Ġà·Ļà¶ļà·ı": 4579,
      "Ġà¶Ķà¶§à·Ĭà¶§à·Ķ": 4580,
      "à¶ļà¶ºà·ļ": 4581,
      "à·Ģà·Ĵà·ģà·ļà·Ĥ": 4582,
      "à¶¸à¶ľà·Ļà¶±à·Ĭ": 4583,
      "Ġà·Ħà·Ĵà¶¸": 4584,
      "Ġà·Ģà·ĵà¶»à¶ºà·Ļà¶ļà·Ĭ": 4585,
      "Ġà¶Ńà¶¸à·Ķà·ĥà·Ļà¶§": 4586,
      "Ġà¶§à·Ĵà¶ļà¶§à·Ĭ": 4587,
      "-à·Ħà¶»à·Ĵ": 4588,
      "Ġà¶ļà·ĳà¶¸à¶§": 4589,
      "Ġà·ĥà¶¸à·ĵ": 4590,
      "Ġà¶´à·ľà·ħ": 4591,
      "Ġà¶±à·Ĵà¶½à¶°à·ı": 4592,
      "Ġà¶±à·ıà·Ģ": 4593,
      "à¶´à¶±": 4594,
      "à·Ļà¶ļà·Ĭà¶§à¶»à·Ĭ": 4595,
      "Ġà¶ħà·Ģà¶½": 4596,
      "à¶»à¶ºà·ļ": 4597,
      "Ġà¶±à·ľà·Ģà¶±": 4598,
      "Ġà¶¸à·Ķà¶½": 4599,
      "à¶¯à¶±à·ı": 4600,
      "Ġà¶»à·Ĳà¶¢à·Ĵ": 4601,
      "Ġà¶Ĩà¶»à·ıà¶°": 4602,
      "Ġà¶¯à·Ļà¶¸à·Ģà·Ĭ": 4603,
      "Ġà¶»à¶Ł": 4604,
      "Ġà¶¯à·Ķà¶±à·Ĭà¶±à·ľà¶Ńà·Ĭ": 4605,
      "à¶½à·Ģà¶±à·Ĭà¶±": 4606,
      "Ġà¶Ĭà¶ºà·Ļ": 4607,
      "Ġà¶¶à·Ĵà¶¸à¶§": 4608,
      "Ġà¶īà·Ħà¶½": 4609,
      "Ġà¶¯à¶Ńà·Ĭ": 4610,
      "à¶Ńà·Ĵà·ĥà·Ĭà·ĥà·Ļà¶¸": 4611,
      "à¶Ĵà¶ļà·ļ": 4612,
      "Ġhe": 4613,
      "Ġà·Ģà·Ĳà¶§à·Ļà¶±à·Ĭà¶±": 4614,
      "à¶¸à¶Ń": 4615,
      "à¶¯à·ıà¶±": 4616,
      "%s": 4617,
      "à¶Ĵà¶ļà¶±à¶¸à·Ĭ": 4618,
      "Ġà¶ļà·Ĵà¶±à·Ĭ": 4619,
      "à·Ģà·Ĵà¶ļà·Ĭ": 4620,
      "Ġà¶ļà·ľà¶±à·Ĭà¶©": 4621,
      "à·ĥà·Ĭà¶§à·ĵ": 4622,
      "à·Ħà·ıà¶»à·Ĭà¶Ń": 4623,
      "à¶ľà¶¸à¶±à·Ĭ": 4624,
      "Ġà¶ĩà¶Ńà·Ķà·ħà¶§": 4625,
      "Ġà·Ħà¶³à·Ķà¶±à·ı": 4626,
      "Ġà¶ļà·ľà¶½": 4627,
      "à¶ľà·ľà¶±à·Ķ": 4628,
      "Ġà¶Ĩà¶»à¶Ĥà¶łà·Ĵà¶ºà¶ļà·Ĭ": 4629,
      "à¶½à·Ĭà¶¯à·ı": 4630,
      "Ġà¶¸à·Ķà¶±": 4631,
      "à¶ĳà¶ļà¶¸": 4632,
      "âĢįà¶Ń": 4633,
      "Ġà¶±à¶§à¶±à·Ĭà¶±": 4634,
      "Ġà¶´à·Ĵà¶»à·Ĵà¶¸à·Ĵ": 4635,
      "Ġà¶ķà¶±à·Ļà¶¸": 4636,
      "Ġà¶©à·Ŀ": 4637,
      "Ġà¶´à·Ķà·Ģ": 4638,
      "à¶¸à·Ĭà¶´à·Ĭ": 4639,
      "Ġà¶ļà·Ĵà¶§à·Ĭ": 4640,
      "Ġà¶»à¶ºà·Ĵ": 4641,
      "à¶»à·ĳ": 4642,
      "Ġà¶¸à·ıà¶ľà·ļ": 4643,
      "à¶¥à·ıà·Ģ": 4644,
      "Ġà¶Ńà·Ĵà¶ºà¶±à·ļà¶±à·Ļ": 4645,
      "Ġà·Ģà·Ħà¶±à·Ģà·ı": 4646,
      "Ġor": 4647,
      "Ġà¶±à·Ĳà¶Ńà·Ĭà¶Ńà¶±à·Ĭ": 4648,
      "Ġare": 4649,
      "à¶ĭà¶¶à¶§": 4650,
      "Ġà¶´à¶ļà·Ĭà·Ĥ": 4651,
      "Ġà¶´à·Ķà¶Ńà·ıà·Ģ": 4652,
      "à·Ģà·Ļà¶¸": 4653,
      "Ġà¶Ķà¶ļà·Ĭà¶ļà·ľ": 4654,
      "Ġà¶ħà¶¸à·ıà¶»": 4655,
      "Ġà¶ħà¶´à·Ħà·ĥà·Ķ": 4656,
      "...\"čĊ": 4657,
      "Ġà¶½à·Ĳà¶¶à·Ķà¶«à·ı": 4658,
      "âĢįà¶§à·Ķ": 4659,
      "Ġà¶ħà·Ħà¶½": 4660,
      "Ġà¶ľà·Ļà¶¯à¶»à·Ĵà¶±à·Ĭ": 4661,
      "Ġà¶¢à·ĵà·Ģ": 4662,
      "rit": 4663,
      "à¶´à·ľà¶½à·Ĵà·ĥà·Ĭ": 4664,
      "à·Ŀà¶¸à·ĥà·Ĭ": 4665,
      "Ġà¶¸à¶«à·Ĭà¶©": 4666,
      "Ġà¶¯à·ıà¶¸à·Ķ": 4667,
      "Ġà¶¯à·Ģà¶½à·Ĭ": 4668,
      "Ġà¶ħà·ĥà¶±à·ĵà¶´": 4669,
      "Ġà¶¯à¶©à¶ºà¶¸à·Ĭ": 4670,
      "Ġà¶ļà·Ĳà¶»": 4671,
      "à·Ģà·ıà¶ľà·Ļà¶±": 4672,
      "Ġà¶¶à¶½à·Ģà¶Ńà·Ĭ": 4673,
      "à¶¸à¶ľà·Ŀ": 4674,
      "Ġà¶ļà·Ĵà·Ģà·Ķà·Ģà·Ļ": 4675,
      "Ġà·Ĩà·Ĵà¶½à·Ĭ": 4676,
      "Ġà¶¯à·Ĵà¶±à¶±à·Ĭà¶±": 4677,
      "Ġà·Ħà·Ļà¶½à·Ĵ": 4678,
      "à¶¸à·Ĵà·ĥà·Ĭà¶§à¶»à·Ĭ": 4679,
      "Ġà¶ºà¶§à¶Ńà·Ĭ": 4680,
      "Ġà¶ĩà¶½": 4681,
      "à¶¸à·ľà¶ļà·Ķà¶Ńà·Ĭ": 4682,
      "à¶Ńà·Ĭà·Ģà·Ĳ": 4683,
      "Ġà·Ģà·Ļà¶±à·Ĭà¶±à¶Ńà·Ĭ": 4684,
      "Ġà¶¸à¶±à·Ķà·Ĥà·Ĭ": 4685,
      "Ġà·Ħà·Ĵà¶±à·ıà·Ģ": 4686,
      "Ġà¶´à·ıà¶»à·Ļà¶±à·Ĭ": 4687,
      "Ġà¶ħà·Ħà¶±à·Ĭà¶±à·Ļ": 4688,
      "à¶¸à·ıà·ĥ": 4689,
      "à¶ļà¶±": 4690,
      "Ġà·ĥà¶Ńà·Ķà¶»": 4691,
      "à·Ģà·Ĵà¶¯à·Ĭ": 4692,
      "Ġà¶ħà¶ºà·Ĵà¶ºà·ļ": 4693,
      "Ġà¶ħà¶±à·ıà¶ľà¶Ń": 4694,
      "à¶¸à¶ľ": 4695,
      "à¶ļà·Ĭà·Ĥà·ļà¶´": 4696,
      "Ġà·ĥà¶¸à·Ĭà¶¶à¶±à·Ĭà¶°à¶ºà·Ļà¶±à·Ĭ": 4697,
      "à¶ļà¶½à·ļ": 4698,
      "Ġà¶ļà·ļà·ĥà·Ĭ": 4699,
      "eg": 4700,
      "Ġà·Ħà¶»à·Ĵà¶ľ": 4701,
      "Ġà¶¸à¶½à·Ĭà¶½à·Ĵ": 4702,
      "à¶¸à·Ļà¶łà·Ĭà¶łà¶»": 4703,
      "Ġà¶´à·ĸà¶¢": 4704,
      "Ġà·ĥà¶¸à·ıà¶ľà¶¸": 4705,
      "à¶¸à·ľà¶±à·ı": 4706,
      "à¶ºà¶¸": 4707,
      "Ġà¶ĩà¶»à·Ļà¶±à·Ĭà¶±": 4708,
      "à·ģà¶ļà·Ĭ": 4709,
      "à·ĥà·Ĳà¶±à·Ĭ": 4710,
      "Ġà¶ĩà·Ħà·Ķà¶±à·ı": 4711,
      "Ġà¶Ńà·Ĵà¶ºà¶±à·Ĭà¶±à·ļ": 4712,
      "Ġà·Ħà¶§": 4713,
      "à¶¸à·ıà¶¢": 4714,
      "à¶´à·Ĵà¶±à·Ĭ": 4715,
      "Ġà¶´à¶½à¶ºà¶±à·Ĭ": 4716,
      "Ġà¶ļà·Ŀà¶łà·Ĭà¶ł": 4717,
      "Ġà¶´à·Ģà·Ķà¶½à¶ļà·Ĭ": 4718,
      "Ġà¶»à·Ŀà¶ľ": 4719,
      "à·Ħà·Ĭà·Ħà·Ĭ": 4720,
      "Ġà¶¯à·Ĳà¶ļà¶´à·Ķ": 4721,
      "à¶¢à·Ĵà¶ļà·Ĭ": 4722,
      "Ġà¶Ńà·ļà¶»à·Ļà¶±à·Ģ": 4723,
      "à¶īà¶¯à·Ĵ": 4724,
      "Ġ....čĊ": 4725,
      "Ġà¶ľà·Ĵà¶«à·Ķ": 4726,
      "Ġà¶Ķà¶±à·ļ": 4727,
      "Ġà¶¶à·Ļà¶±à·Ĭ": 4728,
      "ff": 4729,
      "Ġà¶ħà¶±à·Ĭà¶Ńà·Ĵà¶¸à·ļ": 4730,
      "Ġà¶ħà·ĥà¶¸à¶Ńà·Ĭ": 4731,
      "à·Ģà¶±à·Ĭà¶±à·Ļ": 4732,
      "à¶¯à·Ķà¶±à·ļ": 4733,
      "\"à¶¸à¶¸": 4734,
      "Ġà¶ĩà¶»à¶½à·ı": 4735,
      "Ġà¶īà·Ħà·ħ": 4736,
      "Ġà¶±à·Ĳà¶Ńà·Ĵà·Ģà·Ļà¶½à·ı": 4737,
      "à¶¯à·Ĳà¶±à¶§": 4738,
      "à¶¢à·ĸ": 4739,
      "Ġà·Ģà·ĵà¶¸à¶§": 4740,
      "Ġà¶ĩà·Ħà·Ķà·Ģà·ļ": 4741,
      "Ġà¶¯à·Ļà¶ļà¶¸": 4742,
      "Ġà¶īà¶»à·Ĵ": 4743,
      "Ġà¶ºà·ľà¶¯": 4744,
      "Ġà¶ľà·Ĳà¶±à¶¸": 4745,
      "Ġà¶»à·Ĳà·ĥà·Ĭ": 4746,
      "Ġà·Ħà·Ĳà¶¸à¶Ńà·Ĳà¶±à¶¸": 4747,
      "Ġà¶´à·Ĭà¶½à·Ŀà¶±à·Ĭ": 4748,
      "à¶»à·Ħà·ĥà·Ĭ": 4749,
      "ian": 4750,
      "Ġà¶Ńà·Ĳà¶±à¶¸": 4751,
      "Ġà·Ħà·ľà¶ºà¶±": 4752,
      "Ġ)čĊ": 4753,
      "Ġà¶ļà¶»à·ıà¶¯": 4754,
      "Ġà·ĥà·Ķà·Ģà¶³": 4755,
      "Ġà·ĥà·Ĵà¶ºà·ħà·Ķà¶¸": 4756,
      "Ġà·Ģà·Ĵà·Ĥ": 4757,
      "Ġà·ĥà·Ķà¶»à¶ļà·Ĵà¶±à·Ĭà¶±": 4758,
      "Ġà¶¸à·ıà¶ºà·Ĵ": 4759,
      "Ġà·Ģà·Ĵà·Ģà·ļà¶ļ": 4760,
      "Ġà¶¶à·Ĳà¶»à·Ĵà·Ģà·Ķà¶±à·ı": 4761,
      "Ġà¶īà¶ļà·Ĭà¶¸à¶±à·Ĵà¶±à·Ĭà¶¸": 4762,
      "à¶¯à·Ļà¶±à·Ģà·ı": 4763,
      "Ġà¶ĭà¶ľà·ļ": 4764,
      "à¶¸à·ļà¶ļà·Ļà¶±à·Ĭ": 4765,
      "à¶¸à¶ºà·Ĵà¶ļà·Ĭ": 4766,
      "à¶ĩà¶»": 4767,
      "à·Ģà·Ļà¶½": 4768,
      "Ġà¶ħà¶±à·Ĵà·Ģà·ıà¶»à·Ĭà¶ºà·Ļà¶±à·Ĭà¶¸": 4769,
      "Ġà¶ĭà¶´à·ĥà·Ĵà¶»à·Ĳà·ĥà·Ĵ": 4770,
      "Ġà¶½à·Ĵà¶ºà¶±à·Ĭà¶±": 4771,
      "Ġà¶ķà¶±à¶¯à·Ļ": 4772,
      "Ġà·Ħà¶Ĥ": 4773,
      "Ġà·Ħà·Ĵà¶»à·Ģà·Ļà¶½à·ı": 4774,
      "Ġà¶·à·ıà·Ĥ": 4775,
      "à¶ļà·ľà¶ºà·Ĵ": 4776,
      "à¶ļà·Ĭà·Ĥà¶«à¶º": 4777,
      "Ġà¶»à·Ĳà¶ľà·Ļà¶±": 4778,
      "Ġà¶±à·ľà¶¸à·Ĳ": 4779,
      "Ġà¶Ńà·ļà¶»à·Ķà¶¸à¶ļà·Ĭ": 4780,
      "Ġà·ĥà·Ĳà¶»": 4781,
      "ai": 4782,
      "Ġà¶±à·Ĳà¶§à·Ķ": 4783,
      "]čĊ": 4784,
      "Ġà¶Ńà·Ħà¶±à¶¸à·Ĭ": 4785,
      "à¶¶à·Ħà·Ķ": 4786,
      "Ġà·Ħà·Ĵà¶Ńà·Ļà¶±à·Ĭà¶±à·ļ": 4787,
      "à¶¬à·Ķà·Ģ": 4788,
      "Ġà¶ľà¶±à·Ĵà¶±à·Ĭ": 4789,
      "à¶±à·Ļà¶¸à·Ĭ": 4790,
      "à·ĥà·Ļà¶±": 4791,
      "Ġà¶´à·ļà¶±à·Ģ": 4792,
      "Ġà·Ģà·Ĳà¶§à·Ķà¶±à·ı": 4793,
      "Ġà¶¸à¶§à·Ĭà¶§à¶¸": 4794,
      "ang": 4795,
      "tion": 4796,
      "Ġà¶Ńà·ĵà¶»à¶«à¶ºà¶ļà·Ĭ": 4797,
      "à¶¢à·ľ": 4798,
      "à¶ħà¶½à·Ķà¶Ńà·Ĭ": 4799,
      "Ġà·Ħà·Ĳà¶©": 4800,
      "Ġà¶¯à·Ļà·Ģà·Ļà¶±à·Ĵ": 4801,
      "Ġà·ĥà·Ĳà¶Ńà¶´à·Ķ": 4802,
      "Ġà¶ĩà·Ħà·Ļà¶±à·Ģà·ı": 4803,
      "Ġà¶±à·Ĵà¶ļà¶±à·Ĭà¶¸": 4804,
      "Ġà¶ļà·ıà¶¸à¶»à¶ºà¶§": 4805,
      "à¶łà¶»": 4806,
      "Ġà¶ºà·ıà¶±à·ı": 4807,
      "Ġà¶ħà·Ħà¶ľà·Ļà¶±": 4808,
      "Ġà¶¸à·Ļà¶±à·Ģà·Ĵà¶º": 4809,
      "Ġà¶¢à¶±à¶Ńà·ıà·Ģ": 4810,
      "Ġà·Ģà·Ĵà¶±à·ıà¶©à·Ĵà¶ºà¶ļà·Ĭ": 4811,
      "Ġà·Ģà¶łà¶±à¶º": 4812,
      "Ġà·Ħà·Ĳà¶»à·ĵ": 4813,
      "Ġà¶¶à·ľà·ĥà·Ĭ": 4814,
      "Ġà¶¸à¶ľà·Ļà¶Ńà·Ĭ": 4815,
      "Ġà¶ĩà¶³à·Ķà¶¸": 4816,
      "à¶¯à·Ĵà·ĥà·Ĵ": 4817,
      "à¶¶à¶§à·Ĭ": 4818,
      "Ġà¶ľà·ŀà¶»à·Ģà¶º": 4819,
      "à¶Ńà¶»à·Ĭ": 4820,
      "Ġà·ĥà·Ĳà¶ļà·ĥà·Ķà¶¸à·Ĭ": 4821,
      "Ġà¶½à·ľà¶ļà·Ĭà¶ļ": 4822,
      "Ġà·Ģà¶Ńà·ıà·Ģà¶§": 4823,
      "à¶ļà¶«à·Ĭ": 4824,
      "à¶Ĭà¶½à¶Ł": 4825,
      "Ġà¶±à·ıà¶¸à¶º": 4826,
      "à¶´à¶»à¶ºà¶ļà·Ĭ": 4827,
      "à¶§à·Ĵà¶ļà·Ĭ": 4828,
      "à¶ĩà¶Ńà·Ĭà¶Ńà¶§": 4829,
      "Ġà·Ģà·Ļà¶»": 4830,
      "à¶ĭà¶¹à¶½à·ı": 4831,
      "Ġà¶½à¶±à·Ĭà¶©": 4832,
      "Ġà¶ºà¶±à·Ĭà¶±à¶ºà·Ĵ": 4833,
      "Qu": 4834,
      "You": 4835,
      "Ġà¶½à·ļà¶Ľ": 4836,
      "à¶ļà·Ģà·Ĭà¶¯": 4837,
      "Ġà¶īà·ĥà·Ĭà·ĥà·Ļ": 4838,
      "Ġà·ĥà·Ĵà·Ħà·Ĵà¶±": 4839,
      "Ġà¶±à¶ºà·Ĵà¶§à·Ĭ": 4840,
      "Ġà¶Ńà·Ļà¶½à·Ĭ": 4841,
      "Ġà·Ģà·ľà¶§à·Ĭà·ĥà¶±à·Ĭ": 4842,
      "Ġà¶½à·Ĳà¶¶à·Ĵà¶½à·ı": 4843,
      "Ġà¶ļà·Ĵà·ĥà·Ĵà·Ģà¶ļà·Ĭ": 4844,
      "Ġà¶´à·ıà¶»à·ļ": 4845,
      "Ġà¶ĳà¶Ńà¶±à·Ĵà¶±à·Ĭ": 4846,
      "à¶»à·Ĵà¶ºà¶±à·Ĭ": 4847,
      "à¶ļà·ľà·Ħà·ļà¶¯": 4848,
      "à¶ºà¶¸à·Ĭ": 4849,
      "à¶ļà¶»à·Ķà¶«à·ıà¶ļà¶»à¶½": 4850,
      "Ġà¶¸à·Ħà·Ļ": 4851,
      "Ġà¶´à¶ºà·Ĵà¶±à·Ĭ": 4852,
      "à¶ļà·ĺà¶Ńà·Ĵ": 4853,
      "Ġà¶¯à·Ĵà¶ºà·Ķ": 4854,
      "Ġà¶ĭà¶±à·ıà¶¸": 4855,
      "Ġà¶ĩà¶¸à¶Ńà·Ķà¶¸à¶ļà·Ĭ": 4856,
      "à¶¶à·Ģ": 4857,
      "Ġà·ģà·Ķ": 4858,
      "à¶¯à·Ĳà¶ļà·Ĭà¶ļà¶¯": 4859,
      "Ġà¶¯à·Ķà¶»à¶ļà¶®à¶±": 4860,
      "à¶ħà¶ºà·Ĵà¶±à·Ĭ": 4861,
      "Ġà¶¸à·Ħà¶Ńà·Ĭà·Ģà¶»à·Ķà¶±à·Ĵ": 4862,
      "Ġà¶ļà·Ļà¶±à·ıà·Ģ": 4863,
      "à¶īà·ĥà·Ĭà·ĥà¶»": 4864,
      "à¶Ńà·ıà·Ģà¶ºà¶ļà·Ĭ": 4865,
      "Ġà·Ħà·Ĵà¶±": 4866,
      "à¶ĳà¶ºà·Ĵ": 4867,
      "à¶¹à·Ĵ": 4868,
      "IA": 4869,
      "à¶§à·Ĵà¶ºà·Ŀ": 4870,
      "Ġà¶´à·Ļà¶½": 4871,
      "à¶ļà¶»à·Ķà·Ģ": 4872,
      "Ġà¶ħà¶¸à·Ķà¶Ńà·Ķà¶ºà·Ĵ": 4873,
      "Ġà·ĥà·Ħà·Ŀ": 4874,
      "à¶ľà·ĳ": 4875,
      "Ġà¶±à¶©à·Ķ": 4876,
      "Ġà·ĥà·Ĵà¶Ńà·Ĭ": 4877,
      "Ġà·Ħà¶»à·Ģà¶±à·Ĭà¶±": 4878,
      "Ġà·Ģà·Ĵà¶ļà·Ĵ": 4879,
      "Ġà¶¶à¶³à·Ĵà¶±à·Ĭà¶±": 4880,
      "à¶»à·Ķà¶±à·ļ": 4881,
      "à¶½à·Ŀà¶ºà·Ĵ": 4882,
      "à·ĥà·Ĭà¶Ńà·Ĭ": 4883,
      "à¶Ńà·Ĭà¶Ńà¶ļà·Ĭ": 4884,
      "âĢįà¶Ńà·Ķ": 4885,
      "NA": 4886,
      "à·ĥà·Ĵà¶½à·Ĭ": 4887,
      "Ġà¶¯à·ļà·Ģ": 4888,
      "Ġà·Ģà·Ĵà¶ļà·ıà¶»à¶ºà¶ļà·Ĭ": 4889,
      "à·ĥà·Ĭà¶§à·Ĵà¶±à·Ĭ": 4890,
      "Ġà¶´à·ĵà¶©": 4891,
      "à¶»à¶ºà·Ļà¶ļà·Ĭ": 4892,
      "Ġà¶ħà·ģà·Ĭà·Ģ": 4893,
      "Ġà·Ģà¶ľà·ļà¶¸à¶ºà·Ĵ": 4894,
      "à¶½à·Ķà¶ºà·Ĵ": 4895,
      "Ġà¶©à·Ĵà¶»": 4896,
      "à·Ģà¶»à·Ļà¶±à·Ĭ": 4897,
      "Ġà¶¸à¶±à·ĥ": 4898,
      "vi": 4899,
      "à¶¸à·Ĭà¶¶à¶»à·Ĭ": 4900,
      "Ġà¶Ńà·Ķà¶»à·Ķ": 4901,
      "à·ĥà·Ķà¶¸à¶ļà·Ĭ": 4902,
      "à¶īà·ĥà·Ĭà¶ļà·Ŀà¶´à·Ĭà¶´": 4903,
      "Ġà¶¸à·Ĳà¶»à·Ļà¶ºà·Ĵ": 4904,
      "à¶§à·Ĭà¶±à·Ĵ": 4905,
      "-à¶±à·ĳ": 4906,
      "Ġà¶ļà·ıà¶»à¶ºà·ı": 4907,
      "à·ĥà·Ĵà¶ºà¶ļà·Ĭ": 4908,
      "à¶ľà¶±à·Ĭà·Ģ": 4909,
      "Ġà¶ļà·ľà·ħ": 4910,
      "Ġà¶¶à·ıà¶°à·ı": 4911,
      "à¶¯à¶±à·Ĭà¶±à·Ģ": 4912,
      "Ġà·Ħà·Ģà·Ķà¶½à·Ĭ": 4913,
      "Ġà¶Ńà·Ĵà¶ºà¶±à·Ļ": 4914,
      "Ġà¶¯à·Ļà¶±à·Ĭà¶±à¶§": 4915,
      "à¶´à·Ĵà¶ºà·ı": 4916,
      "Ġà·ĥà·Ĭà¶´": 4917,
      "Ġà¶±à·Ĵà·Ĥà·Ĭ": 4918,
      "à·ĥà·Ļà¶ļà·Ĭ": 4919,
      "Ġà·Ħà¶Ńà¶»à¶ļà·Ĭ": 4920,
      "out": 4921,
      "Ġà¶¯à·Ĳà¶±à·Ļà¶±à·Ĭà¶±à·Ļ": 4922,
      "à¶ļà·ıà¶½à·Ĵà¶ļ": 4923,
      "Ġà¶¸à¶»à¶´à·Ķ": 4924,
      "Ġà¶Ĩà¶»à·Ĭ": 4925,
      "Ġà¶´à·Ħà¶Ńà·Ĭ": 4926,
      "à¶¢à¶±à·Ĭà¶§à·Ĭ": 4927,
      "Ġà¶ħà¶¸à¶Ńà¶»": 4928,
      "Ġà¶½à·Ĵà¶ºà¶½à·ı": 4929,
      "Ġà¶½à·Ĳà¶¶à·Ļà¶±à·Ĭà¶±": 4930,
      "Ġà·Ħà·ıà¶¯à¶ºà·ı": 4931,
      "Ġà·Ģà·Ĵà¶¯à·Ĵà·Ħà·ļ": 4932,
      "ell": 4933,
      "à¶ļà·ĳà¶¸": 4934,
      "Ġà·ĥà¶±à·Ĭà¶°": 4935,
      "Ġà¶ħà¶¬": 4936,
      "Ġà¶±à·ľà·Ģà·Ļà¶ºà·Ĵ": 4937,
      "Ġà·Ģà¶©à·ıà¶Ńà·Ĭ": 4938,
      "à·Ģà·Ļà¶½à·ıà·Ģà·Ļà¶¸": 4939,
      "Ġà¶¸à¶§à¶ºà·Ĵ": 4940,
      "Ġà¶ļà¶¯": 4941,
      "Ġà¶ļà·Ĵà¶ºà¶´à¶±à·Ĭ": 4942,
      "à¶±à·Ĭà¶¯à·Ķà·Ģà¶ļà·Ĭ": 4943,
      "Ġà¶ľà¶¸": 4944,
      "Ġà¶ĳà¶»à·Ļà·Ħà·Ĵ": 4945,
      "à¶ļà·ĵà¶¸à¶ļà·Ĭ": 4946,
      "Ġà¶ļà·Ĵà¶ºà·Ļ": 4947,
      "Ġà·Ģà¶Ńà·ıà·Ģà·ļ": 4948,
      "à¶»à·ıà¶¢": 4949,
      "Ġà¶ħà¶±à·Ļà¶ļà·Ĭ": 4950,
      "Ġà¶ľà·Ķà·Ħ": 4951,
      "Ġà¶»à·ľà¶¶à·Ŀ": 4952,
      "Ġà·Ģà·Ļà¶¸à·Ķ": 4953,
      "Ġà·ĥà·Ĵà¶ºà·ħà·Ķ": 4954,
      "Ġà¶Ńà·ıà¶Ńà·Ĭà¶Ńà¶ľà·ļ": 4955,
      "Ġà¶ļà·Ļà¶½à·Ĭà¶½à·ļ": 4956,
      "Ġà¶ļà·ĥà·ıà¶¯à·Ļ": 4957,
      "à·Ģà·ļà·Ģà·Ĵ": 4958,
      "Ġà¶¯à·Ķà¶»à¶§à¶Ńà·Ĭ": 4959,
      "Ġà¶¸à·ıà¶½à·Ĵ": 4960,
      ":%": 4961,
      "Ġà¶Ńà·ıà¶Ńà·Ĭà¶Ńà·Ģ": 4962,
      "Ġà¶´à¶»à·ĵà¶ļà·Ĭà·Ĥà¶ļ": 4963,
      "Ġà·ĥà·Ķà¶±à·Ĭà¶¯à¶»": 4964,
      "Ġà¶ĩà¶±": 4965,
      "Ġà¶ľà·Ħà¶ľà·Ļà¶±": 4966,
      "Ġà·Ģà¶ľà·Ŀà¶¸": 4967,
      "Ġà¶ħà¶¯à·ıà¶½": 4968,
      "Ġà¶ºà·ıà¶½": 4969,
      "\"?čĊ": 4970,
      "ap": 4971,
      "à·Ģà·Ľ": 4972,
      "Ġà·ĥà·Ĳà¶¸à·Ĵà¶ºà·ı": 4973,
      "à¶¸à·Ĳà¶ļà·Ĭ": 4974,
      "à¶¢à¶±à¶ºà¶ļà·Ĭ": 4975,
      "à¶½à¶ºà·Ļà¶±à·Ĭ": 4976,
      "Ġà¶´à·Ħà·ħ": 4977,
      "Ġà¶¶à·ļà¶»à·Ļà¶±à·Ĭà¶±": 4978,
      "à¶Ĭà·ħà¶Ł": 4979,
      "Ġà¶½à·Ķà·Ħà·Ķà¶¶": 4980,
      "Ġà·ĥà·Ĭà¶®à·ıà¶´à¶±à¶º": 4981,
      "Ġà¶¶à·Ŀà¶§à·Ĭà¶§à·Ķà·Ģ": 4982,
      "Ġà¶»à·ıà¶ļà·Ĭà·Ĥ": 4983,
      "à¶¸à¶ºà¶ļà·Ĭ": 4984,
      "à¶½à·ļà¶Ľ": 4985,
      "..\"čĊ": 4986,
      "Ġà¶¸à¶ºà·Ĵà¶½à·Ĭà·ĥà·Ĭ": 4987,
      "à¶¸à¶±à·Ĭà¶©à·Ĭ": 4988,
      "Ġà·Ģà·Ļà¶½à·ļà¶¸": 4989,
      "à·Ĩà·Ŀ": 4990,
      "Ġà¶ļà·Ķà¶©à·Ķ": 4991,
      "Ġà¶ĳà¶Ńà·Ĳà¶±": 4992,
      "Ġà¶§à·ļ": 4993,
      "ohn": 4994,
      "à·ĥà·Ĵà·ĥà·Ĭ": 4995,
      "à·Ķà¶ºà·Ĵ": 4996,
      "à¶ľà·Ĳà¶±à·ĵà¶¸à·ļ": 4997,
      "à¶¯à·Ĵà·Ģà·Ĵ": 4998,
      "Ġà¶§à·ľà¶¸à·Ĭ": 4999,
      "Ġà¶¯à·ıà¶±à·Ģ": 5000,
      "Ġà·Ħà¶¸à·Ķà·Ģà·Ļ": 5001,
      "à·ĥà·ĥà·Ĭ": 5002,
      "à¶ļà·ıà¶½à¶º": 5003,
      "Ġà¶īà¶¯à·Ĭà¶¯à·Ĵ": 5004,
      "Ġà·Ģà·Ĵà¶ļà·Ķ": 5005,
      "here": 5006,
      "à·Ħà¶±à·Ļà¶¸à·Ĭ": 5007,
      "Ġà¶ħà¶ºà·Ĵà¶ºà·Ŀ": 5008,
      "à·Ħà·Ħà·Ĭ": 5009,
      "à¶ļà·Ŀà¶½à·Ĭ": 5010,
      "à·ĥà·Ħà·Ŀà¶¯à¶»": 5011,
      "Ġà¶Ńà·Ŀà¶»à·ıà¶ľà¶±à·Ĭà¶±": 5012,
      "Ġà¶©à·Ĵà¶»à·Ļà¶ļà·Ĭà¶§": 5013,
      "ect": 5014,
      "Ġà¶ħà¶³à·Ķà¶»": 5015,
      "Ġà¶¸à¶»à·Ĭ": 5016,
      "Ġà·Ģà·Ĵà·ģà·Ĭà·Ģ": 5017,
      "à·Ĵà¶ļà·ıà¶»": 5018,
      "Ġà¶Ńà¶¶": 5019,
      "à·ĥà·Ĭà¶®à·ıà¶±à¶º": 5020,
      "Ġà¶¸à¶Ńà·Ķ": 5021,
      "à¶ļà¶§à¶¯": 5022,
      "à¶Ĭà¶ºà·ļ": 5023,
      "Ġà¶½à¶ļà·ļà·ĥà·Ĭ": 5024,
      "Ġà¶¸à¶±à·Ķà·ĥà·Ĭà·ĥà¶ºà·ı": 5025,
      "Ġà·Ħà¶½à·Ŀ": 5026,
      "Ġà·ĥà¶Ĥà·Ģà·Ĵ": 5027,
      "à¶±à·Ĭà¶ľà·Ĭ": 5028,
      "à·´": 5029,
      "Ġà·Ģà·Ĳà¶©à·ĥà¶§à·Ħà¶±": 5030,
      "Ġà·Ħà·Ĵà¶§à¶ľà·Ļà¶±": 5031,
      "Ġà¶ĭà¶«à·Ķà·ĥà·Ķà¶¸à·Ĭ": 5032,
      "âĢįà¶»à¶ºà·Ŀà¶¢à¶±": 5033,
      "Ġà¶¸à·Ĵà·ĥà·Ĭ": 5034,
      "Ġà¶¢à·Ļà¶±à·ĵ": 5035,
      "à·ĥà¶»à¶º": 5036,
      "Ġà·ĥà¶Ĥà·ĥà·Ķà¶±à·Ĭ": 5037,
      "Ġà¶¶à¶¶": 5038,
      "à·Ħà¶»à·Ĵà¶¸": 5039,
      "à¶ľà·Ĳà¶±à·Ĭ": 5040,
      "Ġà·Ħà¶¬": 5041,
      "Ġà¶¶à·ľà¶»à·Ķà·Ģà¶ļà·Ĭ": 5042,
      "Ġà·ĥà·ħ": 5043,
      "à¶Ĩà¶ºà·Ļà¶Ńà·Ĭ": 5044,
      "Ġà¶ļà·ĸà¶´à¶»à·Ĭ": 5045,
      "Ġà¶ľà·Ħà¶±": 5046,
      "Ġà¶Ńà·Ĵà¶¶à·Ļà¶±": 5047,
      "à¶¸à·Ķà¶Ľ": 5048,
      "Ġà¶ħà¶´à·Ļà¶±à·Ĭ": 5049,
      "Ġà¶¯à¶ļà·Ĭà·Ĥà¶ºà·Ĵ": 5050,
      "Ġà¶ĭà¶±à·Ĭà¶±": 5051,
      "Ġà¶ļà·ľà·Ħà·Ļà·Ģà¶Ńà·Ĭ": 5052,
      "Ġà¶´à·Ĵà¶ºà·ıà¶¹": 5053,
      "Ġà¶Ķà·Ģà·Ķà¶±à·Ĭà¶ľà·Ļ": 5054,
      "Ġà¶±à·Ĳà¶Ńà¶Ńà·Ĭ": 5055,
      "Ġà¶ĩà¶½à·Ļà¶ļà·Ĭà·ĥà·Ĭ": 5056,
      "Ġà·ĥà¶Ńà·Ĵà¶ºà·ļ": 5057,
      "Ġà¶īà¶½à·Ĭà¶½à·ı": 5058,
      "Ġà¶¶à·Ĵà·ĥà·Ĭ": 5059,
      "Ġà¶ļà¶»à¶ľà¶±à·Ĭà¶±à·Ģà·ı": 5060,
      "à·ħà·Ķà·Ģà¶§": 5061,
      "Ġà·ģà·Ŀ": 5062,
      "Ġà¶ļà·ĵà·Ģà·ļ": 5063,
      "Ġà·Ģà·Ĵà¶½à·Ĭ": 5064,
      "à¶½à·Ĭà¶§à¶»à·Ĭ": 5065,
      "Ġà¶¸à·Ĵà¶±à·ĵ": 5066,
      "à¶Ńà·Ĭà·Ģà¶ºà¶ļà·Ĭ": 5067,
      "Ġà·ĥà¶¯à·ı": 5068,
      "à¶½à¶±à·Ĭà¶±": 5069,
      "à¶½à¶ľà·ļ": 5070,
      "Ġà¶ľà¶³": 5071,
      "Ġà·Ģà·Ļà¶¯à·Ĭà¶¯à·Ĵ": 5072,
      "à¶¸à·Ĭà¶¶à·ı": 5073,
      "Ġà¶ħà¶Ńà·Ĭà¶¯à·Ĳ": 5074,
      "Ġà¶´à¶«à·Ĵà·Ģà·Ĵà¶©": 5075,
      "Ġà¶´à¶Ń": 5076,
      "Ġà·Ħà·ĵà¶±à¶ºà¶ļà·Ĭ": 5077,
      "à·ĥà¶±": 5078,
      "à¶¯à·Ļà¶±à·ı": 5079,
      "Ġà¶¸à¶½à·Ĭà¶½": 5080,
      "Ġà¶»à¶ľ": 5081,
      "Ġà¶´à·Ļà¶±à·ĵ": 5082,
      "à·Ħà¶½à·Ĭ": 5083,
      "Ġà¶´à¶»à¶ļà·Ĭà¶ļà·Ķà¶ºà·Ĵ": 5084,
      "Ġà¶¸à¶Ĥà¶ļà·ľà¶½à·Ĭà¶½": 5085,
      "à¶¯à¶ļà·Ĭ": 5086,
      "Ġà¶Ńà·Ĵà¶ºà·ļà·Ģà·Ĵ": 5087,
      "Ġà¶ļà·Ķà·ħà·Ķ": 5088,
      "Ġà¶ļà·Ģà¶¯à·ıà·Ģà¶Ńà·Ĭà¶¸": 5089,
      "à¶ļà¶§à·Ĭà¶§à·Ĵà¶º": 5090,
      "Ġà·ĥà·Ĭà·Ģà¶ºà¶Ĥ": 5091,
      "Ġà¶±à·Ĵà¶ºà¶¸à·Ļà¶§": 5092,
      "Ġà¶¶à·ıà¶»à·Ĭ": 5093,
      "Ġà¶ļà·ľà¶½à·Ĭà¶½à·ľ": 5094,
      "à¶Ĥà¶¢à·Ĵ": 5095,
      "à¶°à¶±à¶º": 5096,
      "Ġthis": 5097,
      "Ġà·Ģà·ħ": 5098,
      "se": 5099,
      "Ġà¶ĳà¶±à¶ļà¶±à·Ĭ": 5100,
      "Ġà¶¸à·Ķà¶¯à·Ĭ": 5101,
      "à·Ĵà¶ºà·ı": 5102,
      "Ġà·Ħà·Ħà·Ĭ": 5103,
      "à¶¶à·Ĵà¶º": 5104,
      "Ġà¶¶à¶½à·Ĭà¶½à·ı": 5105,
      "Ġà·Ħà·Ķà¶»à·Ķ": 5106,
      "à¶ľà·Ķà·Ģà¶±à·Ĭ": 5107,
      "man": 5108,
      "à¶ļà·Ĵà¶§à·Ĭ": 5109,
      "***": 5110,
      "à¶¸à·Ļà·Ħà·Ĵ": 5111,
      "Ġà·Ħà¶¯à·Ģ": 5112,
      "à·Ģà·Ĵà¶łà·Ĭ": 5113,
      "Ġà¶»à·ĵ": 5114,
      "Ġà¶±à·Ĳà¶Ńà·Ĵà·Ģà·Ķà¶±à·ı": 5115,
      "Ġà·Ħà·Ĳà¶¸à¶¯à·ļ": 5116,
      "Ġà·Ħà·ıà¶±à·Ĵ": 5117,
      "Ġà¶¶à·Ħà·Ĵà¶±à·Ĭà¶±": 5118,
      "Ġà¶ĳà¶©à·Ĭ": 5119,
      "à¶Ńà·Ķà·Ģà¶ļà·Ĭà¶ļ": 5120,
      "à¶´à·ľà¶½à·ĵ": 5121,
      "Ġà¶ĳà¶ļà¶´à·ıà¶»": 5122,
      "Ġà¶ļà¶«à·Ĭà¶©à·ıà¶ºà¶¸à·Ĭ": 5123,
      "Ġà¶ħà¶±à·Ĭà¶°": 5124,
      "à¶ļà·ıà¶§à¶¯": 5125,
      "Ġà¶ħà¶Ńà·ĳ": 5126,
      "Ġà¶ļà·ĳà¶½à·Ĭà¶½": 5127,
      "à¶ļà¶½à·Ĵà¶±à·Ĭ": 5128,
      "Ġà¶¯à·Ĳà¶¸à·Ĭà¶¸à·ļ": 5129,
      "ye": 5130,
      "Ġà¶ļà¶±à·Ĭà¶¯": 5131,
      "Ġà¶ħà·Ģà¶¯à·ıà¶±": 5132,
      "Ġà¶´à·Ħà·ħà¶§": 5133,
      "Ġà¶´à·Ĵà·ĥà·Ĭà·ĥà·Ķà¶¯": 5134,
      "Ġà·ĥà·ĵà¶ºà·ı": 5135,
      "à·Ħà¶¯": 5136,
      "à·Ļà¶ļà·Ĭà¶¯": 5137,
      "Ġà¶ļà¶½à·Ļ": 5138,
      "âĢįà¶ºà¶¸": 5139,
      "Ġà¶¯à·Ĳà¶±à·Ĭà¶¸à¶¸": 5140,
      "Ġà·Ģà¶§à·Ĵà¶±à·Ģà·ı": 5141,
      "à¶¯à·ľà·ĥà·Ĭà¶Ńà¶»": 5142,
      "à¶±à·Ĵà·ĥà·ı": 5143,
      "à¶´à·Ĵà·ĥà·Ĭà·ĥà·Ķ": 5144,
      "Ġà¶ĭà¶¯à·Ĭ": 5145,
      "à¶»à·Ĭà¶½à·ľà¶ļà·Ĭ": 5146,
      "Ġà¶ļà·Ĳà¶¸à¶»à·ıà·Ģ": 5147,
      "Ġà¶¯à¶ļà·Ķà¶«à¶§": 5148,
      "à¶±à·Ĵà¶¯": 5149,
      "Ġà·ĥà·Ĵà¶§à·Ĵà¶º": 5150,
      "à¶¹à·Ķà¶»à·Ķ": 5151,
      "à¶¸à·Ĵà¶Ńà·Ĭ": 5152,
      "Ġà¶Ķà¶»à¶½à·Ŀ": 5153,
      "Ġà·Ģà·Ĳà¶©à·Ĵà¶ºà·Ļà¶±à·Ĭ": 5154,
      "60": 5155,
      "Ġà¶Ķà¶ºà·ıà¶¸": 5156,
      "Ġà¶ľà¶½à·Ģà¶±à·Ĭà¶±": 5157,
      "end": 5158,
      "à¶»à·Ķà·Ģà·Ĵà¶Ń": 5159,
      "Ġà¶»à·Ĵà¶¯à·Ĭà¶¯": 5160,
      "rance": 5161,
      "Ġà·Ģà·Ļà¶±à·ĥ": 5162,
      "à¶ľà·Ĳà¶±à·ĵà¶¸à¶ļà·Ĭ": 5163,
      "Ġà¶¸à·ľà¶½à·ļ": 5164,
      "Ġà¶´à·Ĵà¶§à·Ĵà¶±à·Ĭ": 5165,
      "à¶ºà·Ĭ": 5166,
      "..\"": 5167,
      "Ġà¶ļà¶¸à·Ĵ": 5168,
      "à·ħà¶¸à¶ºà·Ĵ": 5169,
      "Ġà¶ļà¶»à¶±à·Ķ": 5170,
      "à¶½à·Ĵà¶½à·ı": 5171,
      "Ġà·ĥà·Ĵà¶±": 5172,
      "à·Ħà·Ĵà¶½à·ı": 5173,
      "à¶»à·ıà·Ģà¶ļà·Ĭ": 5174,
      "à·Ł": 5175,
      "Ġà¶ľà¶¸à¶±à·Ĭà¶¸": 5176,
      "à·Ļà¶Ń": 5177,
      "Ġà¶¢à·Ļà¶±": 5178,
      "Ġà¶¯à·Ĵà·Ģà·Ĭ": 5179,
      "Ġà¶±à·Ĵà¶¯à·Ĵ": 5180,
      ").čĊ": 5181,
      "ĠAl": 5182,
      "Ġà¶īà¶¸à·Ķ": 5183,
      "Ġà¶¯à·Ķà¶»à¶§": 5184,
      "à¶¸à¶»à·Ĭ": 5185,
      "à¶ľà·ıà·Ģ": 5186,
      "à¶ĩà¶±à·Ĭ": 5187,
      "à·Ģà·Ĵà¶§à¶¸": 5188,
      "Ġà¶Ķà·ħà·Ķà·Ģ": 5189,
      "Ġà¶Ĩà¶ļà·Ĭ": 5190,
      "Ġà¶»à¶Ńà·Ĭà¶Ńà¶»": 5191,
      "az": 5192,
      "âĢįà¶»à¶ºà·ļ": 5193,
      "Ġà¶¯à·Ĳà¶±à·Ļà¶±": 5194,
      "Ġà¶Ńà·Ĵà¶ºà·Ļà¶ºà·Ĵ": 5195,
      "à¶ļà¶ºà·ľ": 5196,
      "à·Ĩà·Ļ": 5197,
      "Ġà¶ľà·Ĵà¶ºà·ıà¶¯": 5198,
      "à¶»à·Ĭà¶Ńà¶¸à·ļà¶±à·Ĭ": 5199,
      "à·ĳà¶±à·Ĭà¶©à·Ĭ": 5200,
      "à¶ĳà¶½à·Ĭ": 5201,
      "Ġà¶ĩà¶½à·Ĭ": 5202,
      "à¶´à¶½à·Ĭà¶½à·ı": 5203,
      "Ġà¶¯à·Ĵà·Ģà·Ĵ": 5204,
      "Ġà¶´à¶»à·ĵ": 5205,
      "à¶Ńà·Ķà·Ģà¶ļà·Ĭ": 5206,
      "Ġà¶½à·Ĵà¶ºà·ı": 5207,
      "à¶§à·Ĵà¶±à·Ģà·ı": 5208,
      "Ġà¶±à¶ľà¶»à·Ļ": 5209,
      "Ġà·Ģà·Ĳà¶§à·Ļà¶±à·Ģà·ı": 5210,
      "Ġà¶´à·ıà¶»à·Ģà¶½à·Ĭ": 5211,
      "à¶ºà¶±à·Ĭà¶§": 5212,
      "Ġà¶©à·ĵ": 5213,
      "à¶ľà·Ķà¶«": 5214,
      "Ġà¶¯à·Ķà¶»à¶ļà¶®à¶±à¶º": 5215,
      "Ġà·Ħà·Ĵà¶Ńà·Ļà¶±à·Ĭà¶±à·Ļ": 5216,
      "à·Ĥà·Ĵà¶§à·Ĭ": 5217,
      "Ġà·Ħà¶»à·Ĵà¶±à·ļ": 5218,
      "Ġà¶¯à·Ħà·ĥà·Ĭ": 5219,
      "Ġà¶ħà·ĥà¶»": 5220,
      "Ġà·ĥà·Ĵà¶´": 5221,
      "ies": 5222,
      "Ġà¶īà¶§à·Ķ": 5223,
      "Ġà¶łà·ĸ": 5224,
      "Ġà¶ºà·ıà·ħà·Ķà·Ģà·Ŀ": 5225,
      "Ġà¶½à·Ĳà¶¶à·Ķà¶«": 5226,
      "à¶ļà¶½à¶¶à¶½": 5227,
      "Ġà¶ľà·Ķà¶»à·Ķà·Ģ": 5228,
      "Ġà¶¸à·ĸà¶½": 5229,
      "Ġà¶ĭà¶´à¶¯à·Ļà·ĥà·Ĭ": 5230,
      "Ġà¶±à·Ĵà·Ģà·Ĭà¶ºà·Ŀ": 5231,
      "Ġà·Ħà·Ĵà¶Ńà·Ķà¶±à·ı": 5232,
      "Ġà·Ģà¶Ĥà¶łà·ı": 5233,
      "eb": 5234,
      "Ġà¶´à·Ķà¶Ńà·ıà¶§": 5235,
      "Ġà¶ļà·Ĳà¶Ń": 5236,
      "à¶ļà¶»à¶ľà·Ļà¶±": 5237,
      "à¶Ĭà¶½à¶ľ": 5238,
      "Ġà·Ģà¶»à·Ĭà¶«": 5239,
      "Ġà¶¢à·ıà¶Ńà·Ĵà¶ļ": 5240,
      "à¶¯à·Ķà¶¸à¶ļà·Ĭ": 5241,
      "à¶ºà¶ļà·Ĵà¶±à·Ĭ": 5242,
      "Ġà¶¸à·ħ": 5243,
      "Ġà¶ĩà¶Łà·Ĵà¶½à·Ĵ": 5244,
      "Ġcom": 5245,
      "Ġà¶¸à·Ĵà¶Ńà·Ķà¶»": 5246,
      "Ġà¶īà¶³à¶ľà·Ļà¶±": 5247,
      "Ġà¶ĩà¶Ńà·Ĭà¶Ńà¶¯": 5248,
      "Ġà·ĥà·Ħà·Ŀà¶¯à¶»à·Ĵà¶º": 5249,
      "à·Ĵà¶ºà·Ķà¶ľà·Ŀ": 5250,
      "Ġà·ĥà¶ļà·ĥà¶±à·Ĭà¶±": 5251,
      "Ġà·Ģà·Ĵà¶¯à·Ķà¶½à·Ĵ": 5252,
      "à·ļà·ģ": 5253,
      "Ġà¶´à¶§à·Ĭà¶§": 5254,
      "est": 5255,
      "Ġà¶Ķà·Ħà·ļà¶ľà·ļ": 5256,
      "Ġà·Ħà¶©": 5257,
      "Ġà¶¢à¶»à·Ĭ": 5258,
      "à¶Ķà¶ºà·ıà¶§à¶Ńà·Ĭ": 5259,
      "Ġà·ĥà¶¯à·Ħà¶§à¶¸": 5260,
      "Ġà¶©à·Ĳ": 5261,
      "Ġà·ĥà·Ĳà¶Ńà¶´à·Ķà¶¸à·Ĭ": 5262,
      "Ġà¶½à·ľà¶ļà·Ĭ": 5263,
      "Ġà¶¯à¶ºà¶ļà·Ŀ": 5264,
      "Ġà¶¯à·ļà·ģà¶´à·ıà¶½": 5265,
      "à¶¯à·ĳ": 5266,
      "itle": 5267,
      "Ġà¶ħà¶ºà¶ľà·ļ": 5268,
      "Ġà¶¯à·Ľà·Ģà¶º": 5269,
      "Ġà¶ļà·Ĳà¶©à·Ķ": 5270,
      "ype": 5271,
      "Ġà¶ħà¶½à·Ĭà¶½à¶ľà¶Ńà·Ĭà¶Ńà·ı": 5272,
      "Ġà¶ºà¶±à¶ļà·ľà¶§": 5273,
      "Ġà¶´à·ľà¶½à·ĵà·ĥà·Ĵà¶º": 5274,
      "à¶¸à·ıà¶¢à·Ĵà¶ļ": 5275,
      "Ġà¶Ńà¶¸à¶±à·Ĭà¶ľà·Ļ": 5276,
      "Ġà·Ħà·Ģà·ĥ": 5277,
      "Ġà¶ºà·ļ": 5278,
      "à¶´à·Ĳà¶Ńà·Ķà¶¸à·Ĭ": 5279,
      "Ġà¶ļà·Ķà¶¸à¶ļà·Ĭà¶¯": 5280,
      "Ġà¶¯à·Ķà·Ģà·Ģ": 5281,
      "Ġà¶±à·ıà·Ģà·Ĵà¶ļ": 5282,
      "Ġà·Ħà·ľà¶½à·Ĭ": 5283,
      "Ġà¶¯à·Ĳà¶©à·Ĵ": 5284,
      "Ġà¶ļà·Ķà¶«à·ı": 5285,
      "Ġà¶Ĩà¶»à¶Ĥà¶łà·Ĵ": 5286,
      "Ġà¶ļà·Ĵà¶ºà¶½à·Ģà¶Ńà·Ĭ": 5287,
      "Ġà¶Ńà¶»à·Ħà·ı": 5288,
      "Ġà¶´à·ľà¶©à·Ĭà¶©": 5289,
      "à¶¸à¶ľà·Ķà¶½": 5290,
      "Ġà¶ĳà·ĥà·ļ": 5291,
      "Ġà¶¶à¶½à¶´à¶Ńà·Ĭ": 5292,
      "à·ĥà·Ķà¶¯à·Ķ": 5293,
      "Ġà¶Ĩà·Ģà¶§": 5294,
      "Ġà¶Ńà·Ĵà¶ºà¶½": 5295,
      "Ġà¶¸à·Ĳà¶»à·Ķà¶±à·ı": 5296,
      "Ġà·ĥà¶»à¶½": 5297,
      "ok": 5298,
      "à·Ħà·Ļà¶±à¶Ĥ": 5299,
      "Ġà¶¸à¶ľà·Ķà¶½": 5300,
      "Ġà¶´à¶¸à¶±": 5301,
      "Ġà¶ļà·Ĭà¶½à·Ļ": 5302,
      "à·Ħà¶±à¶ļà·Ĭ": 5303,
      "Ġà¶±à·Ĵà¶¯à·Ħà·ĥ": 5304,
      "à·Ħà·Ĳà¶¸à¶¯à·Ļà¶ºà¶ļà·Ĭà¶¸": 5305,
      "Ġà¶ļà·Ĵà·Ģà·ļ": 5306,
      "Ġà¶±à·Ĵà·Ģà·ıà·ĥ": 5307,
      "Ġà¶´à·ľà¶½à·ĵà·ĥà·Ĵà¶ºà¶§": 5308,
      "Ġà¶ļà·Ĳà¶±à·Ĭ": 5309,
      "à·ģà¶¶à·Ĭà¶¯": 5310,
      "Ġà¶ļà·Ĳà¶½à·ļ": 5311,
      "Ġà¶¸à·Ļà¶±à·Ĭ": 5312,
      "Ġà¶ľà¶Ńà·Ĭ": 5313,
      "à¶´à·Ĵà¶»à·Ĵà¶Ńà·ı": 5314,
      "Ġà·Ģà·Ļà¶±à·Ĭà¶±à¶¸à·Ĭ": 5315,
      "à¶ľà¶±à·Ĭà¶±à·Ļ": 5316,
      "Ġà¶Ńà·Ĵà¶¶à·Ķà¶«à·ļ": 5317,
      "Ġà·Ħà¶Ń": 5318,
      "Ġà·ĥà¶Ĥà¶ļà·ĵà¶»à·Ĭà¶«": 5319,
      "à¶ħà¶±à·Ķ": 5320,
      "à¶Ķà¶Ńà¶±": 5321,
      "Ġà¶¸à·ļà¶ļà·Ļ": 5322,
      "à·Ħà¶©": 5323,
      "à¶ļà·ľà·Ħà·Ļà¶±à·Ĭà¶¯": 5324,
      "Ġà¶¯à·Ĵà·Ģà·Ķà¶»": 5325,
      "à¶ºà·ĵ": 5326,
      "Ġà¶Ĩà·Ħà·Ĭ": 5327,
      "io": 5328,
      "Ġà¶¯à·ĵà¶½": 5329,
      "Ġà¶±à·ľà¶¸à·Ĳà¶Ńà·Ĵ": 5330,
      "Ġà¶»à·Ħà·ĥà¶ļà·Ĭ": 5331,
      "Ġà·Ħà·Ĳà¶¯à·Ĵà¶½à·ı": 5332,
      "Ġà¶Ĵà·Ģà¶§": 5333,
      "Ġà¶Ĩà·ģà·Ĭ": 5334,
      "Ġà¶¢à·ļà¶¸à·Ĭà·ĥà·Ĭ": 5335,
      "Ġà·Ģà¶±à·ļà¶±à·Ļ": 5336,
      "à¶ľà¶±à·Ĵà¶ºà·Ĵ": 5337,
      "Ġà¶ĩà¶½à·Ĭà¶½": 5338,
      "Ġà¶¢à·Ĳ": 5339,
      "à¶ºà¶Ńà·Ĭ": 5340,
      "Ġà¶±à·ıà¶ºà¶ļà¶ºà·ı": 5341,
      "à¶¸à·Ĵà·ĥà·Ĭ": 5342,
      "à¶¸à¶ł": 5343,
      "Ġà¶Ńà·Ĵà¶ºà¶±à·Ĭ": 5344,
      "Ġà¶ļà¶»à·Ķà¶«à·ıà¶ļà¶»à¶½": 5345,
      "Ġà·Ģà·Ĳà¶½": 5346,
      "Ġà¶Ķà·Ħà·Ļ": 5347,
      "Ġà¶±à·Ĳà¶Ńà·Ĵà·Ģà·Ļà¶ºà·Ĵ": 5348,
      "Ġà·ĥà·ľà¶½à·Ĭà¶¯à·ı": 5349,
      "Ġà¶ĩà¶¸à¶Ńà·Ĵ": 5350,
      "Ġà¶ºà·Ŀà¶¢à¶±à·ı": 5351,
      "Ġà¶łà¶±à·Ĭà¶¯à·Ĭ": 5352,
      "Ġà·ĥà·ıà¶°à·ıà¶»à¶«": 5353,
      "Ġà¶¶à·ĵà¶¸": 5354,
      "à¶´à·Ĵà¶Ńà·ıà¶±à·Ĭ": 5355,
      "Ġà¶´à·ıà¶»à¶§": 5356,
      "Ġà¶Ńà·Ķà¶¸à·ı": 5357,
      "Ġà¶ľà·Ĵà¶ºà·ıà¶§": 5358,
      "Ġà¶Ńà¶Ńà·Ĭà·Ģà·Ļ": 5359,
      "Ġà·Ģà¶§à·Ĭà¶§": 5360,
      "Ġà¶Ńà¶Ńà·Ĭà·Ģà¶ºà¶§": 5361,
      "ly": 5362,
      "à¶´à¶»à·ĵà¶ļà·Ĭà·Ĥ": 5363,
      "Ġà¶ľà¶±à·ĵà·Ģà·Ĵ": 5364,
      "Ġà¶¯à·Ļà¶±à·Ĭà¶±à¶§à¶¸": 5365,
      "à¶ļà·ıà¶¸": 5366,
      "Ġà¶¯à·Ĳà¶±à·Ķà¶±à·ı": 5367,
      "à¶Ĩà¶ºà·Ķà¶¶à·Ŀà·Ģà¶±à·Ĭ": 5368,
      "à¶±à·Ĭà¶»à·Ŀ": 5369,
      "Ġà¶¶à¶½à·ıà¶´à·ľà¶»à·ľà¶Ńà·Ĭà¶Ńà·Ķà·Ģ": 5370,
      "Ġà¶¯à·Ļà¶´à·ıà¶»à·Ĭà¶Ńà¶¸à·ļà¶±à·Ĭ": 5371,
      "Ġà·ĥà·Ĭà·Ģà¶·à·ıà·Ģ": 5372,
      "Ġà·Ļà¶±": 5373,
      "Ġà¶ĭà¶´à¶¯à·ļà·ģ": 5374,
      "à·Ķà·Ģà·ľà¶Ńà·Ĭ": 5375,
      "à¶§à·ļ": 5376,
      "Ġà¶ļà·Ļà¶±à·ıà¶§": 5377,
      "à¶»à·Ļà¶±à·Ĭ": 5378,
      "Ġà¶±à·Ĳà¶Ńà·Ĭà¶Ńà¶Ĥ": 5379,
      "à¶¯à·Ĵà¶±à·Ĭà¶±à·ļ": 5380,
      "Ġà·Ģà¶½à¶¯à·ĵ": 5381,
      "à¶ħà·Ģà·Ķà¶½à¶ļà·Ĭ": 5382,
      "Ġà¶±à·Ĵà¶ºà·Ŀà¶ľ": 5383,
      "Ġà·Ģà¶±à·Ĭà¶±à·ļ": 5384,
      "Ġà·Ģà·ıà¶»à·Ĭà¶®à·ı": 5385,
      "Ġà¶¸à·ļà¶ļà¶ºà·Ĵ": 5386,
      ",à¶ħà¶´à·Ĵ": 5387,
      "Ġà¶¯à¶±à·Ĭà¶±à·ı": 5388,
      "Ġà¶īà¶½à¶ļà·Ĭà¶ļà¶º": 5389,
      "Ġà¶´à·Ĭà¶»": 5390,
      "à¶´à·Ļà¶»": 5391,
      "à·ĵà·Ģà·Ĵ": 5392,
      "Ġà¶ĩà¶¯à·Ķà¶¸": 5393,
      "Ġà¶ľà¶Ł": 5394,
      "Ġà·Ĥà·Ŀ": 5395,
      "Ġà¶ħà¶ļà¶¸à·Ĳà¶Ńà·Ĵ": 5396,
      "à·Ķà·Ģà¶»à·Ĭ": 5397,
      "Ġà¶ļà·Ĵà¶ºà¶¸à·Ķ": 5398,
      "à·Ħà·ıà¶¸": 5399,
      "à¶ľà·Ļà¶±à·Ħà·Ĵà¶»": 5400,
      "Ġà¶ħà·Ģà¶°à·ıà¶±": 5401,
      "Ġà¶¯à·Ĵà¶ľà·ļ": 5402,
      "Ġà¶ľà·Ļà¶±à·ıà·Ģ": 5403,
      "Ġpro": 5404,
      "Ġà·Ĥà·Ļ": 5405,
      "à¶ļà¶¸à¶§": 5406,
      "à·Ĩà·Ĵà·ĥà·Ĭ": 5407,
      "Ġà·ĥà·Ĭà¶®à·Ĵ": 5408,
      "Ġà¶´à·ĺà¶®à·Ĵ": 5409,
      "Ġà¶ħà¶¯à·Ķà¶»": 5410,
      "à¶ĳà¶ļà·ļ": 5411,
      "Ġà·Ļà·Ģà¶±à·Ĭà¶±": 5412,
      "Ġà¶ĩà¶Ńà·Ķà·ħà·Ķ": 5413,
      "ive": 5414,
      "Ġà¶»à·ĥà·ı": 5415,
      "Ġà¶ħà¶±à·Ĭà¶Ńà¶»à·Ĭ": 5416,
      "Ġà¶īà¶½à·Ĭà¶½à¶±à·Ģà·ı": 5417,
      "Ġà·Ħà·Ĳà¶¸à¶Ńà·Ĵà·ĥà·Ĭà·ĥà·Ļà¶¸": 5418,
      "Ġà¶¯à·Ļà·Ģà·Ĵà¶ºà¶±à·Ĭà¶§": 5419,
      "Ġà¶ĳà¶ļà¶ļà·Ĭà¶¯": 5420,
      "à¶ľà¶Ńà·Ĭà¶Ńà·Ķ": 5421,
      "Ġà¶´à·ľà¶¯à·Ķ": 5422,
      "Ġà¶¸à·ıà¶°à·Ĭ": 5423,
      "age": 5424,
      ".à¶¸à¶¸": 5425,
      "Ġà¶Ńà·Ŀà¶»à¶±à·Ĭà¶±": 5426,
      "à·Ķà¶±à·ļ": 5427,
      "Ġà·ģà·ıà¶½à·ı": 5428,
      "à·ıà¶¯": 5429,
      "à¶łà¶»à·Ĭ": 5430,
      "à¶½à¶±à·Ĭà¶©à·Ĭ": 5431,
      "ord": 5432,
      "à¶ļà¶»à·Ķà¶±à·ı": 5433,
      "Ġà¶¢à·ıà¶Ńà·Ĵà¶º": 5434,
      "Ġà·Ħà·Ĳà¶¸à·Ģà·Ļà¶½à·ıà·Ģà·Ļà¶¸": 5435,
      "à¶ļà¶¯": 5436,
      "Ġà¶Ńà·ļà¶»à·Ķà¶±à·ıà¶¯": 5437,
      "à¶Ńà¶¸à·Ķà·ĥà·Ļà¶§": 5438,
      "Ġà¶¶à¶±à·Ĵ": 5439,
      "à·Ħà·ĸ": 5440,
      "Ġà¶ĩà¶´": 5441,
      "Ġà¶ļà·Ķà¶½à·Ĵà¶ºà¶§": 5442,
      "Ġà¶ļà¶³à·Ģà·Ķà¶»": 5443,
      "Ġà¶ļà·ĵà·Ģà·ı": 5444,
      "Ġà¶ĩà·Ħà·Ķà¶±à¶¯": 5445,
      "à¶±à¶Ńà·Ĭ": 5446,
      "Ġà·ĥà¶Ĥà¶¥à·ı": 5447,
      "Ġà¶¸à·Ŀà¶©à¶ºà·ı": 5448,
      "à¶ħà¶Ńà¶±": 5449,
      "bo": 5450,
      "Ġà¶¯à·Ļà¶±à·Ĭà¶±à¶¯": 5451,
      "Ġà¶»à·ĥà·Ĭà·ĥà·ıà·Ģà¶ļà·Ĭ": 5452,
      "Ġà¶¶à·ıà¶ľà¶ºà¶ļà·Ĭ": 5453,
      "à¶ľà·Ħà¶±à·Ĭà¶±": 5454,
      "Ġà·ĥà·Ĳà¶¸": 5455,
      "Ġà¶Ńà·Ĵà¶ºà·Ļ": 5456,
      "à¶¸à·Ķà·Ģà·ı": 5457,
      "Ġà¶¸à¶Ńà¶ļà¶º": 5458,
      "à·ĳà¶±à·Ĭà¶ľà·Ĭ": 5459,
      "Ġà¶ľà¶¸à·Ĭ": 5460,
      "à¶ľà·ľà¶±à·Ķà·Ģ": 5461,
      "Ġà¶īà·ĥà·Ĭà¶ļà·Ŀà¶½à·Ļ": 5462,
      "à¶ĩà·ĥà·Ĭ": 5463,
      "Ġà¶ľà·Ĳà¶±à¶Ńà·Ĭ": 5464,
      "à¶¢à·ļà¶±à·Ĭ": 5465,
      "ear": 5466,
      "Ġà¶·à¶º": 5467,
      "Ġà¶¸à·ĸà¶½à·Ĵà¶ļ": 5468,
      "Ġà·ĥà¶§à¶±": 5469,
      "Ġà¶Ńà¶¯à·Ĵà¶±à·Ĭ": 5470,
      "ipp": 5471,
      "Ġà¶ļà¶±à¶ľà·ı": 5472,
      "à·Ħà·Ĳà¶¸à·Ŀà¶§à¶¸": 5473,
      "Ġà¶´à·Ĵà¶±à·Ĭà¶Ńà·Ķà¶»": 5474,
      "à¶»à·Ĵà·Ĩà·Ĭ": 5475,
      "Ġà¶±à·ľà·Ģà·Ļà¶±à·Ĭà¶±": 5476,
      "à·Ģà¶ľà¶±à·Ĭà¶±": 5477,
      "à¶ħà¶·": 5478,
      "Ġà¶ĳà¶±à¶ļà·ľà¶§": 5479,
      "à¶½à·Ĵà¶ºà¶§à·Ĭ": 5480,
      "Ġà·Ħà·Ĵà¶Ńà·Ķà·Ģà¶¯": 5481,
      "Ġà¶±à·Ĵà¶»à·Ĭà¶·à·ĵà¶Ń": 5482,
      "à·Ģà·Ĳà¶©à·ļ": 5483,
      "à¶½à·Ĭà¶½à·Ļà¶±à·Ĭ": 5484,
      "à¶¶à·ľà¶»à·Ķ": 5485,
      "Ġà¶Ķà¶ºà·ıà¶¯": 5486,
      "à¶Ķà·Ħà·Ķà¶ľà·Ļ": 5487,
      "Ġà¶ĭà¶Ńà·Ĭà·ĥà·Ģ": 5488,
      "Ġà·ĥà·Ķà¶¯à·Ĭà¶¯": 5489,
      "à·Ģà¶§à·Ĭà¶§": 5490,
      "Ġà·Ħà·ļà¶Ńà·Ķ": 5491,
      "Ġà·Ħà·Ĳà¶ļà·Ĵà¶ºà·ıà·Ģà¶ļà·Ĭ": 5492,
      "à¶±à·Ĵà¶»à·Ĭ": 5493,
      "Ġà¶¸à·Ħà¶Ńà·ı": 5494,
      "indow": 5495,
      "Ġà¶ľà¶±à·Ĭà¶±à¶¯": 5496,
      "à¶½à·ĵà¶±": 5497,
      "Ġà¶ļà·Ĭà¶½": 5498,
      "Ġà¶ħà¶¸à·Ĭà¶¸à·Ģ": 5499,
      "Ġà·Ħà¶ºà·Ĵà¶ºà·Ļà¶±à·Ĭ": 5500,
      "à¶¸à·Ĵà¶½à·Ĵ": 5501,
      "Ġà¶łà·Ļà¶ļà·Ĭ": 5502,
      "Ġà¶ħà·Ģà¶¯à·Ĵ": 5503,
      "à·ıà·Ģà·Ĭ": 5504,
      "à¶´à·Ĳà·Ħà·Ĳà¶¯à·Ĵà¶½à·Ĵ": 5505,
      "Ġà¶¸à·ĺà¶¯à·Ķ": 5506,
      "Ġà·ĥà¶¸à·Ĭà¶´à·Ĭ": 5507,
      "à¶¶à·Ļà¶½à·Ĭ": 5508,
      "Ġà¶ľà·Ĵà¶±à·Ĭà¶±": 5509,
      "à·Ģà¶»à¶ºà·ı": 5510,
      "Ġà¶¸à·Ļà·Ħà·Ļà¶º": 5511,
      "Ġà¶¯à¶¬à·Ķà·Ģ": 5512,
      "Ġà¶īà·Ģ": 5513,
      "Ġà¶ļà¶±à·Ģà·ı": 5514,
      "Ġà·ĥà·ıà¶ļà·Ĭà¶ļ": 5515,
      "Ġà¶´à·Ĵà¶§à·Ĵà¶´à·ĥà·Ĭà·ĥà·Ļ": 5516,
      "Ġà¶¶à·ľà¶Ńà·Ĭà¶Ńà¶¸": 5517,
      "âĢįà¶Ńà·Ĵ": 5518,
      "Ġà¶ħà¶Ńà·Ħà·Ĳà¶»": 5519,
      "ho": 5520,
      "Ġà¶¶à·Ĵà·Ħà·Ĵ": 5521,
      "Ġà¶ĭà·ĥà·ıà·Ģ": 5522,
      "Ġà¶ºà¶ļà·Ĭà·Ĥ": 5523,
      "à¶ħà¶±à·Ĭà¶Ńà·Ĵà¶¸": 5524,
      "à¶ļà·Ĭà¶ļà·ıà¶»": 5525,
      "Ġà¶Ńà·ļà¶»à·Ķà¶¸à·Ĭà¶ľà¶±à·Ĭà¶±": 5526,
      "Ġà·Ħà¶¸à·Ķà·Ģà·ĵà¶¸": 5527,
      "Ġà¶»à·Ħà·ĥ": 5528,
      "Ġà¶ļà¶§à·Ķ": 5529,
      "Ġà¶¯à·Ķà·Ģà¶§": 5530,
      "Ġà¶±à·Ĵà·ĥà·Ĳà¶ļà·Ģà¶¸": 5531,
      "Ġyour": 5532,
      "Ġà¶ĳà¶ļà¶ļà·Ĭà¶¸": 5533,
      "Ġà¶Ĩà¶ļà·ıà¶»à¶º": 5534,
      "Ġà¶ļà¶±à·Ļ": 5535,
      "à·Ģà¶»à¶ºà·Ļà¶ļà·Ĭ": 5536,
      "à·ģà·ıà·Ģ": 5537,
      "Ġà¶ļà·Ĳà¶¸à¶Ńà·Ĵà¶¸": 5538,
      "à¶´à¶«à·Ĵà·Ģà·Ĵ": 5539,
      "Ġà¶¯à·ĳ": 5540,
      "Ġà¶ļà·Ĳà¶»à¶ļ": 5541,
      "à¶ºà¶ļà¶ºà·ı": 5542,
      "Ġà¶Ńà·Ĵà·ĥà·Ĭà·ĥà·Ļ": 5543,
      "Ġà¶¶à¶½à¶ºà¶ļà·Ĭ": 5544,
      "Ġà¶ĭà¶»": 5545,
      "Ġà·Ħà·ıà¶»": 5546,
      "à·Ģà·Ķà¶¸": 5547,
      "Ġà·Ģà·Ķà¶±à·Ķ": 5548,
      "Ġà¶´à·Ħà¶Ń": 5549,
      "ake": 5550,
      "à¶±à·Ķà¶ļà·ĸ": 5551,
      "Ġà¶¸à¶»à¶½": 5552,
      "à·ĥà·Ĵà¶ºà·ıà¶±à·Ķ": 5553,
      "à¶¸à·Ļà·Ħà·Ļà¶¸": 5554,
      "Ġà·Ģà·Ĵà¶¯à·Ĵà·Ħà¶§à¶¸": 5555,
      "Ġà¶īà¶©à¶¯à·Ļà¶±à·Ĭà¶±": 5556,
      "Ġà¶ļà·ľà·Ħà·Ļà¶Ńà·Ĭà¶¸": 5557,
      "Ġà¶ľà·Ļà¶±à·ıà·Ģà·ļ": 5558,
      "ass": 5559,
      "à¶±à·Ĵà¶¸à·Ĵ": 5560,
      "Ġà¶ĭà¶±à·Ĭà¶±à·ļ": 5561,
      "à¶ºà¶ļà·ļ": 5562,
      "à·ĥà¶ºà¶ļà·Ĭ": 5563,
      "Ġà¶ļà·Ĵà·ĥà·Ĵà¶¯à·Ļà¶ºà¶ļà·Ĭ": 5564,
      "Ġà¶ħà¶¸à·ıà¶»à·Ķà·Ģ": 5565,
      ",à¶Ĵà¶ļ": 5566,
      "âĢįà¶±à·Ĵ": 5567,
      "à·Ļà¶ºà¶ļà·Ĭ": 5568,
      "Ġà·Ĩà·ļ": 5569,
      "Ġà·Ħà¶¸à·Ĭà¶¶à·Ļà¶±à·Ĭà¶±": 5570,
      "Ġà¶ļà·Ļà¶½à·Ĭà¶½à·Ģ": 5571,
      "Ġà¶Ńà·ıà¶Ńà·Ĭà¶Ńà·Ļ": 5572,
      "à¶Ńà·Ĳà¶±à·Ĭ": 5573,
      "Ġà¶Ĩà¶Ńà·Ĭà¶¸à¶º": 5574,
      "Ġà¶ĭà¶½à·Ĭ": 5575,
      "à·Ħà¶»à·Ķ": 5576,
      "Ġà·Ħà·Ĵà¶»à·Ĵ": 5577,
      "à¶ĳà¶ļà·Ļà¶±à·Ĭ": 5578,
      "à¶Ķà·Ģà·Ķà¶±à·Ĭà¶ľà·ļ": 5579,
      "à¶ĳà¶±à·Ĭ": 5580,
      "Ġà¶¢à·ļà¶ļà·Ĭ": 5581,
      "à¶ĳà¶¸": 5582,
      "âĢĵ": 5583,
      "Ġà¶¯à·Ĵà¶±à·ı": 5584,
      "Ġà·ĥà·Ļà¶±à·Ĭ": 5585,
      "gin": 5586,
      "à¶Ńà·ļà¶»à·Ķ": 5587,
      "Ġà¶ļà¶½à·ıà¶§": 5588,
      "à·ĥà¶¸à·ıà·Ģ": 5589,
      "Ġà¶ľà·Ĵà¶ºà·Ļ": 5590,
      "Ġà¶ļà·ľà¶±à·Ĭà¶¯à·ļ": 5591,
      "Ġà¶¯à·Ĵà¶±à·Ķ": 5592,
      "à¶¶à·Ŀà¶°": 5593,
      "Ġà·Ħà·Ĵà·ĥ": 5594,
      "Ġà¶ļà·ıà¶§à·Ħà¶»à·Ĵ": 5595,
      "Ġà·Ģà·Ĵà¶·à·ı": 5596,
      "Ġà¶´à·Ĵà¶§à·Ĵà¶´à·ĥà·Ĭà·ĥà·Ļà¶±à·Ĭ": 5597,
      "Ġà¶¯à·Ĵà¶ľà·Ķ": 5598,
      "à¶ļà¶½à·ıà¶¶à¶»": 5599,
      "Ġà¶ĭà¶ľà¶±à·Ĭà¶±": 5600,
      "à·ģà·Ŀ": 5601,
      "tr": 5602,
      "âĢįà·Ħ": 5603,
      "à¶ļà¶ºà¶§": 5604,
      "Ġà·Ħà·Ļà¶±à·Ĭ": 5605,
      "à·Ħà·Ĵà¶Ńà¶±à·Ĭà¶±": 5606,
      "à¶§à·ĥà·Ĭ": 5607,
      "Ġà¶ľà¶±à·Ĭ": 5608,
      "à¶ļà·Ĭà·Ĥà·Ĵ": 5609,
      "Ġà¶łà·Ķ": 5610,
      "Ġà¶¸à·Ĳà·ĥà·Ĭà·ĥ": 5611,
      "Ġà¶±à¶»à¶ļà¶¸": 5612,
      "à¶½à¶±": 5613,
      "Ġà·Ģà¶»à·Ļ": 5614,
      "à¶¸à·Ĵà¶Ń": 5615,
      "à¶±à·ıà¶§": 5616,
      "Ġà¶¸à·ľà·ħ": 5617,
      "à¶ĳà·Ħà¶±à·Ļà¶¸à·Ĭ": 5618,
      "Ġà¶´à·Ģà·ĥ": 5619,
      "Ġà·ģà·Ĵà¶½à·Ĭ": 5620,
      "Ġà¶¯à·Ĳà¶ļà·Ĭà¶ļà·ľà¶Ńà·Ĭ": 5621,
      "Ġà¶±à¶´à·Ķà¶»à·Ķ": 5622,
      "Ġà¶ļà¶½à·Ŀ": 5623,
      "à¶ļà¶ºà·Ĵà¶±à·Ĭ": 5624,
      "Ġà¶ļà·Ĭà·Ĥ": 5625,
      "Ġà¶ľà·ľà¶½à·Ĭà¶½à·Ŀ": 5626,
      "Ġà¶¯à¶»à·Ĭà·ģà¶±à¶º": 5627,
      "Ġà¶Ńà·Ķà¶±à·Ĭà·Ģà·Ļà¶±à·Ĵ": 5628,
      "à¶ħà¶´à·Ĭ": 5629,
      "à¶Ī": 5630,
      "Ġà·ĥà·Ĳà¶ļà¶ºà¶ļà·Ĭ": 5631,
      "Ġà·Ħà¶¯à·Ĵà·ĥà·Ĭà·ĥ": 5632,
      "Ġà¶±à·ľà¶¸à·Ĳà¶Ń": 5633,
      "à¶»à·ĳà¶±à·Ĭà¶ļà·Ĭ": 5634,
      "Ġà¶ļà·Ļà¶±à·Ļà¶ļà·Ĭà¶¯": 5635,
      "Ġà¶ħà·Ģà·ĥà·Ĭà¶Ńà·ıà·Ģà¶ļà·Ĭ": 5636,
      "Ġà¶¯à·Ļà·Ģà¶½à·Ĭ": 5637,
      "Ġà¶ļà¶´à¶½à·ı": 5638,
      "Ġà¶¸à·Ĳà¶ļà·Ĭ": 5639,
      "Ġà¶ļà·Ĳà¶©à·Ĵà¶½à·ı": 5640,
      "à¶±à·ıà¶´à¶Ńà·Ĵ": 5641,
      "Ġà¶±à·Ĳà·Ģà¶Ńà·Ĵ": 5642,
      "Ġà¶ļà¶»à·Ķà¶±à·ı": 5643,
      "Ġà¶½à·Ĳà¶¶à·Ļà¶±à·Ĭà¶±à·Ļ": 5644,
      "Ġà¶¶à¶»à·Ĭ": 5645,
      "à¶´à¶Ńà·ļ": 5646,
      "à¶¶à¶½à·Ĭ": 5647,
      "Ġà·Ģà·ıà·ĥà¶±à·ıà·Ģà¶±à·Ĭà¶Ńà¶ºà·Ĵ": 5648,
      "Ġà·Ħà¶¸à·Ķà·Ģà·Ļà¶¸à·Ķ": 5649,
      "à¶Ĵà¶ļà¶¯": 5650,
      "Ġà¶¯à·Ļà¶¸à·ı": 5651,
      "Ġà¶ļà·ĳà¶½à·Ĭà¶½à¶ļà·Ĭ": 5652,
      "Ġà·ĥà·ıà¶¸à·ıà¶¢à·Ĵà¶ļ": 5653,
      "Ġà¶¶à¶»à¶´à¶Ńà¶½": 5654,
      "à·Ĵà·Ģà·ļà¶¯": 5655,
      "Ġà¶´à·Ķà¶¯à·Ķà¶¸à¶ºà·Ĵ": 5656,
      "ove": 5657,
      "ans": 5658,
      "à·Ļà¶ļà·Ĭà·ĥà·Ĵ": 5659,
      "Ġà·ĥà¶±à·Ĭà¶°à·Ĭ": 5660,
      "âĢįà¶ľ": 5661,
      "Ġà·ģà·Ĵà·Ĥà·Ĭ": 5662,
      "à¶ļà·Ĵà¶»à·ĵà¶¸": 5663,
      "Ġà¶ĭà¶ľà¶±à·Ĭà·Ģà¶±à·Ĭà¶±": 5664,
      "Ġà¶¯à·Ĵà·Ħ": 5665,
      "Ġà¶¸à¶±à·Ĭà¶¯à·Ĵ": 5666,
      "Ġà¶ħà¶½": 5667,
      "Ġà·ĥà¶¸à·Ĭà¶·": 5668,
      "Ġà¶ļà·ĸà¶©": 5669,
      "Ġà¶´à·Ļà¶¸à·Ĭà·Ģà¶Ńà·ı": 5670,
      "Ġà¶»à¶³": 5671,
      "à¶ĩà¶ºà¶ľà·ļ": 5672,
      "à·Ģà·Ĳà·ĥà·Ĵà¶º": 5673,
      "Ġà¶¸à·ĸà¶±": 5674,
      "Ġà¶ľà¶«à¶±à¶ļà·Ĭ": 5675,
      "à¶´à·Ĳà¶±": 5676,
      "Ġà·Ĩà·Ŀ": 5677,
      "Ġà¶¶à¶§à·Ħà·Ĵà¶»": 5678,
      "à¶»à¶ºà¶±à·Ĭ": 5679,
      "300": 5680,
      "à·Ħà¶¬": 5681,
      "à¶»à·ıà¶¯à·ı": 5682,
      "Ġà·Ħà·ľà¶»à¶ļ": 5683,
      "Ġà¶¸à·ıà¶¸à·ļ": 5684,
      "à¶Ĩà·Ģà·Ĭ": 5685,
      "à¶´à¶¯à¶º": 5686,
      "Ġà¶ľà·Ĳà·Ħà·Ķà·Ģ": 5687,
      "ld": 5688,
      "à·ĥà¶Ĥà·ĥà·Ķà¶±à·Ĭ": 5689,
      "à¶ºà·ıà¶¸": 5690,
      "Ġà¶¶à·Ĵà¶ºà¶»à·Ĭ": 5691,
      "Ġà¶¸à·Ĳà¶¢à·Ĵà¶ļà·Ĭ": 5692,
      "Ġà¶ļà·Ģà·Ķà·ħà·Ķ": 5693,
      "à·Ģà·ıà¶¯à¶º": 5694,
      "Ġà¶ĳà¶ļà·Ĭà¶ļà·Ļà¶±à·ı": 5695,
      "Ġà·Ģà·Ĵà·ģà·Ĭà·Ģà·ıà·ĥà¶ºà¶ļà·Ĭ": 5696,
      "Ġà¶´à·Ĵà¶§à·Ķà·Ģ": 5697,
      "à¶´à·Ĭà¶´à·Ķà·Ģ": 5698,
      "Ġà·Ģà¶¸à·Ĭ": 5699,
      "Ġà¶¯à·Ĳà¶ļà·Ĭà¶ļà¶¸": 5700,
      "à·Ģà·Ļà¶¸à·Ķ": 5701,
      "Ġà·Ļà·ĥà·ı": 5702,
      "Ġà¶ħà¶·à·Ĵà¶ºà·Ŀ": 5703,
      "Ġà¶´à·Ħà·Ķà¶ľà·Ĵà¶º": 5704,
      "Ġà¶ĳà¶ļà¶ļà·Ĵà¶±à·Ĭ": 5705,
      "à·Ĵà¶½": 5706,
      "Ġà¶ħà¶ºà·ļ": 5707,
      "à¶»à·Ĭà¶¢à·Ĭ": 5708,
      "Ġà·Ĩà·ľà¶§à·Ŀ": 5709,
      "Ġà¶´à·ĳ": 5710,
      "Ġà¶±à·ĥà·ı": 5711,
      "à·Ģà·Ĳà¶»à¶¯à·Ĵà¶ºà·Ĵ": 5712,
      "à¶ļà·ıà¶»à¶ºà·ľ": 5713,
      "Ġà¶¶à·Ŀà¶¸à·Ĭà¶¶à¶ºà¶ļà·Ĭ": 5714,
      "à¶©à·ľà¶½à¶»à·Ĭ": 5715,
      "à¶ļà·ľà¶½à·Ĭà¶½à¶±à·ļ": 5716,
      "Ġà¶Ńà·Ĵà¶»": 5717,
      "Ġà·Ģà·Ļà¶±à·Ĭà¶±à¶¯": 5718,
      "à¶Ńà·ıà¶¸à¶Ńà·Ĭ": 5719,
      "Ġà¶´à·Ģà·Ķà¶½à·Ļ": 5720,
      "Ġà·Ģà¶±à·Ļà·Ģà·ı": 5721,
      "Ġà¶ħà¶Ńà·Ķ": 5722,
      "Ġà·Ĩà·Ĵà¶½à·Ĭà¶¸à·Ĭ": 5723,
      "Ġà¶¶à¶ºà·Ģà·Ļà¶½à·ı": 5724,
      "Ġà·ĥà¶½à¶ļ": 5725,
      "Ġà¶¸à·Ħà¶Ńà·Ĭ": 5726,
      "Ġà·Ħà·Ļà¶¸à·Ĵà¶±à·Ĭ": 5727,
      "iz": 5728,
      "à¶ĩà¶½à·Ļà¶ļà·Ĭà·ĥà·Ĭ": 5729,
      "Ġà¶¯à·Ŀà·Ĥ": 5730,
      "à¶Ĵà¶ļà¶Ńà·Ĭ": 5731,
      "Ġà¶´à·Ĳà·Ħà·Ĳà¶¯à·Ĵà¶½à·Ĵà¶ºà·Ĵ": 5732,
      "Ġà¶ļà¶»à¶±à¶ļà·ľà¶§": 5733,
      "Ġà·ĥà·Ĵà¶ºà¶¯à·Ĵà·Ģà·Ĵ": 5734,
      "à¶±à·Ĭà¶°à¶±": 5735,
      "à·Ģà·ıà¶©à·Ĵ": 5736,
      "à¶¸à·ĥà·Ĭ": 5737,
      "Ġà¶´à¶½à·Ĵ": 5738,
      "à¶½à·Ĭà¶½à¶§": 5739,
      "Ġà¶Ĩà¶»à·ıà¶°à¶±à·ı": 5740,
      "Ġà¶ĩà¶ľà·Ĵ": 5741,
      "Ġà¶ľà¶¸à¶±à¶ļà·Ĭ": 5742,
      "Ġà¶´à¶łà·Ĭà¶ł": 5743,
      "Ġà¶Ńà¶Ńà·Ĭà·Ģà¶ºà¶ļà·Ĭ": 5744,
      "âĢįà¶±à·ļ": 5745,
      "Ġà¶īà·ĥà·Ĭà¶´à·Ĵà¶»à·Ĵà¶Ńà·ı": 5746,
      "arl": 5747,
      "à¶ľà¶Ńà·Ĭà¶Ńà¶¯": 5748,
      "à¶ļà·Ĵà¶ºà¶½à·ı": 5749,
      "Ġà·Ģà·Ħà¶ľà·Ļà¶±": 5750,
      "ie": 5751,
      "Ġà¶ļà¶¶à·ı": 5752,
      "à¶ħà¶±à·Ĵà·Ģà·ıà¶»à·Ĭà¶ºà·Ļà¶±à·Ĭà¶¸": 5753,
      "Ġà¶´à·ıà·ĥà·Ĭ": 5754,
      "à¶¶à·Ĭà·ĥà·Ĭ": 5755,
      "Ġà¶ĩà¶Ńà·Ķà·ħà¶Ńà·Ĭ": 5756,
      "Ġà¶ľà·Ļà¶±à·Ĵ": 5757,
      "Ġà¶¸à·ľà·Ħà·ľà¶Ńà·ļ": 5758,
      "Ġà·Ħà·ľà¶»à·Ļà¶±à·Ĭ": 5759,
      "Ġà¶±à·Ĳà¶ľ": 5760,
      "Ġtitle": 5761,
      "Ġà¶ľà·ĺ": 5762,
      "Ġà·Ģà·Ļà¶¸à·Ĵà¶±à·Ĭ": 5763,
      "Ġà¶ľà·Ĵà·Ħà·Ĵà¶½à·Ĭà¶½": 5764,
      "Ġà·ĥà·Ĳà¶»à·ļ": 5765,
      "à¶ļà·ıà¶»à·Ĵà¶ºà¶ļà·Ĭ": 5766,
      "à·ĥà·Ĵà¶¸à·Ĭ": 5767,
      "Ġà·Ħà·Ļà¶ºà·Ĵ": 5768,
      "Ġà¶±à·Ĵà¶¸": 5769,
      "à·ĥà·Ĵà¶ºà¶½à·Ĭà¶½": 5770,
      "Ġà¶¢à·Ĵà¶±à·Ĭ": 5771,
      "à·Ģà·ĥà¶»": 5772,
      "à¶ĩà¶ľà·ļ": 5773,
      "Ġà¶Ĩà¶ºà·Ĵ": 5774,
      "Ġà¶¸à¶±à·Ķà·ĥà·Ĭà·ĥà¶ºà·Ŀ": 5775,
      "à¶±à·Ĵà¶ļà¶±à·Ĭ": 5776,
      "à¶¯à·Ļà·Ģà·Ĵà¶ºà¶±à·Ĭ": 5777,
      "Ġà¶Ńà·Ķà¶±à¶ºà·Ĵ": 5778,
      "Ġà¶¯à·Ĵà¶ļà·Ĭà¶ļ": 5779,
      "à¶¸à·Ĭà¶¸à·Ĭà¶¸à·Ĭ": 5780,
      "Ġà¶¢à·ĵà·Ģà·Ĵà¶Ńà¶ºà·ļ": 5781,
      "à¶ĭà¶±à·Ĭà¶§": 5782,
      "Ġà·Ħà¶Ńà·Ķà¶»": 5783,
      "Ġà¶łà·Ŀà¶¯à¶±à·ı": 5784,
      "Ġà·ĥà·Ħà¶ľà¶Ń": 5785,
      "à·ĥà·Ĭà¶§à¶±à·Ĭ": 5786,
      "Ġà¶¸à·Ĵà¶½à·Ĭ": 5787,
      "Ġà¶¢à·ıà¶±": 5788,
      "Ġà¶ļà·Ļà¶»": 5789,
      "à¶Ĥà¶ľà¶¸": 5790,
      "Ġà¶ħà¶±à·Ĵà·Ģà·ı": 5791,
      "à·Ĩà¶»à·Ĭ": 5792,
      "Ġà¶ħà¶»à¶¸à·Ķà¶«": 5793,
      "Ġà¶¢à·Ĵà¶¸à·Ĭ": 5794,
      "ĠX": 5795,
      "à¶·à·ĸà¶Ń": 5796,
      "Ġà¶Ńà·ļà¶»à·Ļà¶±à·Ģà¶¯": 5797,
      "Ġà¶ĩà¶±à·Ĭà¶¢": 5798,
      "Ġà¶ļà·ıà¶ľà·Ļ": 5799,
      "à¶ĭà¶¯à·ļ": 5800,
      "Ġà·ĥà·Ĵà¶Ń": 5801,
      "à·Ģà·Ļà¶±à·ĥà·Ĭ": 5802,
      "Ġà¶ºà·Ĳà·Ģà·Ĭà·Ģà·ı": 5803,
      "Ġà·Ģà¶ºà·ĥà¶ļ": 5804,
      "à¶¶à·Ħ": 5805,
      "à·Ģà·Ĵà·Ħà·Ĵ": 5806,
      "Ġtranslate": 5807,
      "Ġà¶´à·Ĵà·Ħà·Ĵà¶º": 5808,
      "Ġà·Ģà¶±à·Ķ": 5809,
      "à¶±à¶ľ": 5810,
      "à¶¶à·ĥà·Ĭ": 5811,
      "Ġà¶±à·ıà¶ļà·Ĵ": 5812,
      "à¶´à·Ĳà¶§à·Ĵà¶ºà·Ŀ": 5813,
      "Ġsh": 5814,
      "Ġà¶ļà·ıà¶»à¶«à·ıà·Ģ": 5815,
      "Ġà¶ļà·ıà¶±à·Ĭà¶Ńà·ıà·Ģà¶ļà·Ĭ": 5816,
      "Ġà·Ģà¶»à¶ļà·Ĭ": 5817,
      "à·ĥà·Ĭà¶§à·Ŀ": 5818,
      "Ġà¶ĳà¶ļà·Ĵà¶±à·Ļà¶ļà·ı": 5819,
      "Ġà¶ļà·Ļà¶½à·Ĭà¶½à·Ŀ": 5820,
      "à·Ķà·Ģà¶±à·Ĭà¶§": 5821,
      "Ġà¶¸à·Ħà¶Ńà·Ĭà¶Ńà¶ºà·Ŀ": 5822,
      "à¶´à·Ħà¶»": 5823,
      "Ġà¶ĭà¶±à·Ĭà¶±à·ı": 5824,
      "Ġà¶ļà·ļà¶ļà·Ĭ": 5825,
      "Ġà¶¶à·Ħ": 5826,
      "Ġà¶¶à¶½à¶±à·Ĭà¶±à·Ļ": 5827,
      "Ġà¶¯à·Ļà¶ºà¶ļà·Ĭà¶¯": 5828,
      "Ġà¶ĩà¶Ńà·Ĭà¶Ńà¶ļà·Ĭ": 5829,
      "\"à¶¸à·ļ": 5830,
      "âĢį.čĊ": 5831,
      "Ġà¶ĩà¶¸à·Ļ": 5832,
      "Ġà¶¸à·Ŀà¶©à¶ºà·Ŀ": 5833,
      "Ġà¶ĭà·ĥà·Ĭà·ĥà¶±à·Ĭà¶±": 5834,
      "Ġà¶±à·Ĵà¶½à¶°à·ıà¶»à·Ĵà¶ºà·Ļà¶ļà·Ĭ": 5835,
      "à¶ļà¶½à·Ĭà¶´": 5836,
      "à¶ĳà¶ļà¶ºà·Ĵ": 5837,
      "Ġà¶´à¶§à·Ĵà¶ľà¶Ń": 5838,
      "à¶±à·Ģà¶Ńà·Ĵà¶±à·Ĭà¶±": 5839,
      "Ġà·ĥà¶ľ": 5840,
      "Ġà¶ľà·ıà¶«à¶ļà·Ĭ": 5841,
      "Ġà¶ºà·ıà¶½à·Ķà·Ģà·Ŀ": 5842,
      "à¶Ĥà¶ļà·ıà¶»": 5843,
      "Ġà¶ľà·ıà¶«": 5844,
      "à¶»à·ĵà¶¸à¶ļà·Ĭ": 5845,
      "à·Ģà·ļà¶¯à·ĵ": 5846,
      "Ġà¶½à·ĥà·Ĭà·ĥà¶±à¶§": 5847,
      "Ġà¶¸à¶±à·Ĭà¶¯à·ı": 5848,
      "à¶ľà¶Ńà·Ĭà¶¸": 5849,
      "à¶±à·Ģà¶§": 5850,
      "à·ĥà·Ĵà¶ľà¶Ń": 5851,
      "à¶¸à·Ĳà¶©à¶¸à·Ĭ": 5852,
      "à¶¸à¶½": 5853,
      "à·ĥà¶Ńà·Ĵ": 5854,
      "Ġà·Ħà·Ĵà¶Ńà¶§": 5855,
      "à¶ħà¶¸à¶Ńà¶ļ": 5856,
      "Ġà¶´à¶©à·Ĵ": 5857,
      "Ġà·Ģà·Ĵà¶¯à·Ĵà¶ºà¶§à¶¸": 5858,
      "Ġà¶Ķà·Ħà·ļà·Ģ": 5859,
      "-à¶ħà¶´à·Ĵ": 5860,
      "Ġà¶¶à·Ĵà¶Ńà·Ĭà¶Ń": 5861,
      "à·Ĥà·Ĵà¶±à·Ĭ": 5862,
      "à·Ĵà¶ºà·Ķà¶½à¶º": 5863,
      "à¶±à·Ĭà¶©à·Ĭ": 5864,
      "Ġà·ĥà¶¯à·Ĭà¶¯à·ļ": 5865,
      "Ġà¶ľà¶±à·Ķà¶¯à·Ļà¶±à·Ķ": 5866,
      "Ġà·Ģà·Ħà¶±à·Ĭ": 5867,
      "Ġà¶¸à¶ľà·Ħà·Ĳ": 5868,
      "à·Ģà¶©à·ı": 5869,
      "à¶ļà¶¯à·Ĵ": 5870,
      "Ġà¶»à·Ģà¶§à·Ĭà¶§": 5871,
      "Ġà¶Ŀà·ıà¶Ńà¶±à¶º": 5872,
      "à·ļà¶łà¶»": 5873,
      "à¶łà¶©à·Ĭ": 5874,
      "Ġà·ĥà·Ĵà¶§à·Ĵà¶±à·Ĭà¶±": 5875,
      "Ġà·Ģà¶½à·Ĭ": 5876,
      "Ġà¶Ĩà·ĥà¶±à·Ĭà¶±": 5877,
      "star": 5878,
      "22": 5879,
      "Ġà¶ĳà¶»à·Ļà·Ħà·Ĵà·Ģ": 5880,
      "Ġà¶¢à¶±à¶´à¶¯": 5881,
      "Ġà¶¸à·Ķà¶½à·Ĭà¶¸": 5882,
      "Ġà·Ģà¶±à·Ĭà¶±": 5883,
      "Ġà¶ļà·Ĵà¶ºà¶±à·Ĭ": 5884,
      "Ġà¶´à·Ķà·ħà·Ķà·Ģà¶±à·Ĵ": 5885,
      "Ġà¶ĩà¶±à·ı": 5886,
      "à¶´à·Ķà·Ģà·ı": 5887,
      "Ġà·ĥà·ıà¶¸": 5888,
      "Ġà¶ħà¶ºà·Ĵà¶º": 5889,
      "à¶ļà¶«à¶ľà·ı": 5890,
      "à¶´à·Ĵà·ħà·Ĵ": 5891,
      "à¶¯à¶±à·Ĭà¶±à·ı": 5892,
      "sia": 5893,
      "à¶ľà·Ĵà¶ļ": 5894,
      "Ġà¶ħà¶±à¶Ńà·Ķà¶»à·ļ": 5895,
      "Ġà¶¯à·ĵà¶¸": 5896,
      "hat": 5897,
      "à¶»à¶ºà·ı": 5898,
      "Ġà·Ģà·Ĳà·ĥà·Ĭà·ĥ": 5899,
      "Ġà¶ħà¶Ńà¶»à·Ĵà¶±à·Ĭ": 5900,
      "Ġà¶ºà·Ķà¶¯à·Ĭà¶°à¶º": 5901,
      "og": 5902,
      "ith": 5903,
      "Ġà·Ģà·ĳà¶±à·Ĭ": 5904,
      "Ġà¶ļà·ħà·ľà¶Ńà·Ĭ": 5905,
      "Ġà¶´à·Ĵà¶§à·Ģà·Ļà¶±à·Ĭà¶±": 5906,
      "Ġà¶ħà·Ģà¶½à¶Ĥà¶ľà·Ķ": 5907,
      "Ġà·Ħà·ľà¶ºà·ıà¶ľà¶±à·Ĭà¶±à·Ģà·ı": 5908,
      "Ġà¶ĭà¶Ńà·Ķà¶»à·Ķ": 5909,
      "à¶»à·Ķà¶±à·Ĭ": 5910,
      "à¶»à·Ĵà¶ºà·ıà¶§à·Ĵ": 5911,
      "Ġà¶´à·Ļà¶¸à·Ĭà·Ģà¶Ńà·Ĵà¶º": 5912,
      "Ġà¶Ńà¶§à·Ĭà¶§à·Ķ": 5913,
      "Ġà¶Ĵà¶ļà¶¸": 5914,
      "The": 5915,
      "Ġà¶½à·Ĳà·Ħà·Ĳ": 5916,
      "à¶Ĥà¶¢à·Ĵà¶±à·ļ": 5917,
      "à·ģà·ĵà¶½à¶ļ": 5918,
      "Ġv": 5919,
      "Ġà¶¸à·Ĳà¶±": 5920,
      "à¶Ĵà¶ļà·Ĵ": 5921,
      "Ġà¶īà¶ļà·Ĭà¶¸à¶«à¶§": 5922,
      "à¶ħà¶ºà·Ĵà¶ºà·ı": 5923,
      "à·Ģà·Ĭà·ĥà·Ĭ": 5924,
      "à·ĥà·Ĭà¶ļà·Ĭ": 5925,
      "Ġà¶ļà¶½à·Ĵà¶±à·Ĭà¶¸": 5926,
      "à¶łà·ĵ": 5927,
      "à¶ħà¶±à·Ĭà¶Ńà·Ĵà¶¸à¶§": 5928,
      "Ġà¶±à·Ģà¶Ńà·Ĭà¶Ńà¶±à·Ģà·ı": 5929,
      "Ġà·ĥà·Ĵà¶¯à·Ĭà¶°à·Ĵà¶º": 5930,
      "orn": 5931,
      "Ġà¶ĳà¶ºà¶§": 5932,
      "Ġà¶ļà·ľà·Ħà·Ļà¶§à¶¯": 5933,
      "Ġà¶´à·Ķà¶łà·Ĭà¶ł": 5934,
      "à¶¢à¶±à·ı": 5935,
      "Ġà·ĥà·Ĵà·Ħà·Ĵà¶º": 5936,
      "à¶īà·Ģà¶»": 5937,
      "à¶½à·Ļà¶±à·Ĭà¶±": 5938,
      "Ġcan": 5939,
      "à¶ľà·Ĳà¶±à·ĵà¶¸à·Ĭ": 5940,
      "à¶ľà·ľà¶½à·Ĭà¶½à·ľ": 5941,
      "Ġà¶ħà·Ģà·ıà·ĥà¶±à·ıà·Ģ": 5942,
      "Ġ]": 5943,
      "Ġà¶ĳà¶½à·Ĵ": 5944,
      "Ġà¶¯à¶©à·Ķà·Ģ": 5945,
      "Ġà¶ºà·Ķà¶ļà·Ĭ": 5946,
      "egion": 5947,
      "Ġà·ĥà·Ħà¶ºà·Ŀ": 5948,
      "Ġà·Ģà·Ĵà·Ħà·Ĵà¶½à·Ķà·Ģà¶ļà·Ĭ": 5949,
      "\\b": 5950,
      "à¶»à·Ĳà¶±à·Ĭ": 5951,
      "à¶¸à·ıà¶±à·Ĭà¶Ń": 5952,
      "à¶´à·Ĭà·ĥà·Ĭ": 5953,
      "Ġà¶´à·Ĵà¶§à¶´à¶Ńà·Ĭ": 5954,
      "Ġà¶ĳà¶ļà·Ļ": 5955,
      "Ġà¶¸à·Ĳà¶»à·Ĵà¶½": 5956,
      "!\"čĊ": 5957,
      "à¶ºà¶±à·ļ": 5958,
      "Ġà¶¸à·ĥà·Ĭà·ĥà·Ĵ": 5959,
      "à¶ľà·ļà¶¸": 5960,
      "Ġà·Ģà·Ļà¶½à·ļ": 5961,
      "Ġà¶¶à¶½à¶±à·Ĭà¶±à¶ļà·Ŀ": 5962,
      "Ġà·ģà¶¶à·Ĭà¶¯": 5963,
      "à¶»à·Ļà¶©à·Ĭ": 5964,
      "à¶¸à·Ķà·Ģ": 5965,
      "Ġà¶½à·ĸ": 5966,
      "à¶»à·Ĭà¶®à¶ļà¶ºà·Ĵ": 5967,
      "Ġà¶ĳà¶ºà·Ĵà¶±à·Ĭ": 5968,
      "à¶½à·ıà¶»à·Ĭà¶ļà·Ĭ": 5969,
      "à·Ģà¶±à·Ķ": 5970,
      "Ġà¶½à¶ºà·Ĵà¶§à·Ĭ": 5971,
      "Ġà¶´à·Ģà·Ķà¶½à·Ĭ": 5972,
      "à¶»à·ĵà¶±à·Ĭ": 5973,
      "Ġà¶¯à·Ļà·Ģà·Ĵà¶ºà¶±à·Ĭà¶ľà·ļ": 5974,
      "Ġà¶´à·Ĭà¶½à·ļà¶±à·Ĭ": 5975,
      "Ġà·ĥà·ŀ": 5976,
      "à¶½à¶ļà·ļà·ĥà·Ĭ": 5977,
      "Ġà¶¸à¶±à·Ĭà¶¯": 5978,
      "Ġà·Ħà·ľà¶ºà¶±à·Ĭà¶±à·Ļ": 5979,
      "à·Ģà·Ĵà·ģà·ıà¶½": 5980,
      "Ġà¶īà¶¯à·Ĵà¶»à·Ĵà¶º": 5981,
      "à¶ļà¶¯à·ĵ": 5982,
      "Ġà¶ħà¶±à·Ĭà¶¯": 5983,
      "à¶¸à·ļà·Ģ": 5984,
      "ĠNew": 5985,
      "âĢįà·Ĭ": 5986,
      ";čĊ": 5987,
      "à·Ģà·Ļà¶±à·Ģ": 5988,
      "Ġà¶ļà·Ĵà·Ħà·Ĵà¶´à¶ºà¶ļà¶§": 5989,
      "à¶´à·Ķà¶Ńà·ı": 5990,
      "Ġà¶±à·Ĳà¶ľà·Ĵà¶§": 5991,
      "Ġà·Ģà¶ľà¶ļà·ĵà¶¸": 5992,
      "Ġà¶ľà¶«à¶±": 5993,
      "Ġà¶½à·ľà¶ļà·Ķà¶ºà·Ĵ": 5994,
      "à¶¸à·Ĭà¶¸à·Ĵ": 5995,
      "Ġà¶½à·Ĳà¶¶à·ļà·Ģà·Ĵ": 5996,
      "Ġà¶¸à·Ļà¶ºà·ıà¶ľà·ļ": 5997,
      "fs": 5998,
      "Ġà¶¯à·ĺ": 5999,
      "Ġà¶¶à·Ħà·Ķ": 6000,
      "Ġà¶¸à·Ĳà¶¯à·Ĭà¶¯": 6001,
      "à¶«à·ĵà¶º": 6002,
      "Ġà¶ļà·ıà¶»à¶ºà·Ŀ": 6003,
      "à¶ļà·Ģà·Ĭ": 6004,
      "à¶¢à¶±à·Ĭà¶Ń": 6005,
      "Ġà¶Ńà¶´à·Ĭà¶´": 6006,
      "Ġà¶¸à¶»à¶ºà·Ĵ": 6007,
      "ip": 6008,
      "Ġà¶ĳà¶½à·Ĭ": 6009,
      "Ġà¶°à·Ľ": 6010,
      "à·Ĥà·Ĭà¶§à·Ĵà¶ļ": 6011,
      "Ġà¶¢à¶½à¶º": 6012,
      "à¶¯à·Ļà¶ºà·Ĵ": 6013,
      "Ġà¶¸à·ĳà¶±à·Ĭ": 6014,
      "Ġà·ĥà·Ĵà¶§à·Ĵà¶ºà·ı": 6015,
      "à·ĥà¶ºà·Ĵà¶©à·Ĭ": 6016,
      "à¶¸à¶Łà·Ķ": 6017,
      "Ġà¶¯à¶ļà·Ĭà·Ģà¶±à·Ĭà¶±": 6018,
      "Ġà¶ºà¶ļà·ı": 6019,
      "à¶¸à¶±à·Ķ": 6020,
      "ary": 6021,
      "Ġà¶±à¶©à·Ķà·Ģ": 6022,
      "à¶¸à·ļà¶ļà¶ºà·Ĵ": 6023,
      "Ġà¶¸à·ļà¶©": 6024,
      "Ġà·Ģà·Ĳà¶¯à·Ĵà¶½à·ı": 6025,
      "Ġà¶´à·Ļà¶±à·Ĭà·Ģà¶±à·Ĭà¶±à¶¸à·Ĭ": 6026,
      "Ġà¶ħà¶Ńà·ıà¶»à·Ĵ": 6027,
      "Ġà¶ħà·Ģà·ģà·Ĭà¶º": 6028,
      "à¶´à·Ĭà¶½": 6029,
      "Ġà¶¶à·Ļà¶½à·Ĭ": 6030,
      "reat": 6031,
      "à·ĥà·ıà·ĥà·Ĭ": 6032,
      "Ġà¶ħà¶Ńà·ĵà¶Ń": 6033,
      "Ġà¶ľà¶¶à¶©": 6034,
      "ase": 6035,
      "à·Ģà·Ĵà¶Ń": 6036,
      "Ġà¶Ńà·Ĵà¶ºà·Ļà¶±à·Ģà·ıà¶¯": 6037,
      "Ġà¶ħà¶±à·Ķà¶ľà¶¸à¶±à¶º": 6038,
      "Ġà¶ļà·ľà·Ħà·ľà¶¸à·Ħà¶»à·Ĵ": 6039,
      "Ġà¶ļà·ıà¶¸à¶»à·ļà¶§": 6040,
      "Ġà¶ĳà¶½à·Ĵà¶ºà·ļ": 6041,
      "Ġà·Ģà·Ĵà·Ģà·ıà·Ħà¶º": 6042,
      "à¶´à·Ĭà¶Ń": 6043,
      "Ġà·ĥà¶¸à·ĸ": 6044,
      "Ġà¶ľà·ŀà¶»à·Ģà¶ºà¶ļà·Ĭ": 6045,
      "ussia": 6046,
      "Ġà·Ħà·Ĵà¶¸à·Ĵ": 6047,
      "à·ĥà·Ĭà¶½à·ı": 6048,
      "à¶°à·Ķ": 6049,
      "Ġà¶ħà·Ħà¶±": 6050,
      "Ġà¶´à·ıà¶Ńà·Ĭ": 6051,
      "Ġà·ĥà¶ºà·Ĵà¶©à·Ĭ": 6052,
      "Ġà¶ľà·Ĵà¶«à·Ĵ": 6053,
      "Ġà¶©à·ļà·Ģà·Ĵ": 6054,
      "ery": 6055,
      "Ġ....": 6056,
      "Ġà¶»à¶§à·ļ": 6057,
      "Ġà¶¸à¶łà¶±à·Ĭ": 6058,
      "Ġà¶ħà¶»à·Ĵà¶±à·Ģà·ı": 6059,
      "Ġà¶¸à·Ĵà¶±à·Ĵà·ĥà·Ķà¶±à·Ĭà¶§": 6060,
      "à·Ģà·Ļà¶½à·Ĭ": 6061,
      "ener": 6062,
      "à·Ģà·Ĵà¶¸": 6063,
      "'t": 6064,
      "à¶±à·Ĭà¶©à¶»à·Ĭ": 6065,
      "à¶¢à·Ļà¶±à·ĵ": 6066,
      "à¶łà·Ĭà¶łà·ıà¶»": 6067,
      "Ġcl": 6068,
      "Ġà¶¶à¶³à·Ĵ": 6069,
      "Ġà·Ģà·Ĵà¶¯à·Ĵà¶ºà·ļ": 6070,
      "Ġà·Ģà·ıà¶ºà·Ķ": 6071,
      "Ġà¶ħà¶Ĥà¶ľ": 6072,
      "Ġà·ĥà¶±à·ĵà¶´": 6073,
      "Ġà¶¸à¶§à¶¸": 6074,
      "à·Ħà·ıà¶§à¶¯": 6075,
      "à¶ļà·ıà¶ľà·ıà¶»": 6076,
      "à·Ģà·Ĵà¶©à·Ĭ": 6077,
      "à·Ļà·Ģ": 6078,
      "Ġà¶´à·Ĳà·Ģà·Ĳ": 6079,
      "à·Ģà·Ĳà¶§": 6080,
      "âĢįà¶±à·ı": 6081,
      "à·Ģà·ĵà¶±à·Ĭ": 6082,
      "ock": 6083,
      "à¶»à·ıà¶Ńà·Ĭ": 6084,
      "Ġà¶»à·ļà¶©à·Ĵà¶ºà·Ŀ": 6085,
      "Ġà¶ļà·ľà¶«à·Ĭà¶©": 6086,
      "à¶ļà·Ķà¶Ńà·Ĭà¶¸": 6087,
      ",à·ĥà¶»à·Ĭ": 6088,
      "Ġà¶»à¶«": 6089,
      "à¶¶à·Ĵà¶±à·Ĭ": 6090,
      "ash": 6091,
      "à·ħà¶¸": 6092,
      "à¶ºà·Ķà¶°à¶¸à·Ĭ": 6093,
      "Ch": 6094,
      "Ġà¶±à¶»": 6095,
      "à¶ļà·Ĵà¶Ńà·Ĭ": 6096,
      "Ġà¶Ĩà¶łà·ıà¶»à·Ĭà¶º": 6097,
      "Ġà¶´à·Ĳà·Ħà·Ĳà¶¯à·Ĵà·ħà·Ĵ": 6098,
      "Ġà¶¸à¶ľà·Ķà¶½à·Ĭ": 6099,
      "à¶ĭà¶±à·ı": 6100,
      "\\fs": 6101,
      "à·Ĩà·ļ": 6102,
      "Ġà¶Ķà·Ģà·Ķ": 6103,
      "Ġà¶¯à·Ļà¶±à·Ĭà¶±à¶ºà·Ĵ": 6104,
      "tp": 6105,
      "Ġà¶ħà¶±à¶±à·Ĭ": 6106,
      "à·Ģà·Ĳà¶¯": 6107,
      "Ġà·ĥà¶Ńà·Ļà¶ļà·Ĭ": 6108,
      "à¶¢à·ļà·ĥà·Ķ": 6109,
      "Ġà¶±à¶ľà¶»à¶ºà¶§": 6110,
      "Ġà¶¸à·Ģ": 6111,
      "Ġà¶¯à·Ħà¶ºà¶ļà·Ĭ": 6112,
      "Ġà¶½à¶±à·Ĭà¶©à¶±à·Ĭ": 6113,
      "Ġà¶Ńà·ıà¶Ńà·Ĭà¶Ńà¶ºà·Ĵ": 6114,
      "à¶ļà·Ĭà·ĥà·Ĵà¶¢à¶±à·Ĭ": 6115,
      "Ġà¶Ķà·Ĩà·Ĵà·ĥà·Ĭ": 6116,
      "AN": 6117,
      "à¶ļà·Ĵà¶»à·ĵà¶¸à·Ĭ": 6118,
      "Ġà¶ļà·ĵà¶ºà¶¯": 6119,
      "Ġà¶¸à·Ļà·Ħà·Ļà¶ºà·Ķà¶¸à·Ĭ": 6120,
      "\\an": 6121,
      "Ġà¶Ńà·ĳà¶ľà·Ĭà¶ľ": 6122,
      "à¶´à¶½à·Ĭà¶½": 6123,
      "à·Ģà·Ĵà¶±à·ıà¶©à·Ĵà¶ºà¶ļà·Ĭ": 6124,
      "Ġà·Ħà·ıà¶±à·Ĵà¶ºà¶ļà·Ĭ": 6125,
      "Ġà¶ħà¶ļà·Ĭà¶ļ": 6126,
      "ĠName": 6127,
      "Ġà·ĥà·Ļà¶½à·Ĭà¶½à¶¸à¶ļà·Ĭ": 6128,
      "Ġà¶ĩà¶ľ": 6129,
      "Ġà¶¸à·Ĵà·ĥà¶ºà·Ĵ": 6130,
      "à·ĥà·Ĭà¶Ńà·Ķ": 6131,
      "à¶»à·Ħà·Ĵà¶Ń": 6132,
      "à¶¶à¶§": 6133,
      "à·Ģà·Ĳà·ĥà·Ĵ": 6134,
      "ph": 6135,
      "Ġà¶¯à·ļà·Ģà·Ĵ": 6136,
      "à·Ģà·Ĵà¶ļà·ıà¶»": 6137,
      "à¶§à·ľ": 6138,
      "à¶±à·Ĵà·ĥà·Ĳà¶ļà·Ģà¶¸": 6139,
      "Ġà¶¯à·ıà¶ºà·Ĵ": 6140,
      "Ġà¶Ńà¶¸à·Ķà¶±à·Ĭà¶§": 6141,
      "à·ĥà·Ķà¶±": 6142,
      "Ġà¶±à¶¸à·Ĵà¶±à·Ĭ": 6143,
      "Ġà¶Ńà·Ķà¶±à¶ļà¶§": 6144,
      "Ġà¶ħà¶Ńà·Ķà¶»à·Ķà¶¯à¶±à·Ĭ": 6145,
      "Ġà¶»à·ıà·Ħà·Ķà¶½à·Ĭ": 6146,
      "Ġà¶ļà¶§à·Ĭà¶§à·Ĵà¶ºà¶ļà·Ĭ": 6147,
      "Ġà¶ºà¶±à·Ķ": 6148,
      "à·ľà¶¸à·ĵ": 6149,
      "à¶Ńà·Ĭà¶Ńà¶½à·Ĭ": 6150,
      "Ġà¶Ńà¶§à·Ĭà¶§à·Ķà·Ģà·ļ": 6151,
      "Ġà¶Ĩà¶½à·Ŀà¶ļà¶º": 6152,
      "Ġà¶ľà·Ĳà·Ħà·Ļà¶±à·Ĭà¶±": 6153,
      "Ġà¶Ĩà¶»à¶ļà·Ĭà·ģà·ı": 6154,
      "Ġà¶ĩà¶Ńà·Ĭà¶Ńà·Ļ": 6155,
      "Ġà¶īà¶Ńà·Ĵà·Ħà·ıà·ĥ": 6156,
      "Ġà¶ĭà¶±à·Ĭà¶ľà·ļ": 6157,
      "Ġà¶ħà¶©à·Ķà·Ģ": 6158,
      "Ġà¶½à·ıà¶±à·ı": 6159,
      "Ġà¶¸à¶±à·Ŀ": 6160,
      "Ġà¶ļà·ļà¶Ń": 6161,
      "à¶±à·Ĵà·ģà·Ĭà¶ł": 6162,
      "Ġà¶īà¶Ĥà¶¢à·Ĵà¶±à·ļ": 6163,
      "Ġà¶ļà¶´à¶±à·Ĭà¶±": 6164,
      "-à¶¸à·ļ": 6165,
      "AR": 6166,
      "à¶¢à¶±à¶ļ": 6167,
      "Ġà¶ħà¶½à·Ĭà¶½à¶½à·ı": 6168,
      "à¶´à·Ĵà¶ºà¶½à·Ĭ": 6169,
      "Ġà¶±à·Ļà·Ģà·Ļà¶ºà·Ĵà¶¯": 6170,
      "âĢįà·Ħà·Ļ": 6171,
      "à¶¸à¶±à·Ĭà¶Ńà·Ĭ": 6172,
      "Ġà¶ĩà¶¸à¶»à·Ĵà¶ļà·ıà¶±à·Ķ": 6173,
      "à¶»à·ıà¶¢à·Ķ": 6174,
      "à·Ģà·Ķà¶¸à¶ļà·Ĭ": 6175,
      "Ġà¶¸à·ľà¶±à·Ģà·ıà·Ħà¶»à·Ĵ": 6176,
      "âĢįà¶¯à·ı": 6177,
      "Ġà¶Ķà¶±à·Ļ": 6178,
      "à·Ħà·Ĳà¶»à·ĵ": 6179,
      "à·Ģà¶±à·Ĭà¶±à¶¸à·Ĭ": 6180,
      "Ġà¶ħà·Ģà·ļ": 6181,
      "Ġà¶ļà·ļà¶Ńà¶º": 6182,
      "Ġà¶´à·ıà¶½à¶ļ": 6183,
      "Ġà·ĥà·Ļà¶§à·Ĭ": 6184,
      "Ġà¶ħà¶Ńà¶»à¶¸à¶Ĥ": 6185,
      "Ġà¶ľà·ľà·Ģà·Ĵ": 6186,
      "à¶ĳà¶ºà·ıà¶½à·Ģ": 6187,
      "Ġà·Ħà·ıà·Ģ": 6188,
      "Ġà¶ļà·ıà·Ģà·Ģà¶Ńà·Ĭ": 6189,
      "Ġà¶ļà·Ĳà¶¸à·Ĳà¶Ńà·Ĭà¶Ńà·Ļà¶±à·Ĭ": 6190,
      "à¶ľà¶»à¶§à·Ĭ": 6191,
      "à·Ĵà¶Ńà¶ºà·Ĵ": 6192,
      "Ġmy": 6193,
      "âĢįà¶§à·Ĵ": 6194,
      "Ġà¶´à¶ºà·Ĵ": 6195,
      "Ġà¶ħà¶´à¶Ń": 6196,
      "Ġà¶¸à·ĵà¶§à¶»à·Ĭ": 6197,
      "à·Ģà¶±à·Ģà¶¯": 6198,
      "Ġà¶Ńà¶±": 6199,
      "Ġà·Ħà·Ļà¶±à·Ĭà¶»à·Ĵ": 6200,
      "ĠJohn": 6201,
      "Ġà¶ļà·ħà·Ĵà¶±à·Ĭ": 6202,
      "à¶¸à¶Ńà¶ļà¶¯": 6203,
      "à¶ħà¶±à·Ĭà¶Ńà·Ĵà¶¸à·ļ": 6204,
      "à¶¢à·Ĭà¶¢à·ı": 6205,
      "Ġà¶ļà·ıà¶½à¶ºà·ļ": 6206,
      "Ġà¶ķà¶±à·ļà¶¯": 6207,
      "Ġà¶¯à¶»à·Ķà·Ģà·Ļà¶ļà·Ĭ": 6208,
      "Ġà¶¯à·Ķà¶»à·Ĵà¶±à·Ĭ": 6209,
      "Ġthat": 6210,
      "Ġà·ĥà¶Ĥà¶ļà·ļ": 6211,
      "Ġà¶¯à·ĵà¶´à·Ķ": 6212,
      "Ġà¶ºà¶ļà¶©": 6213,
      "Ġà·ĥà·ıà¶ļà¶łà·Ĭà¶¡": 6214,
      "Ġà¶¸à¶»à·Ķ": 6215,
      "Ġà¶ĳà·Ģà·Ķà¶±à·Ĭ": 6216,
      "à¶ĳà·ħà·Ĵà¶ºà¶§": 6217,
      "Ġà¶ļà¶»à¶¯à·Ĭà¶¯à·Ĵ": 6218,
      "Ġà¶´à·ľà¶Ńà¶ļà·Ĭ": 6219,
      "Ġ//": 6220,
      "Ġà·Ģà·Ĳà¶¯à·Ķà¶±à·ı": 6221,
      "à·ĥà¶¯à·Ĭà¶¯": 6222,
      "à¶ľà·Ĳà¶±à·Ĭà¶±": 6223,
      "Ġà·Ħà¶ºà¶ļà·Ĭ": 6224,
      "Ġà¶ĭà¶Ńà·Ķà¶»": 6225,
      "Ġà·Ģà·Ĳà·ħ": 6226,
      "à·ĥà·Ĵà¶ºà·ħà·Ķà¶¸": 6227,
      "Ġà¶ļà·ħà·ıà¶¯": 6228,
      ",à¶¸à·ļ": 6229,
      "à¶Ńà·Ķà¶»à·ı": 6230,
      "Ġà¶¯à·Ģà·ĥà¶§": 6231,
      "à¶¸à¶½à·Ĭ": 6232,
      "Ġà¶´à·ıà·Ħà¶»": 6233,
      "Ġà·Ģà·Ļà¶½à·ıà·Ģà¶ļà¶§": 6234,
      "ts": 6235,
      "Ġà¶´à·Ķà¶¯à·Ĭà¶ľà¶½à¶ºà·Ļà¶ļà·Ĭ": 6236,
      "à¶¶à¶©à·Ĵ": 6237,
      "Ġà¶ºà¶±à·Ĭ": 6238,
      "à¶ļà·Ĵà¶»à·Ĵ": 6239,
      "Ġà¶ľà·Ĳà¶±à·Ĭà·Ģà·ĵà¶¸": 6240,
      "Ġà·Ħà·Ĵà¶±à·ıà·Ģà·Ļà¶±à·Ĭà¶±": 6241,
      "à¶¯à·Ķà·Ģà·ı": 6242,
      "à¶¥à¶ºà·ı": 6243,
      "à¶Ńà·ļà¶»à·Ķà¶±à·ıà¶¯": 6244,
      "à·Ģà·Ķà¶±à·ľà¶Ńà·Ĭ": 6245,
      "Ġà¶¯à¶ļà·Ĵà¶±à·Ģà·ı": 6246,
      "Ġà¶ļà·Ļà¶±à·Ĭà¶§à·Ĭ": 6247,
      "Ġà¶ļà¶»à¶±à·Ĭà¶±à·ĳ": 6248,
      "Ġà¶ľà·Ĵà¶ºà¶´à·Ķ": 6249,
      "à¶»à·Ĵà¶ºà¶ļà·Ĭ": 6250,
      "à·Ħà·Ĵà·ĥà·Ĭ": 6251,
      "à·ĵà¶¸à·Ļà¶±à·Ĭ": 6252,
      "Ġà¶¯à¶»à·Ĭà·ģà¶±": 6253,
      "Ġà¶ļà·Ŀà¶§à·Ĵ": 6254,
      "Ġà¶ľà·Ĳà¶½à¶´à·Ļà¶±": 6255,
      "Ġà·Ģà·ıà¶¯à¶±à¶º": 6256,
      "à·ĥà·ıà¶»": 6257,
      "à¶½à·Ĭà¶½à·ľ": 6258,
      "Ġà¶Ńà¶¸à·Ķà·ĥà·Ļà¶ľà·Ļ": 6259,
      "à¶½à·Ģà·Ļà¶±à·Ĭà¶±": 6260,
      "Ġà¶ļà¶©à¶±à·Ĭà¶±": 6261,
      "Ġà¶´à·Ķà¶½à·ĸ": 6262,
      "à¶ļà¶»à¶«à¶ºà¶ļà·Ĭ": 6263,
      "Ġà¶ļà·Ĵà¶ºà¶±à·Ģà¶±à¶¸à·Ĭ": 6264,
      "Ġà·Ģà·Ļà¶Ńà¶§": 6265,
      "abel": 6266,
      "Ġà¶ħà¶½à·Ĭ": 6267,
      "à¶¯à·Ļà¶±à·Ĭ": 6268,
      "Ġà¶ħà¶©à·Ķà·Ģà·Ļà¶±à·Ĭ": 6269,
      "Ġà¶¸à·Ķà¶¯à·Ķ": 6270,
      "Ġà¶ĩà¶¸à¶»à·Ĵà¶ļà·ıà·Ģ": 6271,
      "Ġà¶´à¶®": 6272,
      "Ġà¶ħà¶±à·ıà·Ģ": 6273,
      "Ġà¶ļà¶Ńà·ıà¶ļà¶»à¶±à·Ĭà¶±à·ļ": 6274,
      "à·ģà·ĵà¶½à·ĵ": 6275,
      "Ġà¶ħà¶±à·Ķà¶ļà¶¸à·Ĭ": 6276,
      "à¶¸à·ľà¶ļà·Ŀ": 6277,
      "Ġà¶īà¶»à·ı": 6278,
      "Ġà¶ĭà¶¸": 6279,
      "Ġà¶Ńà·ĵà¶»à¶«": 6280,
      "Ġà¶¡à·ı": 6281,
      "à¶¸à·Ĳà¶½à·Ĵ": 6282,
      "Ġnot": 6283,
      "Ġà¶ħà·Ģà¶¯à·ı": 6284,
      "à·ĥà·ıà·Ģ": 6285,
      "Âłà¶¸à¶¸": 6286,
      "Ġà¶ħà¶Ńà¶»à¶Ńà·Ķà¶»": 6287,
      "à·ĥà·ĳà¶¸": 6288,
      "à¶½à·Ĵà¶ºà¶¸à·Ĭ": 6289,
      "pl": 6290,
      "à·ĥà·Ļà¶±à·Ĭ": 6291,
      "Ġà·Ģà·Ĵà¶½": 6292,
      "à·Ģà·ıà¶ľà¶±à·Ĭà¶±": 6293,
      "Ġstate": 6294,
      "à¶ºà·ıà¶»à·ĸà¶´": 6295,
      "Ġà·Ħà·Ĵà¶Ńà¶´à·Ķ": 6296,
      "Ġà¶ħà¶´à·ľà¶ºà·Ĵ": 6297,
      "Ġà¶Ĩà¶ºà·Ļà¶¸à¶Ńà·Ĭ": 6298,
      "Ġà·Ģà·ļà¶ľà·Ļà¶±à·Ĭ": 6299,
      "erman": 6300,
      "à·ŀà¶¯à·Ĭ": 6301,
      "à¶¶à·ļà¶»": 6302,
      "ĠKDE": 6303,
      "Ġà·Ģà·Ĵà¶ļà¶½à·Ĭà¶´à¶ºà¶ļà·Ĭ": 6304,
      "à¶¸à¶ļ": 6305,
      "à¶ļà·ıà¶½": 6306,
      "Ġà¶±à·ľà·Ģà·ĵ": 6307,
      "Ġà·ĥà·Ĭà¶®à·ıà¶±à¶ºà¶§": 6308,
      "Ġà¶¶à·ĵà¶½à·ı": 6309,
      "Ġà¶ħà¶³à·Ķà¶±": 6310,
      "à¶ļà·Ģà¶¯à·Ĭà¶¯": 6311,
      "Ġà·Ħà·Ĵà¶§à·Ĵà¶ºà¶Ńà·Ĭ": 6312,
      "Ġà¶´à·Ķà¶Ńà·Ļà¶ļà·Ĭ": 6313,
      "Ġà¶ľà¶¶à¶©à·ı": 6314,
      "Ġà¶ļà·Ļà·Ģà·Ĵà¶±à·Ĭ": 6315,
      "à·ģà·Ĵà¶»à·Ĭ": 6316,
      "Ġle": 6317,
      "à¶ļà¶»à¶´à·Ķ": 6318,
      "Ġà·Ļà·Ħà·ıà¶¯": 6319,
      "Ġà¶ĳà·Ģà·Ĭà·Ģà·ı": 6320,
      "à¶ħà¶±à·Ĵà·Ģà·ı": 6321,
      "Ġà¶¸à·ıà¶»à·Ķà·Ģ": 6322,
      "Ġà·Ģà·Ĳà¶©à·Ĵà·Ħà·Ĵ": 6323,
      "Ġà¶ļà¶«à·Ĭà¶©à·ıà¶ºà¶¸à¶§": 6324,
      "à¶§à·Ķà·Ģà¶ļà·Ĭ": 6325,
      "à¶½à·ıà·ĥà·Ĭ": 6326,
      "Ġà¶ħà¶©à·Ķà¶ºà·Ĵ": 6327,
      "Ġà¶ļà·ıà¶¸à¶»à¶ºà·ļ": 6328,
      "à¶¸à·Ŀà¶©à¶ºà·ı": 6329,
      "Ġà·Ģà·ıà·Ħà¶±à¶º": 6330,
      "Ġà¶ľà¶¸à¶§": 6331,
      "Ġà¶ļà·ıà¶»à¶«à¶º": 6332,
      "Ġà¶ľà¶±à·Ĭà¶±à·Ģà¶¯": 6333,
      "Ġà¶¢à·ľà¶¶à·Ĭ": 6334,
      "Ġà·ĥà·ıà¶ļà·Ĭà·Ĥà·Ĵà¶ºà¶ļà·Ĭ": 6335,
      "Ġà¶łà·Ĳà¶´à·ĵ": 6336,
      "à·ĥà¶Ĥà¶ľ": 6337,
      "à¶Ńà¶»à·ı": 6338,
      "à¶ļà·Ķà¶±à·Ķ": 6339,
      "Ġà·ĥà¶±à·Ĭà¶±à·Ĵà·Ģà·ļà¶¯": 6340,
      "Ġà¶»à·Ħà·ĥà·Ĵà¶ľà¶Ń": 6341,
      "Ġà¶¸à¶ľà·ļà¶¸": 6342,
      "23": 6343,
      "Ġà¶»à·ĥà·Ĭ": 6344,
      "à¶ļà·Ĭà·Ĥà¶«à·Ĵà¶ļ": 6345,
      "à¶ħà¶±à·Ĵà·Ģà·ıà¶»à·Ĭà¶ºà¶ºà·Ļà¶±à·Ĭà¶¸": 6346,
      "Ġà¶¸à¶§à·Ĭà¶§à¶¸à·ļ": 6347,
      "Ġà¶ļà·ıà¶ľà·ļ": 6348,
      "Ġà¶ħà¶»à¶ļ": 6349,
      "Ġà¶±à·ıà¶¯": 6350,
      "Ġà¶ľà·ľà¶±": 6351,
      "Ġan": 6352,
      "Ġà·Ģà·Ļà¶±à·Ĭà¶±à·ĳ": 6353,
      "à¶»à¶¢": 6354,
      "à¶¶à·Ĳà·Ħà·Ĳ": 6355,
      "à¶Ńà·ıà¶»": 6356,
      "Ġà¶¸à¶Ńà¶ļà¶ºà¶±à·Ĭ": 6357,
      "à·ĥà·ĳ": 6358,
      "Ġà¶¢à·ıà¶Ńà·Ĵà¶ºà·ļ": 6359,
      "à¶Ĵà¶ļà·ı": 6360,
      "Ġà¶ļà¶»à·Ĭà¶¸à·ıà¶±à·Ĭà¶Ń": 6361,
      "Ġà¶´à·Ĵà¶»à·Ĵà¶½à·ı": 6362,
      "à¶¶à·ľà·Ħà·Ŀ": 6363,
      "Ġà¶ĩà·Ħà·Ĳà¶»": 6364,
      "à¶Ńà¶¸à·Ĭ": 6365,
      "à¶ºà·Ĵà¶©à·Ĭ": 6366,
      "Ġà¶ľà·Ģà·ļà·ģ": 6367,
      "ĠCIA": 6368,
      "Ġà¶¸à¶»à¶«à¶ºà¶§": 6369,
      "à¶ļà·ħ": 6370,
      "ject": 6371,
      "HFFFF": 6372,
      "Ġà¶Ńà¶Ńà·Ĭà¶´à¶»à¶ºà¶ļà·Ĭ": 6373,
      "\"âĢį": 6374,
      "Ġà·Ħà·Ĳà¶¸à·Ŀà·Ģà¶¸": 6375,
      "Ġà¶¸à·ıà¶»à·Ĭà¶ľà¶ºà¶ļà·Ĭ": 6376,
      "Ġà·Ħà·Ļà¶½à·Ĵà¶ļà·ľ": 6377,
      "à¶¶à·Ļà¶±à·Ĭ": 6378,
      "Ġà·Ĥà·Ĵ": 6379,
      "à¶»à·Ķà¶¸à¶ļà·Ĭ": 6380,
      "Ġà¶´à¶¯à·Ĭà¶°à¶Ńà·Ĵ": 6381,
      "à·ĥà·Ĵà¶ºà·ıà·Ģ": 6382,
      "à¶¸à·ıà¶±à¶º": 6383,
      "Ġà¶»à·Ļà¶¯à·Ĭà¶¯": 6384,
      "Ġà¶¯à·Ļà¶ļà¶ļà·Ĵà¶±à·Ĭ": 6385,
      "Ġaction": 6386,
      "Ġà·ĥà·Ĵà¶Ńà·Ķà·Ģà·Ĵ": 6387,
      "Ġà¶ĭà·Ģ": 6388,
      "à·Ģà·Ķà¶½": 6389,
      "Ġà·Ģà·ģà¶ºà·Ļà¶±à·Ĭà¶¸": 6390,
      "Ġà¶Ķà¶ļà·Ĭà¶ļà·ľà¶§à¶¸": 6391,
      "à¶¸à·Ħà·ı": 6392,
      "Ġà¶¶à¶½à¶´à¶±à·Ĭ": 6393,
      "Ġà¶´à·Ĵà¶§à·ĥà¶ļà·Ĭ": 6394,
      "à·ĥà¶¸à·ı": 6395,
      "HFFFFFF": 6396,
      "à¶¢à¶±à·ıà¶°à·Ĵà¶´à¶Ńà·Ĵ": 6397,
      "à¶ľà·Ĭà·ĥà·Ĭ": 6398,
      "à¶ĳà·Ħà·Ļà¶¸à¶ºà·Ĵ": 6399,
      "à·Ļà¶ļà·Ĭà·Ģ": 6400,
      "Ġà¶ĳà¶ļà¶±à·ļ": 6401,
      "Ġà¶¸à¶±à¶¸à·ı": 6402,
      "Ġà¶Ńà·Ĵà·ĥà·Ĭà·ĥà·Ļà¶¸": 6403,
      "à¶ĭà¶Ńà·Ĭ": 6404,
      "Ġà¶ħà¶±à·Ģ": 6405,
      "up": 6406,
      "à·ľà¶´à·Ĭ": 6407,
      "à¶Ńà·Ķà·Ģà¶ļà·Ĭà¶ļà·Ķà·Ģ": 6408,
      "à·Ģà¶¸à·Ĭ": 6409,
      "Ġà¶½à·ĸà¶Ń": 6410,
      "à¶»à·ļà¶§": 6411,
      "Ġà¶½à·ĸà¶Ńà¶»à·Ĭ": 6412,
      "Ġà¶īà¶¯à·Ĵà¶»à·Ĵà¶ºà·ļ": 6413,
      "Ġà¶ľà¶Ńà·Ĭà¶Ńà·Ķ": 6414,
      "Ġà¶Ńà·Ĵà¶¶à·Ĭà¶¶à·ľà¶Ńà·Ĭ": 6415,
      "Ġà¶´à¶»à·Ĭà¶ºà·ļ": 6416,
      "Ġà¶Ńà·Ķà¶½à·Ĵà¶±à·Ĭ": 6417,
      "Ġà¶¶à·Ŀà¶Ń": 6418,
      "Ġà¶¸à·Ķà¶±à¶ľà·Ĳ": 6419,
      "à·ģà¶º": 6420,
      "Ġà¶©à·ı": 6421,
      "-à¶Ķà¶ºà·ıà¶§": 6422,
      "Ġà·Ģà·ıà¶»à·Ĭà¶®": 6423,
      "Ġà¶ļà¶»à·ıà¶§": 6424,
      "à¶½à¶±à·Ĭà¶Ń": 6425,
      "Ġà¶ħà¶Ńà·Ĭà·Ģà·Ĳ": 6426,
      "Ġà¶ķà¶±à·Ģà¶§": 6427,
      "Ġà¶Ńà·Ĵà¶ºà·ļà¶¯": 6428,
      "Ġà¶¸à·Ħà¶Ńà·Ĭà¶Ńà¶º": 6429,
      "ter": 6430,
      "Ġà¶ºà¶§à·Ĵà¶±à·Ĭ": 6431,
      "à¶ħà¶Ĥ": 6432,
      "Ġà¶ļà·Ķà·ĥà·Ĭà·ĥ": 6433,
      "Ġà¶±à¶»à¶ļà·Ĭ": 6434,
      "à¶´à·Ĭà¶§à·Ĵ": 6435,
      "à¶ĳà·Ħà·Ļà¶Ńà·Ĭ": 6436,
      "Ġà·ĥà·Ħà·ıà¶º": 6437,
      "Ġà¶Ľà·ıà¶±à·Ĭ": 6438,
      "âĢįà¶»à¶®": 6439,
      "Ġà¶Ĩà¶¯à¶»à¶ºà·Ĵ": 6440,
      "Ġà·ĥà¶¸à·ĵà¶´": 6441,
      "Ġà¶»à·Ĳà¶±à·Ĭ": 6442,
      "à¶¯à·Ļà·Ģà·Ĵà¶ºà¶±à·Ĭà¶§": 6443,
      "Ġà¶½à¶¶à¶±": 6444,
      "Ġà¶ļà¶»à¶±à·Ģà·ıà¶¯": 6445,
      "Ġà·Ģà·Ĵà¶Ńà¶»à¶¯": 6446,
      "Ġà¶´à·ıà¶»à·Ĭ": 6447,
      "Ġà¶ºà¶¯à·Ĭà¶¯à·Ĵ": 6448,
      "Ġà¶Ĵà·Ģà¶ľà·ļ": 6449,
      "Ġà¶ºà¶Ĥ": 6450,
      "Ġà¶´à¶±à·Ĭà¶Ńà·Ĵà¶º": 6451,
      "Ġà¶Ķà¶ºà·ıà¶§à¶ºà·Ĵ": 6452,
      "à·ĥà·Ĭà¶Ńà·Ĵà¶¯": 6453,
      "à·ĥà·Ĵà¶ºà¶½à·Ķ": 6454,
      "à¶´à¶¯à·Ĵ": 6455,
      "à·Ħà¶¸à·Ķà·Ģ": 6456,
      "Ġà·Ģà¶ºà·Ĵà¶±à·Ĭ": 6457,
      "Ġà¶¯à¶»à·ı": 6458,
      "Ġà¶Ķà¶½à·Ķà·Ģà¶§": 6459,
      "à·Ģà·ıà¶±à·Ĭ": 6460,
      "à¶¸à·ıà·ĥà·Ĭà¶§à¶»à·Ĭ": 6461,
      "Ġà·ĥà¶Ĥà¶ľà·ĵà¶Ń": 6462,
      "Ġà¶ľà·ıà¶±à¶ļà¶§": 6463,
      "Ġà¶ļà¶¯à·Ķ": 6464,
      "à¶Ńà·Ĭà¶¸à¶ļà¶ºà·Ĵ": 6465,
      "Ġà·ĥà·Ĭà·Ģà·ıà¶¸à·Ĵ": 6466,
      "Ġà·Ħà·Ķà·Ģà¶¸à·ıà¶»à·Ķ": 6467,
      "Ġà¶¢à¶±à·ļ": 6468,
      "Ġà·ĥà·Ĳà¶´à¶ºà·Ķ": 6469,
      "Ġà¶ļà·Ħ": 6470,
      "Ġà·Ģà·Ĳà·ĥà·Ĵà¶º": 6471,
      "à¶±à·ıà·Ģà¶»à·Ķà¶±à·Ĵ": 6472,
      "Ġà¶¸à·Ĵà¶§": 6473,
      "Ġà¶´à·Ĳà·Ħà·Ĳà¶»à¶ľà·Ļà¶±": 6474,
      "à¶ħà¶ºà·Ĵà¶ºà·ļ": 6475,
      "Ġà¶´à·Ģà·Ķà¶½à¶§": 6476,
      "à¶ļà·ĵà¶¸à·Ĭ": 6477,
      "Ġà¶¶à·Ĵà·ĥà·Ĭà¶±à·ĥà·Ĭ": 6478,
      "à¶Ķà·Ħà·ļà¶§": 6479,
      "Ġà¶Ķà¶ºà·ıà¶ľà·Ŀ": 6480,
      "Ġmon": 6481,
      "Ġà¶´à·Ķà¶¯à·Ĭà¶ľà¶½à¶ºà·ı": 6482,
      "à¶ĳà·Ħà·ļ": 6483,
      "Ġà·ĥà·Ļà¶¶": 6484,
      "à¶¶à·Ķà¶±à·Ĭ": 6485,
      "Ġà¶¯à·Ļà¶´à·ıà¶»à¶ļà·Ĭ": 6486,
      "Ġà¶¯à·Ķà¶»à¶ļà·Ĭ": 6487,
      "Ġà¶Ńà·ļà¶»à·Ķà¶«à·ıà¶¯": 6488,
      "à¶§à·Ĳ": 6489,
      "Ġà·ĥà·ĺ": 6490,
      "Ġà¶¸à·ıà·Ģà¶Ńà·Ĭ": 6491,
      "à¶ħà·Ģà¶Ĥà¶ļ": 6492,
      "Ġà·Ģà·ĵà¶¸à¶ļà·Ĭ": 6493,
      "Ġà¶±à·ľà¶¯": 6494,
      "Ġà·Ģà·Ĳà·ĥà·Ĵ": 6495,
      "à·ĥà·ıà¶¯à¶»à¶ºà·Ļà¶±à·Ĭ": 6496,
      "Ġà¶ļà·Ļà¶½à·Ĵà¶±à·Ĭ": 6497,
      "Ġà¶ľà¶±à·Ĵà¶ºà·Ĵ": 6498,
      "Ġà¶Ńà·ıà·Ģ": 6499,
      "Ġà·Ģà·Ĵà¶¸à¶»à·Ĭà·ģ": 6500,
      "à¶¸à·Ķà¶±à·Ĭ": 6501,
      "Ġà·Ģà·Ĳà¶»à¶¯à·Ĵà¶ºà¶§": 6502,
      "à¶Ĩà¶ºà·ļ": 6503,
      "à·Ģà·Ķà¶«": 6504,
      "Ġà¶ħà·ĥà¶»à¶«": 6505,
      "Ġà¶Ķà·Ħà·Ķà¶Ńà·Ĭ": 6506,
      "ick": 6507,
      "à¶´à·ĵà¶§à¶»à·Ĭ": 6508,
      "Ġà·Ģà·Ĵà¶ļà·Ķà¶«à¶±à·Ĭà¶±": 6509,
      "à·Ģà·Ĵà¶ºà·ļ": 6510,
      "Ġà·ĥà·Ĵà¶»à·Ķà¶»": 6511,
      "Ġà¶ļà·ľà¶ļ": 6512,
      "à·ĥà·Ĭà·ĥà·ı": 6513,
      "à¶½à·Ĵà¶¸à¶Ńà·Ĭ": 6514,
      "Ġà·ĥà¶½à¶ļà·Ķà¶«à¶ļà·Ĭ": 6515,
      "à·Ħà·ıà·ĥà¶º": 6516,
      "à¶±à·Ļà¶Ńà·Ĭ": 6517,
      "Ġà¶Ńà·ļà¶»à·Ķà¶±à·ļ": 6518,
      "à¶´à·Ĵà¶ºà·Ŀ": 6519,
      "Ġà¶īà¶¯à¶ľà¶±à·Ĭà¶±": 6520,
      "Ġà¶±à·ıà¶±": 6521,
      "à¶¸à·ıà¶ļà·ıà¶»": 6522,
      "à¶»à·Ĵà¶Ńà·Ĭ": 6523,
      "Ġà¶ºà¶¸à·Ķà¶¯": 6524,
      "à·Ĳà¶±à·ĵ": 6525,
      "Ġà·ĥà¶Ĥà·ĥà·Ĭ": 6526,
      "Ġà¶¸à¶»à¶«à·Ģà·ı": 6527,
      "âĢįà¶ºà·Ļ": 6528,
      "Ġà¶¸à·ıà¶§à·Ĵà¶±à·Ĭ": 6529,
      "Ġà·ħà¶ľ": 6530,
      "Ġà·Ģà¶±à·Ĭ": 6531,
      "Ġà·Ħà·Ŀà¶¸à·Ĭà·ĥà·Ĭ": 6532,
      "nu": 6533,
      "à¶»à·Ķà¶ºà·Ĵ": 6534,
      "Ġà¶´à¶»à·Ĵà¶¯à·Ĵ": 6535,
      "à¶Ķà¶ºà·ıà¶¸": 6536,
      "à¶Ķà¶¶à¶½à·ı": 6537,
      "Ġà¶ľà·Ĳà·Ħà·Ĳà¶±": 6538,
      "Ġà¶ľà·Ħà¶±à·Ĭà¶±à·ļ": 6539,
      "à¶ľà·Ŀà¶¸": 6540,
      "Ġà¶ĩà¶¶à·Ĭ": 6541,
      "Ġà¶´à·Ļà¶±à·Ļà¶±": 6542,
      "Ġà¶ħà·Ģà·Ķà¶»à·Ķà¶¯à·Ĭà¶¯à·ļ": 6543,
      "Ġà¶½à·ļà·ĥà·Ĵà¶ºà·Ĵ": 6544,
      "à·ĥà¶Ńà·Ĭà¶Ńà¶ļà·Ĵà¶±à·Ĭà¶¸": 6545,
      "Ġà¶Ńà·ıà¶Ńà·Ĭà¶Ńà¶ľà·Ļ": 6546,
      "Ġà¶ļà·Ĭà¶½à·Ĵà¶ļà·Ĭ": 6547,
      "Ġà¶´à·ľà¶»à·ľà¶±à·Ĭà¶¯à·Ķà·Ģ": 6548,
      "Ġà·ħà¶¸à¶ºà·Ĵà¶±à·Ĭà¶§": 6549,
      "à·ĺà¶¯": 6550,
      "Ġà¶Ńà·Ĳà¶¶": 6551,
      "Ġà·Ħà·Ĵà¶¸à·Ĵà¶ļ": 6552,
      "Ġà¶ļà·Ļà¶±à·Ļà¶ļà·Ĭà¶¸": 6553,
      "Ġà¶ºà·ıà·ħà·Ķà·Ģà¶±à·Ĭ": 6554,
      "Ġà¶©à·Ĵà¶»à·Ļà¶ļà·Ĭà¶§à¶»à·Ĵà¶º": 6555,
      "Ġà·Ģà·Ļà¶±à¶ļà¶½à·Ĭ": 6556,
      "Ġà·Ħà·Ĳà¶¯à·Ĵ": 6557,
      "Ġà¶±à·Ļà·Ģà·Ĵ": 6558,
      "Ġà¶¯à·ĸà¶´à¶Ń": 6559,
      "Ġà¶¯à·ıà¶±à·Ĭà¶±à·ļ": 6560,
      "ant": 6561,
      "Ġà¶»à·Ļà¶©à·Ĭ": 6562,
      "à¶¸à·ľà¶©": 6563,
      "à·Ĥà·Ĭà¶§à¶ºà·Ĵ": 6564,
      "own": 6565,
      "Ġà¶ľà·Ĳà·Ħà·Ķà·Ģà·ļ": 6566,
      "à¶´à·Ĵà¶½à·Ĵ": 6567,
      "Ġà¶´à·ıà¶»à·Ļ": 6568,
      "Ġwill": 6569,
      "Ġà¶ļà¶´à·ı": 6570,
      "Ġà·Ħà·Ĳà·ĥà·Ĵ": 6571,
      "à¶ľà·ıà¶±": 6572,
      "Ġà¶´à¶»à·ĵà¶ļà·Ĭà·Ĥà¶«à¶ºà¶ļà·Ĭ": 6573,
      "à¶¯à·ĵà¶¸à¶ļà·Ĭ": 6574,
      "à·Ķà¶Ńà·Ĭà¶¸": 6575,
      "Ġà¶ĩà¶³à¶ľà·Ļà¶±": 6576,
      "à·Ķà¶±": 6577,
      "Ġà¶´à¶Ĥ": 6578,
      "Ġà¶īà¶ľà·Ĳà¶±à·Ĭà¶±": 6579,
      "à·Ĳà¶±à¶§à·Ĭ": 6580,
      "Ġà¶īà¶Ńà·ıà¶¸à¶Ńà·Ĭ": 6581,
      "Ġà·Ħà·Ĳà¶¸à¶¯à·ı": 6582,
      "Ġà¶ļà¶§à·Ģà·Ħ": 6583,
      "à¶¢à·ļà¶ļà·Ĭ": 6584,
      "Ġà·ĥà¶ļà·ĥà·Ĭ": 6585,
      "Ġcount": 6586,
      "Ġà·Ħà¶»à·Ĭà¶½à·Ĵ": 6587,
      "Ġà·ĥà·ĵà¶Ńà¶½": 6588,
      "à¶±à·Ĵà¶±à·Ĭ": 6589,
      "Ġà¶¸à·ľà¶±à·Ĭà¶»à·Ŀ": 6590,
      "âĢįà¶ºà·ļ": 6591,
      "Ġà·Ħà·ĥà·Ķ": 6592,
      "à¶ĳà·Ħà·Ĵ": 6593,
      "Ġà¶±à·ıà¶§à·Ĭ": 6594,
      "Ġà¶ĳà¶ļà¶ļà·Ĭà·Ģà¶Ńà·Ĭ": 6595,
      "à¶ļà¶»à¶¯à¶»": 6596,
      "à·Ģà·Ĭà·Ģà·ľà¶Ńà·Ĭ": 6597,
      "à¶Ńà·Ĭà·Ģà¶ºà¶§": 6598,
      "Ġà¶ĩà¶³à·Ķà¶¸à¶ļà·Ĭ": 6599,
      "Ġà·Ģà·Ĵà·Ģà·ļà¶ļà¶ºà¶ļà·Ĭ": 6600,
      "Ġà¶ľà¶«à·Ķà¶¯à·Ļà¶±à·Ķ": 6601,
      "Ġà¶¶à·ľà¶»à·Ķà·Ģà¶§": 6602,
      "Ġà¶īà·Ģà¶Ń": 6603,
      "à¶ħà¶¸à·Ĭà¶¸": 6604,
      "Ġà·Ģà·Ķà·Ģà¶¸à¶±à·ı": 6605,
      "Ġà·Ģà·ĵà¶¸à·ļ": 6606,
      "à¶īà¶³": 6607,
      "à¶Ńà·ıà¶Ńà·Ĭà¶Ńà·Ļ": 6608,
      "à·Ĳà¶±à·ı": 6609,
      "à·Ģà·Ĵà¶½à·Ĭà¶½": 6610,
      "mb": 6611,
      "Ġà¶ħà¶ºà¶ľà·Ļà¶±à·Ĭ": 6612,
      "Ġà¶ºà¶±à¶ļà¶¸à·Ĭ": 6613,
      "ave": 6614,
      "Ġà¶¯à·ĵà¶´à¶±à·Ĭ": 6615,
      "Ġà¶´à·Ĳà¶±à·Ĭà¶±": 6616,
      "Ġà¶Ĵà¶ļà¶±à¶¸à·Ĭ": 6617,
      "Ġà¶´à·ıà¶½à¶ļà¶º": 6618,
      "à¶½à·Ĵà·Ģà¶»à·Ĭ": 6619,
      "à¶ºà¶±à·Ĭà¶ľà·ļ": 6620,
      "Ġà¶ļà·Ĳà¶¸à·Ĳà¶Ńà·Ĭà¶Ńà¶ļà·Ĭ": 6621,
      "Ġà¶±à·Ĳà¶±à·ļ": 6622,
      "à¶±à·Ĭà·Ģà·ı": 6623,
      "à¶¯à·Ĭà¶¯à·ı": 6624,
      "Ġà·Ħà¶»à·Ĵà¶ºà¶ºà·Ĵ": 6625,
      "Ġwor": 6626,
      "Ġà¶¥": 6627,
      "Ġà¶¶à·Ĵà¶¸à·Ĭ": 6628,
      "Ġà¶ħà¶½à·Ĭà¶½à¶±à·Ĭ": 6629,
      "Ġà·Ģà·Ĵà¶»à·Ŀà¶°": 6630,
      "à¶»à·ıà¶½à·Ĭ": 6631,
      "à·ĥà·Ĳà¶½": 6632,
      "'%": 6633,
      "Ġà¶ļà·Ĳà¶©": 6634,
      "à·Ĵà¶¸": 6635,
      "à·Ģà¶ł": 6636,
      "âĢįà¶»à¶ºà·Ŀà¶¢à¶±à·Ģà¶Ńà·Ĭ": 6637,
      "âĢįà¶¸à·ļ": 6638,
      "Ġà¶½à·Ĵà¶ºà·Ķà¶¸à·Ĭ": 6639,
      "à·ıà·Ģà¶±à·Ĭ": 6640,
      "Ġà·Ģà·Ļà·ĥà·Ĭ": 6641,
      "Ġà¶´à·Ĵà·Ħ": 6642,
      "Ġà¶ļà¶©à·Ķà·Ģ": 6643,
      "Ġà¶ļà¶»à¶Ńà·Ĭ": 6644,
      "Ġà¶¸à·ıà·ĥà·Ĭà¶§à¶»à·Ĭ": 6645,
      "à·ĥà¶¸à·Ĭà¶¶": 6646,
      "Ġà¶¯à·Ĳà¶±à·Ļà¶±à·Ĭà¶±": 6647,
      "à¶¶à·ıà¶°": 6648,
      "Ġà¶¯à·ľà¶»à·Ģà¶½à·Ĭ": 6649,
      "Ġà¶¶à·Ĳà¶½à·Ķà·Ģà·ļ": 6650,
      "à·Ħà¶Ńà¶»": 6651,
      "Ġà¶»à·Ķà¶°à·Ĵ": 6652,
      "Ġà·ĥà·Ĳà·ħ": 6653,
      "Ġà¶©à·ļà·Ģà·Ĵà¶©à·Ĭ": 6654,
      "à·ĥà·Ķà¶±à·Ĭà·Ģ": 6655,
      "Ġà¶ħà¶°à·Ĵà¶ļ": 6656,
      "Ġà¶¶à·Ŀà¶½": 6657,
      "Ġà¶´à·Ķà·Ħà·Ķà¶«à·Ķà·Ģ": 6658,
      "Ġà·ĥà¶Ńà·ı": 6659,
      "Ġà·Ģà¶½à·Ĵ": 6660,
      "Ġà¶ħà¶½à·Ĭà¶½à·ıà¶ľà·Ļà¶±": 6661,
      "à·Ħà·ľà¶»": 6662,
      "Ġà¶ľà¶±à·Ĭà¶±à¶ºà·Ĵ": 6663,
      "à¶ħà¶±à·Ĭ": 6664,
      "Ġà¶±à·Ĳà¶ľà·Ļà¶±à·Ħà·Ĵà¶»": 6665,
      "Ġà·Ģà·Ĳà¶§à·Ļà¶±": 6666,
      "\"à¶¸à¶ľà·ļ": 6667,
      "à¶·à·ĸ": 6668,
      "à¶Ńà·Ĵà¶ºà¶±à·Ĭà¶±": 6669,
      "Ġà¶«à¶ºà¶ºà·Ĵ": 6670,
      "Ġà¶´à¶¯à¶ļà·Ĭà¶ļ": 6671,
      "Ġà¶ļà·ħà¶¸": 6672,
      "Ġà¶¸à·Ĵà¶½à¶¯à·ĵ": 6673,
      "Ġà¶±à·Ĳà·Ģà¶Ńà·Ĵà¶½à·ı": 6674,
      "Ġà·Ģà·Ļà¶¶à·Ĭ": 6675,
      "à¶ļà¶»à¶ºà·Ĵ": 6676,
      "ines": 6677,
      "à·Ħà·ľà¶³à¶§": 6678,
      "Ġà·Ģà·ļà¶¯à·Ĵ": 6679,
      "à·Ħà·ľà¶¯à¶§": 6680,
      "Ġà¶´à·Ĵà¶»à·Ĵà·ĥà¶ļà·Ĭ": 6681,
      "à·Ķà¶Ńà·Ķ": 6682,
      "Ġà¶±à·Ĵà·ħà¶°à·ıà¶»": 6683,
      "Ġà·Ģà¶±à·ļà¶±à·ļ": 6684,
      "à¶ºà·Ļà¶ļà·Ķ": 6685,
      "Ġà¶»à¶¢à¶º": 6686,
      "Ġà¶±à·Ĵà¶ºà·Ŀà¶¢à·Ĵà¶Ńà¶ºà·Ļà¶ļà·Ĭ": 6687,
      "Ġà¶»à·ļà·ĥà·Ĭ": 6688,
      "âĢįà¶´": 6689,
      "à¶½à·Ĭà·Ģà·Ĵà¶½à·Ĭ": 6690,
      "Ġà¶±à·ľà·Ħà·Ĳà¶ļà·Ĵà¶ºà·Ĵ": 6691,
      "Ġà¶ħà·Ģà·ĥà·Ĭà¶Ńà·ıà·Ģ": 6692,
      "Ġà¶Ĩà¶ºà·Ķà¶°à¶ºà¶ļà·Ĭ": 6693,
      "à¶½à·Ģà·Ĭ": 6694,
      "Ġlabel": 6695,
      "Ġà·Ħà·Ŀà·Ģà·Ĭ": 6696,
      "à¶´à¶Ńà¶ļà·Ĭ": 6697,
      "Ġà¶±à·Ĵà¶ļà·Ķà¶Ńà·Ĭ": 6698,
      "Ġpl": 6699,
      "à¶¯à·ıà¶ľà¶±à·Ĭà¶±": 6700,
      "Ġà¶ķà¶±à¶±à¶¸à·Ĭ": 6701,
      "à¶¸à·Ļà·Ħà·Ļà¶±à·Ĭ": 6702,
      "à·Ģà·Ľà¶¯à·Ĭ": 6703,
      "à¶¸à·Ĵà¶ºà·Ļà¶ļà·Ĭ": 6704,
      "à¶łà·ıà¶»à·Ĭà¶½à·Ĵ": 6705,
      "à·ĥà¶±à·Ĭà¶§": 6706,
      "à¶ĩà¶±à·ı": 6707,
      "Ġà·Ģà·Ħà·ıà¶¸": 6708,
      "Ġà¶ħà·Ģà·ĥà·Ĭà¶®à·ı": 6709,
      "Ġà¶´à·ıà¶§à¶ºà·Ĵ": 6710,
      "à¶½à¶±à·Ģà·ı": 6711,
      "à¶īà¶Ńà·ı": 6712,
      "à¶½à¶ºà·Ĵà¶§à·Ĭ": 6713,
      "Ġà¶±à·Ĳà¶Łà·Ĵ": 6714,
      "Ġà·ĥà¶Ĥà¶Ľà·Ĭ": 6715,
      "Ġà¶¶à·Ŀà¶¸à·Ĭà¶¶à¶º": 6716,
      "Ġà·ĥà·Ĵà¶¯": 6717,
      "Ġà¶ľà¶Ńà·Ĭà¶Ńà¶§": 6718,
      "Ġà¶»à¶«à·Ĭà¶©à·Ķ": 6719,
      "Ġà¶¥à·ı": 6720,
      "Ġà·Ģà·Ĵà·ģà·ı": 6721,
      "à·Ģà·Ĵà·ĥà·Ĭ": 6722,
      "Ġà¶±à·Ĵà·Ģà·Ĳà¶»à¶¯à·Ĵà¶ºà·Ĵ": 6723,
      "à¶Ĩà¶»à·Ĭ": 6724,
      "Ġà¶±à·Ĵà·Ĥà·Ĭà¶´à·ıà¶¯": 6725,
      "Ġà¶ºà·ıà¶Ńà·Ĭ": 6726,
      "Ġà·Ģà·Ĳà¶§à·Ķà¶±": 6727,
      "ĠâĪĻâĪĻâĪĻčĊ": 6728,
      "Ġà¶ĳà¶ļà·Ĭà¶ļà·Ļà¶±": 6729,
      "Ġà¶Ĵà¶Ńà·Ĭà¶Ńà·Ķ": 6730,
      "à¶»à¶«à¶¸": 6731,
      "Ġà¶īà¶±à·Ĭà¶°à¶±": 6732,
      "à·Ģà·Ļà¶½à·ıà·Ģà¶§": 6733,
      "à¶ĳà¶ºà·ıà¶½à¶ľà·ļ": 6734,
      "Ġà¶ħà¶Ńà·ĵà¶Ńà¶º": 6735,
      "Ġà·ĥà¶Ńà·Ĵà¶ºà¶ļà·Ĭ": 6736,
      "Ġà¶¯à¶»à·ıà¶ľà¶±à·Ĭà¶±": 6737,
      "à¶´à¶¸à¶«": 6738,
      "Ġà·Ħà·Ĵà¶§à·Ĵà¶ºà¶±à¶¸à·Ĭ": 6739,
      "Ġà·Ģà·ĵà¶»à¶ºà·ı": 6740,
      "Ġà¶ĭà¶±à·Ĭà¶±à·Ļ": 6741,
      "à·Ģà·ıà¶¯à·Ĵà¶ºà·Ļà¶ļà·Ĭ": 6742,
      "Ġà¶¸à·ľà¶ļà·Ģà¶Ńà·Ĭ": 6743,
      "Ġà¶ļà·Ķà¶¸à¶ļà·Ĭ": 6744,
      "ck": 6745,
      "Ġà·Ħà¶»à·Ĵà¶±à·Ĭà¶±": 6746,
      "Ġà¶ħà¶»à¶ľà¶Ńà·Ĭà¶Ńà·ı": 6747,
      "à¶¯à·Ĵà¶ºà·ıà·Ģ": 6748,
      "à¶ļà¶»à·Ķà·Ģà·ı": 6749,
      "Ġà¶ħà·Ģà¶¶à·Ŀà¶°": 6750,
      "Âłà¶ķà¶±": 6751,
      "à·Ģà·ĵà¶»à·Ĭ": 6752,
      "à¶ĭà¶©à¶§": 6753,
      "à·ĥà·Ĭà¶ľà·ļ": 6754,
      "Ġà·Ģà·Ĵà·Ģà¶»": 6755,
      "Ġà¶ħà¶½à·Ĭà¶½à¶±à·Ģà·ı": 6756,
      "Ġà¶±à·ĵà¶Ńà·ĵ": 6757,
      "Ġà·Ģà·Ĵà¶¯à·Ķà¶½à·Ĵà¶º": 6758,
      "Ġà¶´à·Ĵà·ħà·Ĵà¶¶à¶³à·Ģ": 6759,
      "Ġà¶ļà·Ĵà¶ºà¶½à¶Ńà·Ĭ": 6760,
      "Ġà¶ĩà¶Ńà·Ĭ": 6761,
      "Ġsub": 6762,
      "Ġà¶ļà·ļà¶§à·Ĭ": 6763,
      "à¶ļà¶¸à·Ŀà¶±à·Ĭ": 6764,
      "à¶ħà¶±à·Ĵà¶ļà·Ĭ": 6765,
      "à·Ļà·ı": 6766,
      "à¶´à·Ĵà¶Ń": 6767,
      "Ġà¶©à¶ºà·Ĵ": 6768,
      "Ġà¶±à·ľà¶¯à·Ĳà¶±": 6769,
      "à¶ĳà¶ºà¶Ńà·Ĭ": 6770,
      "à¶ľà·ŀ": 6771,
      "Ġà¶ĭà·Ģà¶¸à¶±": 6772,
      "à¶»à·Ħ": 6773,
      "Ġà¶ĭà¶«à·ı": 6774,
      "à¶Ńà·Ķà·Ģà·ı": 6775,
      "à¶ºà¶±à·Ģ": 6776,
      "à·ĥà·Ĭà¶Ńà·ı": 6777,
      "Ġà¶Ĩà¶ºà¶Ńà¶±à¶º": 6778,
      "-a": 6779,
      "à·Ħà¶±à·ļ": 6780,
      "à¶©à·Ĭà·ĥà·Ĭ": 6781,
      "à¶©à·ıà¶ºà¶¸": 6782,
      "Ġbut": 6783,
      "Ġà¶ķà·Ģà·ı": 6784,
      "à·Ħà·Ŀà¶¸": 6785,
      "Ġà¶´à¶»à·Ĵà¶´": 6786,
      "Ġà¶ļà¶»à¶ľà¶Ńà·Ĭà¶Ń": 6787,
      "Ġà¶¸à·Ķà¶ļà·Ķà¶Ńà·Ĭà¶¸": 6788,
      "Ġà·Ģà·Ĳà¶¯à¶ľà¶Ńà·Ĭà¶¸": 6789,
      "à¶´à·ľà¶½à·Ĵà·ĥà·Ĵà¶º": 6790,
      "Ġà¶¶à·ľà¶¶à·Ĭ": 6791,
      "Ġà¶¸à·Ĵà¶±à·Ĵà·Ħà¶ļà·ļ": 6792,
      "Ġà¶´à¶»à·Ĵà·ĥà·Ĭà·ĥà¶¸à·Ĵà¶±à·Ĭ": 6793,
      "Ġà·Ħà·Ĵà¶Ńà¶±à·Ĭà¶±à·ĳ": 6794,
      "Ġà¶ľà¶«à·Ķà¶¯à·Ļà¶±à·Ķà·Ģà¶ļà·Ĭ": 6795,
      "Ġà¶´à·Ĳà¶»à¶«à·Ĵ": 6796,
      "à¶½à·Ķà¶±à·Ĭ": 6797,
      "Ġà¶»à·ĳà¶¸": 6798,
      "à¶īà¶½à¶ļà·Ĭà¶ļ": 6799,
      "à¶´à¶ºà¶ļà·Ĵà¶±à·Ĭ": 6800,
      "à·ħà¶ľ": 6801,
      "Ġà·Ģà·Ĵà¶°à·Ĵà¶ºà¶§": 6802,
      "Ġà·Ħà¶¯à¶½": 6803,
      "Ġà¶¶à¶©à¶ľà·Ĵà¶±à·Ĵ": 6804,
      "à¶Ńà·ļà¶»": 6805,
      "à·Ģà¶±à·Ĵ": 6806,
      "à¶»à·Ķà¶Ńà·Ĭ": 6807,
      "à¶Ķà¶ºà·ıà¶½à¶ľà·Ļ": 6808,
      "Ġà·Ħà·Ĳà¶Łà·ĵà¶¸à·Ĭ": 6809,
      "Ġà¶¸à·Ĳà¶ļà·Ĭà·ĥà·Ĭ": 6810,
      "à·Ģà¶½à¶¸à·Ĭ": 6811,
      "à¶¶à·Ŀà¶¸à·Ĭà¶¶": 6812,
      "à¶ļà·ıà·ģà¶º": 6813,
      "à¶·à·ıà¶´à¶Ńà·Ĵ": 6814,
      "à¶ĩà¶½": 6815,
      "Ġà·ĥà¶¸à·ıà¶ľà¶¸à·ļ": 6816,
      "ico": 6817,
      "à¶§à·Ĵà¶ºà¶±à·Ĭ": 6818,
      "Ġà¶ļà·Ķà¶¸à·ıà¶»": 6819,
      "Ġà¶´à·Ĵà·Ħà·Ĵà¶§": 6820,
      "KDE": 6821,
      "Ġà¶īà¶±à·Ĭà¶±à¶ºà·Ĵ": 6822,
      "à¶»à¶Ńà·Ķ": 6823,
      "à¶ľà¶¸à·Ĭ": 6824,
      "à¶»à·Ĭà¶¸": 6825,
      "Ġà¶ļà·Ļà¶½à·Ĭà¶½à¶§": 6826,
      "Ġà¶ĩà¶¸à¶Ńà·Ķà¶¸": 6827,
      "Ġà·Ħà·Ĳà¶Łà·ĵà¶¸à¶ļà·Ĭ": 6828,
      "Ġà¶ĭà¶¸à¶Ĥ": 6829,
      "Ġà¶Īà¶Ń": 6830,
      "Ġà·Ģà·Ĵà¶½à·ı": 6831,
      "Ġà·Ģà¶½à¶ļà·Ĭ": 6832,
      "Ġà¶ħà¶´à¶»à·ıà¶°à¶ºà¶ļà·Ĭ": 6833,
      "à·Ļà¶±à·ļ": 6834,
      "à·ľà¶ºà·Ĵà¶©à·Ĭ": 6835,
      "Ġà¶ĩà¶Ńà·Ķà¶½à¶Ńà·Ĭ": 6836,
      "à¶´à·Ķà¶¯à·Ķà¶¸": 6837,
      "tur": 6838,
      "Ġà¶¸à·Ĭà¶¸à·Ĭ": 6839,
      "Ġà¶ĳà·Ļ": 6840,
      "à¶ļà·ıà¶±à·Ĭà¶Ńà·Ĭ": 6841,
      "à·ĥà·Ĭà·ĥà·Ķà·Ģà·ı": 6842,
      "Ġstat": 6843,
      "à¶Ĩà¶¯à¶»à¶º": 6844,
      "Ġà¶¶à¶ºà·Ĵà¶ļà·Ĭ": 6845,
      "Ġà¶ļà¶±à·Ĭà¶±à·ļ": 6846,
      "à·Ħà·ıà¶±à·Ĭ": 6847,
      "Ġà·ĥà·ľà·Ħà·ľ": 6848,
      "à·Ĩà·ĵà¶½à·Ĭà¶©à·Ĭ": 6849,
      "à¶§à¶¸à¶Ńà·Ĭ": 6850,
      "à¶Ńà¶±à·Ĵ": 6851,
      "Ġà¶ľà·Ĵà¶ºà¶Ńà·Ĭ": 6852,
      "Ġà¶ĩà·Ħà·Ķà·Ģà·Ļ": 6853,
      "Ġà·Ģà·Ļà·ħà¶³": 6854,
      "Ġà¶¶à¶©à¶ľà·Ĵ": 6855,
      "à¶Ńà·Ĭà¶Ńà·Ķà·Ģà·Ļà¶±à·Ĭ": 6856,
      "à·ĥà·Ķà¶»à·Ķ": 6857,
      "Ġà¶´à·ĥà·Ķà¶´à·ĥ": 6858,
      "âĢįà¶©": 6859,
      "Ġà·Ģà·Ĵà·ģà·Ĵà·Ĥà·Ĭà¶§": 6860,
      "à¶¢à¶½à·ĵ": 6861,
      "à¶Ńà·Ĭà¶Ńà·Ķà·Ģà·ļ": 6862,
      "Ġà¶ħà¶»à·Ĭà¶®": 6863,
      "Ġà¶ļà·Ģà¶¯à·ıà·Ħà¶»à·Ĵ": 6864,
      "Ġà¶±à¶©": 6865,
      "âĢįà¶»à·Ĵà¶ļ": 6866,
      "Ġà¶±à·ıà¶¸": 6867,
      "Ġà¶ħà¶¸à¶Ńà¶±à·Ĭà¶±": 6868,
      "Ġà·ĥà¶·": 6869,
      "à·ħà¶ľà¶§": 6870,
      "Ġà¶¯à·ļà¶´à¶½": 6871,
      "à·ļà¶Ńà·Ĭ": 6872,
      "à¶ļà·ıà¶¸à·ĵ": 6873,
      "à·Ĩà·Ĭà¶§à·Ĭ": 6874,
      "Region": 6875,
      "Ġà¶ĳà¶ļà·Ŀ": 6876,
      "à¶ĩà¶¸à¶»à·Ĵà¶ļà·ıà·Ģ": 6877,
      "à·ľà¶Ńà·Ĵà¶±à·Ĭ": 6878,
      "à¶´à¶»à¶«": 6879,
      "à·Ģà·ıà·Ħà·Ĵ": 6880,
      "Ġà¶ļà·ľà¶½à·ļ": 6881,
      "à¶¸à·Ĵà¶§": 6882,
      "Ġà¶ĳà·ħà·Ĵà¶º": 6883,
      "AT": 6884,
      "Ġà¶ľà¶«à¶±à¶º": 6885,
      "to": 6886,
      "à¶ĩà¶½à·Ĭ": 6887,
      "Ġà¶´à¶»à·Ĵà¶ļà·Ĭà·Ĥ": 6888,
      "Ġà¶īà¶¯à¶ľà·Ļà¶±": 6889,
      "Ġà·ĥà¶¸à·Ĭà¶¶à¶±à·Ĭà¶°à¶º": 6890,
      "à¶Ĭà¶§à¶´à·ĥà·Ĭà·ĥà·ļ": 6891,
      "Ġà¶±à·Ĵà¶¯à·ıà¶ľà·Ļà¶±": 6892,
      "90": 6893,
      "à·ĥà·Ĭà¶§à·ĵà·Ģà·Ĭ": 6894,
      "Ġà¶¡à¶±à·Ĭà¶¯": 6895,
      "Ġà·Ģà·Ļà¶½": 6896,
      "Ġà·Ħà¶³": 6897,
      "à·Ģà·ĥà·Ĭà¶Ńà·Ķà·Ģà·ļ": 6898,
      "Ġà¶¶à·Ĵà¶Ńà·Ĭà¶Ńà·Ĵà¶º": 6899,
      "Ġà¶ļà·Ĵà¶½à·Ŀ": 6900,
      "Ġà¶¯à·Ķà¶±à·Ĭà¶±à¶¯": 6901,
      "RL": 6902,
      "Ġà·ĥà·Ĳà¶±": 6903,
      "Ġà¶¸à·ľà¶±à·Ģà¶ľà·ļ": 6904,
      "à¶¯à¶ľà¶±à·Ĭà¶±": 6905,
      "Ġà¶´à¶»à·ĵà¶ļà·Ĭà·Ĥà¶«à¶º": 6906,
      "Ġwith": 6907,
      "Ġà¶»à¶¢à¶ºà·ļ": 6908,
      "à¶´à·Ĵà¶§à·Ĵ": 6909,
      "ik": 6910,
      "Ġà·ĥà·Ĭà¶ļà·ľà¶§à·Ĭ": 6911,
      "Ġà·Ģà·Ħà¶½": 6912,
      "lease": 6913,
      "Ġà¶ļà¶Ńà·ıà¶ļà¶»à¶±à·Ĭà¶±à·Ļ": 6914,
      "à·Ħà·Ģ": 6915,
      "Ġà¶Ĩà¶łà·ıà¶»": 6916,
      "à¶©à·Ķà·Ģà·ı": 6917,
      "Ġà¶½à¶¯": 6918,
      "Ġà¶´à·Ĵà¶±à·Ĭà¶Ńà·ĸà¶»à¶ºà¶ļà·Ĭ": 6919,
      "à¶½à·ĳà·Ĥà·Ĭ": 6920,
      "Ġà·Ħà¶±à·Ĭà¶§à·Ĭ": 6921,
      "Ġà¶ĭà¶Ńà·Ĭà¶Ńà¶»à¶ºà¶ļà·Ĭ": 6922,
      "Ġà¶´à·Ĭà¶½à¶ľà·Ĵà¶±": 6923,
      "ich": 6924,
      "âĢįà¶ºà·Ŀ": 6925,
      "à·Ģà·ļà¶ľ": 6926,
      "Ġà·Ħà¶¸à·Ĭà¶¶à·Ģà·Ķà¶±à·ı": 6927,
      "à¶½à·Ĵà¶ºà·ļ": 6928,
      "Ġà·Ħà·Ĳà¶»à·Ĵ": 6929,
      "Ġà¶ļà·Ļà¶½à·Ĭà¶½à·ľ": 6930,
      "à¶Ńà·Ĵà¶±à¶±à·Ĭ": 6931,
      "Ġà·Ħà·Ĵà¶»à·Ķ": 6932,
      "à¶ļà¶ºà¶ļà·ļ": 6933,
      "à¶ļà·Ģà¶¯à·ı": 6934,
      "à·Ģà·Ķà¶±à¶Ńà·Ĭ": 6935,
      "Ġà¶īà¶¯à¶½": 6936,
      "Ġà¶±à·Ĵà·Ģà·Ĭà¶ºà·Ŀà¶ļà·Ĭ": 6937,
      "Ġà¶ļà·Ķà¶¸à·ı": 6938,
      "à¶´à¶¯à·Ĭà¶°": 6939,
      "Ġà¶Ķà¶ºà·ıà¶§à¶¸": 6940,
      "Ġà¶ĳà¶ļà·Ĭà¶ļà¶ľà¶±à·Ļ": 6941,
      "Ġà¶ĩà·Ģà·Ĵà¶¯à¶ľà·Ļà¶±": 6942,
      "Ġà¶±à¶ľà·Ĵ": 6943,
      "Ġà¶´à¶Ńà·Ĭà¶Ń": 6944,
      "à·Ģà·Ļà¶łà·Ĭà¶ł": 6945,
      "Ġà¶ħà¶ºà·Ĵà¶Ńà·Ĵà¶ºà¶ļà·Ĭ": 6946,
      "à¶¯à·Ĵà¶¯": 6947,
      "à¶ºà¶§à¶¯": 6948,
      "âĢįà¶»à¶¸à·ıà¶«à¶ºà¶ļà·Ĭ": 6949,
      "à·ĥà·Ħà·Ŀà¶¯à¶»à¶ºà·ı": 6950,
      "à¶¸à¶ļà¶§": 6951,
      "Ġà¶ĳà¶½à·Ģà¶±à·Ĭà¶±": 6952,
      "à¶±à·Ģà¶Ńà·Ĭà·Ģà¶±à·Ĭà¶±": 6953,
      "âĢįà·ĥ": 6954,
      "Ġà¶Ńà·Ĵà¶¶à·Ķà¶«à·Ļ": 6955,
      "uk": 6956,
      "à·Ģà¶Ńà·ĵ": 6957,
      "à¶§à·Ķà¶´": 6958,
      "à¶Ķà¶¶à·Ģ": 6959,
      "à¶¸à·Ħà¶Ńà·Ĭà·Ģ": 6960,
      "à¶½à¶ľà·Ļ": 6961,
      "Ġà¶ļà·ĳà¶¸à¶ļà·Ĭ": 6962,
      "Ġà¶ºà·ıà¶±à¶ºà·ļ": 6963,
      "Ġà¶ħà¶±à·Ĵà·Ģà·ıà¶»à·Ĭà¶ºà¶ºà·Ļà¶±à·Ĭà¶¸": 6964,
      "à·Ħà·ļà¶Ńà·Ķà·Ģ": 6965,
      "à·Ģà¶±à·ļà¶±": 6966,
      "Ġà·Ĩà·Ĳ": 6967,
      "ĠSt": 6968,
      "Ġà¶ļà·ıà¶½à·Ļà¶ļ": 6969,
      "à¶½à¶ºà·Ĵà¶±à·Ĭ": 6970,
      "Ġà¶ľà·Ĳà¶±à·ĵà¶¸à·ļ": 6971,
      "Count": 6972,
      "à¶Ķà¶ºà·ıà¶¯": 6973,
      "Ġà¶ļà¶»à·Ģà¶±à·Ģà·ı": 6974,
      "ah": 6975,
      "ov": 6976,
      "à¶±à·Ĳà¶Łà·Ĵ": 6977,
      "Ġà¶ļà·Ģà·Ĭ": 6978,
      "Ġà¶Ńà·Ĵà¶ºà·Ļà¶±à·Ģà¶±à¶¸à·Ĭ": 6979,
      "à¶¸à·Ħà¶Ńà·Ĭà¶Ń": 6980,
      "ĠDNA": 6981,
      "à¶ħà¶¸à·Ķ": 6982,
      "Ġà¶ĳà·ħà·Ĵ": 6983,
      "à·Ĥà¶±à·Ĭ": 6984,
      "à¶±à·ĵà¶º": 6985,
      "Ġà·ģà¶»à·ĵà¶»à¶º": 6986,
      "Ġà·Ģà¶ľà¶ļà·ĵà¶¸à¶ļà·Ĭ": 6987,
      "Ġà¶Ńà·Ķà¶½à¶§": 6988,
      "Ġà¶¯à·Ģà·ĥà·Ļ": 6989,
      "Ġà¶»à·Ĳà¶ļà·Ĵà¶ºà·ıà·Ģ": 6990,
      "ermany": 6991,
      "à·Ĩà·ı": 6992,
      "à¶¸à·ĵà¶§à¶»à·Ĭ": 6993,
      "à¶¥à·ıà·Ģà¶ļà·Ĭ": 6994,
      "à¶¯à·Ķà¶»à·ı": 6995,
      "à·Ģà¶»à¶ļà·Ĭ": 6996,
      "à·Ģà¶»à·Ĭà¶©à·Ĭ": 6997,
      "Ġà¶¯à·Ļà·Ģà·Ĵ": 6998,
      "ero": 6999,
      "Ġà·Ģà·ļà·Ģà·Ĵà¶¯": 7000,
      "Ġà¶ļà¶½à·ıà¶¸": 7001,
      "-à¶Ĵ": 7002,
      "à¶ļà·Ĭà¶½à·Ŀà¶ºà·Ĵ": 7003,
      "Ġà¶ºà¶±à·Ĭà¶Ń": 7004,
      "à¶ļà·ĵà¶º": 7005,
      "Ġà¶´à·Ĵà¶½à·Ĵà¶ľà¶±à·Ĭà¶±": 7006,
      "Ġà¶ĩà¶´à¶½à·Ĭ": 7007,
      "à¶ļà·Ĵà·Ģ": 7008,
      "Ġà¶¸à¶łà·ļà¶łà¶»": 7009,
      "à¶¸à·Ŀà¶±à·ı": 7010,
      "Ġà¶ĭà¶»à·Ķà¶¸": 7011,
      "Ġà·ģà¶»à·ĵà¶»": 7012,
      "à·Ģà·Ļà¶ļà·Ĭ": 7013,
      "Ġà¶´à·Ĳà¶ºà¶ļà¶§": 7014,
      "à¶¸à·Ļà¶ºà·ıà·Ģ": 7015,
      "isc": 7016,
      "ext": 7017,
      "Ġà¶Ńà¶»à·Ĭà¶¢à¶±à¶ºà¶ļà·Ĭ": 7018,
      "Ġà·ĥà¶¸à·Ĭà¶´à·ĸà¶»à·Ĭà¶«à¶ºà·Ļà¶±à·Ĭ": 7019,
      "à¶ļà¶§à¶Ńà·Ĭ": 7020,
      "Ġà¶łà·ĵà¶±": 7021,
      "à¶Ńà¶¸à·ı": 7022,
      "à¶½à¶ļà¶§": 7023,
      "à·Ħà·Ŀà·Ģà·Ĭ": 7024,
      "à¶¸à¶±à·Ĵ": 7025,
      "Ġdo": 7026,
      "à·Ĩà·Ŀà¶±à·Ĭ": 7027,
      "Ġà¶Ńà¶¸à·Ķà¶±à·Ĭà¶ľà·ļ": 7028,
      "à¶ľà·Ļà¶±à·Ĭà¶¸": 7029,
      "Ġà¶Ńà¶»à¶Ĥà¶ľ": 7030,
      "Ġà·Ģà·Ĵà·ģà·Ĭà¶½à·ļ": 7031,
      "Ġà¶ĩà¶ºà¶Ńà·Ĭ": 7032,
      "Ġà·Ģà¶½à·Ļ": 7033,
      "Ġà¶¯à·Ļà¶ļà·Ļà¶±à·Ĭ": 7034,
      "Ġà¶ļà¶½à¶Ńà·Ĭ": 7035,
      "Ġà¶»à·Ĳà·Ģ": 7036,
      "Ġà¶ħà·Ħà·Ķà·Ģà·Ķà¶±à·ı": 7037,
      "à¶¸à·ļà¶ļà·ļ": 7038,
      "Ġà¶´à·Ķà¶½à·ĸà·Ģà¶±à·Ĭ": 7039,
      "à¶Ńà·Ģà¶¸": 7040,
      "Ġà·Ħà·Ĵà¶ºà·Ķà¶ľà·Ŀ": 7041,
      "Ġà¶¯à·Ĳà¶±à¶ľà¶Ńà·Ĭà¶Ńà·ļ": 7042,
      "à¶¸à·ļà¶ļà¶¯": 7043,
      "Ġà¶¸à¶»à¶±à·Ĭà¶±à·ļ": 7044,
      "Ġà¶¯à·Ļà¶¸à·Ķ": 7045,
      "Ġgo": 7046,
      "Ġà·ĥà¶½à·Ĭà¶½": 7047,
      "à¶¶à·Ŀà¶½à·Ĭ": 7048,
      "de": 7049,
      "Ġà¶ħà¶±à¶Ńà·Ķà¶»à·Ķà¶¯à·ıà¶ºà¶ļ": 7050,
      "à¶¶à¶½à¶º": 7051,
      "à¶»à·ĵà¶¸à¶§": 7052,
      "à·Ķà·Ģà¶¯": 7053,
      "Ġà¶´à·Ķà¶¯à·Ĭà¶ľà¶½à¶º": 7054,
      "Ġà¶´à·Ĵà¶§à¶Ń": 7055,
      "Ġà¶´à¶»à·Ĵà¶ľà¶«à¶ļ": 7056,
      "à·Ģà¶±à·Ĳ": 7057,
      "Ġà¶ļà¶«à¶ľà·ıà¶§à·Ķ": 7058,
      "Ġà·Ģà·Ĵà¶±à·Ĵ": 7059,
      "à·Ģà·Ķà¶±à·Ķ": 7060,
      "Ġà·Ģà·Ķà¶«à·ľà¶Ńà·Ĭ": 7061,
      "Ġà¶¶à·Ģà¶ºà·Ĵ": 7062,
      "Ġà·Ģà¶§à·Ĵà¶±": 7063,
      "Ġà¶Ķà¶ºà·ıà·Ģà¶Ńà·Ĭ": 7064,
      "Ġà¶ļà·ıà¶»à·Ĭà¶ºà·ıà¶½à¶º": 7065,
      "à¶īà¶¯à·Ĵà¶»à·Ĵà¶ºà¶§": 7066,
      "Ġà¶´à¶Ńà·Ĭà¶Ńà¶»": 7067,
      "Ġà¶¸à·ļà¶ļà¶Ńà·Ĭ": 7068,
      "à¶½à·Ĵà¶ºà¶ļà·Ĭ": 7069,
[...]
