{
  "version": "1.0",
  "truncation": null,
  "padding": null,
  "added_tokens": [
    {
      "id": 0,
      "content": "[PAD]",
      "single_word": false,
      "lstrip": false,
      "rstrip": false,
      "normalized": false,
      "special": true
    },
    {
      "id": 1,
      "content": "[UNK]",
      "single_word": false,
      "lstrip": false,
      "rstrip": false,
      "normalized": false,
      "special": true
    },
    {
      "id": 2,
      "content": "[BOS]",
      "single_word": false,
      "lstrip": false,
      "rstrip": false,
      "normalized": false,
      "special": true
    },
    {
      "id": 3,
      "content": "[EOS]",
      "single_word": false,
      "lstrip": false,
      "rstrip": false,
      "normalized": false,
      "special": true
    }
  ],
  "normalizer": {
    "type": "Sequence",
    "normalizers": [
      {
        "type": "NFKC"
      }
    ]
  },
  "pre_tokenizer": {
    "type": "Metaspace",
    "replacement": "▁",
    "prepend_scheme": "always",
    "split": true
  },
  "post_processor": null,
  "decoder": null,
  "model": {
    "type": "BPE",
    "dropout": null,
    "unk_token": "[UNK]",
    "continuing_subword_prefix": null,
    "end_of_word_suffix": null,
    "fuse_unk": false,
    "byte_fallback": false,
    "ignore_merges": false,
    "vocab": {
      "[PAD]": 0,
      "[UNK]": 1,
      "[BOS]": 2,
      "[EOS]": 3,
      "!": 4,
      "\"": 5,
      "#": 6,
      "$": 7,
      "%": 8,
      "&": 9,
      "'": 10,
      "(": 11,
      ")": 12,
      "*": 13,
      "+": 14,
      ",": 15,
      "-": 16,
      ".": 17,
      "/": 18,
      "0": 19,
      "1": 20,
      "2": 21,
      "3": 22,
      "4": 23,
      "5": 24,
      "6": 25,
      "7": 26,
      "8": 27,
      "9": 28,
      ":": 29,
      ";": 30,
      "<": 31,
      "=": 32,
      ">": 33,
      "?": 34,
      "@": 35,
      "A": 36,
      "B": 37,
      "C": 38,
      "D": 39,
      "E": 40,
      "F": 41,
      "G": 42,
      "H": 43,
      "I": 44,
      "J": 45,
      "K": 46,
      "L": 47,
      "M": 48,
      "N": 49,
      "O": 50,
      "P": 51,
      "Q": 52,
      "R": 53,
      "S": 54,
      "T": 55,
      "U": 56,
      "V": 57,
      "W": 58,
      "X": 59,
      "Y": 60,
      "Z": 61,
      "[": 62,
      "\\": 63,
      "]": 64,
      "^": 65,
      "_": 66,
      "`": 67,
      "a": 68,
      "b": 69,
      "c": 70,
      "d": 71,
      "e": 72,
      "f": 73,
      "g": 74,
      "h": 75,
      "i": 76,
      "j": 77,
      "k": 78,
      "l": 79,
      "m": 80,
      "n": 81,
      "o": 82,
      "p": 83,
      "q": 84,
      "r": 85,
      "s": 86,
      "t": 87,
      "u": 88,
      "v": 89,
      "w": 90,
      "x": 91,
      "y": 92,
      "z": 93,
      "{": 94,
      "}": 95,
      "~": 96,
      "": 97,
      "": 98,
      "¡": 99,
      "£": 100,
      "©": 101,
      "­": 102,
      "®": 103,
      "°": 104,
      "¿": 105,
      "Á": 106,
      "Ç": 107,
      "È": 108,
      "Î": 109,
      "×": 110,
      "Ø": 111,
      "Ý": 112,
      "à": 113,
      "á": 114,
      "â": 115,
      "ã": 116,
      "ä": 117,
      "ç": 118,
      "è": 119,
      "é": 120,
      "ë": 121,
      "í": 122,
      "î": 123,
      "ï": 124,
      "ñ": 125,
      "ó": 126,
      "ô": 127,
      "õ": 128,
      "ö": 129,
      "ø": 130,
      "û": 131,
      "ü": 132,
      "Ā": 133,
      "ā": 134,
      "ň": 135,
      "ő": 136,
      "š": 137,
      "̊": 138,
      "μ": 139,
      "҉": 140,
      "۩": 141,
      "ං": 142,
      "ඃ": 143,
      "අ": 144,
      "ආ": 145,
      "ඇ": 146,
      "ඈ": 147,
      "ඉ": 148,
      "ඊ": 149,
      "උ": 150,
      "ඌ": 151,
      "ඍ": 152,
      "එ": 153,
      "ඒ": 154,
      "ඓ": 155,
      "ඔ": 156,
      "ඕ": 157,
      "ඖ": 158,
      "ක": 159,
      "ඛ": 160,
      "ග": 161,
      "ඝ": 162,
      "ඞ": 163,
      "ඟ": 164,
      "ච": 165,
      "ඡ": 166,
      "ජ": 167,
      "ඣ": 168,
      "ඤ": 169,
      "ඥ": 170,
      "ඦ": 171,
      "ට": 172,
      "ඨ": 173,
      "ඩ": 174,
      "ඪ": 175,
      "ණ": 176,
      "ඬ": 177,
      "ත": 178,
      "ථ": 179,
      "ද": 180,
      "ධ": 181,
      "න": 182,
      "ඳ": 183,
      "ප": 184,
      "ඵ": 185,
      "බ": 186,
      "භ": 187,
      "ම": 188,
      "ඹ": 189,
      "ය": 190,
      "ර": 191,
      "ල": 192,
      "ව": 193,
      "ශ": 194,
      "ෂ": 195,
      "ස": 196,
      "හ": 197,
      "ළ": 198,
      "ෆ": 199,
      "්": 200,
      "ා": 201,
      "ැ": 202,
      "ෑ": 203,
      "ි": 204,
      "ී": 205,
      "ු": 206,
      "ූ": 207,
      "ෘ": 208,
      "ෙ": 209,
      "ේ": 210,
      "ෛ": 211,
      "ො": 212,
      "ෝ": 213,
      "ෞ": 214,
      "ෟ": 215,
      "ෲ": 216,
      "ෳ": 217,
      "෴": 218,
      "๑": 219,
      "​": 220,
      "‌": 221,
      "‍": 222,
      "–": 223,
      "—": 224,
      "‘": 225,
      "’": 226,
      "“": 227,
      "”": 228,
      "•": 229,
      "‭": 230,
      "⁄": 231,
      "€": 232,
      "→": 233,
      "−": 234,
      "∙": 235,
      "∞": 236,
      "≡": 237,
      "⋆": 238,
      "⌨": 239,
      "⏩": 240,
      "▁": 241,
      "■": 242,
      "▬": 243,
      "►": 244,
      "◄": 245,
      "●": 246,
      "◢": 247,
      "◣": 248,
      "★": 249,
      "☭": 250,
      "☯": 251,
      "☺": 252,
      "☻": 253,
      "♞": 254,
      "♠": 255,
      "♣": 256,
      "♥": 257,
      "♦": 258,
      "♩": 259,
      "♪": 260,
      "♫": 261,
      "♬": 262,
      "✎": 263,
      "❃": 264,
      "❄": 265,
      "❖": 266,
      "�": 267,
      "න්": 268,
      "▁ම": 269,
      "▁ක": 270,
      "න්න": 271,
      "▁ව": 272,
      "යා": 273,
      "ක්": 274,
      "ිය": 275,
      "▁ඔ": 276,
      "▁එ": 277,
      "▁අ": 278,
      "▁න": 279,
      "ත්": 280,
      "▁හ": 281,
      "▁ද": 282,
      "▁ප": 283,
      "යි": 284,
      "▁ඔයා": 285,
      "▁ත": 286,
      "▁ස": 287,
      "..": 288,
      "වා": 289,
      "▁ග": 290,
      "ලා": 291,
      "ෙන": 292,
      "▁ඒ": 293,
      "▁කර": 294,
      "ම්": 295,
      "▁බ": 296,
      "▁මම": 297,
      "ුව": 298,
      "ස්": 299,
      "ගේ": 300,
      "▁-": 301,
      "▁ඉ": 302,
      "▁කිය": 303,
      "▁ඇ": 304,
      "ෙන්න": 305,
      "ල්": 306,
      "රි": 307,
      "▁අප": 308,
      "▁මේ": 309,
      "▁ය": 310,
      "▁මට": 311,
      "ින්": 312,
      "ර්": 313,
      "▁ඒක": 314,
      "ාව": 315,
      "ත්ත": 316,
      "▁එක": 317,
      "▁උ": 318,
      "...": 319,
      "▁එයා": 320,
      "▁වි": 321,
      "▁නැ": 322,
      "▁මො": 323,
      "▁කරන්න": 324,
      "▁අපි": 325,
      "ෙන්": 326,
      "්‍": 327,
      "ද?": 328,
      "ැන": 329,
      "ති": 330,
      "▁ල": 331,
      "▁නෑ": 332,
      "▁ආ": 333,
      "නේ": 334,
      "නවා": 335,
      "යක්": 336,
      "රු": 337,
      "▁ඕ": 338,
      "▁හි": 339,
      "න්නේ": 340,
      "▁හො": 341,
      "වු": 342,
      "නා": 343,
      "▁තිය": 344,
      "ව්": 345,
      "තු": 346,
      "යි.": 347,
      "▁කො": 348,
      "▁ඔයාට": 349,
      "නි": 350,
      "▁කියලා": 351,
      "▁ර": 352,
      "්‍ර": 353,
      "▁පු": 354,
      "ක්ක": 355,
      "▁මෙ": 356,
      "ෙක්": 357,
      "ස්ස": 358,
      "▁හැ": 359,
      "ල්ල": 360,
      "▁වැ": 361,
      "▁මොක": 362,
      "හැ": 363,
      "▁වෙ": 364,
      "▁වෙන": 365,
      "හෙ": 366,
      "▁කි": 367,
      "හු": 368,
      "▁දැ": 369,
      "න්න.": 370,
      "වි": 371,
      "▁හරි": 372,
      "දි": 373,
      "▁ජ": 374,
      "ාර": 375,
      "ගෙ": 376,
      "▁මගේ": 377,
      "මු": 378,
      "▁ඉන්න": 379,
      "ද්": 380,
      "▁දෙ": 381,
      "▁නි": 382,
      "▁වෙන්න": 383,
      "නව": 384,
      "ගන්න": 385,
      "ටි": 386,
      "වා.": 387,
      "මා": 388,
      "▁හිත": 389,
      "ට්": 390,
      "ුවන්": 391,
      "▁ගැන": 392,
      "▁මේක": 393,
      "▁මි": 394,
      "▁වගේ": 395,
      "▁යන්න": 396,
      "දු": 397,
      "තා": 398,
      "▁ඕන": 399,
      "සි": 400,
      "▁බල": 401,
      "ීම": 402,
      "ා.": 403,
      "▁කා": 404,
      "ලි": 405,
      "▁පි": 406,
      "▁වැඩ": 407,
      "ටම": 408,
      "ොම": 409,
      "▁නැහැ": 410,
      "▁දැන්": 411,
      "▁දන්න": 412,
      "වත්": 413,
      "▁ඔබ": 414,
      "▁?": 415,
      "▁ප්‍ර": 416,
      "මයි": 417,
      "වෙ": 418,
      "තර": 419,
      "▁මං": 420,
      "▁නෑ.": 421,
      "නය": 422,
      "▁තියෙන": 423,
      "ොඩ": 424,
      "▁වෙලා": 425,
      "ගෙන": 426,
      "කු": 427,
      "▁හොඳ": 428,
      "ේ.": 429,
      "කර": 430,
      "▁හැම": 431,
      "▁එක්ක": 432,
      "▁.": 433,
      "▁ති": 434,
      "දර": 435,
      "ලට": 436,
      "▁කොහ": 437,
      "▁පැ": 438,
      "▁ඔහු": 439,
      "ියට": 440,
      "▁දෙන්න": 441,
      "නවා.": 442,
      "ශ්": 443,
      "▁කැ": 444,
      "▁කියන්න": 445,
      "පු": 446,
      "තිය": 447,
      "▁වු": 448,
      "▁සි": 449,
      "▁අපිට": 450,
      "තන": 451,
      "▁බැ": 452,
      "▁ස්": 453,
      "යි,": 454,
      "▁ගන්න": 455,
      "▁අර": 456,
      "සා": 457,
      "▁දේ": 458,
      "දා": 459,
      "ච්": 460,
      "▁සම": 461,
      "▁එප": 462,
      "▁මා": 463,
      "▁කල": 464,
      "▁නෙ": 465,
      "▁මිනි": 466,
      "කට": 467,
      "▁මු": 468,
      "හා": 469,
      "▁ඔයාගේ": 470,
      "වේ": 471,
      "හි": 472,
      "▁ඒත්": 473,
      "▁එහෙ": 474,
      "▁‍": 475,
      "▁කෙන": 476,
      "ක්ෂ": 477,
      "▁ගි": 478,
      "▁පුළ": 479,
      "▁අව": 480,
      "ද්ද": 481,
      "▁තා": 482,
      "▁නම්": 483,
      "▁දෙයක්": 484,
      "▁කියල": 485,
      "▁...": 486,
      "▁කිව්": 487,
      "නම්": 488,
      "▁මැ": 489,
      "ටිය": 490,
      "▁කවු": 491,
      "▁පුළුවන්": 492,
      "▁කියලා.": 493,
      "ච්ච": 494,
      "▁ඇය": 495,
      "▁දැන": 496,
      "▁මොකක්": 497,
      "▁හොද": 498,
      "කි": 499,
      "▁\"": 500,
      "▁,": 501,
      "▁ඔව්": 502,
      "▁ඇත්ත": 503,
      "▁කොහොම": 504,
      "▁ඕනේ": 505,
      "නු": 506,
      "රා": 507,
      "▁තමයි": 508,
      "▁දු": 509,
      "▁කතා": 510,
      "▁දි": 511,
      "ේ?": 512,
      "▁එන්න": 513,
      "සු": 514,
      "▁අහ": 515,
      "▁එහෙම": 516,
      "▁මාව": 517,
      "▁තිබ": 518,
      "▁දා": 519,
      "යේ": 520,
      "ඩි": 521,
      "තක": 522,
      "මක්": 523,
      "▁තියෙන්න": 524,
      "▁සහ": 525,
      "▁ඔහ": 526,
      "ම්බ": 527,
      "▁මොකද": 528,
      "ඩා": 529,
      "වද": 530,
      "▁ඇති": 531,
      "නෙ": 532,
      "▁ඇයි": 533,
      "▁ගොඩ": 534,
      "▁වල": 535,
      "ොත්": 536,
      "▁එකක්": 537,
      "යට": 538,
      "▁උද": 539,
      "‍ර": 540,
      "වුන්": 541,
      "▁උඹ": 542,
      "▁මෙතන": 543,
      "ඩ්": 544,
      "ටික": 545,
      "▁නැති": 546,
      "න්නෙ": 547,
      "▁සැ": 548,
      "∙∙": 549,
      "ලු": 550,
      "▁!": 551,
      "▁බෑ": 552,
      "ළු": 553,
      "▁නො": 554,
      "▁ට": 555,
      "▁නැහැ.": 556,
      "ම්.": 557,
      "▁කැම": 558,
      "නවද": 559,
      "ක්.": 560,
      "ණය": 561,
      "▁සු": 562,
      "ොර": 563,
      "▁අපේ": 564,
      "▁බලන්න": 565,
      "▁පා": 566,
      "▁ඔයාව": 567,
      "▁පුල": 568,
      "▁යා": 569,
      "▁පස්ස": 570,
      "මේ": 571,
      "▁ටික": 572,
      "▁ච": 573,
      "▁මෙහෙ": 574,
      "ටු": 575,
      "▁ගෙ": 576,
      "▁එපා": 577,
      "▁විතර": 578,
      "තින්": 579,
      "▁තාත්ත": 580,
      "▁එයාට": 581,
      "▁ඔවුන්": 582,
      "කාර": 583,
      "මි": 584,
      "ප්": 585,
      "මන්": 586,
      "▁ඩ": 587,
      "▁ඔයාගෙ": 588,
      "්‍ය": 589,
      "▁කෙ": 590,
      "ගත්ත": 591,
      "▁ලැ": 592,
      "ුණ": 593,
      "▁තේ": 594,
      "තුව": 595,
      "ලේ": 596,
      "▁කොහොමද": 597,
      "කා": 598,
      "වර": 599,
      "▁පුලුවන්": 600,
      "▁අද": 601,
      "යෙක්": 602,
      "වාස": 603,
      "▁කෙනෙක්": 604,
      "▁ඔය": 605,
      "ස්සු": 606,
      "▁තව": 607,
      "තියි": 608,
      "වන්න": 609,
      "▁හද": 610,
      "in": 611,
      "▁හර": 612,
      "▁නිය": 613,
      "▁ශ": 614,
      "පි": 615,
      "නා.": 616,
      "තාව": 617,
      "▁සා": 618,
      "▁ඉන්නේ": 619,
      "▁නේ": 620,
      "▁බො": 621,
      "▁1": 622,
      "වල්": 623,
      "▁විශ්": 624,
      "යෙන්": 625,
      "ොට": 626,
      "▁ආර": 627,
      "▁අය": 628,
      "▁ගොඩක්": 629,
      "හර": 630,
      "▁ගත්ත": 631,
      "▁නෑ,": 632,
      "▁වා": 633,
      "▁හොයා": 634,
      "▁ජී": 635,
      "▁ඊ": 636,
      "▁අවු": 637,
      "▁බි": 638,
      "▁කිසි": 639,
      "▁සර්": 640,
      "න්ට": 641,
      "▁කළ": 642,
      "ංග": 643,
      "▁කියන්නේ": 644,
      "▁දන්නවා": 645,
      "▁මහ": 646,
      "▁බලා": 647,
      "ගෙන්": 648,
      "▁මර": 649,
      "▁ඉතින්": 650,
      "▁ලො": 651,
      "▁විශ්වාස": 652,
      "හෙන": 653,
      "▁ඇතු": 654,
      "▁පොඩ": 655,
      "ලා.": 656,
      "මට": 657,
      "▁වේ": 658,
      "▁හිටිය": 659,
      "▁ඔව්,": 660,
      "ණු": 661,
      "▁කරන්න.": 662,
      "ච්චර": 663,
      "▁හා": 664,
      "▁මොකක්ද": 665,
      "ටන්": 666,
      "▁අම්": 667,
      "▁තර": 668,
      "▁..": 669,
      "ුවෙන්": 670,
      "ෙ.": 671,
      "▁තු": 672,
      "▁හෙ": 673,
      "▁හේ": 674,
      "▁ලැබ": 675,
      "මෙ": 676,
      "▁තියෙනවා": 677,
      "▁කරනවා": 678,
      "කේ": 679,
      "▁තැන": 680,
      "▁ෆ": 681,
      "▁පො": 682,
      "▁කලින්": 683,
      "ෙ?": 684,
      "▁ගැ": 685,
      "කින්": 686,
      "▁කරන": 687,
      "තුර": 688,
      "දී": 689,
      "ව.": 690,
      "ද්ධ": 691,
      "▁කු": 692,
      "▁කරලා": 693,
      "▁පර": 694,
      "▁C": 695,
      "හරි": 696,
      "▁විද": 697,
      "ුවේ": 698,
      "ට.": 699,
      "▁එයාව": 700,
      "▁ඇත්තටම": 701,
      "වස": 702,
      "‍ය": 703,
      "ත්‍ර": 704,
      "▁ආප": 705,
      "කය": 706,
      "▁උදව්": 707,
      "න්.": 708,
      "▁නෙවෙ": 709,
      "ක්ම": 710,
      "මත්": 711,
      "▁මොනවද": 712,
      "යා.": 713,
      "▁සමාව": 714,
      "▁මිනිස්සු": 715,
      "▁අයි": 716,
      "▁වලට": 717,
      "හ්": 718,
      "විය": 719,
      "▁එයාල": 720,
      "▁කාල": 721,
      "ෙනවා": 722,
      "න්ද": 723,
      "▁නිසා": 724,
      "▁ප්‍රශ්": 725,
      "නයක්": 726,
      "ඩු": 727,
      "▁හිතන්නේ": 728,
      "▁ආදර": 729,
      "▁භ": 730,
      "කෝ": 731,
      "an": 732,
      "විත": 733,
      "▁එපා.": 734,
      "්‍රි": 735,
      "er": 736,
      "ත්ව": 737,
      "▁යන්නේ": 738,
      "▁වගේම": 739,
      "▁ළ": 740,
      "▁වෙනවා": 741,
      "හින්": 742,
      "▁අනි": 743,
      "▁කරන්නේ": 744,
      "▁කොහෙ": 745,
      "▁විදි": 746,
      "ටර්": 747,
      "ත්ම": 748,
      "▁කෝ": 749,
      "බා": 750,
      "ගි": 751,
      "▁කියන": 752,
      "පා": 753,
      "▁ඇවි": 754,
      "it": 755,
      "කම්": 756,
      "▁නව": 757,
      "ුවක්": 758,
      "නේ.": 759,
      "▁කවුද": 760,
      "on": 761,
      "▁වෙලාව": 762,
      "යාව": 763,
      "▁මොන": 764,
      "▁දැක්ක": 765,
      "ලෝ": 766,
      "▁ක්": 767,
      "▁පේ": 768,
      "දෙ": 769,
      "▁ආපහු": 770,
      "▁ගෙදර": 771,
      "▁හරි,": 772,
      "▁දේවල්": 773,
      "තුරු": 774,
      "▁අත": 775,
      "▁(": 776,
      "ියේ": 777,
      "▁ඒකට": 778,
      "මු.": 779,
      "▁එකට": 780,
      "ියක්": 781,
      "▁විදිහ": 782,
      "ග්": 783,
      "▁එහෙන": 784,
      "▁මග": 785,
      "ණ්": 786,
      "▁වඩා": 787,
      "▁රා": 788,
      "▁අල්ල": 789,
      "ාවි": 790,
      "▁යු": 791,
      "▁ඕනෙ": 792,
      "වද?": 793,
      "ම.": 794,
      "▁ගිහින්": 795,
      "▁ටිකක්": 796,
      "▁මගෙ": 797,
      "▁වෙනුවෙන්": 798,
      "න්ව": 799,
      "ේර": 800,
      "ියි": 801,
      "▁කවද": 802,
      "රීම": 803,
      "▁ලෝ": 804,
      "ල්ලි": 805,
      "▁කැමති": 806,
      "▁සමහර": 807,
      "▁ඉවර": 808,
      "දේ": 809,
      "▁කාර්": 810,
      "me": 811,
      "▁ආරක්ෂ": 812,
      "▁සමාවෙන්න": 813,
      "වත": 814,
      "යු": 815,
      "▁තමු": 816,
      "▁ඔක්ක": 817,
      "රුව": 818,
      "▁t": 819,
      "▁පහ": 820,
      "▁එයාගේ": 821,
      "▁තියෙනවා.": 822,
      "නාව": 823,
      "▁පෙ": 824,
      "▁එයාලා": 825,
      "ාන": 826,
      "00": 827,
      "ලින්": 828,
      "යෙ": 829,
      "▁වැර": 830,
      "▁තේරු": 831,
      "▁දන්නේ": 832,
      "▁කෑ": 833,
      "▁සං": 834,
      "▁එල": 835,
      "▁පැත්ත": 836,
      "ුණා": 837,
      "▁කිසිම": 838,
      "▁ඔබට": 839,
      "▁වෙනවා.": 840,
      "රක": 841,
      "▁හු": 842,
      "▁2": 843,
      "▁දෙක": 844,
      "ට්ට": 845,
      "▁කවුරු": 846,
      "ම්ප": 847,
      "ලක්": 848,
      "▁පරි": 849,
      "▁බැරි": 850,
      "ෂ්": 851,
      "▁නැත්ත": 852,
      "මින්": 853,
      "▁වගේ.": 854,
      "ණි": 855,
      "▁පාර": 856,
      "වෙන්න": 857,
      "ාවත්": 858,
      "▁ලොකු": 859,
      "▁ඉක්ම": 860,
      "▁එහෙනම්": 861,
      "▁ඒවා": 862,
      "▁තියෙන්නේ": 863,
      "යෝ": 864,
      "▁හැමෝ": 865,
      "ල්ලා": 866,
      "මුත්": 867,
      "▁බැහැ": 868,
      "න්ත": 869,
      "ගන්න.": 870,
      "▁තමා": 871,
      "▁දෙන": 872,
      "▁ජීවිත": 873,
      "▁උප": 874,
      "▁සතු": 875,
      "▁මොනා": 876,
      "▁ඉන්නවා": 877,
      "▁කලා": 878,
      "▁නේද?": 879,
      "▁අවුරු": 880,
      "▁ගහ": 881,
      "▁රැ": 882,
      "▁විනා": 883,
      "න්ධ": 884,
      "ඳු": 885,
      "▁ඔයාල": 886,
      "▁ගෙන": 887,
      "රෙන්න": 888,
      "▁එකේ": 889,
      "ළි": 890,
      "▁දවස": 891,
      "▁තිබු": 892,
      "▁පිට": 893,
      "▁කරනවා.": 894,
      "▁අන": 895,
      "බ්": 896,
      "තකොට": 897,
      "▁මිනිහ": 898,
      "▁යනවා": 899,
      "∙∙∙": 900,
      "▁නමුත්": 901,
      "▁in": 902,
      "or": 903,
      "▁එය": 904,
      "▁කිව්වා": 905,
      "රේ": 906,
      "හස්": 907,
      "▁පොඩි": 908,
      "තූ": 909,
      "▁කවදාවත්": 910,
      "හේ": 911,
      "▁තිබ්": 912,
      "▁අම": 913,
      "▁නම": 914,
      "▁සෙ": 915,
      "යන්": 916,
      "▁ඔහ්": 917,
      "▁හම්බ": 918,
      "▁ගේ": 919,
      "▁කියල.": 920,
      "▁වෙනස්": 921,
      "▁එතකොට": 922,
      "ුවට": 923,
      "වෙන": 924,
      "▁වුනා": 925,
      "▁නියම": 926,
      "▁දෙවිය": 927,
      "▁බා": 928,
      "ුවෙ": 929,
      "▁නැත්": 930,
      "ලී": 931,
      "▁ගො": 932,
      "▁කෙල්ල": 933,
      "ත්තු": 934,
      "ථා": 935,
      "කන්": 936,
      "▁මතක": 937,
      "නී": 938,
      "▁වෙන්නේ": 939,
      "▁තාත්තා": 940,
      "නවද?": 941,
      "▁පස්සේ": 942,
      "▁ඉක්මන": 943,
      "ණා": 944,
      "▁කට": 945,
      "▁ෙ": 946,
      "▁ඌ": 947,
      "▁උබ": 948,
      "යි!": 949,
      "▁බය": 950,
      "▁අහන්න": 951,
      "▁ඉඳ": 952,
      "▁ඔයාලා": 953,
      "ar": 954,
      "at": 955,
      "ද්ද?": 956,
      "▁නා": 957,
      "▁බෑ.": 958,
      "▁ඉද": 959,
      "▁විශ": 960,
      "ිත": 961,
      "ීර": 962,
      "▁උත්": 963,
      "▁ඔක්කොම": 964,
      "▁කියන්නෙ": 965,
      "සන්": 966,
      "▁හරියට": 967,
      "ගා": 968,
      "▁අත්": 969,
      "කො": 970,
      "▁උන්": 971,
      "මම": 972,
      "▁කරුණා": 973,
      "්‍යා": 974,
      "යක": 975,
      "සෙ": 976,
      "▁කිරීම": 977,
      "ොරො": 978,
      "▁ඒව": 979,
      "▁කරුණාකර": 980,
      "යින්": 981,
      "ලෙ": 982,
      "ම,": 983,
      "▁සල්ලි": 984,
      "▁හරි.": 985,
      "▁හිතන්නෙ": 986,
      "සේ": 987,
      "▁හෝ": 988,
      "▁යන": 989,
      "▁ගිය": 990,
      "▁ලි": 991,
      "▁එන්න.": 992,
      "▁නැත්නම්": 993,
      "ශ්‍ය": 994,
      "▁නෙමෙ": 995,
      "▁සිය": 996,
      "නව.": 997,
      "නේ,": 998,
      "▁රෑ": 999,
      "▁වැඩි": 1000,
      "ාවක්": 1001,
      "▁අවුරුදු": 1002,
      "▁සම්බ": 1003,
      "▁මොනවා": 1004,
      "▁එතන": 1005,
      "▁කී": 1006,
      "▁වලින්": 1007,
      "▁පටන්": 1008,
      "▁ඕනේ.": 1009,
      "▁මෝ": 1010,
      "සක්": 1011,
      "▁දුව": 1012,
      "වැ": 1013,
      "▁මෙයා": 1014,
      "▁ක්‍රි": 1015,
      "සිය": 1016,
      "▁යන්න.": 1017,
      "▁ඔබේ": 1018,
      "▁හොය": 1019,
      "▁තියා": 1020,
      "▁කොල්ල": 1021,
      "▁දන්නව": 1022,
      "▁s": 1023,
      "▁ඉන්න.": 1024,
      "▁කොහෙද": 1025,
      "▁ලේ": 1026,
      "▁බව": 1027,
      "කුත්": 1028,
      "▁'": 1029,
      "▁ඔහේ": 1030,
      "▁තිබ්බ": 1031,
      "ඔයා": 1032,
      "▁බෝ": 1033,
      "▁කිව්වේ": 1034,
      "▁බෙ": 1035,
      "▁දෙන්න.": 1036,
      "▁ගියා": 1037,
      "ලිය": 1038,
      "ලය": 1039,
      "▁කොට": 1040,
      "‍‍": 1041,
      "▁කරපු": 1042,
      "▁එකම": 1043,
      "▁විදිහට": 1044,
      "▁කරගන්න": 1045,
      "නේ?": 1046,
      "▁වුන": 1047,
      "▁නැහැ,": 1048,
      "ඩක්": 1049,
      "ංච": 1050,
      "▁උන": 1051,
      "▁මොකද්ද": 1052,
      "ෝ.": 1053,
      "රී": 1054,
      "▁ඉති": 1055,
      "දෙන": 1056,
      "වල": 1057,
      "▁කරන්නෙ": 1058,
      "වෙලා": 1059,
      "▁එලියට": 1060,
      "ගත": 1061,
      "▁කියලා?": 1062,
      "▁ආවේ": 1063,
      "▁ඊට": 1064,
      "▁නෙවෙයි.": 1065,
      "නක": 1066,
      "ගය": 1067,
      "▁ඔහුට": 1068,
      "▁වහ": 1069,
      "විට": 1070,
      "▁පොඩ්": 1071,
      "▁අවශ්‍ය": 1072,
      "ේ,": 1073,
      "▁ස්තු": 1074,
      "▁දුන්න": 1075,
      "▁කරන්නේ?": 1076,
      "▁අපිව": 1077,
      "▁රෝ": 1078,
      "▁හොඳින්": 1079,
      "යක්.": 1080,
      "▁පුළුවන්.": 1081,
      "▁වග": 1082,
      "▁♪": 1083,
      "▁නවත්ත": 1084,
      "▁ස්තූ": 1085,
      "▁ඇවිත්": 1086,
      "▁k": 1087,
      "▁සී": 1088,
      "▁අන්": 1089,
      "ක්,": 1090,
      "▁මූ": 1091,
      "▁ඕනි": 1092,
      "▁කිව්ව": 1093,
      "ලුව": 1094,
      "▁හිටි": 1095,
      "තියි.": 1096,
      "රය": 1097,
      "ස්.": 1098,
      "▁හොයාගන්න": 1099,
      "▁විදියට": 1100,
      "ංක": 1101,
      "▁උඩ": 1102,
      "▁උනා": 1103,
      "▁නැවත": 1104,
      "▁ඕනා": 1105,
      "නිය": 1106,
      "ity": 1107,
      "▁සම්බන්ධ": 1108,
      "වි.": 1109,
      "▁දන්නවද": 1110,
      "▁හොඳයි,": 1111,
      "මය": 1112,
      "▁M": 1113,
      "න්,": 1114,
      "▁නැතුව": 1115,
      "▁කොච්චර": 1116,
      "ළුව": 1117,
      "he": 1118,
      "▁ගන්න.": 1119,
      "▁ලෙ": 1120,
      "▁දැනගන්න": 1121,
      "▁වර": 1122,
      "ou": 1123,
      "▁සැල": 1124,
      "▁පරී": 1125,
      "▁අරගෙන": 1126,
      "▁වෙඩි": 1127,
      "ස්සන": 1128,
      "▁එයාගෙ": 1129,
      "▁City": 1130,
      "▁එළ": 1131,
      "▁ජේ": 1132,
      "▁c": 1133,
      "▁දන්නෙ": 1134,
      "▁අතර": 1135,
      "▁ඇති.": 1136,
      "ටත්": 1137,
      "▁පිළි": 1138,
      "es": 1139,
      "▁හොදින්": 1140,
      "▁දාන්න": 1141,
      "ච්චි": 1142,
      "▁අම්මා": 1143,
      "▁හැමෝම": 1144,
      "ame": 1145,
      "▁3": 1146,
      "▁ඩො": 1147,
      "ධා": 1148,
      "▁නැද්ද?": 1149,
      "▁පැහැ": 1150,
      "වී": 1151,
      "▁කාර": 1152,
      "▁සේ": 1153,
      "▁ඕන.": 1154,
      "▁මොනව": 1155,
      "වීම": 1156,
      "▁ජි": 1157,
      "ූර්": 1158,
      "▁නරක": 1159,
      "▁හොඳයි.": 1160,
      "ියෝ": 1161,
      "▁දකි": 1162,
      "▁ලස්සන": 1163,
      "▁ප්‍රති": 1164,
      "▁අරන්": 1165,
      "▁හම": 1166,
      "▁කරා": 1167,
      "කල්": 1168,
      "ජ්": 1169,
      "▁කෙනා": 1170,
      "▁S": 1171,
      "▁පාල": 1172,
      "ටද": 1173,
      "කරන්න": 1174,
      "▁වැඩක්": 1175,
      "▁දිහා": 1176,
      "▁නිස": 1177,
      "රිය": 1178,
      "▁මොනාද": 1179,
      "▁ඉන්නෙ": 1180,
      "▁ෂ": 1181,
      "න්‍ය": 1182,
      "ැක්": 1183,
      "වම": 1184,
      "▁සෑ": 1185,
      "▁එනවා": 1186,
      "▁බේර": 1187,
      "▁පවු": 1188,
      "▁ලබා": 1189,
      "▁ඕක": 1190,
      "▁යමු": 1191,
      "▁තවත්": 1192,
      "ම්,": 1193,
      "▁පොඩ්ඩක්": 1194,
      "▁විතරයි.": 1195,
      "▁දිග": 1196,
      "න්නේ?": 1197,
      "▁තරම්": 1198,
      "▁සො": 1199,
      "▁ඒකෙන්": 1200,
      "▁මැරු": 1201,
      "▁පරීක්ෂ": 1202,
      "▁පොලි": 1203,
      "▁හරිය": 1204,
      "▁ක්‍ර": 1205,
      "▁ගමන්": 1206,
      "▁බලන්න.": 1207,
      "en": 1208,
      "▁පැන": 1209,
      "▁ඉඩ": 1210,
      "▁මී": 1211,
      "▁රි": 1212,
      "▁විතරයි": 1213,
      "ජි": 1214,
      "▁මත": 1215,
      "▁මෙහේ": 1216,
      "වන": 1217,
      "ඩාය": 1218,
      "▁යනවා.": 1219,
      "ගත්": 1220,
      "▁එත්": 1221,
      "▁w": 1222,
      "▁වුණ": 1223,
      "න්ඩ": 1224,
      "▁වැඩේ": 1225,
      "▁ඉන්නවා.": 1226,
      "▁ඔහුව": 1227,
      "▁සහෝ": 1228,
      "▁කාම": 1229,
      "මයි.": 1230,
      "▁ද?": 1231,
      "ස්ථ": 1232,
      "▁අන්ති": 1233,
      "▁ඉස්ස": 1234,
      "▁කලේ": 1235,
      "▁දී": 1236,
      "▁සම්ප": 1237,
      "▁පුතා": 1238,
      "▁පස්සෙ": 1239,
      "▁එයාලට": 1240,
      "▁ඇයට": 1241,
      "ාර්": 1242,
      "▁අඩු": 1243,
      "රෙ": 1244,
      "ෙනවා.": 1245,
      "▁යුතු": 1246,
      "ය.": 1247,
      "▁නග": 1248,
      "ධි": 1249,
      "▁ලග": 1250,
      "▁ඇතුලට": 1251,
      "gm": 1252,
      "▁තෝ": 1253,
      "▁කණ්": 1254,
      "▁තියෙන්නෙ": 1255,
      "▁අනේ": 1256,
      "▁වෙයි": 1257,
      "▁kgm": 1258,
      "ටින්": 1259,
      "▁බොරු": 1260,
      "වර්": 1261,
      "ද,": 1262,
      "ට,": 1263,
      "▁කේ": 1264,
      "▁අනිත්": 1265,
      "ෙන්ම": 1266,
      "වා,": 1267,
      "ට්ටිය": 1268,
      "පන්": 1269,
      "ෆ්": 1270,
      "ක්‍ර": 1271,
      "▁වෙන්න.": 1272,
      "ණයක්": 1273,
      "▁කොහේ": 1274,
      "▁සමහරවිට": 1275,
      "▁හරිද?": 1276,
      "▁මෝඩ": 1277,
      "▁ඉදි": 1278,
      "දුව": 1279,
      "is": 1280,
      "▁මයි": 1281,
      "ගත්තා": 1282,
      "▁කමක්": 1283,
      "ී.": 1284,
      "▁ගාව": 1285,
      "▁මෙන්න": 1286,
      "සර": 1287,
      "▁සර්.": 1288,
      "▁එච්චර": 1289,
      "▁පිරි": 1290,
      "▁ආව": 1291,
      "ගැ": 1292,
      "▁වුනේ": 1293,
      "▁සමා": 1294,
      "▁එපා,": 1295,
      "▁හිටියේ": 1296,
      "▁කියනවා": 1297,
      "නක්": 1298,
      "කම": 1299,
      "ෑන්": 1300,
      "▁ඇම": 1301,
      "පත": 1302,
      "ගැන": 1303,
      "▁නෙවෙයි": 1304,
      "▁දැක": 1305,
      "▁හැකි": 1306,
      "▁කිව්වෙ": 1307,
      "▁5": 1308,
      "▁නිද": 1309,
      "▁ඇහු": 1310,
      "ස්තර": 1311,
      "ප්ප": 1312,
      "▁වර්": 1313,
      "▁අමතක": 1314,
      "ස්ති": 1315,
      "▁සහෝදර": 1316,
      "▁වෙන්නෙ": 1317,
      "▁එන": 1318,
      "▁පෙන්න": 1319,
      "▁එක.": 1320,
      "▁උත්ස": 1321,
      "▁ආයෙ": 1322,
      "▁කණ්ඩාය": 1323,
      "නෝ": 1324,
      "▁අලු": 1325,
      "▁ඔයාලට": 1326,
      "▁නී": 1327,
      "▁සෙල්ල": 1328,
      "ේෂ": 1329,
      "▁එකෙන්": 1330,
      "▁ගැන.": 1331,
      "නැ": 1332,
      "ීය": 1333,
      "▁හමු": 1334,
      "▁මාත්": 1335,
      "▁ලැබු": 1336,
      "▁ජීවත්": 1337,
      "▁4": 1338,
      "▁වී": 1339,
      "කොට": 1340,
      "▁මගු": 1341,
      "▁තියනවා": 1342,
      "සුන්": 1343,
      "▁A": 1344,
      "වස්": 1345,
      "▁කඩ": 1346,
      "ෝන්": 1347,
      "▁විහි": 1348,
      "ෙක්.": 1349,
      "▁ලෝක": 1350,
      "▁ඇයව": 1351,
      "ියි.": 1352,
      "ැන්": 1353,
      "යා,": 1354,
      "▁මාර්": 1355,
      "▁ගු": 1356,
      "ොත්,": 1357,
      "▁හිට": 1358,
      "▁නේද": 1359,
      "▁බොහ": 1360,
      "▁දොර": 1361,
      "න්න!": 1362,
      "▁පිස්සු": 1363,
      "al": 1364,
      "බෝ": 1365,
      "▁මහත්ත": 1366,
      "▁අයින්": 1367,
      "▁කතාව": 1368,
      "▁විස": 1369,
      "වය": 1370,
      "ගේම": 1371,
      "▁තියන": 1372,
      "▁අදහ": 1373,
      "බි": 1374,
      "▁රාජ": 1375,
      "ලර්": 1376,
      "▁කියලා,": 1377,
      "ක්කු": 1378,
      "▁ඉන්නේ.": 1379,
      "ලික": 1380,
      "හො": 1381,
      "▁නම්,": 1382,
      "▁පෙන": 1383,
      "▁විය": 1384,
      "▁කාට": 1385,
      "▁කළා": 1386,
      "▁හරිම": 1387,
      "▁ස්ට": 1388,
      "▁වැරදි": 1389,
      "▁කරදර": 1390,
      "▁ගත්තා": 1391,
      "▁තමුසෙ": 1392,
      "ත්‍": 1393,
      "යි...": 1394,
      "න්දු": 1395,
      "▁තුව": 1396,
      "▁සූ": 1397,
      "වන්න.": 1398,
      "▁ඔහුගේ": 1399,
      "▁ඔහ්,": 1400,
      "▁රො": 1401,
      "▁ඉස්සර": 1402,
      "▁බලාගෙන": 1403,
      "▁ඉතිං": 1404,
      "Name": 1405,
      "▁බේ": 1406,
      "ස්,": 1407,
      "▁ප්‍රශ්නයක්": 1408,
      "නේන": 1409,
      "▁සේර": 1410,
      "▁ඉල්ල": 1411,
      "▁දැම්": 1412,
      "▁හිතන්න": 1413,
      "▁දාලා": 1414,
      "වෙනි": 1415,
      "▁පෙන්": 1416,
      "▁අම්ම": 1417,
      "▁දුර": 1418,
      "▁අනු": 1419,
      "ීමක්": 1420,
      "▁හැමදේ": 1421,
      "▁මරන්න": 1422,
      "as": 1423,
      "හන්": 1424,
      "▁හිතනවා": 1425,
      "▁පුදු": 1426,
      "රැ": 1427,
      "▁ගා": 1428,
      "▁සිද්ධ": 1429,
      "▁විනාශ": 1430,
      "වක්": 1431,
      "රෝ": 1432,
      "ත්වය": 1433,
      "▁තේරුම්": 1434,
      "ion": 1435,
      "▁උඹට": 1436,
      "▁කරල": 1437,
      "▁සඳ": 1438,
      "▁තාම": 1439,
      "▁කැමතියි": 1440,
      "▁වැද": 1441,
      "න්ගේ": 1442,
      "වට": 1443,
      "▁ලිය": 1444,
      "▁ක්‍රියා": 1445,
      "▁D": 1446,
      "ද්දි": 1447,
      "▁සැක": 1448,
      "රාව": 1449,
      "▁ප්": 1450,
      "▁පැහැදි": 1451,
      "ර්ශ": 1452,
      "ස්ට": 1453,
      "▁නැද්ද": 1454,
      "▁හොදයි": 1455,
      "▁හේයි,": 1456,
      "තුමා": 1457,
      "ීමට": 1458,
      "▁චි": 1459,
      "▁මුහු": 1460,
      "▁ඔයත්": 1461,
      "කාව": 1462,
      "ෙන්නේ": 1463,
      "▁U": 1464,
      "▁සම්පූර්": 1465,
      "පස්ස": 1466,
      "ලො": 1467,
      "ුත්": 1468,
      "මාරු": 1469,
      "▁පාවි": 1470,
      "▁කියන්න.": 1471,
      "ත්තර": 1472,
      "▁කෑම": 1473,
      "--": 1474,
      "▁නියමයි": 1475,
      "ධාර": 1476,
      "le": 1477,
      "▁අවස්ථ": 1478,
      "▁වතුර": 1479,
      "▁සිටි": 1480,
      "ත්,": 1481,
      "▁සාමා": 1482,
      "▁වාර්": 1483,
      "▁අඩ": 1484,
      "▁හොර": 1485,
      "ස්ම": 1486,
      "▁දවස්": 1487,
      "▁පල": 1488,
      "▁එක්": 1489,
      "ic": 1490,
      "▁බැහැ.": 1491,
      "ණ්ඩ": 1492,
      "පොරො": 1493,
      "න්න,": 1494,
      "▁ජා": 1495,
      "▁ලඟ": 1496,
      "▁ඉක්මනට": 1497,
      "ගු": 1498,
      "▁නවත්": 1499,
      "▁විට": 1500,
      "▁නිර්": 1501,
      "▁මොකක්ද?": 1502,
      "▁පාවිච්චි": 1503,
      "▁පී": 1504,
      "දුර": 1505,
      "▁මෙහෙට": 1506,
      "▁මහත්ම": 1507,
      "්‍රේ": 1508,
      "▁වෙයි.": 1509,
      "▁සේරම": 1510,
      "ංචි": 1511,
      "▁හමුව": 1512,
      "න්නේ.": 1513,
      "▁තොර": 1514,
      "▁කොහොමද?": 1515,
      "ස්ටර්": 1516,
      "▁හිතු": 1517,
      "▁තියෙන්නේ.": 1518,
      "▁බලන්න,": 1519,
      "▁ඇර": 1520,
      "▁බලාගන්න": 1521,
      "▁සල": 1522,
      "කුණු": 1523,
      "▁ළඟ": 1524,
      "▁රජ": 1525,
      "▁නැතිව": 1526,
      "▁අලුත්": 1527,
      "සුම්": 1528,
      "▁එනවා.": 1529,
      "▁ලෑ": 1530,
      "▁බලාපොරො": 1531,
      "බල": 1532,
      "▁f": 1533,
      "▁පළ": 1534,
      "▁මනු": 1535,
      "▁කට්ටිය": 1536,
      "▁සුභ": 1537,
      "බැ": 1538,
      "මො": 1539,
      "▁T": 1540,
      "▁හිටියා": 1541,
      "ෙන්.": 1542,
      "යකට": 1543,
      "▁ඇත": 1544,
      "සට": 1545,
      "om": 1546,
      "ත්.": 1547,
      "යිය": 1548,
      "▁පොරො": 1549,
      "▁මෙහෙම": 1550,
      "▁යන්නෙ": 1551,
      "▁පසු": 1552,
      "ීත": 1553,
      "ල්.": 1554,
      "ද්ග": 1555,
      "▁හොඳයි": 1556,
      "ධාන": 1557,
      "▁කරුණාකරලා": 1558,
      "▁තීර": 1559,
      "▁විශේෂ": 1560,
      "▁∙∙∙": 1561,
      "▁සතුටු": 1562,
      "▁නු": 1563,
      "වන්": 1564,
      "▁b": 1565,
      "▁ගෑ": 1566,
      "පති": 1567,
      "▁පහර": 1568,
      "ඳි": 1569,
      "▁මඟ": 1570,
      "▁තේර": 1571,
      "▁ගාන": 1572,
      "පත්": 1573,
      "▁අවසා": 1574,
      "▁මෙතනින්": 1575,
      "▁වච": 1576,
      "▁හිතුවේ": 1577,
      "▁නෑ!": 1578,
      "පාර": 1579,
      "හ්,": 1580,
      "▁බු": 1581,
      "තික": 1582,
      "▁ඇස්": 1583,
      "තේ": 1584,
      "▁I": 1585,
      "▁වෛ": 1586,
      "▁ව්‍යා": 1587,
      "ෝ,": 1588,
      "▁මේකට": 1589,
      "▁වුනා.": 1590,
      "▁මැර": 1591,
      "▁අනිවා": 1592,
      "▁එළියට": 1593,
      "▁කළා.": 1594,
      "තැන": 1595,
      "▁දැන්ම": 1596,
      "▁නිකන්": 1597,
      "ීම්": 1598,
      "▁කණ": 1599,
      "▁හේතුව": 1600,
      "නයේ": 1601,
      "▁මැරෙන්න": 1602,
      "▁වට": 1603,
      "▁අමාරු": 1604,
      "▁ලෙස": 1605,
      "▁දන්නවා.": 1606,
      "▁ඇද": 1607,
      "▁ආදරෙ": 1608,
      "▁නෙමේ": 1609,
      "▁මිනිහා": 1610,
      "▁එකතු": 1611,
      "යෙක්.": 1612,
      "re": 1613,
      "▁හිර": 1614,
      "නයට": 1615,
      "▁තියන්න": 1616,
      "▁මුළු": 1617,
      "ලව": 1618,
      "▁නෝ": 1619,
      "කුණ": 1620,
      "▁පුලුවන්.": 1621,
      "▁සර්,": 1622,
      "▁ජැක්": 1623,
      "▁උත්සහ": 1624,
      "▁උනේ": 1625,
      "ක්‍": 1626,
      "▁ආරක්ෂා": 1627,
      "▁ස්තුතියි": 1628,
      "ලින්ම": 1629,
      "හෙන්න": 1630,
      "▁මුකුත්": 1631,
      "▁p": 1632,
      "▁කිව": 1633,
      "▁නෙමෙයි.": 1634,
      "▁හරියටම": 1635,
      "හාට": 1636,
      "▁ඔහොම": 1637,
      "▁වැදගත්": 1638,
      "දෙයක්": 1639,
      "▁විතරක්": 1640,
      "ංශ": 1641,
      "▁ඔව්.": 1642,
      "ia": 1643,
      "යි∙": 1644,
      "▁a": 1645,
      "▁සතුට": 1646,
      "▁කාලය": 1647,
      "▁කරන්න,": 1648,
      "ංගි": 1649,
      "▁පාලනය": 1650,
      "▁හැමදේම": 1651,
      "▁රේ": 1652,
      "▁පැය": 1653,
      "▁කල්": 1654,
      "▁මැරි": 1655,
      "▁දිගටම": 1656,
      "▁යන්න!": 1657,
      "▁බිරි": 1658,
      "දානම්": 1659,
      "▁කෝල්": 1660,
      "▁F": 1661,
      "නුව": 1662,
      "▁අහ්": 1663,
      "ගෝ": 1664,
      "▁ඔවුන්ට": 1665,
      "▁මන්": 1666,
      "▁අන්න": 1667,
      "ද.": 1668,
      "ර්.": 1669,
      "▁සඳහා": 1670,
      "▁වතාව": 1671,
      "ස්තුව": 1672,
      "රයක්": 1673,
      "▁රෙ": 1674,
      "▁කලා.": 1675,
      "▁ඉන්න,": 1676,
      "▁අස": 1677,
      "▁අරි": 1678,
      "▁ඒවගේම": 1679,
      "▁(_": 1680,
      "▁∙": 1681,
      "▁10": 1682,
      "▁B": 1683,
      "▁ස්තූතියි": 1684,
      "දය": 1685,
      "▁ශක්": 1686,
      "▁K": 1687,
      "▁තමන්": 1688,
      "▁ගියා.": 1689,
      "▁එන්න,": 1690,
      "▁යමු.": 1691,
      "▁පෙර": 1692,
      "▁ඕනා.": 1693,
      "▁දකින්න": 1694,
      "ං.": 1695,
      "▁වය": 1696,
      "▁ස්ථා": 1697,
      "▁පත්": 1698,
      "අපි": 1699,
      "▁තියනවා.": 1700,
      "ගො": 1701,
      "▁ළමයි": 1702,
      "ගාටු": 1703,
      "▁පැමි": 1704,
      "▁තනිය": 1705,
      "▁නැගි": 1706,
      "රාධ": 1707,
      "▁එපා!": 1708,
      "▁ඩි": 1709,
      "▁ධ": 1710,
      "▁තත්": 1711,
      "▁තමයි.": 1712,
      "▁නෑ∙": 1713,
      "මී": 1714,
      "▁තාමත්": 1715,
      "nt": 1716,
      "▁මච": 1717,
      "▁යො": 1718,
      "▁සාමාන්‍ය": 1719,
      "▁උදේ": 1720,
      "▁නෙමෙයි": 1721,
      "ාල": 1722,
      "ක්ශ": 1723,
      "▁P": 1724,
      "ර්ථ": 1725,
      "▁ගත": 1726,
      "▁N": 1727,
      "▁ආදරය": 1728,
      "දෙන්න": 1729,
      "▁ගෙනිය": 1730,
      "▁දැනටම": 1731,
      "▁මෙහ": 1732,
      "▁අවුලක්": 1733,
      "▁මගෙන්": 1734,
      "▁අමු": 1735,
      "▁අභ": 1736,
      "▁ජෝ": 1737,
      "▁ආයු": 1738,
      "▁d": 1739,
      "▁කාලෙ": 1740,
      "▁නිදා": 1741,
      "▁the": 1742,
      "▁පුදුම": 1743,
      "▁ඈ": 1744,
      "▁තුවක්ක": 1745,
      "▁ගුවන්": 1746,
      "▁නියමයි.": 1747,
      "▁වෙන්නේ?": 1748,
      "▁හිතා": 1749,
      "▁හෙට": 1750,
      "▁නිසා.": 1751,
      "▁වාහ": 1752,
      "▁ආවෙ": 1753,
      "පිය": 1754,
      "ගත්තා.": 1755,
      "▁ආවා": 1756,
      "▁වැට": 1757,
      "▁වන": 1758,
      "▁පින්": 1759,
      "වලා": 1760,
      "▁මමත්": 1761,
      "▁ඉදන්": 1762,
      "▁වාස": 1763,
      "▁දෙනවා": 1764,
      "ුනා": 1765,
      "▁කරගෙන": 1766,
      "▁මොකුත්": 1767,
      "ක්මන්": 1768,
      "▁යට": 1769,
      "▁මෙම": 1770,
      "▁සමග": 1771,
      "▁පිලි": 1772,
      "▁මුණ": 1773,
      "ing": 1774,
      "▁ආස": 1775,
      "ුණු": 1776,
      "ූප": 1777,
      "ත්මක": 1778,
      "්‍රා": 1779,
      "▁ළම": 1780,
      "▁උත්සා": 1781,
      "▁ජීවිතේ": 1782,
      "▁කරන්න!": 1783,
      "▁සම්": 1784,
      "▁මමයි": 1785,
      "▁දෙයක්.": 1786,
      "▁මුද": 1787,
      "පො": 1788,
      "▁R": 1789,
      "▁උස": 1790,
      "▁තියාගන්න": 1791,
      "ෙකු": 1792,
      "▁පේන": 1793,
      "කරු": 1794,
      "▁l": 1795,
      "▁6": 1796,
      "▁ගණ": 1797,
      "▁හොඳට": 1798,
      "▁දෙකක්": 1799,
      "ල.": 1800,
      "ol": 1801,
      "ට්ටු": 1802,
      "▁සන්": 1803,
      "▁කරන්නෙ?": 1804,
      "▁වත්": 1805,
      "▁මේවා": 1806,
      "ෝජ": 1807,
      "වාහ": 1808,
      "el": 1809,
      "▁යාළුව": 1810,
      "කී": 1811,
      "▁උත්සාහ": 1812,
      "▁මොකද?": 1813,
      "▁අනතුර": 1814,
      "▁කවුරුහරි": 1815,
      "▁උනා.": 1816,
      "▁දින": 1817,
      "▁යාළු": 1818,
      "මන": 1819,
      "▁පොරොන්දු": 1820,
      "රින්": 1821,
      "▁ලා": 1822,
      "▁සටන්": 1823,
      "▁පිටි": 1824,
      "▁n": 1825,
      "▁අන්තිම": 1826,
      "▁සෙල්ලම්": 1827,
      "▁මනුස්ස": 1828,
      "කිය": 1829,
      "▁පැහැදිලි": 1830,
      "▁රට": 1831,
      "il": 1832,
      "නි.": 1833,
      "▁m": 1834,
      "▁වද": 1835,
      "▁මටත්": 1836,
      "▁ප්‍රමා": 1837,
      "▁නිල": 1838,
      "ගයක්": 1839,
      "▁වො": 1840,
      "▁වෙලා.": 1841,
      "SA": 1842,
      "▁ගෝ": 1843,
      "▁අදහස්": 1844,
      "▁ඉතින්,": 1845,
      "▁යන්නේ.": 1846,
      "▁නෙව": 1847,
      "ැද්ද": 1848,
      "▁මිනිහෙක්": 1849,
      "▁තුන": 1850,
      "her": 1851,
      "හිත": 1852,
      "▁කරනව": 1853,
      "වෘ": 1854,
      "▁දිය": 1855,
      "▁පණි": 1856,
      "▁තැ": 1857,
      "වනවා": 1858,
      "▁ගත්තා.": 1859,
      "▁දැක්කා": 1860,
      "ඒක": 1861,
      "ින්ම": 1862,
      "ාවට": 1863,
      "▁වෙත": 1864,
      "▁කියපු": 1865,
      "ad": 1866,
      "▁බොහොම": 1867,
      "දින්න": 1868,
      "ලා,": 1869,
      "▁සමාවෙන්න,": 1870,
      "පයක්": 1871,
      "රියා": 1872,
      "▁ලු": 1873,
      "▁මාස": 1874,
      "▁කවුද?": 1875,
      "▁ආයෙත්": 1876,
      "චාර": 1877,
      "▁අංක": 1878,
      "▁ආයේ": 1879,
      "▁උදවු": 1880,
      "ක.": 1881,
      "▁විනාඩි": 1882,
      "▁පොලිස්": 1883,
      "්ම්": 1884,
      "▁ඉක්මන්": 1885,
      "▁G": 1886,
      "විඩ": 1887,
      "▁කෙනකේ": 1888,
      "පුර": 1889,
      "▁වටි": 1890,
      "▁ඉන්": 1891,
      "නෙ.": 1892,
      "ow": 1893,
      "▁දරු": 1894,
      "ෙනි": 1895,
      "▁මෙච්චර": 1896,
      "▁ඕනෙ.": 1897,
      "▁ලෑස්ති": 1898,
      "▁දැනගෙන": 1899,
      "▁ඉවත්": 1900,
      "▁දො": 1901,
      "▁තේරෙන්න": 1902,
      "ෑ.": 1903,
      "▁කව": 1904,
      "▁බ්‍ර": 1905,
      "යො": 1906,
      "▁යන්නේ?": 1907,
      "▁නොහැ": 1908,
      "නේ!": 1909,
      "▁කියලද?": 1910,
      "▁පැටිය": 1911,
      "▁සෝ": 1912,
      "ගන": 1913,
      "▁විකාර": 1914,
      "▁එකක්.": 1915,
      "ජා": 1916,
      "කර්": 1917,
      "▁හතර": 1918,
      "රුවත්": 1919,
      "▁කාටවත්": 1920,
      "▁ඉස්": 1921,
      "▁ගිහි": 1922,
      "▁හදන්න": 1923,
      "▁නැත්තම්": 1924,
      "▁කියලා∙": 1925,
      "▁නවති": 1926,
      "පැ": 1927,
      "▁ඊල": 1928,
      "▁කණගාටු": 1929,
      "▁පියා": 1930,
      "▁නතර": 1931,
      "▁සුදු": 1932,
      "ට්.": 1933,
      "▁ඇල": 1934,
      "▁දෙයක්ම": 1935,
      "▁ජන": 1936,
      "මැ": 1937,
      "▁කන්න": 1938,
      "▁ඒයි": 1939,
      "හාර": 1940,
      "▁ඉහ": 1941,
      "▁දැනටමත්": 1942,
      "මෙන්": 1943,
      "▁සට": 1944,
      "ින්ද": 1945,
      "▁භාවි": 1946,
      "▁හිටපු": 1947,
      "▁USA": 1948,
      "▁බලාපොරොත්තු": 1949,
      "▁ගියේ": 1950,
      "▁කරේ": 1951,
      "▁කියන්නේ?": 1952,
      "▁රු": 1953,
      "▁යාලුව": 1954,
      "▁ඉගෙන": 1955,
      "▁ආදරේ": 1956,
      "දේශ": 1957,
      "▁ඇඳු": 1958,
      "▁අනිවාර්": 1959,
      "▁ඉතා": 1960,
      "▁කෙනෙක්.": 1961,
      "තුම": 1962,
      "▁ශා": 1963,
      "▁h": 1964,
      "▁යන්න,": 1965,
      "▁අදහසක්": 1966,
      "FF": 1967,
      "▁ආරක්ෂක": 1968,
      "ීමේ": 1969,
      "▁තොරතුරු": 1970,
      "▁දැන්,": 1971,
      "▁කාලයක්": 1972,
      "▁භා": 1973,
      "▁ගන": 1974,
      "නා,": 1975,
      "▁විදිය": 1976,
      "තය": 1977,
      "මණ": 1978,
      "▁පුද්ග": 1979,
      "▁පරිස්ස": 1980,
      "මේ.": 1981,
      "ඩිය": 1982,
      "▁පුංචි": 1983,
      "පය": 1984,
      "▁නුඹ": 1985,
      "ැනි": 1986,
      "▁අපට": 1987,
      "නම්,": 1988,
      "▁වැරැද්ද": 1989,
      "▁වුණා": 1990,
      "▁o": 1991,
      "▁හොදයි,": 1992,
      "▁අයට": 1993,
      "▁බලන්": 1994,
      "ල්ලක්": 1995,
      "▁ඉල": 1996,
      "සාද": 1997,
      "▁හුඟ": 1998,
      "▁පරණ": 1999,
      "▁H": 2000,
      "ෙන්ද": 2001,
      "බු": 2002,
      "us": 2003,
      "▁පිටිපස්ස": 2004,
      "එයා": 2005,
      "රව": 2006,
      "▁අළු": 2007,
      "▁ජිවිත": 2008,
      "ඩුව": 2009,
      "▁ඔබව": 2010,
      "▁පණිවිඩ": 2011,
      "තියක්": 2012,
      "▁සුබ": 2013,
      "▁ඔහුගෙ": 2014,
      "▁වෙනව": 2015,
      "▁වේවි": 2016,
      "‍න": 2017,
      "මං": 2018,
      "▁මීට": 2019,
      "▁හොඳම": 2020,
      "▁සාක්ෂ": 2021,
      "ෙන්නෙ": 2022,
      "නවා,": 2023,
      "▁හොදට": 2024,
      "ධ්‍ය": 2025,
      "‍යා": 2026,
      "▁කතාකර": 2027,
      "▁ජීවිතය": 2028,
      "▁වෙලාවක්": 2029,
      "▁නිදහස්": 2030,
      "ටියට": 2031,
      "▁L": 2032,
      "ෙල්": 2033,
      "නවා!": 2034,
      "ද්දී": 2035,
      "ක්ටර්": 2036,
      "▁හදි": 2037,
      "ගන්නවා": 2038,
      "▁නැව": 2039,
      "▁නෑ...": 2040,
      "▁ගැල": 2041,
      "හම": 2042,
      "▁එයාලව": 2043,
      "▁කවුරුත්": 2044,
      "▁නගර": 2045,
      "▁පස්සෙන්": 2046,
      "▁වෙන්": 2047,
      "▁බර": 2048,
      "▁අපරාධ": 2049,
      "▁එක්ක.": 2050,
      "▁උඹේ": 2051,
      "යෙන්ම": 2052,
      "▁පූ": 2053,
      "▁තවමත්": 2054,
      "▁ශි": 2055,
      "▁තියෙනවද?": 2056,
      "▁රාත්‍ර": 2057,
      "▁කියා": 2058,
      "▁වැඩිය": 2059,
      "ගක්": 2060,
      "▁සිද්ද": 2061,
      "▁ග්‍ර": 2062,
      "▁කරන්නම්.": 2063,
      "ෙම": 2064,
      "ලෙන්": 2065,
      "▁විස්තර": 2066,
      "▁දාන්න.": 2067,
      "▁මතක්": 2068,
      "et": 2069,
      "▁තිබුණ": 2070,
      "▁තමුන්": 2071,
      "▁හමුද": 2072,
      "▁කොහෙද?": 2073,
      "▁W": 2074,
      "▁හොයාගත්ත": 2075,
      "▁වෙලාවට": 2076,
      "▁කප": 2077,
      "▁මාර": 2078,
      "වුනා": 2079,
      "ල්,": 2080,
      "▁රස්ස": 2081,
      "ලියන": 2082,
      "▁උත්තර": 2083,
      "▁කිහි": 2084,
      "ලන්": 2085,
      "▁සැලැ": 2086,
      "ගන්": 2087,
      "▁y": 2088,
      "▁ඒකෙ": 2089,
      "▁දැනු": 2090,
      "▁to": 2091,
      "▁කවුරුවත්": 2092,
      "කයෙක්": 2093,
      "▁දක්": 2094,
      "▁ඇහ": 2095,
      "ටා": 2096,
      "▁හොදයි.": 2097,
      "▁%": 2098,
      "▁අයිති": 2099,
      "▁තනියම": 2100,
      "▁දැකලා": 2101,
      "▁වූ": 2102,
      "▁තද": 2103,
      "ඟි": 2104,
      "▁හී": 2105,
      "▁වෙනව.": 2106,
      "▁සූදානම්": 2107,
      "යානක": 2108,
      "▁තො": 2109,
      "ct": 2110,
      "▁මගෝ": 2111,
      "▁මයිකල්": 2112,
      "▁චිත්‍ර": 2113,
      "ed": 2114,
      "සර්": 2115,
      "▁ඉවරයි.": 2116,
      "▁එන්නේ": 2117,
      "නට": 2118,
      "▁ජො": 2119,
      "▁මරණ": 2120,
      "ියෙක්": 2121,
      "▁දක්ෂ": 2122,
      "▁චා": 2123,
      "▁ඒකයි": 2124,
      "▁හදන්නේ": 2125,
      "▁E": 2126,
      "▁මඟු": 2127,
      "▁මොකටද": 2128,
      "▁ක්ලා": 2129,
      "‍ට": 2130,
      "▁මිය": 2131,
      "▁විවාහ": 2132,
      "ම්භ": 2133,
      "▁දූ": 2134,
      "▁ඇගේ": 2135,
      "▁ලෝකය": 2136,
      "▁කරා.": 2137,
      "▁නැත": 2138,
      "▁ඉඳන්": 2139,
      "▁පැනලා": 2140,
      "▁යාලු": 2141,
      "▁වාසනාව": 2142,
      "▁රහස්": 2143,
      "▁බෝම්බ": 2144,
      "▁අවස්ථාව": 2145,
      "▁ප්‍රශ්න": 2146,
      "▁ඔයාගෙන්": 2147,
      "▁කාමර": 2148,
      "▁කථා": 2149,
      "▁දුරක": 2150,
      "▁තුවා": 2151,
      "▁ගන්නවා": 2152,
      "▁ගෞ": 2153,
      "▁අපො": 2154,
      "000": 2155,
      "▁ආපු": 2156,
      "▁හැමදෙයක්": 2157,
      "▁වේවි.": 2158,
      "ැති": 2159,
      "▁O": 2160,
      "▁සයි": 2161,
      "▁මෙතනට": 2162,
      "▁හදවත": 2163,
      "▁බේරගන්න": 2164,
      "ැක": 2165,
      "▁ප්‍රධාන": 2166,
      "ප්පු": 2167,
      "ීන්": 2168,
      "▁අනා": 2169,
      "▁පද්ධ": 2170,
      "▁හැමෝටම": 2171,
      "▁හිතුවා": 2172,
      "ගොල්ල": 2173,
      "සක": 2174,
      "▁ඉන්නව": 2175,
      "▁ආරක්ෂිත": 2176,
      "සුව": 2177,
      "▁පණ": 2178,
      "▁නික": 2179,
      "▁කියලද": 2180,
      "▁තියනව": 2181,
      "▁කිරීමට": 2182,
      "▁දහ": 2183,
      "යි..": 2184,
      "▁සද්ද": 2185,
      "ින්.": 2186,
      "කෝ.": 2187,
      "▁වැරද": 2188,
      "▁අධි": 2189,
      "ට්ටුව": 2190,
      "▁ජෙ": 2191,
      "▁සමාවෙන්න.": 2192,
      "කාශ": 2193,
      "▁කකු": 2194,
      "▁තනි": 2195,
      "▁බිම": 2196,
      "ay": 2197,
      "▁මුලින්ම": 2198,
      "▁පාට": 2199,
      "▁විසි": 2200,
      "▁7": 2201,
      "▁තැනක්": 2202,
      "▁හෙලෝ": 2203,
      "and": 2204,
      "▁පරක්කු": 2205,
      "▁නවත්වන්න": 2206,
      "▁ඔන": 2207,
      "▁ලිපි": 2208,
      "▁බී": 2209,
      "▁භයානක": 2210,
      "ලයක්": 2211,
      "‍ව": 2212,
      "▁ඉන්නේ?": 2213,
      "**": 2214,
      "▁විනෝ": 2215,
      "▁නවත්තන්න": 2216,
      "ක්‍රීය": 2217,
      "▁සම්පූර්ණ": 2218,
      "▁හොරකම්": 2219,
      "▁කොයි": 2220,
      "▁ඇතුලේ": 2221,
      "▁අල්ලගන්න": 2222,
      "▁තරු": 2223,
      "▁ඇමරි": 2224,
      "▁ඉස්සරහ": 2225,
      "▁හැමදා": 2226,
      "▁ට්‍ර": 2227,
      "▁අතුරු": 2228,
      "▁පිය": 2229,
      "▁ඇහෙන": 2230,
      "▁මෙහෙන්": 2231,
      "ාක්": 2232,
      "▁දැම්මා": 2233,
      "ණා.": 2234,
      "▁කරයි": 2235,
      "▁තහ": 2236,
      "ධානය": 2237,
      "ර්ජ": 2238,
      "▁තිබුන": 2239,
      "▁මෙහෙයු": 2240,
      "▁මහා": 2241,
      "▁you": 2242,
      "ගිය": 2243,
      "▁හුඟක්": 2244,
      "වුරු": 2245,
      "▁කොහදෙ": 2246,
      "▁දෙන්නා": 2247,
      "▁පුලුවන්ද": 2248,
      "▁පාරක්": 2249,
      "▁ජය": 2250,
      "සී": 2251,
      "වාද": 2252,
      "▁එක්කෙන": 2253,
      "ෙත්": 2254,
      "e.": 2255,
      "▁ලොක්ක": 2256,
      "▁තවම": 2257,
      "▁සියලු": 2258,
      "▁රහ": 2259,
      "▁දෙයිය": 2260,
      "▁ආයුධ": 2261,
      "▁ඇහැ": 2262,
      "▁සිදු": 2263,
      "▁සුර": 2264,
      "යර්": 2265,
      "▁තමුසේ": 2266,
      "▁නීති": 2267,
      "am": 2268,
      "ග්‍ර": 2269,
      "▁බඩ": 2270,
      "▁තුවක්කුව": 2271,
      "▁මොහො": 2272,
      "▁වෙච්ච": 2273,
      "▁ගොනු": 2274,
      "▁දුන්නා": 2275,
      "රියට": 2276,
      "▁යනව": 2277,
      "▁නොකර": 2278,
      "ැත්ත": 2279,
      "▁හැදු": 2280,
      "▁ඔයාලගේ": 2281,
      "තනය": 2282,
      "▁ඔතන": 2283,
      "▁නෑ..": 2284,
      "▁වැටු": 2285,
      "▁බල්ල": 2286,
      "▁ගන්නවා.": 2287,
      "▁g": 2288,
      "ල්ස්": 2289,
      "▁තියෙනවා,": 2290,
      "▁තීරණය": 2291,
      "ලක්ද": 2292,
      "▁නිර්මා": 2293,
      "▁මන": 2294,
      "▁යම්": 2295,
      "කරණ": 2296,
      "යිට්": 2297,
      "තිමත්": 2298,
      "ot": 2299,
      "▁මොනවාද": 2300,
      "▁අම්මේ": 2301,
      "▁විද්‍යා": 2302,
      "▁කරමු.": 2303,
      "▁ඔන්න": 2304,
      "ටුව": 2305,
      "▁විශාල": 2306,
      "ක්ස්": 2307,
      "▁පැත්තට": 2308,
      "තරම්": 2309,
      "තියේ": 2310,
      "▁හැර": 2311,
      "▁ක්‍රම": 2312,
      "▁හිටියෙ": 2313,
      ".\"": 2314,
      "▁සති": 2315,
      "▁නැගිටි": 2316,
      "▁තෝරා": 2317,
      "▁20": 2318,
      "▁ඉලක්ක": 2319,
      "▁වෙලාවෙ": 2320,
      "න්නෙ?": 2321,
      "▁ඇතුල": 2322,
      "ක්‍ෂ": 2323,
      "ළට": 2324,
      "▁ඩොලර්": 2325,
      "▁කව්": 2326,
      "මාව": 2327,
      "පිරි": 2328,
      "▁මිනිස්සුන්ට": 2329,
      "▁විවෘ": 2330,
      "▁මිලියන": 2331,
      "▁කළේ": 2332,
      "▁වීර": 2333,
      "▁නිකම්": 2334,
      "▁-ඔ": 2335,
      "නි,": 2336,
      "▁පුරු": 2337,
      "▁තියෙන්නෙ.": 2338,
      "▁9": 2339,
      "▁නොම": 2340,
      "▁කියල?": 2341,
      "▁වුනත්": 2342,
      "▁බඩු": 2343,
      "▁පස්සට": 2344,
      "▁යමක්": 2345,
      "‍‍න": 2346,
      "▁දොස්තර": 2347,
      "ස්ථා": 2348,
      "▁පුහු": 2349,
      "▁සිහි": 2350,
      "ව්වා": 2351,
      "▁වගෝ": 2352,
      "▁ඒකේ": 2353,
      "▁දේශ": 2354,
      "ෆි": 2355,
      "▁බලය": 2356,
      "ශී": 2357,
      "ෙනව": 2358,
      "▁බව.": 2359,
      "▁ඇඳ": 2360,
      "නීම": 2361,
      "ට්,": 2362,
      "ඩ්.": 2363,
      "▁ෆ්": 2364,
      "▁හැමදෙයක්ම": 2365,
      "න්නා": 2366,
      "▁පමණ": 2367,
      "▁මරලා": 2368,
      "▁8": 2369,
      "▁කරනවද?": 2370,
      "▁මහත්තයා": 2371,
      "▁සිං": 2372,
      "▁ස්තුතියි.": 2373,
      "වලට": 2374,
      "ව්‍ය": 2375,
      "▁දන්නවද?": 2376,
      "▁හැටියට": 2377,
      "▁පුලුවන්ද?": 2378,
      "▁අනුව": 2379,
      "තී": 2380,
      "▁ස්ථ": 2381,
      "▁සොයා": 2382,
      "▁‍අ": 2383,
      "▁ටෙ": 2384,
      "▁ඇවිල්ලා": 2385,
      "▁හදා": 2386,
      "▁පිස්ස": 2387,
      "▁ගහන්න": 2388,
      "▁උනත්": 2389,
      "▁පොලී": 2390,
      "▁කොටස": 2391,
      "▁මම...": 2392,
      "▁ඕනි.": 2393,
      "▁ඉන්නෙ.": 2394,
      "▁ඔයයි": 2395,
      "▁ස්තූතියි.": 2396,
      "s.": 2397,
      "▁J": 2398,
      "▁හැටි": 2399,
      "ගහ": 2400,
      "▁හැබැ": 2401,
      "▁ජෙන": 2402,
      "▁කාන්": 2403,
      "▁ඇයි?": 2404,
      "▁තෝර": 2405,
      "▁ආවා.": 2406,
      "▁තාත්තේ": 2407,
      "මෝ": 2408,
      "▁වෝ": 2409,
      "▁හිතුවෙ": 2410,
      "▁සිදුව": 2411,
      "▁ආරම්භ": 2412,
      "▁අනික": 2413,
      "▁තියනව.": 2414,
      "▁කලබල": 2415,
      "▁එදා": 2416,
      "▁නෙමේ.": 2417,
      "▁තිබුනා": 2418,
      "ගී": 2419,
      "▁කතාකරන්න": 2420,
      "▁හිටියේ.": 2421,
      "▁සියළු": 2422,
      "▁පවුල": 2423,
      "▁උඩට": 2424,
      "කල": 2425,
      "▁දේ.": 2426,
      "▁තත්ව": 2427,
      "▁හිතුව": 2428,
      "▁කලින්.": 2429,
      "ාවේ": 2430,
      "▁අඳු": 2431,
      "▁ඒයි,": 2432,
      "▁බිරිඳ": 2433,
      "හිර": 2434,
      "▁පුළුවන්ද?": 2435,
      "▁චාර්": 2436,
      "▁නංගි": 2437,
      "▁ඇතුල්": 2438,
      "▁තත්ප": 2439,
      "▁කෙල්ලෙක්": 2440,
      "▁පෙන්වන්න": 2441,
      "▁විරු": 2442,
      "▁තියෙන්නේ?": 2443,
      "තක්": 2444,
      "වුන": 2445,
      "▁මෙය": 2446,
      "ලේම": 2447,
      "▁වාඩි": 2448,
      "▁අවුල්": 2449,
      "▁ඉතුරු": 2450,
      "▁වරද": 2451,
      "▁දර්ශ": 2452,
      "▁අවුරුද්ද": 2453,
      "▁විනෝද": 2454,
      "බෑ": 2455,
      "වින්": 2456,
      "▁අවසන්": 2457,
      "▁ඔවුන්ගේ": 2458,
      "▁කොහේද": 2459,
      "▁කැප්": 2460,
      "යාට": 2461,
      "▁සමඟ": 2462,
      "ගාර": 2463,
      "▁නොද": 2464,
      "ෂ්ට": 2465,
      "▁තිබ්බා": 2466,
      "▁වාර්තා": 2467,
      "▁ඇදු": 2468,
      "ද්‍ය": 2469,
      "▁සමාග": 2470,
      "මාන": 2471,
      "▁සුව": 2472,
      "▁යවන්න": 2473,
      "▁දෙන්නේ": 2474,
      "▁මාරු": 2475,
      "▁වෙනුවෙන්.": 2476,
      "▁මෙහාට": 2477,
      "▁තියෙනව": 2478,
      "▁පරීක්ෂා": 2479,
      "මොක": 2480,
      "▁වයි": 2481,
      "ment": 2482,
      "▁st": 2483,
      "▁ඇත.": 2484,
      "ොන්": 2485,
      "යා!": 2486,
      "▁ෆ්‍ර": 2487,
      "▁උස්ස": 2488,
      "▁හොයාගෙන": 2489,
      "▁කොහෙන්ද": 2490,
      "▁මුණගැ": 2491,
      "▁ඉන්න!": 2492,
      "එක": 2493,
      "▁ගොඩාක්": 2494,
      "▁ඊළ": 2495,
      "▁පද": 2496,
      "▁මැඩ": 2497,
      "ප්‍ර": 2498,
      "ගන්නවා.": 2499,
      "▁12": 2500,
      "▁අනතුරු": 2501,
      "ඩියෝ": 2502,
      "වයි": 2503,
      "▁ජැ": 2504,
      "▁මේකෙන්": 2505,
      "‍ම": 2506,
      "ක්!": 2507,
      "▁අවසර": 2508,
      "▁නියෝජ": 2509,
      "▁වුනේ?": 2510,
      "▁අල්ලා": 2511,
      "කාරයෙක්": 2512,
      "▁සාක්ෂි": 2513,
      "න්ට්": 2514,
      "▁ඒ?": 2515,
      "▁ඉස්කෝ": 2516,
      "▁විවෘත": 2517,
      "වා!": 2518,
      "▁හැද": 2519,
      "▁මිනීම": 2520,
      "▁ගානක්": 2521,
      "▁දන්නවා,": 2522,
      "ඹු": 2523,
      "▁‍ක": 2524,
      "කාරය": 2525,
      "▁වේග": 2526,
      "▁හිටියා.": 2527,
      "සියට": 2528,
      "▁යුද්ධ": 2529,
      "▁හැකියාව": 2530,
      "▁හලෝ": 2531,
      "▁-ඔයා": 2532,
      "▁සියල්ල": 2533,
      "▁යන්": 2534,
      "▁හුස්ම": 2535,
      "තන්": 2536,
      "▁බාර": 2537,
      "▁වෙලාවේ": 2538,
      "▁....": 2539,
      "▁භූ": 2540,
      "▁ගෙදරට": 2541,
      "මගේ": 2542,
      "▁ඉදලා": 2543,
      "▁කූ": 2544,
      "ල්ලු": 2545,
      "▁කර්": 2546,
      "ෙහ": 2547,
      "▁පැට": 2548,
      "ro": 2549,
      "ෙයි": 2550,
      "▁වගෙ": 2551,
      "▁තිස්ස": 2552,
      "හ්!": 2553,
      "යාගේ": 2554,
      "▁කරමු": 2555,
      "සන": 2556,
      "▁අතන": 2557,
      "▁ජිවත්": 2558,
      "▁බලමු": 2559,
      "▁ඩොක්ටර්": 2560,
      "හැන": 2561,
      "▁ඝ": 2562,
      "▁කියව": 2563,
      "ෙක්ට": 2564,
      "▁ඉදිරි": 2565,
      "▁ඔබගේ": 2566,
      "▁පර්": 2567,
      "▁ඩේ": 2568,
      "▁කරනවා,": 2569,
      "▁බුද්ධ": 2570,
      "තල": 2571,
      "▁තියෙනවද": 2572,
      "රාජ": 2573,
      "▁කැප්ටන්": 2574,
      "▁පෝ": 2575,
      "▁බොහෝ": 2576,
      "▁අවසාන": 2577,
      "▁වීම": 2578,
      "▁සන්සුන්": 2579,
      "ක්?": 2580,
      "▁හිතන": 2581,
      "කලා": 2582,
      "ෂ්ඨ": 2583,
      "භා": 2584,
      "ත්‍ය": 2585,
      "▁බ්": 2586,
      "▁කරන්නේ.": 2587,
      "▁ඔවුන්ව": 2588,
      "▁හොයන්න": 2589,
      "▁කුරු": 2590,
      "▁ඇන්": 2591,
      "▁වස්තුව": 2592,
      "▁ගල": 2593,
      "▁හැසි": 2594,
      "▁එයාලගේ": 2595,
      "▁කාමරේ": 2596,
      "▁හේයි.": 2597,
      "ab": 2598,
      "ී,": 2599,
      "▁අපිත්": 2600,
      "▁සිට": 2601,
      "▁මුහුණ": 2602,
      "▁පිහි": 2603,
      "▁වස": 2604,
      "▁අග": 2605,
      "▁ඊයේ": 2606,
      "▁නැ∙": 2607,
      "▁ටැ": 2608,
      "▁අල්ලන්න": 2609,
      "▁හොඳින්ද?": 2610,
      "ගන්නේ": 2611,
      "▁මිස්ටර්": 2612,
      "▁කැමතියි.": 2613,
      "▁සම්පූර්ණය": 2614,
      "▁නැත්තේ": 2615,
      "ිලා": 2616,
      "▁උබට": 2617,
      "▁දාල": 2618,
      "▁බවට": 2619,
      "▁දෙන්නම": 2620,
      "▁නැත්තේ?": 2621,
      "▁නට": 2622,
      "▁අඩුම": 2623,
      "රණ": 2624,
      "▁සද": 2625,
      "▁ගොඩනැ": 2626,
      "ෙකුට": 2627,
      "▁දරුව": 2628,
      "▁Mr": 2629,
      "යානු": 2630,
      "▁එහා": 2631,
      "▁හොදම": 2632,
      "▁අනාගත": 2633,
      "ශි": 2634,
      "▁වනෙ": 2635,
      "▁පෙනු": 2636,
      "▁අවස්ථාවක්": 2637,
      "▁පින්තූ": 2638,
      "▁of": 2639,
      "ඒත්": 2640,
      "▁අංශ": 2641,
      "▁විසින්": 2642,
      "▁තුවාල": 2643,
      "ල්ම": 2644,
      "▁කාලේ": 2645,
      "▁හැබැයි": 2646,
      "ද්‍ර": 2647,
      "සින්": 2648,
      "පිට": 2649,
      "ව්ව": 2650,
      "▁15": 2651,
      "▁ෆෝන්": 2652,
      "ර්ථක": 2653,
      "ව්.": 2654,
      "ac": 2655,
      "ඥා": 2656,
      "▁අනේ,": 2657,
      "▁ඒක.": 2658,
      "▁කාව": 2659,
      "▁for": 2660,
      "th": 2661,
      "පර්": 2662,
      "ත්තුව": 2663,
      "▁දුම්": 2664,
      "තාවක්": 2665,
      "▁ගන්නේ": 2666,
      "පේ": 2667,
      "▁රස": 2668,
      "▁දුර්": 2669,
      "▁ගත්තේ": 2670,
      "▁වේද": 2671,
      "▁දුරකථ": 2672,
      "ලූ": 2673,
      "වුර": 2674,
      "▁ඉක්මනින්": 2675,
      "ටද?": 2676,
      "▁-මම": 2677,
      "▁කිරි": 2678,
      "ran": 2679,
      "කයක්": 2680,
      "ස්ත": 2681,
      "▁මෙයාව": 2682,
      "ur": 2683,
      "සෝ": 2684,
      "▁මුර": 2685,
      "▁අතුරුද": 2686,
      "▁නිතර": 2687,
      "▁නියෝජිත": 2688,
      "ම්ව": 2689,
      "▁අමුතු": 2690,
      "ව්,": 2691,
      "යුතු": 2692,
      "▁කන": 2693,
      "ඩය": 2694,
      "▁තත්වය": 2695,
      "▁ෆි": 2696,
      "▁එහ": 2697,
      "▁උදව්වක්": 2698,
      "▁සර": 2699,
      "▁කරනව.": 2700,
      "නේනෙ": 2701,
      "වරු": 2702,
      "ෑම": 2703,
      "▁ගිනි": 2704,
      "▁දවසක්": 2705,
      "▁අළුත්": 2706,
      "eat": 2707,
      "ve": 2708,
      "▁අදහස": 2709,
      "▁♫": 2710,
      "▁මෙහි": 2711,
      "▁බලප": 2712,
      "▁එන්නම්.": 2713,
      "ධිපති": 2714,
      "▁කිවුව": 2715,
      "ගනෙ": 2716,
      "වුම්": 2717,
      "නකොට": 2718,
      "un": 2719,
      "▁වෙනවා,": 2720,
      "▁මොනවහරි": 2721,
      "▁අහි": 2722,
      "▁නෙවේ": 2723,
      "▁හුගක්": 2724,
      "මිය": 2725,
      "යන්න": 2726,
      "▁අසා": 2727,
      "ස්?": 2728,
      "▁උදෑ": 2729,
      "▁ප්‍රශ්ණ": 2730,
      "▁වෛර": 2731,
      "▁නගි": 2732,
      "▁හ්ම්": 2733,
      "▁එකත්": 2734,
      "▁හිතනවද": 2735,
      "▁වශ": 2736,
      "▁දෙනෙක්": 2737,
      "▁අහන්න,": 2738,
      "▁සක": 2739,
      "▁යැ": 2740,
      "▁තිබුනේ": 2741,
      "දුරටත්": 2742,
      "ෝ?": 2743,
      "ක්සි": 2744,
      "▁මොකද්ද?": 2745,
      "▁දෙවියන්": 2746,
      "▁සේවා": 2747,
      "▁ඕනම": 2748,
      "▁බෑ,": 2749,
      "දිය": 2750,
      "▁ආවර": 2751,
      "වැර": 2752,
      "▁හැමදාම": 2753,
      "▁විරුද්ධ": 2754,
      "▁අණ": 2755,
      "▁පනි": 2756,
      "▁බොර": 2757,
      "▁කැමැත්ත": 2758,
      "▁යෙ": 2759,
      "▁ඉන්නවද?": 2760,
      "ලාව": 2761,
      "▁නිකං": 2762,
      "▁ඉදිරියට": 2763,
      "ම්!": 2764,
      "▁උපන්": 2765,
      "▁තෑ": 2766,
      "ලක": 2767,
      "▁වුණා.": 2768,
      "▁පහු": 2769,
      "▁ගැනද": 2770,
      "▁ගොනුව": 2771,
      "ර්ත": 2772,
      "▁හොඳටම": 2773,
      "▁හරහා": 2774,
      "▁ආරක්ශ": 2775,
      "▁ක්‍රියාත්මක": 2776,
      "▁පැමිණ": 2777,
      "▁මත්": 2778,
      "▁පට": 2779,
      "▁වෙන්නෙ?": 2780,
      "කරලා": 2781,
      "▁අහන්න.": 2782,
      "▁තුල": 2783,
      "▁දෙනවා.": 2784,
      "▁වෛද්‍ය": 2785,
      "▁මැරිලා": 2786,
      "ෂ්‍ය": 2787,
      "▁සංග": 2788,
      "▁තවදුරටත්": 2789,
      "▁දීලා": 2790,
      "ec": 2791,
      "්‍යාව": 2792,
      "▁මූණ": 2793,
      "රන්": 2794,
      "ස්!": 2795,
      "දුන": 2796,
      "▁කියනව": 2797,
      "▁ඉඳලා": 2798,
      "මක්.": 2799,
      "▁විස්": 2800,
      "▁ඌව": 2801,
      "▁වැඩසට": 2802,
      "හැර": 2803,
      "වනවා.": 2804,
      "▁අහු": 2805,
      "▁වෙන්න!": 2806,
      "ර්,": 2807,
      "▁නම්.": 2808,
      "ලයි": 2809,
      "▁නෙවෙයි,": 2810,
      "▁මරණය": 2811,
      "හා.": 2812,
      "ut": 2813,
      "▁30": 2814,
      "▁කණ්ඩායම": 2815,
      "▁යුතුයි.": 2816,
      "▁දැනගත්ත": 2817,
      "නාවක්": 2818,
      "▁හිතාගන්න": 2819,
      "බර්": 2820,
      "▁එන්නෙ": 2821,
      "▁එනව": 2822,
      "ස්ට්": 2823,
      "▁විශ්වාසයි": 2824,
      "▁සැලසුම්": 2825,
      "ගට": 2826,
      "‍ල": 2827,
      "▁වෙන්න,": 2828,
      "▁ලැයි": 2829,
      "▁අයියෝ": 2830,
      "ෙදි": 2831,
      "▁සීම": 2832,
      "▁විදු": 2833,
      "▁අරගන්න": 2834,
      "▁කවදා": 2835,
      "සික": 2836,
      "▁හමුදාව": 2837,
      "‍ක": 2838,
      "▁කරන්නම්": 2839,
      "▁හැඟ": 2840,
      "පන්.": 2841,
      "▁රතු": 2842,
      "ගැනීම": 2843,
      "▁හින්": 2844,
      "▁ඉවරයි": 2845,
      "▁තේරුනා": 2846,
      "▁තැනට": 2847,
      "▁ගැලප": 2848,
      "▁ඔප්පු": 2849,
      "▁තරහ": 2850,
      "▁කියලා...": 2851,
      "▁සහතික": 2852,
      "▁පරික්ෂ": 2853,
      "▁තියාගෙන": 2854,
      "▁නිවැර": 2855,
      "▁දන්නවනේ": 2856,
      "▁තේරුම": 2857,
      "▁තේරෙන්නේ": 2858,
      "ල්ලා.": 2859,
      "▁විවේ": 2860,
      "ri": 2861,
      "▁ශක්තිමත්": 2862,
      "▁ම්": 2863,
      "▁බන්": 2864,
      "▁කලේ?": 2865,
      "▁හදන්නෙ": 2866,
      "කරණය": 2867,
      "▁පාස": 2868,
      "▁පැහැර": 2869,
      "▁ප්‍රා": 2870,
      "▁එම": 2871,
      "▁එහේ": 2872,
      "දිලා": 2873,
      "▁එයත්": 2874,
      "▁ජේන්": 2875,
      "▁දරුණු": 2876,
      "▁හේයි": 2877,
      "කාරිය": 2878,
      "▁ගැට": 2879,
      "ඔබ": 2880,
      "ලයට": 2881,
      "වේශ": 2882,
      "▁භාවිත": 2883,
      "‍ද": 2884,
      "▁කසාද": 2885,
      "සයි": 2886,
      "▁මොනවත්": 2887,
      "නෑ": 2888,
      "▁ජූ": 2889,
      "▁වගේ,": 2890,
      "▁ටො": 2891,
      "▁මධ්‍ය": 2892,
      "න්නම්": 2893,
      "▁තියලා": 2894,
      "▁එකෙක්": 2895,
      "ොත්...": 2896,
      "ුවම": 2897,
      "▁පුත": 2898,
      "පනය": 2899,
      "▁උන්ට": 2900,
      "කෘ": 2901,
      "▁කරනවද": 2902,
      "▁කරමින්": 2903,
      "කට.": 2904,
      "eather": 2905,
      "▁සහිත": 2906,
      "▁මට්": 2907,
      "▁නේ.": 2908,
      "යන": 2909,
      "▁ආත්ම": 2910,
      "▁හැදුව": 2911,
      "වෙයි": 2912,
      "▁පැත්තේ": 2913,
      "▁සතුටින්": 2914,
      "▁බෙහෙ": 2915,
      "▁අඩි": 2916,
      "▁අගය": 2917,
      "යා?": 2918,
      "▁තර්ජ": 2919,
      "▁නැ,": 2920,
      "▁th": 2921,
      "▁පිරිසි": 2922,
      "ං,": 2923,
      "▁පුපුර": 2924,
      "▁දුක්": 2925,
      "කයන්": 2926,
      "▁කරාවි": 2927,
      "ාව්": 2928,
      "▁වැඩකර": 2929,
      "cH": 2930,
      "ෝ!": 2931,
      "▁අතා": 2932,
      "▁දම": 2933,
      "ස්ව": 2934,
      "▁‍එ": 2935,
      "හන": 2936,
      "▁උනේ?": 2937,
      "පෘ": 2938,
      "▁පුළුව": 2939,
      "▁හොදින්ද?": 2940,
      "▁ද්‍ර": 2941,
      "රිලා": 2942,
      "▁මෙතැන": 2943,
      "▁කියන්නේ,": 2944,
      "යෝ.": 2945,
      "වන්නේ": 2946,
      "▁කරන්නද": 2947,
      "▁කිව්වා.": 2948,
      "▁පන්": 2949,
      "▁වැටි": 2950,
      "▁චිත්‍රප": 2951,
      "සය": 2952,
      "▁තැන්": 2953,
      "▁එකයි": 2954,
      "▁කුම": 2955,
      "▁පොලිසිය": 2956,
      "▁කරලා.": 2957,
      "▁මාර්ග": 2958,
      "▁ගනු": 2959,
      "ම්ස්": 2960,
      "▁කිවු": 2961,
      "▁දුක": 2962,
      "ේම": 2963,
      "දුරු": 2964,
      "▁ස්ව": 2965,
      "▁ඔයාලගෙ": 2966,
      "▁උතුමා": 2967,
      "▁නිව්": 2968,
      "▁දැක්කද?": 2969,
      "▁බුද්ධි": 2970,
      "තට": 2971,
      "ළුවක්": 2972,
      "▁අහුව": 2973,
      "කරුව": 2974,
      "▁ස්වා": 2975,
      "▁වචන": 2976,
      "▁අතාරි": 2977,
      "▁අං": 2978,
      "▁සාදර": 2979,
      "චාර්": 2980,
      "▁බැලු": 2981,
      "▁දුන්නා.": 2982,
      "▁නොහැකි": 2983,
      "▁හය": 2984,
      "▁තියනෙ": 2985,
      "▁19": 2986,
      "▁ආදරෙයි.": 2987,
      "▁නිර්මාණය": 2988,
      "වති": 2989,
      "කාරී": 2990,
      "▁පහලට": 2991,
      "▁ආදරෙයි": 2992,
      "ණිය": 2993,
      "▁පෞ": 2994,
      "▁දවසක": 2995,
      "▁රෝහ": 2996,
      "▁වගයක්": 2997,
      "▁එකඟ": 2998,
      "▁උඹව": 2999,
      "▁ඇයගේ": 3000,
      "▁නගරය": 3001,
      "▁බහි": 3002,
      "▁කියන්න,": 3003,
      "▁තෙ": 3004,
      "▁දෙන්නෙක්": 3005,
      "පුරු": 3006,
      "▁ගන්න,": 3007,
      "▁එන්නම්": 3008,
      "කඩ": 3009,
      "නො": 3010,
      "ෙන්,": 3011,
      "▁හොඳින්.": 3012,
      "▁ලගට": 3013,
      "▁උපා": 3014,
      "▁තරඟ": 3015,
      "▁ඇලෙක්": 3016,
      "ම්ම": 3017,
      "ෙන්න.": 3018,
      "▁ලබ": 3019,
      "▁මේව": 3020,
      "දාන": 3021,
      "▁ආරක්ෂාව": 3022,
      "▁ගොඩනැගි": 3023,
      "ලයේ": 3024,
      "න්සි": 3025,
      "▁අධ": 3026,
      "▁ගණු": 3027,
      "රීම්": 3028,
      "▁බිරිද": 3029,
      "බඳ": 3030,
      "ව්වා.": 3031,
      "▁ඕනද?": 3032,
      "▁දන්නවද,": 3033,
      "▁@": 3034,
      "▁නායක": 3035,
      "▁පුරුදු": 3036,
      "▁කඩා": 3037,
      "▁ඔලුව": 3038,
      "▁අනික්": 3039,
      "කෙන": 3040,
      "ඩියක්": 3041,
      "▁එහි": 3042,
      "▁හඳු": 3043,
      "▁පුරා": 3044,
      "▁කාටද": 3045,
      "▁අන්තිමට": 3046,
      "▁ලෝකෙ": 3047,
      "▁[": 3048,
      "▁දකුණු": 3049,
      "▁ඇඟ": 3050,
      "▁මුලු": 3051,
      "▁ප්‍රශ්ණයක්": 3052,
      "▁ගියොත්": 3053,
      "▁ස්ටී": 3054,
      "▁කරයි.": 3055,
      "▁කරගන්න.": 3056,
      "▁නිශ්": 3057,
      "▁සිර": 3058,
      "▁එයි": 3059,
      "▁හිස්": 3060,
      "▁ලැබුන": 3061,
      "දි.": 3062,
      "▁කෙනා.": 3063,
      "ate": 3064,
      "▁ඉතිරි": 3065,
      "▁ලැයිස්තුව": 3066,
      "▁පුළුවන්,": 3067,
      "පිටින්": 3068,
      "▁මගුලක්ද": 3069,
      "▁ඇත්තටම,": 3070,
      "▁පළමු": 3071,
      "▁රස්සාව": 3072,
      "ලැ": 3073,
      "නම්.": 3074,
      "▁ක්‍රී": 3075,
      "ත්ති": 3076,
      "▁අවංක": 3077,
      "▁වයස": 3078,
      "▁නැහැ!": 3079,
      "ංගු": 3080,
      "▁පලවෙනි": 3081,
      "▁වනේන": 3082,
      "ක්ට": 3083,
      "▁ඇත්තම": 3084,
      "▁ගැහැ": 3085,
      "▁ඉවරයක්": 3086,
      "▁අන්ත": 3087,
      "ඩ්,": 3088,
      "▁එතනට": 3089,
      "▁තරුණ": 3090,
      "ෙ,": 3091,
      "▁පල්ල": 3092,
      "▁ජනා": 3093,
      "ංගුවට": 3094,
      "▁තුනක්": 3095,
      "▁සේව": 3096,
      "▁ගෙනියන්න": 3097,
      "▁නිතරම": 3098,
      "▁ඔයාටත්": 3099,
      "▁මේකේ": 3100,
      "▁මුදල්": 3101,
      "▁එල්ල": 3102,
      "▁බූ": 3103,
      "යෝජ": 3104,
      "▁වටිනා": 3105,
      "▁මිනිසුන්": 3106,
      "▁100": 3107,
      "බර": 3108,
      "රික": 3109,
      "▁කරන්නද?": 3110,
      "වේද": 3111,
      "▁මැරුව": 3112,
      "▁බොන්න": 3113,
      "▁අති": 3114,
      "▁ගම": 3115,
      "▁එකි": 3116,
      "නික": 3117,
      "▁නිවස": 3118,
      "▁තමා.": 3119,
      "▁පුර": 3120,
      "▁පොත": 3121,
      "os": 3122,
      "▁ගෙවන්න": 3123,
      "▁කාන්තාව": 3124,
      "▁මුලින්": 3125,
      "▁තිබුනා.": 3126,
      "▁යන්ත්‍ර": 3127,
      "සැ": 3128,
      "▁අමාර": 3129,
      "▁යන්නෙ.": 3130,
      "▁පවුලේ": 3131,
      "▁ඉන්දි": 3132,
      "තුම්": 3133,
      "▁Can": 3134,
      "▁පේන්නෙ": 3135,
      "▁කොටසක්": 3136,
      "▁තමන්ගේ": 3137,
      "තම": 3138,
      "▁කියලා..": 3139,
      "▁නිදහ": 3140,
      "▁ගෞරව": 3141,
      "තැ": 3142,
      "හිය": 3143,
      "▁තිබ්බේ": 3144,
      "▁කරදරයක්": 3145,
      "▁අභි": 3146,
      "ණේ": 3147,
      "ය,": 3148,
      "දීම": 3149,
      "නෙ,": 3150,
      "▁ලැබෙන": 3151,
      "es.": 3152,
      "ada": 3153,
      "▁පුළුවන්ද": 3154,
      "සුම": 3155,
      "▁තාත්තට": 3156,
      "▁පුද්ගල": 3157,
      "▁කාර්යා": 3158,
      "▁ඊලඟ": 3159,
      "▁වෙනත්": 3160,
      "කරුවන්": 3161,
      "ග්ග": 3162,
      "▁ස්ථානය": 3163,
      "▁මේ?": 3164,
      "▁ඕනේ,": 3165,
      "▁තුවක්කු": 3166,
      "වෙනවා": 3167,
      "▁බිය": 3168,
      "▁දැනට": 3169,
      "▁කොටස්": 3170,
      "ජු": 3171,
      "▁යන්නෙ?": 3172,
      "▁සෑහෙන්න": 3173,
      "ඩෝ": 3174,
      "▁නැ.": 3175,
      "▁ඕහ්,": 3176,
      "▁වෙනකම්": 3177,
      "ගත්තේ": 3178,
      "▁එහෙනම්,": 3179,
      "▁කරුණාකරලා.": 3180,
      "▁ව්‍යාපෘ": 3181,
      "▁‍අ‍": 3182,
      "ර්ක්": 3183,
      "▁ඒකි": 3184,
      "දින": 3185,
      "▁සෑම": 3186,
      "▁සම්පූර්ණයෙන්ම": 3187,
      "▁සාදරයෙන්": 3188,
      "පෙ": 3189,
      "▁අට": 3190,
      "▁එක,": 3191,
      "වුනා.": 3192,
      "ම්බර": 3193,
      "▁කාර්ය": 3194,
      "▁ඊළඟ": 3195,
      "▁{": 3196,
      "ර්ණ": 3197,
      "▁බෑග්": 3198,
      "▁කෙනෙක්ව": 3199,
      "▁ඇතුලෙ": 3200,
      "▁me": 3201,
      "▁ඉප": 3202,
      "ලිස": 3203,
      "▁ටයි": 3204,
      "▁හදිසි": 3205,
      "ey": 3206,
      "න්ස්": 3207,
      "▁යානය": 3208,
      "▁පෙළ": 3209,
      "චි": 3210,
      "▁නිදාගන්න": 3211,
      "▁උඹලා": 3212,
      "▁පැත්තෙන්": 3213,
      "පල": 3214,
      "යිල්": 3215,
      "▁කියලා!": 3216,
      "▁බැලුව": 3217,
      "▁එහෙමයි": 3218,
      "omment": 3219,
      "▁ගිහිල්ලා": 3220,
      "▁තහවුරු": 3221,
      "▁ම්ම්": 3222,
      "▁විකල්": 3223,
      "▁අයිය": 3224,
      "ත්වරු": 3225,
      "▁දවසේ": 3226,
      "▁නිලධාර": 3227,
      "කෙ": 3228,
      "▁සප": 3229,
      "▁හදලා": 3230,
      "▁ගැහු": 3231,
      "▁මොනාහරි": 3232,
      "ඳින්න": 3233,
      "▁වාහනේ": 3234,
      "▁ගණුදෙන": 3235,
      "යිද?": 3236,
      "▁බබ": 3237,
      "▁අවධානය": 3238,
      "▁අතට": 3239,
      "▁වශයෙන්": 3240,
      "කමක්": 3241,
      "ුවෙලා": 3242,
      "ටම.": 3243,
      "▁‍ම": 3244,
      "▁ඔහෙ": 3245,
      "▁අඟ": 3246,
      "▁ගැනීම": 3247,
      "▁ඉදිරිපත්": 3248,
      "ain": 3249,
      "සන්න": 3250,
      "▁ණය": 3251,
      "▁හැමවෙ": 3252,
      "▁එන්න!": 3253,
      "▁කිව්වේ?": 3254,
      "▁ෂි": 3255,
      "▁ලී": 3256,
      "▁හාද": 3257,
      "▁දත්ත": 3258,
      "▁උන්ව": 3259,
      "▁හිනාව": 3260,
      "▁මිනිත්තු": 3261,
      "▁දුන්නේ": 3262,
      "▁අම්මට": 3263,
      "▁යාළුවා": 3264,
      "▁ලං": 3265,
      "කූ": 3266,
      "කට්": 3267,
      "▁කරන්": 3268,
      "▁උණු": 3269,
      "▁දෙය": 3270,
      "▁සුදුසු": 3271,
      "▁it": 3272,
      "▁ඔර": 3273,
      "▁එකා": 3274,
      "▁වෙනකොට": 3275,
      "▁කියල,": 3276,
      "දී.": 3277,
      "▁ක්‍රියාව": 3278,
      "▁හේතුවක්": 3279,
      "▁ඇඳුම්": 3280,
      "▁පහල": 3281,
      "▁විහිළු": 3282,
      "▁කතාවක්": 3283,
      "▁ඔයා?": 3284,
      "▁වෙළ": 3285,
      "▁හරි?": 3286,
      "▁ප්‍රහාර": 3287,
      "▁කියන්නම්": 3288,
      "▁ඒත්...": 3289,
      "▁ඉක්මණ": 3290,
      "▁හේයි!": 3291,
      "▁හිතන්නේ?": 3292,
      "▁ඔයාලව": 3293,
      "▁weather": 3294,
      "▁ව්‍යාපාර": 3295,
      "නල්": 3296,
      "▁කන්": 3297,
      "▁සතිය": 3298,
      "▁එකතුව": 3299,
      "▁එක්කම": 3300,
      "ir": 3301,
      "විලි": 3302,
      "▁ලෝකේ": 3303,
      "▁ප්ල": 3304,
      "කයා": 3305,
      "▁කළු": 3306,
      "▁වෘ": 3307,
      "▁යතුර": 3308,
      "▁කොල්ලා": 3309,
      "▁ගනුදෙන": 3310,
      "▁වාව්": 3311,
      "ියු": 3312,
      "▁වින්": 3313,
      "ුවත්": 3314,
      "▁සෑහෙන": 3315,
      "▁අරින්න": 3316,
      "▁තියේ": 3317,
      "▁උපරි": 3318,
      "▁name": 3319,
      "▁ඊටපස්ස": 3320,
      "▁දුර්වල": 3321,
      "Comment": 3322,
      "▁අකු": 3323,
      "▁සහා": 3324,
      "▁ඒකත්": 3325,
      "▁ආය": 3326,
      "▁කියන්නෙ?": 3327,
      "▁කල්ප": 3328,
      "▁ක්ලාක්": 3329,
      "පස": 3330,
      "බී": 3331,
      "▁හිරේ": 3332,
      "ව,": 3333,
      "▁මහත්වරු": 3334,
      "▁වුණේ": 3335,
      "▁බේරු": 3336,
      "ag": 3337,
      "▁කෙනෙක්ට": 3338,
      "හ්?": 3339,
      "▁එකිනෙ": 3340,
      "ශා": 3341,
      "හ්.": 3342,
      "▁රෑට": 3343,
      "▁එහාට": 3344,
      "▁යොමු": 3345,
      "▁ජරා": 3346,
      "ලු.": 3347,
      "▁එහෙනම්.": 3348,
      ",000": 3349,
      "▁සින්": 3350,
      "▁වෙන්නේ.": 3351,
      "▁දෙන්නම්.": 3352,
      "▁සුපිරි": 3353,
      "▁උබේ": 3354,
      "චාර්ය": 3355,
      "ල්ට්": 3356,
      "▁උවම": 3357,
      "▁දෙවියනේ!": 3358,
      "▁ගණන්": 3359,
      "▁දූපත": 3360,
      "▁කිව්වොත්": 3361,
      "▁වර්ග": 3362,
      "▁ජනාධිපති": 3363,
      "▁එකක": 3364,
      "ත්‍රා": 3365,
      "▁හින්දා": 3366,
      "▁චී": 3367,
      "නීප": 3368,
      "▁තමුසෙට": 3369,
      "▁මෙන": 3370,
      "▁ආවේ?": 3371,
      "▁සැලැස්": 3372,
      "▁බ්‍රි": 3373,
      "▁පාඩ": 3374,
      "ast": 3375,
      "▁තමයි,": 3376,
      "▁වුනොත්": 3377,
      "▁මහත්මිය": 3378,
      "▁ලූ": 3379,
      "රුම": 3380,
      "▁අතේ": 3381,
      "▁200": 3382,
      "▁විශි": 3383,
      "▁නමක්": 3384,
      "ව්වේ": 3385,
      "▁\"අ": 3386,
      "▁සර්?": 3387,
      "▁නිසා,": 3388,
      "▁ගබ": 3389,
      "▁ඉර": 3390,
      "▁අරමු": 3391,
      "▁වෙනවා!": 3392,
      "ඩින්": 3393,
      "▁ත්‍ර": 3394,
      "▁නේ?": 3395,
      "ලි.": 3396,
      "▁තැනක": 3397,
      "▁අයියා": 3398,
      "▁පේන්නේ": 3399,
      "ද්ගලික": 3400,
      "ඩී": 3401,
      "▁ගාවට": 3402,
      "▁50": 3403,
      "▁මට්ටම": 3404,
      "ම...": 3405,
      "ෙයි.": 3406,
      "▁හැක": 3407,
      "▁පළවෙනි": 3408,
      "ජී": 3409,
      "ල,": 3410,
      "සන්.": 3411,
      "▁කම්": 3412,
      "▁ඇති,": 3413,
      "▁ලැබුනා": 3414,
      "භාව": 3415,
      "▁හයිය": 3416,
      "▁ආපසු": 3417,
      "පන්!": 3418,
      "▁පිරිසිදු": 3419,
      "▁Canada": 3420,
      "▁මල්": 3421,
      "▁ආ?": 3422,
      "සිද්ධ": 3423,
      "▁දෙන්න,": 3424,
      "▁ඇතුළ": 3425,
      "▁තේරෙනවා": 3426,
      "න්ගෙ": 3427,
      "න්තර": 3428,
      "▁මල": 3429,
      "▁ගනී": 3430,
      "▁දෙන්නෙ": 3431,
      "▁ටෝ": 3432,
      "තෙන්": 3433,
      "ියෙ": 3434,
      "▁ලමයි": 3435,
      "්‍රී": 3436,
      "▁දන්නෑ": 3437,
      "▁ලැජ්": 3438,
      "▁%s": 3439,
      "▁මායා": 3440,
      "▁ගැහ": 3441,
      "▁is": 3442,
      "▁ගල්": 3443,
      "▁ජෝන්": 3444,
      "▁අහලා": 3445,
      "▁පෙම්ව": 3446,
      "▁පෙන්නන්න": 3447,
      "▁අනිවාර්ය": 3448,
      "▁වසර": 3449,
      "▁ජු": 3450,
      "▁පිටු": 3451,
      "▁ස්ප": 3452,
      "▁හම්බවෙන්න": 3453,
      "▁මම.": 3454,
      "▁දෙනා": 3455,
      "▁යනවා!": 3456,
      "▁මෙයාට": 3457,
      "▁කව්ද": 3458,
      "▁ගුරු": 3459,
      "යක්,": 3460,
      "▁පොර": 3461,
      "▁යතුරු": 3462,
      "▁හරි!": 3463,
      "▁ඈත්": 3464,
      "▁ඛ": 3465,
      "▁කරන්න?": 3466,
      "න්දේ": 3467,
      "▁පුහුණු": 3468,
      "id": 3469,
      "▁හොදටම": 3470,
      "දුනා": 3471,
      "▁කුමක්": 3472,
      "▁ෙහා": 3473,
      "ඩේ": 3474,
      "ාවෙන්": 3475,
      "▁ආඩ": 3476,
      "▁ළමය": 3477,
      "ලෑ": 3478,
      "▁-අ": 3479,
      "▁දැක්කේ": 3480,
      "▁Mr.": 3481,
      "▁හැමවෙලේම": 3482,
      "▁එව": 3483,
      "▁පවති": 3484,
      "▁ගැන?": 3485,
      "▁සහෝදරයා": 3486,
      "▁ශක්තිය": 3487,
      "▁උතුමාණ": 3488,
      "ජන්": 3489,
      "ලද": 3490,
      "▁විකුණ": 3491,
      "▁පැර": 3492,
      "▁උනොත්": 3493,
      "▁වැඩියි": 3494,
      "▁යමු,": 3495,
      "ුම්": 3496,
      "▁ඡ": 3497,
      "▁ආච්චි": 3498,
      "▁තියනවද?": 3499,
      "▁ආරංච": 3500,
      "▁පැත්තකට": 3501,
      "▁දෙවියනේ": 3502,
      "▁තිබ්බා.": 3503,
      "▁යාලුවා": 3504,
      "▁ඇප": 3505,
      "කිරීම": 3506,
      "▁දැක්කද": 3507,
      "▁වැරැද්දක්": 3508,
      "‍ලා": 3509,
      "▁ඔවු": 3510,
      "▁ඒත්,": 3511,
      "▁පැමිණි": 3512,
      "▁එන්": 3513,
      "▁පෘ": 3514,
      "▁මැද": 3515,
      "▁අමුත්ත": 3516,
      "▁ඔයාට.": 3517,
      "▁ගිවි": 3518,
      "▁හදන": 3519,
      "▁හායි,": 3520,
      "▁පෞද්ගලික": 3521,
      "em": 3522,
      "ගනි": 3523,
      "රො": 3524,
      "▁r": 3525,
      "රිස්": 3526,
      "▁වෙනි": 3527,
      "▁ඇත්තෙන්ම": 3528,
      "▁ඕනේ?": 3529,
      "▁කෙලින්ම": 3530,
      "▁තැනකට": 3531,
      "▁ඕනෙද?": 3532,
      "▁නැත්නම්,": 3533,
      "▁විස්වාස": 3534,
      "▁දකුණ": 3535,
      "▁යෝ": 3536,
      "▁තියන්න.": 3537,
      "නය.": 3538,
      "මික": 3539,
      "▁ඔක්කම": 3540,
      "▁එනකම්": 3541,
      "▁පීටර්": 3542,
      "▁පද්ධතිය": 3543,
      "st": 3544,
      "▁ඵ": 3545,
      "▁දාගෙන": 3546,
      "රණය": 3547,
      "දායක": 3548,
      "කාරයෝ": 3549,
      "▁ඔහේට": 3550,
      "▁ලොක්කා": 3551,
      "od": 3552,
      "▁Y": 3553,
      "..\"": 3554,
      "▁නැහැ..": 3555,
      "▁ලේසි": 3556,
      "වීමක්": 3557,
      "▁ඝා": 3558,
      "▁අයව": 3559,
      "▁Ch": 3560,
      "▁ඉන්නවා,": 3561,
      "▁සලකුණු": 3562,
      "▁සම්පු": 3563,
      "▁ප්‍රේ": 3564,
      "▁දුපත": 3565,
      "ණික": 3566,
      "um": 3567,
      "ගෙම": 3568,
      "▁...ඔයා": 3569,
      "▁ස්තූති": 3570,
      "▁දැම්ම": 3571,
      "▁ඉන්නෙ?": 3572,
      "▁දැනන්": 3573,
      "▁කෙල": 3574,
      "සත්": 3575,
      "න්දර": 3576,
      "▁මොකටද?": 3577,
      "▁දැක්කා.": 3578,
      "ඔහු": 3579,
      "බේ": 3580,
      "ෝෂ": 3581,
      "▁හයි": 3582,
      "▁විම": 3583,
      "▁ඉන්නවද": 3584,
      "▁දෙන්නම්": 3585,
      "▁ඇත්තට": 3586,
      "▁අහකට": 3587,
      "කින්.": 3588,
      "▁හෝට": 3589,
      "▁උසස්": 3590,
      "අඩ": 3591,
      "▁ලයි": 3592,
      "▁භාර": 3593,
      "බ්ද": 3594,
      "▁තත්පර": 3595,
      "▁ඕන?": 3596,
      "▁ඩෙ": 3597,
      "කානු": 3598,
      "ew": 3599,
      "ගනී": 3600,
      "▁/": 3601,
      "▁එහෙමයි.": 3602,
      "▁වෙලාවක": 3603,
      "▁නිවැරදි": 3604,
      "ලම": 3605,
      "ව්!": 3606,
      "▁ගේන්න": 3607,
      "▁නිසැක": 3608,
      "▁දෙන්න!": 3609,
      "▁දානවා.": 3610,
      "▁වටේ": 3611,
      "ගණ": 3612,
      "▁උපකරණ": 3613,
      "▁ඇහුන": 3614,
      "▁මගුල": 3615,
      "pp": 3616,
      "▁ආහාර": 3617,
      "කාරයා": 3618,
      "ent": 3619,
      "රුවා": 3620,
      "▁චෝ": 3621,
      "▁දඩය": 3622,
      "▁තට්ට": 3623,
      "▁වැඩකට": 3624,
      "යයි": 3625,
      "▁ලින්": 3626,
      "▁හොයාගත්තා": 3627,
      "▁ඌට": 3628,
      "යව": 3629,
      "▁ඒකා": 3630,
      "ප්ට": 3631,
      "▁ලස්සනයි.": 3632,
      "දම්": 3633,
      "▁වාර": 3634,
      "▁කියනවා.": 3635,
      "▁මෙක": 3636,
      "ද්දක්": 3637,
      "නෙ?": 3638,
      "ction": 3639,
      "▁උදෑසන": 3640,
      "▁දර": 3641,
      "▁ගමන": 3642,
      "▁වෙනුවට": 3643,
      "කුට": 3644,
      "▁වල.": 3645,
      "▁ෆෙ": 3646,
      "▁පේන්න": 3647,
      "▁හමුදා": 3648,
      "ගොල්ලෝ": 3649,
      "▁වැඩියි.": 3650,
      "රාද": 3651,
      "▁ෆේ": 3652,
      "▁ගිහින්.": 3653,
      "▁දෙවියනේ.": 3654,
      "▁ෙකා": 3655,
      "▁මාර්ගය": 3656,
      "▁යාළුවා.": 3657,
      "▁ඉස්සරහට": 3658,
      "▁සාර්ථක": 3659,
      "▁අයිස්": 3660,
      "▁හමුවෙන්න": 3661,
      "▁ලුහු": 3662,
      "▁අතුරුදහන්": 3663,
      "▁කඳු": 3664,
      "▁ගෙන්න": 3665,
      "ල්ඩ්": 3666,
      "ඩර්": 3667,
      "▁ටි": 3668,
      "▁කසා": 3669,
      "▁අතින්": 3670,
      "▁බබා": 3671,
      "▁කියවන්න": 3672,
      "▁ඔබලා": 3673,
      "▁පියවර": 3674,
      "ඩාව": 3675,
      "‍ගේ": 3676,
      "▁ඔත්තු": 3677,
      "ල්ෆ්": 3678,
      "▁රථ": 3679,
      "▁සමාන": 3680,
      "පද": 3681,
      "▁අස්": 3682,
      "▁ප්‍රදේශ": 3683,
      "▁ඩෝ": 3684,
      "▁ඔහ්.": 3685,
      "▁con": 3686,
      "▁ඇහුම්": 3687,
      "▁කණගාටුයි.": 3688,
      "ග්‍රහ": 3689,
      "▁බෙහෙත්": 3690,
      "▁අදා": 3691,
      "▁හායි.": 3692,
      "▁අන්තිමේ": 3693,
      "▁පරිස්සම්": 3694,
      "▁කිහිපයක්": 3695,
      "▁වාසනාවන්ත": 3696,
      "සල": 3697,
      "ල්‍ය": 3698,
      "▁ඕන,": 3699,
      "▁තාක්ෂ": 3700,
      "▁පොලීසිය": 3701,
      "▁සියළුම": 3702,
      "ථි": 3703,
      "▁තී": 3704,
      "▁එකට.": 3705,
      "යෙි": 3706,
      "▁සම්බන්ද": 3707,
      "▁පණපිටින්": 3708,
      "ලත්": 3709,
      "▁කුඩා": 3710,
      "▁ඇවිද": 3711,
      "▁යොදා": 3712,
      "▁ළමයෙක්": 3713,
      "BI": 3714,
      "ak": 3715,
      "▁උණ්ඩ": 3716,
      "▁බැඳ": 3717,
      "ist": 3718,
      "if": 3719,
      "oc": 3720,
      "▁බට": 3721,
      "▁හිතලා": 3722,
      "▁තාත්තේ,": 3723,
      "▁වරෙන්": 3724,
      "▁සැලැස්ම": 3725,
      "▁ඔච්චර": 3726,
      "▁අශ්": 3727,
      "▁සමු": 3728,
      "▁ඇට": 3729,
      "ත්තිය": 3730,
      "කරන": 3731,
      "▁බිඳ": 3732,
      "▁කෝපි": 3733,
      "▁පෙට්ටිය": 3734,
      "▁යනවා,": 3735,
      "▁ස්තුති": 3736,
      "▁බයි": 3737,
      "▁එක්කන්": 3738,
      "ර්ට්": 3739,
      "▁හෙයි,": 3740,
      "▁ලෝකයේ": 3741,
      "▁ඊලග": 3742,
      "කන්න": 3743,
      "ගම": 3744,
      "▁එක?": 3745,
      "▁ඉතිං,": 3746,
      "▁V": 3747,
      "▁පටි": 3748,
      "▁පසුව": 3749,
      "▁කියල∙": 3750,
      "ාවික": 3751,
      "▁වැඩිපුර": 3752,
      "▁ධාව": 3753,
      "▁හින්ද": 3754,
      "▁ඇල්": 3755,
      "▁එකපාර": 3756,
      "▁ඕනද": 3757,
      "ොඩ්": 3758,
      "▁ලැබුණ": 3759,
      "▁විනාඩියක්": 3760,
      "▁ස්තූතියි,": 3761,
      "▁පුද්ගලික": 3762,
      "▁ඒකනම්": 3763,
      "විද": 3764,
      "▁නැතිනම්": 3765,
      "▁මොහොත": 3766,
      "▁ගනි": 3767,
      "ම්?": 3768,
      "▁බස්": 3769,
      "▁වෙනසක්": 3770,
      "▁දැන්.": 3771,
      "කි.": 3772,
      "▁සුළු": 3773,
      "න.": 3774,
      "▁ඔල": 3775,
      "▁බැංක": 3776,
      "▁අවුල": 3777,
      "▁සතුටක්.": 3778,
      "ig": 3779,
      "ll": 3780,
      "කැ": 3781,
      "▁කම්ප": 3782,
      "▁චැ": 3783,
      "▁වාද": 3784,
      "▁පරීක්ෂණ": 3785,
      "▁ආවේ.": 3786,
      "▁එක්කෙනෙක්": 3787,
      "ස්තු": 3788,
      "▁නිවා": 3789,
      "වත්.": 3790,
      "▁ඇත්ත.": 3791,
      "▁ගෑණු": 3792,
      "▁එක්කගෙන": 3793,
      "▁විහිළුවක්": 3794,
      "ලි,": 3795,
      "▁ඩ්‍ර": 3796,
      "▁පස්සේ,": 3797,
      "▁නවත්තන්න.": 3798,
      "ill": 3799,
      "▁on": 3800,
      "▁මෘ": 3801,
      "▁කරුනා": 3802,
      "▁නොව": 3803,
      "▁අත්අඩ": 3804,
      "▁අහ්,": 3805,
      "▁ආවරණය": 3806,
      "▁කම": 3807,
      "▁නැහැන": 3808,
      "▁බෑ!": 3809,
      "▁අතීත": 3810,
      "▁අල්ලගෙන": 3811,
      "▁රජු": 3812,
      "▁වොට්": 3813,
      "ලියට": 3814,
      "▁කරන්න...": 3815,
      "▁හිතන්": 3816,
      "▁දැනෙන": 3817,
      "▁මොකක්හරි": 3818,
      "▁මිනිහව": 3819,
      "▁වේ.": 3820,
      "▁ප්‍රි": 3821,
      "▁කියන්නේ.": 3822,
      "▁වේලා": 3823,
      "දෙනා": 3824,
      "▁කිහිප": 3825,
      "▁රූ": 3826,
      "▁ගැන,": 3827,
      "▁එයාලගෙ": 3828,
      "▁පිළිගන්න": 3829,
      "▁නොහැක": 3830,
      "▁භාවිතා": 3831,
      "ටයි": 3832,
      "▁සක්‍රීය": 3833,
      "රි.": 3834,
      "▁ලක්ෂ": 3835,
      "op": 3836,
      "▁-මට": 3837,
      "▁යහ": 3838,
      "▁හරිද": 3839,
      "▁මිස්": 3840,
      "සියා": 3841,
      "▁හායි": 3842,
      "▁ගෙනා": 3843,
      "▁ගාණ": 3844,
      "ශ්‍ර": 3845,
      "ෙය": 3846,
      "ෙලා": 3847,
      "▁කරන්නත්": 3848,
      "වෙලා.": 3849,
      "වෙන්නේ": 3850,
      "▁නැවතත්": 3851,
      "▁දැම්මා.": 3852,
      "▁හැදුවේ": 3853,
      "නන්": 3854,
      "මත": 3855,
      "ෂණය": 3856,
      "▁අර්": 3857,
      "▁දැනෙනවා": 3858,
      "▁විශ්වාසය": 3859,
      "▁යුතුයි": 3860,
      "▁සියලුම": 3861,
      "▁දෛ": 3862,
      "දි,": 3863,
      "වෙයි.": 3864,
      "තාවය": 3865,
      "▁දන්නේ?": 3866,
      "▁විහිලු": 3867,
      "▁ගෑනු": 3868,
      "▁වගක": 3869,
      "▁බේරා": 3870,
      "▁)": 3871,
      "▁නැවැ": 3872,
      "▁කලේ.": 3873,
      "▁පුලුව": 3874,
      "▁කරනවා!": 3875,
      "▁සංසුන්": 3876,
      "මු,": 3877,
      "▁මිත්‍ර": 3878,
      "▁බැට": 3879,
      "▁නියෝ": 3880,
      "▁නිසයි": 3881,
      "▁රිද": 3882,
      "▁කල්පනා": 3883,
      "▁අක්ක": 3884,
      "▁ඔයාම": 3885,
      "▁තුළ": 3886,
      "▁තුන්": 3887,
      "ද්‍රව්‍ය": 3888,
      "▁දුම්රිය": 3889,
      "▁දෙම": 3890,
      "▁ආඩම්බර": 3891,
      "▁දනේන": 3892,
      "▁උත්ත": 3893,
      "නියා": 3894,
      "විල්": 3895,
      "▁හරි...": 3896,
      "▁කලින්,": 3897,
      "නයක්.": 3898,
      "ෙට": 3899,
      "▁කුණු": 3900,
      "▁හවු": 3901,
      "ම්...": 3902,
      "▁යෝජ": 3903,
      "▁ලකේ": 3904,
      "▁මුල්": 3905,
      "▁ඊයෙ": 3906,
      "ess": 3907,
      "ia.": 3908,
      "ජර්": 3909,
      "▁බැල": 3910,
      "▁නම්...": 3911,
      "▁පේනවා": 3912,
      "▁පරිවර්": 3913,
      "වෙනවා.": 3914,
      "▁ඇහුව": 3915,
      "▁{\\": 3916,
      "තියට": 3917,
      "▁ග්‍රේ": 3918,
      "▁යයි": 3919,
      "▁ඕනෑම": 3920,
      "▁පිපි": 3921,
      "නයෙන්": 3922,
      "▁පැති": 3923,
      "▁කැප": 3924,
      "▁කීයක්": 3925,
      "▁කණ්ඩායමක්": 3926,
      "▁පණිවිඩය": 3927,
      "▁අංකය": 3928,
      "නස්": 3929,
      "▁ආලෝ": 3930,
      "▁සිරු": 3931,
      "▁තිබෙනවා": 3932,
      "▁තාත්තේ.": 3933,
      "▁හදපු": 3934,
      "ණ්ඩු": 3935,
      "▁කාලෙකට": 3936,
      "▁ජරාව": 3937,
      "▁නිළ": 3938,
      "යට.": 3939,
      "නර්": 3940,
      "රූ": 3941,
      "වහ": 3942,
      "▁වලට.": 3943,
      "▁වෙනවා∙": 3944,
      "මින්.": 3945,
      "▁කිරීමේ": 3946,
      "▁රාජකාරිය": 3947,
      "▁ස්තුතියි,": 3948,
      "▁FBI": 3949,
      "▁ක්‍රමයක්": 3950,
      "▁ඇඟි": 3951,
      "▁ඒක...": 3952,
      "▁ඉන්නව.": 3953,
      "▁වාහන": 3954,
      "\".": 3955,
      "රීර": 3956,
      "▁හර්": 3957,
      "▁සෙන": 3958,
      "▁නිල්": 3959,
      "දී,": 3960,
      "▁පුතා.": 3961,
      "▁ඇමරිකාව": 3962,
      "▁ගැහැණු": 3963,
      "qu": 3964,
      "ඩා.": 3965,
      "ො.": 3966,
      "▁බං": 3967,
      "▁බර්": 3968,
      "ත්තුවක්": 3969,
      "▁අවස්": 3970,
      "▁දෙකකට": 3971,
      "▁නින්ද": 3972,
      "ෙනා": 3973,
      "▁දේම": 3974,
      "▁මතකද": 3975,
      "▁වේදනාව": 3976,
      "▁සන්න": 3977,
      "▁-ඇ": 3978,
      "▁ප්‍රකාශ": 3979,
      "▁ශු": 3980,
      "art": 3981,
      "ch": 3982,
      "සියේ": 3983,
      "▁මාළු": 3984,
      "▁සාද": 3985,
      "▁බඩගි": 3986,
      "nd": 3987,
      "▁බැල්ලි": 3988,
      "▁මාන": 3989,
      "නුත්": 3990,
      "▁ඉන්නේ,": 3991,
      "▁11": 3992,
      "▁හෙල": 3993,
      "▁නෙවයි": 3994,
      "▁සත්‍ය": 3995,
      "▁අපා": 3996,
      "▁රී": 3997,
      "ට්!": 3998,
      "▁නැහැ...": 3999,
      "▁ගන්න!": 4000,
      "▁කාමරය": 4001,
      "▁කිවුවා": 4002,
      "වන්ත": 4003,
      "මේන්": 4004,
      "▁පහත්": 4005,
      "▁ඉතිහා": 4006,
      "▁ගොඩනැගිල්ල": 4007,
      "▁හිමි": 4008,
      "▁තැන.": 4009,
      "පාද": 4010,
      "▁පහක්": 4011,
      "▁මහත්මයා": 4012,
      "dit": 4013,
      "▁ඩා": 4014,
      "▁අවි": 4015,
      "▁රයි": 4016,
      "▁සමාජ": 4017,
      "▁වීඩියෝ": 4018,
      "▁ඇහෙනවද?": 4019,
      "▁ත්‍රස්ත": 4020,
      "ුවා": 4021,
      "▁එවා": 4022,
      "▁නර": 4023,
      "තුන්": 4024,
      "▁මාමා": 4025,
      "▁යමු!": 4026,
      "ex": 4027,
      "දැ": 4028,
      "▁එයාගෙන්": 4029,
      "්‍‍": 4030,
      "▁හැරෙන්න": 4031,
      "▁දැං": 4032,
      "මෙට": 4033,
      "රලා": 4034,
      "ුන": 4035,
      "කින්න": 4036,
      "▁නොවේ": 4037,
      "▁පිළිබඳ": 4038,
      "▁0": 4039,
      "▁සිටින": 4040,
      "▁කවද්ද": 4041,
      "▁ගෞර": 4042,
      "▁කුරුල්ල": 4043,
      "▁-ඒක": 4044,
      "▁අත්සන්": 4045,
      "▁නීතිය": 4046,
      "ත්‍යා": 4047,
      "▁පරික්ෂා": 4048,
      "▁හැරී": 4049,
      "▁කොහොමත්": 4050,
      "▁තියාගන්න.": 4051,
      "ක්‍රම": 4052,
      "▁ට්‍රක්": 4053,
      "ගන්න,": 4054,
      "▁මිනිස්": 4055,
      "▁හදන්නේ.": 4056,
      "▁පරිගණ": 4057,
      "▁පූජ": 4058,
      "▁මෙහෙයුම": 4059,
      "දර්ශ": 4060,
      "වයං": 4061,
      "▁සතුටක්": 4062,
      "▁පින්තූර": 4063,
      "▁—": 4064,
      "▁කඳ": 4065,
      "▁තල්ලු": 4066,
      "▁අපහ": 4067,
      "රුම්": 4068,
      "▁තේරුණා": 4069,
      "▁දෙවියන්ට": 4070,
      "▁කිව්වේ,": 4071,
      "▁බෙල්ල": 4072,
      "sl": 4073,
      "කයි": 4074,
      "ෙන්ට්": 4075,
      "ers": 4076,
      "▁නගරයේ": 4077,
      "▁අදි": 4078,
      "▁ගමේ": 4079,
      "▁උණ": 4080,
      "හාම": 4081,
      "▁දානවා": 4082,
      "▁සැර": 4083,
      "▁අනතුරක්": 4084,
      "▁තේරෙන්නෙ": 4085,
      "▁නවතින්න": 4086,
      "▁උපරිම": 4087,
      "▁කැර": 4088,
      "▁කෙටි": 4089,
      "▁පිරිමි": 4090,
      "▁මිනීමැ": 4091,
      "▁ඔට්ටු": 4092,
      "▁අවාස": 4093,
      "▁ලක්": 4094,
      "▁ගන්නෙ": 4095,
      "▁නාස්ති": 4096,
      "▁මුහුදු": 4097,
      "▁ලෑස්": 4098,
      "ගනේ": 4099,
      "නවට": 4100,
      "කුයි": 4101,
      "කරල": 4102,
      "▁කලොත්": 4103,
      "න්නෙ.": 4104,
      "▁බොත්ත": 4105,
      "▁හොයාගන්න.": 4106,
      "▁කටයුතු": 4107,
      "▁ඇදලා": 4108,
      "▁හීන": 4109,
      "▁නිකම්ම": 4110,
      "රූප": 4111,
      "▁කූප": 4112,
      "▁මට.": 4113,
      "▁බලලා": 4114,
      "▁බැහැ,": 4115,
      "▁ගෙනාව": 4116,
      "▁කාරණ": 4117,
      "ත්‍රි": 4118,
      "▁නියමයි,": 4119,
      "im": 4120,
      "▁උගු": 4121,
      "▁කීප": 4122,
      "▁පොලිසියට": 4123,
      "ev": 4124,
      "ෂා": 4125,
      "▁හරි∙": 4126,
      "▁ඉතින්...": 4127,
      "all": 4128,
      "ටෝ": 4129,
      "▁පොත්": 4130,
      "▁යකෝ": 4131,
      "▁\"මම": 4132,
      "▁උඩින්": 4133,
      "▁හැමතැන": 4134,
      "▁ස්වයං": 4135,
      "▁‍ත": 4136,
      "▁හිටියෙ.": 4137,
      "▁ගොල්ල": 4138,
      "▁අකුරු": 4139,
      "▁අත්අඩංගුවට": 4140,
      "▁ප්‍රසිද්ධ": 4141,
      "▁චෙ": 4142,
      "පාල": 4143,
      "▁යුධ": 4144,
      "වීමට": 4145,
      "▁දකින": 4146,
      "▁වචනයක්": 4147,
      "):": 4148,
      "▁පත": 4149,
      "ෙක්,": 4150,
      "▁පිටත්": 4151,
      "▁වාර්තාව": 4152,
      "▁ලඟට": 4153,
      "▁අද්": 4154,
      "▁අප්": 4155,
      "▁රිය": 4156,
      "▁පෙල": 4157,
      "▁සරල": 4158,
      "කළ": 4159,
      "▁මාගේ": 4160,
      "▁එහෙට": 4161,
      "▁...මම": 4162,
      "▁එහෙමද?": 4163,
      "වීම්": 4164,
      "ee": 4165,
      "▁යයි.": 4166,
      "▁දෙවෙනි": 4167,
      "▁හිතෙන": 4168,
      "▁කැමරා": 4169,
      "කාරි": 4170,
      "▁ශරීර": 4171,
      "▁KD": 4172,
      "▁එකකට": 4173,
      "▁හිනා": 4174,
      "ස්සි": 4175,
      "දිම": 4176,
      "▁හිතේ": 4177,
      "▁මිල": 4178,
      "කොල්ල": 4179,
      "▁අවශ්‍යයි": 4180,
      "රල්": 4181,
      "▁මිනිසු": 4182,
      "▁ඇත්තේ": 4183,
      "▁13": 4184,
      "▁ආරක්‍ෂ": 4185,
      "ount": 4186,
      "ේප": 4187,
      "▁v": 4188,
      "▁පවත්": 4189,
      "▁වැඩක්.": 4190,
      "▁තුන්ව": 4191,
      "▁කෑලි": 4192,
      "▁එකිනෙකා": 4193,
      "av": 4194,
      "▁අකම": 4195,
      "ුවක්.": 4196,
      "වුනේ": 4197,
      "▁චන්ද": 4198,
      "▁කෙළ": 4199,
      "▁වේගය": 4200,
      "▁ගෙනත්": 4201,
      "▁ඇමතු": 4202,
      "▁යොද": 4203,
      "▁තුවක්කුවක්": 4204,
      "▁කරන්නයි": 4205,
      "වි,": 4206,
      "▁පරීක්ෂක": 4207,
      "▁කිවුවේ": 4208,
      "▁මුණගැහෙන්න": 4209,
      "▁ඇහුම්කන්": 4210,
      "බෙ": 4211,
      "සම": 4212,
      "▁උන්න": 4213,
      "▁ප්‍රයෝජ": 4214,
      "කයෝ": 4215,
      "▁කීපයක්": 4216,
      "▁ප්‍රමාණ": 4217,
      "▁අපොයි,": 4218,
      "▁සීමාව": 4219,
      "▁ar": 4220,
      "ට්ටි": 4221,
      "▁ගන්නම්.": 4222,
      "‍න‍": 4223,
      "▁වැටිලා": 4224,
      "පී": 4225,
      "න්!": 4226,
      "▁ටේ": 4227,
      "▁සපත්තු": 4228,
      "▁වංච": 4229,
      "ර්ය": 4230,
      "▁ප්‍රවේශ": 4231,
      "cHFF": 4232,
      "▁පලා": 4233,
      "▁මොකෝ": 4234,
      "▁බලනවා": 4235,
      "▁සාධාර": 4236,
      "▁විදියක්": 4237,
      "ඔයාට": 4238,
      "▁බෙදා": 4239,
      "▁ලිපිනය": 4240,
      "▁පන": 4241,
      "▁ඔයා...": 4242,
      "▁සැප": 4243,
      "▁කරන්නේ,": 4244,
      "▁සංචාර": 4245,
      "▁මැරුණ": 4246,
      "▁හිතාගෙන": 4247,
      "▁සිංහ": 4248,
      "පං": 4249,
      "▁මළ": 4250,
      "යි?": 4251,
      "▁තියනවද": 4252,
      "ලිස්": 4253,
      "▁ක්ලෙ": 4254,
      "▁කියන්නෙ,": 4255,
      "▁තේරෙන": 4256,
      "▁බරපත": 4257,
      "න්ස": 4258,
      "▁මස්": 4259,
      "▁හංග": 4260,
      "▁පිවි": 4261,
      "▁හදනවා": 4262,
      "▁රැක": 4263,
      "▁ගියේ?": 4264,
      "න්ඩර්": 4265,
      "රියේ": 4266,
      "වෙන්": 4267,
      "න්‍‍න": 4268,
      "▁ඔයා.": 4269,
      "▁මම,": 4270,
      "▁මුල": 4271,
      "▁‍ඔ": 4272,
      "▁උපසි": 4273,
      "▁විනාස": 4274,
      "▁බාධ": 4275,
      "▁දන්නවනේ,": 4276,
      "▁නිර්භ": 4277,
      "▁ප්‍රමාණය": 4278,
      "▁සටහන්": 4279,
      "ub": 4280,
      "▁මැදි": 4281,
      "▁රැකි": 4282,
      "බො": 4283,
      "▁තබා": 4284,
      "▁අහන්නේ": 4285,
      "▁විශ්වාසද": 4286,
      "▁ප්‍රශ්නය": 4287,
      "▁මිනිහට": 4288,
      "▁කාරයෙක්": 4289,
      "▁එච්චරයි.": 4290,
      "▁අහිං": 4291,
      "ගල": 4292,
      "▁ඒක?": 4293,
      "ව්වෙ": 4294,
      "▁දෙව": 4295,
      "▁සිතිය": 4296,
      "▁සුදානම්": 4297,
      "▁25": 4298,
      "▁අනුමාන": 4299,
      "▁මහත්මයා.": 4300,
      "්‍යක්": 4301,
      "▁යන්නම්.": 4302,
      "පාට": 4303,
      "▁ලෙඩ": 4304,
      "▁වැනි": 4305,
      "▁ග්": 4306,
      "▁ඉන්නකොට": 4307,
      "▁මේකෙ": 4308,
      "ටියක්": 4309,
      "▁නියමයි!": 4310,
      "▁ලැජ්ජ": 4311,
      "වලින්": 4312,
      "▁ගරු": 4313,
      "වෙන්නෙ": 4314,
      "▁මැරෙන": 4315,
      "▁නැවතු": 4316,
      "▁කෘ": 4317,
      "▁-එ": 4318,
      "▁බලමු.": 4319,
      "▁කැමතිද": 4320,
      "▁රාත්‍රිය": 4321,
      "▁දැනුම්": 4322,
      "▁ෙහාද": 4323,
      "දැන්": 4324,
      "▁හත": 4325,
      "▁යනව.": 4326,
      "තිස්ස": 4327,
      "▁තියෙන්නෙ?": 4328,
      "▁බැරිද?": 4329,
      "▁ආයුබෝ": 4330,
      "▁ගනන්": 4331,
      "▁සංගීත": 4332,
      "pe": 4333,
      "▁කාළ": 4334,
      "▁වැඩට": 4335,
      "▁චරි": 4336,
      "▁උපදෙ": 4337,
      "▁එනවා!": 4338,
      "මොකද": 4339,
      "‍ටු": 4340,
      "▁කැමරාව": 4341,
      "මියා": 4342,
      "▁පහුගිය": 4343,
      "▁re": 4344,
      "▁මරා": 4345,
      "▁පවා": 4346,
      "▁කරන්නෙ.": 4347,
      "▁‍ප": 4348,
      "▁මැරෙ": 4349,
      "▁ටී": 4350,
      "▁සැලකි": 4351,
      "▁40": 4352,
      "▁ළමයා": 4353,
      "▁ව්‍යාපෘතිය": 4354,
      "ෙක": 4355,
      "▁දවල්": 4356,
      "▁සාර": 4357,
      "▁ගෙන්": 4358,
      "▁-‍": 4359,
      "▁හැග": 4360,
      "හෙම": 4361,
      "▁දෙපා": 4362,
      "න්දුව": 4363,
      "▁ක්ෂ": 4364,
      "▁අවශ්‍යයි.": 4365,
      "▁සතුටුයි": 4366,
      "▁හෙලෝ,": 4367,
      "▁ස්ථාන": 4368,
      "▁ඉංග": 4369,
      "▁මොනවද?": 4370,
      "▁කැත": 4371,
      "▁දිනය": 4372,
      "▁විතරයි,": 4373,
      "ind": 4374,
      "▁පේනවා.": 4375,
      "▁දෙවියනේ,": 4376,
      "ard": 4377,
      "▁පොඩ්ඩ": 4378,
      "▁රූප": 4379,
      "▁ක්ලෝ": 4380,
      "▁රැස්": 4381,
      "▁ඉක්මනටම": 4382,
      "▁කිරීමක්": 4383,
      "දෙනෙක්": 4384,
      "▁පැනල": 4385,
      "කයේ": 4386,
      "න්?": 4387,
      "▁උදා": 4388,
      "▁අවල": 4389,
      "▁විශ්වාසද?": 4390,
      "▁නැත්තෙ?": 4391,
      "ation": 4392,
      "▁බලාගන්නම්.": 4393,
      "▁කකුල": 4394,
      "තෙක්": 4395,
      "▁සත්ත": 4396,
      "▁විනි": 4397,
      "▁දැක්": 4398,
      "▁සිටිය": 4399,
      "▁මිනිසා": 4400,
      "▁අයියේ": 4401,
      "▁හොයලා": 4402,
      "▁ප්‍රතිචාර": 4403,
      "රෙහි": 4404,
      "අපිට": 4405,
      "%s": 4406,
      "▁ඉවස": 4407,
      "▁පාරෙන්": 4408,
      "▁මූල": 4409,
      "▁එනවා,": 4410,
      "▁වතාවක්": 4411,
      "▁උපන්දි": 4412,
      "▁බහ": 4413,
      "▁හිම": 4414,
      "▁තිර": 4415,
      "▁පැතු": 4416,
      "▁මර්": 4417,
      "▁සත්තු": 4418,
      "▁මොළ": 4419,
      "▁ඔව්?": 4420,
      "නුයි": 4421,
      "▁තිබුනෙ": 4422,
      "ජේ": 4423,
      "ණුව": 4424,
      "කරගන්න": 4425,
      "▁බලන්න!": 4426,
      "▁ගත්තෙ": 4427,
      "'s": 4428,
      "▁මගින්": 4429,
      "▁කණ්ඩායමේ": 4430,
      "▁දරා": 4431,
      "▁කරුණ": 4432,
      "ීමක්.": 4433,
      "මයි,": 4434,
      "ෑන්ක්": 4435,
      "තපු": 4436,
      "යකේ": 4437,
      "▁පහළ": 4438,
      "▁එළියේ": 4439,
      "▁එසේ": 4440,
      "▁දන්": 4441,
      "▁ඉරි": 4442,
      "▁හැමතිස්ස": 4443,
      "▁සිත්": 4444,
      "▁යාළුවො": 4445,
      "ce": 4446,
      "▁and": 4447,
      "▁කරේ?": 4448,
      "▁ආර්": 4449,
      "▁ගැනීමට": 4450,
      "▁දිහා.": 4451,
      "▁මිනිස්සුන්ව": 4452,
      "▁හොදින්.": 4453,
      "▁අවාසනාව": 4454,
      "ome": 4455,
      "ry": 4456,
      "▁මල්ලි": 4457,
      "▁සතුර": 4458,
      "වාදී": 4459,
      "▁ගලව": 4460,
      "▁පුරාව": 4461,
      "▁වැල": 4462,
      "▁ඩැන": 4463,
      "▁මෝඩයෙක්": 4464,
      "‍මා": 4465,
      "න්ගෙන්": 4466,
      "▁එවන්න": 4467,
      "▁පස්": 4468,
      "▁වෙනකන්": 4469,
      "ගෙන.": 4470,
      "මෙරි": 4471,
      "▁කලා,": 4472,
      "▁දුවන්න": 4473,
      "▁රෝග": 4474,
      "ගුණ": 4475,
      "ගන්ව": 4476,
      "▁කැඩි": 4477,
      "▁මතකයි": 4478,
      "▁අභ්‍ය": 4479,
      "‍රු": 4480,
      "▁සැබෑ": 4481,
      "▁පොළ": 4482,
      "▁ක්‍රමය": 4483,
      "▁හෙන්": 4484,
      "ගන්නා": 4485,
      "▁ලැබෙන්න": 4486,
      "▁මූලික": 4487,
      "▁KDE": 4488,
      "ha": 4489,
      "තර්": 4490,
      "ුවනේ": 4491,
      "ංග්": 4492,
      "▁රැජි": 4493,
      "▁අනෙක්": 4494,
      "▁ලේඛ": 4495,
      "▁එකග": 4496,
      "▁හිටියේ?": 4497,
      "▁තරග": 4498,
      "▁ඇවිල්ල": 4499,
      "▁පහසු": 4500,
      "▁උනාට": 4501,
      "▁වේගයෙන්": 4502,
      "▁කරගත්ත": 4503,
      "▁කාඩ්": 4504,
      "▁දාගන්න": 4505,
      "‍ර‍": 4506,
      "▁සැන්": 4507,
      "මේක": 4508,
      "▁ඩැ": 4509,
      "▁ඇතුළට": 4510,
      "ත්‍රය": 4511,
      "හ්...": 4512,
      "▁දැකල": 4513,
      "තල්": 4514,
      "තයක්": 4515,
      "ට්ස්": 4516,
      "▁අරං": 4517,
      "▁තිබුණා": 4518,
      "▁මහන්සි": 4519,
      "▁අමත": 4520,
      "▁කකුල්": 4521,
      "▁හැදුවා": 4522,
      "▁මහෙ": 4523,
      "▁ලන්ඩ": 4524,
      "▁නෑනේ.": 4525,
      "▁සර්!": 4526,
      "▁ලැබීම": 4527,
      "▁මගෙත්": 4528,
      "▁තමුන්ට": 4529,
      "වෙන්න.": 4530,
      "▁නම?": 4531,
      "▁ගානේ": 4532,
      "▁මනුෂ්‍ය": 4533,
      "කටම": 4534,
      "▁දේට": 4535,
      "▁16": 4536,
      "▁කළම": 4537,
      "▁තුන්ද": 4538,
      "▁ඉහළ": 4539,
      "▁මත්ද්‍රව්‍ය": 4540,
      "▁විවේක": 4541,
      "▁බුද්ධිමත්": 4542,
      "ගර්": 4543,
      "▁එඩ්": 4544,
      "▁අගු": 4545,
      "මිත": 4546,
      "▁බෝට්ටුව": 4547,
      "▁පමණක්": 4548,
      "ළුවන්": 4549,
      "▁කපි": 4550,
      "▁ප්‍රාර්": 4551,
      "කරන්න.": 4552,
      "▁කෝච්ච": 4553,
      "▁ලොකුම": 4554,
      "▁වුනා,": 4555,
      "▁යාලුවෙක්": 4556,
      "▁ඇදුම්": 4557,
      "▁forec": 4558,
      "▁forecast": 4559,
      "▁යනවද?": 4560,
      "ච්ඡ": 4561,
      "▁සමී": 4562,
      "▁විදිහක්": 4563,
      "▁දක්වා": 4564,
      "හත්": 4565,
      "ුව.": 4566,
      "▁-හරි": 4567,
      "▁ගෙවල්": 4568,
      "▁බිල්": 4569,
      "ලෝන්": 4570,
      "▁ලියා": 4571,
      "▁කඩේ": 4572,
      "▁ඉහල": 4573,
      "▁වෝල්": 4574,
      "a.": 4575,
      "හොම": 4576,
      "▁එලිය": 4577,
      "▁හමුවීම": 4578,
      "නියක්": 4579,
      "වූ": 4580,
      "රික්": 4581,
      "▁කොළ": 4582,
      "▁කවුළු": 4583,
      "▁පුළුවන්∙": 4584,
      "ort": 4585,
      "▁එතනින්": 4586,
      "▁පණිවිඩයක්": 4587,
      "\\\\": 4588,
      "▁පරාජ": 4589,
      "▁කියන්නම්.": 4590,
      "▁දැනෙන්න": 4591,
      "▁දැනෙන්නේ": 4592,
      "▁තිබෙනවා.": 4593,
      "▁tran": 4594,
      "▁ඉක්මනින්ම": 4595,
      "රැසි": 4596,
      "▁ජනතාව": 4597,
      "▁අපොයි": 4598,
      "ාන්": 4599,
      "▁බබෝ": 4600,
      "▁ලකුණු": 4601,
      "▁ස්කො": 4602,
      "▁බිමට": 4603,
      "▁24": 4604,
      "▁inf": 4605,
      "▁ලස්සනයි": 4606,
      "▁ලබාගන්න": 4607,
      "▁විසඳ": 4608,
      "රෝධ": 4609,
      "▁විරුද්ධව": 4610,
      "මේන්තුව": 4611,
      "ට්‍ර": 4612,
      "යත්": 4613,
      "▁මේකයි": 4614,
      "▁සැම": 4615,
      "▁සේවය": 4616,
      "▁සහෝදරයා.": 4617,
      "▁අම්මේ.": 4618,
      "▁තිස්සේ": 4619,
      "ff": 4620,
      "ක්ද": 4621,
      "යෙන්ම.": 4622,
      "▁සංඥ": 4623,
      "▁ජැක්.": 4624,
      "ep": 4625,
      "ton": 4626,
      "▁ලම": 4627,
      "▁‍ඉ": 4628,
      "▁...අ": 4629,
      "ොත්.": 4630,
      "▁අම්මා.": 4631,
      "▁පෙනුම": 4632,
      "තෘ": 4633,
      "යකෝ": 4634,
      "▁\"ඔබ": 4635,
      "▁දාන": 4636,
      "▁සාක": 4637,
      "▁14": 4638,
      "▁ඇතුලත": 4639,
      "▁අහිමි": 4640,
      "▁උවමනා": 4641,
      "▁අපෙන්": 4642,
      "▁හැඩ": 4643,
      "▁මොකද,": 4644,
      "▁ගෙද": 4645,
      "යෙන්.": 4646,
      "ට්ටුවක්": 4647,
      "▁තිබ්බෙ": 4648,
      "▁දරුවා": 4649,
      "dition": 4650,
      "ික": 4651,
      "▁ආකාර": 4652,
      "▁හිතනවා.": 4653,
      "▁සිතුව": 4654,
      "▁‍ඇ": 4655,
      "▁කොහොමහරි": 4656,
      "▁ටිකට්": 4657,
      "▁අයිතිය": 4658,
      "▁කිව්වෙ?": 4659,
      "▁ෆිල්": 4660,
      "▁ප්ලගි": 4661,
      "▁මානසික": 4662,
      "පෝ": 4663,
      "ලගේ": 4664,
      "▁උගේ": 4665,
      "▁වෙන්නයි": 4666,
      "▁මාස්ටර්": 4667,
      "▁ගිණු": 4668,
      "මිනි": 4669,
      "▁නියමෙට": 4670,
      "▁දැක්කෙ": 4671,
      "▁කොල්ලෝ": 4672,
      "▁කොල්ලෙක්": 4673,
      "▁පිටිපස්සේ": 4674,
      "▁වැරදියි.": 4675,
      "▁X": 4676,
      "▁මරු": 4677,
      "▁සෙන්": 4678,
      "▁බෙන්": 4679,
      "▁යටත්": 4680,
      "▁නිෂ්": 4681,
      "දුම්": 4682,
      "▁හෙලි": 4683,
      "▁ගැඹු": 4684,
      "▁අමතර": 4685,
      "▁කාටහරි": 4686,
      "▁be": 4687,
      "▁අවසානය": 4688,
      "▁දැන්ම!": 4689,
      "▁චාර්ලි": 4690,
      "පා.": 4691,
      "▁එතැන": 4692,
      "▁අස්ස": 4693,
      "▁දත්": 4694,
      "▁විධ": 4695,
      "▁දාපු": 4696,
      "▁ඕනෙම": 4697,
      "▁අමාරුයි.": 4698,
      "▁ජිවිතේ": 4699,
      "ul": 4700,
      "▁තම": 4701,
      "...\"": 4702,
      "▁හැමවෙලා": 4703,
      "▁බැද": 4704,
      "▁දේව": 4705,
      "▁Al": 4706,
      "▁මනුස්සයෙක්": 4707,
      "ාවත්ම": 4708,
      "▁ඔවුන්ගෙ": 4709,
      "▁කිසිවක්": 4710,
      "▁ෆෝ": 4711,
      "ong": 4712,
      "▁රාක්ෂ": 4713,
      "▁කරුණාකරල": 4714,
      "▁ඇවිත්.": 4715,
      "▁නිලධා": 4716,
      "▁Jo": 4717,
      "▁ඉංග්‍රී": 4718,
      "බද": 4719,
      "▁සහය": 4720,
      "ම්බර්": 4721,
      "▁ගෙව": 4722,
      "▁රොබෝ": 4723,
      "ඩුවක්": 4724,
      "▁කින්": 4725,
      "▁පුව": 4726,
      "▁වෙලාව.": 4727,
      "▁ශෝ": 4728,
      "▁ඔහේගේ": 4729,
      "▁ඩේවි": 4730,
      "▁කට්ට": 4731,
      "යිඩ්": 4732,
      "▁ගහලා": 4733,
      "▁ඉස්සෙ": 4734,
      "▁විශිෂ්ට": 4735,
      "▁පන්න": 4736,
      "▁ආ,": 4737,
      "▁ආරාධ": 4738,
      "▁කොන්ඩ": 4739,
      "ෙක්ටර්": 4740,
      "නවත්": 4741,
      "▁ප්‍රශ්නේ": 4742,
      "▁හඳුනා": 4743,
      "▁අහිංසක": 4744,
      "▁පක්ෂ": 4745,
      "▁විෂ": 4746,
      "▁හිතනව": 4747,
      "▁කෙනෙකුට": 4748,
      "▁ගේම්": 4749,
      "▁සැකසුම්": 4750,
      "▁පලයන්": 4751,
      "▁ග්‍රහ": 4752,
      "▁බල්ලෙක්": 4753,
      "▁අරු": 4754,
      "▁ඇරෙන්න": 4755,
      "▁කොන්": 4756,
      "▁ප්‍රධා": 4757,
      "▁තාත්තා.": 4758,
      "▁රාහු": 4759,
      "▁නෝනා": 4760,
      "▁අනාගතය": 4761,
      "▁සදා": 4762,
      "▁ගස්": 4763,
      "▁රුව": 4764,
      "▁හැංගි": 4765,
      "▁එපා...": 4766,
      "▁ඉක්මනට.": 4767,
      "ගනින්": 4768,
      "▁මනස": 4769,
      "▁තර්ජනය": 4770,
      "▁ප්‍රාර්ථ": 4771,
      "ගමු.": 4772,
      "ර්ඩ්": 4773,
      "▁රඟ": 4774,
      "▁හිතෙනවා": 4775,
      "▁බලන": 4776,
      "නම්...": 4777,
      "▁තිබිලා": 4778,
      "▁බාර්": 4779,
      "▁නුබ": 4780,
      "සො": 4781,
      "▁විකි": 4782,
      "සියෙන්": 4783,
      "▁වරදක්": 4784,
      "▁නිව්යෝ": 4785,
      "▁condition": 4786,
      "▁ලකේස්": 4787,
      "▁මදි": 4788,
      "▁පුලුවන්,": 4789,
      "▁ජීව": 4790,
      "▁ෂෝ": 4791,
      "▁ප්ලෝන්": 4792,
      "▁දෙමව්": 4793,
      "ප්‍රේ": 4794,
      "ලන්ත": 4795,
      "▁යේ": 4796,
      "▁මැක්": 4797,
      "▁තිබෙන": 4798,
      "යේදී": 4799,
      "▁ප්‍රශ්නෙ": 4800,
      "▁ඇවිදි": 4801,
      "▁භාෂ": 4802,
      "▁දඩයම්": 4803,
      "▁සත්තකින්": 4804,
      "සීම": 4805,
      "▁අනේ.": 4806,
      "▁අසර": 4807,
      "▁වෙලා,": 4808,
      "▁සැතපු": 4809,
      "▁තරමේ": 4810,
      "▁කුළු": 4811,
      "යුධ": 4812,
      "▁ජේසු": 4813,
      "▁අසනීප": 4814,
      "පියන්": 4815,
      "ට?": 4816,
      "පන්,": 4817,
      "▁කුණා": 4818,
      "යිස්": 4819,
      "▁ඇන": 4820,
      "▁කරන්න∙": 4821,
      "ලියා": 4822,
      "▁කටවහ": 4823,
      "▁සෙල්ලම": 4824,
      "o.": 4825,
      "pt": 4826,
      "ලුවක්": 4827,
      "ා,": 4828,
      "▁යක්ෂ": 4829,
      "නේ...": 4830,
      "▁කොල": 4831,
      "▁හරි..": 4832,
      "▁අයත්": 4833,
      "▁කොහෙත්ම": 4834,
      "▁තියෙන්නේ,": 4835,
      "▁නැගිට": 4836,
      "තෙන්ට": 4837,
      "▁වළ": 4838,
      "▁නැටු": 4839,
      "▁ඕනෑ": 4840,
      "▁ලොක්": 4841,
      "▁මගුලක්": 4842,
      "ලොක්": 4843,
      "▁සලක": 4844,
      "▁ලෑස්තිද?": 4845,
      "▁කණගාටුයි": 4846,
      "▁වැඩසටහන": 4847,
      "▁transl": 4848,
      "▁පත්ව": 4849,
      "▁කරන්න..": 4850,
      "නවා...": 4851,
      "විලා": 4852,
      "▁ජින්": 4853,
      "▁සිත": 4854,
      "▁සුන්දර": 4855,
      "▁18": 4856,
      "▁ගැන්ව": 4857,
      "ert": 4858,
      "▁දුවන්න!": 4859,
      "වීමේ": 4860,
      "▁වියදම්": 4861,
      "▁අනිවාර්යෙන්ම": 4862,
      "▁සුවඳ": 4863,
      "▁උපසිරැසි": 4864,
      "ob": 4865,
      "▁මතු": 4866,
      "▁කරවන්න": 4867,
      "▁එක්ක,": 4868,
      "▁...ඒ": 4869,
      "▁මෙතන.": 4870,
      "▁දේවල්.": 4871,
      "▁සම්බන්ධයක්": 4872,
      "▁මැරුවා": 4873,
      "▁දුරකථන": 4874,
      "▁අශ්ව": 4875,
      "▁අපහසු": 4876,
      "වෝ": 4877,
      "‍යි": 4878,
      "▁ආචාර්ය": 4879,
      "▁තියෙනව.": 4880,
      "දෙි": 4881,
      "▁විදිහට.": 4882,
      "▁කවදාවත්ම": 4883,
      "▁සංකී": 4884,
      "▁ජීවිතයක්": 4885,
      "▁අතරේ": 4886,
      "▁මෙන්න.": 4887,
      "පාරක්": 4888,
      "▁ඇදගෙන": 4889,
      "ack": 4890,
      "▁පුරාම": 4891,
      "▁තෙල්": 4892,
      "▁ප්‍රො": 4893,
      "▁මුන": 4894,
      "▁‍කි": 4895,
      "▁එපා∙": 4896,
      "▁ලැබුනා.": 4897,
      "▁පැටියෝ.": 4898,
      "රට": 4899,
      "ලට්": 4900,
      "▁මව": 4901,
      "▁මණ්ඩ": 4902,
      "▁වෙර": 4903,
      "▁චො": 4904,
      "මි.": 4905,
      "▁කෑමට": 4906,
      "▁දෙනවද?": 4907,
      "▁සෑම්": 4908,
      "කස්": 4909,
      "▁**": 4910,
      "රි,": 4911,
      "▁ඉඳල": 4912,
      "▁නෙමෙයි,": 4913,
      "▁සහෝදරිය": 4914,
      "▁අධ්‍යක්": 4915,
      "▁he": 4916,
      "▁වුනාට": 4917,
      "▁නැතුව.": 4918,
      "▁ළඟට": 4919,
      "▁මැරිලා.": 4920,
      "▁නෙවේ.": 4921,
      "▁සිහින": 4922,
      "▁හදාගන්න": 4923,
      "▁අරමුණ": 4924,
      "▁හයියෙන්": 4925,
      "▁are": 4926,
      "සනක්": 4927,
      "▁කන්ද": 4928,
      "▁නඩු": 4929,
      "ලික්": 4930,
      "▁දැන්මම": 4931,
      "▁නොවන": 4932,
      "▁වහලා": 4933,
      "▁තිබුණා.": 4934,
      "▁ජැක්,": 4935,
      "ගමනය": 4936,
      "චර": 4937,
      "සහ": 4938,
      "▁ඇමෙරි": 4939,
      "▁දුන්නෙ": 4940,
      "කුණක්": 4941,
      "▁විදුලි": 4942,
      "▁විල්": 4943,
      "රාජ්": 4944,
      "▁විශ්ව": 4945,
      "▁දැකපු": 4946,
      "▁පීඩ": 4947,
      "▁ඉලක්කය": 4948,
      "▁තෑග්ග": 4949,
      "▁බදින්න": 4950,
      "▁පුතාව": 4951,
      "▁කාලා": 4952,
      "▁ඇත්තටම.": 4953,
      "▁වැරදියි": 4954,
      "▁පෘථි": 4955,
      "▁ගෞරවය": 4956,
      "▁info": 4957,
      "ගර": 4958,
      "ගස්ස": 4959,
      "නම": 4960,
      "නන්න": 4961,
      "පෙන": 4962,
      "▁ඔළුව": 4963,
      "ම්∙": 4964,
      "▁සාම": 4965,
      "▁අතෑ": 4966,
      "▁වුණේ?": 4967,
      "▁අම්මේ,": 4968,
      "▁කසාදෙ": 4969,
      "▁ගෙදරින්": 4970,
      "ේද": 4971,
      "▁ඔයාට?": 4972,
      "▁වෙනවද?": 4973,
      "▁ප්‍රවෘ": 4974,
      "▁අහල": 4975,
      "▁දෙකම": 4976,
      "▁වලින්.": 4977,
      "▁ෂෙ": 4978,
      "▁වැඩේට": 4979,
      "▁ගත්තා,": 4980,
      "▁සදහ": 4981,
      "▁or": 4982,
      "ල්දා": 4983,
      "▁ඒකද": 4984,
      "▁රත්තර": 4985,
      "▁බලන්නේ": 4986,
      "ොත්?": 4987,
      "▁හාර්ත": 4988,
      "▁ලානා": 4989,
      "ජනක": 4990,
      "ොටම": 4991,
      "▁කද": 4992,
      "▁එලි": 4993,
      "▁නං": 4994,
      "▁පයින්": 4995,
      "▁සන්ධ": 4996,
      "▁ඒකම": 4997,
      "▁උම": 4998,
      "▁වෙනස": 4999,
      "▁වඩාත්": 5000,
      "▁බායි.": 5001,
      "▁ඒවගේ": 5002,
      "▁වැටෙන්න": 5003,
      "▁අදාල": 5004,
      "ජන": 5005,
      "▁00": 5006,
      "න්දා": 5007,
      "ගෙයි": 5008,
      "මාර්": 5009,
      "▁මැජි": 5010,
      "▁තේරුමක්": 5011,
      "▁මැරුණා": 5012,
      "▁කරුණාකරලා,": 5013,
      "rit": 5014,
      "ද...": 5015,
      "▁නෑ?": 5016,
      "▁‍ව": 5017,
      "▁කෑල්ල": 5018,
      "▁මතකය": 5019,
      "▁නෙමේ,": 5020,
      "▁පියාඹ": 5021,
      "hn": 5022,
      "ඩන්": 5023,
      "▁වඩා.": 5024,
      "▁අඬ": 5025,
      "▁නෑනේ": 5026,
      "කරනවා": 5027,
      "▁සැරයක්": 5028,
      "▁බිස්": 5029,
      "▁ලැබෙන්නේ": 5030,
      "▁පැත්තෙ": 5031,
      "▁දෙනව": 5032,
      "ඩො": 5033,
      "▁කලිස": 5034,
      "▁හැරි": 5035,
      "▁කිරීම්": 5036,
      "▁වෙන්නත්": 5037,
      "ක්ෂේප": 5038,
      "▁භය": 5039,
      "ත්වැ": 5040,
      "▁කොහෙවත්": 5041,
      "▁පැනගන්න": 5042,
      "▁මයිල්ස්": 5043,
      "▁අසමත්": 5044,
      "▁මඟුලක්ද": 5045,
      "▁වෙලාවෙම": 5046,
      "▁මල්ල": 5047,
      "▁වම්": 5048,
      "▁ඒයි!": 5049,
      "▁කියපන්": 5050,
      "ඩියා": 5051,
      "▁පාත්": 5052,
      "▁ඉස්සරහා": 5053,
      "▁ප්ලේ": 5054,
      "▁නිකන්ම": 5055,
      "▁නටන්න": 5056,
      "▁චෝද": 5057,
      "eg": 5058,
      "ෂණ": 5059,
      "▁හදන්නේ?": 5060,
      "▁කිව්වා,": 5061,
      "▁ගියාම": 5062,
      "▁නරකම": 5063,
      "▁පාලක": 5064,
      "▁විය.": 5065,
      "ංගික": 5066,
      "▁නොමැ": 5067,
      "▁අඳුර": 5068,
      "හක්": 5069,
      "ෆී": 5070,
      "▁මෑ": 5071,
      "▁මැන": 5072,
      "▁දෝෂ": 5073,
      "▁හැංග": 5074,
      "▁මාලි": 5075,
      "▁තරමට": 5076,
      "▁දෙවියන්ගේ": 5077,
      "▁මැරෙනවා": 5078,
      "▁වේගවත්": 5079,
      "▁අයියෝ,": 5080,
      "ශ්ච": 5081,
      "කාලික": 5082,
      "▁බොබ්": 5083,
      "▁තියෙනවා∙": 5084,
      "▁රැගෙන": 5085,
      "▁තේරෙනවා.": 5086,
      "▁රෙද්ද": 5087,
      "▁ද්‍රෝ": 5088,
      "▁බැලුවා": 5089,
      "▁ඉන්දියා": 5090,
      "භූ": 5091,
      "ිර": 5092,
      "▁ඔලි": 5093,
      "▁අක්‍රීය": 5094,
      "▁හියු": 5095,
      "▁උල්": 5096,
      "▁වෙන්නෙ.": 5097,
      "▁දේකට": 5098,
      "▁දැනගත්තා": 5099,
      "▁තාත්තගේ": 5100,
      "▁ස්ථාපනය": 5101,
      "▁හවුල්": 5102,
      "▁හැමතැනම": 5103,
      "පුව": 5104,
      "ලස්": 5105,
      "▁ගඟ": 5106,
      "▁ඇලි": 5107,
      "▁එකයි.": 5108,
      "▁හිතන්න.": 5109,
      "▁මංකොල්ල": 5110,
      "▁අරක": 5111,
      "▁තුරු": 5112,
      "▁බාධා": 5113,
      "▁සීතල": 5114,
      "▁මෙනවිය": 5115,
      "ෂක": 5116,
      "ියෙන්": 5117,
      "▁අන්ධ": 5118,
      "▁ඉං": 5119,
      "▁මොලේ": 5120,
      "නි!": 5121,
      "▁කාගෙ": 5122,
      "▁කොහොමද,": 5123,
      "▁කලාද?": 5124,
      "▁සදහා": 5125,
      "ai": 5126,
      "ian": 5127,
      "ඹි": 5128,
      "▁එනවද?": 5129,
      "▁හඬ": 5130,
      "ර්ණය": 5131,
      "▁ජර්": 5132,
      "වෙම": 5133,
      "▁හම්බු": 5134,
      "▁නාමය": 5135,
      "▁ගුහ": 5136,
      "▁නිර්භීත": 5137,
      "▁හැමතිස්සෙම": 5138,
      "හට": 5139,
      "▁කියනවද": 5140,
      "▁කැලේ": 5141,
      "▁සිරාව": 5142,
      "▁ඇත්තෙන්": 5143,
      "▁ශ්‍ර": 5144,
      "▁කළේ?": 5145,
      "▁සංඥා": 5146,
      "▁පාරේ": 5147,
      "▁හිතන්නෙ?": 5148,
      "▁මෙයාගේ": 5149,
      "▁කිව්වනේ": 5150,
      "▁රහස": 5151,
      "▁බ්ල": 5152,
      "▁නිදහස": 5153,
      "▁උණුසුම්": 5154,
      "▁සැලැස්මක්": 5155,
      "▁වොට්සන්": 5156,
      "ජලී": 5157,
      "හල්": 5158,
      "▁කමි": 5159,
      "▁දන්නව.": 5160,
      "▁කුඩු": 5161,
      "▁තිබුනේ.": 5162,
      "▁හොදින්ද": 5163,
      "▁කේස්": 5164,
      "▁තුන්වෙනි": 5165,
      "\"?": 5166,
      ").": 5167,
      "ෑම්": 5168,
      "▁යි.": 5169,
      "▁නමයි": 5170,
      "▁හට": 5171,
      "▁හැක.": 5172,
      "▁එක්කෝ": 5173,
      "▁අහගෙන": 5174,
      "ang": 5175,
      "▁මතකද?": 5176,
      "ූර්ණ": 5177,
      "▁උසාව": 5178,
      "ගින්": 5179,
      "▁වනේ": 5180,
      "▁ගෘ": 5181,
      "▁මිනී": 5182,
      "▁ඩී": 5183,
      "යාවක්": 5184,
      "▁පරිශී": 5185,
      "▁ඇරලා": 5186,
      "▁සයිඩ්": 5187,
      "▁ඇමතුමක්": 5188,
      "▁එල්": 5189,
      "▁එයට": 5190,
      "▁හ්": 5191,
      "වාගෙන": 5192,
      "▁යවන්න.": 5193,
      "▁රසා": 5194,
      "∙∙∙∙": 5195,
      "▁එපා..": 5196,
      "▁ඇවිදින්න": 5197,
      "▁විදියට.": 5198,
      "වී.": 5199,
      "▁එච්චරයි": 5200,
      "▁ජාතික": 5201,
      "▁ඔරලෝ": 5202,
      "Qu": 5203,
      "▁එයින්": 5204,
      "▁හසු": 5205,
      "▁තබ": 5206,
      "▁උර": 5207,
      "ෙක්ව": 5208,
      "▁බලවත්": 5209,
      "▁යානා": 5210,
      "▁17": 5211,
      "ග්ගක්": 5212,
      "▁දන්නවනෙ": 5213,
      "▁වුනත්,": 5214,
      "▁යාලුවා.": 5215,
      "▁පොලීසියට": 5216,
      "▁කරාවි.": 5217,
      "යද?": 5218,
      "▁හං": 5219,
      "▁යව": 5220,
      "▁උතුරු": 5221,
      "▁මාධ්‍ය": 5222,
      "▁පස්සේ.": 5223,
      "▁චු": 5224,
      "ොටෝ": 5225,
      "▁මරපු": 5226,
      "▁කුකු": 5227,
      "▁හමුවෙ": 5228,
      "▁දිනන්න": 5229,
      "▁වීරයෙක්": 5230,
      "▁පනින්න": 5231,
      "▁තේරුනාද?": 5232,
      "▁‍ඔ‍යා": 5233,
      "▁පලි": 5234,
      "▁-එයා": 5235,
      "▁කියෙ": 5236,
      "▁වගේ...": 5237,
      "▁කාගේ": 5238,
      "▁කෙනාව": 5239,
      "▁හොයන": 5240,
      "▁බෙල්": 5241,
      "▁නවත්වන්න.": 5242,
      "▁සමාගම": 5243,
      "▁ඉස්කෝප්ප": 5244,
      "▁අසාර්ථක": 5245,
      "▁කුමාර": 5246,
      "▁ගඳ": 5247,
      "▁බීම": 5248,
      "▁අරින්න.": 5249,
      "ටවත්": 5250,
      "▁ඕහ්": 5251,
      "▁විද්‍යාව": 5252,
      "▁හොයන්නේ": 5253,
      "▁මහත්තයා.": 5254,
      "▁ඩිර": 5255,
      "කෘති": 5256,
      "▁බටහිර": 5257,
      "▁නියෝග": 5258,
      "IA": 5259,
      "නං": 5260,
      "ත්...": 5261,
      "▁හවස": 5262,
      "▁දහස්": 5263,
      "▁දැඩි": 5264,
      "මුඛ": 5265,
      "▁චෙක්": 5266,
      "▁තියෙනවා...": 5267,
      "▁ඇමති": 5268,
      "▁කණ්ඩායම්": 5269,
      "▁මුහුද": 5270,
      "▁දෛවය": 5271,
      "▁සාධාරණ": 5272,
      "න්ච": 5273,
      "යාර්": 5274,
      "▁වික්ටර්": 5275,
      "▁පිං": 5276,
      "▁ලැබෙනවා": 5277,
      "▁කොහේද?": 5278,
      "්‍රාහ": 5279,
      "▁දේශපාල": 5280,
      "▁ප්ලගින": 5281,
      "▁එරෙහි": 5282,
      "▁ඔයා,": 5283,
      "▁මොන්": 5284,
      "▁රග": 5285,
      "▁ගැනද?": 5286,
      "▁වගේ?": 5287,
      "▁යන්නේ,": 5288,
      "▁සංවි": 5289,
      "out": 5290,
      "▁නගරෙ": 5291,
      "ගැනීමට": 5292,
      "▁සැතපුම්": 5293,
      "දන්න": 5294,
      "නෑ.": 5295,
      "▁වුවම": 5296,
      "▁මටයි": 5297,
      "▁සිප": 5298,
      "▁මොකක්?": 5299,
      "▁දිවි": 5300,
      "▁බාගයක්": 5301,
      "▁ඉල්ලන්න": 5302,
      "ell": 5303,
      "න්ග්": 5304,
      "▁දඬ": 5305,
      "▁සළ": 5306,
      "▁ඉල්ලා": 5307,
      "▁මේ...": 5308,
      "▁විකු": 5309,
      "▁නැඟි": 5310,
      "▁වගේද?": 5311,
      "තාන්‍ය": 5312,
      "▁සින": 5313,
      "▁අවදාන": 5314,
      "▁හිටියේ,": 5315,
      "▁පාරවල්": 5316,
      "▁ඔහ්හ්,": 5317,
      "▁තෝම": 5318,
      "▁පෙනී": 5319,
      "▁වචනය": 5320,
      "ඩියු": 5321,
      "▁නිසැකවම": 5322,
      "▁වංචා": 5323,
      ":%": 5324,
      "▁පට්ට": 5325,
      "▁වෙනවද": 5326,
      "▁නිම": 5327,
      "▁බැං": 5328,
      "▁ස්ක": 5329,
      "▁මායි": 5330,
      "▁චූ": 5331,
      "▁තාත්තව": 5332,
      "▁පටන්ගන්න": 5333,
      "▁බවක්": 5334,
      "▁වරෙ": 5335,
      "▁com": 5336,
      "▁තමුසෙගෙ": 5337,
      "▁දුරටත්": 5338,
      "▁තීරණයක්": 5339,
      "▁දෘ": 5340,
      "▁ඔයාද": 5341,
      "නෙම්": 5342,
      "▁කෙනෙක්,": 5343,
      "▁අය.": 5344,
      "කයො": 5345,
      "නී.": 5346,
      "▁බලාපොරොත්තුව": 5347,
      "▁කාමරයට": 5348,
      "▁සුරකින්න": 5349,
      "▁තාත්තේ!": 5350,
      "ෂි": 5351,
      "න්ඩ්": 5352,
      "ල්!": 5353,
      "▁යනවද": 5354,
      "▁දෙන්නට": 5355,
      "▁ගින්න": 5356,
      "▁හුරු": 5357,
      "▁උපදේශ": 5358,
      "▁වෙයිද": 5359,
      "▁නේද.": 5360,
      "▁රාජ්‍ය": 5361,
      "▁ප්ර": 5362,
      "▁ජයග්‍රහ": 5363,
      "▁වගෝම": 5364,
      "▁බරපතල": 5365,
      "ගාව": 5366,
      "ලද?": 5367,
      "▁යි": 5368,
      "▁නයිට්": 5369,
      "ස්ටින්": 5370,
      "▁නැගෙන": 5371,
      "▁දෙයක්,": 5372,
      "▁තැනම": 5373,
      "▁පොදු": 5374,
      "කෝ,": 5375,
      "▁පහත": 5376,
      "▁සෙබ": 5377,
      "▁බයවෙන්න": 5378,
      "කො.": 5379,
      "▁තමන්ගෙ": 5380,
      "▁සාමාන්‍යයෙන්": 5381,
      "▁තදින්": 5382,
      "▁ඩ්‍රයි": 5383,
      "▁ඉංග්‍රීසි": 5384,
      "ect": 5385,
      "ගොඩ": 5386,
      "▁ඉද්දි": 5387,
      "▁රත්‍ර": 5388,
      "▁මිතුර": 5389,
      "▁ගත්තද?": 5390,
      "▁ලැබේ": 5391,
      "▁නැත්තං": 5392,
      "▁හම්බුනා": 5393,
      "▁සොල්දා": 5394,
      "▁වර්ණ": 5395,
      "▁පෙන්නේ": 5396,
      "▁පෙනෙන": 5397,
      "▁කළා,": 5398,
      "▁නගින්න": 5399,
      "▁this": 5400,
      "▁ද්‍රව්‍ය": 5401,
      "▁විකල්ප": 5402,
      "▁ඩිරෙක්ට": 5403,
      "යකින්": 5404,
      "සරය": 5405,
      "ෙස්": 5406,
      "‍,": 5407,
      "‍තු": 5408,
      "▁අත්ත": 5409,
      "මන්.": 5410,
      "▁හානි": 5411,
      "▁කොල්ලො": 5412,
      "ගැනීමේ": 5413,
      "▁හිටගෙන": 5414,
      "▁පැහැදිල": 5415,
      "▁ගැහුව": 5416,
      "යයි.": 5417,
      "▁ඔෆි": 5418,
      "▁පෑ": 5419,
      "▁යකඩ": 5420,
      "▁මේකත්": 5421,
      "▁දේ?": 5422,
      "▁බලන්නම්.": 5423,
      "▁යාල": 5424,
      "තුරක්": 5425,
      "▁ඕනෙ,": 5426,
      "▁ජේම්ස්": 5427,
      "▁St": 5428,
      "▁ආවොත්": 5429,
      "▁කිව්වෙ,": 5430,
      "▁ජාතිය": 5431,
      "▁අමාරුයි": 5432,
      "යන්ට": 5433,
      "▁එනව.": 5434,
      "▁අදුර": 5435,
      "▁හෙන": 5436,
      "▁අප්‍රි": 5437,
      "▁මිසයි": 5438,
      "▁ගුරුව": 5439,
      "▁ලියලා": 5440,
      "▁අවසානයේ": 5441,
      "හරු": 5442,
      "▁පඩි": 5443,
      "▁ගමු": 5444,
      "▁මම..": 5445,
      "▁හැරු": 5446,
      "▁අහනවා": 5447,
      "▁ඇති∙": 5448,
      "▁බේරෙන්න": 5449,
      "▁ඉඩදෙන්න": 5450,
      "▁කේත": 5451,
      "▁සදහටම": 5452,
      "ඔවුන්": 5453,
      "▁වෙද්දි": 5454,
      "දාය": 5455,
      "▁කරලා,": 5456,
      "▁වගේම,": 5457,
      "▁ක්ල": 5458,
      "▁නැත්තන්": 5459,
      "▁500": 5460,
      "▁ඇලෙක්ස්": 5461,
      "▁ඇඟිලි": 5462,
      "NA": 5463,
      "▁වීමට": 5464,
      "ියන්": 5465,
      "▁බල්ලා": 5466,
      "▁මොඩියු": 5467,
      "▁කවුළුව": 5468,
      "▁යාවි": 5469,
      "▁දිගු": 5470,
      "▁රිද්ද": 5471,
      "කලා.": 5472,
      "හෝ": 5473,
      "න්‍‍": 5474,
      "▁එමි": 5475,
      "▁අල": 5476,
      "වා...": 5477,
      "▁නිදි": 5478,
      "▁මාමේ": 5479,
      "▁හදනවා.": 5480,
      "▁නේද,": 5481,
      "▁නැත්තෙ": 5482,
      "▁කොල්ලෝ.": 5483,
      "▁ගියා,": 5484,
      "▁උත්සව": 5485,
      "▁සිරුර": 5486,
      "▁John": 5487,
      "man": 5488,
      "▁හඩ": 5489,
      "▁ඒක,": 5490,
      "▁වගේද": 5491,
      "▁කියන්නද": 5492,
      "▁ආරංචි": 5493,
      "▁අල්ලගන්න.": 5494,
      "▁තිබ්බේ.": 5495,
      "▁ප්‍රතික්ෂේප": 5496,
      "▁ඉන්නෙ,": 5497,
      "▁මන්දි": 5498,
      "▁ඇඳුම": 5499,
      "▁නැත.": 5500,
      "▁ඇමරිකානු": 5501,
      "▁ඉස්කෝලෙ": 5502,
      "eb": 5503,
      "ht": 5504,
      "▁න්‍ය": 5505,
      "▁කබ": 5506,
      "▁ආ..": 5507,
      "▁නිහ": 5508,
      "▁වලදි": 5509,
      "▁විද්‍යාඥ": 5510,
      "▁දුරකථනය": 5511,
      "කූල": 5512,
      "ෙයන්": 5513,
      "▁මන්ද": 5514,
      "▁වෑන්": 5515,
      "▁නර්": 5516,
      "ත්තේ": 5517,
      "▁ලයිට්": 5518,
      "▁නිවාස": 5519,
      "▁දිවුර": 5520,
      "▁පහළට": 5521,
      "▁විදිහට,": 5522,
      "▁වරක්": 5523,
      "▁ජෙනී": 5524,
      "▁තත්පරයක්": 5525,
      "▁ඊටපස්සේ": 5526,
      "▁මෘදු": 5527,
      "▁කඳවුර": 5528,
      "▁රුවිත": 5529,
      "දැක": 5530,
      "▁එනක": 5531,
      "▁හාර": 5532,
      "▁උතුර": 5533,
      "▁කැමතිද?": 5534,
      "▁පිටුව": 5535,
      "▁දෙපාර්ත": 5536,
      "▁හැමවෙලාවෙම": 5537,
      "y.": 5538,
      "කයට": 5539,
      "▁ගම්": 5540,
      "ස්ටන්": 5541,
      "▁ආයි": 5542,
      "නේ∙": 5543,
      "▁වැස්ස": 5544,
      "▁ගැනම": 5545,
      "▁බලනවා.": 5546,
      "▁‍කො": 5547,
      "▁\"ඇ": 5548,
      "▁\"ම": 5549,
      "▁\"මේ": 5550,
      "රා,": 5551,
      "යේ,": 5552,
      "▁පාහර": 5553,
      "කාරයො": 5554,
      "න්දුවක්": 5555,
      "▁ගහගෙන": 5556,
      "▁ගේන්න.": 5557,
      "▁දුවව": 5558,
      "end": 5559,
      "▁pro": 5560,
      "▁හැටි.": 5561,
      "▁උපදෙස්": 5562,
      "ap": 5563,
      "ෙත": 5564,
      "▁අදින්න": 5565,
      "▁නපුරු": 5566,
      "▁හතුර": 5567,
      "වාදය": 5568,
      "▁කරනු": 5569,
      "▁-නෑ": 5570,
      "වුණා": 5571,
      "නික්": 5572,
      "▁හිතෙන්නේ": 5573,
      "සුමක්": 5574,
      "▁බායි": 5575,
      "▁මයික්": 5576,
      "ෙනි.": 5577,
      "▁හදිස්ස": 5578,
      "▁You": 5579,
      "ෝම": 5580,
      "▁කටු": 5581,
      "ියක්.": 5582,
      "▁තප්ප": 5583,
      "▁ඉටු": 5584,
      "ගෙදර": 5585,
      "▁...එ": 5586,
      "තාවයක්": 5587,
      "▁තරහා": 5588,
      "▁කෙල්ලව": 5589,
      "▁ඒවට": 5590,
      "est": 5591,
      "▁පද්ධති": 5592,
      "▁මැඩම්": 5593,
      "▁තෑග්ගක්": 5594,
      "▁පල්ලෙ": 5595,
      "tt": 5596,
      "▁අන්ද": 5597,
      "▁විට්": 5598,
      "▁මිල්": 5599,
      "▁අවදි": 5600,
      "▁කෝටි": 5601,
      "▁මගහැ": 5602,
      "▁රොබ": 5603,
      "▁වතාවේ": 5604,
      "▁වයසක": 5605,
      "ය?": 5606,
      "වාර": 5607,
      "▁මට...": 5608,
      "▁කොහා": 5609,
      "▁සමර": 5610,
      "ම්බා": 5611,
      "▁පිටපත්": 5612,
      "▁කිව්වේ.": 5613,
      "▁හිටියා,": 5614,
      "▁පවුලක්": 5615,
      "▁තේරෙනව": 5616,
      "▁ප්‍රමාද": 5617,
      "▁තියනෙවා": 5618,
      "▁බොත්තම": 5619,
      "▁නහ": 5620,
      "▁දෑ": 5621,
      "නව,": 5622,
      "ටික්": 5623,
      "▁ගිණි": 5624,
      "▁අවධාන": 5625,
      "▁කිසිදෙයක්": 5626,
      "ගෙන්.": 5627,
      "▁මීටර්": 5628,
      "▁ආයෙමත්": 5629,
      "▁තියනවා,": 5630,
      "▁මැරුවේ": 5631,
      "▁පිහිට": 5632,
      "▁බහලු": 5633,
      "ූර": 5634,
      "▁]": 5635,
      "▁මින්": 5636,
      "▁කොන්දේ": 5637,
      "▁දිනු": 5638,
      "▁නොවෙන්න": 5639,
      "▁පාර්": 5640,
      "▁ලැබිලා": 5641,
      "▁සංකේ": 5642,
      "▁හතරක්": 5643,
      "▁එහනෙම්": 5644,
      "▁මැජික්": 5645,
      "ear": 5646,
      "ශාව": 5647,
      "▁-ඒ": 5648,
      "▁ඇනා": 5649,
      "ල්?": 5650,
      "විටම": 5651,
      "▁හරිගස්ස": 5652,
      "▁මුන්": 5653,
      "▁අවශ්": 5654,
      "▁තමයි...": 5655,
      "▁හොයාගත්තා.": 5656,
      "▁බලාගන්න.": 5657,
      "▁ඇතුළු": 5658,
      "▁විදිහේ": 5659,
      "▁නාකි": 5660,
      "▁රේඩියෝ": 5661,
      "▁තෝරාගන්න": 5662,
      "▁ෆ්ර": 5663,
      "▁බියර්": 5664,
      "▁දකුණට": 5665,
      "▁යෝජනා": 5666,
      "▁කාරණාව": 5667,
      "‍රු‍": 5668,
      "ah": 5669,
      "දෙ?": 5670,
      "▁තියෙ": 5671,
      "නිසා": 5672,
      "▁වෙලේම": 5673,
      "හුල": 5674,
      "▁පිහිය": 5675,
      "▁නැතිවෙලා": 5676,
      "▁බෑ∙": 5677,
      "▁අයගේ": 5678,
      "▁ගත්තේ?": 5679,
      "▁මහතා": 5680,
      "itle": 5681,
      "▁රිච": 5682,
      "▁සටන": 5683,
      "▁රාත්‍රියේ": 5684,
      "▁මධ්‍යස්ථා": 5685,
      "▁අතාරින්න": 5686,
      "▁ලුහුබ": 5687,
      "▁ෆිල්ම්": 5688,
      "▁හැංගිලා": 5689,
      "ඩෙ": 5690,
      "ළුවට": 5691,
      "▁ෙන": 5692,
      "▁වට්ට": 5693,
      "▁මේ,": 5694,
      "විච්": 5695,
      "▁\"මට": 5696,
      "▁සාම්ප": 5697,
      "▁පේනවද?": 5698,
      "▁ඕනෙද": 5699,
      "▁ගහන": 5700,
      "▁යනකොට": 5701,
      "▁සාමාජි": 5702,
      "▁වාර්ථා": 5703,
      "▁ph": 5704,
      "▁පින්තුර": 5705,
      "▁යටතේ": 5706,
      "▁සකසන්න": 5707,
      "▁බොරුවක්": 5708,
      "▁ආරංචියක්": 5709,
      "නොත්": 5710,
      "මයක්": 5711,
      "හල": 5712,
      "▁වල්": 5713,
      "▁අතු": 5714,
      "▁දයකෝ": 5715,
      "▁ඇත්": 5716,
      "▁ආවම": 5717,
      "▁මොකා": 5718,
      "▁යන්නම්": 5719,
      "▁බෑ...": 5720,
      "▁සාක්ක": 5721,
      "▁හෙමින්": 5722,
      "▁CIA": 5723,
      "▁වතාවට": 5724,
      "▁හීනයක්": 5725,
      "▁ඉක්මණට": 5726,
      "▁පෘථිවිය": 5727,
      "ණයට": 5728,
      "▁-මොක": 5729,
      "▁එකේ.": 5730,
      "▁හොල්": 5731,
      "▁හොරක": 5732,
      "▁යන්නයි": 5733,
      "▁\"මා": 5734,
      "▁සුද්ද": 5735,
      "▁කරා,": 5736,
      "▁ඉදිරිය": 5737,
      "▁ලියන්න": 5738,
      "▁පිලිගන්න": 5739,
      "▁පරිස්සමින්": 5740,
      "ගමු": 5741,
      "▁සෞ": 5742,
      "▁ඉව": 5743,
      "▁ඉරා": 5744,
      "▁ඇල්ල": 5745,
      "▁වුනේ.": 5746,
      "▁‍උ": 5747,
      "▁\"එ": 5748,
      "▁කොහෙටද": 5749,
      "නී,": 5750,
      "▁Th": 5751,
      "▁තත්වෙ": 5752,
      "▁නෙවයි∙": 5753,
      "▁විකාරයක්": 5754,
      "▁තහනම්": 5755,
      "පිරිතා": 5756,
      "▁කනගාටු": 5757,
      "කරුවෙක්": 5758,
      "ype": 5759,
      "‍ත": 5760,
      "▁පච්ච": 5761,
      "▁සපය": 5762,
      "▁සතියේ": 5763,
      "▁ඒජ": 5764,
      "▁බඳින්න": 5765,
      "▁කියයි": 5766,
      "▁තියන්": 5767,
      "▁දෙමා": 5768,
      "▁තිෙය": 5769,
      "▁දේ,": 5770,
      "▁පාස්": 5771,
      "▁බිහි": 5772,
      "▁හේතු": 5773,
      "කින්,": 5774,
      "▁පුතාට": 5775,
      "▁කියනවා,": 5776,
      "▁වර්‍": 5777,
      "▁අම්මව": 5778,
      "▁සතුටුයි.": 5779,
      "▁මචේ": 5780,
      "▁සන්නි": 5781,
      "▁අකමැති": 5782,
      "▁තියනේනෙ": 5783,
      "▁රව": 5784,
      "දිවි": 5785,
      "▁ජාන": 5786,
      "▁දෙන්නටම": 5787,
      "හිටිය": 5788,
      "▁යාවි.": 5789,
      "▁මහත්": 5790,
      "▁තුමා": 5791,
      "ියි,": 5792,
      "▁ඉඳගෙන": 5793,
      "▁වහගන්න": 5794,
      "▁ප්‍රතිප": 5795,
      "▁5ක්": 5796,
      "▁සංකීර්ණ": 5797,
      "කම්.": 5798,
      "බන්": 5799,
      "සියක්": 5800,
      "▁න්": 5801,
      "▁අපත": 5802,
      "▁හිරි": 5803,
      "ක්කාර": 5804,
      "හැකි": 5805,
      "▁කැරක": 5806,
      "▁ඔව්!": 5807,
      "▁කෙවින්": 5808,
      "▁හිටියොත්": 5809,
      "▁කුලියට": 5810,
      "▁පේනවද": 5811,
      "ග්.": 5812,
      "▁අල්ලගත්ත": 5813,
      "▁කාර්‍ය": 5814,
      "▁ගෙනි": 5815,
      "▁can": 5816,
      "▁ලියු": 5817,
      "▁The": 5818,
      "▁ගිහිං": 5819,
      "▁රාත්‍රියක්": 5820,
      "▁නොමැති": 5821,
      "▁උදෑසනක්": 5822,
      "▁ආරක්‍ෂිත": 5823,
      "▁‍කි‍ය": 5824,
      "ම?": 5825,
      "▁මස්සි": 5826,
      "▁හාව": 5827,
      "▁ගණි": 5828,
      "▁බඳි": 5829,
      "▁ජල": 5830,
      "සිස්": 5831,
      "▁මාටින්": 5832,
      "ෂ්.": 5833,
      "▁sh": 5834,
      "▁සීයා": 5835,
      "▁ප්‍රතිකාර": 5836,
      "▁හැසිරෙන්න": 5837,
      "io": 5838,
      "උඹ": 5839,
      "යේ.": 5840,
      "සර්.": 5841,
      "ක්‍‍": 5842,
      "▁දීම": 5843,
      "▁කරොත්": 5844,
      "▁බනි": 5845,
      "ස්ගේ": 5846,
      "▁විභා": 5847,
      "▁මුල්ම": 5848,
      "▁මරනවා.": 5849,
      "▁සංඛ": 5850,
      "ලී,": 5851,
      "▁ඔහේව": 5852,
      "▁ඇහුවා": 5853,
      "▁මනමා": 5854,
      "▁‍ක‍ර": 5855,
      "ද..": 5856,
      "ක්ත": 5857,
      "▁එනකොට": 5858,
      "▁අයේ": 5859,
      "▁සග": 5860,
      "▁ආකාරය": 5861,
      "▁දන්නා": 5862,
      "▁ගන්නම්": 5863,
      "▁මිනිස": 5864,
      "▁...එයා": 5865,
      "යාවට": 5866,
      "යෝ,": 5867,
      "▁මූන": 5868,
      "ජිනේ": 5869,
      "▁විහිලුවක්": 5870,
      "▁ආසන්න": 5871,
      "▁ජොබ්": 5872,
      "▁ස්වො": 5873,
      "▁බ්‍රිතාන්‍ය": 5874,
      "ධනය": 5875,
      "▁කහ": 5876,
      "▁නඩුව": 5877,
      "▁නාවික": 5878,
      "▁කොහෙන්": 5879,
      "▁‍වෙ": 5880,
      "▁කියලයි.": 5881,
      "▁සැමියා": 5882,
      "▁ගත්තොත්": 5883,
      "▁කැමතිම": 5884,
      "නාවරු": 5885,
      "▁2ක්": 5886,
      "ord": 5887,
      "▁අත්දැක": 5888,
      "▁පෙන්වන්න.": 5889,
      "▁ශාලා": 5890,
      "▁තත්වයට": 5891,
      "ගන්නේ?": 5892,
      "▁වනේනෙ": 5893,
      "▁එනවද": 5894,
      "▁මැස්ස": 5895,
      "▁දිගේ": 5896,
      "මට.": 5897,
      "රුවෙක්": 5898,
      "▁සියදිවි": 5899,
      "▁සම්බන්ධයෙන්": 5900,
      "▁wh": 5901,
      "▁අවලංගු": 5902,
      "ipp": 5903,
      "▁ඔනේ": 5904,
      "ලා!": 5905,
      "▁බෲ": 5906,
      "▁ඕන!": 5907,
      "▁බලයක්": 5908,
      "හරින්න": 5909,
      "▁මොනවාහරි": 5910,
      "▁ලස්සනට": 5911,
      "▁Sh": 5912,
      "හොඳ": 5913,
      "▁මුද්‍ර": 5914,
      "▁ජනපද": 5915,
      "▁නුඹේ": 5916,
      "▁ස්වාමි": 5917,
      "▁නොවේ.": 5918,
      "▁ඉතිහාස": 5919,
      "▁නැගෙනහිර": 5920,
      "bo": 5921,
      "යන්.": 5922,
      "ේශ": 5923,
      "ොප්": 5924,
      "ක්තිය": 5925,
      "රිෆ්": 5926,
      "වෙල": 5927,
      "කරා": 5928,
      "▁පිටින්": 5929,
      "▁කීවේ": 5930,
      "▁වැදග": 5931,
      "▁සැකයක්": 5932,
      "▁ඉක්මනට!": 5933,
      "▁මඟුල": 5934,
      "▁සම්පුර්ණය": 5935,
      "▁කබා": 5936,
      "▁පයි": 5937,
      "▁ඔයාගෝ": 5938,
      "▁පුච්ච": 5939,
      "▁හැතැ": 5940,
      "▁දැනෙනවා.": 5941,
      "▁දිහ": 5942,
      "▁දික්ක": 5943,
      "▁අහන්නෙ": 5944,
      "න්තය": 5945,
      "▁පවුලෙ": 5946,
      "▁ඇරල": 5947,
      "▁ධෛ": 5948,
      "මීට": 5949,
      "▁අභියෝ": 5950,
      "▁ප්‍රමාණවත්": 5951,
      "indow": 5952,
      "oo": 5953,
      "නයි": 5954,
      "හී": 5955,
      "▁-අපි": 5956,
      "නේ..": 5957,
      "▁තියන්නේ": 5958,
      "▁රස්": 5959,
      "▁හිතට": 5960,
      "▁ඔහුත්": 5961,
      "▁‍ද": 5962,
      "▁ෙවන්න": 5963,
      "ඔයාගේ": 5964,
      "▁පස්සෙ,": 5965,
      "▁පැහැදිළි": 5966,
      "▁කිවුවෙ": 5967,
      "▁අහ්...": 5968,
      "▁සම්භ": 5969,
      "here": 5970,
      "▁තැබ": 5971,
      "▁ශිල්": 5972,
      "ගන්වන්න": 5973,
      "▁your": 5974,
      "▁ස්ථිර": 5975,
      "▁බනේ": 5976,
      "▁මේඩ": 5977,
      "▁වෙයන්": 5978,
      "ත්වයක්": 5979,
      "▁වෙනුවෙන්,": 5980,
      "▁කටහ": 5981,
      "▁මොනවගේ": 5982,
      "▁ෂර්": 5983,
      "▁කූඩ": 5984,
      "▁ඇතුළත්": 5985,
      "▁වෝල්ටර්": 5986,
      "C)": 5987,
      "ly": 5988,
      "ජින්": 5989,
      "▁දුවට": 5990,
      "▁ඉම්": 5991,
      "▁ඇගි": 5992,
      "▁හැදි": 5993,
      "▁දිනා": 5994,
      "ඩි.": 5995,
      "▁මරන්න.": 5996,
      "▁නිසාද": 5997,
      "▁අතහැර": 5998,
      "▁උන්ගේ": 5999,
      "▁ගියේ.": 6000,
      "▁10ක්": 6001,
      "▁ඉස්පිරිතා": 6002,
      "▁ගිහිල්ල": 6003,
      "▁විවාහය": 6004,
      "▁පිස්සුවක්": 6005,
      "▁ආරාධනා": 6006,
      "ග්‍රාහ": 6007,
      "ද!": 6008,
      "▁ඔයාත්": 6009,
      "▁එකද?": 6010,
      "▁රඳ": 6011,
      "▁මොකවත්": 6012,
      "▁ජනේ": 6013,
      "සියානු": 6014,
      "▁වුනු": 6015,
      "▁ශබ්ද": 6016,
      "▁අයු": 6017,
      "▁ජීවිතයේ": 6018,
      "▁හම්බෙන්න": 6019,
      "▁ජෝර්": 6020,
      "▁කපලා": 6021,
      "කෙනෙක්": 6022,
      "▁ආලෝකය": 6023,
      "-1": 6024,
      "කේ.": 6025,
      "රෙන්": 6026,
      "▁කලි": 6027,
      "▁පවස": 6028,
      "▁උගන්න": 6029,
      "▁ආහ්": 6030,
      "▁ඔයාටයි": 6031,
      "හැම": 6032,
      "▁කිවා": 6033,
      "▁අරගන්න.": 6034,
      "▁අපේක්ෂ": 6035,
      "▁ඔහ්!": 6036,
      "▁උනා,": 6037,
      "▁හොරෙන්": 6038,
      "▁නැවති": 6039,
      "▁star": 6040,
      "▁වැඩසටහ": 6041,
      "▁ඩැනිය": 6042,
      "▁මයො": 6043,
      "▁ව්": 6044,
      "▁නැග": 6045,
      "▁මුදු": 6046,
      "▁තිබි": 6047,
      "▁සහයක": 6048,
      "▁ශ්‍රේ": 6049,
      "▁වායු": 6050,
      "▁මරනවා": 6051,
      "▁ගෙදර.": 6052,
      "▁මනුස්සයා": 6053,
      "▁රස්සාවක්": 6054,
      "▁නැගිටින්න": 6055,
      "▁දෙපාර්තමේන්තුව": 6056,
      "gin": 6057,
      "පදි": 6058,
      "‍ති": 6059,
      "▁මනෝ": 6060,
      "▁තට්ටු": 6061,
      "වුණ": 6062,
      "▁හරවන්න": 6063,
      "▁විශ්වාසයක්": 6064,
      "▁වගේම.": 6065,
      "▁වෙලාවකට": 6066,
      "▁ඉන්නවා!": 6067,
      "▁කේට්": 6068,
      "▁එනකන්": 6069,
      "බෝධ": 6070,
      "▁හැකියාවක්": 6071,
      "▁තේරුම?": 6072,
      "▁පෙම්වතා": 6073,
      "▁මිනිසුන්ට": 6074,
      "▁නොමැත": 6075,
      "සල්": 6076,
      "ේන්": 6077,
      "▁–": 6078,
      "▁ට්": 6079,
      "▁මෙන්": 6080,
      "▁හූ": 6081,
      "▁ගත්": 6082,
      "▁මට,": 6083,
      "▁කැඩු": 6084,
      "▁අවම": 6085,
      "▁කෙසේ": 6086,
      "කාන්": 6087,
      "▁සම්ප්‍ර": 6088,
      "▁වැඩියෙන්": 6089,
      "▁දර්ශනය": 6090,
      "▁වස්තුවේ.": 6091,
      "▁ඊලඟට": 6092,
      "ණීය": 6093,
      "▁කෞ": 6094,
      "▁පරාද": 6095,
      "ුවර්": 6096,
      "▁යකා": 6097,
      "▁වැදු": 6098,
      "▁දෙවල්": 6099,
      "▁ඔබතුමා": 6100,
      "▁ප්‍රංශ": 6101,
      "▁ඕනේ!": 6102,
      "මන්,": 6103,
      "▁පේනව": 6104,
      "▁පාරට": 6105,
      "▁කලාබර": 6106,
      "▁ෙසා": 6107,
      "▁දන්නවනෙ,": 6108,
      "▁මැරුවා.": 6109,
      "▁අනේ!": 6110,
      "▁පලමු": 6111,
      "▁යුද්ධය": 6112,
      "▁ලූතර්": 6113,
      "▁පටිගත": 6114,
      "ගල්": 6115,
      "▁එයි.": 6116,
      "▁නයි": 6117,
      "නාපති": 6118,
      "▁සමූ": 6119,
      "▁කිව්වද": 6120,
      "▁දිව": 6121,
      "▁ලැහැ": 6122,
      "▁මරල": 6123,
      "▁ෆොටෝ": 6124,
      "▁ප්‍රශ්ණය": 6125,
      "▁වුනා∙": 6126,
      "▁ඇහුනා": 6127,
      "යම": 6128,
      "‍හ": 6129,
      "▁තාව": 6130,
      "▁බන්.": 6131,
      "▁ඉගැ": 6132,
      "▁මටම": 6133,
      "▁හොඳයි...": 6134,
      "ප්ත": 6135,
      "▁කෙලින්": 6136,
      "▁යුරෝ": 6137,
      "▁ඔහ්හ්": 6138,
      "▁කේක්": 6139,
      "▁අනුකම්": 6140,
      "▁හොදයි∙": 6141,
      "ක්‍රි": 6142,
      "▁නැගිටින්න.": 6143,
      "▁හැදුවෙ": 6144,
      "age": 6145,
      "▁පෙම්වතිය": 6146,
      "▁පරිශීලක": 6147,
      "ive": 6148,
      "▁වන්නේ": 6149,
      "▁නාන": 6150,
      "▁ඕවා": 6151,
      "▁කිට්": 6152,
      "▁දැම": 6153,
      "▁හිතෙන්නෙ": 6154,
      "වත්,": 6155,
      "කිසි": 6156,
      "▁වහල": 6157,
      "▁දුරට": 6158,
      "▁යාළුවෙක්": 6159,
      "▁පැහැදිලිව": 6160,
      "▁ගනුදෙනු": 6161,
      "▁ඝාතනය": 6162,
      "▁වේලායුධ": 6163,
      "▁සන්නිවේද": 6164,
      "ld": 6165,
      "කලේ": 6166,
      "ධු": 6167,
      "යාම": 6168,
      "ිය.": 6169,
      "▁ද්": 6170,
      "▁පත්‍ර": 6171,
      "▁රණ": 6172,
      "▁වෙස්": 6173,
      "▁සිහිය": 6174,
      "▁සුරැ": 6175,
      "▁ෆැ": 6176,
      "▁නෙවෙයි!": 6177,
      "▁කොල්ලනේ.": 6178,
      "▁ජේසන්": 6179,
      "▁ලැබුනේ": 6180,
      "▁ගනින්": 6181,
      "▁පිටිපස්සෙ": 6182,
      "ලන්ඩ්": 6183,
      "▁ආත්මය": 6184,
      "▁සම්පුර්ණ": 6185,
      "▁ගොල්ලෝ": 6186,
      "▁චෝදනා": 6187,
      "iz": 6188,
      "කයින්": 6189,
      "ජය": 6190,
      "පං.": 6191,
      "▁ෂ්": 6192,
      "▁අංග": 6193,
      "▁ඇන්ඩ": 6194,
      "▁වැසි": 6195,
      "▁කලු": 6196,
      "▁කිව්වද?": 6197,
      "▁ඇයත්": 6198,
      "▁සහයෝ": 6199,
      "▁පිටසක්": 6200,
      "▁ගියාට": 6201,
      "▁බලාගන්නම්": 6202,
      "▁ශාප": 6203,
      "▁සහායක": 6204,
      "▁ලන්ඩන්": 6205,
      "▁මචේචර": 6206,
      "හම,": 6207,
      "▁නසා": 6208,
      "▁බං.": 6209,
      "▁යන්නද?": 6210,
      "▁දැනෙන්නෙ": 6211,
      "සුන්ව": 6212,
      "▁සහගත": 6213,
      "▁එකක්,": 6214,
      "▁කරනවා∙": 6215,
      "▁කරනකොට": 6216,
      "▁title": 6217,
      "න්ධන": 6218,
      "▁මිනිහෝ.": 6219,
      "▁මෙන්න,": 6220,
      "▁ආවට": 6221,
      "▁New": 6222,
      "කියන්න": 6223,
      "▁ගැලපෙන": 6224,
      "▁හාදයා": 6225,
      "වන්.": 6226,
      "▁අනව": 6227,
      "▁දඩුව": 6228,
      "▁ඒගොල්ලෝ": 6229,
      "ල්ව": 6230,
      "▁උං": 6231,
      "යක්ම": 6232,
      "▁තියල": 6233,
      "විල්ල": 6234,
      "▁මගේම": 6235,
      "ක්ෂණ": 6236,
      "ෙනවා,": 6237,
      "▁කෑගහ": 6238,
      "ෂ්ටික": 6239,
      "▁මිනිහෙක්.": 6240,
      "ලී.": 6241,
      "arl": 6242,
      "ප්පුව": 6243,
      "▁රටේ": 6244,
      "▁කර්මා": 6245,
      "▁සහාය": 6246,
      "▁ඡන්ද": 6247,
      "නුවන්": 6248,
      "▁නත්ත": 6249,
      "යිද": 6250,
      "▁ඇග": 6251,
      "▁කිවේ": 6252,
      "මාන්‍ය": 6253,
      "▁වගේ∙": 6254,
      "▁වැඩතල": 6255,
      "▁ඉතින්?": 6256,
      "▁එලියේ": 6257,
      "වැසිය": 6258,
      "▁වහගෙන": 6259,
      "▁සොයන්න": 6260,
      "▁විදුලිය": 6261,
      "▁චිත්‍රපට": 6262,
      "▁වගකීම": 6263,
      "▁හෙන්රි": 6264,
      "▁භාෂාව": 6265,
      "▁ප්ලේන්": 6266,
      "න්දි": 6267,
      "▁වනු": 6268,
      "▁වෙබ්": 6269,
      "▁\"මගේ": 6270,
      "▁චෞ": 6271,
      "▁බිත්තර": 6272,
      "▁බැරි?": 6273,
      "▁ගහනවා": 6274,
      "▁සීනු": 6275,
      "▁මැරුණා.": 6276,
      "▁මගුල්": 6277,
      "▁දොරවල්": 6278,
      "▁ඇමරිකා": 6279,
      "▁හෙලිකො": 6280,
      "▁පලය": 6281,
      "▁ඉවත": 6282,
      "කට,": 6283,
      "▁මැද්ද": 6284,
      "▁මාවත්": 6285,
      "▁වෙනවා...": 6286,
      "▁විදිහටම": 6287,
      "▁ලිංගික": 6288,
      "▁දීල": 6289,
      "▁හැදුවා.": 6290,
      "▁දමන්න": 6291,
      "ake": 6292,
      "▁හන්ට්": 6293,
      "නිමි": 6294,
      "▁වෙලේ": 6295,
      "▁කොහදෙ?": 6296,
      "▁මිනිත්තුවක්": 6297,
      "ංගම": 6298,
      "▁කුස්ස": 6299,
      "ාවි.": 6300,
      "▁ඉක්මනට,": 6301,
      "▁රෝස": 6302,
      "▁කාරණය": 6303,
      "▁තේරුම්ගන්න": 6304,
      "▁ඇහුවේ": 6305,
      "▁ඉපදු": 6306,
      "▁translate": 6307,
      "ක,": 6308,
      "පන": 6309,
      "ළඟ": 6310,
      "ීන": 6311,
      "▁අනාව": 6312,
      "▁ඔයාවත්": 6313,
      "▁විධානය": 6314,
      "හිලා": 6315,
      "▁‍ස": 6316,
      "ගත්තෙ": 6317,
      "▁ගහන්න.": 6318,
      "▁ජිම්": 6319,
      "▁කෙනාට": 6320,
      "▁පවුල්": 6321,
      "▁තියෙන්නෙ,": 6322,
      "ගත්තා,": 6323,
      "▁අඳුරු": 6324,
      "▁ගැහුවා": 6325,
      "▁ජුලිය": 6326,
      "▁පැරණි": 6327,
      "▁අවස්තාවක්": 6328,
      "ංකාර": 6329,
      "ටෙ": 6330,
      "යා...": 6331,
      "▁ඔක්සි": 6332,
      "▁යන්ත": 6333,
      "▁හිස": 6334,
      "▁ජලය": 6335,
      "සිගත": 6336,
      "▁සැරේ": 6337,
      "▁තියෙනවා!": 6338,
      "▁නමුත්,": 6339,
      "▁කෙල්ලෝ": 6340,
      "▁කීයට": 6341,
      "▁ගමන්.": 6342,
      "▁මචං": 6343,
      "▁ගෙනියන්න.": 6344,
      "▁පිටිපස්සෙන්": 6345,
      "▁චාරි": 6346,
      "▁‍ක‍": 6347,
      "ො,": 6348,
      "▁පමන": 6349,
      "▁එකෙ": 6350,
      "▁මේකනම්": 6351,
      "▁පැන්න": 6352,
      "▁මුකු": 6353,
      "ලේඛ": 6354,
      "▁වාසු": 6355,
      "▁වේදි": 6356,
      "▁ගැහැන": 6357,
      "▁බයවෙලා": 6358,
      "ක්‍රිය": 6359,
      "▁මචං.": 6360,
      "▁හැසිරීම": 6361,
      "▁ආයුබෝවන්": 6362,
      "▁ඔෆිස්": 6363,
      "▁මොඩියුලය": 6364,
      "▁රවට්ට": 6365,
      "sia": 6366,
      "භාවික": 6367,
      "රාවක්": 6368,
      "වන්නෙ": 6369,
      "▁පත්තර": 6370,
      "▁ගමු.": 6371,
      "▁මිට": 6372,
      "දුම": 6373,
      "▁ඕන∙": 6374,
      "▁‍බ": 6375,
      "▁ඔව්...": 6376,
      "▁ෆී": 6377,
      "▁සිද්ධිය": 6378,
      "▁නෙවයි.": 6379,
      "▁ඊටපස්සෙ": 6380,
      "▁දරුවන්": 6381,
      "▁‍ත‍මා": 6382,
      "▁උදාහර": 6383,
      "▁මොන්රෝ": 6384,
      "0}": 6385,
      "tr": 6386,
      "පට": 6387,
      "පදය": 6388,
      "▁ගන්": 6389,
      "▁විර": 6390,
      "▁‍මේ": 6391,
      "▁මැක්ස්": 6392,
      "▁ෆො": 6393,
      "▁නිසා...": 6394,
      "ith": 6395,
      "▁ඔක්කොටම": 6396,
      "▁පරිප": 6397,
      "▁කිරීමක්.": 6398,
      "▁රජය": 6399,
      "▁නෝනාවරු": 6400,
      "▁රහසක්": 6401,
      "▁-ඔව්,": 6402,
      "▁තෝරන්න": 6403,
      "▁කාවවත්": 6404,
      "▁ක්‍රීඩ": 6405,
      "▁වැදගත්ම": 6406,
      "පෑ": 6407,
      "▁හහ්?": 6408,
      "▁කියන්": 6409,
      "▁විරෝධ": 6410,
      "කටද": 6411,
      "▁ටොම": 6412,
      "▁ලැස්ති": 6413,
      "▁හේ,": 6414,
      "▁ගැහෙන්න": 6415,
      "▁දෙනවද": 6416,
      "▁වහන්න": 6417,
      "▁Reg": 6418,
      "රියාටි": 6419,
      "▁දර්ශන": 6420,
      "▁ටොම්": 6421,
      "▁කපිතා": 6422,
      "▁අසරණ": 6423,
      "11": 6424,
      "\\b": 6425,
      "ove": 6426,
      "ඩයක්": 6427,
      "ේ!": 6428,
      "‍.": 6429,
      "▁හෘ": 6430,
      "වුම": 6431,
      "▁ගැනත්": 6432,
      "▁ප්‍රවාහ": 6433,
      "▁කැඩ": 6434,
      "▁කරනවා...": 6435,
      "▁නිසාද?": 6436,
      "an.": 6437,
      "යෙකු": 6438,
      "orn": 6439,
      "▁සෙට්": 6440,
      "▁නාම": 6441,
      "▁සෙල්ලමක්": 6442,
      "▁නගරයට": 6443,
      "▁බෝම්බය": 6444,
      "▁මෙහෙයුම්": 6445,
      "▁ඡා": 6446,
      "▁කූපර්": 6447,
      "ption": 6448,
      "ශබ්ද": 6449,
      "▁_": 6450,
      "▁සනීප": 6451,
      "▁කරු": 6452,
      "▁ආව.": 6453,
      "▁නිරී": 6454,
      "▁දැන්?": 6455,
      "▁පැවැ": 6456,
      "▁හොයනවා": 6457,
      "▁උනත්,": 6458,
      "▁සෑම්.": 6459,
      "▁රහසිගත": 6460,
      "▁තුන්දෙන": 6461,
      "▁නිව්යෝක්": 6462,
      "▁ඉංජිනේ": 6463,
      "▁Region": 6464,
      "se": 6465,
      "▁ඒගොල්ල": 6466,
      "▁වේගෙන්": 6467,
      "▁ඉතාමත්": 6468,
      "▁ලෑස්තියි": 6469,
      "▁බැංකු": 6470,
      "ෂින්": 6471,
      "▁කෙන්ට්": 6472,
      "▁ගවේශ": 6473,
      "ම්ප්": 6474,
      "▁--": 6475,
      "▁ඒකනේ": 6476,
      "▁මොරියාටි": 6477,
      "▁කොණ්ඩ": 6478,
      "ටම,": 6479,
      "▁කලෙ": 6480,
      "පිත": 6481,
      "▁හැමෝවම": 6482,
      "▁අනන්‍ය": 6483,
      "ore": 6484,
      "▁විශා": 6485,
      "▁බෙරී": 6486,
      "▁එළිය": 6487,
      "▁අතරමං": 6488,
      "▁3ක්": 6489,
      "▁වාර්ථ": 6490,
      "▁වාව්.": 6491,
      "▁රත්‍රන්": 6492,
      "fs": 6493,
      "▁Name": 6494,
      "▁ඇබ්": 6495,
      "▁එකකින්": 6496,
      "▁විල": 6497,
      "▁හිරු": 6498,
      "වුණා.": 6499,
      "▁බිත්ත": 6500,
      "▁කෝට්": 6501,
      "▁වුනාද?": 6502,
      "▁ගොවි": 6503,
      "▁ලේස": 6504,
      "▁දුන්නොත්": 6505,
      "▁වෙඩිතිය": 6506,
      "▁අනුගමනය": 6507,
      "▁මචෝ.": 6508,
      "▁ආවෙ?": 6509,
      "▁කිහිපයකට": 6510,
      "▁පරිවර්තනය": 6511,
      "▁බ්ලැක්": 6512,
      "▁අප්‍රිකාව": 6513,
      "▁ඒජන්ත": 6514,
      "▁ආවද?": 6515,
      "රුනා": 6516,
      "▁හැදිලා": 6517,
      "▁දෙවි": 6518,
      "▁එක්කද": 6519,
      "රාදා": 6520,
      "▁ෙව": 6521,
      "හොද": 6522,
      "▁ආදරෙයි,": 6523,
      "▁පැටියෝ,": 6524,
      "▁වාදනය": 6525,
      "▁සන්ධ්‍යාව": 6526,
      "ip": 6527,
      "රෙන": 6528,
      "රස්": 6529,
      "ලගෙ": 6530,
      "ෆෝ": 6531,
      "ී!": 6532,
      "▁ඇහෙන්න": 6533,
      "▁නැන්ද": 6534,
      "▁වෙල": 6535,
      "▁දන්නෙ?": 6536,
      "▁අල්ලලා": 6537,
      "▁ගිහින්,": 6538,
      "▁පිටත": 6539,
      "▁බයයි": 6540,
      "▁cl": 6541,
      "▁රජයේ": 6542,
      "▁පසුගිය": 6543,
      "reat": 6544,
      "▁ඈත": 6545,
      "ussia": 6546,
      "▁කැමැත්තෙන්": 6547,
      "▁ලබන": 6548,
      "▁සංඥාව": 6549,
      "'t": 6550,
      "ce.": 6551,
      "වක": 6552,
      "▁කැන": 6553,
      "▁තාර": 6554,
      "▁යනු": 6555,
      "▁උනේ.": 6556,
      "මු!": 6557,
      "වේදී": 6558,
      "▁උඹලට": 6559,
      "▁ලොක": 6560,
      "▁හෙල්ල": 6561,
      "▁බැරිද": 6562,
      "ener": 6563,
      "ගැනීම්": 6564,
      "▁තීරණ": 6565,
      "▁රේච": 6566,
      "▁මොහොතේ": 6567,
      "▁පර්යේ": 6568,
      "▁ආරක්ශා": 6569,
      "▁මධ්‍යම": 6570,
      "▁තන": 6571,
      "ගේ.": 6572,
      "▁මෙවල": 6573,
      "▁වෙමින්": 6574,
      "▁නම්?": 6575,
      "▁...ඒක": 6576,
      "ච්චාර": 6577,
      "▁\"ස": 6578,
      "කාරයෙක්.": 6579,
      "▁ලැබෙනවා.": 6580,
      "er.": 6581,
      "▁කෑල්ලක්": 6582,
      "▁විශ්‍රා": 6583,
      "▁ප්‍රතිඵ": 6584,
      "▁වුණත්": 6585,
      "▁වැටෙන": 6586,
      "▁පිලිගන්නවා": 6587,
      "▁පැටියෝ": 6588,
      "▁සද්දේ": 6589,
      "▁අන්තර්": 6590,
      "▁විකල්පයක්": 6591,
      "ock": 6592,
      "▁සාකච්ඡ": 6593,
      "\\fs": 6594,
      "නමුත්": 6595,
      "න්ති": 6596,
      "▁නූ": 6597,
      "▁නින්": 6598,
      "▁-ඉ": 6599,
      "ල්ට": 6600,
      "▁ඔයාටම": 6601,
      "▁ස්කෝ": 6602,
      "සුන": 6603,
      "▁කලින්ම": 6604,
      "ලෝක": 6605,
      "▁කෙල්ලො": 6606,
      "▁ඒවගෝ": 6607,
      "▁ගියපු": 6608,
      "▁'%s": 6609,
      "▁දීපු": 6610,
      "ගැනීමක්": 6611,
      "ash": 6612,
      "▁දෙයියනේ,": 6613,
      "▁ගබඩා": 6614,
      "▁ගාණක්": 6615,
      "▁අධ්‍යක්ෂක": 6616,
      "▁කර්මාන්ත": 6617,
      "1cHFF": 6618,
      "3\\": 6619,
      "\\1cHFF": 6620,
      "බ්‍ර": 6621,
      "ලෙන්න": 6622,
      "ශේෂ": 6623,
      "▁le": 6624,
      "▁එවුන්": 6625,
      "▁අවේ": 6626,
      "▁ගන්නේ?": 6627,
      "▁අපගේ": 6628,
      "▁මොඩ": 6629,
      "▁වැළ": 6630,
      "▁හිතපු": 6631,
      "▁කැලෑ": 6632,
      "▁කලේ,": 6633,
      "▁...මට": 6634,
      "▁මොකක්,": 6635,
      "▁ඇත්තක්": 6636,
      "▁තාත්තගෙ": 6637,
      "යෙක්,": 6638,
      "▁තරම": 6639,
      "an0}": 6640,
      "▁22": 6641,
      "▁පිටවෙන්න": 6642,
      "දෙනවා.": 6643,
      "▁පසුබි": 6644,
      "▁ගණනක්": 6645,
      "▁ඊලගට": 6646,
      "▁බොරුවට": 6647,
      "▁හයියක්": 6648,
      "▁{\\3": 6649,
      "\\fs\\b": 6650,
      "▁'%s'": 6651,
      "ොතින්": 6652,
      "▁වයින්": 6653,
      "▁මේස": 6654,
      "▁එක...": 6655,
      "▁එකනේ": 6656,
      "▁කිට්,": 6657,
      "ery": 6658,
      "▁සංස්": 6659,
      "▁තාත්තා,": 6660,
      "▁pl": 6661,
      "▁කණගාටුයි,": 6662,
      "▁පරිස්සමෙන්": 6663,
      "▁බෝම්බයක්": 6664,
      "▁ආරක්ෂිතයි.": 6665,
      "▁අඳුන": 6666,
      "▁තිස්සෙ": 6667,
      "▁නිෂ්පාද": 6668,
      "ට...": 6669,
      "▁an": 6670,
      "▁.\"": 6671,
      "▁කැළ": 6672,
      "▁කියන්නෙ.": 6673,
      "▁සිගර": 6674,
      "▁ගන්නව": 6675,
      "▁බලන්න...": 6676,
      "▁බලන්නකෝ": 6677,
      "කාගාර": 6678,
      "න්ද්‍ර": 6679,
      "▁අතරින්": 6680,
      "▁තමුන්ගේ": 6681,
      "▁සිටිනවා.": 6682,
      "▁අඩුවෙන්": 6683,
      "▁ළමයින්ට": 6684,
      "▁my": 6685,
      "▁යාලුවෝ": 6686,
      "▁වැරදියට": 6687,
      "▁ඇදුම": 6688,
      "▁චීන": 6689,
      "▁නිළධාර": 6690,
      "▁අවස්තාව": 6691,
      "▁සැපයු": 6692,
      "▁සිතුවි": 6693,
      "▁මුකුත්ම": 6694,
      "3\\an0}": 6695,
      "\\fs\\b3\\an0}": 6696,
      "AN": 6697,
      "‍දා": 6698,
      "▁කරේ.": 6699,
      "ස්ප": 6700,
      "▁ට්‍රේ": 6701,
      "▁පුලූ": 6702,
      "▁හදන්න.": 6703,
      "▁නියමිත": 6704,
      "▁ලොස්": 6705,
      "▁විනාඩිය": 6706,
      "▁නාද": 6707,
      "▁බලාගෙන!": 6708,
      "▁දුරස්ථ": 6709,
      "▁අඩුව": 6710,
      "▁60": 6711,
      "▁යාළුවෝ": 6712,
      "▁පුහුණුව": 6713,
      "▁හ්ම්ම්.": 6714,
      "▁විවේකයක්": 6715,
      "▁that": 6716,
      "▁දෙවැනි": 6717,
      "පල්": 6718,
      "‍ටි": 6719,
      "‍රා": 6720,
      "▁කදු": 6721,
      "න්නු": 6722,
      "▁දනේ": 6723,
      "▁තර්": 6724,
      "▁කරද්දි": 6725,
      "▁ඉන්ධන": 6726,
      "▁පුතේ": 6727,
      "▁දෙයි": 6728,
      "▁අහන": 6729,
      "▁සැහැ": 6730,
      "▁ටෙක්": 6731,
      "මන්ඩ්": 6732,
      "▁ලැබෙන්නෙ": 6733,
      "▁එහෙනං": 6734,
      "▁හම්බවෙ": 6735,
      "▁ගොන": 6736,
      "▁හොයන්න.": 6737,
      "ස්ටෝ": 6738,
      "▁පොරොන්දුව": 6739,
      "▁හිරවෙලා": 6740,
      "▁ගණන": 6741,
      "▁not": 6742,
      "▁වැටුන": 6743,
      "▁නොදන්නා": 6744,
      "▁සමීප": 6745,
      "▁දඬුව": 6746,
      "▁අත්වැ": 6747,
      "▁පදි": 6748,
      "යිට": 6749,
      "▁සෘ": 6750,
      "▁මගේ.": 6751,
      "දානය": 6752,
      "▁කෙහෙ": 6753,
      "▁කළේ.": 6754,
      "▁රැල්ෆ්": 6755,
      "▁බෝල": 6756,
      "▁ඊටත්": 6757,
      "▁වහන්": 6758,
      "▁පවුලට": 6759,
      "▁මරණයට": 6760,
      "▁ස්වයංක්‍රීය": 6761,
      "▁ගැන්වීම": 6762,
      "15": 6763,
      "ie": 6764,
      "කවු": 6765,
      "දර්": 6766,
      "බලා": 6767,
      "▁=": 6768,
      "න්න...": 6769,
      "▁වදි": 6770,
      "▁වමට": 6771,
      "▁පථ": 6772,
      "▁තක්ක": 6773,
      "▁ඒයි.": 6774,
      "ුවෙක්": 6775,
      "▁ආහ්,": 6776,
      "▁මොකෙක්": 6777,
      "▁හරිනේ?": 6778,
      "ද්දා": 6779,
      "සිටි": 6780,
      "ටියේ": 6781,
      "ම්බි": 6782,
      "▁ඩය": 6783,
      "▁හිටියද?": 6784,
      "▁හානියක්": 6785,
      "ලින්.": 6786,
      "▁පිළිගන්නවා": 6787,
      "▁අහ්හ්": 6788,
      "▁තුනකට": 6789,
      "▁ශිෂ්‍ය": 6790,
      "▁දෙයියනේ!": 6791,
      "▁විමර්ශ": 6792,
      "▁//": 6793,
      "▁පැතුම්.": 6794,
      "▁∙∙": 6795,
      "▁වම": 6796,
      "යාරූප": 6797,
      "▁එළි": 6798,
      "▁කරව": 6799,
      "▁මෙක්සි": 6800,
      "▁ගැනයි": 6801,
      "තරා": 6802,
      "▁‍ති": 6803,
      "▁ටර්": 6804,
      "▁මෙහෙය": 6805,
      "▁ශීත": 6806,
      "ත්‍රී": 6807,
      "▁ළග": 6808,
      "▁අල්ලන්": 6809,
      "යන්ගේ": 6810,
      "▁නාට": 6811,
      "▁හෝම්ස්": 6812,
      "▁උනාම": 6813,
      "▁අතරතුර": 6814,
      "▁කේතය": 6815,
      "▁රොබ්": 6816,
      "▁මැරෙනවා.": 6817,
      "▁වාහනය": 6818,
      "▁මාරුව": 6819,
      "▁අතුරුදන්": 6820,
      "▁පුතේ.": 6821,
      "▁බහින්න": 6822,
      "▁චැප": 6823,
      "▁නරක්": 6824,
      "p:": 6825,
      "▁හලෙ": 6826,
      "▁පරා": 6827,
      "▁මම?": 6828,
      "▁ඉරණ": 6829,
      "▁යටින්": 6830,
      "▁වෙයි,": 6831,
      "▁නිකී": 6832,
      "▁දැන්ම.": 6833,
      "▁කලෝ": 6834,
      "ක්ෂණය": 6835,
      "කිත්": 6836,
      "▁තාත්තේ?": 6837,
      "▁කාලයේ": 6838,
      "▁ඇවිල්ලා.": 6839,
      "▁වැඩිම": 6840,
      "▁කාරයා": 6841,
      "▁සොය": 6842,
      "▁පරීක්ෂණය": 6843,
      "▁DNA": 6844,
      "▁දෙනවා!": 6845,
      "ett": 6846,
      "▁එක්කෙනා": 6847,
      "▁ෆ්‍රෙ": 6848,
      "abel": 6849,
      "▁it.": 6850,
      "▁ඔලුවට": 6851,
      "▁බැංකුව": 6852,
      "▁ප්‍රාර්ථනා": 6853,
      "\\1cHFF0": 6854,
      "AR": 6855,
      "තැන්": 6856,
      "‍හෙ": 6857,
      "▁හම්": 6858,
      "▁හුව": 6859,
      "▁උමං": 6860,
      "▁විට,": 6861,
      "▁ඔහුගෙන්": 6862,
      "▁එහෙත්": 6863,
      "කිරීම්": 6864,
      "▁යානයේ": 6865,
      "▁දැක්කම": 6866,
      "▁කරන්නෙ,": 6867,
      "▁කණගා": 6868,
      "පැත්ත": 6869,
      "▁රුධි": 6870,
      "▁htt": 6871,
      "▁භයානකයි.": 6872,
      "▁තත්වයක්": 6873,
      "▁බැලුවා.": 6874,
      "වම.": 6875,
      "▁ඒකට.": 6876,
      "▁ආචාර": 6877,
      "වුමක්": 6878,
      "▁කිලෝ": 6879,
      "▁ජංගම": 6880,
      "▁මේකද": 6881,
      "▁වගේ!": 6882,
      "▁ගිලන්": 6883,
      "▁එකක්ම": 6884,
      "▁තාත්තයි": 6885,
      "▁ඩයි": 6886,
      "▁ගත්ත.": 6887,
      "▁විදියේ": 6888,
      "erman": 6889,
      "▁පාරෙ": 6890,
      "▁උන්ගෙ": 6891,
      "▁මෝඩයෝ": 6892,
      "▁පූජා": 6893,
      "▁state": 6894,
      "▁-ඔයාට": 6895,
      "▁සකස්": 6896,
      "▁හර්ලි": 6897,
      "▁අභ්‍යන්තර": 6898,
      "\\1cHFF0\\fs\\b3\\an0}": 6899,
      "රා.": 6900,
      "▁එරි": 6901,
      "ත්‍‍": 6902,
      "▁මේක.": 6903,
      "▁මාසෙ": 6904,
      "▁වුනාම": 6905,
      "▁වැඩිහිටිය": 6906,
      "▁ඕනා?": 6907,
      "▁ලියුම්": 6908,
      "▁විශේෂයෙන්ම": 6909,
      "▁ඔතනින්": 6910,
      "▁හලෝ,": 6911,
      "▁කාමරේට": 6912,
      "▁සම්පූර්ණයෙන්": 6913,
      "▁ඩේවිඩ්": 6914,
      "▁පව්": 6915,
      "ස්මක්": 6916,
      "ර්ම": 6917,
      "▁උගන්ව": 6918,
      "▁ආවා,": 6919,
      "▁වැසිය": 6920,
      "කරනවා.": 6921,
      "කරපු": 6922,
      "▁...ඒත්": 6923,
      "▁\"අපි": 6924,
      "▁ඩු": 6925,
      "▁හිටිය.": 6926,
      "▁දවසක්.": 6927,
      "ෑන්ඩ්": 6928,
      "ase": 6929,
      "▁සකස": 6930,
      "▁කවදාහරි": 6931,
      "▁නිවැරද": 6932,
      "▁ගණුදෙනු": 6933,
      "▁මහෙෙ": 6934,
      "▁ස්වොයර්": 6935,
      "▁http:": 6936,
      "R)": 6937,
      "ject": 6938,
      "බව": 6939,
      "මුව": 6940,
      "ුනා.": 6941,
      "ම්හා": 6942,
      "▁යන්න?": 6943,
      "සියාව": 6944,
      "කරගෙන": 6945,
      "▁‍මො": 6946,
      "▁අහගන්න": 6947,
      "▁නැතිව.": 6948,
      "▁කෙලව": 6949,
      "▁ලැබි": 6950,
      "▁තැනක්.": 6951,
      "▁සමාවනේන": 6952,
      "▁තේරුණා.": 6953,
      "▁ඉඳී": 6954,
      "▁නීතී": 6955,
      "▁එක්සත්": 6956,
      "▁පසුපස": 6957,
      "▁action": 6958,
      "▁මැඩම්.": 6959,
      "▁වගෙයි.": 6960,
      "ශිර්": 6961,
      "▁කරුනාකරල": 6962,
      "cHFFFF": 6963,
      "▁මුනගැ": 6964,
      "▁බිස්නස්": 6965,
      "▁අවශ්ය": 6966,
      "▁ඔක්සිජන්": 6967,
      "කාවක්": 6968,
      "ෙව": 6969,
      "‍නි": 6970,
      "▁කන්න.": 6971,
      "▁වරු": 6972,
      "▁පං": 6973,
      "ෙනු": 6974,
      "▁-මො": 6975,
      "▁කියමු": 6976,
      "▁ආහ්!": 6977,
      "යි.\"": 6978,
      "▁මොකු": 6979,
      "▁ඉන්න...": 6980,
      "▁පිහ": 6981,
      "▁පැයකට": 6982,
      "▁පැතුම්": 6983,
      "▁‍රැ": 6984,
      "▁ඇයගෙ": 6985,
      "▁යාවත්": 6986,
      "ans": 6987,
      "▁කවදද": 6988,
      "▁පහස": 6989,
      "▁බව,": 6990,
      "▁සොහො": 6991,
      "▁රාජධාන": 6992,
      "▁ජාතියේ": 6993,
      "▁රෙඩ්": 6994,
      "FF\\1cHFF0\\fs\\b3\\an0}": 6995,
      "▁පරිගණක": 6996,
      "▁එරෙහිව": 6997,
      "▁{\\3cHFFFF": 6998,
      "▁හුවමාරු": 6999,
      "▁{\\3cHFFFFFF\\1cHFF0\\fs\\b3\\an0}": 7000,
      "50": 7001,
      "ye": 7002,
      "තො": 7003,
      "පල්ලා": 7004,
      "ලයෙන්": 7005,
      "▁වලි": 7006,
      "▁රණ්ඩු": 7007,
      "▁ඉන්නම්.": 7008,
      "▁වගේ..": 7009,
      "▁කියලයි": 7010,
      "▁පුළුවන්...": 7011,
      "▁යාළුවන්": 7012,
      "▁ඔයගොල්ල": 7013,
      "▁ගත්තු": 7014,
      "ant": 7015,
      "▁වෙයිද?": 7016,
      "▁හිතුනා": 7017,
      "▁පුදුමයක්": 7018,
      "පියල්": 7019,
      "▁දහයක්": 7020,
      "▁ඔන∙": 7021,
      "ශීලී": 7022,
      "▁නොදැන": 7023,
      "▁ඔහෙට": 7024,
      "▁අනිවාර්යයෙන්ම": 7025,
      "▁නැහැනේ.": 7026,
      "▁ගුරුවර": 7027,
      "▁කබඩි": 7028,
      "ave": 7029,
      "ශෝ": 7030,
      "▁කනෙ": 7031,
      "▁සතියක්": 7032,
      "▁බදු": 7033,
      "ුවොත්": 7034,
      "▁යද්දි": 7035,
      "▁දෙපාරක්": 7036,
      "මාකාර": 7037,
      "ලිලා": 7038,
      "▁බැට්": 7039,
      "▁දේවි": 7040,
      "▁‍ඒ": 7041,
      "▁ඇති!": 7042,
      "▁එකක්වත්": 7043,
      "▁ලැබුණා": 7044,
      "▁ඉවරයි!": 7045,
      "▁තේරුනේ": 7046,
      "▁රැන්ච": 7047,
      "▁අනකේ": 7048,
      "▁ඉදිරියේ": 7049,
      "▁මහත්මයා,": 7050,
      "▁mon": 7051,
      "▁විදියටම": 7052,
      "▁පන්තිය": 7053,
      "▁ක්‍රීඩා": 7054,
      "▁ආයතනය": 7055,
      "\",": 7056,
      "දක්": 7057,
      "පහ": 7058,
      "▁විලා": 7059,
      "▁නිආ": 7060,
      "සාස්": 7061,
      "▁තානාපති": 7062,
      "ඩි,": 7063,
      "▁නියමු": 7064,
      "රීමක්": 7065,
      "▁පෙට්ටි": 7066,
      "▁හුර": 7067,
      "▁පිටපත": 7068,
      "යන්,": 7069,
      "▁වෙනස්.": 7070,
      "▁උබව": 7071,
      "▁සී.": 7072,
      "▁දාන්න,": 7073,
      "වීන්": 7074,
      "▁අධිරාජ": 7075,
      "▁මහාචාර්ය": 7076,
      "▁විශිෂ්ඨ": 7077,
      "▁වුවමනා": 7078,
      "▁සිගරට්": 7079,
      "ලන්න": 7080,
      "▁:": 7081,
      "▁වහාම": 7082,
      "▁හඳ": 7083,
      "▁ඇයි,": 7084,
      "▁තියනේ": 7085,
      "ල්ලෙන්": 7086,
      "▁දේපල": 7087,
      "▁මැති": 7088,
      "බ්බ": 7089,
      "▁සේරා": 7090,
      "▁පෙන්නන්න.": 7091,
      "▁ස්ටාර්": 7092,
      "▁but": 7093,
      "▁ආසයි": 7094,
      "▁ගණනය": 7095,
      "▁වේදනා": 7096,
      "▁හැඟීම්": 7097,
      "▁උදෑසනක්.": 7098,
      "▁කළමණා": 7099,
      "▁හැංගෙන්න": 7100,
      "▁ඔරලෝසුව": 7101,
      "▁න්‍යෂ්ටික": 7102,
      "nu": 7103,
      "▁u": 7104,
      "යාගන්න": 7105,
      "▁-කො": 7106,
      "▁අප්‍ර": 7107,
      "▁විවර": 7108,
      "▁හොරු": 7109,
      "ලිමත්": 7110,
      "▁තමා,": 7111,
      "▁උපකරණය": 7112,
      "▁ක්‍රිස්": 7113,
      "▁කොල්ලනේ,": 7114,
      "▁අරගෙන.": 7115,
      "▁count": 7116,
      "▁පාලකය": 7117,
      "▁තියනවා∙": 7118,
      "ick": 7119,
      "▁වදවෙන්න": 7120,
      "▁පැහැරගෙන": 7121,
      "▁වෙළඳ": 7122,
      "▁ගෙනාවා.": 7123,
      "▁චන්ද්‍රි": 7124,
      "▁හියුගෝ": 7125,
      "iv": 7126,
      "▁ඥා": 7127,
      "න්‍": 7128,
      "න්...": 7129,
      "▁මඩ": 7130,
      "▁අල්": 7131,
      "▁අඳි": 7132,
      "▁හප": 7133,
      "▁සතා": 7134,
      "▁ඒවා.": 7135,
      "▁-මේ": 7136,
      "▁උගන්වන්න": 7137,
      "▁ආ...": 7138,
      "ල්ලට": 7139,
      "▁යන්න...": 7140,
      "▁දැන්...": 7141,
      "▁ගන්නවා,": 7142,
      "▁කෙනෙකු": 7143,
      "▁නොවී": 7144,
      "▁විතර.": 7145,
      "▁කීවා": 7146,
      "▁කාරයෝ": 7147,
      "▁will": 7148,
      "▁කණ්ඩායමට": 7149,
      "▁Ar": 7150,
      "▁කඩුව": 7151,
      "▁විහිළුව": 7152,
      "▁කට්ටියක්": 7153,
      "▁රේස්": 7154,
      "▁ස්ථානයට": 7155,
      "▁පදක්ක": 7156,
      "▁ඉස්කෝලේ": 7157,
      "▁හැකියි.": 7158,
      "▁කරුණාව": 7159,
      "az": 7160,
      "සාර": 7161,
      "▁කපා": 7162,
      "▁ගමට": 7163,
      "▁බහු": 7164,
      "▁වෙල්": 7165,
      "▁වෙනකල්": 7166,
      "▁ඔව්..": 7167,
      "▁සැළ": 7168,
      "▁ගත්තේ.": 7169,
      "▁බිද": 7170,
      "▁හිතන්නේ,": 7171,
      "▁බාග": 7172,
      "▁පිළිගන්නවා.": 7173,
      "▁අම්මා,": 7174,
      "▁දුරක්": 7175,
      "▁මන්දා": 7176,
      "own": 7177,
      "▁රාත්‍රී": 7178,
      "▁මියගි": 7179,
      "▁ක්ලාක්∙": 7180,
      "▁ඩිරෙක්ටරිය": 7181,
      "හන්.": 7182,
      "ෙේ": 7183,
      "‍රි": 7184,
      "▁කයි": 7185,
      "▁සැන": 7186,
      "ම්මා": 7187,
      "▁මමම": 7188,
      "ල්විල්": 7189,
      "නවා∙": 7190,
      "නාට": 7191,
      "▁ගැන∙": 7192,
      "▁නම්..": 7193,
      "▁වලදී": 7194,
      "▁විශ්ලේ": 7195,
      "▁බිත්තිය": 7196,
      "▁ක්ලික්": 7197,
      "▁පැත්තෙන්.": 7198,
      "▁බැරිවුනා": 7199,
      "▁300": 7200,
      "▁(_C)": 7201,
      "▁නවතින්න.": 7202,
      "▁නොමි": 7203,
      "▁අනුව,": 7204,
      "▁භූත": 7205,
      "▁තිස්සෙම": 7206,
      "▁මිලදී": 7207,
      "▁රිචඩ්": 7208,
      "mb": 7209,
      "og": 7210,
      "රියා.": 7211,
      "▁වෙලාද": 7212,
      "▁කියලවත්": 7213,
      "▁\"ආ": 7214,
      "තුවක්": 7215,
      "වරයා": 7216,
      "▁අම්මයි": 7217,
      "▁සම්බන්ධය": 7218,
      "▁පිස්සුද?": 7219,
      "▁ගානකට": 7220,
      "▁අසල්": 7221,
      "▁කියවන්නේ?": 7222,
      "▁ප්‍රාණ": 7223,
      "▁බයික්": 7224,
      "▁හින්දා.": 7225,
      "▁බඩගිනි": 7226,
      "▁ක්ලෙයර්": 7227,
      "▁මොකුත්ම": 7228,
      "(ර්": 7229,
      "ශය": 7230,
      "ේ...": 7231,
      "▁පාව": 7232,
      "▁ගින්": 7233,
      "▁ගස්ස": 7234,
      "▁ඒවි": 7235,
      "▁ඇන්ට": 7236,
      "න්නේ,": 7237,
      "▁කොලේ": 7238,
      "▁දෙකේ": 7239,
      "▁උදව": 7240,
      "▁මහත": 7241,
      "සෙල්": 7242,
      "▁බෝට්ට": 7243,
      "▁wor": 7244,
      "▁මයිකල්.": 7245,
      "▁ෆ්ලෑ": 7246,
      "▁අල්ලාගෙන": 7247,
      "▁ගලවන්න": 7248,
      "▁සේවාදායක": 7249,
      "▁ගබඩාව": 7250,
      "▁ලෑස්තියි.": 7251,
      "▁නිමවන්න": 7252,
      "කව": 7253,
      "ටුවක්": 7254,
      "බිය": 7255,
      "බහුල": 7256,
      "ෙකා": 7257,
      "▁වීමේ": 7258,
      "▁සජී": 7259,
      "ුවි": 7260,
      "ස්තා": 7261,
      "▁කරන්නම්,": 7262,
      "▁දෙවන": 7263,
      "දුන්න": 7264,
      "▁ප්‍රථ": 7265,
      "▁ප්‍රිය": 7266,
      "▁වෙලාද?": 7267,
      "▁කැසි": 7268,
      "දායි": 7269,
      "▁කියල...": 7270,
      "▁...අපි": 7271,
      "▁\"සි": 7272,
      "▁සැත්": 7273,
      "▁සමාවෙන්න!": 7274,
      "▁දවසට": 7275,
      "රේට": 7276,
      "ලීන": 7277,
      "▁මතකයි.": 7278,
      "▁උබලා": 7279,
      "▁හරියට,": 7280,
      "▁සීසර්": 7281,
      "▁පුතා,": 7282,
      "▁බලාගෙන.": 7283,
      "▁ප්‍රශ්නයක්.": 7284,
      "ස්ට්‍ර": 7285,
      "▁පෙරනිමි": 7286,
      "▁ග්‍රී": 7287,
      "▁බැල්ලිගෙ": 7288,
      "▁වේදිකාව": 7289,
      "තව": 7290,
      "▁ශ්": 7291,
      "▁කමා": 7292,
      "▁හයක්": 7293,
      "▁ඒත්තු": 7294,
      "▁නෑනෙ.": 7295,
      "▁නිකුත්": 7296,
      "▁මිනිය": 7297,
      "ීම.": 7298,
      "කුනු": 7299,
      "▁මාම": 7300,
      "කාරියක්": 7301,
      "▁තරගය": 7302,
      "▁තියෙනවා..": 7303,
      "▁පොතක්": 7304,
      "▁උදව්ව": 7305,
      "▁නැත්ද?": 7306,
      "▁මතකයන්": 7307,
      "▁හොයනවා.": 7308,
      "▁sub": 7309,
      "▁ගමන්ම": 7310,
      "▁මාර්ගයක්": 7311,
      "▁මහත්තයා,": 7312,
      "▁රාජු": 7313,
      "▁නායකයා": 7314,
      "▁කන්ඩාය": 7315,
      "▁අතීතය": 7316,
      "කන්.": 7317,
      "මියෙක්": 7318,
      "වන්,": 7319,
      "ෆා": 7320,
      "▁$": 7321,
      "▁දණ": 7322,
      "▁පප": 7323,
      "▁බදා": 7324,
      "නා!": 7325,
      "කෝ!": 7326,
      "▁මිනිහගේ": 7327,
      "▁රාජා": 7328,
      "▁සිටිනවා": 7329,
      "▁රජතුමා": 7330,
      "▁label": 7331,
      "▁දියුණු": 7332,
      "▁තොරා": 7333,
      "▁ස්වභාව": 7334,
      "▁ඉස්සෙල්ල": 7335,
      "r.": 7336,
      "ඟු": 7337,
      "පෙන්": 7338,
      "බල්": 7339,
      "ලන": 7340,
      "▁එෙ": 7341,
      "▁අර්ථ": 7342,
      "▁යම": 7343,
      "▁නැව්": 7344,
      "▁අවබෝධ": 7345,
      "▁පුළුවන්?": 7346,
      "සුරු": 7347,
      "▁ශේ": 7348,
      "▁පරන": 7349,
      "▁පරම්ප": 7350,
      "▁කෝවි": 7351,
      "පා,": 7352,
      "▁ඉවරයි,": 7353,
      "▁දෙකෙන්": 7354,
      "▁මිනිහකේ": 7355,
      "නීය": 7356,
      "▁තාත්තා!": 7357,
      "▁අනිවාර්යෙන්": 7358,
      "▁මයිකල්,": 7359,
      "▁මඟුලක්": 7360,
      "▁දෙයියනේ.": 7361,
      "▁නීතිඥ": 7362,
      "▁ඇඳගෙන": 7363,
      "▁ෆ්‍රැන්": 7364,
      "▁නිශ්ච": 7365,
      "▁තට්ටුවේ": 7366,
      "▁සාරා": 7367,
      "▁රාහුල්": 7368,
      "▁හෘද": 7369,
      "ck": 7370,
      "ය්": 7371,
      "ලකට": 7372,
      "වො": 7373,
      "වැනි": 7374,
      "▁නඩ": 7375,
      "▁නමින්": 7376,
      "ර්ඝ": 7377,
      "▁කොප": 7378,
      "▁බලපන්": 7379,
      "▁දන්නෑ.": 7380,
      "▁වගේමයි.": 7381,
      "▁සමාවෙන්න?": 7382,
      "▁ඔක්කෝම": 7383,
      "▁බයයි.": 7384,
      "▁col": 7385,
      "▁with": 7386,
      "▁ගුඩ්": 7387,
      "▁ඇරො": 7388,
      "▁අසාමාන්‍ය": 7389,
      "▁හදන්නෙ.": 7390,
      "▁කුමරිය": 7391,
      "▁ගමනක්": 7392,
      "▁බබෝ.": 7393,
      "▁උදෑසනක්,": 7394,
      "▁vi": 7395,
      "▁සිත්ගන්නා": 7396,
      "▁මිසයිල": 7397,
      "▁විට්නි": 7398,
      "-4": 7399,
      "-a": 7400,
      "තාර": 7401,
      "දූ": 7402,
      "▁කථ": 7403,
      "න්නයි": 7404,
      "යින්ට": 7405,
      "▁ඇස": 7406,
      "▁එක!": 7407,
      "නව!": 7408,
      "▁පිච්ච": 7409,
      "▁අවස්ථා": 7410,
      "▁නොකි": 7411,
      "පාත": 7412,
      "▁කලාට": 7413,
      "▁සෙල්": 7414,
      "▁මෙයාලා": 7415,
      "▁බෝත": 7416,
      "▁බේරගත්ත": 7417,
      "▁භාගයක්": 7418,
      "▁සුරංග": 7419,
      "▁ඕනදෙ?": 7420,
      "▁{\\cH": 7421,
      "▁කෝච්චිය": 7422,
      "භූත": 7423,
      "▁විශ්‍රාම": 7424,
      "පියෝ": 7425,
      "මද": 7426,
      "සං": 7427,
      "ෙහාම": 7428,
      "▁එයි,": 7429,
      "▁පළි": 7430,
      "ස්‍‍": 7431,
      "ත්තක්": 7432,
      "▁ආශිර්": 7433,
      "රුණු": 7434,
      "▁ඕනෙ?": 7435,
      "▁පැයක්": 7436,
      "▁කියන්නද?": 7437,
      "▁මාතෘ": 7438,
      "▁මුද්ද": 7439,
      "හාස": 7440,
      "▁අයගෙන්": 7441,
      "▁කළින්": 7442,
      "න්දෑ": 7443,
      "▁රැව": 7444,
      "න්ධි": 7445,
      "▁දෙවියෝ": 7446,
      "▁කෙල්ලට": 7447,
      "▁ජැක්?": 7448,
      "▁අනතුරේ": 7449,
      "▁දියමන්": 7450,
      "▁ක්ලාක්,": 7451,
      "▁ඇතුලත්": 7452,
      "▁දරුවෙක්": 7453,
      "▁දුපතේ": 7454,
      "▁අවුල?": 7455,
      "▁විධියට": 7456,
      "▁ගින්දර": 7457,
      "ik": 7458,
      "කීය": 7459,
      "▁නම.": 7460,
      "▁සොර": 7461,
      "▁සභා": 7462,
      "▁කරගත්තා": 7463,
      "ත්තා": 7464,
      "▁අපි...": 7465,
      "▁මෙෙහ": 7466,
      "මානය": 7467,
      "▁දුරින්": 7468,
      "▁බිම්": 7469,
      "▁Count": 7470,
      "▁පැත්තේ.": 7471,
      "වැසි": 7472,
      "▁මෙයාගෙ": 7473,
      "▁නවත්තන්න!": 7474,
      "▁ඇඳුමක්": 7475,
      "▁great": 7476,
      "▁stat": 7477,
      "▁අංශක": 7478,
      "▁හෙලවෙන්න": 7479,
      "ies.": 7480,
      "ගමන්": 7481,
      "▁ත්‍යා": 7482,
      "▁ඔස": 7483,
      "▁ඔයට": 7484,
      "වාහි": 7485,
      "ත්තුවෙන්": 7486,
      "▁විලිය": 7487,
      "▁කොතන": 7488,
      "▁දැනගන්න.": 7489,
      "නෙවා": 7490,
      "▁වලක්": 7491,
      "වරයෙක්": 7492,
      "▁.....": 7493,
      "කයකේ": 7494,
      "වතී": 7495,
      "▁පෙති": 7496,
      "▁තාත්තාගේ": 7497,
      "▁කරාද?": 7498,
      "▁මගුලේ": 7499,
      "▁නැගිට්ට": 7500,
      "▁කාමරයේ": 7501,
      "▁......": 7502,
      "▁පවතින": 7503,
      "▁ඇපල්": 7504,
      "▁ෙකාෙහ": 7505,
      "▁ෂෙරිෆ්": 7506,
      "▁කදවුර": 7507,
      "▁ඔලිවර්": 7508,
      "▁චෞද්": 7509,
      "න,": 7510,
      "▁සතෙක්": 7511,
      "ස්...": 7512,
      "▁අපූ": 7513,
      "▁මෙතෙන්ට": 7514,
      "▁යන්න∙": 7515,
      "▁නැහැ?": 7516,
      "▁සිඩ්": 7517,
      "▁සමහරු": 7518,
      "▁‍වේ": 7519,
      "▁දැනුනා": 7520,
      "▁දුප්ප": 7521,
      "▁දන්නවාද": 7522,
      "▁භට": 7523,
      "ණි.": 7524,
      "▁වෙන්නේ,": 7525,
      "▁මෙයාල": 7526,
      "▁Mar": 7527,
      "ජ්.": 7528,
      "▁බේරගන්න.": 7529,
      "ෑන්ග්": 7530,
      "▁එක්තරා": 7531,
      "ich": 7532,
      "▁ජැක්!": 7533,
      "▁ජනප්‍ර": 7534,
      "▁යාලුවො": 7535,
      "▁වෙනව,": 7536,
      "▁අනතුරුදායක": 7537,
      "▁කූඩුව": 7538,
      "▁චිත්‍රපටි": 7539,
      "▁නිලධාරියෙක්": 7540,
      "▁සතියකට": 7541,
      "▁ටේලර්": 7542,
      "▁Region/": 7543,
      "▁අධිරාජ්‍ය": 7544,
      "RL": 7545,
      "ජනය": 7546,
      "▁කවර": 7547,
      "▁උරුම": 7548,
      "▁ලවු": 7549,
      "▁රහිත": 7550,
      "විම": 7551,
      "▁ඉන්න∙": 7552,
      "▁ඉන්න..": 7553,
      "දුරුව": 7554,
      "කටත්": 7555,
      "▁...මේ": 7556,
      "කිරි": 7557,
      "▁\"‍": 7558,
      "▁තුලින්": 7559,
      "▁භෞ": 7560,
      "▁පෙම්": 7561,
      "▁ගොදුරු": 7562,
      "▁පරීක්ෂණයක්": 7563,
      "▁window": 7564,
      "▁ඇහුණ": 7565,
      "▁දැම්මේ": 7566,
      "▁do": 7567,
      "▁කිහිපය": 7568,
      "▁හිතුවද": 7569,
      "▁අදහසක්.": 7570,
      "▁ගනුදෙනුව": 7571,
      "▁ඇවිදගෙන": 7572,
      "▁ශුද්ධ": 7573,
      "▁ඉතිහාසය": 7574,
      "▁ජුලියට්": 7575,
      "pl": 7576,
      "රයේ": 7577,
      "‍යක්": 7578,
      "න්වා": 7579,
      "▁ව්‍ය": 7580,
      "▁හදුනා": 7581,
      "▁දඟ": 7582,
      "▁මොහු": 7583,
      "▁එක්කගනෙ": 7584,
      "▁පැතික": 7585,
      "▁කියන්න?": 7586,
      "▁නොකල": 7587,
      "▁පාටිය": 7588,
      "ero": 7589,
      "▁කැමති.": 7590,
      "▁සමාවෙන්න∙": 7591,
      "▁දෙකයි": 7592,
      "▁දකින්න.": 7593,
      "▁4ක්": 7594,
      "ත්‍යානු": 7595,
      "▁කැමතියි,": 7596,
      "▁සලකුණක්": 7597,
      "▁It": 7598,
      "▁නිදාගෙන": 7599,
      "කාශය": 7600,
      "▁මැඩම්,": 7601,
      "▁හැඟීමක්": 7602,
      "▁ඔවු,": 7603,
      "ext": 7604,
      "▁කළමනා": 7605,
      "▁නැඟිටි": 7606,
      "▁සොල්දාදුව": 7607,
      "කා.": 7608,
      "‍ද?": 7609,
      "▁Z": 7610,
      "▁හැන": 7611,
      "▁එක∙": 7612,
      "මාන්": 7613,
      "▁බැන්ද": 7614,
      "▁එන්න...": 7615,
      "▁සර්...": 7616,
      "▁මොකක්ද,": 7617,
      "▁තරංග": 7618,
      "▁නැත්තම්,": 7619,
      "▁ඒවාට": 7620,
      "▁රැඳ": 7621,
      "▁බාත්": 7622,
      "▁කොල්ලනේ": 7623,
      "▁දාන්න!": 7624,
      "▁ලෝකයට": 7625,
      "▁දක්වන්න": 7626,
      "▁නිශ්ශබ්ද": 7627,
      "▁කම්මැ": 7628,
      "▁එන්ජි": 7629,
      "▁නීතීඥ": 7630,
      "ං!": 7631,
      "දෑ": 7632,
      "වම,": 7633,
      "▁ධාර": 7634,
      "▁එවිට": 7635,
      "▁එන්නේ?": 7636,
      "▁කරගත්තා.": 7637,
      "▁ඕහ්!": 7638,
      "▁ඕනවට": 7639,
      "▁හොරා": 7640,
      "වුනු": 7641,
      "▁හැබෑ": 7642,
      "▁වෙහෙ": 7643,
      "දිසි": 7644,
      "ගන්නෙ": 7645,
      "▁ගැන...": 7646,
      "කරණයක්": 7647,
      "▁අවන්": 7648,
      "▁\"ඔයා": 7649,
      "▁දුෂ්ට": 7650,
      "▁ඩොර": 7651,
      "▁තුලට": 7652,
      "න්වල": 7653,
      "▁එලවන්න": 7654,
      "▁23": 7655,
      "▁හැමෝගෙම": 7656,
      "▁එයයි": 7657,
      "▁බායි,": 7658,
      "ෆ්ට්": 7659,
      "ගැනි": 7660,
      "▁වර්ත": 7661,
      "▁කඩන්න": 7662,
      "▁ස්ටා": 7663,
      "▁තමුසෙව": 7664,
      "▁පුදුමයි": 7665,
      "▁සලකා": 7666,
      "▁විශේෂඥ": 7667,
      "▁තිබුණේ": 7668,
      "▁ක්ලාර්ක්": 7669,
      "▁අධික": 7670,
      "▁ලිපිගො": 7671,
      "▁කාන්තාවක්": 7672,
      "▁ඇහුනද?": 7673,
      "▁title:": 7674,
      "▁ඒවගෝම": 7675,
      "i.": 7676,
      "ජනා": 7677,
      "වනේන": 7678,
      "▁ත්": 7679,
      "▁තට්ටුව": 7680,
      "▁බෙන": 7681,
      "ුවර": 7682,
      "▁කියනවද?": 7683,
      "ර්ෂ": 7684,
      "▁ගැනීමේ": 7685,
      "ීමෙන්": 7686,
      "▁කැඳ": 7687,
      "ක්ෂි": 7688,
      "▁එහෙමද": 7689,
      "▁නොවැ": 7690,
      "▁හදල": 7691,
      "▁සාමය": 7692,
      "▁බිත්ති": 7693,
      "▁ලැබෙයි": 7694,
      "▁කරාට": 7695,
      "වනැ": 7696,
      "isc": 7697,
      "▁ඉස්සරහින්": 7698,
      "▁ඉහලට": 7699,
      "▁දහය": 7700,
      "▁පාසලේ": 7701,
      "▁Charl": 7702,
      "▁මිනීමැරුම්": 7703,
      "▁දරාගන්න": 7704,
      "▁සම්පුර්ණයෙන්ම": 7705,
      "▁ලැහැස්ති": 7706,
      "▁action:": 7707,
      "▁සභාපති": 7708,
      "කන": 7709,
      "චර්": 7710,
      "සී.": 7711,
      "▁z": 7712,
      "▁ඔෙහ": 7713,
      "▁පුවත්": 7714,
      "ම්..": 7715,
      "නි...": 7716,
      "▁අපිටත්": 7717,
      "▁...ඇ": 7718,
      "▁අහපු": 7719,
      "▁විශ්වාසයි.": 7720,
      "▁ආදරණීය": 7721,
      "ත්වයට": 7722,
      "▁කෑමක්": 7723,
      "▁හෝම්": 7724,
      "▁යනකම්": 7725,
      "▁මැරුන": 7726,
      "▁පිරිසක්": 7727,
      "▁කාලෙක": 7728,
      "▁පිලිගන්නවා.": 7729,
      "▁රුපියල්": 7730,
      "▁how": 7731,
      "▁නිකමට": 7732,
      "▁බීලා": 7733,
      "▁gr": 7734,
      "▁පින්තූරයක්": 7735,
      "▁පාසල්": 7736,
      "▁තාක්ෂණය": 7737,
      "▁ත්‍රස්තවාද": 7738,
      "▁ජීවතුන්": 7739,
      "▁පිංතූ": 7740,
      "▁Country": 7741,
      "per": 7742,
      "ෙන?": 7743,
      "▁යූ": 7744,
      "▁වික්ට": 7745,
      "▁ආධාර": 7746,
      "▁නිමැ": 7747,
      "▁ගැනි": 7748,
      "▁බලං": 7749,
      "▁බලන්නෙ": 7750,
      "▁කාත්": 7751,
      "▁පැකේ": 7752,
      "▁‍හ": 7753,
      "නෙත්": 7754,
      "ටුප": 7755,
      "▁නිසා∙": 7756,
      "▁ඇමතුම": 7757,
      "▁උදේට": 7758,
      "▁තියාගන්න,": 7759,
      "▁උත්තරයක්": 7760,
      "▁පමණයි": 7761,
      "▁ෆ්‍රෑන්": 7762,
      "▁කාවද": 7763,
      "▁ආරක්ශිත": 7764,
      "කෘතිය": 7765,
      "▁පාඩුවේ": 7766,
      "▁නැවතිලා": 7767,
      "▁වේලායුධම්": 7768,
      "-හ්": 7769,
      "සම්": 7770,
      "▁වකු": 7771,
      "▁පත්ත": 7772,
      "▁සඟ": 7773,
      "▁සතුව": 7774,
      "▁සබ්": 7775,
      "▁විස්ස": 7776,
      "▁වැදිලා": 7777,
      "ටියා": 7778,
      "▁ස්ටි": 7779,
      "කින": 7780,
      "▁ට්‍රි": 7781,
      "▁සර්..": 7782,
      "▁හිතන්නේ.": 7783,
      "▁මොනතරම්": 7784,
      "▁දෙකකින්": 7785,
      "▁අමන": 7786,
      "▁දන්නවනේ.": 7787,
      "▁ඕනා,": 7788,
      "▁ඇමතුම්": 7789,
      "▁නවත්ව": 7790,
      "▁brit": 7791,
      "පැතු": 7792,
      "▁ආයුධය": 7793,
      "▁සමාගමේ": 7794,
      "▁කැප්ටන්.": 7795,
      "▁රෝහලේ": 7796,
      "ain_": 7797,
      "▁item": 7798,
      "▁ගුරුතුම": 7799,
      "▁චරිත": 7800,
      "▁පරාජය": 7801,
      "▁මණ්ඩලය": 7802,
      "▁රගපා": 7803,
      "▁බහලුම": 7804,
      "▁counties.": 7805,
      "▁great-": 7806,
      "▁britain_": 7807,
      "AT": 7808,
      "ළේ": 7809,
      "‍ස": 7810,
      "‍වා": 7811,
      "ක්...": 7812,
      "▁හුවම": 7813,
      "▁පම": 7814,
      "ම්‍‍": 7815,
      "▁ඇණ": 7816,
      "▁මටනම්": 7817,
      "ාව.": 7818,
      "▁කියන්න...": 7819,
      "▁ගන්න∙": 7820,
      "▁ඕනේ...": 7821,
      "▁දිල්ලි": 7822,
      "මන්ත්‍ර": 7823,
      "කින්ම": 7824,
      "▁එලියෙ": 7825,
      "▁දෙකක": 7826,
      "▁ෙවලා": 7827,
      "▁ඉදගෙන": 7828,
      "our": 7829,
      "▁දීප්": 7830,
      "▁සඳහන්": 7831,
      "▁fran": 7832,
      "▁වෙතට": 7833,
      "▁දෙයියනේ": 7834,
      "▁-ඔව්.": 7835,
      "▁පිටුපස": 7836,
      "▁යෝධ": 7837,
      "▁ෆේන්": 7838,
      "හොමද": 7839,
      "▁පීඩනය": 7840,
      "▁තාවකාලික": 7841,
      "▁ඡායාරූප": 7842,
      "▁නාට්‍ය": 7843,
      "▁හුවමාර": 7844,
      "▁france.": 7845,
      "වකාශ": 7846,
      "▁us": 7847,
      "▁පූර්": 7848,
      "ෙනුත්": 7849,
      "▁ලද": 7850,
      "▁වුනේ,": 7851,
      "▁අරා": 7852,
      "▁ඇත්තෙ": 7853,
      "ලුයි": 7854,
      "▁නොවුන": 7855,
      "▁බලන්න?": 7856,
      "▁බිලියන": 7857,
      "▁..මම": 7858,
      "▁ආදරයක්": 7859,
      "▁මෙහේ.": 7860,
      "▁ඈතට": 7861,
      "▁සාක්ෂියක්": 7862,
      "▁කපන්න": 7863,
      "▁දේශප්‍රේ": 7864,
      "▁වටිනාකම": 7865,
      "▁ගණුදෙනුව": 7866,
      "▁මට්ටමේ": 7867,
      "▁හෝටලේ": 7868,
      "▁කුළුණ": 7869,
      "▁රසායන": 7870,
      "ippin": 7871,
      "▁අභියෝග": 7872,
      "ටී": 7873,
      "පරි": 7874,
      "▁අධ්‍ය": 7875,
      "▁එයා.": 7876,
      "ලිව": 7877,
      "▁සිකු": 7878,
      "▁‍ග": 7879,
      "නම්..": 7880,
      "▁අයිතියක්": 7881,
      "බාධ": 7882,
      "▁ලේසියෙන්": 7883,
      "▁තිබ්බ.": 7884,
      "▁උනාද?": 7885,
      "▁පොලිසියේ": 7886,
      "▁එකෙන්.": 7887,
      "▁අම්මගේ": 7888,
      "ict": 7889,
      "▁ලුති": 7890,
      "▁භූමි": 7891,
      "▁වැඩසටහන්": 7892,
      "▁වැඩකරන": 7893,
      "▁කාර්යාලය": 7894,
      "▁හොල්මන්": 7895,
      "▁දික්කසාද": 7896,
      "▁පිටසක්වල": 7897,
      "ුනේ": 7898,
      "ක්‍ය": 7899,
      "▁ඔක": 7900,
      "වා..": 7901,
      "▁රන්": 7902,
      "▁ජැන": 7903,
      "▁දෙස": 7904,
      "▁නිර": 7905,
      "ට්ටම": 7906,
      "දුරා": 7907,
      "▁නොනැ": 7908,
      "▁සාජ": 7909,
      "ංගලන්ත": 7910,
      "▁කරනවා..": 7911,
      "▁Cal": 7912,
      "▁ඉදල": 7913,
      "▁කීව": 7914,
      "▁ch": 7915,
      "▁ෂෝන්": 7916,
      "▁ලගින්": 7917,
      "▁සූදාන": 7918,
      "▁පෙන්ව": 7919,
      "▁හොරෙක්": 7920,
      "▁කරුණාකරලා!": 7921,
      "▁වටපිට": 7922,
      "දෙන්න.": 7923,
      "▁ප්‍රමාණයක්": 7924,
      "ෙනි,": 7925,
      "▁ක්‍රමලේඛ": 7926,
      "▁ජයග්‍රහණය": 7927,
      "ix": 7928,
      "ම..": 7929,
      "▁එන්නේ.": 7930,
      "▁නන්දු": 7931,
      "▁හයෙි": 7932,
      "වාගන්න": 7933,
      "▁ඒක..": 7934,
      "ෙන්?": 7935,
      "නාගාර": 7936,
      "▁හැච්": 7937,
      "▁අවට": 7938,
      "▁දාලා.": 7939,
      "▁සහභා": 7940,
      "▁සැඟ": 7941,
      "▁පාද": 7942,
      "▁තාත්තෙ": 7943,
      "▁කෙලි": 7944,
      "කාමී": 7945,
      "▁තරමක්": 7946,
      "▁හෙයි.": 7947,
      "කයන්ට": 7948,
      "▁මිනිස්සුන්ගේ": 7949,
      "▁ආදරෙන්": 7950,
      "▁යුද්ද": 7951,
      "▁ගහනවා.": 7952,
      "▁ගේට්ටුව": 7953,
      "▁ගොදුර": 7954,
      "▁ගියෙ": 7955,
      "රියන්": 7956,
      "▁ගමන්,": 7957,
      "පන්දු": 7958,
      "▁කිව්වෙ.": 7959,
      "▁මගුලෙ": 7960,
      "▁වත්කම්": 7961,
      "▁පණිවු": 7962,
      "000ක්": 7963,
      "▁හදවතේ": 7964,
      "▁අල්ලගන්න!": 7965,
      "▁ආයුධයක්": 7966,
      "▁අම්මේ!": 7967,
      "▁ඇන්ජ": 7968,
      "▁‍එ‍ක": 7969,
      "▁මහත්මිය.": 7970,
      "umb": 7971,
      "▁කීපයකට": 7972,
      "▁ප්‍රයෝජනවත්": 7973,
      "▁කැඩිලා": 7974,
      "▁ලියාපදි": 7975,
      "▁කුණාටුව": 7976,
      "▁ක්ලබ්": 7977,
      "S)": 7978,
      "ime": 7979,
      "land": 7980,
      "නින්": 7981,
      "▁කල්ල": 7982,
      "▁සභ": 7983,
      "▁සල්ල": 7984,
      "ෙන.": 7985,
      "▁කරවන්න.": 7986,
      "▁යද්දී": 7987,
      "▁ඒක!": 7988,
      "▁විච": 7989,
      "සි.": 7990,
      "▁කාන්ත": 7991,
      "▁මුදා": 7992,
      "▁දිස්": 7993,
      "▁නැතිවුනා": 7994,
      "▁බෑ..": 7995,
      "▁බලන්නම්": 7996,
      "▁පස්සෙ.": 7997,
      "ගත්තොත්": 7998,
      "▁බොන": 7999,
      "▁ගත්තට": 8000,
      "▁කුලී": 8001,
      "ank": 8002,
      "▁ගෙනාවේ": 8003,
      "▁ඉඳන්.": 8004,
      "▁ජේම්": 8005,
      "▁පිළිතුරු": 8006,
      "▁ඇරොන්": 8007,
      "▁ගෑස්": 8008,
      "▁වැටුනා": 8009,
      "▁පමණයි.": 8010,
      "▁හලෝ.": 8011,
      "▁භූම": 8012,
      "▁භූමිය": 8013,
      "▁ටැංක": 8014,
      "▁පුතෙක්": 8015,
      "▁අයියෝ.": 8016,
      "▁ගණුදෙනුවක්": 8017,
      "▁දූපතට": 8018,
      "▁ඵල": 8019,
      "▁එකිනෙකාට": 8020,
      "▁-හරි.": 8021,
      "▁ප්‍රධානි": 8022,
      "▁***": 8023,
      "▁උරහි": 8024,
      "▁කෞතු": 8025,
      "i1": 8026,
      "ov": 8027,
      "▁අසි": 8028,
      "▁කරුණු": 8029,
      "ස්ලා": 8030,
      "▁ඕකට": 8031,
      "▁වෙනුව": 8032,
      "මුහු": 8033,
      "▁ඉන්නයි": 8034,
      "▁බලු": 8035,
      "▁පිසා": 8036,
      "▁ගන්න?": 8037,
      "▁\"ඔ": 8038,
      "ළුවා": 8039,
      "ගත්තු": 8040,
      "කා,": 8041,
      "▁දැක්කොත්": 8042,
      "▁කවුරුන්": 8043,
      "▁තාත්තාට": 8044,
      "▁නවත්තලා": 8045,
      "▁විසද": 8046,
      "▁මැරිල": 8047,
      "▁සම්මුඛ": 8048,
      "▁ඉතාම": 8049,
      "▁තමුන්ගෙ": 8050,
      "▁පරක්කුයි.": 8051,
      "▁නිර්මාණ": 8052,
      "▁ජෙනරල්": 8053,
      "▁අඩුමගා": 8054,
      "▁හිනාවෙන්න": 8055,
      "▁ගිවිස": 8056,
      "▁හැගීම්": 8057,
      "▁ඉස්සෙල්ලා": 8058,
      "▁info:": 8059,
      "‍රු‍දී": 8060,
      "▁ඉගැන්න": 8061,
      "▁month": 8062,
      "-action": 8063,
      "▁ජනප්‍රිය": 8064,
      "-2": 8065,
      "ලියක්": 8066,
      "ලා?": 8067,
      "▁ඉඩක්": 8068,
      "▁උෂ්": 8069,
      "▁වෙන්නම්.": 8070,
      "▁තියෙන.": 8071,
      "▁ඔයගොල්ලෝ": 8072,
      "ine": 8073,
      "▁ශී": 8074,
      "▁සාජන්": 8075,
      "▁ෆු": 8076,
      "▁21": 8077,
      "▁දවසෙ": 8078,
      "කොල": 8079,
      "▁නැත්නම්...": 8080,
      "▁වුනොත්,": 8081,
      "▁මයික්.": 8082,
      "▁නිදිය": 8083,
      "▁පිස්සු.": 8084,
      "▁රාජකීය": 8085,
      "▁පුදුමාකාර": 8086,
      "▁Oh": 8087,
      "▁විද්‍යාගාර": 8088,
      "▁විකුණන්න": 8089,
      "දෙනාම": 8090,
      "▁කැරලි": 8091,
      "▁පරාජිත": 8092,
      "▁සත්තකින්ම.": 8093,
      "▁සෞඛ": 8094,
      "▁නිමැවුම්": 8095,
      "ter": 8096,
      "කෑ": 8097,
      "න්ග": 8098,
      "▁කමෝ": 8099,
      "▁පත්තු": 8100,
      "▁ඉතුර": 8101,
      "▁රමෝ": 8102,
      "▁හිතල": 8103,
      "▁වැඩක්,": 8104,
      "▁ඕනේ∙": 8105,
      "▁කැමැති": 8106,
      "▁කෙනෙක්ම": 8107,
      "▁ශබ්": 8108,
      "▁ගොඩක්ම": 8109,
      "▁මරන": 8110,
      "▁ඇත්තටම?": 8111,
      "▁ජීවිතයට": 8112,
      "▁ඉන්නවා∙": 8113,
      "▁හරියට...": 8114,
      "රීන්": 8115,
      "බෝල්": 8116,
      "▁I'": 8117,
      "old": 8118,
      "ilippin": 8119,
      "▁ග්‍රෙ": 8120,
      "▁සයිමන්": 8121,
      "▁අවුරුද්දක්": 8122,
      "▁ඛා": 8123,
      "ක්‍රමණය": 8124,
      "▁ප්‍රවෘත්ති": 8125,
      "▁උල්කා": 8126,
      "▁සිරාවටම": 8127,
      "▁‍උ‍": 8128,
      "ure": 8129,
      "කර්ශ": 8130,
      "ටො": 8131,
      "මකට": 8132,
      "ළා": 8133,
      "▁*": 8134,
      "න්නම්.": 8135,
      "▁-ආ": 8136,
      "ාවර": 8137,
      "▁එකකුත්": 8138,
      "නාත්මක": 8139,
      "▁රෙන": 8140,
      "විට.": 8141,
      "▁ඔබත්": 8142,
      "ක්ෂිත": 8143,
      "▁අවහිර": 8144,
      "▁බලන්න..": 8145,
      "▁ශැන": 8146,
      "▁වේලාව": 8147,
      "▁..අ": 8148,
      "දෙක": 8149,
      "යෙකුට": 8150,
      "▁රැවු": 8151,
      "▁ඔයාලත්": 8152,
      "▁හොයන්නෙ": 8153,
      "▁දන්නව,": 8154,
      "▁පරීක්ශ": 8155,
      "▁කෙනා,": 8156,
      "▁ඇතුලට.": 8157,
      "▁පිරික්": 8158,
      "▁වර්ගය": 8159,
      "ask": 8160,
      "වනවා,": 8161,
      "▁සියල්ලම": 8162,
      "▁කැමැත්තක්": 8163,
      "▁නිවසට": 8164,
      "▁අමාරුවෙන්": 8165,
      "▁ගෞරවයක්": 8166,
      "▁අක්කා": 8167,
      "සමහර": 8168,
      "▁රැජිණ": 8169,
      "▁භෞතික": 8170,
      "ටස්": 8171,
      "මක": 8172,
      "▁#": 8173,
      "▁මෑන්": 8174,
      "▁ඔනෙ": 8175,
      "▁එත": 8176,
      "▁එෙහ": 8177,
      "▁අව්": 8178,
      "යිකාන්": 8179,
      "ලාස්": 8180,
      "▁බ්‍රේ": 8181,
      "▁ඉමු.": 8182,
      "ව්ස්": 8183,
      "▁වෙනම": 8184,
      "▁හිතුවට": 8185,
      "ට්?": 8186,
      "▁දෙන්න∙": 8187,
      "▁පුළුවන්!": 8188,
      "▁දුෂ්": 8189,
      "▁වල,": 8190,
      "▁නැතිවෙන්න": 8191,
      "▁ලැබුණු": 8192,
      "▁කාර්‍යා": 8193,
      "ඳුර": 8194,
      "▁ගියාද?": 8195,
      "▁උනොත්,": 8196,
      "▁සීමා": 8197,
      "▁සහෝදරයා,": 8198,
      "▁උත්සවය": 8199,
      "නැහැ": 8200,
      "▁විසඳු": 8201,
      "▁වතුරට": 8202,
      "▁ළමයින්ව": 8203,
      "▁වොල්": 8204,
      "▁නුඹට": 8205,
      "▁නැතත්": 8206,
      "ung": 8207,
      "▁හැදුවේ.": 8208,
      "▁‍එ‍": 8209,
      "▁නිලධාරී": 8210,
      "▁ගබඩ": 8211,
      "▁එන්ජින්": 8212,
      "▁බැලුවේ": 8213,
      "▁තේරුණාද?": 8214,
      "▁සැලකිල්ලක්": 8215,
      "▁ඩ්‍රයිව්": 8216,
      "▁කාන්තාර": 8217,
      "N)": 8218,
      "ail": 8219,
      "ib": 8220,
      "මෙන්.": 8221,
      "▁නීම": 8222,
      "▁නැවේ": 8223,
      "▁මියා": 8224,
      "▁මායාව": 8225,
      "▁මිනිහෙ": 8226,
      "▁‍ආ": 8227,
      "▁ටිකක්.": 8228,
      "▁කෙනෙක්ගේ": 8229,
      "ඩුවා": 8230,
      "▁උපකාර": 8231,
      "▁යනවා∙": 8232,
      "▁කිරීම.": 8233,
      "▁ගියොත්,": 8234,
      "ound": 8235,
      "----": 8236,
      "▁තොප්ප": 8237,
      "▁චාර්ල්ස්": 8238,
      "▁නංගිව": 8239,
      "▁මුණගැහු": 8240,
      "▁කර්නල්": 8241,
      "▁තරඟය": 8242,
      "▁පුද්ගලයා": 8243,
      "▁ගැහුවා.": 8244,
      "▁තාක්ෂණික": 8245,
      "▁ධාවන": 8246,
      "eneric": 8247,
      "ය...": 8248,
      "යගෙ": 8249,
      "ෆ්‍ර": 8250,
      "▁වයි∙": 8251,
      "▁එතක": 8252,
      "ාවන්": 8253,
      "▁ඕ,": 8254,
      "▁රත්": 8255,
      "මුද?": 8256,
      "▁දෙයකට": 8257,
      "▁මේකා": 8258,
      "▁කාගෙන්": 8259,
      "නයක": 8260,
      "▁දෙන්නද?": 8261,
      "▁සිම්": 8262,
      "▁එහෙදි": 8263,
      "▁ගිම්හා": 8264,
      "▁නොවෙන": 8265,
      "▁පාපන්දු": 8266,
      "කාර්": 8267,
      "▁වාතය": 8268,
      "▁වැරද්දක්": 8269,
      "▁තේරුනා.": 8270,
      "▁ෙවන": 8271,
      "සන්,": 8272,
      "▁ජේක්": 8273,
      "▁විතරයි∙": 8274,
      "▁කාමරයක්": 8275,
      "▁වැදගත්.": 8276,
      "▁රෙස්": 8277,
      "▁ආවෙ.": 8278,
      "▁පැහැදිලිවම": 8279,
      "ගනියි": 8280,
      "▁ජිවිතය": 8281,
      "▁වේවි,": 8282,
      "▁අවුරුද්දේ": 8283,
      "▁නිදහසේ": 8284,
      "▁කොහාටද": 8285,
      "▁philippin": 8286,
      "▁මුද්‍රණය": 8287,
      "▁වැසිකි": 8288,
      "▁අපූරු": 8289,
      "▁philippines.": 8290,
      "ire": 8291,
      "පර": 8292,
      "සූ": 8293,
      "‍ග": 8294,
      "▁මකර": 8295,
      "▁එංගලන්ත": 8296,
      "▁අමන්": 8297,
      "▁සවි": 8298,
      "▁ඔයාට,": 8299,
      "▁ප්‍රභ": 8300,
      "▁තිරි": 8301,
      "▁අහස": 8302,
      "▁දාමු.": 8303,
      "▁ශයිඩ්": 8304,
      "▁රාජ්": 8305,
      "▁දෙකක්.": 8306,
      "▁දවසම": 8307,
      "ark": 8308,
      "ංචු": 8309,
      "▁සම්බන්ධතා": 8310,
      "රෙයි": 8311,
      "▁කතාවක්.": 8312,
      "▁යන්නෙ,": 8313,
      "▁ස්ථානයේ": 8314,
      "▁තියනව,": 8315,
      "▁20ක්": 8316,
      "▁කව්රු": 8317,
      "▁පුළුවනි": 8318,
      "▁අන්තිමේදි": 8319,
      "▁ඔලුවේ": 8320,
      "ight": 8321,
      "▁අභ්‍යවකාශ": 8322,
      "▁කොන්දේසි": 8323,
      "enericName": 8324,
      "ile": 8325,
      "බූ": 8326,
      "ලෙක්": 8327,
      "ෆර්": 8328,
      "ෝ...": 8329,
      "▁ඔන්": 8330,
      "▁මේ.": 8331,
      "▁විප්": 8332,
      "▁ලයින්": 8333,
      "▁ජැක": 8334,
      "▁වෙන්නැති": 8335,
      "ලිට": 8336,
      "▁හැමවිටම": 8337,
      "▁කියන්නේ...": 8338,
      "▁ෆයිල්": 8339,
      "▁පරද්ද": 8340,
      "▁මිනිස්සු.": 8341,
      "ෙනවා!": 8342,
      "ග්ස්": 8343,
      "▁වැරැ": 8344,
      "▁යනවා...": 8345,
      "▁නැත්ද": 8346,
      "▁කෙල්ල.": 8347,
      "▁බයගු": 8348,
      "▁රෑම": 8349,
      "▁නරකයි.": 8350,
      "▁පින්ටු": 8351,
      "ust": 8352,
      "▁අපරාධයක්": 8353,
      "▁හමුදාවේ": 8354,
      "▁Wh": 8355,
      "▁තර්ජනයක්": 8356,
      "▁ලැජ්ජා": 8357,
      "▁ධාවනය": 8358,
      "▁ලමයෙක්": 8359,
      "පෝට්": 8360,
      "▁රොබට්": 8361,
      "▁ධෛර්ය": 8362,
      "▁වහන්සේ": 8363,
      "GenericName": 8364,
      "ගාන": 8365,
      "යනය": 8366,
      "හම.": 8367,
      "ි.": 8368,
      "▁කතන්": 8369,
      "▁නමෙ": 8370,
      "යින්.": 8371,
      "ගන්න!": 8372,
      "සිල්": 8373,
      "▁බලකා": 8374,
      "▁වැඩ.": 8375,
      "▁තිරය": 8376,
      "▁සිද": 8377,
      "▁‍ඕ": 8378,
      "▁ඇත්තද?": 8379,
      "▁උඹල": 8380,
      "▁නොවෙයි": 8381,
      "▁නොපෙන": 8382,
      "▁චාල": 8383,
      "කාංග": 8384,
      "▁වුනා...": 8385,
      "▁හෝද": 8386,
      "▁some": 8387,
      "ෆ්.": 8388,
      "▁මෝඩයා": 8389,
      "▁ස්ට්‍ර": 8390,
      "▁බේස්": 8391,
      "▁ජාල": 8392,
      "▁ලඟා": 8393,
      "▁Fran": 8394,
      "▁රුසියානු": 8395,
      "▁භාණ්ඩ": 8396,
      "▁විදිය.": 8397,
      "▁ආරක්ෂිතව": 8398,
      "▁දුන්නා,": 8399,
      "▁වනෙවා": 8400,
      "▁එකතුවෙලා": 8401,
      "▁ගුහාව": 8402,
      "▁සුරැක": 8403,
      "▁කතන්දර": 8404,
      "ME": 8405,
      "▁නවා": 8406,
      "▁ගුණ": 8407,
      "▁බබ්": 8408,
      "ල්‍‍": 8409,
      "▁ඒකකය": 8410,
      "▁නැ!": 8411,
      "නි?": 8412,
      "▁ජස්ටින්": 8413,
      "▁මාලු": 8414,
      "හිට": 8415,
      "▁නම්බ": 8416,
      "▁කවුරැ": 8417,
      "▁අහගන්න.": 8418,
      "▁එහෙම?": 8419,
      "▁පාපො": 8420,
      "▁කිසිදු": 8421,
      "▁වෙනවා..": 8422,
      "▁යුනි": 8423,
      "▁පිටතට": 8424,
      "▁නැත්නම්.": 8425,
      "▁sy": 8426,
      "▁පිරිස": 8427,
      "▁කරදරේ": 8428,
      "▁තොරතුරක්": 8429,
      "▁රෙඩින්": 8430,
      "▁දෙනවා,": 8431,
      "▁ගෝවා": 8432,
      "▁ජෙම්": 8433,
      "▁go": 8434,
      "▁අරමුද": 8435,
      "▁නිවාඩු": 8436,
      "▁ඇත්තෙන්ම,": 8437,
      "▁ගෙනිච්ච": 8438,
      "▁ඇගිලි": 8439,
      "▁මෙවලම්": 8440,
      "▁ලවුඩා": 8441,
      "▁දුෂ්කර": 8442,
      "ඩියේ": 8443,
      "යී": 8444,
      "▁වීමක්": 8445,
      "▁හදු": 8446,
      "▁ඒවි.": 8447,
      "▁යමින්": 8448,
      "▁හිල්": 8449,
      "▁හැප්ප": 8450,
      "▁ප්‍රච": 8451,
      "නය,": 8452,
      "▁පැළ": 8453,
      "▁ගන්න...": 8454,
      "▁ගන්නව.": 8455,
      "▁‍වි": 8456,
      "රාල්": 8457,
      "▁දුන්න.": 8458,
      "▁ටැක්": 8459,
      "කාලීන": 8460,
      "▁කුහර": 8461,
      "ඳුනු": 8462,
      "▁දවස.": 8463,
      "▁සම්පත්": 8464,
      "▁කොහේවත්": 8465,
      "▁මයිල්": 8466,
      "නැති": 8467,
      "▁අනුමත": 8468,
      "▁ආසයි.": 8469,
      "▁යාළුවා,": 8470,
      "▁නොහැක.": 8471,
      "▁සද්දෙ": 8472,
      "ර්ජාල": 8473,
      "▁ලොක්කා.": 8474,
      "▁මිනීමරුව": 8475,
      "▁උපාධ": 8476,
      "▁ගොඩනැගිලි": 8477,
      "▁පුද්ගලයෙක්": 8478,
      "▁කුමක්ද?": 8479,
      "▁නැවැත්තු": 8480,
      "▁රැකියාව": 8481,
      "▁දෙමව්පිය": 8482,
      "▁හෙලිකොප්ට": 8483,
      "▁විරහිත": 8484,
      "▁දඬුවම්": 8485,
      "▁දියමන්ති": 8486,
      "හුව": 8487,
      "‍ඩ": 8488,
      "▁සවන්": 8489,
      "▁කරුවන්": 8490,
      "▁කොල්": 8491,
      "▁කොටු": 8492,
      "▁වෙමු.": 8493,
      "▁වෙන්න∙": 8494,
      "▁මිසක්": 8495,
      "▁එක්ක?": 8496,
      "ශ්වාස": 8497,
      "▁නම්බර්": 8498,
      "▁මෙතනම": 8499,
      "ප්පි": 8500,
      "▁තියෙනවාද?": 8501,
      "▁එයාලත්": 8502,
      "▁එලී": 8503,
      "▁පස්සේ...": 8504,
      "ලෙට": 8505,
      "▁කීයද?": 8506,
      "▁පාලන": 8507,
      "▁පීනන්න": 8508,
      "▁පසුම්බ": 8509,
      "▁ව්‍යාජ": 8510,
      "▁තනියෙන්": 8511,
      "▁තෝරාගත්": 8512,
      "ත්‍යන්තර": 8513,
      "▁වශයෙන්ම": 8514,
      "▁100ක්": 8515,
      "▁යන්ත්‍රයක්": 8516,
      "▁ඝාතක": 8517,
      "▁යහපත්": 8518,
      "▁ත්‍රස්තවාදී": 8519,
      "▁විනිශ්ච": 8520,
      "▁ප්‍රධානියා": 8521,
      "▁රඟපා": 8522,
      "▁අතෑරලා": 8523,
      "▁විකුන": 8524,
      "‍දා‍ල": 8525,
      "▁කනෙකෝ": 8526,
      "-s": 8527,
      "ug": 8528,
      "ගයේ": 8529,
      "▁එරික්": 8530,
      "▁අසු": 8531,
      "ලාට": 8532,
      "ම්ම්.": 8533,
      "▁මේජර්": 8534,
      "▁කරන්නම": 8535,
      "තුරා": 8536,
      "▁වෙනුවනේ": 8537,
      "▁පිර": 8538,
      "▁ප්‍රදර්ශ": 8539,
      "කරලා.": 8540,
      "▁සිග්": 8541,
      "▁අරක්කු": 8542,
      "▁එහෙමත්": 8543,
      "▁ලැබෙයි.": 8544,
      "ලෝකය": 8545,
      "▁ක්ලේ": 8546,
      "▁දවසකට": 8547,
      "▁කළාද?": 8548,
      "▁නැද්ද,": 8549,
      "▁ලාභ": 8550,
      "▁වටින": 8551,
      "▁හොයාගත්තේ?": 8552,
      "▁අපොයි!": 8553,
      "▁සද්දයක්": 8554,
      "▁නවත්වන්න!": 8555,
      "▁බලපත්‍ර": 8556,
      "▁ෂිට්!": 8557,
      "▁මහත්වරුනි,": 8558,
      "▁අදාළ": 8559,
      "▁එකපාරක්": 8560,
      "▁පිළිබඳව": 8561,
      "▁ෙහාදයි": 8562,
      "▁රූපවාහි": 8563,
      "▁button": 8564,
      "cri": 8565,
      "▁මක": 8566,
      "ක්ලා": 8567,
      "▁අමා": 8568,
      "▁අදුන": 8569,
      "▁ගීත": 8570,
      "▁කරද්දී": 8571,
      "▁එකද": 8572,
      "▁එකෝ": 8573,
      "▁ජයිකාන්": 8574,
      "▁හිතනවද?": 8575,
      "▁ප්‍රථි": 8576,
      "▁\"ඒ": 8577,
      "▁ටිකකින්": 8578,
      "මි,": 8579,
      "මන්‍ය": 8580,
      "▁වේවා!": 8581,
      "▁ලැබ්": 8582,
      "▁එයාලගෙන්": 8583,
      "▁ෙකෙන": 8584,
      "▁කොච්චරක්": 8585,
      "▁සැලසුම": 8586,
      "▁කඩවස": 8587,
      "▁ගෑනි": 8588,
      "▁German": 8589,
      "▁අපොයි.": 8590,
      "▁පර්ස්": 8591,
      "▁අංජලී": 8592,
      "▁අන්තර්ජාල": 8593,
      "▁මිනිසෙක්": 8594,
      "▁ඉරණම": 8595,
      "▁රෙඩින්ටන්": 8596,
      "එහෙම": 8597,
      "කයෙක්.": 8598,
      "පූ": 8599,
      "ෂන්": 8600,
      "▁කෙන්": 8601,
      "▁ඔට්ටුවක්": 8602,
      "▁අදුරු": 8603,
      "▁හහ්": 8604,
      "වාට": 8605,
      "▁ඉන්ද": 8606,
      "ත්තුවේ": 8607,
      "▁විවි": 8608,
      "▁පුජ": 8609,
      "▁ප්‍රශ": 8610,
      "▁‍නැ": 8611,
      "▁එන්න∙": 8612,
      "▁ඇති...": 8613,
      "▁ගොඩන": 8614,
      "▁සැමිය": 8615,
      "▁තරුව": 8616,
      "▁ගැළ": 8617,
      "▁විද්‍ය": 8618,
      "one": 8619,
      "▁ගහපු": 8620,
      "orm": 8621,
      "▁ලිස්ස": 8622,
      "වැට": 8623,
      "ish": 8624,
      "▁වර්ධනය": 8625,
      "▁දොරෙන්": 8626,
      "▁හිතන්නෑ": 8627,
      "▁නිර්දේශ": 8628,
      "▁කට්ටිය.": 8629,
      "▁වයර්": 8630,
      "▁දියත්": 8631,
      "▁බ්‍රහස්": 8632,
      "තුමනි.": 8633,
      "▁අධිකරණ": 8634,
      "▁ඇහෙනවා": 8635,
      "▁90": 8636,
      "▁පිස්සුවක්.": 8637,
      "▁ඊළගට": 8638,
      "▁ආරක්ශක": 8639,
      "▁ලෝකෙට": 8640,
      "▁ඒකිව": 8641,
      "විද්‍යා": 8642,
      "che": 8643,
      "කදී": 8644,
      "තෝ": 8645,
      "නර": 8646,
      "ේ∙": 8647,
      "▁වධ": 8648,
      "ක්ති": 8649,
      "ුවේ.": 8650,
      "▁මේසෙ": 8651,
      "▁එකටම": 8652,
      "▁විකෘති": 8653,
      "▁නෑදෑ": 8654,
      "▁කිට්ටු": 8655,
      "▁දෙන්න...": 8656,
      "▁ස්පා": 8657,
      "▁මුම්බා": 8658,
      "▁ඒත්..": 8659,
      "▁කියල!": 8660,
      "▁දායක": 8661,
      "▁නොවි": 8662,
      "▁හදන්නෙ?": 8663,
      "▁වාසි": 8664,
      "▁පොහො": 8665,
      "▁අල්ලගත්තා": 8666,
      "▁පරිදි": 8667,
      "▁නගරේ": 8668,
      "ද්දි,": 8669,
      "lease": 8670,
      "▁අනිවාර්යෙන්ම.": 8671,
      "▁කව්ද?": 8672,
      "▁රෝහලට": 8673,
      "▁ප්‍රහාරයක්": 8674,
      "▁බැටරිය": 8675,
      "▁සෙනසු": 8676,
      "▁ගිණුම්": 8677,
      "▁අරුශ්": 8678,
      "▁පරිපූර්ණ": 8679,
      "mbol": 8680,
      "▁Germany": 8681,
      "ss": 8682,
      "වෙක්": 8683,
      "වපු": 8684,
      "න්තිය": 8685,
      "▁වන්න": 8686,
      "▁එව්වේ": 8687,
      "වාන්": 8688,
      "▁ගවේ": 8689,
      "▁ඒගැන": 8690,
      "▁බදි": 8691,
      "▁අපව": 8692,
      "▁උඔ": 8693,
      "▁ආවද": 8694,
      "▁පුස්": 8695,
      "▁වෙන්න...": 8696,
      "▁දෙන්නයි": 8697,
      "වේවි.": 8698,
      "▁තිබුණු": 8699,
      "▁නොසල": 8700,
      "▁ටිකකට": 8701,
      "▁ගෙයක්": 8702,
      "කාරක": 8703,
      "යෙන්,": 8704,
      "හරිද?": 8705,
      "▁මගෙයි": 8706,
      "▁කලාද": 8707,
      "▁කොල්ලට": 8708,
      "▁උනන්දු": 8709,
      "▁ෂැ": 8710,
      "▁මැරුණු": 8711,
      "▁wat": 8712,
      "▁42": 8713,
      "▁ජාති": 8714,
      "▁බලාපොරොත්තුවෙන්": 8715,
      "▁පියාසර": 8716,
      "▁සන්නද්ධ": 8717,
      "▁ක්ෂේ": 8718,
      "▁අගුළු": 8719,
      "▁ගැඹුරු": 8720,
      "▁පුලූවන්": 8721,
      "යනේ": 8722,
      "හදා": 8723,
      "ෙතන්": 8724,
      "▁Qu": 8725,
      "▁ඒයා": 8726,
      "▁බන්ධ": 8727,
      "▁-ස": 8728,
      "▁-හේ": 8729,
      "▁එකයි,": 8730,
      "▁ඕෙන්": 8731,
      "වුණු": 8732,
      "▁තියෙයි": 8733,
      "හැකි.": 8734,
      "▁කිමි": 8735,
      "▁දෙන්නව": 8736,
      "▁තමයි..": 8737,
      "▁ඩියු": 8738,
      "▁ශ්‍රි": 8739,
      "▁ක්.": 8740,
      "▁සංවේද": 8741,
      "▁හෝව්,": 8742,
      "▁ස්ටේ": 8743,
      "▁වටහා": 8744,
      "මනින්ම": 8745,
      "▁ශාලාව": 8746,
      "ගන්තු": 8747,
      "am.": 8748,
      "▁මොහොතක": 8749,
      "▁නැගිටින්න!": 8750,
      "ෆික්": 8751,
      "▁අගනුව": 8752,
      "▁‍ම‍රු‍දී": 8753,
      "▁හිරේට": 8754,
      "▁ආරංචිය": 8755,
      "▁අන්තිමේදී": 8756,
      "▁සම්ප්‍රේෂ": 8757,
      "▁දඩුවම්": 8758,
      "▁සිග්නල්": 8759,
      "ෙවන්න": 8760,
      "▁෴": 8761,
      "▁වැන": 8762,
      "▁ගලා": 8763,
      "ාවක්.": 8764,
      "▁මිසිස්": 8765,
      "▁යන්නද": 8766,
      "▁යන්න..": 8767,
      "ොමි": 8768,
      "▁දැන්!": 8769,
      "▁දිව්": 8770,
      "▁උඹත්": 8771,
      "▁1.": 8772,
      "▁හිටියත්": 8773,
      "▁හෙයි": 8774,
      "▁පොතේ": 8775,
      "▁කියනදේ": 8776,
      "▁විදිහ.": 8777,
      "▁ආරක්ෂාවට": 8778,
      "▁උපද": 8779,
      "▁ගොස්": 8780,
      "ary": 8781,
      "▁වගකියන්න": 8782,
      "▁බේරිලා": 8783,
      "▁අම්මගෙ": 8784,
      "▁සඳහා.": 8785,
      "▁URL": 8786,
      "▁ජාත්‍යන්තර": 8787,
      "▁අරින්න!": 8788,
      "▁(_R)": 8789,
      "කරුවා": 8790,
      "▁අවුරුද්දකට": 8791,
      "▁සුවද": 8792,
      "▁සුවි": 8793,
      "▁ෆ්‍රෑන්ක්": 8794,
      "▁කියවන්නේ": 8795,
      "▁නගින්න.": 8796,
      "▁පන්තියේ": 8797,
      "▁ඊළඟට": 8798,
      "▁චැපී": 8799,
      "▁පරිවර්ථ": 8800,
      "▁අපායට": 8801,
      "▁නිලධාරි": 8802,
      "ගොඩක්": 8803,
      "▁සංඛ්‍යා": 8804,
      "▁එෙහම": 8805,
      "30": 8806,
      "A)": 8807,
      "මහ": 8808,
      "රියක්": 8809,
      "ලෙන": 8810,
      "සයක්": 8811,
      "ෙවන්": 8812,
      "▁මවු": 8813,
      "ියර්": 8814,
      "▁පතුර": 8815,
      "වාසි": 8816,
      "▁බැන": 8817,
      "▁එයා...": 8818,
      "▁ලමය": 8819,
      "▁ආයෝජ": 8820,
      "▁හිට්": 8821,
      "▁හොට": 8822,
      "▁ජරාවක්": 8823,
      "▁මේකි": 8824,
      "සි,": 8825,
      "▁බැල්ල": 8826,
      "▁මිනිම": 8827,
      "▁\"ඔහු": 8828,
      "▁උද්‍යා": 8829,
      "ගත්ත.": 8830,
      "ුණා.": 8831,
      "▁අතහරි": 8832,
      "▁හම්බවෙලා": 8833,
      "▁ෙක": 8834,
      "▁ජේක": 8835,
      "▁මැරුනා": 8836,
      "▁කඩන්": 8837,
      "▁චිකා": 8838,
      "▁හමුදාවක්": 8839,
      "▁වාඩිවෙලා": 8840,
      "▁පර්ය": 8841,
      "▁ස්ටීව්": 8842,
      "▁අමාරුව": 8843,
      "▁අනිවාර්යයෙන්ම.": 8844,
      "▁ෙකාෙහාම": 8845,
      "▁බැටරි": 8846,
      "‍න‍වා": 8847,
      "▁පිවිස": 8848,
      "▁-නෑ,": 8849,
      "▁පල්ලෙහාට": 8850,
      "box": 8851,
      "කමට": 8852,
      "▁මදි.": 8853,
      "▁දම්": 8854,
      "▁පතු": 8855,
      "▁තණ": 8856,
      "▁ස(ර්": 8857,
      "ස්ක්": 8858,
      "▁ඇඩ": 8859,
      "▁මොකෝ?": 8860,
      "▁කාල්": 8861,
      "▁හොඳක්": 8862,
      "▁සුප්": 8863,
      "ප්ටර්": 8864,
      "▁ඔයාගෙම": 8865,
      "▁කෙනෙක්ද?": 8866,
      "▁වලටත්": 8867,
      "▁සංවාද": 8868,
      "▁වුනාද": 8869,
      "▁බෝට්ටුවක්": 8870,
      "▁නවත්තන්න,": 8871,
      "▁සැලසු": 8872,
      "▁පිළිවෙ": 8873,
      "▁දකින්නේ": 8874,
      "ණ්ඩුව": 8875,
      "ක්‍රියා": 8876,
      "▁සන්සුන්ව": 8877,
      "▁සටනක්": 8878,
      "▁ඇහුවෙ": 8879,
      "▁සූදානම්.": 8880,
      "සකැ": 8881,
      "ස්තෝ": 8882,
      "▁අමුතුයි.": 8883,
      "▁එහෙමයි,": 8884,
      "▁පැමිණිලි": 8885,
      "▁ගිවිසුම": 8886,
      "ode": 8887,
      "▁නිලධාරියා": 8888,
      "▁තිෙයනවා": 8889,
      "▁යන්තම්": 8890,
      "▁හෙල්ලෙන්න": 8891,
      "කවුද": 8892,
      "▁දුප්පත්": 8893,
      "▁කෞතුකාගාර": 8894,
      "කතා": 8895,
      "කණ්": 8896,
      "බය": 8897,
      "ලියේ": 8898,
      "ෙට්": 8899,
      "ෙකුත්": 8900,
      "▁ධා": 8901,
      "▁as": 8902,
      "▁all": 8903,
      "▁තල්ම": 8904,
      "ලා...": 8905,
      "▁කරත්": 8906,
      "▁හැදෙන්න": 8907,
      "▁කැල": 8908,
      "යේදි": 8909,
      "ඩ්!": 8910,
      "▁කැමතී": 8911,
      "▁ටික.": 8912,
      "▁ශල්‍ය": 8913,
      "▁ඉන්නේ!": 8914,
      "▁හාහ්?": 8915,
      "▁මොනහරි": 8916,
      "▁2.": 8917,
      "▁සතුන්": 8918,
      "ator": 8919,
      "යකටම": 8920,
      "▁රෝද": 8921,
      "▁උත්සහා": 8922,
      "▁ලියකිය": 8923,
      "▁පසුතැ": 8924,
      "▁නෝර්": 8925,
      "▁රෙදි": 8926,
      "ගනින්.": 8927,
      "▁වැරැද්ද.": 8928,
      "▁හමුදාවට": 8929,
      "▁පුහුණ": 8930,
      "▁නොදන්න": 8931,
      "▁අභිප්‍රේ": 8932,
      "▁වගකීමක්": 8933,
      "▁පක්ෂපා": 8934,
      "▁චොකල": 8935,
      "▁යාලුවන්": 8936,
      "▁රණශ": 8937,
      "▁නොමිලේ": 8938,
      "▁පාපොච්චාර": 8939,
      "P)": 8940,
      "way": 8941,
      "පසින්": 8942,
      "ලභ": 8943,
      "සා.": 8944,
      "හූ": 8945,
      "▁e": 8946,
      "▁ex": 8947,
      "ක්ව": 8948,
      "▁ඔළුවට": 8949,
      "▁එතෙන්ට": 8950,
      "ස්ක": 8951,
      "▁මේ..": 8952,
      "▁උනු": 8953,
      "▁විධාන": 8954,
      "නා?": 8955,
      "ස්සට": 8956,
      "▁වැලි": 8957,
      "ගෙට": 8958,
      "▁ඕන...": 8959,
      "▁ස්නා": 8960,
      "නම්?": 8961,
      "▁ටොන්": 8962,
      "▁පාළු": 8963,
      "▁යාමට": 8964,
      "▁යානාව": 8965,
      "▁ඊවෝ": 8966,
      "▁දන්නවා...": 8967,
      "▁මහජන": 8968,
      "▁තරහින්": 8969,
      "▁හෙමි": 8970,
      "ට්ටක්": 8971,
      "▁අත්හැර": 8972,
      "▁රෝම": 8973,
      "▁හමුවෙලා": 8974,
      "▁දවස්වල": 8975,
      "▁ජෝන්.": 8976,
      "▁වාසියක්": 8977,
      "▁ජීවිතේට": 8978,
      "▁සටහන": 8979,
      "▁යුද්ධයක්": 8980,
      "▁වසන්න": 8981,
      "▁199": 8982,
      "▁කඩාගෙන": 8983,
      "▁කරුනාකරලා": 8984,
      "quer": 8985,
      "▁පූජක": 8986,
      "▁අද්සර්": 8987,
      "▁බාධකය": 8988,
      "▁චරිතය": 8989,
      "▁ලේඛන": 8990,
      "▁බබෝ,": 8991,
      "▁org": 8992,
      "▁ඇත්තෙන්ම.": 8993,
      "කං": 8994,
      "දා.": 8995,
      "නත": 8996,
      "මාර": 8997,
      "ොර්": 8998,
      "න්තු": 8999,
      "▁දශ": 9000,
      "▁දමා": 9001,
      "▁සත්": 9002,
      "ර්මා": 9003,
      "▁ආත්": 9004,
      "▁ආගන්තු": 9005,
      "නවා..": 9006,
      "▁රසකැ": 9007,
      "▁වෙද්දී": 9008,
      "▁නිති": 9009,
      "▁ස්ම්": 9010,
      "▁ස්කයි": 9011,
      "▁ගන්නයි": 9012,
      "▁ගන්නවද?": 9013,
      "▁මිනිත්තුව": 9014,
      "කටු": 9015,
      "▁දික්": 9016,
      "▁දානවා!": 9017,
      "මේල්": 9018,
      "▁ඉන්නේ...": 9019,
      "නයක්,": 9020,
      "▁අතක්": 9021,
      "▁තමුන්ව": 9022,
      "▁මිනිහා.": 9023,
      "▁බෝට්ටු": 9024,
      "▁පුද්ගලය": 9025,
      "▁ආරක්ෂිතයි": 9026,
      "▁ඇතුලේ.": 9027,
      "රාජු": 9028,
      "▁බොහෝම": 9029,
      "▁අමුතුයි": 9030,
      "▁චිත්‍රපටිය": 9031,
      "oss": 9032,
      "▁ඔරලො": 9033,
      "▁වෘත්ත": 9034,
      "▁සින්දු": 9035,
      "▁දූපතේ": 9036,
      "▁ලින්කන්": 9037,
      "iforn": 9038,
      "▁විකිරණ": 9039,
      "▁නිහඩ": 9040,
      "▁පිසාච": 9041,
      "▁ජේකබ්": 9042,
      "ifornia": 9043,
      "බී.": 9044,
      "සන්ට": 9045,
      "ෙව්": 9046,
      "▁වසා": 9047,
      "▁වදේ": 9048,
      "▁ඔස්": 9049,
      "▁දන": 9050,
      "▁කියවලා": 9051,
      "▁ආත": 9052,
      "▁කොතරම්": 9053,
      "▁හැඳුනු": 9054,
      "▁වෙන්නද": 9055,
      "▁කැන්": 9056,
      "▁සමලි": 9057,
      "▁මානව": 9058,
      "▁අවධා": 9059,
      "▁අවසරය": 9060,
      "ඩ්ස්": 9061,
      "▁පාරි": 9062,
      "▁පාන්දර": 9063,
      "▁මෙහෙ.": 9064,
      "▁හදව": 9065,
      "▁දන්නවාද?": 9066,
      "ගෙන්ම": 9067,
      "කේ∙": 9068,
      "▁Con": 9069,
      "▁අයිරි": 9070,
      "onquer": 9071,
      "▁සමාවෙන්න...": 9072,
      "▁මිනිහෝ,": 9073,
      "▁ඉඳි": 9074,
      "▁කීපය": 9075,
      "රී.": 9076,
      "▁විදියට,": 9077,
      "තුමා.": 9078,
      "▁TV": 9079,
      "ංශය": 9080,
      "▁සතුටක්,": 9081,
      "▁වටිනවා.": 9082,
      "මැති": 9083,
      "▁ආයත": 9084,
      "▁උත්තරය": 9085,
      "▁පඩිපෙ": 9086,
      "▁මෘදුකාංග": 9087,
      "onqueror": 9088,
      "ඊට": 9089,
      "දට": 9090,
      "ප්‍රා": 9091,
      "රහස්": 9092,
      "‍්‍ර": 9093,
      "▁අනෙ": 9094,
      "▁තොට": 9095,
      "▁කරපන්": 9096,
      "▁බින්": 9097,
      "▁ඇගෙ": 9098,
      "▁වැදුන": 9099,
      "ටි.": 9100,
      "▁බලපා": 9101,
      "▁දැන්වත්": 9102,
      "▁ඔබෙන්": 9103,
      "▁ප්‍රී": 9104,
      "▁ඇතුළුව": 9105,
      "▁ගැබ්": 9106,
      "▁විදිහකට": 9107,
      "ණ්ඩි": 9108,
      "▁ලෝහ": 9109,
      "▁අහන්න!": 9110,
      "යින්ගේ": 9111,
      "▁අන්ජු": 9112,
      "▁දිගින්": 9113,
      "▁මත.": 9114,
      "▁45": 9115,
      "▁ජාවාර": 9116,
      "▁අනිවාර": 9117,
      "▁සතුටෙන්": 9118,
      "▁මචං,": 9119,
      "▁වැටෙනවා.": 9120,
      "▁ඉන්ස්ප": 9121,
      "▁කතාකරන්නේ": 9122,
      "▁හොයාගත්තේ": 9123,
      "▁දුරකතන": 9124,
      "▁තෝරගන්න": 9125,
      "▁උස්සන්න": 9126,
      "▁වස්තුවේ,": 9127,
      "able": 9128,
      "▁මුරණ්ඩු": 9129,
      "▁පන්ති": 9130,
      "▁වාව්,": 9131,
      "▁කුමක්ද": 9132,
      "▁ශරීරය": 9133,
      "▁තප්පර": 9134,
      "▁ටෙක්සාස්": 9135,
      "▁පැතිකඩ": 9136,
      "▁විවිධ": 9137,
      "▁අන්ජුටා": 9138,
      "),": 9139,
      "A.": 9140,
      "key": 9141,
      "ට∙": 9142,
      "ලඟ": 9143,
      "ළුවෙන්": 9144,
      "ැයි": 9145,
      "ොස්": 9146,
      "ියෙක්.": 9147,
      "▁නුව": 9148,
      "ල්ගේ": 9149,
      "▁ආතල්": 9150,
      "▁ඕව": 9151,
      "▁ඉන්නම්": 9152,
      "▁හිතෙනවා.": 9153,
      "▁මිශ්‍ර": 9154,
      "වෙච්ච": 9155,
      "▁දුසි": 9156,
      "▁එකක්ද?": 9157,
      "▁නැතිවෙයි": 9158,
      "ලුත්": 9159,
      "▁බලන්න∙": 9160,
      "▁හදවත්": 9161,
      "▁සාමන්‍ය": 9162,
      "▁වලට,": 9163,
      "න්තෝ": 9164,
      "▁කලා!": 9165,
      "▁කලාප": 9166,
      "▁ගහල": 9167,
      "ario": 9168,
      "▁ඉදගන්න": 9169,
      "රී,": 9170,
      "▁එච්චරම": 9171,
      "▁නිදන": 9172,
      "▁දොරට": 9173,
      "▁විසින්ම": 9174,
      "ලර්.": 9175,
      "▁චිප්": 9176,
      "▁ආසන": 9177,
      "▁6ක්": 9178,
      "▁තැපැ": 9179,
      "▁බ්‍රැ": 9180,
      "▁මඟුලේ": 9181,
      "▁ඉන්දියාව": 9182,
      "▁හැකියි": 9183,
      "▁නැහැනේ": 9184,
      "▁හැරෙන්න.": 9185,
      "▁උන්නා.": 9186,
      "▁ගලවලා": 9187,
      "▁අනවශ්‍ය": 9188,
      "▁world": 9189,
      "▁subject": 9190,
      "මර්": 9191,
      "රගෙන": 9192,
      "ලයිට්": 9193,
      "ැහැ": 9194,
      "▁මකන්න": 9195,
      "▁කට්": 9196,
      "▁වයෙි": 9197,
      "▁අෑ": 9198,
      "▁අග්": 9199,
      "▁සරා": 9200,
      "▁කරැ": 9201,
      "ල්ඩ්.": 9202,
      "▁අපහු": 9203,
      "▁ආයා": 9204,
      "▁ආකර්": 9205,
      "ක්කා": 9206,
      "▁වෙන්න?": 9207,
      "▁බලෙන්": 9208,
      "▁එක්කො": 9209,
      "ියට.": 9210,
      "▁සිල්": 9211,
      "▁එහෙමනම්": 9212,
      "▁දාගන්න.": 9213,
      "ළුම": 9214,
      "▁ඩූ": 9215,
      "▁වේල්ල": 9216,
      "▁පැත්තට.": 9217,
      "▁දුවගේ": 9218,
      "▁තිබ්බොත්": 9219,
      "▁උනාද": 9220,
      "▁ජේන්.": 9221,
      "▁අතරෙ": 9222,
      "▁නිසයි.": 9223,
      "▁අඩුගා": 9224,
      "▁නෝනා.": 9225,
      "▁ඉගෙනගන්න": 9226,
      "▁පිටිපස්සට": 9227,
      "▁ඇහෙන්නේ": 9228,
      "▁සිහිනය": 9229,
      "▁කාර්යාලයට": 9230,
      "▁ප්‍රේම්.": 9231,
      "▁ෆෙඩ": 9232,
      "▁නැවැත්තුව": 9233,
      "▁තේරෙනවද?": 9234,
      "▁නැටුම්": 9235,
      "▁ද්‍රෝහි": 9236,
      "▁කුකුල්": 9237,
      "▁චැපී.": 9238,
      "▁California": 9239,
      "කෙක්": 9240,
      "තම්": 9241,
      "වශ": 9242,
      "▁මනා": 9243,
      "▁කනවා": 9244,
      "▁පී.": 9245,
      "▁බස්ස": 9246,
      "▁උය": 9247,
      "ෙන්ද?": 9248,
      "වුවා": 9249,
      "▁දෙසට": 9250,
      "▁බලන්නේ?": 9251,
      "▁වැඩකරන්න": 9252,
      "▁කැබ": 9253,
      "▁දිව්‍ය": 9254,
      "▁දාමු": 9255,
      "▁සුන්": 9256,
      "▁සුපර්": 9257,
      "කාරයා.": 9258,
      "▁අය,": 9259,
      "▁බිලී": 9260,
      "▁හාදය": 9261,
      "▁පරෙ": 9262,
      "▁එලව": 9263,
      "▁බැහැ!": 9264,
      "යකම": 9265,
      "▁ආවේ,": 9266,
      "▁ඕනි,": 9267,
      "▁කිව්වොත්,": 9268,
      "▁සෑම්,": 9269,
      "▁නෙවෙයි...": 9270,
      "▁කඩදා": 9271,
      "▁ලඟින්": 9272,
      "▁නවත්වනවා": 9273,
      "▁පීන": 9274,
      "▁ඩිංග": 9275,
      "▁තත්ත්වය": 9276,
      "පිටල්": 9277,
      "▁ක්‍රීඩාව": 9278,
      "▁තියේවි": 9279,
      "▁ක්ලෝයි": 9280,
      "▁පුරාවටම": 9281,
      "▁තුන්දෙනා": 9282,
      "▁රත්තරං": 9283,
      "▁සංවිධානය": 9284,
      "▁සමූහ": 9285,
      "▁ඇබ්බැ": 9286,
      "▁නොසලකා": 9287,
      "සලා": 9288,
      "ළුවේ": 9289,
      "‍ලා,": 9290,
      "▁j": 9291,
      "▁un": 9292,
      "▁කවි": 9293,
      "▁ඔල්": 9294,
      "▁එල්ලි": 9295,
      "▁එවන්න.": 9296,
      "▁දොඩ": 9297,
      "▁තෙක්": 9298,
      "▁සත": 9299,
      "▁මිලිය": 9300,
      "▁ඕනදෙ": 9301,
      "▁බලකොට": 9302,
      "▁එන්නත්": 9303,
      "▁අහම්බ": 9304,
      "▁ඩෙල්": 9305,
      "ගත්තේ?": 9306,
      "▁හිටියනම්": 9307,
      "▁තැනින්": 9308,
      "▁ආදරයි": 9309,
      "▁ආදරවන්ත": 9310,
      "▁කෝප්ප": 9311,
      "▁නවය": 9312,
      "ond": 9313,
      "න්වලා": 9314,
      "▁කවදහරි": 9315,
      "▁දෙනව.": 9316,
      "▁ඉන්නවා...": 9317,
      "▁තිබුනා,": 9318,
      "ory": 9319,
      "▁සීනුව": 9320,
      "▁ෂා": 9321,
      "▁යමුද?": 9322,
      "▁හරියන්නේ": 9323,
      "වර්ඩ්": 9324,
      "▁දැකීම": 9325,
      "▁ක්‍රියාකාර": 9326,
      "▁පළා": 9327,
      "▁ab": 9328,
      "▁මචන්.": 9329,
      "▁වුණා,": 9330,
      "▁-ඔව්": 9331,
      "▁හොයාගෙන.": 9332,
      "▁හිතාගන්නවත්": 9333,
      "▁ගනීවි": 9334,
      "▁මිනීමැරු": 9335,
      "▁ටීවී": 9336,
      "▁මගුලක්ද?": 9337,
      "▁පැහැදිලියි.": 9338,
      "▁එමිලි": 9339,
      "▁ෂර්ලොක්": 9340,
      "▁ඇන්ඩෲ": 9341,
      "▁ගැහැනු": 9342,
      "▁කොලේජ්": 9343,
      "▁ආශිර්වාද": 9344,
      "▁සොරකම්": 9345,
      "▁චිකාගෝ": 9346,
      "'.": 9347,
      "එල්.": 9348,
      "රන්න": 9349,
      "සස්": 9350,
      "ළුවෙ": 9351,
      "ැතියි": 9352,
      "ුවා.": 9353,
      "ෙහි": 9354,
      "▁වදින්න": 9355,
      "▁නඟි": 9356,
      "▁තල": 9357,
      "ෙනම්": 9358,
      "▁කරුව": 9359,
      "▁බද": 9360,
      "▁-ප": 9361,
      "▁මට!": 9362,
      "▁එකනම්": 9363,
      "▁මෙතෙක්": 9364,
      "දිද": 9365,
      "▁දිලා": 9366,
      "▁පාටි": 9367,
      "▁හරියේ": 9368,
      "onia": 9369,
      "▁අල්ලගත්තා.": 9370,
      "යෙදි": 9371,
      "▁නැත්තේ.": 9372,
      "ණි,": 9373,
      "▁ඉඳගන්න": 9374,
      "▁හොඳින්ද": 9375,
      "▁මූලා": 9376,
      "▁තොරව": 9377,
      "▁බලාපොරොත්තුවක්": 9378,
      "▁සෝදිසි": 9379,
      "▁පදවන්න": 9380,
      "ඹුරු": 9381,
      "▁ලැයිස්තුවක්": 9382,
      "▁ලුහුබැ": 9383,
      "▁සතුරන්": 9384,
      "▁ආයිත්": 9385,
      "▁ෆ්රෑන්": 9386,
      "▁ලුහුබඳි": 9387,
      "ook": 9388,
      "▁ශ්‍රේෂ්ඨ": 9389,
      "▁ඩොරති": 9390,
      "▁උෂ්ණ": 9391,
      "ංහ": 9392,
      "ජෝ": 9393,
      "මූ": 9394,
      "ෆෙ": 9395,
      "ෑ,": 9396,
      "▁මවා": 9397,
      "▁වලා": 9398,
      "▁ඔයාද?": 9399,
      "▁යටි": 9400,
      "▁මොක්ක": 9401,
      "▁ලව්": 9402,
      "▁ආදේශ": 9403,
      "▁ආපිට": 9404,
      "රුණ": 9405,
      "▁තියන්න!": 9406,
      "තුමන්": 9407,
      "▁හැන්": 9408,
      "▁හැක්": 9409,
      "▁දෙකට": 9410,
      "▁මේක?": 9411,
      "▁සිස්": 9412,
      "▁ගිලි": 9413,
      "▁හොදක්": 9414,
      "▁හිටියද": 9415,
      "▁තරම්.": 9416,
      "▁භාව": 9417,
      "ගියා": 9418,
      "▁යුක්තිය": 9419,
      "▁කාර්ති": 9420,
      "යෝ!": 9421,
      "▁නැතුව,": 9422,
      "▁ඩොග්": 9423,
      "▁මුහුන": 9424,
      "▁හිතුවා.": 9425,
      "▁by": 9426,
      "▁අංකයක්": 9427,
      "බුන්": 9428,
      "▁කතාකරන්නෙ": 9429,
      "▁තෑගි": 9430,
      "▁මෙතැනින්": 9431,
      "▁අහුවුනා": 9432,
      "පුරුදු": 9433,
      "▁මේවගේ": 9434,
      "▁අඟු": 9435,
      "▁ප්‍රේම්": 9436,
      "▁සදාකාලික": 9437,
      "▁හමුවෙමු.": 9438,
      "▁අසාර්ථකයි": 9439,
      "▁ෆ්ලෑෂ්": 9440,
      "▁‍වේ‍දා‍ල": 9441,
      "▁බබ්ලූ": 9442,
      "▁ජෙම්:": 9443,
      "▁ඉන්ස්පෙක්ටර්": 9444,
      "OL": 9445,
      "sh": 9446,
      "ගම්": 9447,
      "ගස්": 9448,
      "ඤ්": 9449,
      "ලනය": 9450,
      "ව?": 9451,
      "ොන්ට": 9452,
      "▁කන්නේ": 9453,
      "▁අස්ථ": 9454,
      "▁සත්ව": 9455,
      "▁බන්ද": 9456,
      "▁කියවෙන්නේ": 9457,
      "▁උද්": 9458,
      "▁නැගී": 9459,
      "▁ඕනව": 9460,
      "වුවා.": 9461,
      "▁හිතෙන්න": 9462,
      "▁පැරි": 9463,
      "ද්දී.": 9464,
      "▁...ඔ": 9465,
      "▁\"...": 9466,
      "▁දුන්නේ.": 9467,
      "▁එන්න..": 9468,
      "▁තේමාව": 9469,
      "▁ගැණු": 9470,
      "▁කුටිය": 9471,
      "▁ප්‍රශ්නේ?": 9472,
      "▁යන්නේ!": 9473,
      "▁සංයු": 9474,
      "▁හුගා": 9475,
      "▁තියෙන්නේ...": 9476,
      "▁කෙල්ලේ.": 9477,
      "▁ඌන්": 9478,
      "වැල්": 9479,
      "▁උනත්.": 9480,
      "වෙලාවට": 9481,
      "▁වීදුරුව": 9482,
      "▁කරල.": 9483,
      "▁සිටියා": 9484,
      "▁අඩංගුවට": 9485,
      "▁Br": 9486,
      "▁මියගිය": 9487,
      "▁Ok": 9488,
[...]
