#version: 0.2
à ®
à ¯
à¯ į
à¯į à®
Ġ à®
à¯ ģ
à® ¿
à®¿ à®
à® ¾
à¯ģ à®
à®¾ à®
à¯įà® ķ
à¯ Ī
à® °
à® ³
à® µ
® à¯į
à® ¤
à® ©
à¯įà®ķ à®³
à¯įà® ¤
à¯ ĩ
à® ¯
Ġà® ħ
ķ à¯įà®ķ
à¯ģà® ®à¯į
à¯ Ĩ
č Ċ
à¯įà® ª
Ġà® ¨
Ġà® ķ
à® Ł
à® ²
à® ±
à® ®
à¯įà® Ł
à¯įà®ķà®³ à¯į
Ġà® ª
Ġà® µ
à® ª
à¯Ī à®¯
à®µ à®°
Ġà® ®
à¯įà® ±
Ġà® ĩ
à®¿à® ¯
à¯ Ģ
à® ķ
à® Ļ
à®¾à® ķ
à®¿à® ²
Ġà® ļ
à®¾à® ©
à®¾à® °
à®¿à® ©
à¯ģà® ķà¯įà®ķ
Ġà® ¤
. čĊ
Ġ (
Ġà® İ
à®¿à® °
¨ à¯įà®¤
à¯įà® ²
Ġà® ī
à®¤ à¯įà®¤
à¯ Ĥ
à®¿à® Ł
à® £
Ġà®ħ à®µà®°
à®² à¯įà®²
à®© à¯į
à® ®à¯į
à®ª à¯įà®ª
à®¤ à¯ģ
à¯įà® µ
à¯ģà® ķ
à¯ģà® ¤
à®¿à®² à¯į
à®¿à® ±
à® ķà¯įà®ķ
à®¾à®© à¯į
à¯įà® ļ
à¯ģà® Ł
Ġà®ļ à¯Ĩ
à® ¨
à®Ł à¯įà®Ł
à¯ģà® µ
ª à¯įà®ª
à® ħ
à®Ļ à¯įà®ķà®³à¯į
à®© à¯įà®±
à¯įà® ©
à® ļ
à®¾à® ²
à®Ļ à¯įà®ķà®³
à®¾à® ¤
à®¾à® ®à¯į
à®° à¯į
Ġà®ĩ à®°
Ġà®¨ à¯Ģ
à® ´
à®± à¯įà®±
à® ¨à¯įà®¤
Ġà®ļà¯Ĩ à®¯
à®¿à®© à¯į
à®¿à® ķ
à®¿à®° à¯ģà®
à®²à¯įà®² à®¾à®
à®® à®¾à®ķ
à®¿à® ¤
à¯ģà®ķà¯įà®ķ à¯ģ
à®²à¯įà®²à®¾à® ¹
à®¿à® ķà¯įà®ķ
à®¿à® ļ
à®© à¯įà®©
à®¾à®² à¯į
à®µ à®©
à® ĩ
à®¾à® Ł
à¯ģà®¤ à¯įà®¤
à¯Īà®¯ à¯ģà®®à¯į
à¯ģà® ®
Ġà®ķ à¯Ĥ
à¯įà® ³
Ġà®ħ à®²à¯įà®²à®¾à®¹
£ à¯įà®Ł
Ġà®ħà®µà®° à¯įà®ķà®³
à¯ģà®Ł à¯Īà®¯
à¯įà® ®
Ġà® Ĩ
à®µ à®©à¯į
Ġà®ħà®µà®° à¯įà®ķà®³à¯į
à®¿à®ļ à¯įà®ļ
à®©à¯įà®± à¯ģ
à®£ à¯įà®Ł
Ġà® Ĵ
à¯Ī à®ķ
à®¿à®ļà¯įà®ļ à®¯
à¯Ģ à®°
à®¿à®ļà¯įà®ļà®¯ à®®à®¾à®ķ
à®µ à¯ĩ
à®¾à®° à¯įà®ķà®³à¯į
à®µà®° à¯įà®ķà®³
à®¿à® µ
Ġà®ķà¯Ĥ à®±
Ġà®¨à¯Ģ à®Ļà¯įà®ķà®³à¯į
à®ª à¯į
à®µ à¯ģà®®à¯į
Ġà®µ à¯ĩ
à¯ ĭ
à¯ģà® ±
à®¿à®¤ à¯įà®¤
à®¿à® ªà¯įà®ª
à®¿à®°à¯ģà® ¨à¯įà®¤
à®¿à®Ł à¯įà®Ł
à¯ģà® ³
à® İ
Ġà®ª à¯Ĩ
à®¤ à¯Ī
Ġà®ĩà®° à¯ģà®ķà¯įà®ķ
à®ªà¯įà®ª à®Ł
à®¿à®© à¯įà®±
Ġà®ī à®Ļà¯įà®ķà®³
Ġà®İ à®©à¯įà®±à¯ģ
à®¾à®° à¯į
à®¾à® ¯
Ġà®ª à¯ĩ
Ġà®¨ à®¿à®ļà¯įà®ļà®¯à®®à®¾à®ķ
Ġà®ĩ à®±
à®Ļ à¯įà®ķ
à®¾à® µ
à¯ģà® ªà¯įà®ª
à®¾à® ±
à®¿à®² à¯įà®²
Ġ "
Ļ à¯įà®ķà®³à¯į
Ġ -
à¯Ī à®¤à¯įà®¤
à®¾à® ķà¯įà®ķ
à®² à¯į
à®µ à¯įà®µ
Ġà®Ĵ à®°
à®± à¯įà®ķ
Ġà®® à¯Ģ
à®¾à®Ł à¯įà®Ł
à®¾à® ³
à®©à¯įà®© à¯ģà®®à¯į
Ġà®İ à®©
Ġà®ħà®²à¯įà®²à®¾à®¹ à¯įà®µ
à¯ģà®ķ à¯į
Ġà®ļà¯Ĩà®¯ à¯įà®¤
Ġà®ħà®²à¯įà®²à®¾à®¹ à¯į
à¯įà® ¯
à®ªà¯įà®ª à®Łà¯įà®Ł
à¯ĩ à®°
à¯ģà®ķ à®¿à®±
à®µà®° à¯įà®ķà®³à¯į
à®¤ à¯į
à¯ģà® ª
Ġà®¨ à®¾à®®à¯į
à®¾à®¤ à¯ģ
Ġà®® à¯ģà®
à¯ Ĭ
Ġà®ħ à®¤
à¯ĩ à®¾
à®³ à¯į
à¯ĩ à®²
à®¿à®²à¯įà®² à¯Ī
à®Ł à¯ģà®¤à¯įà®¤
à¯Ī à®µ
à¯Īà®ķ à¯į
à®¿à®Ł à®®à¯į
à¯Ī à®ķà¯įà®ķ
Ġà®Ĵà®° à¯ģ
Ġà® ı
Ġà®ħ à®±
Ġà®ħ à®µà®©
Ġà®ĩà®± à¯Ī
Ġà®µ à®¿à®Łà¯įà®Ł
à¯Ī à®ªà¯į
Ġà®µ à®°
à®¿à®¯ à¯ĩ
à® ī
à¯ģà® Ļà¯įà®ķà®³à¯į
à¯ģà®³ à¯įà®³
à¯ģà® ¨à¯įà®¤
à® ¸
? čĊ
à®¤ à®±à¯įà®ķ
à®¿à®°à¯ģà®¨à¯įà®¤ à¯ģ
Ġà®ħ à®µà®©à¯į
à®¿à®° à¯ģà®ķà¯įà®ķ
à®® à¯įà®®
à®¤à¯įà®¤ à¯Ī
à®ļ à¯į
à®¾à® ®
à®¿à® ¨à¯įà®¤
à¯ĩà®² à¯ģà®®à¯į
Ġà®¨à¯Ģ à®°à¯į
à®³ à¯įà®³
à®µ à®±à¯įà®±
à®¾à®ķ à®µà¯ģà®®à¯į
à®© à¯Ī
à®° à¯įà®ķà®³
à® Ĩ
à¯Ģà®° à¯įà®ķà®³à¯į
à®³ à¯Ī
à¯ģà® °
Ġà®µ à¯Ĩ
à®¿à®¯ à¯ģà®®à¯į
à¯Ī à®ªà¯įà®ª
Ġà®ļà¯Ĩà®¯ à¯įà®¯
m e
Ġà®ķ à¯ĩ
Ġà®µ à®´
à¯įà®ķ à¯įà®ķ
o n
à®¨ à¯Ģ
à®® à¯įà®ª
Ġà®µ à®¿à®Ł
à®¿à®ķ à¯į
Ġà®ĩ à®©à¯įà®©à¯ģà®®à¯į
à¯ĩ à®©à¯į
à®ķ à¯į
à®ļ à¯įà®ļ
Ġà®µà¯ĩ à®£à¯įà®Ł
. .
à®ķà¯įà®ķ à¯ģ
à¯Īà®¯ à®¿à®²à¯į
Ġà®ĩà®° à¯ģà®¨à¯įà®¤
à®© à®¾à®²à¯į
à¯Īà®¯ à¯Ī
Ġà® ¯
Ġà®¨ à®¾à®©à¯į
à®¿à®² à¯ģà®®à¯į
à®¾à®° à¯įà®ķà®³
Ġ n
à®¤à¯įà®¤ à®¿à®²à¯į
Ġà®®à¯Ģ à®¤à¯ģ
à¯įà®¤ à¯įà®¤
) čĊ
à¯įà® ¨à¯įà®¤
Ġà®® à¯ģà®Ł
Ġà®ī à®³à¯įà®³
Ġà®ĩà®°à¯ģà®ķà¯įà®ķ à®¿à®©à¯įà®±
Ġà®ħ à®´
t i
à®¿à®°à¯ģà® ªà¯įà®ª
Ġà®İ à®©à¯įà®©
à®® à®¾à®©
Ġà®ķà¯Ĥà®± à®¿à®©
à®µà®° à¯į
à¯Ĩ à®°
Ġà®µà¯ĩ à®¤
Ġà®ķ à®¾à®
à®ª à®¿à®¯à¯ĩ
Ġà®®à¯ģà® ©
Ġà®ĩà®±à¯Ī à®µà®©
à®¿à®² à®¿à®°à¯ģà®¨à¯įà®¤à¯ģ
à¯įà® £
Ġà®ī à®Ļà¯įà®ķà®³à¯į
! )
à¯įà®ª à¯įà®ª
Ġà®ħ à®©
Ġà®ª à®¿à®©
Ġà®Ĩ à®ķ
; .
Ġà®¤ à¯Ĥ
Ġà®ħ à®²à¯įà®²
à®¨à¯įà®¤ à¯ģ
à®µ à®¿à®²à¯įà®²à¯Ī
Ġà®ª à®¯
Ġà®ĩ à®²à¯įà®²
® à¯įà®ª
Ġà®¤ à®µ
à¯Īà®¯ à¯ĩ
Ġà®ª à®Ł
a me
Ġà®ļà¯Ĩà®¯à¯įà®¤ à¯ģ
à¯ģà®Ł à®©à¯į
à®£ à¯įà®£
Ġà®¨ à®©
Ġà®ħ à®Ł
Ġà®ĩà®°à¯ģà®ķà¯įà®ķ à®¿à®±
Ġà®® à®¿à®ķ
à®¿à® ª
à®Ļà¯įà®ķà®³ à¯Ī
à®µà¯įà®µ à®¾à®±
Ġà®® à®©
à¯ģà®ķà¯įà®ķ à¯ģà®®à¯į
Ġà®ķ à¯ģà®±
Ġ t
à®¾à®± à¯įà®±
à®® à¯Ĥ
Ġà®īà®Ļà¯įà®ķà®³ à¯ģà®ķà¯įà®ķà¯ģ
Ġà®ħà®µà®°à¯įà®ķà®³ à¯ģà®ķà¯įà®ķà¯ģ
à¯įà®ķ à®¿à®±
à¯Īà®ķ à®³
Ġà®® à¯ĩà®²à¯ģà®®à¯į
a n
ti on
à®¨ à®¿à®ļà¯įà®ļà®¯à®®à®¾à®ķ
à¯ģà®µ à®°
à®¿à®ķ à®³
à¯Ģà®° à®¾à®ķ
ĥ à®ª
à®± à¯įà®ª
à®¨à¯Ģ à®Ļà¯įà®ķà®³à¯į
Ġà®ª à®¾à®°
à®© à®°à¯į
Ġà®ħà®µà®° à¯į
Ġà®ī à®£
à®±à¯įà®± à®¿
Ġà®® à®±
à¯ģà®ª à¯į
Ġà®ħ à®°
à®¾à®ķ à¯ģà®®à¯į
à¯Ĥ à®®
Ġà®® à¯Ĥ
à® ¹
à®¤ à¯ģà®®à¯į
à®¿à®°à¯ģà® ®à¯įà®ª
à®ĩ à®©à¯įà®©à¯ģà®®à¯į
Ġà®¨ à¯ĩà®°
à®ķ à®¤à¯įà®¤
à¯Ĩ à®¯
à®¾à® Ļà¯įà®ķà®³à¯į
Ġà®ª à®¿à®°
à¯įà® °
i n
à®¾à®Ł à¯įà®ļ
à®¿à®¯ à¯Ī
à®¿à®¤à¯įà®¤ à¯ģ
Ġà®¨ à®¿à®°
à®¿à®Ł à®®
Ġà®ħà®²à¯įà®²à®¾à®¹à¯įà®µ à®¿à®©à¯į
Ġà®µ à®¿à®
Ġà®ĩà®²à¯įà®² à¯Ī
Ġà®¨ à¯ĩ
Ļ à¯įà®ķ
Ġà®ħà®µà®°à¯įà®ķà®³ à¯Ī
à®ħ à®²à¯įà®²à®¾à®¹
à®¿à®¯ à®¿à®²à¯į
à¯įà®® à¯Īà®¯
Ġà®ħà®²à¯įà®² à®¤à¯ģ
à®µ à¯Ī
à¯ģà®ķ à®³
à®¨ à®¾à®©à¯į
Ġà®® à®¾à®Łà¯įà®Ł
à¯įà®© à®°à¯į
Ġà®¤ à®¾à®©à¯į
à¯ģà®® à¯įà®ª
Ġà®ī à®®à¯įà®®
à®² à¯Ī
Ġà®ī à®°
Ġà®ķà¯Ĥà®± à¯ģà®µ
Ġà®ª à¯Ĥà®®
Ġà®ªà¯Ĩ à®°
à®¿à® ®
e s
à®¿à®± à¯įà®ķ
Ġà® ĵ
à®µ à¯ģ
Ġà®µ à®¨à¯įà®¤
à®± à¯ģ
Ġà®ĩà®° à¯ģà®ªà¯įà®ª
Ġà®ļà¯Ĩà®¯ à¯įà®µ
Ġà® Ī
! čĊ
à®© à¯įà®ª
Ġà®ħ à®¤à¯Ī
Ġà®Ĩ à®©à®¾à®²à¯į
Ġà®ķ à®Ł
à®©à¯įà®± à®¿
Ġà®¤ à¯ĩ
Ġà®ļà¯Ĩ à®²
Ġà®İà®© à¯įà®ª
à¯ģà® ļ
: čĊ
Ġà®ħà®µà®°à¯įà®ķà®³ à¯ģà®Łà¯Īà®¯
Ġà®ħ à®®
à® Ĵ
Ġà®¤à¯Ĥ à®¤
à®Ł à®¿à®¯
à¯ĩ à®¯
i t
à¯ģà® ´
Ġà®¨ à®¿à®²
à® ŀ
à®® à®¾à®©à¯į
à®¾à® ļ
) .čĊ
Ġà®ĩ à®¤
Ġà®¨ à®¾à®³
Ġà®®à®© à®¿à®¤
à®¤à®±à¯įà®ķ à¯ģ
Ġà®µà¯Ĩ à®³
e r
à¯ģà®ķ à®³à¯į
à®©à¯įà®± à®¿à®¯à¯ģà®®à¯į
à¯Ī à®¤à¯į
Ġà®İ à®©à¯įà®±
Ġà®ħ à®³
Ġà®®à¯ģà®Ł à®¿à®¯
à®¿à®¨à¯įà®¤ à¯ģ
Ġà®¨ à®¾à®Ł
Ġà®® à¯ģà®±
Ġ a
à¯ĭ à®ªà¯įà®ª
à®¤ à®µ
Ġà®ī à®£à¯įà®Ł
à¯Ģà®° à¯įà®ķà®³
Ġà®¨ à®Ł
Ġà®ª à®¾à®¤
Ġà®ħà®± à®¿à®µ
Ġà®ĩà®±à¯Ī à®µà®©à¯į
Ġà®ķà¯ĩ à®Ł
Ġà®İ à®¤
à®¾à®ķ à®°
à®ŀ à¯įà®ļ
Ġà®ħ à®¤à¯ģ
à®¿à®© à¯ģà®®à¯į
à¯ģà® ²
à¯ģà®¤ à®¿à®¯
Ġà®® à®±à¯įà®±
Ġà®ķ à®Łà¯įà®Ł
Ġà®ĩ à®Ł
à®¿à®ķà¯įà®ķ à¯Ī
Ġà®¤à®µ à®¿à®°
Ġà®ħ à®¨
Ġ k
a l
à®® à¯ĩà®²à¯ģà®®à¯į
à®¾à®© à¯įà®±
à®¾à®ķ à®µà¯ĩ
l a
Ġà®İ à®´
Ġà®® à®ķ
à¯ģà® ©
Ġà®¨ à®®à¯įà®ª
à®ħ à®µà®°à¯įà®ķà®³
à¯ģà®¤ à¯į
Ġà®ķà®¾à® £
Ġà®¨ à®¾à®Ļà¯įà®ķà®³à¯į
à®²à¯įà®² à®¾à®®à¯į
à¯Ĩ à®³
à®® à®¿à®©
à¯įà®ķà®³ à¯Ī
Ġà®ħ à®¤à¯įà®¤
à®° à¯įà®ķà®³à¯į
Ġà®ĩ à®¨à¯įà®¤
Ġà®ª à®±à¯įà®±à®¿
Ġà®® à®©à¯įà®©
à®ªà¯įà®ªà®Ł à¯ģà®®à¯į
à®İ à®©
à®¤ à¯ĩ
à®° à¯ģà®®à¯į
Ġà®µà¯ĩà®£à¯įà®Ł à¯ģà®®à¯į
à®¿à®¯ à®¾à®¯
e d
Ġà®ķ à®¾à®°
à¯įà® ¨
à®¿à® ´
à¯ģà®® à¯Īà®¯
o r
Ġà®İ à®©à¯į
ĥà®ª à®¿à®°
Ġà®ķà¯Ĥà®±à®¿à®© à®¾à®°à¯į
à¯Ĩ à®Ł
à®¿à®ķ à®³à¯į
Ġà®¤ à¯Ģ
Ġà®¤ à®®à¯į
Ġ d
Ġà®¤ à¯ĩà®°
à¯Īà®¤à¯įà®¤ à¯ģ
Ġà®¨à®¿à®° à®¾à®ķà®°
à®µà¯įà®µà®¾à®± à¯ģ
à¯Ĩ à®©
Ġà®¨ à®¿à®±
Ġ p
Ġà®ĩà®°à¯ģà®ķà¯įà®ķà®¿à®©à¯įà®± à®¾à®©à¯į
à¯įà® ¸
ĥ à®®à®¿à®©
g m
à®ħ à®µà®°à¯įà®ķà®³à¯į
Ġà®Ī à®®à®¾à®©à¯į
à®¾à®¯ à¯į
Ġà®ļ à®¿à®²
N ame
Ġk gm
Ġà®µ à®ļ
Ġà®® à®¿à®ķà¯įà®ķ
r o
Ġà®¨ à®²à¯įà®²
à®¿à®°à¯ģà®ķà¯įà®ķ à®¿à®±
Ġà®ļ à®®à¯Ĥ
Ġà®ª à®²
Ġà®ª à®ķ
Ġà®ª à®°
à®¾à® ´
à®¤ à®¿à®²à¯į
Ġà®¨à®© à¯įà®ķ
Ġà®ħ à®µà®±à¯įà®±
Ġà®Ĩà®ķ à®µà¯ĩ
Ġà®ī à®¯
Ġà®ī à®±
Ġà®®à¯ģà®© à¯įà®©
r an
Ġà®ļ à®¨à¯įà®¤
à®¾à®² à¯ģà®®à¯į
Ġà®® à¯ĩ
o p
à®¿à®¤à¯įà®¤ à¯ģà®ķà¯į
à¯ĭ à®®à¯į
à®ķ à¯Īà®¯
Ġà®µà¯ĩà®¤ à®©
à®¤à¯įà®¤ à®¿à®¯
à®¾à®ķà¯įà®ķ à®¿
Ġà®ĩà®± à®ķà¯įà®ķ
à®° à¯ģ
Ġà®ļà®®à¯Ĥ à®ķà®¤à¯įà®¤
Ġà®µ à®¿à®°à¯ģà®®à¯įà®ª
? "
Ġà®ħà®© à¯ģà®ªà¯įà®ª
Ġà®ķ à®¾à®Łà¯įà®Ł
Ġà®¨ à®¿à®©
Ġà®ķ à¯ĭà®ªà¯įà®ª
à®ħà®²à¯įà®²à®¾à®¹ à¯įà®µ
à®¤ à¯Īà®¯à¯ģà®®à¯į
Ġà®īà®Ļà¯įà®ķà®³ à¯Ī
Ġà®İ à®µà®°
Ġn ame
Ġà®ħà®¤à¯įà®¤ à®¾à®Łà¯įà®ļ
à¯Ģ à®°à¯į
à¯ģà®ļ à¯į
Ġà®ĩ à®¤à¯ģ
à¯ģà®¤ à®¿
à¯ģà®ķ à®¿à®©à¯įà®±
Ġà® ¸
à¯Ĩ à®²à¯įà®²à®¾à®®à¯į
à®Łà¯įà®Ł à¯ģ
à®Ĩ à®ķ
à®° à®ķ
Ġà®ī à®¤à®µ
Ġà®µ à®¾à®©
o t
à¯ģà®³ à¯į
Ġà®ļ à¯ĩ
Ġà®®à®¿à®ķ à®µà¯ģà®®à¯į
Ġà®® à®¾à®±à¯įà®±
à¯ģà®ķà¯įà®ķ à®¾à®ķ
à®¿à®¯ à®¾à®ķ
Ġà®ļ à¯ĩà®°
Ġà®®à¯Ģ à®¤à¯ģà®®à¯į
à®¿à®µ à®¿à®Ł
à®ķ à®°
Ġà®İà®©à¯įà®ª à®¤à¯Ī
Ġà®ı à®±à¯įà®ª
Ġà®µ à¯Īà®¤à¯įà®¤
à¯Īà®ķ à®³à¯į
Ġà®ļ à®ķ
.. .čĊ
Ġà®ķà¯Ĥ à®Łà¯įà®Ł
Ġà® ľ
" čĊ
à®Ł à¯Ī
Ġà®ī à®®
it y
Ġà®µà®¿à® ³
à®µà®© à®¾à®ķà®µà¯ģà®®à¯į
Ġà®ĩà®°à¯ģà®ķà¯įà®ķà®¿à®± à®¤à¯ģ
Ġà®¤ à®©à¯į
à®¤à¯įà®¤ à®¿à®©à¯į
à®¤à®±à¯įà®ķ à®¾à®ķ
Ġà®İ à®¨à¯įà®¤
à®¿à®© à®¾à®²à¯į
à®Ļà¯įà®ķà®³ à¯ģà®ķà¯įà®ķà¯ģ
à¯įà®µ à®´
Ġà® °
à®¤ à®¿
à®¾à®¤ à¯Ģà®°à¯įà®ķà®³à¯į
à®¿à®°à¯ģà®ķà¯įà®ķ à¯ģà®®à¯į
ran s
à®¤à¯įà®¤ à®¿à®±à¯įà®ķ
Ġà®® à®°
Ġà®ķ à®£
à¯ģà® Ļà¯įà®ķ
Ġà®ĩ à®¯
à®° à¯Ī
C ity
rans la
à®µà®°à¯įà®ķà®³ à®¾à®ķ
à¯Ģ à®´
à®¿à®Łà®® à®¿à®°à¯ģà®¨à¯įà®¤à¯ģ
à¯įà®¨à¯įà®¤ à¯ģ
Ġt ransla
à®µà®°à¯įà®ķà®³ à¯ģà®ķà¯įà®ķà¯ģ
Ġ s
à®¿à®ķà¯įà®ķ à®ªà¯įà®ªà®Łà¯įà®Ł
Ġà®ªà®¿à®© à¯įà®©à®°à¯į
à¯Ĩà®³ à®¿à®µ
à®ĩ à®±
Ġà®ħ à®µ
Ġà®ļ à®®
à¯ģà®ķà®¿à®± à®¤à¯ģ
op tion
à®©à¯įà®± à¯ģà®®à¯į
à®¾à®° à¯įà®¤à¯įà®¤
Ġà®ļ à¯Ĥ
Ġà®ĩ à®£
Ġà®ļ à®¿à®±
Ġà®®à®©à¯įà®© à®¿à®ªà¯įà®ª
Ġà®¨ à¯Ĩà®°
Ġà®ħ à®ļà¯įà®ļ
à®© à¯ģà®®à¯į
Ġà®ķ à®¾à®²
à®® à®¾à®Łà¯įà®Ł
à¯Īà®ķ à®³à¯Ī
à®ĩ à®¤à¯ģ
Ġà®Ĩ à®ķà¯įà®ķ
Ġà®ķ à®°
Ġà®ļà¯Ĩà®¯ à¯įà®ķà®¿à®±
à®Ĩà®ķ à®µà¯ĩ
à®² à®¾à®®à¯į
Ġà®¤ à®°
l y
Ġà®µ à¯Ģ
à®ªà¯įà®ªà®Ł à¯ģà®¤à¯įà®¤
à®ħ à®¤
Ġà®ħ à®¨à¯įà®¤
à¯ģà®ķ à®³à¯Ī
à®¿à®ķà¯įà®ķ à¯ģà®®à¯į
Ġà®ļà¯Ĩà®¯ à®²
à¯ģà®ķà¯įà®ķ à¯ģà®ķà¯į
à®¾à®± à¯ģ
Ġà®ªà¯Ĩ à®±
à®ĩ à®¨à¯įà®¤
option al
à¯įà®® à¯Ī
Ġà®İ à®£à¯įà®£
à¯ģà®ķà®¿à®± à®¾à®°à¯įà®ķà®³à¯į
Ġà®ħà®¤ à®¿à®ķ
Ġà®µà®¿à®Łà¯įà®Ł à¯ģà®®à¯į
Ġà®ĩà®°à¯ģà®ķà¯įà®ķ à¯ģà®®à¯į
Ġà®ļ à®°
à®Ļà¯įà®ķà®³ à®¿à®²à¯į
.. .
à®¾à® ª
Ġà®¤ à¯Ģà®°
Ġp ro
à¯Īà®µ à¯ģ
Ġà®¤ à¯Ĩà®³à®¿à®µ
b a
à¯Ĭ à®Ł
à®µà®°à¯įà®ķà®³ à¯Ī
e n
Ġà®ħà®¨ à®¿à®¯à®¾à®¯
Ġà®ī à®Ł
Ġà®ª à®Łà¯įà®Ł
à®ªà¯įà®ªà®Ł à¯ģà®µ
Ġà®ªà®¯ à®©à¯įà®ª
( à®ħ
à®Ļà¯įà®ķ à¯ģ
Ġà®®à®±à¯įà®± à¯ģà®®à¯į
Ġà®µ à®¿à®°
Ġà®ī à®®à¯į
Ġà®¨à¯ĩà®° à¯įà®µà®´
à¯ģà®° à®¿à®¯
à¯ģà®ķà¯įà®ķ à¯ĩ
Ġà®İà®© à®µà¯ĩ
Ġà®ĩ à®µà¯įà®µ
à¯Īà®¯ à®¾
Ġà®ķ à®¿à®Ł
Ġà®®à¯ģà® ĥà®®à®¿à®©
Ġn e
à¯ģà®ķà¯įà®ķ à¯ģà®ªà¯į
Ġà®ªà¯Ĥà®® à®¿à®¯
Ġà®ªà¯Ĩ à®£
Ġà®¯ à®¾à®°à¯į
Ġà®®à®¾à®Łà¯įà®Ł à®¾à®°à¯įà®ķà®³à¯į
Ġn ot
Ġà®ª à®¿à®Ł
à®Ł à¯ģ
Ġà®µ à®£
à¯Īà®¯ à®¾à®ķ
à¯ģà®ķà®¿à®± à®¾à®©à¯į
Ġà®¤ à®¿à®°à¯ģà®®à¯įà®ª
à®¿à®© à¯ĭà®®à¯į
à®µà®±à¯įà®± à¯Ī
Ġà®µà®¿à®Ł à¯ģà®µ
Ġà®µà®¿à®Łà¯įà®Ł à¯ģ
à®¿à® ³
à® ı
à¯Ĭ à®°
Ġà®īà®£ à¯įà®®à¯Īà®¯
à®¿à®ķà¯įà®ķ à®¿à®±
Ġà®¤ à¯Ĩà®°
Ġà®Ĩ à®¤
Ġà®ª à®¾à®µ
Ġà®İà®© à®ķà¯įà®ķà¯ģ
Ġà®ªà®¿à®© à¯įà®ª
Ġà®® à¯ĩà®²
Ġd o
à®Ĩ à®©à®¾à®²à¯į
Ġà®¨ à®®à¯įà®®
à® ľ
à®ħ à®µà®©
à®Ł à®¿
Ġà®ļà¯Ĩà®¯ à¯įà®ª
à®ļà¯įà®ļ à®°
Ġà®ªà®¾à®° à¯įà®ķà¯įà®ķ
. "čĊ
Ġà®ħ à®©à¯įà®±à®¿à®¯à¯ģà®®à¯į
Ġ '
à®µ à®¿à®²à¯įà®²
Ġne ed
Ġà® ŀ
Ġà®ļ à®¤à¯įà®¤à®¿à®¯
Ġtransla tion
à®¿à®ķ à®³à¯Ī
Ġà®ķ à®£à¯įà®Ł
à®ķà¯įà®ķ à®¾à®°
à¯įà®¤ à®¿à®¯
à®® à¯ģà®®à¯į
Ġà®ĩ à®µà®°à¯įà®ķà®³à¯į
Ġà®ªà¯Ĩ à®¯
ba b
à®® à¯ĩ
Ġà®µà®ļ à®©
à®İ à®©à¯įà®±à¯ģ
à®¤à¯įà®¤ à¯Īà®¯à¯ģà®®à¯į
à®¿à®°à¯ģà® ª
r e
Ġà®ª à®ķà¯įà®ķ
Ġà®¤ à®Ļà¯įà®ķà®³à¯į
Ġà®ķ à¯Ĩ
h e
Ġà®ªà®Ł à¯Īà®¤à¯įà®¤
à¯ģà®¤ à¯ģ
à®Ļà¯įà®ķà®³ à¯Īà®¯à¯ģà®®à¯į
Ġ c
Ġ in
Ġdo es
Ġà®¤ à®¿à®°
Ġà®¨à®©à¯įà®ķ à®±
Ġà®ªà¯Ĩ à®±à¯įà®±
à®¤à¯įà®¤ à®ķà¯Īà®¯
Ġpro bab
à¯ģà® £
à®Łà¯įà®Ł à®¿
Ġprobab ly
Ġà®İ à®Łà¯ģà®¤à¯įà®¤
Ġà®ħà®µà®© à¯ģà®Łà¯Īà®¯
Ġà®ķà¯Ĥà®±à¯ģà®µ à¯Ģà®°à®¾à®ķ
à®µà®© à®¾à®ķ
Ġà®İà®© à®¿à®©à¯ģà®®à¯į
Ġà®ª à¯ģà®±
à®¾à®© à®¾à®²à¯į
Ġà®Ĵ à®µà¯įà®µ
Ġà®ħà®± à®¿à®¨à¯įà®¤à¯ģ
à®¿à®°à¯ģà®ķà¯įà®ķ à®¿à®©à¯įà®±
à¯įà®µ à¯ģ
Ġà®ħ à®ŀà¯įà®ļ
à®İ à®©à¯į
à®ķ à¯ģ
Ġà®® à®²
à®¿à®© à¯Ī
à®£ à®®à¯į
Ġà®ŀ à®¾à®©
à®ħà®²à¯įà®²à®¾à®¹ à¯į
à®¤ à®¿à®¯
Ġà®µ à®¿à®²
à®ķà¯įà®ķ à¯Ĥ
à¯ģà® £à¯įà®Ł
à¯Ģà®°à¯įà®ķà®³ à®¾
Ġà®ħà®µà®°à¯įà®ķà®³ à®¿à®²à¯į
Ġà®µ à®¾à®´
à®ħ à®©à¯įà®±à®¿à®¯à¯ģà®®à¯į
à®¾à® Ļà¯įà®ķ
Ġà®ķà®¾à® ĥà®ªà®¿à®°
à®¾à® £
à¯įà®ļ à¯įà®ļ
Ġà®ħà®µà®°à¯įà®ķà®³ à®¿à®Łà®®à¯į
Ġà®ª à¯ģà®ķ
Ġà®ķà®¾à®£ à¯įà®ª
à®¾à®° à¯įà®ķà¯įà®ķ
Ġà®İ à®µà®°à¯į
à¯Īà®ªà¯įà®ª à¯ģ
, čĊ
à®¾à®µ à®¤à¯ģ
Ġà®µà¯ĩ à®±à¯ģ
n t
Ġà®ļà¯Ĩ à®²à¯įà®²
Ġà®ħà®µà®© à¯ĩ
à¯ģà®¤ à®²à¯į
à®¾à®® à®²à¯į
Ġà® ¹
à®² à®¿
à®Łà¯įà®Ł à¯ģà®®à¯į
à® ·
Ġà®īà®£à¯įà®Ł à¯ģ
à®µà¯įà®µà®¾à®± à¯ĩ
à¯ĩà®¯ à¯ĩ
Ġà®µà®£ à®Ļà¯įà®ķ
à®¾à®ķà¯įà®ķ à®¿à®¯
à®Ĵ à®°à¯ģ
Ġà®µà®´ à®¿
Ġà®ķ à¯Ģà®´
Ġà®ĵ à®°à¯į
à®¤ à®¿à®²à¯įà®²à¯Ī
a r
Ġà®µà¯ĩà®¤ à®©à¯Ī
Ġà®ħà®± à®¿à®¯
à®¤ à®¾à®ķ
Ġà®ļà®®à¯Ĥà®ķà®¤à¯įà®¤ à®¾à®°
à®Ļà¯įà®ķ à¯ĩ
Ġà®İà®¤ à®¿à®°
Ġà®ķà¯Ĥà®± à¯ģà®®à¯į
Ġà®ª à®¿à®©à¯į
o m
à®¿à®² à¯ģà®³à¯įà®³
Ġà®ķ à¯ģà®´
à¯Ī à®¨à¯įà®¤
Ġà®ħà®¤ à®±à¯įà®ķ
Ġà®ª à®¤
Ġà®ĩ à®´
à®¨ à®¾à®®à¯į
Ġà®¤ à®¾à®®à¯į
à®¤à¯Ī à®ªà¯į
à®ª à®ķ
à®¿à®µ à¯ģ
Ġà® Ł
Ġà®ªà®¾à®¤ à¯ģà®ķ
à®ªà¯įà®ªà®Ł à®¿
Ġà®īà®¯ à®¿à®°
Ġà®®à¯ģà®Łà®¿à®¯ à®¾à®¤à¯ģ
à®¾à®¯ à®¾à®ķ
Ġà®Ĵà®° à¯ģà®µ
à¯įà®ķà®³ à¯ģà®ķà¯įà®ķà¯ģ
à®±à¯įà®± à®¿à®¯
Ġà®®à®©à®¿à®¤ à®°à¯įà®ķà®³
Ġà®µ à®¾à®ķà¯įà®ķ
Ġà®¨à®®à¯įà®ª à®¿à®ķà¯įà®ķà¯Ī
Ġà®ħà®¤ à®¿à®²à¯į
a t
Ġà®µà¯Ĩà®³ à®¿à®¯à¯ĩ
o u
à®ĩ à®¤
à®ļ à®°
à®¾à®Ł à¯ģ
à®¿à®Ł à¯Īà®¯à¯ĩ
Ġà®İà®©à¯įà®© à¯Ī
à®² à®®à¯į
Ġà®¤à¯ĩà®° à¯įà®¨à¯įà®¤
Ġà®¨ à®®à¯į
à®ª à®¿à®©
Ġà®ļà¯Ĩà®² à¯ģà®¤à¯įà®¤
Ġà®¨ à®°à®ķ
Ġà®ħ à®µà¯įà®µ
à®¾à®© à¯ĭ
Ġà®ħà®° à¯ģà®³
à®µ à¯Īà®¯
Ġà®ªà®¯à®©à¯įà®ª à®Łà¯ģà®¤à¯įà®¤
Ġà®®à¯ģà®© à¯į
à®¿à®ªà¯įà®ª à¯ģ
Ġà®īà®³à¯įà®³ à®¤à¯ģ
Ġà®īà®® à®ķà¯įà®ķà¯ģ
à¯ģà®µ à®¿à®Ł
à®¿à®ļ à¯į
Ġà®īà®¤à®µ à®¿
Ġ .čĊ
Ġà®¤ à®Ļà¯įà®ķ
Ġà®µà¯ĩ à®±
à®£à¯įà®Ł à¯ģ
à®£à¯įà®Ł à¯ģà®®à¯į
à®ħ à®¤à¯ģ
Ġà®İ à®ļà¯įà®ļà®°
Ġà®ļà¯Ĩ à®µ
Ġà®µ à®¿à®ļ
Ġà®ħà®´ à®ķ
Ġà®īà®° à¯ģà®µ
Ġà®ķà¯Ĥà®Łà¯įà®Ł à®¤à¯įà®¤
i c
i s
à¯įà®¤à¯įà®¤ à¯ģ
à¯ģà®® à®¾
Ġà®ħà®¤ à®©à¯į
Ġà®¤à¯Ģà®° à¯įà®ªà¯įà®ª
à®¿à®² à®¿à®°à¯ģà®¨à¯įà®¤
l e
à¯įà®ķà®³ à¯Īà®¯à¯ģà®®à¯į
à¯įà®¤ à®¾à®©à¯į
à®¾à®³ à®°
à®ĩà®± à¯Ī
à®¯ à®¾à®µ
à¯įà®¨ à®¾à®³
à¯ģà®µ à®¿à®Łà¯įà®Ł
Ġà®¤ à®Ł
à®İ à®©à¯įà®©
à¯Ĩà®© à®¿à®²à¯į
Ġà® Ĭ
à®İà®© à®µà¯ĩ
Ġà®¯ à®¾à®µ
à®° à¯Īà®¯à¯ģà®®à¯į
à®¿à®¤ à¯į
Ġà®ı à®±à¯įà®±
à¯Īà®¯ à¯ģà®Łà¯Īà®¯
Ġà® Ĳ
Ġà®İ à®Ļà¯įà®ķà®³à¯į
à®¾à®¤ à¯įà®¤
Ġà®īà®®à¯įà®® à¯ģà®Łà¯Īà®¯
Ġà®ª à®¿à®±
à®® à¯Ī
Ġà®ķà¯ĩ à®Łà¯įà®Ł
Ġà®ķà¯Ĥà®±à®¿à®© à®¾à®°à¯įà®ķà®³à¯į
Ġà®İà®´ à¯ģà®¤
Ġà®ªà¯ĩ à®ļ
Ġà®ķà®Łà¯įà®Ł à®³
à®ī à®Ļà¯įà®ķà®³à¯į
Ġà®¨à®¾à®Ł à®¿à®¯
Ġà®ªà®¿à®© à¯įà®©
! "
Ġà®ļà¯Ĩà®¯à¯įà®¯ à¯ģà®®à¯į
Ġà®ķ à¯ģà®°
Ġà®µà®° à¯Ī
à®Ļà¯įà®ķà®³ à¯ģà®®à¯į
Ġà®ħà®µà®° à¯Ī
à¯ģà®¤ à®²
Ġà®İà®©à¯įà®± à¯ģà®®à¯į
à¯ģà®® à¯Ī
à¯įà® Ĩ
à®ħ à®µà®°à¯į
Ġà®® à¯ģà®ķ
à¯ģà®® à®¿à®²à¯įà®²à¯Ī
à¯ģà®ķà¯įà®ķ à¯ģà®¤à¯į
Ġà® ·
à¯ģà®µ à¯ĩ
Ġ C
à®Ł à¯įà®ļ
à®© à¯Ĩà®©à®¿à®²à¯į
Ġà®ķà¯ģà®± à¯įà®±
à®² à®ķ
Ġà®¤ à®¿à®Łà¯įà®Ł
Ġà®İ à®Ļà¯įà®ķà®³
Ġà®Ĩ à®£
Ġà®ĩà®°à¯ģà®¨à¯įà®¤ à®¾à®²à¯į
Ġà®ķà¯ģà®± à®¿à®ªà¯įà®ª
Ġà®ķà¯ĩà®Ł à¯įà®ķ
à®µà¯ĩ à®¤
Ġà®ħà®µà®© à¯ģà®ķà¯įà®ķà¯ģ
à¯ģà®¤à¯įà®¤ à¯ģ
Ġà®¨à®© à¯įà®®
Ġà®¤à¯Ĩà®³à®¿à®µ à®¾à®©
à®¿à® ¸
à®ªà¯įà®ªà®Łà¯įà®Ł à®¤à¯ģ
Ġà®µà¯ĩà®£à¯įà®Ł à®¾à®®à¯į
Ġ b
à¯Īà®ķà¯įà®ķ à¯ģ
Ġà®ĩà®±à¯Īà®µà®© à®¿à®©à¯į
à®ķà¯įà®ķà¯Ĥ à®Łà®¿à®¯
· à®¯
Ġà®ª à¯ĭ
Ġà®ķ à®¿à®°à¯ģà®ª
à®¿à®© à®¾à®©à¯į
Ġà®ķà®¾à®° à®£
Ġà®µ à¯Īà®ķà¯įà®ķ
à®¸ à®¾à®µ
à¯įà® ħ
à®Łà¯įà®Ł à¯Ī
à®¸ à¯į
Ġà®īà®Ļà¯įà®ķà®³ à¯ģà®Łà¯Īà®¯
Ġà®¨à®¿à®² à¯Ī
à®¾à® ªà¯įà®ª
à¯įà®¨à®¾à®³ à®¿à®²à¯į
Ġà®¤ à®ķ
Ġà®¤à¯ĩ à®Ł
à®® à®±
Ġà®ĩ à®µà®°à¯įà®ķà®³
à¯ģà®± à¯įà®±
Ġà®ļ à®¾à®°
Ġà®ªà®¿à®° à®¾à®°à¯įà®¤à¯įà®¤
Ġà®¨à¯Ĩà®° à¯ģà®ªà¯įà®ª
à®±à¯įà®± à¯Īà®¯à¯ģà®®à¯į
Ġà®ªà®¿à®©à¯įà®ª à®±à¯įà®±
à®¿à®° à¯ģà®µà®°
Ġà®ħà®© à¯ģà®®
à®¿à®ķà¯įà®ķ à®¿à®©à¯įà®±
me nt
Ġà® ²
à®µ à®¾à®©
à®¤à¯įà®¤ à®¿à®²à®¿à®°à¯ģà®¨à¯įà®¤à¯ģ
Ġà®Ĩ à®µ
à®µà®¿à®²à¯įà®² à¯Īà®¯à®¾
Ġà®¤ à®Ļà¯įà®ķà®³
à®¿à®ª à¯į
Ġà®¤ à®©
Ġà®µ à®Ł
i l
à¯įà®¸ à¯į
à¯įà®ķà®³ à¯ģà®®à¯į
à®® à¯ģà®Łà¯Īà®¯
à®ķà¯įà®ķ à®£
à¯Ĩà®Ł à¯ģà®ķà¯įà®ķ
à®© à®¾à®ķ
à¯ģà®³à¯įà®³ à®¤à¯ģ
Ġà®ķà¯Ĩ à®Łà¯įà®Ł
à®¿à®Ł à®¤à¯įà®¤à®¿à®²à¯į
à®¹ à¯įà®®
Ġà®¨à®¾à®³ à®¿à®²à¯į
à®¾à®¯ à®¿à®©à¯į
Ġà®İ à®µà®°à¯įà®ķà®³à¯į
à¯Ĥ à®°
Ġà®ļ à®¾à®Łà¯įà®ļ
Ġà®īà®± à¯ģà®¤à®¿à®¯
à®µà¯ĩ à®±à¯ģ
Ġà®ĩà®°à¯ģà®¨à¯įà®¤ à¯ģ
Ġà®¨ à®ķà®°
Ġt he
Ġà®ª à®£
à®® à¯ģà®
à®¾à®® à®¾
à®® à®©
Ġà®¤ à®¿à®°à¯ģà®ªà¯įà®ª
Ġà®µ à®²
Ġ f
Ġà®Ĵà®° à¯ģà®µà®°
à®¿à®°à¯ģà®¨à¯įà®¤ à®¾à®²à¯į
à¯ģà®² à®ķ
Ġà®µ à®¨à¯įà®¤à¯ģ
à¯ģà®¤ à®¾à®©à¯į
Ġà®ªà¯Ĥà®® à®¿à®¯à®¿à®²à¯į
Ġà®ļà¯Ĥ à®´
Ġà®ħà®µà®° à¯ģà®ķà¯įà®ķà¯ģ
Ġà®ķ à¯ģà®Ł
à¯ģà®µ à®¾à®°à¯įà®ķà®³à¯į
à®¿à®² à¯ĩà®¯à¯ĩ
à®İ à®©à¯įà®±à¯ģà®®à¯į
à¯ģà®® à¯ĩ
à®¤à¯ĩ à®ļ
Ġà®ī à®©à¯įà®©
à¯Īà®¯ à®¾à®©
Ġà®µ à®¿à®µ
Ġà®ķà®¾à® ªà¯įà®ª
Ġ w
à¯ģà®ķà®¿à®± à¯ĩà®©à¯į
Ġà®īà®Ļà¯įà®ķà®³ à®¿à®Łà®®à¯į
à¯įà®Ł à¯ģ
Ġà®¤ à®¿à®±
Ġà®ħà®µà®© à¯Ī
Ġà®µ à®¿à®¤
Ġà®ħà®µà®° à¯ģà®Łà¯Īà®¯
à®± à®¿à®¯
Ġà®īà®°à¯ģà®µ à®¾à®ķà¯įà®ķ
Ġà®ļà¯Ĩ à®©à¯įà®±
Ġà®ķ à¯Ĭ
Ġà®ĩà®¯ à®²
o l
Ġà®µ à®¾à®°
à¯įà®ķà®³ à®¿à®©à¯į
à®¾à® ¹
Ġà®ĩà®° à¯ģ
Ġà®ħà®± à®¿à®¨à¯įà®¤
à®ħ à®µà®°
à¯įà®ķ à®¿à®©à¯įà®±
à¯Īà®¯ à®¿à®©à¯į
Ġà®ħ à®²
Ġà®ķà®¾à®° à®¿à®¯
Ġà®ħà®Ł à®¿à®¯
à®¤ à®¾à®ķà¯ģà®®à¯į
à®ĩ à®°
Ġà®µà®´ à®¿à®ķ
Ġà®µ à®ķ
à¯įà®ķà®³ à®¿à®²à¯į
Ġà®ªà¯ĩ à®°
à®¤ à®¿à®°
Ġà®· à¯Īà®¤à¯įà®¤
Ġà®¤ à®¨à¯įà®¤
Ġà®ªà¯ģà®± à®ķà¯įà®ķà®£
- čĊ
Ġà®¨à¯Ģ à®ķà¯įà®ķ
à®¿à®µ à®¿à®Łà¯įà®Ł
à®¿à®¯ à®¾
Ġà®ª à¯ģà®°
à®ļ à¯Ĩà®¯
Ġà®®à¯ģà®Łà®¿à®¯ à®µà®¿à®²à¯įà®²à¯Ī
Ġà®ķà¯ĩà®Ł à¯įà®ª
à¯Īà®ķà¯įà®ķ à¯ģà®®à¯į
à®¾à®³ à¯į
Ġà®ļ à¯ģà®µ
à®· à¯įà®Ł
Ġà®µà®¿à® ·à®¯
à®µà®°à¯įà®ķà®³ à®¿à®²à¯į
Ġà®µà®¾à®ķà¯įà®ķ à¯ģà®±
à®¤ à®®à¯į
à®¤à¯įà®¤à®¿à®±à¯įà®ķ à¯ģ
Ġà®ķ à®µà®©
à®ª à®¯
Ġà®¤à¯Ĥà®¤ à®°
à®±à¯įà®± à¯ģ
Ġà®İà®Łà¯ģà®¤à¯įà®¤ à¯ģà®ķà¯į
à®°à¯įà®ķà®³ à®¾à®ķ
à®ķ à®®à¯į
Ġà®ħà®²à¯įà®²à®¾à®¹à¯įà®µ à¯ģà®ķà¯įà®ķà¯ģ
) à®ķ
à®İ à®Ļà¯įà®ķà®³à¯į
Ġà®®à¯ģà®± à¯įà®±
Ġà®®à®© à¯Īà®µ
Ġà®ħà®¨à®¿à®¯à®¾à®¯ à®®à¯į
Ġà®¤ à®¿à®Ł
Ġà®® à®¤
Ġà®īà®Ļà¯įà®ķà®³ à®¿à®²à¯į
à¯įà® ľ
à®ħ à®µà®©à¯į
om ment
Ġà®µà¯ĩà®£à¯įà®Ł à®¿à®¯
Ġà®İ à®²à¯įà®²à®¾à®
Ġà®ħ à®ªà¯įà®ª
à®® à¯ģà®©
à®ªà®ķ à¯įà®¤à®¿à®¯
à®¹ à¯Ģ
à®¸ à®¾
à®¿à®¯ à®¾à®©
à®¤ à®¾
Ġà®®à¯Ĥ à®²à®®à¯į
Ġà®¨à®¿à®°à®¾à®ķà®° à®¿à®ªà¯įà®ª
à¯Ĩ à®©à¯įà®±
Ġà®¨ à®±à¯įà®ķ
Ġà®ļà¯ĩ à®®
à®¿à®Łà®® à¯ĩ
à®¨ à®¾à®Ļà¯įà®ķà®³à¯į
Ġà®Ĵ à®©à¯įà®±à¯ģ
à¯ģà®£à¯įà®Ł à¯ģ
0 0
à¯įà®ħ à®µ
à¯ģà®µ à¯ģà®®à¯į
à®¿à®¯ à®®à¯į
à®Ļà¯įà®ķà®³ à®¿à®©à¯į
Ġà®¯ à®¾à®°
à¯Īà®¯ à®¾à®³
Ġà®¨ à®¾à®¯
à¯ģà®ķà¯įà®ķ à¯ģà®ļà¯į
Ġà®ı à®©à¯Ĩà®©à®¿à®²à¯į
Ġà®µà¯ĩà®¤à®© à¯Īà®¯
à®ªà®¿à®© à¯įà®©à®°à¯į
Ġà®µà¯Ĩà®³ à®¿à®ªà¯įà®ª
Ġà®µ à¯Īà®ªà¯įà®ª
Ġà®ħà®¤ à®©à¯Ī
ĥà®ªà®¿à®° à¯įà®ħà®µ
ĥà®ªà®¿à®°à¯įà®ħà®µ à¯įà®©
à¯Ĥ à®¤
à®Łà¯ģà®¤à¯įà®¤ à¯ģ
Ġà®®à¯ĩ à®²à¯į
Ġà®ĩà®°à¯ģà®ķà¯įà®ķà®¿à®©à¯įà®± à®©
à®® à®±à¯įà®±
à®ī à®Ļà¯įà®ķà®³
Ġà®ĩ à®¤à¯Ī
Ġà®ªà¯Ĩà®° à¯ģà®®à¯į
à®ķ à¯Ĥ
à®© à¯Īà®¯à¯ģà®®à¯į
à®ķ à¯ĩ
à¯įà®ķà®³ à¯ĩ
à®Ł à¯ģà®®à¯į
à®ª à®¤
à®¿à® ¹
à®µà®°à¯įà®ķà®³ à¯ĩ
à®ķ à¯ģà®±
C omment
Ġà®ķà¯Ĥà®± à¯ģà®ķà®¿à®±à®¾à®°à¯įà®ķà®³à¯į
à®ħà®²à¯įà®²à®¾à®¹à¯įà®µ à®¿à®©à¯į
à®¾à® ¸
à¯ģà®® à®¾à®±à¯ģ
Ġà®ª à®±à¯įà®±
Ġ S
à¯ģà®µ à¯Ģà®°à®¾à®ķ
à®²à¯įà®² à¯Ī
à® Ī
in g
à®¾à®® à¯ĩ
Ġà®ıà®±à¯įà®ª à®Łà¯ģà®¤à¯įà®¤
à¯ģà®ķà®¿à®©à¯įà®± à®©à®°à¯į
à®¿à®²à®¿à®°à¯ģà®¨à¯įà®¤ à¯ģà®®à¯į
Ġà®®à¯ģà® ´
Ġà®ķà¯Ĥà®± à®¿à®¯
à®² à®¿à®²à¯į
Ġà®īà®®à¯įà®® à¯Ī
à®± à¯įà®ļ
Ġà®īà®¯ à®°
Ġà®®à¯ģà®Ł à®¿à®¯à¯ģà®®à¯į
à®¿à®° à®®
à®²à¯įà®² à®¤à¯ģ
à¯Īà®¯ à®©à¯įà®±à®¿
Ġà®® à®¾à®±
Ġà®ļà¯Ĩà®² à¯įà®µ
à¯ģà®µ à®¾à®©à¯į
Ġà®ªà®¾à®° à¯įà®¤à¯įà®¤
à®¿à® £
Ġà®Ĩ à®¯
Ġà®®à¯ģà®±à¯įà®± à®¿à®²à¯ģà®®à¯į
Ġà®ķà¯Ĥà®±à¯ģà®µ à®¾à®°à¯įà®ķà®³à¯į
à¯Ĩà®¯ à¯įà®¯
à®¤à¯įà®¤ à¯Īà®ķà¯į
à¯Ĩ à®©à¯įà®±à¯ģà®®à¯į
Ġà®µà®° à®®à¯įà®ª
à®² à¯įà®ķà®³à¯į
à¯Īà®ķà®³ à¯Īà®¯à¯ģà®®à¯į
à®¿à®¯ à®¿à®©à¯į
Ġà®µà®´ à®Ļà¯įà®ķ
Ġà®¨ à®©à¯įà®±à®¿
Ġà®ħà®° à¯ģà®Ł
Ġà®ļ à¯ģà®®
à®¾à®© à¯įà®©
à®¾à®ķ à®¿à®¯
Ġà®¨à®¿à®© à¯Īà®µà¯ģ
Ġà®®à¯ģà®© à¯įà®©à®°à¯į
Ġà®¤ à¯Ĭ
à®ħ à®Ł
à®¿à®Łà¯įà®Ł à¯ģ
Ġà®® à®¾à®°à¯įà®ķà¯įà®ķ
à®µà®°à¯įà®ķà®³ à¯ģà®®à¯į
à®ĩ à®µà¯įà®µà®¾à®±à¯ģ
Ġà®ª à¯Ĭà®°
à¯Īà®¯ à®¿à®²à¯ģà®®à¯į
à®° à¯ĩ
à®µ à¯Īà®¯à¯ģà®®à¯į
Ġà®ħà®²à¯įà®²à®¾à®¹à¯įà®µ à¯Ī
à®¨ à®®à¯į
Ġà®īà®° à®¿à®¯
Ġà®¨à®¾à®³ à¯į
à¯įà®®à¯Īà®¯ à®¾à®©
à®¾à®°à¯įà®ķà®³ à¯ĩ
Ġà®ī à®¤
Ġà®¤ à®²
Ġà®ªà®¯ à®ªà®ķà¯įà®¤à®¿à®¯
Ġà®ķà¯Ĥ à®Ł
à®¿à®± à®¾à®©à¯į
Ġà®ħ à®ķ
Ġà®İ à®²à¯įà®²
à®£ à¯į
à®¿à®± à®¤à¯ģ
Ġà®¤à¯Ĥ à®¯
à®¿à® ®à¯įà®ª
Ġà®¨à®¿à®² à¯Īà®¯à®¿à®²à¯į
à®¿à®ķà¯įà®ķ à¯ģ
s t
à®®à¯ģà® ĥà®®à®¿à®©
à®¿à®© à®°à¯į
Ġà®¨ à¯ģà®´
à®¾à®¹ à¯Ģ
i a
Ġà®¤ à®²à¯Ī
à¯ģà®® à®¾à®©
à®¾à®² à®¿à®¹
à®® à®°
à®ª à®Ł
Ġà®¤à¯Ģ à®®
Ġà®µà®¿à®² à®ķ
à®¾à®° à®£
Ġà®ªà¯Ĩà®¯ à®°à¯į
Ġà®µ à®¿à®°à¯ģà®ªà¯įà®ª
Ġà®µà®¾à®´ à¯įà®ķà¯įà®ķ
à®ªà¯įà®ªà®Ł à®¿à®¯
) à®¤
à®² à¯įà®µ
à®ħ à®©
Ġà®¤ à®©à¯įà®©
à®³ à¯įà®µ
) ,
Ġà®¤ à¯Ĭà®Ł
( à®ķ
Ġà®ªà¯Ĩà®° à¯ģà®®à¯įà®ª
à¯Ī à®¨à¯įà®¤à¯ģ
à®®à®© à®¿à®¤
à¯ĩ à®¤
Ġà®®à®² à®ķà¯įà®ķ
Ġà®ħ à®£
; )
Ġà®ĩà®±à¯Īà®µà®© à¯ĩ
à¯Īà®ķà®³ à®¿à®²à¯į
Ġà®¨à®© à¯įà®®à¯Ī
Ġà®µà®¿à®³ à¯Īà®¯
à¯Īà®µ à®¿à®Ł
Ġà®ĩà®µà¯įà®µ à¯ģà®²à®ķ
Ġà®µà®´ à®¿à®¯
Ġà®ª à®¿à®´
à®ķà¯įà®ķ à®®à¯į
Ġà®¨à®©à¯įà®ķ à¯ģ
Ġà®µà®Ł à®¿à®µ
Ġà®İà®© à®ķà¯į
Ġà®ķà¯ĭà®ªà¯įà®ª à¯ģ
à®® à®ķà¯įà®ķ
Ġà®ħà®ļà¯įà®ļ à®®à¯Ĥ
à®®à®¾à®ķ à¯ģà®®à¯į
Ġà®ħà®¤à¯įà®¤à®¾à®Łà¯įà®ļ à®¿à®ķà®³
à®¾à®° à®®à¯į
) ;
: %
Ġà®¨ à®¿à®©à¯įà®±
Ġà®ļ à®®à¯įà®ª
Ġà®µ à®¾à®Ļà¯įà®ķ
Ġà®ª à¯Ĭ
à®µ à®£
à®ķ à¯ĭà®ªà¯įà®ª
à®¤à®±à¯įà®ķ à®¾à®ķà®µà¯ģà®®à¯į
Ġà®¨ à®ª
Ġà®ĩà®°à¯ģà®ķà¯įà®ķà®¿à®©à¯įà®± à®©à®°à¯į
à®© à®¿à®¯
à®°à¯įà®ķà®³ à¯Ī
à®Ł à®¿à®ķà¯įà®ķ
Ġà®µà¯Ĩ à®±
Ġà®¨à®¿à®© à¯Īà®µ
Ġà®ħà®²à¯įà®²à®¾à®¹à¯įà®µ à¯ģà®ķà¯įà®ķà¯ĩ
Ġà®ªà¯Ĩà®°à¯ģà®®à¯įà®ª à®¾à®²
Ġà®¨à¯ĩ à®ļ
Ġà®ĩà®°à¯ģà®ªà¯įà®ª à®¾à®°à¯įà®ķà®³à¯į
Ġà®ħà®µà®°à¯įà®ķà®³ à¯Īà®ªà¯į
à®µ à®²
Ġà®®à¯ĩà®² à®¾à®©
à®¾à®ķ à¯į
à¯Ĩà®©à¯įà®± à®¾à®²à¯į
Ġà®ªà®¾à®¤ à¯Īà®¯à®¿à®²à¯į
à®® à¯ģà®Ł
Ġà®µà®° à¯ģà®®à¯į
Ġà®īà®£à¯įà®Ł à®¾à®ķà¯įà®ķ
Ġà®ªà®¿à®± à®ķà¯ģ
à®ļà®° à®¿
Ġà®ķ à®£à¯įà®£
Ġà®ĩà®±à®ķà¯įà®ķ à®¿
Ġ m
à®¿à®± à¯ĩà®©à¯į
Ġà®İà®© à®ķà¯įà®ķ
Ġà®¤à®µ à®±
à®¾à®ķ à¯įà®ķà®³
à¯Ĩà®¯ à¯įà®µ
à¯ĩ à®Ł
à®ª à¯įà®°
à¯ĭ à®¤
Ġà®ªà®Łà¯įà®Ł à®¿à®¯
à¯įà®Ł à¯į
à¯ģà®© à¯įà®ª
Ġà®ªà®ķ à®¿à®°
Ġà®ķà®¾à®ªà¯įà®ª à®¾à®±à¯įà®±
à®¸ à¯įà®ª
e t
à®ħ à®²à¯įà®²à®¤à¯ģ
Ġà®ĵ à®¤
Ġà®ĩ à®¸
Ġà®¤à¯ĩà®° à¯įà®µà¯ģ
Ġt o
à®®à®¾à®Łà¯įà®Ł à®¾à®°à¯įà®ķà®³à¯į
Ġà®¨à¯ĩà®°à¯įà®µà®´ à®¿
Ġà®¤ à®£à¯įà®Ł
Ġà®ħ à®µà¯Ī
Ġà®ħ à®ķà¯įà®ķ
à®ĩ à®µà¯įà®µ
Ġà®ħà®ļà¯įà®ļà®®à¯Ĥ à®Łà¯įà®Łà®¿
à®¾à®ķ à®ķà¯į
Ġà®İ à®µà¯įà®µ
à®© à¯įà®®
à®¨ à®²à¯įà®²
c k
à¯ģà® ¨
Ġà®ªà®ķà¯įà®ķ à®®à¯į
Ġà®ŀà®¾à®© à®®à¯į
Ġà®®à®¿à®ķ à¯Īà®¤à¯įà®¤
à®£ à¯įà®ª
Ġà®µà®ļà®© à®Ļà¯įà®ķà®³à¯Ī
Ġà®ķà¯ģà®° à¯įà®Ĩ
Ġà®ķ à®©
à®ħ à®¨à¯įà®¤
Ġà®®à¯ģà®± à¯Ī
Ġà®¨ à®·à¯įà®Ł
ª à¯į
à¯ģà®ķà®³ à®¿à®²à¯į
à¯Ĥ à®²
Ġà®ħà®µà®°à¯įà®ķà®³ à®¿à®©à¯į
à®ħ à®¨
Ġà®İ à®Ļà¯įà®ķà®³à¯ģà®ķà¯įà®ķà¯ģ
à®¤à¯įà®¤ à¯ģ
à®ªà¯įà®ª à¯ģ
à®¾à®µ à®²
( à®¤à¯į
à®µ à®¿à®Ł
à®Łà¯Ī à®¨à¯įà®¤
\ \
Ġà®Ĵ à®©à¯įà®±
à®µà®±à¯įà®± à¯Īà®¯à¯ģà®®à¯į
à¯ĩ à®ķ
à®© à¯ĩ
à¯ģà®ķà®¿à®± à¯Ģà®°à¯įà®ķà®³à¯į
à® ĵ
Ġà®ıà®±à¯įà®ª à®Łà¯įà®Ł
Ġà®ķà¯Ĥ à®²
Ġ x
Ġà®ĩà®±à¯Īà®µà®© à®¿à®Łà®®à®¿à®°à¯ģà®¨à¯įà®¤à¯ģ
Ġà®ĩà®°à¯ģà®¨à¯įà®¤ à®¤à¯ģ
Ġà®µà¯ĩà®± à®¿à®²à¯įà®²à¯Ī
Ġà®® à®ķà®¤à¯įà®¤
Ġà®ķà¯Ģà®´ à¯ĩ
à®° à¯įà®µ
à®ĩ à®²à¯įà®²à¯Ī
Ġà®ķà¯Ĥ à®Łà®¿à®¯
( à®ªà¯į
Ġà®ļà¯Ĩà®¯ à¯į
Ġà®µà¯ĩà®¤à®© à¯Īà®¯à¯Ī
à¯ģà®® à¯Īà®¯à®¿à®²à¯į
à®µ à®¾
Ġà®İà®©à¯įà®© à¯ģà®Łà¯Īà®¯
à¯įà®¤ à®¿
Ġà®®à¯ģà® ¯
à®¤ à®©à¯į
à¯ģà®¤ à®¯
à®ħ à®¤à®±à¯įà®ķà¯ģ
à¯ĩ à®ļ
à®ª à¯Ĩ
à¯ģà®µà®° à¯įà®ķà¯įà®ķ
Ġà®ļà®¤à¯įà®¤à®¿à®¯ à®®à®¾à®ķ
Ġà®ļà¯Ĩà®¯à®² à¯įà®ª
à®¾à®° à¯ģà®®à¯į
à®ļ à¯Ĩ
à®¨ à®°à®ķ
( _
à®µà¯ĩ à®£à¯įà®Ł
à¯Ģ à®²
Ġà®ĩ à®µà®°à¯įà®ķà®³à¯ģà®ķà¯įà®ķà¯ģ
à®Ī à®®à®¾à®©à¯į
à®ļ à®¿à®¯
à®Łà¯įà®Ł à®¿à®²à¯į
Ġà®ħà®¤à®±à¯įà®ķ à¯ģ
Ġà®¤à¯Ĩà®° à®¿à®¯
Ġà®ħà®µà®±à¯įà®± à¯Ī
à®° à¯įà®¨à¯įà®¤à¯ģ
Ġà®° à®¹à¯įà®®
à®± à®¿
Ġà®¨à®©à¯įà®ķà®± à®¿à®¨à¯įà®¤
Ġ M
à®¤à¯įà®¤ à®¿à®²à¯ģà®®à¯į
à®¨ à®¿à®±
Ġà®®à¯Ģ à®£à¯įà®Łà¯ģà®®à¯į
Ġà®ĩà®¤ à®¯
Ġà®ħà®¨à®¿à®¯à®¾à®¯ à®ķà¯įà®ķà®¾à®°
à¯įà®ª à¯ģ
à®® à¯ģà®±
à®Ļ à¯į
Ġà®¨à¯Ĩà®° à¯ģà®Ļà¯įà®ķ
Ġà®¨à¯ĩà®° à®®à¯į
à®¾à®²à®¿à®¹ à®¾à®©
à®ħà®µà®°à¯įà®ķà®³ à¯ģà®ķà¯įà®ķà¯ģ
Ġà®İ à®Ļà¯įà®ķà®³à¯Ī
à®µà®° à®¾à®ķ
u s
Ġà®ĩà®° à¯ģà®¤à®¯
à®° à¯ģà®³
Ġà®ħà®³ à®µà¯ģ
Ġà®¤ à®¾à®©
Ġà® ĥà®ªà®¿à®°à¯įà®ħà®µà¯įà®©
Ġà®¨ à®¾à®©
Ġà®µ à®¾à®ķà¯įà®ķà®³
Ġà®¤ à¯ģà®µ
à®¾à® £à¯įà®Ł
Ġà®ħà®µà®±à¯įà®± à®¿à®©à¯į
à®¨ à®¿à®°
à¯Ī à®ļà¯į
e c
à®ķà¯įà®ķ à®¿
Ġà®ħà®µà¯įà®µ à®¿à®°à¯ģà®µà®°
Ġà®İà®©à¯įà®± à¯Ĩà®©à¯įà®±à¯ģà®®à¯į
à¯ģà®Ł à¯įà®Ł
à®µà®° à¯Ī
à®¿à®© à¯įà®©
Ġà®Ĵà®°à¯ģà®µ à®°à¯į
à¯ĩà®¯ à®©à¯įà®±à®¿
Ġà®ħà®Łà®¿à®¯ à®¾à®°à¯įà®ķà®³
Ġà®ļà¯Ĩ à®©à¯įà®±à¯ģ
à¯ģà® ĥà®ª
Ġà®®à¯Ĥ à®¸à®¾à®µ
Ġà®ķà®£ à®ķà¯įà®ķ
r a
Ġà®īà®Ļà¯įà®ķà®³ à¯Īà®ªà¯į
Ġà®ª à®´
à®ħ à®¤à¯Ī
à®¤à¯įà®¤ à®¾à®²à¯į
Ġà®ķà¯Ĥ à®²à®¿
à®µ à®³
à®İà®© à®¿à®©à¯ģà®®à¯į
Ġà®ªà®° à®¿à®ļ
à® ĥ
Ġà®¤ à¯ģà®©à¯įà®ª
à®¾à®® à®²
à¯ģà®ªà¯įà®ª à¯ģ
Ġà®ļ à¯Ģ
Ġà®ª à®Łà¯ģà®¤à¯įà®¤
Ġà®ªà®ķà®¿à®° à®Ļà¯įà®ķ
Ġà®ĩà®° à®µ
à®ĩ à®¤à¯Ī
à¯Ī à®µà¯ĩ
à¯įà®ķà®³ à®¾à®ķ
à®¾à®ļ à®®à¯į
e l
Ġà®ħà®´ à¯Īà®ķà¯įà®ķ
Ġà®İà®ļà¯įà®ļà®° à®¿à®ķà¯įà®ķà¯Ī
Ġà®ħà®¨ à¯įà®¨à®¾à®³à®¿à®²à¯į
Ġà®®à®ķà®¤à¯įà®¤ à®¾à®©
à¯Ĩ à®Łà¯ģà®¤à¯įà®¤
à®®à®¾à®ķ à®µà¯ģà®®à¯į
Ġà®ĩà®°à¯ģà®ķà¯įà®ķà®¿à®± à®¾à®°à¯įà®ķà®³à¯į
Ġ ,
Ġà®® à®¾à®±à¯ģ
Ġà®ĩà®¤ à®¿à®²à¯į
à®¤ à®¾à®©
à®¿à®²à¯įà®² à®¾à®¤
à®¿à®±à¯įà®ķ à¯ģ
Ġà®µà®´ à®¿à®ª
à¯ģà®µ à®¤à¯ģ
à®µà®° à¯ģà®®à¯į
Ġà®īà®Ł à¯Īà®¯
. )čĊ
Ġà®ĩà®°à¯ģà®ķà¯įà®ķà®¿à®± à®¾à®©à¯į
à®µ à®¾à®³
à®¿à®© à®°
Ġà®µà®°à®®à¯įà®ª à¯ģ
à®¿à®ķ à®´
Ġà®¨à®Ł à®¨à¯įà®¤à¯ģ
Ġà®¨à®®à¯įà®® à¯ģà®Łà¯Īà®¯
Ġà®ļà¯ĩà®° à¯įà®ķà¯įà®ķ
Ġà®·à¯Īà®¤à¯įà®¤ à®¾à®©
Ļ à¯į
Ġà®ªà¯ģà®ķ à®´
à¯Īà®¤à¯įà®¤ à¯ģà®ķà¯į
Ġà®ļ à®¿à®¨à¯įà®¤
à®µ à®´
Ġà®ķà®Łà¯įà®Łà®³ à¯Īà®¯
à®ª à®¿à®°
à®¿à®¯ à¯ģà®³à¯įà®³
Ġà®ĩà®° à®£à¯įà®Łà¯ģ
Ġà®ı à®¤
à®¿à®± à¯įà®±
Ġà®İà®²à¯įà®²à®¾à® ªà¯į
Ġà®µà®¿à®³ à®ķà¯įà®ķ
à®¾à®° à®¾à®¯
à®¾à®°à¯įà®ķà®³ à®¾
à®¿à®ķà¯įà®ķ à®µà¯ģà®®à¯į
Ġà®ªà®¿à®´ à¯Ī
à®® à®¾à®ķà¯įà®ķ
Ġà®µ à®¾à®¯
à®¤à¯įà®¤ à®¾à®°
à®¯à®¾à®µ à®±à¯įà®±à¯Īà®¯à¯ģà®®à¯į
Ġà®µà®¿à® ´
à®¿à®ķà¯įà®ķ à®ªà¯įà®ªà®Ł
à®¿à®ķà®³ à®¿à®²à¯į
Ġà®İà®´ à¯ģà®ªà¯įà®ª
Ġà®ķà®¾à®°à®£ à®®à®¾à®ķ
Ġà®ļ à®ª
Ġà®µ à®£à¯įà®£
à®µà®© à¯ģà®®à¯į
à®µ à¯Ĩ
à¯Ģ à®¤à¯ģ
Ġ T
à®¿à®¯ à®¾à®®
Ġà®İà®µà®° à¯ģà®®à¯į
Ġà®ļà®¿à®± à®¿à®¤
Ġ o
à®ī à®Ļà¯įà®ķà®³à¯ģà®ķà¯įà®ķà¯ģ
à¯ģà®ķà¯įà®ķ à¯ģà®°à®¿à®¯
à®Ļà¯įà®ķà®³ à®¿à®²à¯ģà®®à¯į
à®µ à®¿à®°
a g
Ġà®¤ à¯Ĩà®¯à¯įà®µ
Ġà®ĩ à®©
Ġà®ĩ à®µà¯įà®µà®¾à®±à¯ĩ
Ġà®¨à®¿à®± à¯ģà®¤à¯įà®¤
Ġà®ķà¯Ĥà®Łà¯įà®Łà®¤à¯įà®¤ à®¾à®°
Ġà®ª à¯ģà®¤à®¿à®¯
Ġà®¨à®©à¯įà®® à®¾à®°à®¾à®¯
Ġà®ħà®Ł à¯Īà®µ
Ġà®ĩ à®µà¯įà®µà®¾à®±à¯ģ
Ġà®® à®¾à®¤
à®Ł à¯Īà®¯
Ġà®ı à®©à¯į
à®°à¯įà®ķà®³ à¯ĩ
Ġà®ı à®´
à¯ģà®ª à®µ
à®¨ à¯ĩà®°
Ġà®ħà®µà®°à¯įà®ķà®³ à¯ģà®ķà¯įà®ķà¯ģà®ķà¯į
Ġà®µà®¿à®µ à®°
Ġà®ķà®¾à®Łà¯įà®Ł à¯ģ
à®® à¯Īà®¯
à®¾à®ķ à®¿
Ġà®ªà¯Ĩà®° à®¿à®¯
Ġà®ļà®¿à®² à®°à¯į
Ġà®ħ à®©à¯įà®±à®¿
à®¿à®°à¯ģà®ķà¯įà®ķà®¿à®± à®¤à¯ģ
Ġà®ķà¯ģà®Ł à¯ģà®®à¯įà®ª
à®¤ à¯Īà®ķà¯į
à®¿à®¯ à¯ģà®Ļà¯įà®ķà®³à¯į
Ġà®µà¯ĩà®£à¯įà®Ł à®¾à®®à®¾
) .
Ġà®İà®¤ à¯ģà®µà¯ģà®®à¯į
Ġà®ļà¯Ĩà®² à®µà¯ģ
Ġà®ĩ à®Ļà¯įà®ķà¯ĩ
(à®ħ à®¤à®±à¯įà®ķà¯ģ
Ġ h
à®ªà¯įà®ªà®Łà¯įà®Ł à®¾à®²à¯į
Ġà®ĩ à®²
u t
Ġà®ħà®³ à®¿à®¤à¯įà®¤
Ġ &
Ġ D
à®Ĵ à®°
Ġà®®à¯ģà®± à¯įà®ª
Ġà®¨à¯ĩ à®°à¯į
Ġà®īà®®à¯įà®® à®¿à®Łà®®à¯į
à®²à¯įà®²à®¾à® ®
Ġà®Ĵ à®³
à¯ģà®² à¯į
Ġà®¨à®ķà®° à¯įà®¤à¯įà®¤à¯ģ
Ġà®µà¯Ĩà®³ à®¿à®¯
Ġà®ªà®¾à®° à¯įà®ªà¯įà®ª
Ġà®¨à®© à¯įà®®à¯Īà®¯
à¯ģà®µ à®°à¯į
a d
à¯ģà®®à¯Īà®¯ à®¾à®©
" à®¨à®¿à®ļà¯įà®ļà®¯à®®à®¾à®ķ
Ġà®¨à®Ł à®ķà¯įà®ķ
Ġà®ļ à®¾à®³à®°
Ġà®¨à¯ĩà®°à¯įà®µà®´ à®¿à®¯à®¿à®²à¯į
Ġà®İ à®ªà¯įà®ªà®Łà®¿
à¯ģà®ª à®¤à¯ĩà®ļ
Ġà®ªà®¯à®ªà®ķà¯įà®¤à®¿à®¯ à¯ģà®Łà¯Īà®¯
à®ķ à®Ł
à®¾à®¤ à¯Ģà®°à¯į
Ġà®µà®¿à®Łà¯įà®Ł à®¤à¯ģ
Ġà®¤à¯Ĥà®¤ à®°à¯įà®ķà®³
Ġà®ªà®¾à®¤à¯ģà®ķ à®¾à®µà®²
Ġà®ªà®¾à®¤à¯ģà®ķ à®¾à®ªà¯įà®ª
Ġà®ĩà®±à¯Īà®µà®© à®¿à®Łà®®à¯į
Ġà®®à®©à®¿à®¤ à®©à¯į
à®¿à®° à®®à¯į
à®³ à®µà¯ģ
Ġà®Ĩà®¤ à¯įà®®
Ġà®ĩà®²à¯įà®² à®¾à®¤
Ġà®¨ à®ķ
à®¤ à¯ĩà®°
à®® à®ķà¯įà®ķà¯ģ
Ġà®ħ à®Ļà¯įà®ķà¯ģ
à®ĩà®±à¯Ī à®µà®©
à¯Ĩà®Ł à¯ģ
à¯įà®ļà¯įà®ļ à®¿
Ġà®Ĩà®ķ à®¿à®¯
à®ĩ à®£
Ġà®ķà¯ģà®´ à®ªà¯įà®ª
à®® à®¾à®±à¯įà®±
à®ļ à¯Ī
u r
à¯ģà®µ à®¤à®±à¯įà®ķà®¾à®ķ
( à®¯
à¯ĭ à®¤à¯ģ
Ġà®ª à®±à¯įà®±à®¿à®¯
Ġà®ļ à¯ģà®±à¯įà®±
Ġà®ļà®®à¯įà®ª à®¾à®¤
Ġà®ļ à¯ģà®µà®°à¯įà®ķà¯įà®ķ
Ġà®ħà®µà®© à¯ģà®ķà¯įà®ķà¯ĩ
à¯ĩà®¯ à®¾à®ķà¯ģà®®à¯į
Ġà®ļà¯Ĩà®¯à¯įà®¯ à®ªà¯įà®ªà®Ł
Ġà®ķà®¿à®Ł à¯Īà®¤à¯įà®¤
à¯Īà®¯ à¯Ĩà®²à¯įà®²à®¾à®®à¯į
à®ªà¯įà®ªà®Łà¯įà®Ł à¯ģ
Ġà®İ à®ªà¯įà®ª
Ġà®ī à®ª
à®¨ à®¿à®²
à®ª à¯ģà®¤à®¿à®¯
Ġà®ħà®ķà¯įà®ķ à®¿à®°à®®
à®ª à®¿à®©à¯į
à®® à¯Ģ
Ġà®īà®® à®ķà¯įà®ķ
à¯Ĥ à®¸
à®ħà®µà®°à¯įà®ķà®³ à¯ģà®Łà¯Īà®¯
à¯ģà®µ à®¤
Ġà®ļà¯Ĩà®¯à¯įà®¤ à®¾à®²à¯į
Ġà®ªà®¾à®° à¯įà®µ
à®®à¯ģà®© à¯įà®©
Ġà®¤à®ķ à®µ
Ġà®ļà¯ģà®µ à®©
Ġà®ħà®²à¯įà®²à®¾à®¹à¯įà®µ à®¿à®Łà®®à¯į
Ġà®ª à®¾à®ķà¯įà®ķà®¿à®¯
à®£ à®¿
à®¤à¯įà®¤ à¯Īà®ªà¯į
Ġà®®à®¾à®Łà¯įà®Ł à®¾à®©à¯į
à®ī à®°
Ġà®ª à®¾à®²à¯į
à®¨à¯Ģ à®°à¯į
Ġà®ļà¯Ĩà®¯ à¯įà®ķà®¿à®©à¯įà®±
Ġà®ļà®¨à¯įà®¤ à®¤à®¿à®¯
à¯Īà®µ à®¾
Ġà®µà®¿à®Ł à¯ģà®Ļà¯įà®ķà®³à¯į
à®¿à®ªà¯įà®ª à®Łà¯įà®Ł
Ġà®¨à®¾à®¯ à®©à¯į
Ġà®ªà®¿à®° à®¿à®µ
à®µà®±à¯įà®± à®¿à®©à¯į
Ġà®ķà®Ł à®¿à®©
Ġ ...
Ġà®µà¯Ģ à®Ł
à®¾à®Łà¯įà®Ł à¯ģ
Ġà®¨ à¯Ĥ
Ġà®¤à¯Ĩà®° à®¿à®¯à¯ģà®®à¯į
Ġà®ļà®° à®¿
à®ª à®¾à®µ
Ġà®¤à¯Ĥà®¤ à®°à¯į
Ġà®¤ à®¯
Ġà®®à¯ģà® ¨à¯įà®¤
Ġ A
à®ī à®£
Ġà®ĩ à®¤à®±à¯įà®ķà¯ģ
Ġà®īà®£ à¯įà®®
Ġà®İ à®µà®©à¯į
Ġà®¤à¯Ģ à®Ļà¯įà®ķ
Ġà®ħà®µà®°à¯įà®ķà®³ à¯ģà®®à¯į
Ġà®® à¯Ĩà®¯à¯įà®¯
à®¾à® Ļ
à®®à®¾à®ķ à®ķà¯į
Ġà®¤à®Ł à¯ģà®ķà¯įà®ķ
Ġà®µ à®¹à¯Ģ
Ġà®ķà¯ģà®´ à®¨à¯įà®¤
Ġà®Ĩ à®±
Ġà®µà¯Ĩ à®±à¯įà®±à®¿à®¯
à®¿à®°à¯ģà®ķà¯įà®ķà®¿à®©à¯įà®± à®¾à®©à¯į
à®¾à®³ à®°à¯į
Ġà®ħà®³ à®µ
Ġà®ĵ à®Ł
Ġà®ħà®® à¯Īà®ªà¯įà®ª
( à®¨
à®Ļà¯įà®ķà®³ à¯Īà®ªà¯į
Ġ" (
Ġà®¨à¯Ģ à®ķà¯įà®ķà¯ģ
à¯ģà®µà®° à¯ģà®®à¯į
Ġà®īà®£ à¯įà®®à¯Ī
Ġà®µà®¿à®Łà¯įà®Ł à®¾à®²à¯į
Ġà®µà¯Ĩà®³à®¿à®ªà¯įà®ª à®Łà¯ģà®¤à¯įà®¤
à®µà®°à¯įà®ķà®³ à®¾à®ķà®µà¯ģà®®à¯į
Ġà®ļà¯Ĩà®¯à¯įà®¯ à¯ģà®Ļà¯įà®ķà®³à¯į
à¯ĩ à®©à¯ģà®®à¯į
Ġà®®à¯ģà®Ł à®¿à®µà¯ģ
à®ªà¯įà®ªà®Łà¯ģà®µ à®¾à®°à¯įà®ķà®³à¯į
Ġà®ıà®¤ à®¾à®µà®¤à¯ģ
Ġà®İà®©à¯įà®ª à®¤à¯Īà®¯à¯ģà®®à¯į
Ġà®µà®´ à®¿à®¯à®¿à®²à¯į
Ġà®®à®ķ à¯įà®ķà®³à¯į
Ġà®µ à®¾à®ļ
à®¿à®ļ à¯Ī
Ġo f
Ġà®ī à®©à¯į
Ġà®ı à®µ
à®µà®±à¯įà®± à®¿à®²à¯į
l d
an d
à®µà¯ĩ à®±
à¯ģà®®à¯įà®ª à®Ł
Ġà®¨ à®£à¯įà®ª
Ġà®ħà®© à¯Īà®¤à¯įà®¤à¯ģ
Ġà®ķà¯Ĥà®± à®ªà¯įà®ªà®Łà¯ģà®®à¯į
à®ªà¯įà®ªà®Łà¯įà®Ł à¯ģà®³à¯įà®³
Ġà®¨à®²à¯įà®² à¯ģà®ªà®¤à¯ĩà®ļ
Ġà®Ĵà®° à¯ĩ
à®ķ à®¾à®²
Ġà®īà®± à¯ģà®¤
Ġ %
Ġà®¤à¯ĩà®° à¯įà®µ
Ġà®µà¯Ĩ à®±à¯įà®±à®¿
Ġà®ªà¯Ĩà®£ à¯į
à®µà®°à¯įà®ķà®³ à®¿à®©à¯į
Ġà®ªà®¤ à®¿à®²
Ġà®µà®¾à®ķà¯įà®ķà¯ģà®± à¯ģà®¤à®¿
A N
à¯Ĥ à®Łà¯įà®Ł
à¯ģà®© à¯į
Ġà®İ à®¤à¯Ī
à®İ à®´
à®ª à¯Ĥà®®
Ġà®¤à¯ĩà®°à¯įà®¨à¯įà®¤ à¯Ĩà®Łà¯ģà®ķà¯įà®ķ
Ġà®¤à®° à¯įà®ķà¯įà®ķ
Ġà®ħà®©à¯ģà®® à®¤
Ġà®¤à®µ à®£
à®± à¯į
à®¨ à®Ł
Ġà®ļà¯Ĩà®¯à¯įà®ķà®¿à®± à®¾à®©à¯į
à®® à¯ģà®³à¯įà®³
à®ī à®®à¯įà®®
Ġà®ªà®¯ à®©
Ġà®ħà®© à¯Īà®¤à¯įà®¤
Ġà®ª à®¿à®³
Ġà®¨ à¯Ĩ
Ġà®ķà®£à¯įà®£ à®¿à®¯
Ġà®µà®¿à®Łà¯įà®Ł à®¾à®©à¯į
Ġà®®à®± à¯ģà®®à¯Īà®¯
à®¤ à®°
à¯ģà®± à¯Ī
à®ª à®²
Ġà®ħà®µ à®³à¯į
Ġà®ķ à®±à¯įà®ª
à®¤à¯įà®¤ à¯ģà®Łà®©à¯į
en c
( à®ĩ
Ġà®®à¯ģà®Łà®¿à®¯ à®¾à®¤
Ġà®¤ à®°à¯ģà®®à¯į
Ġà®ķ à¯ĭ
Ġà®®à¯ģà®Ł à®¿à®µ
Ġà®İà®©à¯įà®± à®¾à®²à¯į
à¯Ĩ à®©à¯įà®±à¯ģ
à®ħ à®²
Ġ l
à®ħà®µà®© à¯ĩ
Ġà®®à¯Ĥ à®¸à®¾
Ġ /
Ġà®ĩà®£ à¯Ī
à®¤ à¯Ģ
Ġà®® à®Łà¯įà®Łà¯ģà®®à¯į
à®¾à®¤ à¯Īà®¯
à¯ģà®® à®¤à®¿
Ġà®ªà®Ł à¯Īà®ªà¯įà®ª
à¯įà® ¹
Ġà®¤à®¿à®°à¯ģà®®à¯įà®ª à®¿
à®ª à¯įà®±
Ġà®İ à®Ł
Ġ K
Ġà®¤à¯Ĭ à®ķ
à¯ģà®µ à¯Ģà®°à¯įà®ķà®³à¯į
à®¿à®ķ à®°
Ġà®ª à®¾à®ķ
à¯ģà®¨à¯įà®¤ à¯ģ
Ġà®¤ à®Łà¯ģà®¤à¯įà®¤
" (
à®ªà¯įà®ªà®Łà¯ģà®µ à¯Ģà®°à¯įà®ķà®³à¯į
Ġà®İà®´ à¯ģà®¤à¯įà®¤
Ġà®ªà®ķ à¯Ī
Ġà®ħà®° à¯ģà®³à¯į
Ġà®ªà®Ł à¯Īà®ķà¯įà®ķ
à®¤à¯Ī à®¤à¯į
Ġà®Ĩà®ķ à¯ģà®®à¯į
Ġà®ħà®²à¯įà®²à®¾à®¹à¯įà®µ à¯ĩ
Ġà®µà®ķ à¯Ī
Ġà®¨à®¿à®± à¯Īà®µà¯ĩ
Ġà®ħ à®©à¯Ī
Ġà®ķà®¿à®Ł à¯Īà®ķà¯įà®ķà¯ģà®®à¯į
Ġà®ª à®¿à®®à¯įà®ª
Ġs t
Ġà®µ à¯Īà®¤à¯įà®¤à¯ģ
Ġà®¤à®¿à®± à®ķà¯įà®ķ
Ġà®ħà®´à®ķ à®¾à®©
à®¨ à®®à¯įà®ª
Ġà®ħà®µà®±à¯įà®± à®¿à®²à¯į
à®¤ à®©
à¯įà®¤ à¯ģ
Ġà®īà®¯à®¿à®° à¯įà®ªà¯įà®ª
Ġà®¤à¯Ĥà®¤ à®°à¯įà®ķà®³à¯į
Ġà®¸ à®¾à®²à®¿à®¹à®¾à®©
c ol
Ġà®ħà®±à®¿à®¯ à®¾à®¤
à¯ģà®ķà®³ à®¿à®©à¯į
à®°à¯įà®ķà®³ à¯ģà®ķà¯įà®ķà¯ģ
Ġà®µà¯Ĩ à®±à¯įà®±
Ġà®ªà¯Ĥà®®à®¿à®¯ à¯Īà®¯à¯ģà®®à¯į
à®ħ à®µ
à¯Īà®¯ à¯Īà®¯à¯ģà®®à¯į
Ġà®ħà®²à¯įà®²à®¾à®¹à¯įà®µ à¯ģà®Łà¯Īà®¯
Ġà®¨ à®©à¯įà®±
Ġà®ªà®° à®¿à®ķ
Ġà®Ĩ à®°
à¯Īà®ķà®³ à¯ģà®®à¯į
Ġà®ħà®Ł à¯Īà®¯
Ġà®ĩà®± à®¨à¯įà®¤
Ġà®ķ à®²
à®ħ à®´
Ġà®Ĩà®ķ à®¿à®µà®¿à®Ł
à®° à®¿à®¯
( à®µ
à®ħ à®µà¯įà®µ
Ġà®īà®ª à®¤à¯ĩà®ļ
Ġà®®à®° à®£
à®® à¯Īà®ªà¯įà®ªà¯ģ
Ġà®ªà®¯ à®ªà¯įà®ªà®Ł
à®ª à¯ĩ
Ġà®Ĵ à®ªà¯įà®ª
Ġà®¯ à®¾à®¤
Ġà®İ à®±
Ġà®µà®° à¯Īà®¯à®¿à®²à¯į
à®¤ à®¾à®¤à¯Īà®¯
Ġà®ħà®¤ à®©à®¾à®²à¯į
Ġà®İ à®²à¯įà®²à®¾à®®à¯į
u n
à¯ģà®®à¯įà®ª à®Łà®¿
Ġà®¨à®¾à®Ł à®¿à®©à®¾à®²à¯į
Ġà®µà®¾à®° à¯ģà®Ļà¯įà®ķà®³à¯į
à®® à®ķ
Ġà®ħà®¤ à®©
à¯ģà®Ł à®©à¯ģà®®à¯į
à®© à®®à¯į
Ġà®¤à¯Ģà®°à¯įà®ªà¯įà®ª à¯ģ
à®¿à®Ł à¯ģ
à¯ģà®ķà¯įà®ķ à®¾à®©
à®ħà®¤ à®©à¯į
à®¿à®ķà®³ à¯Īà®¯à¯ģà®®à¯į
à¯Īà®µ à®¾à®©
Ġà®ħà®´ à¯Īà®ªà¯įà®ª
à®³ à®¿à®ªà¯įà®ª
à®¿à®¯ à®¿à®°à¯ģà®ªà¯įà®ª
Ġà®ªà®¿à®Ł à®¿à®¤à¯įà®¤à¯ģà®ķà¯į
o w
Ġà®®à®¾à®±à¯įà®± à¯ģ
Ġà®ļà¯Ĩà®¯à¯įà®¯ à®µà¯ģà®®à¯į
Ġà®ªà®°à®¿à®ļ à¯ģà®¤à¯įà®¤
à¯įà®ķ à¯į
à®µà®° à¯Īà®¯à¯ģà®®à¯į
à®²à¯įà®²à®¾à®® à®²à¯į
Ġà®ħà®¤ à®¿à®²à®¿à®°à¯ģà®¨à¯įà®¤à¯ģ
Ġà®İà®µà¯įà®µ à®¿à®¤
à®ħà®¨ à¯įà®¨à®¾à®³à®¿à®²à¯į
Ġà®ħà®µà®°à¯įà®ķà®³ à¯ģà®ķà¯įà®ķà¯ģà®ªà¯į
Ġà®ķà®° à¯ģà®µ
Ġà®ħà®® à¯Ī
Ġin f
Ġà®®à¯Ģ à®±
Ġt h
Ġà®¨ à®¿à®ķà®´
r i
Ġà®ĩà®± à¯Īà®µà®¾
Ġà®ª à®±
à®¿à®Ł à®¿
à¯ģà®µ à®¤à®±à¯įà®ķà¯ģ
Ġ I
Ġà®¨à¯Ģ à®Ļà¯įà®ķà®³à¯ģà®®à¯į
à®¾à®ķ à®ªà¯į
Ġà®µà®¿à®°à¯ģà®®à¯įà®ª à¯ģà®ķà®¿à®±
à®ķ à¯ģà®°
Ġà®ķ à®´
¿ ½
ï ¿½
Ġ ï¿½
à®¿à®¤à¯įà®¤ à¯ģà®ªà¯į
Ġà®ħà®©à¯ģà®® à®¤à®¿
à®ħ à®µà¯įà®µà®¾à®±à¯ģ
Ġà®µà®¿à®Ł à¯ģà®®à¯į
Ġà®Ĩà®¤à¯įà®® à®¾à®µ
à®¤ à¯ģà®µ
Ġà®¤à¯ĩ à®µà¯Īà®¯
à®µà®° à®¾à®ķà®µà¯ģà®®à¯į
Ġà®µ à®¯
Ġà®ħà®©à¯ģà®ªà¯įà®ª à®¿
Ġà®ķà®Ł à¯ģà®®à¯Īà®¯à®¾à®©
Ġà®µà¯Ģ à®£
" à®İà®©à¯į
Ġà®īà®Ļà¯įà®ķà®³ à¯ģà®ķà¯įà®ķà®¾à®ķ
à®¿à®® à¯Ī
à®ī à®³à¯įà®³
Ġà®ħà®® à¯Īà®ķà¯įà®ķ
à®¿à®°à¯ģà®¨à¯įà®¤ à¯ģà®®à¯į
Ġà®¨ à®¿à®¯à®¾à®¯
à®¤à¯įà®¤ à®¿à®°
à¯Ĥ à®¤à¯ģ
à¯įà®¸ à®¿à®©à¯į
Ġà®ī à®²
Ġà®¨à¯ĩà®° à®¾à®©
Ġà®Ĵ à®Łà¯įà®Ł
Ġà®µà®´à®¿à®ķ à¯ĩ
à®µà®°à¯įà®ķà®³ à¯Īà®¯à¯ģà®®à¯į
Ġà®®à¯Ĥ à®¤à®¾à®¤à¯Īà®¯
Ġà®ļà®¨à¯įà®¤ à¯ĩà®ķ
à® ĥà®ª
à®¿à®Łà®® à¯ģà®®à¯į
Ġà®¤à®¿à®Ł à®®à®¾à®ķ
à¯įà®¤ à®¾à®®à¯į
à®¨à®¿à®° à®¾à®ķà®°
à®ªà¯įà®± à®¾à®¹à¯Ģ
Ġà®µà¯Ĩà®³à®¿à®¯à¯ĩ à®±à¯įà®±
à®ª à®°
Ġ F
à®İà®© à®ķà¯įà®ķà¯ģ
à® Ĳ
Ġà®ĩà®¯ à®ķà¯įà®ķ
Ġà®ıà®±à¯įà®± à¯ģà®ķà¯į
à¯ģà® ľ
à¯Ģ à®Łà¯ģ
à®®à®¾à®Łà¯įà®Ł à®¾à®©à¯į
à®ª à®¿à®±
Ġà®ħà®´à®ķ à®¿à®¯
à®Ĵ à®µà¯įà®µ
à¯ģà®± à¯ģà®¤à¯įà®¤
Ġà®īà®£à¯įà®®à¯Īà®¯ à®¾à®©
Ġà®ļà®¿à®² à®°
à¯įà®ķà®¿à®± à®¾à®°à¯įà®ķà®³à¯į
e m
à®¿à®ķà¯įà®ķà®¿à®± à®¾à®©à¯į
à®© à®ķà¯įà®ķà¯ģ
Ġà®®à®©à¯Īà®µ à®¿à®¯
Ġà®ļà¯Ĥ à®©à®¿à®¯
à®İ à®µà®°à¯įà®ķà®³à¯į
Ġà®ķ à®¾à®¤à¯įà®¤
à®¿à®Łà¯įà®Ł à®¾à®²à¯į
Ġà®İ à®©à¯įà®©à¯ģà®®à¯į
Ġ P
ag e
Ġà®®à®ķ à¯įà®ķà®³à¯ģà®ķà¯įà®ķà¯ģ
à®ļ à®¤à¯įà®¤à®¿à®¯
, )
Ġà®¨ à®¾à®®à¯ĩ
à®ĩ à®µà®°à¯įà®ķà®³à¯į
Ġà®ħà®© à¯ģà®ªà®µ
" à®¨à¯Ģà®Ļà¯įà®ķà®³à¯į
Ġà®® à®Łà¯įà®Ł
à®¨ à®¾à®©
à®µ à¯Ĩà®³
à®© à¯Īà®¯à¯Ī
à®¾à®° à¯įà®Ł
à®ĩ à®°à¯ģ
Ġà®®à®ķ à®¿à®´
Ġï¿½ \
Ġà®¨à®¿à®© à¯Īà®ķà¯įà®ķ
Ġà®®à¯ģà®¯ à®±à¯įà®ļ
Ġà®¤ à®®à¯įà®®
à®¿à®ķà®³ à®¿à®©à¯į
à®¿à®¯ à®¾à®ķà®µà¯ģà®®à¯į
Ġà®ļ à¯Ĭ
à¯ģà®ķà®³ à¯ģà®®à¯į
à¯ģà®¤ à®¾à®¯
Ġà®ªà®ķà®¿à®°à®Ļà¯įà®ķ à®®à®¾à®©
Ġà®ķ à¯Ī
Ġà®® à¯ģà®¤
Ġà®Ĩ à®Łà¯įà®ļ
à¯ģà®µ à®¾à®¯à®¾à®ķ
à®ªà¯įà®ªà®Łà®¿à®¯ à®²à¯įà®²
Ġ re
Ġà®ķà®¿à®°à¯ģà®ª à¯Īà®¯à¯ģà®Łà¯Īà®¯
il s
à®ħ à®ªà¯įà®ª
Ġà®īà®³à¯įà®³ à®©
Ġà®ª à¯ģà®ļ
Ġà®ķà¯ĩ à®³à¯įà®µ
à®¤ à®¯
à®¤à¯įà®¤à¯Ī à®¤à¯į
à®µ à®¾à®ļ
Ġà®µ à®¾à®°à¯įà®¤à¯įà®¤
Ġà®®à®¿à®ķà¯įà®ķ à®µà®©à¯į
Ġà®ķà¯ģà®±à®¿à®ªà¯įà®ª à®¿à®Łà¯įà®Ł
à®ī à®¯
à®´ à¯įà®ķ
c e
Ġ B
Ġà®İ à®¤à¯Īà®ªà¯į
Ġà®®à¯Ģ à®³
Ġà®ĩà®° à®ķ
à¯Ģ à®¹
Ġà®ļ à®¿à®¤à¯įà®¤
Ġà®īà®¤à®µ à®¿à®¯
Ġà®İà®¤à®¿à®° à¯įà®ª
Ġà®ķà¯Ĥà®± à®¿
Ġà®¨à®©à¯įà®ķà®± à®¿à®ª
à®ħà®µà®°à¯įà®ķà®³ à¯Ī
Ġà®¤à¯ĩà®°à¯įà®¨à¯įà®¤ à¯Ĩà®Łà¯ģà®¤à¯įà®¤
Ġà®ķà¯Ĥà®± à¯ģà®Ļà¯įà®ķà®³à¯į
Ġà®İà®¤ à¯Īà®¯à¯ģà®®à¯į
à®ķ à®Łà¯įà®Ł
Ġà®ªà¯ģà®±à®ķà¯įà®ķà®£ à®¿à®¤à¯įà®¤à¯ģ
S t
à¯ģà®µ à®¤à®¿à®²à¯įà®²à¯Ī
Ġà®ħà®ŀà¯įà®ļ à®¿
Ġinf o
Ġà®ªà®¾à®° à¯ģà®Ļà¯įà®ķà®³à¯į
à®¨ à®¿à®©
à¯ģà®Łà¯Īà®¯ à®µà®©à¯į
Ġà®ĩà®£ à¯Īà®µ
à®¯à®¾à®µ à®°à¯Īà®¯à¯ģà®®à¯į
Ġà®ĩà®±à¯Īà®µà®© à¯ģà®Łà¯Īà®¯
Ġà®ħà®²à¯įà®²à®¾à®¹à¯įà®µ à®¿à®Łà®®à®¿à®°à¯ģà®¨à¯įà®¤à¯ģ
Ġà®ĩà®´ à®¿à®µ
à®¿à®ķ à®¿à®±à®¾à®©à¯į
Ġà®µà¯ĩà®£à¯įà®Ł à¯ģà®®
Ġà®¨à®±à¯įà®ķ à¯Ĥà®²
à®® à®¾à®®à¯į
Ġà®¨à¯Ģ à®°
à®¿à®ķà®³ à¯ģà®®à¯į
à®Ļà¯įà®ķ à®¿
Ġà®ī à®²à®ķ
t h
Ġà®ĩ à®ªà¯įà®ª
Ġà®ķ à®³
Ġà®İà®µà®° à¯Īà®¯à¯ģà®®à¯į
D E
Ġà®¤ à®ķà¯įà®ķ
à¯ģà®µ à®¤à¯Ī
Ġà®µà¯ĩà®£à¯įà®Ł à¯ģà®®à®¾
( à®¤à¯įà®¤à®ķà¯Īà®¯
Ġà®¨à®¿à®°à®¾à®ķà®° à®¿à®¤à¯įà®¤
Ġà®ļ à®¾à®¤
Ġà®Ĵ à®´
Ġà®ļà¯Ĩà®µ à®¿à®¯à¯ĩ
Ġà®ķ à®¿à®³
Ġà®®à®©à¯įà®©à®¿à®ªà¯įà®ª à®µà®©à®¾à®ķà®µà¯ģà®®à¯į
à®³ à®¿à®ķà¯įà®ķ
s s
Ġà®İ à®µà¯įà®µà®¾à®±à¯ģ
à®© à¯Īà®¯
Ġà®īà®±à¯ģà®¤à®¿à®¯ à®¾à®ķ
à®¿à®ķà¯įà®ķà®¿à®©à¯įà®± à®¾à®©à¯į
Ġà®®à¯Ģ à®¤à¯ĩ
Ġà®ļ à®¾à®¯
Ġà®¯à®¾à®µ à®°à¯Īà®¯à¯ģà®®à¯į
¸ à¯įà®²
Ġà®ĩ à®¤à¯įà®¤à®ķà¯Īà®¯
Ġà®¤à¯Ĭà®Ł à®°
à®İà®©à¯įà®© à¯ģà®Łà¯Īà®¯
Ġà®ļà®¤à¯įà®¤à®¿à®¯ à®®à¯į
à®µ à®¿à®©
à®ķ à¯Ģà®´
Ġ g
à®®à¯Ĥ à®¸à®¾à®µ
Ġà®Ĩà®¤ à®°
Ġà®ĩà®Ł à®¤à¯įà®¤à®¿à®²à¯į
Ġà®ļ à¯ģà®ķ
) à®¤à¯Ī
à¯įà® İ
à®ļ à®¿à®±
à®ªà¯įà®ªà®Ł à¯ģà®ķà®¿à®±à®¤à¯ģ
à®Ĩ à®¤
à®¿à®² à¯ĩ
Ġà®¤ à®¿à®°à¯ģà®ª
Ġà®ķ à®¾à®Łà¯įà®ļ
à¯Īà®¯ à¯ģà®Ļà¯įà®ķà®³à¯į
Ġà®ļà¯Ĩà®¯à¯įà®¤ à®¾à®©à¯į
Ġà®ªà¯Ĥà®® à®¿
à¯ģà®£ à®°
Ġà®µà®° à¯Īà®¯
Ġà®ĩà®¤ à®©à¯Ī
Ġà®¤à®¿à®Łà¯įà®Ł à®®à®¾à®ķ
enc ils
Ġà®®à®¤ à®¿à®ªà¯įà®ª
à®µ à¯Ģ
Ġà®ļà®® à¯ģà®¤à®¾à®¯
Ġà®ħà®ķ à®¿à®²
Ġà®ª à¯Ĥà®°
Ġà®ħà®±à®¿à®µ à®¿à®ªà¯įà®ª
Ġà®ªà¯Ĩà®¯ à®°
à®µà®© à®¾à®ķà®µà¯ĩ
à¯Īà®¯ à®¾à®ķà¯įà®ķ
Ġà®¸ à¯ģà®ľ
Ġà®ªà®Łà¯Īà®¤à¯įà®¤ à®¾à®©à¯į
à¯ģà®ª à®µà®©à¯į
à®¿à®±à¯įà®± à¯ģ
Ġtransla t
à¯Ģà®°à¯įà®ķà®³ à®¾à®©à®¾à®²à¯į
Ġà®īà®Ļà¯įà®ķà®³ à¯ģà®ķà¯įà®ķà¯ģà®ķà¯į
Ġà®ħà®µà®© à®¿à®Łà®®à¯į
Ġà®ļà¯Ĩà®¯à¯įà®¯ à®ªà¯įà®ªà®Łà¯įà®Ł
à¯įà® ·
à¯ģà® ¯
à®ħ à®±
col or
Ġà®ħà®Ł à¯Īà®¯à®¾à®³
Ġà®¨à®Ł à®ªà¯įà®ª
s e
à®² à®¿à®©à¯į
Ġà®® à®´
à®¿à®ķà¯įà®ķ à®ļà¯į
Ġà®ĩà®± à¯ģà®¤à®¿
à¯įà®° à®¾à®¯
à®² à¯įà®ª
Ġà®ĩà®° à¯ģà®µà®°à¯ģà®®à¯į
à®µà¯ĩà®± à¯Ĩ
à¯ĭ à®ķ
à®¿à®¯ à®¤à¯ģ
à®¾à®¤ à¯ĩ
Ġà®®à®©à®¿à®¤ à®°à¯įà®ķà®³à¯į
Ġà®µà®¿à®° à¯Īà®µ
à®¿à®° à®£à¯įà®Ł
Ġà®ª à¯ģà®³à¯įà®³
Ġà®ħà®Ł à¯Īà®¨à¯įà®¤
à®ķ à¯Ī
Ġà®¨à®¿à®± à¯ģà®µ
Ġà®īà®£ à®°
Ġà®ķà¯Ĥà®± à¯ģà®ķà®¿à®©à¯įà®±à®©à®°à¯į
Ġà®ªà®¿à®©à¯įà®© à®°à¯ģà®®à¯į
Ġà®ħà®¤à¯įà®¤à®¾à®Łà¯įà®ļ à®¿à®ķà®³à¯Ī
à®ĩ à®¯
à®Ł à¯į
Ġà®ķ à®¿à®¯à®¾à®®
à®¯ à¯į
Ġà®ķà®¾à®² à®®à¯į
à®¿à®± à®¾à®°à¯įà®ķà®³à¯į
à¯ģà®ķà®¿à®± à®¾à®©à¯ĭ
Ġà®¨à®®à¯įà®ª à®¿à®ķà¯įà®ķ
à®¿à®°à¯ģà®ªà¯įà®ª à¯ģ
Ġà®¨à®©à¯įà®ķà®± à®¿à®µ
à¯Īà®¯ à®¾à®Ł
Ġ O
Ġà®ĩà®°à¯ģà®ķà¯įà®ķà®¿à®± à¯ĩà®©à¯į
Ġà®¤à®ķà®µ à®²à¯į
Ġà®ħà®¤à¯įà®¤à®¾à®Łà¯įà®ļ à®¿à®ķà®³à¯į
à®¨ à®®à¯įà®®
Ġà®®à¯Ĥ à®Ł
à¯įà®° à®¹à¯įà®®
à®ħ à®¤à®¿à®²à¯į
à®ªà¯įà®° à®¾à®¹à¯Ģ
Ġà®®à¯Ĩà®¯à¯įà®¯ à®¾à®ķà®µà¯ĩ
à¯įà®ķ à¯ģ
Ġà®ĩà®°à¯ģà®ķà¯įà®ķ à®µà®¿à®²à¯įà®²à¯Ī
à®¤à¯ĩ à®©à¯ģà®®à¯į
à¯įà®ķà®¿à®± à¯ĩà®©à¯į
à®µà®° à¯ģà®ķà¯įà®ķà¯ģ
Ġ it
v er
Ġà®µà®¾à®© à®¤à¯įà®¤à®¿à®²à®¿à®°à¯ģà®¨à¯įà®¤à¯ģ
c h
Ġà®¤à¯Ģ à®¯
à¯ĭ à®°
à®İ à®²à¯įà®²
p p
Ġà®İà®©à¯įà®© à®¿à®Łà®®à¯į
à¯ģà®® à¯ģà®³à¯įà®³
à®µ à®¾à®±à¯ģ
Ġà®®à®¿à®ķà¯Īà®¤à¯įà®¤ à®µà®©à¯į
Ġà®Ĩ à®Ł
à¯ģà®µà®¿à®Ł à¯ģà®®à¯į
Ġà®İ à®³
à¯ģà®® à¯Īà®¯à¯Ī
Ġà®¤à®Ļà¯įà®ķà®³ à¯ģà®Łà¯Īà®¯
Ġà®¨à¯Ģ à®Ļà¯įà®ķà®³
à®İ à®¨à¯įà®¤
à®ī à®®à¯į
Ġà®ħà®® à¯Īà®¤à¯įà®¤
Ġà®İà®µà®° à¯ĩà®©à¯ģà®®à¯į
Ġà®ķà®¾à®ĥà®ªà®¿à®° à¯įà®ķà®³à¯į
à®ĩ à®Ł
à®¿à®¤à¯įà®¤ à®¾à®©à¯į
Ġà®µ à®Łà¯įà®Łà¯ģ
à®®à®¾à®© à®¤à¯ģ
à®¿à®Ł à®ªà¯įà®ªà®Łà¯įà®Ł
Ġà®İ à®¤à¯įà®¤
à®®à®± à¯ģà®®à¯Īà®¯à®¿à®²à¯į
à®¨à®¿à®°à®¾à®ķà®° à®¿à®ªà¯įà®ª
. .čĊ
à®® à®¾
à®µ à®Ł
Ġà®ķà®£à¯įà®Ł à¯ģà®ª
Ġà®ļà¯ģà®µà®© à®ªà®¤
Ġà®ħà®± à®¿à®ª
Ġà®µà®¿à®² à®ķà¯įà®ķ
à®µà¯ĩ à®£à¯įà®Łà¯ģà®®à¯į
Ġà®İà®²à¯įà®² à®¾
à®Ļà¯įà®ķ à¯ģà®®à¯į
à¯Ĩ à®´
Ġà®īà®£ à®µà¯ģ
Ġb e
à®ª à¯Ĩà®°
à¯Ĭà®Ł à¯ģà®ķà¯įà®ķ
Ġà®ķà®° à¯ģà®£
à¯ĭ à®Ł
Ġà®¤ à®¾à®Ļà¯įà®ķà®³à¯į
t s
à¯Ĭ à®°à¯ģ
à®ļ à®¿
Ġà®İ à®Ļà¯įà®ķà¯ĩ
Ġà®İà®¤à®¿à®° à®¾à®ķ
à¯Ĭ à®´
Ġà®ĩà®¤ à¯ģà®µà¯ĩ
Ġà®ķà¯ģà®±à¯įà®± à®µà®¾à®³
Ġà®ħà®²à¯įà®² à®°à¯į
d e
I N
Ġà®·à¯Īà®¤à¯įà®¤ à®¾à®©à¯į
Ġà®īà®¯à®¿à®° à¯į
Ġ y
Ġà®¤à®Ļà¯įà®ķ à¯ģà®®
Ġà®ħà®µà®°à¯įà®ķà®³ à¯ģà®ķà¯įà®ķà®¾à®ķ
Ġà®ķà®¿à®°à¯ģà®ª à¯Ī
Ġà®® à®£
Ġà®¨ à®°
à®© à¯Ĩà®©à¯įà®±à®¾à®²à¯į
Ġà®ļà¯Ĩà®¯à¯įà®µ à®¾à®©à¯į
à®³ à®µ
à®ļ à¯ĩ
à®® à¯Ĩ
Ġà®¨ à®±à¯įà®ª
à¯Ĥà®¸ à¯ģà®ĥà®ª
Ġ L
à®µ à®²à¯Ī
Ġ N
Ġà®ħà®¤à¯Ī à®ªà¯į
à®ħ à®°
à¯ģà®° à¯ģ
à¯ģà®ķà®¿à®©à¯įà®± à®¾à®©à¯į
es s
à®¾à®° à¯ģà®Łà¯Īà®¯
à®¨ à¯įà®¨
Ġà®ħà®¤à¯įà®¤à®¾à®Łà¯įà®ļ à®¿
Ġà®ĩà®°à®ķ à®ļà®¿à®¯
à®¿à®µ à®°
Ġà®®à¯Ĥ à®´à¯įà®ķ
à®® à®¿à®ķà¯įà®ķ
Ġà®ļà®¿à®± à®¨à¯įà®¤
à®¿à® ¨
Ġà® ķà¯įà®ķ
à¯Īà®¯ à¯Īà®ķà¯į
Ġà®ħà®²à¯įà®² à®¾à®¤
Ġà®ļà¯ĩ à®°à¯į
à®® à®¤à¯ģ
à®® à¯ģà®ķ
Ġà®ªà®¿à®° à®µà¯ĩ
Ġà®µà®¿à®³à¯Īà®¯ à®¾à®Łà¯įà®Ł
Ġà®µà¯Īà®¤à¯įà®¤ à¯ģà®ķà¯į
Ġà®ķà®¾à®Łà¯įà®Ł à¯ģà®®à¯į
à¯ģà®Łà¯Īà®¯ à®µà¯ģà®®à¯į
Ġà®ħà®²à¯įà®²à®¾à®¹à¯įà®µ à¯ģà®ķà¯įà®ķà¯ģà®®à¯į
à¯Īà®ķà®³ à®¿à®©à¯į
Ġà®µà®´à®¿à®ª à®Ł
à®ħà®²à¯įà®²à®¾à®¹à¯įà®µ à¯ģà®ķà¯įà®ķà¯ģ
Ġà®ħà®µà®°à¯įà®ķà®³à¯Ī à®¤à¯į
Ġà®ªà¯Ĩà®° à¯ģà®®à¯Īà®¯
à¯įà®° à®¿à®ķà¯įà®ķ
Ġà®¸à¯ģà®ľ à¯Ĥà®¤à¯ģ
Ġà®ļà¯Ĩà®¯à¯įà®µ à®¤à¯Ī
Ġà®ª à¯ģà®¤à¯įà®¤
à¯ģà®¤ à®¿à®¯à¯Ī
à®¤ à®¾à®©à¯į
Ġà®īà®¤ à®¾à®°à®£
Ġà®µà¯ĩà®¤à®© à¯Īà®¯à¯ģà®®à¯į
à®ªà¯įà®ªà®Łà¯ģà®¤à¯įà®¤ à®¿
à®ħ à®¤à®±à¯įà®ķ
Ġà®ĩà®Ł à®®à¯į
Ġà®Ĩà®¤ à®¾à®°
Ġà®ªà¯ĩà®° à®¾à®±à¯įà®±
Ġà®İà®©à¯įà®ª à®¤à¯ģ
Ġà®ļà¯Ĩà®²à¯įà®² à¯ģà®®à¯į
· à¯įà®°à®¿à®ķà¯įà®ķ
à®¿à®°à¯ģà® Ļà¯įà®ķà®³à¯į
à¯ĩ à®±à¯įà®±
Ġà®İ à®¤à¯įà®¤à®ķà¯Īà®¯
Ġà®µ à®Łà¯įà®Ł
Ġà®¤ à¯ģà®ķà¯įà®ķ
à®¾à®© à®¾
à®ķà¯ģà®± à®¿à®ªà¯įà®ª
à®ĩà®±à¯Ī à®µà®©à¯į
à®¿à®±à¯įà®ķ à¯ģà®®à¯į
" %
à®° à¯ģà®®
à¯Ģ à®Łà¯įà®Ł
à®¿à®°à¯ģà®ķà¯įà®ķà®¿à®± à®¾à®©à¯į
Ġà®ļà®¾à®° à®¾à®°à¯ģà®®à¯į
à®© à¯įà®®à¯Ī
à®ĩ à®ªà¯įà®ª
à®µ à®¿à®³
Ġà®ļà®¾à®Łà¯įà®ļ à®¿
Ġà®¤à¯Ĩà®³à®¿à®µ à®¾à®ķ
Ġà®®à®¿à®ķ à®ķà¯į
t er
Ġà®¤à®¨à¯įà®¤ à¯Īà®¯
Ġà®ª à®¤à®¿à®²à¯į
e x
à®ħà®¤ à®¿à®ķ
à®İ à®©à¯įà®±
Ġà®ĩà®¤ à®©à¯į
Ġà®ħà®´ à¯Īà®¤à¯įà®¤
à®¿à®¯ à¯Īà®¯à¯ģà®®à¯į
Ġà®¤ à®®à®ķà¯įà®ķ
à®® à¯ĩà®²
Ġà® ĥà®ª
Ġà®ħà®µà®© à¯Īà®¤à¯į
Ġà®¨à®¿à®°à®¾à®ķà®° à®¿à®¤à¯įà®¤à¯ģ
Ġà®īà®Ļà¯įà®ķà®³ à¯ģà®ķà¯įà®ķ
Ġ G
Ġà®ķ à®±à¯įà®±
Ġà®¤à¯Ģ à®£à¯įà®Ł
à¯Ģ à®ª
à¯ģà®¤à®² à¯įà®µ
à¯Īà®ķà®³ à¯Īà®ķà¯į
Ġà®µà®¾à®´ à¯įà®µ
à®ķà¯ģà®° à¯įà®Ĩ
Ġà®ķà®£à¯įà®Łà¯ģà®ª à®¿à®Ł
à®¤ à®¾à®ķà®µà¯ģà®®à¯į
Ġà®ķà®¾à®ĥà®ªà®¿à®° à¯įà®ķà®³
à®ķ à®£
Ġ R
Ġà®ļ à¯ģà®°
. )
à¯ģà®ķ à¯įà®ķà®³à¯į
Ġà®ªà¯ģà®° à®¿à®¨à¯įà®¤
) à®¤à¯ģ
Ġà®ªà¯Ĥà®®à®¿à®¯ à®¿à®²à¯ģà®®à¯į
à¯ģà®ķà®³ à¯Īà®¯à¯ģà®®à¯į
Ġà®µà®¾à®© à®Ļà¯įà®ķà®³à¯Īà®¯à¯ģà®®à¯į
Ġà®¤ à®ªà¯įà®ª
u ck
at e
à¯Īà®¯ à¯Īà®ªà¯į
Ġà®µà¯ĩ à®²à¯Ī
Ġà®µ à®³
Ġà®ħà®µà®°à¯įà®ķà®³ à¯Īà®ķà¯į
Ġà®¨à®Ł à®¨à¯įà®¤
à¯ģà®µ à¯ĩà®©à¯į
a m
à®¿à®° à®¿à®¯
Ġà®¤à¯ĩà®°à¯įà®¨à¯įà®¤ à¯Ĩà®Łà¯ģ
( à®¤
à®ļ à¯Ĥ
Ġà®ĩ à®Łà¯įà®Ł
à®¾à®µ à¯Ī
i on
à®¿à®©à¯įà®± à®©à®°à¯į
St encils
à¯ģà®Ł à®©
Ġà®ķà®Łà¯įà®Ł à®³à¯Ī
2 00
Ġà®Ĵ à®¤
à®¿à®© à¯įà®ª
à®¿à®Ł à®¤à¯įà®¤
Ġà®®à®± à¯ģà®®à¯Īà®¯à®¿à®²à¯į
Ġà®ĩ à®µà¯Ī
à¯ģà®ķà®¿à®©à¯įà®± à®©
Ġà®µ à®¿à®©
à®ļ à®¾à®³à®°
ĥ à®ªà¯į
à¯Ģà®° à®¾
à¯ģà®ª à®Łà¯ģà®¤à¯įà®¤
à®¯ à®®à¯į
Ġà®Ĩà®ķà¯įà®ķ à®¿à®©à¯ĭà®®à¯į
Ġà®ļà®¿à®±à®¿à®¤ à¯ģ
à®© à®¿
Ġà®ħà®µà®°à¯įà®ķà®³ à¯ģà®ķà¯įà®ķ
Ġà®ı à®±à¯įà®ķ
Ġà®ķà¯Ĥà®Ł à®¾à®¤à¯ģ
à¯Ģà®°à¯įà®ķà®³ à®¾à®ķ
Ġà®ªà®Łà¯įà®Łà®¿à®¯ à®²à¯į
à®±à¯įà®ķ à¯ģ
Ġà®ªà¯ĭ à®¤à¯ģ
Ġà®ĩ à®ļà¯įà®ļ
Ġà®µà®¿à®²à®ķ à®¿à®ķà¯į
Ġà®ķà¯ĩà®Ł à¯ģà®¤à®¾à®©à¯į
à®° à®¿
Ġà®ķà®¿à®Łà¯Īà®¤à¯įà®¤ à®¤à¯ģ
Ġà®®à¯Ĥ à®²
Ġà®īà®¯à®° à¯įà®¤à¯įà®¤
Ġà®® à¯ģà®¤à®²
Ġà®¨ à®¾à®Łà¯įà®Ł
Ġà®ª à¯ģà®¤à®²à¯įà®µ
Ġà®īà®±à¯ģà®¤à®¿à®¯ à®¾à®©
Ġà®ª à®¾à®²
à¯ģà®ļ à¯įà®ļ
à®¤ à¯Ĩà®²à¯įà®²à®¾à®®à¯į
à®¿à®ªà¯įà®ª à®Łà¯ģà®¤à¯įà®¤
Ġà®ķà¯Ĭ à®£à¯įà®Ł
à¯Īà®¯ à®¿à®²à®¿à®°à¯ģà®¨à¯įà®¤à¯ģ
à®µ à®ļ
à¯ģà®® à®¾à®©à®¾à®²à¯į
à®ħ à®®
Ġà®¨à®¾à®³ à®¿à®©à¯į
Ġà®®à¯ģà®ķ à®µà®°
à®ļ à®¿à®²
à®² à®¾à®²à¯į
Ġà®ªà®±à¯įà®± à®¿à®¯à¯ģà®®à¯į
à®¾à®® à¯įà®ª
Ġ- čĊ
à®¿à®©à¯įà®± à®¿
à®¤à®¯ à®µà¯ģ
Ġà®ļà®¾à®° à®¾à®°à¯ģà®Łà¯Īà®¯
à¯įà®°à®¾à®¯ à¯Ģà®²
Ġà®® à¯ģà®¤à®²à¯į
Ġà®ļà¯ĩà®° à¯įà®ªà¯įà®ª
Ġ" %
Ġ or
à¯ģà®µ à®¤à®±à¯įà®ķ
Ġà®ļà¯Ĥ à®°à®¿à®¯
Ġà®¤ à¯ģà®£
Ġà®µà®´ à®¿à®¯à¯Ī
à®Ļà¯įà®ķà®³ à¯Īà®ķà¯į
Ġà®ķà¯ĩ à®³
Ġà®ħà®³ à®¿à®ķà¯įà®ķ
Ġà®µà¯Ĩà®³à®¿à®¯à¯ĩ à®±
Ġà®ļà¯Ĩà®¯à¯įà®µ à¯Ģà®°à®¾à®ķ
Ġà®¤ à®£à¯įà®£
Ġà®īà®°à®¿à®¯ à®¤à¯ģ
Ġà®ļà®®à¯įà®ªà®¾à®¤ à®¿à®¤à¯įà®¤
Ġà®µà®¿à®°à¯ģà®®à¯įà®ª à®¿à®¯
Ġà®ħ à®µà¯įà®µà®¾à®±à¯ģ
à®¿à®¯ à®©à¯į
à®ħ à®ļà¯įà®ļ
à®ħ à®µà¯įà®µà®¾à®±à¯ĩ
à®ªà®¿à®© à¯įà®©
à®ķà¯ĭà®ªà¯įà®ª à¯ģ
Ġà®ħà®µà®°à¯įà®ķà®³à¯Ī à®ļà¯į
à®ī à®Ļà¯įà®ķà®³à¯Ī
Ġà®µ à®¿à®±
ad a
is t
Ġà®ķ à®¿à®°
Ġà®¨à¯Ĥ à®¹
Ġà®ķà¯ģà®°à¯įà®Ĩ à®©à¯Ī
à®ŀà¯įà®ļ à®²à¯į
an ada
Ġà®Ī à®®à®¾à®©
Ġà®¤à¯ĩ à®µà¯Ī
Ġà®¤à¯Ĥà®¤à®° à¯ģà®ķà¯įà®ķà¯ģà®®à¯į
Ġà®®à¯ģà®ĥà®®à®¿à®© à¯įà®ķà®³
; čĊ
Ġà®ħà®µà®°à¯įà®ķà®³ à¯ģà®Łà®©à¯į
Ġà®İà®£à¯įà®£ à®¿à®ķà¯į
Ġà®®à¯ģà®ĥà®®à®¿à®© à®¾à®©
Ġà®ħà®´ à®¿à®¤à¯įà®¤
à¯ģà® Ļà¯į
Ġà®Ĩà®µ à®£
] čĊ
à®ª à®Łà¯įà®Ł
Ġà®¤ à®¸à¯įà®ª
Ġà®¨à®©à¯įà®®à®¾à®°à®¾à®¯ à®Ļà¯į
Ġà®ĩà®° à®£à¯įà®Ł
Ġà®¤à®£à¯įà®Ł à®©à¯Ī
à®¤ à¯Ĭ
Ġà®®à¯ģà®± à¯Īà®¯à®¿à®²à¯į
Ġà®ĩ à®ªà¯įà®±à®¾à®¹à¯Ģ
Ġà®®à®± à®¨à¯įà®¤à¯ģ
à®© à®¿à®©à¯į
Ġà®ħà®´ à®¿à®¤à¯įà®¤à¯ģ
Ġà®®à®± à¯Īà®¤à¯įà®¤à¯ģ
Ġà®ķà¯ģà®±à®¿à®ªà¯įà®ª à®¿à®Ł
1 2
à®¿à®µà®¿à®Ł à¯ģà®®à¯į
Ġà®īà®° à¯Ī
à®¾à®° à®¾
Ġà®®à®²à®ķà¯įà®ķ à¯ģà®ķà®³à¯į
Ġà®İà®Ł à¯ģà®ķà¯įà®ķ
à®° à¯ģà®ķ
Ġà®ĩ à®Ļà¯įà®ķà¯ģ
a tion
à¯įà®ķà®³à¯Ī à®ļà¯į
Ġà®® à¯ģà®¤à¯įà®¤
Ġà®ı à®¤à¯ĩà®©à¯ģà®®à¯į
Ġà®µà¯Ĩ à®ķà¯ģ
Ġà®ĩà®¯à®² à®µà®¿à®²à¯įà®²à¯Ī
a y
à®ī à®±
à®¾à® ¨à¯įà®¤
Ġà®ļà®ķ à¯įà®¤à®¿à®¯
Ġà®¨à®¿à®±à¯Īà®µà¯ĩ à®±à¯įà®±
Ġà®®à®¾à®Łà¯įà®Ł à¯Ģà®°à¯įà®ķà®³à¯į
à®© à¯ģà®ķà¯įà®ķà¯ģ
à¯Īà®ªà¯įà®ª à®±à¯įà®±à®¿
Ġà®ªà®¿à®Ł à®¿à®ķà¯įà®ķ
Ġà®ªà®¿à®°à®µà¯ĩ à®ļ
Ġà®īà®©à¯įà®© à¯Ī
à®² à¯ģà®®à¯į
à¯įà®ļà¯įà®ļ à®¿à®¯
Ġà®ĩà®±à¯Īà®µà®© à¯Ī
Ġà®ħà®µ à®ļà®°
à®® à®£à¯įà®Ł
Ġà®¤à®µ à¯įà®ª
Ġà®ŀà®¾à®© à®®à¯ģà®Łà¯Īà®¯
à®¿à®ªà¯įà®ª à®Ł
Ġà®ķà®Ł à®µ
Ġà®ªà¯Ĩà®£ à¯įà®ķà®³à¯į
à®°à¯įà®ķà®³ à®¿à®©à¯į
à®ħ à®ªà¯įà®ªà®Łà®¿à®¯à®²à¯įà®²
Ġà®ªà¯ĩ à®ļà¯įà®ļ
Ġà®®à¯ģà®©à¯įà®© à®¾à®²à¯į
Ġà®īà®³à¯įà®³ à®¿à®Ł
" à®ĩà®©à¯įà®©à¯ģà®®à¯į
à®ĩ à®µà¯įà®µà®¾à®±à¯ĩ
Ġà®¨ à®®à®ķà¯įà®ķà¯ģ
à®Łà¯įà®Ł à®µà®£
Ġà®®à¯ģà® ¸à¯įà®²
Ġà®ħà®¤ à¯Īà®ķà¯į
Ġà®İ à®¤à¯ģ
Ġà®®à¯Ĥ à®©à¯įà®±à¯ģ
Ġà®µà®¾à®´à¯įà®ķà¯įà®ķ à¯Ī
à®ªà¯įà®ªà®Ł à®µà®¿à®²à¯įà®²à¯Ī
à®ħà®µà®°à¯įà®ķà®³ à®¿à®²à¯į
Ġà®ħà®° à¯įà®°à®¹à¯įà®®
Ġà®ªà®¿à®°à®¾à®°à¯įà®¤à¯įà®¤ à®©à¯Ī
Ġà®µà®¾à®ķà¯įà®ķà®³ à®¿à®ķà¯įà®ķà®ªà¯įà®ªà®Łà¯įà®Ł
) à®µà®°à¯įà®ķà®³à¯į
à¯Ģà®¹ à¯ģ
Ġà®İà®£à¯įà®£ à®¿à®ķà¯įà®ķà¯Ī
Ġà®ķà®Łà¯įà®Ł à¯ģà®ªà¯įà®ª
à®¿à®© à®¾à®°à¯į
Ġà®ķà®¾à®° à®£à®®à¯į
à®® à®¿à®²à¯įà®²à¯Ī
Ġà®ĩ à®ªà¯įà®°à®¾à®¹à¯Ģ
à®® à®©à¯įà®©
à®Łà®¿à®¯ à®¾à®ķ
Ġà®¹ à®°
à®İ à®²à¯įà®²à®¾à®
à®Ĩ à®¯
à®ķà¯įà®ķ à®¤à¯įà®¤à®¿à®±à¯įà®ķ
à®®à®¾à®ķ à®µà¯ĩ
Ġà®ļà®¨à¯įà®¤ à®¿à®ªà¯įà®ª
Ġà®Ĩà®ķ à®¿à®µà®¿à®Łà¯įà®Ł
à¯ģà®µ à®¤à¯ģà®®à¯į
Ġà®¤ à®Ļà¯įà®ķà®³à¯ģà®ķà¯įà®ķà¯ģ
à¯ģà®ª à®µà®°à¯į
Ġà®Ĩà®¯ à®¿à®©à¯ģà®®à¯į
Ġà®® à®£à¯įà®£
Ġà®Ĵà®´ à¯ģà®Ļà¯įà®ķ
Ġà®īà®£à¯įà®®à¯Īà®¯ à®¾à®³
Ġà®ķ à®ªà¯įà®ª
à®¸ à¯įà®Ł
à®Ĩ à®°
Ġà®ħà®´ à¯ģà®¤à¯įà®¤
Ġà®µ à®Łà¯įà®Łà¯Ī
à®µà®±à¯įà®± à®¿à®²à®¿à®°à¯ģà®¨à¯įà®¤à¯ģ
à®¿à®¸ à¯į
Ġ U
Ġà®®à®©à®¿à®¤à®°à¯įà®ķà®³ à®¿à®²à¯į
à®© à¯įà®®à¯Īà®¯
Ġà®ħ à®®à¯įà®®
Ġà®ļ à¯ģà®Łà¯įà®Ł
Ġà®ķ à®¾à®¤
à¯Īà®µ à®¿à®Łà¯įà®Łà¯ģ
w or
à®ªà¯įà®ª à®±à¯įà®±à®¿
Ġà®ĩà®°à¯ģà®¨à¯įà®¤ à®©à®°à¯į
à¯ģà®®à¯įà®ª à¯ĭà®¤à¯ģ
Ġà®ļà®® à¯Ģà®ª
Ġà®İà®ļà¯įà®ļà®° à®¿à®ķà¯įà®ķ
à¯Ĥ à®±à¯ģ
Ġà®īà®£ à®µà®³
Ġà®ļà¯ĩà®® à®¿à®ķà¯įà®ķ
à®¤à¯ĩà®° à¯įà®¨à¯įà®¤
ĠC anada
Ġà®ªà¯Ĩà®£ à¯įà®ķà®³
Ġ >
Ġà®īà®Ļà¯įà®ķà®³ à¯ģà®Łà®©à¯į
Ġà®İà®Łà¯ģà®¤à¯įà®¤ à¯ģ
à®ħ à®µà¯įà®µà®¾à®±
Ġà®ķ à®¾à®±à¯įà®±
à¯įà® ĩ
Ġà®ĩ à®¤à¯įà®¤
à®ķ à®¾à®°
Ġà®ħà®µà®°à¯įà®ķà®³ à¯ģà®ķà¯įà®ķà¯ģà®¤à¯į
Ġà®ħà®ķà¯įà®ķà®¿à®°à®® à®ķà¯įà®ķà®¾à®°
à¯Ĩ à®²
à®¤à¯įà®¤à¯Ī à®ļà¯į
Ġà®®à®± à¯ģà®®à¯Ī
Ġà®µà®¿à®Łà¯ģà®µ à®¾à®°à¯įà®ķà®³à¯į
Ġ is
Ġà®ķà¯Ĥ à®°à¯įà®µ
à¯ģà®¤ à®¿à®¯à®¿à®²à¯į
à®® à®¤
Ġà®®à®± à¯Īà®ķà¯įà®ķ
Ġà®ļ à®Łà¯įà®Ł
à®¨à®®à¯įà®ª à®¿à®ķà¯įà®ķà¯Ī
en er
Ġà®ªà¯Ĭ à®¤à¯įà®¤
à¯Īà®¯ à®¾à®²à¯į
à®¿à®® à®¾à®°à¯įà®ķà®³
à®¹à¯Ģ à®©
à®ª à¯Ĭ
Ġà®ļà¯ĩà®® à®¿
Ġà®ª à¯ģà®²
Ġà®ħà®µà®© à®¿à®Łà®®à¯ĩ
Ġà®¨à®¿à®°à®¾à®ķà®° à®¿à®¤à¯įà®¤à¯ģà®ķà¯į
Ġà®®à¯Ģ à®Łà¯įà®Ł
Ġà®ª à¯ģà®¤
Ġ ..
à¯ģà®ķà¯įà®ķ à®¿à®¯
à®¿à®© à®¾à®²à¯ģà®®à¯į
Ġà®ªà¯Ĩà®°à¯ģà®®à¯Īà®¯ à®Ł
Ġà®ĩà®± à®Ļà¯įà®ķ
Ġà®¨à®©à¯įà®± à®¾à®ķ
Ġà®ķà¯įà®ķ à¯ģ
Ġà®ħà®¤à®¿à®ķ à®¾à®°
Ġà®¨à¯Ĩà®°à¯ģà®Ļà¯įà®ķ à®¿à®¯
Ġà®ķ à¯Ĩà®Ł
à®¿à®¯ à®²à¯į
µ à®±à¯įà®±à¯Īà®¯à¯ģà®®à¯į
; ,
à®ı à®©à¯Ĩà®©à®¿à®²à¯į
Ġà®ħà®±à®¿à®µ à®¿à®¤à¯įà®¤
y p
Ġà®¤ à¯ģà®°
Ġà®¤ à¯Ĩ
Ġà®ķà®±à¯įà®ª à®©à¯Ī
Ġà®ĩà®±à®ķà¯įà®ķ à®¿à®¯
à®®à®¾à®© à®µà®©à¯į
à®°à¯įà®ķà®³ à®¿à®²à¯į
Ġà®ļà¯Ĩà®¯à¯įà®¤ à®¿
Ġà®¤à¯Ĥ à®°
Ġà®µà®¿à®Łà¯įà®Ł à®¾à®°à¯įà®ķà®³à¯į
à®¾à®© à®®à¯į
Ġà®ªà¯ģà®±à®ķà¯įà®ķà®£ à®¿à®¤à¯įà®¤
i g
Ġà®®à®ķ à¯įà®ķà®³
Ġà®Ī à®Ł
Ġà®ļà¯Ĥà®´ à¯įà®¨à¯įà®¤à¯ģ
à®© à®¾
Ġà®ĩà®± à®¨à¯įà®¤à¯ģ
à®¿à®ķà¯įà®ķ à®ªà¯į
Ġà®¤à®©à¯įà®© à¯ģà®Łà¯Īà®¯
Ġà®ħà®µ à®ķ
Ġà®¨à®¾à®Łà®¿à®¯ à®¿à®°à¯ģà®¨à¯įà®¤à®¾à®²à¯į
Ġà®ķà¯ģà®± à®¿à®¤à¯įà®¤à¯ģ
( à®ļà¯į
u l
Ġà®¤à¯ģà®µ à®ķà¯įà®ķ
à®İ à®©à¯įà®ª
Ġ ~
à¯ģà®®à¯įà®ªà®Ł à®¿à®ļà¯į
Ġà®ķà¯Ģà®´ à¯įà®ª
à®±à¯įà®ª à¯ĭà®¤
Ġà®®à®©à¯įà®©à®¿à®ªà¯įà®ª à®µà®©à¯į
Ġà®ķà¯ĭà®ªà¯įà®ª à¯ģà®ķà®³à¯Ī
Ġà®µà®¾à®° à®¿à®ļ
à®µà®© à¯Ī
à®¿à®²à®¿à®°à¯ģà®¨à¯įà®¤ à¯ĩ
Ġà®ħà®²à¯įà®²à®¾à®¹à¯įà®µ à¯Īà®¯à®©à¯įà®±à®¿
Ġà®¨à¯Ģ à®¯
Ġà®İà®µà®° à¯ģà®®à®¿à®²à¯įà®²à¯Ī
Ġà®ħà®© à¯įà®ª
à¯ģà®ĥà®ª à¯įà®°
à¯Ĩà®¯ à®°
Ġà®Ĩà®µ à®¾à®°à¯įà®ķà®³à¯į
Ġà®ħà®±à®¿à®µ à®¾à®©à¯į
à®¿à®¯ à¯Īà®ķà¯į
1 0
Ġà®ķà®¿à®Ł à¯Īà®ķà¯įà®ķ
à®ªà¯įà®ªà®Ł à®¾à®¤
à®¿à®ªà¯įà®ª à¯Ģà®°à®¾à®ķ
à¯ģà®ķà¯įà®ķ à¯ģà®³à¯į
Ġà®ľ à®¿à®©
à¯Īà®ķà®³ à¯Īà®ªà¯į
Ġà®¤ à®¾à®¯
Ġà®¨à®²à¯įà®² à®Łà®¿à®¯
à®ªà¯įà®ªà®Łà¯įà®Ł à¯ģà®³à¯įà®³à®¤à¯ģ
Ġà®ħà®²à¯įà®²à®¾à®¹à¯įà®µ à®¿à®Łà®®à¯ĩ
Ġà®¤à®¸à¯įà®ª à¯Ģà®¹à¯ģ
Ġà®®à¯ģà® ·à¯įà®°à®¿à®ķà¯įà®ķ
à®ķ à¯ģà®´
Ġà®¨à®±à¯įà®ķ à®°à¯ģà®®
Ġà®ķà¯ģà®´à®ªà¯įà®ª à®®à¯į
Ġà®µà®£à®Ļà¯įà®ķ à¯ģà®Ļà¯įà®ķà®³à¯į
Ġà®ļà¯ĩà®° à¯įà®¨à¯įà®¤
Ġà®Ł à®¿à®µà®¿à®Ł
Ġà®¨à¯ĩà®ļ à®¿à®ªà¯įà®ª
à®ª à¯įà®²
à®Ĩ à®®à®¾à®®à¯į
Ġà®ļà®ķ à¯įà®¤à®¿
à®¾à®µ à®¿à®Łà¯įà®Łà®¾à®²à¯į
Ġà®®à¯ģà®©à¯įà®© à®¿à®°à¯ģà®¨à¯įà®¤
Ġà®ħ à®ļ
Ġ( %
Ġà®µà®¿à®ļ à®¾à®²
à®ķ à¯ĭ
Ġà®İà®³ à®¿à®¤
Ġà®ļà®¨à¯įà®¤ à®¿à®°
à¯Īà®ªà¯įà®ª à¯Ī
Ġà®īà®¯à®° à¯įà®¨à¯įà®¤
à®¿à®¯ à¯ĭ
à®Ļà¯įà®ķ à®¾à®°
Ġà®¨ à®¿à®®
à®ħ à®ķ
Ġà®¤à®°à¯įà®ķà¯įà®ķ à®®à¯į
Ġà®ļà®¿à®² à®°à¯Ī
à®ħà®µà®© à¯ģà®ķà¯įà®ķà¯ģ
Ġ me
Ġà®ħà®Ł à¯Īà®µà¯ģ
à®ªà¯įà®ªà®Łà¯ģà®¤à¯įà®¤ à®¿à®ķà¯į
Ġà®ªà¯ģà®ķ à¯ģà®¤à¯įà®¤
Ġà®ļà®¾à®Łà¯įà®ļ à®¿à®¯à®¾à®ķ
Ġà®ļà¯Ĩà®¯ à¯įà®ķ
Ġà®ļà¯Ĩà®¯ à®²à¯į
or t
à®ªà¯įà®ª à¯ģà®±
" à®İà®Ļà¯įà®ķà®³à¯į
A R
Ġà®¤ à¯ĭ
Ġà®®à®± à¯Īà®µà®¾à®©
Ġà®ħà®µà¯įà®µà®¿à®°à¯ģà®µà®° à¯ģà®®à¯į
Ġà®¨à®²à¯įà®²à¯ģà®ªà®¤à¯ĩà®ļ à®®à¯į
à®µ à®ŀà¯įà®ļ
Ġà®¤ à®¾à®®à¯ĩ
u m
à®¨à¯įà®¤ à®°
Ġà®ħà®µ à®³
à®°à¯įà®ķà®³ à¯Īà®¯à¯ģà®®à¯į
Ġà®ĵà®¤ à®¿à®ķà¯į
Ġà®ķà¯Ĥà®± à¯ģà®ķà®¿à®±à®¾à®©à¯į
à®Łà¯Ī à®¨à¯įà®¤à¯ģ
Ġà®ªà¯Ĩ à®£à¯įà®£
Ġà®Ĩ à®£à¯įà®Ł
Ġà®ķà®¾à®ĥà®ªà®¿à®° à¯įà®ķà®³à¯ģà®ķà¯įà®ķà¯ģ
Ġà®µà¯ĩà®¤ à®¤à¯įà®¤à¯Ī
Ġà®ªà¯ĩà®°à®¾à®±à¯įà®± à®²
Ġà®ļà¯ĩà®° à¯įà®¨à¯įà®¤à¯ģ
à¯Ĥ à®°à¯į
à®¿à®ķà®³ à®¾à®ķ
à®®à¯Ĥ à®¸à®¾
à®¿à®©à¯įà®± à®©
Ġà®¤à®¿à®° à¯ģà®¤à¯įà®¤
Ġà®īà®Ļà¯įà®ķà®³ à¯Īà®ķà¯į
a in
à®Ł à®ķà¯įà®ķ
t le
à®¿à® ·
à®¾à®°à¯įà®ķà®³ à®¾à®©à®¾à®²à¯į
Ġà®µà®´à®¿à®ķ à®¾à®Łà¯įà®Ł
à®¿à®¯ à®¾à®ķà¯ģà®®à¯į
Ġà®ļà®® à®¾à®¤
à®¾à®ķà¯įà®ķ à¯ģ
Ġà®ĩà®¸ à¯įà®°à®¾à®¯à¯Ģà®²
à¯Īà®ªà¯įà®ª à®¿à®Ł
Ġà®ª à¯Īà®¤à¯įà®¤
Ġà®ļà®ª à¯įà®¤
Ġà®ªà¯Ĭà®° à¯ģà®³
Ġà®¨à®¾à®© à¯ģà®®à¯į
à®¿à®Ł à¯Īà®¯à®¿à®²à¯į
à®¿à®° à®¿
à®¿à®° à¯ģ
e y
à®® à¯Īà®ķà¯įà®ķ
Ġà®ķà®£à¯įà®Ł à¯ģ
v e
Ġà®®à¯ģà®©à¯įà®© à¯ĭ
Ġà®ıà®±à¯įà®ª à®Ł
à®İà®©à¯įà®© à¯Ī
Ġà®ħà®©à¯ģà®ªà¯įà®ª à®¿à®¯
Ġà®ªà®¤ à®¿à®µà¯ģ
à¯ģà®ķà®³ à¯ģà®ķà¯įà®ķà¯ģ
Ġà®ħà®¤à¯įà®¤ à®ķà¯Īà®¯
Ġà®¤ à®¿à®°à¯ģà®
Ġà®ķ à¯ģà®³
à®®à¯ģà®Ł à®¿à®¯
à®¿à®² à¯Ī
Ġà®ļà¯Ģ à®ķà¯įà®ķ
Ġà®¤à¯Ĥà®¯ à¯įà®®à¯Īà®¯à®¾à®©
Ġà®ķà¯ģà®±à¯įà®± à®®à¯į
Ġà®¤à®µ à®±à¯ģ
à¯Īà®¯ à®¿à®©
Ġ ti
à®¿à®¯ à®¿à®°à¯ģà®¨à¯įà®¤
à®µ à®ķ
i f
Ġà®ĩà®µà¯įà®µ à¯ĩà®¤
Ġà®®à®©à®¿à®¤à®°à¯įà®ķà®³ à¯ģà®ķà¯įà®ķà¯ģ
Ġà®¨à®©à¯įà®ķà®±à®¿à®µ à®¾à®©à¯į
à¯Īà®ķà®³ à¯ģà®ķà¯įà®ķà¯ģà®®à¯į
Ġà®ıà®´ à¯ģ
Ġà®® à®¿à®©à¯įà®©
à¯ģà®¤ à¯ģà®®à¯į
Ġà®µà¯ĩà®± à¯Ĩ
à®ĩà®¤ à®©à¯į
Ġà®İà®ļà¯įà®ļà®° à®¿à®ªà¯įà®ª
à®ªà¯įà®ª à¯Ĩ
Ġà®¨à®¾à®³ à¯Ī
Ġà®®à®©à®¿à®¤ à®°
Ġà®ķà¯ģà®± à®¿à®¯
e g
Ġà®ªà¯Ĥà®®à®¿à®¯ à®¿à®²à¯ģà®³à¯įà®³
Ġà®® à®¸
à®µà®°à¯įà®ķà®³ à®¾à®ķà®µà¯ĩ
Ġà®µà®ļà®© à®Ļà¯įà®ķà®³à¯Īà®ªà¯į
Ġà®®à®¤ à®¿à®ªà¯įà®ªà¯ģ
à®¨ à®±à¯į
Ġà®ħà®©à¯ģà®ªà¯įà®ª à®ªà¯įà®ªà®Łà¯įà®Ł
Ġà®µà®¿à®Łà¯įà®Ł à¯ģà®µà®¿à®Ł
q u
à®¾à®© à¯ĩ
Ġà®ļ à¯Ģà®°
Ġà®ªà¯Ĩà®° à®¿à®¤
Ġà®ļà¯Ĩà®µ à®¿à®¯
Ġà®¨à®¿à®² à¯Īà®¯à®¾à®©
à¯Ĭà®° à¯ģà®ķ
Ġc om
i m
Ġà®µ à®²à¯įà®²
à®ķà®¤à¯įà®¤ à®¿à®©à¯į
à®¾à® ľ
Ġà®ªà¯Ĥà®® à®¿à®¯à¯Ī
Ġà®® à®¾à®²
à®ķà¯įà®ķ à¯ģà®®à¯į
Ġ ?čĊ
Ġf or
à®¤ à®¿à®²à®¿à®°à¯ģà®¨à¯įà®¤à¯ģ
Ġà®®à¯Ģ à®±à®¿à®¯
Ġa c
Ġy ou
Ġà®¤ à®³
Ġ on
Ġà®®à¯ģà®¯à®±à¯įà®ļ à®¿
à®¿à®Ł à¯ģà®®à¯į
à®ĩ à®¤à¯įà®¤à®ķà¯Īà®¯
à®İ à®µà®°
Ġà®¨ à®¿à®´
Ġà®µà®¾à®© à®Ļà¯įà®ķà®³
Ġà®ħà®® à¯Īà®ªà¯įà®ªà¯ģ
Ġà®¨à¯ĩà®° à®¤à¯įà®¤à®¿à®²à¯į
à®¤ à¯Ĭà®Ł
Ġà®µà®¨à¯įà®¤ à®¤à¯ģ
à®ħ à®£
an g
à®µà®°à¯įà®ķà®³ à¯Īà®ªà¯į
Ġà®µà¯Īà®¤à¯įà®¤ à®¾à®©à¯į
à¯ģà®® à®¿à®Łà¯Īà®¯à¯ĩ
Ġà®ĩà®¯à®² à®¾à®¤à¯ģ
Ġà®īà®Ļà¯įà®ķà®³ à¯ģà®ķà¯įà®ķà¯ģà®¤à¯į
Ġà®ħà®´ à¯Īà®¤à¯įà®¤à¯ģ
Ġà®ªà®² à®©
Ġà®ĩ à®µà®°à¯į
à® ĥà®ªà®¿à®°à¯įà®ħà®µà¯įà®©
à¯Ī à®ª
Ġà®µà®´ à®¿à®ªà¯įà®ªà®Łà¯įà®Ł
Ġà®ĩà®±à¯Īà®µà®© à¯ģà®ķà¯įà®ķà¯ģ
à®ķ à®¤à¯įà®¤à¯Ī
Ġà®ĩà®°à¯ģà®¨à¯įà®¤ à®¾à®°à¯į
à¯įà®µ à®¾à®¯à®¾à®ķ
Ġà®¤ à®Łà¯ģà®¤à¯įà®¤à¯ģ
à®¯ à®µà®ŀà¯įà®ļ
Ġà®ī à®©à®ķà¯įà®ķà¯ģ
à®ĩ à®¤à®±à¯įà®ķà¯ģ
Ġà®İà®Ļà¯įà®ķà®³ à¯ģà®Łà¯Īà®¯
Ġà®®à®° à¯įà®¯
Ġà®ķà¯Ĥà®°à¯įà®µ à¯Ģà®°à®¾à®ķ
à®ī à®Ł
à¯Ĩ à®©à¯į
Ġà®ĩà®°à¯ģà®ªà¯įà®ª à®¿à®©à¯į
à®® à¯ģà®´
Ġà®µà®¿à®Ł à®¾à®¤à¯Ģà®°à¯įà®ķà®³à¯į
ener ic
Ġà®ķà®¾à®°à®£ à®¤à¯įà®¤à®¾à®²à¯į
Ġà®Ĩ à®ļà¯įà®ļà®°
ou nt
Ġà®Ĩà®ķà¯įà®ķ à®¿à®ķà¯į
à®¿à®¤ à®´
à¯ģà®®à¯Īà®¯ à®¾à®ķ
à¯Īà®µ à¯Ĩà®³
Ġà®¤à¯Ģà®Ļà¯įà®ķ à®¿à®´
à¯ģà®¤ à®²à¯Ī
Ġà®ı à®®à®¾à®±à¯įà®±
à®¿à®¯ à¯įà®¯
Ġà®ħ à®µà¯įà®µà®¾à®±
O R
Ġà®¨à®¿à®² à¯Īà®¯
Ġà®ķà®Łà®¿à®© à®®à®¾à®©
Ġà®¨à®ķ à®²
à®¿à®ªà¯įà®ª à®¾à®©à¯į
à®ķ à®¾à®¤à¯įà®¤
à®¹ à®¾à®°à¯įà®Ł
à®¾à®° à®£à®®à¯į
à®ĩà®µà¯įà®µ à¯ģà®²à®ķ
Ġà®ªà®² à®¹à¯Ģà®©
Ġà®¹ à®¾à®°
Ġà®¯à®¾à®µ à®°à¯ģà®®à¯į
à®±à¯įà®ªà¯ĭà®¤ à¯Īà®¯
à¯ģà®³à¯įà®³ à®¾à®©à¯į
à®µ à®¾à®°
Ġà®īà®± à¯ģà®¤à®¿
Ġw h
Ġà®ªà®ķà¯įà®ķ à®¤à¯įà®¤à®¿à®²à¯į
à®¿à®ķà¯įà®ķà®¿à®± à®¤à¯ģ
A T
Ġà®ķ à¯Īà®ªà¯įà®ª
Ġà®µà®£à¯įà®£ à®®à¯į
M E
Ġà®ļà¯Ĩ à®°à¯ģà®ķ
à®¾à®ķ à®®à¯į
Ġà®µà®Ł à®¿à®ķ
Ġà®¤ à¯ģà®£à¯įà®Ł
Ġà®ķà®° à¯ģà®¤
à®ī à®²à®ķ
â Ļ
âĻ ª
Ġà®ħà®° à®ļ
Ġà®®à¯Ģ à®¤
Ġà®İ à®£à¯į
Ġà®¨à®¿à®² à¯Īà®¤à¯įà®¤
à®ªà®¿à®± à®ķà¯ģ
Ġà®¨à®©à¯įà®ķà®±à®¿à®ª à®µà®©à¯į
à®ªà¯Ĥà®® à®¿à®¯à®¿à®²à¯į
à®¿à® Ļà¯įà®ķ
à®¤ à®¾à®²à¯į
à®¾à®¤ à¯į
à®¿à®¤à¯įà®¤ à®¾à®°à¯į
Ġà®ħà®ªà¯įà®ª à®¾à®²à¯į
Ġà®µà®¿à®Łà¯įà®Ł à®©
à®® à®¿à®ķ
Ġ( _
Ġà®®à¯ĩà®² à¯ĩ
à®° à¯įà®¨à¯įà®¤
Ġà®ĩ à®©à¯į
Ġà®īà®Ļà¯įà®ķà®³ à¯ģà®ķà¯įà®ķà¯ģà®ªà¯į
Ġà®µà®ļ à®¤
% s
Ġà®µà®¾à®ķà¯įà®ķ à¯ģ
Ġà®ķà¯ĭà®ªà¯įà®ª à¯ģà®ķà®³à¯į
Ġà®°à®¹à¯įà®® à®¤à¯įà®¤
Ġà®®à®©à¯įà®©à®¿à®ªà¯įà®ª à¯ģà®ķà¯į
Ġà®Ĩà®± à¯ģà®ķà®³à¯į
Ġà®īà®® à®¤à¯ģ
Ġà®ħà®©à¯ģà®ªà¯įà®ª à®¿à®©à¯ĭà®®à¯į
Ġà®ļà®¿à®± à®¿à®¯
à¯ģà®µ à®¤à®¿à®²à¯į
à®ħà®µà®°à¯įà®ķà®³ à®¿à®Łà®®à¯į
à®ķà¯įà®ķà®¤à¯įà®¤à®¿à®±à¯įà®ķ à¯ģà®°à®¿à®¯
à¯ģà®ļà¯įà®ļ à¯Ĭ
Ġs h
Ġà®¤à®µà®£ à¯Ī
à®¾à® ĥà®ª
Ġà®® à®Ł
Ġà®ĩà®Ł à¯Īà®¯à¯ĩ
à®Ļà¯įà®ķà®³à¯Ī à®ļà¯į
Ġà®®à¯ģà®ĥà®®à®¿à®© à¯įà®ķà®³à¯į
Ġà®Ĩ à®²
à¯ģà®ķà¯įà®ķ à¯Ĩà®²à¯įà®²à®¾à®®à¯į
Ġà®ļà®¨à¯įà®¤ à¯ĩ
Ġà®ļ à®Ļà¯įà®ķ
Ġà®ĩà®±à®ķà¯įà®ķ à®ªà¯įà®ªà®Łà¯įà®Ł
Ġà®ħà®¤ à¯ģà®µà¯ĩ
( à®ķà¯į
Ġà®ĩà®°à¯ģà®¨à¯įà®¤ à®¾à®°à¯įà®ķà®³à¯į
à®Ĩà®¯ à®¿à®©à¯ģà®®à¯į
à®ª à®Łà¯įà®ļ
à®¹à®¾à®°à¯įà®Ł à¯įà®¸à®¿à®©à¯į
à®µà®±à¯įà®± à¯Īà®¯à¯Ĩà®²à¯įà®²à®¾à®®à¯į
Ġà®¨à¯Ĩ à®ŀà¯įà®ļ
Ġà®®à¯ģà®±à¯įà®ª à®Łà¯įà®Ł
Ġ Name
en t
à®¤ à¯Īà®¯à¯ĩ
à®İ à®µà®°à¯į
Ġà®¨à®¿à®°à®¾à®ķà®° à®¿à®ķà¯įà®ķà®¿à®±
Ġà®ļ à¯ĭà®¤
Ġà®ķ à®²à¯įà®µ
Ġà®Ĵ à®²
Ġà®®à®Łà¯įà®Ł à¯ģà®®à¯ĩ
à®Ļà¯įà®ķ à®¿à®ķà¯į
à¯Ģà®°à¯įà®ķà®³ à®¾à®¯à®¿à®©à¯į
à®® à®¿à®©à¯į
Ġà®¤à®° à¯įà®®
S L
Ġà®ļà®° à®¿à®¯à®¾à®©
à®ħà®© à¯Īà®¤à¯įà®¤à¯ģ
Ġà®² à¯Ĥ
Ġà®µà®° à®²
à®° à®¿à®©à¯į
Ġà®ĩ à®®à¯įà®®
Ġà®µà®¿à®Ł à¯ģà®ķà®¿à®±à®¾à®©à¯į
Ġà®ªà®ķà¯įà®ķ à®®à¯ĩ
( à®µà¯įà®µ
à®İ à®¤à®¿à®°
n u
à¯Ĥ à®©à¯į
à®¤ à®¿à®Ł
à®Ĩ à®®à¯į
à®¾à®®à®² à¯ģà®®à¯į
à®¤ à®¿à®Łà¯įà®Ł
Ġà®¨à®¿à®©à¯įà®± à¯ģà®®à¯į
à®ī à®Ļà¯įà®ķà®³à®¿à®²à¯į
à¯Ĩà®° à®¿à®¯
Ġ and
Ġà®¨ à®¾à®Ļ
Ġà®ªà®¾à®¤ à¯Īà®¯à¯Ī
Ġà®® à®¾à®©
Ġà®ªà®¯à®©à¯įà®ªà®Łà¯ģà®¤à¯įà®¤ à¯ģ
Ġà®ĩ à®µà®°à¯įà®ķà®³à¯Ī
Ġà®ªà®¾à®° à¯įà®¤à¯įà®¤à¯ģ
Ġà®µà®¿à®°à¯Īà®µ à®¿à®²à¯į
p h
à®¿à® İ
Ġà®ļ à¯Ĭà®°à¯ģà®ķ
à¯įà®ªà¯įà®ª à¯ģ
Ġà®ļ à®¾à®©à¯įà®±
à®®à¯ĩ à®±à¯įà®ķà¯ģ
à®ĩ à®µà¯Ī
Ġà®¨à®ķà®° à¯įà®¤à¯įà®¤
Ġà®µà®¿à®°à¯ģà®®à¯įà®ªà¯ģà®ķà®¿à®± à¯Ģà®°à¯įà®ķà®³à®¾
Ġà®ªà¯Ĩà®¯ à®°à¯Ī
Ġà®īà®Ł à®©à¯įà®ª
Ġà®¨à¯Ĩà®° à¯ģà®ķà¯įà®ķ
Ġà®ļà®¾à®° à¯įà®¨à¯įà®¤
Ġà®®à¯ĩ à®±à¯įà®ķ
à¯Īà®¯à¯Ī à®ļà¯į
v i
à®µà®°à¯įà®ķà®³ à¯Īà®¤à¯į
à®² à¯Ĥ
Ġà®¨à®¿à®© à¯Īà®¤à¯įà®¤
Ġà®Ĩà®Łà¯įà®ļ à®¿
Ġà®ļà¯Ĩà®¯à¯įà®¤ à®¾à®²à¯ģà®®à¯į
Ġà®īà®° à®¿à®®
Ġà®Ĩà®ķà¯įà®ķ à®¿
Ġà®µà®¿à®° à¯Īà®¨à¯įà®¤à¯ģ
à¯ĩ à®°à¯į
Ġà®¯à®¾à®µ à®±à¯įà®±à¯Īà®¯à¯ģà®®à¯į
Ġà®®à¯ģà®ĥà®®à®¿à®© à¯įà®ķà®³à¯ģà®ķà¯įà®ķà¯ģ
à®¿à® ľ
à®ªà¯įà®² à¯Ģ
Ġà®ķà®Ł à®®à¯Īà®¯
à®¿à® Ļà¯į
Ġà®ª à¯ģà®°à®¿à®¯
Ġà®¯à®¾à®µ à¯ģà®®à¯į
à¯Ģ à®Ł
Ġà®ļà¯ĩà®° à¯įà®¤à¯įà®¤à¯ģ
Ġà®ķà¯Ĥà®± à¯ģà®ª
Ġà®īà®®à¯įà®® à¯Ģà®¤à¯ģ
Ġà®ķà¯ĩà®Łà¯įà®ª à¯Ģà®°à®¾à®ķ
Ġà®ķà¯ĩà®³à¯įà®µ à®¿
à¯ģà®² à¯Ī
à®ª à®¿à®®à¯įà®ª
Ġà®®à¯ģà®ĥà®®à®¿à®© à¯įà®ķà®³à®¾à®ķ
a s
à®¿à®© à®¾à®°à¯įà®ķà®³à¯į
Ġà®ĩà®µà®°à¯įà®ķà®³ à¯ģà®Łà¯Īà®¯
à¯Ĥ à®²à®¿
Ġà®ħà®µà®© à¯Īà®¯à®©à¯įà®±à®¿
à®ª à®Łà®¿
à®µ à¯ģà®®à®¿à®²à¯įà®²à¯Ī
Ġà®ªà®¤ à®¿à®µ
Ġà®Ĩà®£ à¯į
à¯įà®ķà®¿à®± à®¤à¯ģ
Ġà®īà®®à®ķà¯įà®ķ à¯ģà®ķà¯į
à®°à¯įà®ķà®³ à¯ģà®®à¯į
Ġ la
Ġà®¤ à®Łà¯įà®Ł
Ġà®İ à®µà®©
Ġà®®à¯ģà®© à¯įà®ª
à®° à¯ĭ
à®¾à® ĥà®ªà®¿à®°
à®īà®Ļà¯įà®ķà®³ à¯ģà®Łà¯Īà®¯
à¯įà®ķ à®¾à®£
à®¤ à®ķà¯įà®ķ
à¯Īà®ķà¯įà®ķ à¯ģà®°à®¿à®¯
Ġà®µà®° à¯ģà®Ł
Ġc on
à¯įà® ĥà®ª
Ġà®µà®¾à®© à®Ļà¯įà®ķà®³à®¿à®²à¯ģà®®à¯į
Ġà®¨à¯Ģ à®°à¯ģà®®à¯į
Ġà®ªà®¤à®¿à®² à®¾à®ķ
Ġà®ħà®µà®° à¯ģà®Łà®©à¯į
Ġà®ĩà®°à¯ģà®¤à®¯ à®Ļà¯įà®ķà®³à¯į
Ġà®ªà®Ł à®¿
Ġà®ªà®¿à®©à¯įà®© à®¾à®²à¯į
Ġà®Ĵà®°à¯ģà®µà®° à®¾à®ķ
( à®©à¯į
à®ķ à¯įà®³
Ġà®ħ à®Ļà¯įà®ķ
Ġà®ªà®¯ à®¨à¯įà®¤à¯ģ
Ġà®ħ à®Ļà¯įà®ķà¯ĩ
à®¿à®Łà®® à®¿à®°à¯ģà®¨à¯įà®¤
Ġà®ķà¯ģà®Łà¯ģà®®à¯įà®ª à®¤à¯įà®¤à®¾à®°
Ġà®ļà¯Ĩà®¯à®²à¯įà®ª à®Łà¯ģà®¤à¯įà®¤
Ġà®®à®¾à®Łà¯įà®Ł à®¾à®¤à¯ģ
Ġà®ļ à¯ģà®¤à¯įà®¤
Ġà®µà¯Ĩà®³à®¿à®ªà¯įà®ª à®Ł
Ġb ut
à®² à¯įà®ķà®³à¯Ī
Ġà®¤à®² à¯Īà®ªà¯įà®ªà¯ģ
Ġà®ªà¯Ĩà®° à¯ģà®®à¯Ī
à®īà®¯ à®¿à®°
à®Ļà¯įà®ķà®³ à®¿à®²à®¿à®°à¯ģà®¨à¯įà®¤à¯ģ
Ġà®¨à®Ł à®¤à¯įà®¤
Ġà®ªà®ķ à¯ģà®¤à®¿
Ġ ...čĊ
à®¤à®µ à®±
Ġà®ķà¯ģà®± à¯Īà®¨à¯įà®¤
Ġà®µ à®¾
Ġà®ĩà®° à¯ģà®³
à¯Īà®¯à¯Ī à®¤à¯į
Ġà®ķà¯ĩà®Łà¯įà®Ł à®¾à®°à¯į
Ġ X
à®®à®£à¯įà®Ł à®¿à®©à¯į
à®¨à¯Ģ à®Ļà¯įà®ķà®³
à¯įà®ľ à®¿à®©
à®µà®°à¯įà®ķà®³ à®¿à®Łà®®à¯į
Ġà®ħà®¤à®¿à®ķ à®®à®¾à®ķ
Ġà®Ĩà®ļà¯įà®ļà®° à®¿à®¯
à®¤ à®¿à®©à¯į
Ġà®¤ à®¾à®´
à¯įà®ķà®³ à¯Īà®ªà¯į
à®¿à®© à®¾à®²
à®Łà¯įà®Łà®µà®£ à¯Ī
à®° à®Ļà¯įà®ķ
u b
ar t
Ġà®¤ à¯ģà®Ł
Ġ( )
Ġà®¤à®µà®± à®¾à®©
à¯įà®ª à®Łà¯ģà®¤à¯įà®¤
Ġà®īà®¤ à®¾à®°à®£à®®à¯į
Ġà®¤à®µà¯įà®ª à®¾
Ġà®ħà®£ à¯ģà®ķ
Ġà®Ĩà®° à®®à¯įà®ª
à®İ à®¤
à®¿à®°à¯ģà®µà®° à¯ģà®®à¯į
Ġà®ªà®¾à®°à¯įà®¤à¯įà®¤ à¯ģà®ķà¯į
Ġà®ķà®±à¯įà®± à¯ģà®ķà¯į
à¯Ĭà®° à¯ģà®³à¯į
à®ªà®¯ à®©à¯įà®ª
Ġà®ªà®¿à®° à®¯
à®¾à®£à¯įà®Ł à¯į
à®µà®© à¯ĩ
Ġà®ªà®Ł à®¿à®ªà¯įà®ª
Ġà®ĩà®¯à®² à®¾à®¤
) "
Ġà®¨ à®²
Ġà®ı à®©à¯Ĩà®©à¯įà®±à®¾à®²à¯į
à¯Ĩà®¯ à¯į
à®¾à®© à¯Ī
Ġà®¨à®±à¯įà®ķ à¯Ĥà®²à®¿
à¯įà®ľà®¿à®© à®¿à®¯à®¾
Ġà®ħà®²à¯įà®²à®¾à®¹à¯įà®µ à¯Īà®¤à¯į
à®±à¯įà®ļ à¯Ĩà®¯
à®®à®¾à®Łà¯įà®Ł à¯Ģà®°à¯į
à®¤ à¯Ĥà®¤
Ġà®ªà®¾à®µ à®Ļà¯įà®ķà®³à¯Ī
à®¨à®¿à®± à¯ģà®¤à¯įà®¤
Ġà®¤à®®à®ķà¯įà®ķ à¯ģà®¤à¯į
Ġà®ļà®¨à¯įà®¤ à®¤
à®ħà®µà®© à¯ģà®Łà¯Īà®¯
Ġà®İà®¨à¯įà®¤ à®ªà¯į
Ġà®®à®° à®£à®®à¯į
à®¾à®ª à¯į
Ġà®µà®¿à®± à¯įà®ľà®¿à®©à®¿à®¯à®¾
o o
à¯ĩà®Ł à®¿à®©à¯į
à®² à®¾à®©
à¯Ģ à®©à¯į
Ġà®ħà®± à®¿à®ķà®¿à®±à®¾à®©à¯į
à¯įà®° à¯ģ
Ġà®ľ à¯ĭ
à®ª à®¿
Ġà®ħà®µà®ķ à®¾à®ļà®®à¯į
G eneric
à®¾ City
Ġà®ħà®® à®²à¯įà®ķà®³à¯į
Ġà®ĩà®°à¯ģà®ªà¯įà®ª à¯Ģà®°à®¾à®ķ
Ġà®®à¯ģà®¸à¯įà®² à®¿à®®
à®¿à®µ à¯Īà®¤à¯įà®¤
Ġà®µà®¿à®³à¯Īà®¯ à®¾à®Ł
à®ĩ à®®à¯įà®®
Ġà®µà®¿à®Łà¯įà®Ł à¯ģà®ļà¯į
Ġà®¨à®¾à®¯ à®©
Ġà®ªà®¾à®µ à®®à¯į
) à®ķà¯į
Ġà®¤ à®¾à®®
Ġà®ĩà®° à¯ģà®Ļà¯įà®ķà®³à¯į
à®¸à¯įà®ª à¯ĩà®Łà®¿à®©à¯į
in d
Ġà®¤ à®¿à®©
à®° à¯ģà®ķà¯įà®ķà¯ģà®®à¯į
Ġà®¹à®° à®¾à®®
Ġà®µà®ļà®© à®Ļà¯įà®ķà®³à¯į
Ġà®¤à¯Ĥà®¤ à®°à¯ģà®®à¯į
uck ing
¤ à¯įà®¤
Ġà®µà¯Ĩ à®³à¯įà®³
à®ħ à®ķà¯įà®ķ
Ġà®ªà¯Ĩà®±à¯įà®± à¯ģà®ķà¯į
à®± à®¿à®µ
Ġà®ļà®®à¯Ĥà®ķà®¤à¯įà®¤à®¾à®° à®¿à®Łà®®à¯į
à¯Īà®ķà¯įà®ķ à®¾à®ķ
à®ı à®¯à¯į
à®¿à®°à¯ģà®ªà¯įà®ª à®¾à®°à¯įà®ķà®³à¯į
Ġà®®à¯ģà®©à¯įà®© à®°à¯ĩ
Ġà®¤ à®Ļà¯įà®ķà®³à¯Ī
à¯ģà®® à®¾à®ķ
à®¾à®µ à®¿à®²à¯į
Ġà®µà¯ĩà®¤à®©à¯Īà®¯ à¯Īà®ķà¯į
Ġà®ħà®²à¯įà®²à®¾à®¹à¯įà®µ à¯Īà®¯à¯ģà®®à¯į
Ġà®ĩà®±à¯Īà®µà®© à®¿à®Łà®¤à¯įà®¤à®¿à®²à¯į
à®Ł à¯Īà®µ
Ġà®ķà®µà®© à®¿à®¤à¯įà®¤
Ġà®® à®¯
Ġà®®à®¾à®Łà¯įà®Ł à¯ĩà®©à¯į
Ġà®ªà®¿à®Ł à®¿à®¤à¯įà®¤
Ġà®İ à®±à®¿à®¯
Ġ @
Ġà®¤à®¿à®°à¯ģà®ªà¯įà®ª à®¿
Ġ H
Ġà®ļà®® à®®à®¾à®ķ
à®® à®Łà¯įà®Ł
à®¾à®µ à®¤à®¾à®ķ
Ġà®¨à®¿à®©à¯Īà®µ à¯Ĥà®Łà¯įà®Ł
Ġà®ļà¯Ĩà®µà®¿à®¯ à¯ģà®±
Ġ us
à®® à®¯
à®ļ à®¾à®¤
à¯Ĩà®° à®¿à®ķà¯įà®ķ
à®µ à¯Īà®¯à®¾à®ķ
Ġà®®à¯ģà®¨à¯įà®¤ à®¿à®¯
à®¨à®¿à®² à¯Ī
à®ķà¯Ģà®´ à¯į
Ġà®ª à¯Ĥ
à¯ģà®ª à®Łà¯įà®Ł
Ġà®ķ à®µà®²à¯Ī
à®¿à®²à¯įà®² à®¾à®®à®²à¯į
t ur
Ġà®ļà¯Ĩà®¯à®² à¯įà®ķà®³à¯į
à¯įà®® à¯Ģà®¤à¯ģ
Ġà®ĩà®Ł à¯Īà®µà¯Ĩà®³
Ġà®ª à®¿à®£
à®İ à®Ļà¯įà®ķà®³
à®¤à®±à¯įà®ķ à¯ģà®®à¯į
Ġà®īà®±à¯ģà®¤ à®¿à®ªà¯įà®ªà®Łà¯ģà®¤à¯įà®¤
à®¿à®¸ à¯įà®ķ
i le
à®° à®¾à®ķ
Ġà®ĵ à®Łà®¿à®ķà¯įà®ķ
" à®ĩ
Ġà®¨à®®à¯įà®® à¯Ī
à®ħ à®¤à¯įà®¤
Ġà®ħà®² à®Ļà¯įà®ķà®¾à®°
Ġà®ļà¯Ĥà®´ à¯įà®ļà¯įà®ļà®¿
à¯įà®® à®¾à®©
Ġà®Ĩà®¤ à®²à®¾à®²à¯į
( à®ª
à®¿à®ķà®³ à¯Īà®ķà¯į
à®ħà®µà®© à¯Ī
à®² à®¾à®®
Ġà®īà®° à¯Īà®¯à®¾à®Ł
à¯ģà®µà®¿à®Łà¯įà®Ł à®¾à®²à¯į
à®ķ à®¿à®°
Ġà®¤à®¿à®°à¯ģà®®à¯įà®ª à®¿à®ļà¯į
à®ĩ à®¤à¯įà®¤
Ġà®īà®Ł à®©à¯į
Ġà®ķ à®¾à®²à¯į
à®µ à®¿à®²
Ġà®ªà®¿à®©à¯įà®ª à¯ģ
à¯įà®ķ à®¾à®°
à¯įà®Ł à®©à¯į
à¯ģà®ķ à¯įà®ķà®³à¯Ī
Ġà®ħ à®µà¯įà®µà®¾à®±à¯ĩ
Ġà®ļ à¯ģà®´
Ġà®®à®ķ à®©à¯į
Ġà®ķà¯ģà®°à¯įà®Ĩ à®©à¯į
Ġà®ķà¯Ĥà®Łà¯įà®Łà®¤à¯įà®¤ à®¾à®°à¯į
à¯įà®ľ à®¿à®¤
à¯Ĩ à®Łà¯įà®Ł
à®ħà®¤ à®©à¯Ī
Ġà®ĩà®£à¯Īà®µ à¯Īà®ªà¯įà®ª
à®µà®°à¯įà®ķà®³ à¯ģà®ķà¯įà®ķà¯ģà®®à¯į
Ġà®ħà®²à¯įà®²à®¾à®¹à¯įà®µ à¯ģà®®à¯į
à®ħà®µà®° à¯Ī
Ġà®ļà¯ģà®±à¯įà®± à®¿
Ġà®µà®´à®¿à®ķà¯ĩ à®Łà¯įà®Łà®¿à®²à¯į
Ġà®¨à®¿à®°à®¾à®ķà®°à®¿à®ªà¯įà®ª à®µà®°à¯įà®ķà®³à¯į
( à®¤à¯ģ
à®¾à®ķà¯įà®ķ à®¿à®ķà¯į
Ġà®¨à®°à®ķ à®¤à¯įà®¤à®¿à®²à¯į
Ġà®¤à®¿à®Łà¯įà®Ł à®®à¯į
Ġà®ķ à¯ģà®®
er s
Ġà®¨à®¾à®© à¯įà®ķà¯ģ
à®¾à®³ à®¿à®ķ
à¯Ĥ à®¹
Ġà®ķà®Ł à¯Īà®ªà¯įà®ªà®¿à®Ł
Ġà®¯à®¾à®° à¯ģà®®à¯į
Ġ W
à®µà®¾à®© à®Ļà¯įà®ķà®³
à¯Ĩ à®©à¯įà®ª
( à®ļ
à®¾à®Łà¯įà®Ł à®¿
Ġà®¤à®²à¯Ī à®®à¯ģà®±
t t
à¯ģà®© à®¿à®¤
Ġà®ĩà®±à®ķà¯įà®ķ à¯ģà®®à®¤à®¿
Ġà®¤à®¿à®Ł à®©à®¾à®ķ
Ġà®®à®ķ à¯įà®ķà®³à¯Ī
à¯ģà®µà®¿à®Łà¯įà®Ł à®¤à¯ģ
Ġà®ħà®µà®° à®¿à®Łà®®à¯į
Ġà®¨à®·à¯įà®Ł à®®
Ġà®ļà¯ĩà®° à¯įà®¤à¯įà®¤
à®Łà¯Ī à®®à®£à¯įà®Łà®¿à®©à¯į
Ġà®ªà®° à®¾à®®
Ġà®ħà®Ł à®¿à®®
à®µà¯ĩà®£à¯įà®Ł à®¿à®¯
à®± à¯ģà®®à¯į
Ġà®µà¯Ĩ à®Łà¯įà®Ł
à®Ł à¯įà®ķ
Ġà®µà¯Ģ à®Łà¯įà®Ł
Ġà®ĩà®°à¯ģà®ķà¯įà®ķà®¿à®©à¯įà®± à¯ĩà®©à¯į
Ġà®ļà¯Ĩà®¯à¯įà®ķà®¿à®± à®¾à®°à¯įà®ķà®³à¯į
Ġà®ķà®¾à®£ à®µà®¿à®²à¯įà®²à¯Ī
Ġà®Ĵ à®²à®¿
Ġà®¤à¯Ĩà®°à®¿à®¯ à®¾à®¤à¯ģ
à®¯ à®¾à®°à¯į
à¯įà®ª à®¾à®©
I S
Ġà®¨à¯Ģà®¯ à¯ĩ
Ġ un
Ġà®µà®´ à®ķà¯įà®ķ
Ġà®® à¯Īà®¯
Ġà®ħà®¨à¯įà®¤ à®°à®Ļà¯įà®ķ
Ġà®ķà®£à¯įà®Łà¯ģà®ªà®¿à®Ł à®¿à®ķà¯įà®ķ
Ġà®ª à®Ļà¯įà®ķ
ti n
Ġà®¨à¯ģà®´ à¯Īà®¯
Ġà®¨à®¾à®Ł à¯įà®ķà®³à®¿à®²à¯į
à¯įà®µ à¯Ī
à®¾à®µ à®¿à®©à¯į
à®© à®µà¯ĩ
à¯įà®¤à¯įà®¤ à®¿
à¯ģà®ķà®¿à®± à¯Ģà®°à¯įà®ķà®³à®¾
Ġà®ļà¯Ĥà®©à®¿à®¯ à®ķà¯įà®ķà®¾à®°
à®Ł à¯Īà®¯à¯ģà®®à¯į
Ġ r
à®© à¯įà®Ł
Ġà®ħà®° à¯ģà®ķ
à¯ĭ à®Łà¯ģ
à®®à¯Ĥ à®¤à¯ģ
Ġà®¨à®¿à®°à®¾à®ķà®° à®¿à®ķà¯įà®ķà®¿à®©à¯įà®±
Ġà®¨à®¿à®° à¯įà®µ
Ġà®ªà®ķ à®²
Ġà®¤à¯Ĥà®¯ à¯įà®®à¯Īà®¯
Ġà®ĩà®°à¯ģà®ķà¯įà®ķà®¿à®©à¯įà®± à®¤à¯ģ
Ġà®µà®² à®¤à¯ģ
j ec
Ġà®ķà¯Ģà®´ à¯į
Ġà®ªà¯ģà®° à®¿à®µ
à®ķ à®¤à¯įà®¤à®¿à®²à¯į
Ġà®ħà®¤à®¿à®ķ à®ªà¯įà®ªà®Łà¯ģà®¤à¯įà®¤
Ġà®ķà¯ĩ à®Łà¯įà®Łà¯ģ
Ġà®µ à®¿à®²à¯įà®²
Ġà®¨ à®¾à®®
Ġà®ħà®¤à¯Ī à®¤à¯į
Ġà®ħà®µ à®³à¯Ī
à®¾à®³ à®©à¯į
Ġà®ĩà®£ à¯Īà®ªà¯įà®ªà¯ģ
à®µà®±à¯įà®± à¯Īà®ªà¯į
Ġà®¯ à¯Ĥà®¸à¯ģà®ĥà®ª
Ġà®ĩà®²à¯įà®² à¯Īà®¯à®¾
à®ķà¯įà®ķ à®°
Ġà®µà®¿à®Łà¯ģà®µ à®¾à®©à¯į
Ġà®ħà®²à¯įà®²à®¾à®¹à¯įà®µ à¯Īà®¯à¯ĩ
( à®¨à¯įà®¤
à®¾à®ķ à®ļà¯į
à®ħ à®Ļà¯įà®ķà¯ģ
Ġà®ľ à®ķà®¾à®¤à¯įà®¤
Ġà®µà¯ĩà®¤à®©à¯Īà®¯à¯Ī à®ļà¯į
Ġà®īà®Ł à®©à¯ĩ
Ġà®ķà®£ à®¿à®©
ou n
à¯Ĥ à®Ł
Ġà®®à®±à¯ģà®®à¯Īà®¯ à®¿à®²à¯ģà®®à¯į
Ġà®ħà®µà®°à¯įà®ķà®³ à¯ģà®ķà¯įà®ķà¯ģà®®à¯į
à¯ģà®µ à®¤à®±à¯įà®ķà®¾à®ķà®µà¯ģà®®à¯į
Ġà®ħà®µà®° à®¤à¯ģ
Ġà®Ĵà®°à¯ģà®µ à®©à¯į
i d
Ġà®īà®£à¯įà®®à¯Īà®¯ à¯Īà®ķà¯į
Ġà®® à¯ģà®³
Ġà®ķà¯Ĥà®² à®¿à®¯à¯Ī
à®µà®¿à®²à¯įà®² à¯Īà®¯
à¯įà®¨ à®Ł
Ġà®®à¯Ģ à®±à®¿
Ġà®ħà®µà®°à¯įà®ķà®³ à®¿à®Łà¯Īà®¯à¯ĩ
Ġs e
Ġà®ħà®µà®© à¯įà®¤à®¾à®©à¯į
à®¤ à®ķ
à®¸ à®¾à®²à®¿à®¹à®¾à®©
Ġà®ļà¯Ĩà®¯à¯įà®ª à®µà®±à¯įà®±à¯Ī
à®¾à®¸ à¯į
à®¤à¯įà®¤ à®¿à®©à®¾à®²à¯į
Ġà®¤à®£à¯įà®£ à¯Ģà®°à¯į
Ġà®ªà®¿à®°à®¯ à®¾à®£
Ġà®Ĭ à®°
Ġà®®à¯ģà®´ à¯ģ
Ġà®¤à¯Ĩà®¯à¯įà®µ à®Ļà¯įà®ķà®³à¯Ī
Ġà®®à¯ģà®Ł à®¿à®¨à¯įà®¤
Ġà®¨à®±à¯įà®ķà®°à¯ģà®® à®Ļà¯įà®ķà®³à¯į
Ġà®µà®° à¯ģà®µ
Ġà®µà®¿à®·à®¯ à®¤à¯įà®¤à®¿à®²à¯į
M L
Ġà®ķ à¯įà®³
Ġà®¸ à¯ģà®²à¯Ī
Ġà®īà®Ļà¯įà®ķà®³ à¯ģà®ķà¯įà®ķà¯ģà®ļà¯į
Ġà®ªà¯ĩ à®£
Ġ ..čĊ
Ġà®ĩ à®©à¯įà®±à¯ģ
ou ld
Ġà®¨à®ª à®¿à®®à®¾à®°à¯įà®ķà®³
Ġà®ĩ à®¤à®±à¯įà®ķ
Ġà®ļà®®à¯Ĥà®ķà®¤à¯įà®¤à®¾à®° à¯Ī
Ġà®ķà¯ĭà®ªà¯įà®ª à®¿à®©à¯Ī
u p
Ġà®¤à®Łà¯ģà®¤à¯įà®¤ à¯ģà®ķà¯į
à®ª à¯ĭ
à®¿à®± à¯Ģà®°à¯įà®ķà®³à¯į
Ġà®ħà®µà®© à¯Īà®¯à¯ĩ
à®¾à®µ à®¾à®°à¯įà®ķà®³à¯į
à®İà®´ à¯ģà®¤à¯įà®¤
Ġà®µà¯ĩà®¤ à®®à¯į
2 0
. "
à¯Ĩ à®Łà¯ģà®¤à¯įà®¤à¯ģ
à®ĥ à®ķà¯Ĥ
Ġà®µà¯ĩà®¤ à®¤à¯įà®¤à¯Īà®¯à¯ģà®®à¯į
à¯Īà®¯ à®¿à®©à®¾à®²à¯į
Ġà®ķà¯ĩà®Ł à¯įà®ķà®¿à®±à®¾à®°à¯įà®ķà®³à¯į
Ġà®īà®Ļà¯įà®ķà®³ à¯Īà®¤à¯į
) à®®à¯į
a c
à®µ à®¿à®¤
Ġà®µà¯ĩ à®²
à®¾à®² à®¿à®ķ
Ġà®ħà®±à®¿à®µ à®¿à®ķà¯įà®ķà®ªà¯įà®ªà®Łà¯įà®Ł
Ġà®ķ à®¿à®´
à¯ģà®µ à®¤à¯Īà®¯à¯ģà®®à¯į
Ġà®ªà®¿à®° à®ķ
à¯ģà®ķà¯įà®ķ à®ªà¯įà®ªà®Łà¯įà®Ł
à®¾à®µ à®²à¯į
Ġà®®à¯ģà®Łà®¿à®¯ à¯ģà®®à®¾
Ġà®µà®° à¯ģà®¨à¯įà®¤
à®± à¯Ī
à®¿à®± à®¿à®¸
Ġà®ħà®±à®¿à®µ à®¿à®ķà¯įà®ķ
Ġà®İà®µà¯įà®µ à®³à®µà¯ģ
Ġà®ļà¯Ĩà®µà®¿à®¯à¯ĩ à®±à¯įà®ª
Ġà®ķ à®·à¯įà®Ł
Ġd e
à®¾à®ķà¯įà®ķ à®ªà¯įà®ªà®Łà¯įà®Ł
Ġà®¨à¯Ģ à®£à¯įà®Ł
à®µà¯ĩà®£à¯įà®Ł à®¾à®®à¯į
Ġà®ħ à®Łà¯ģà®¤à¯įà®¤
à¯įà®® à¯Īà®¯à¯Ī
Ġà®ļà¯Ĩà®²à¯įà®² à¯ģà®Ļà¯įà®ķà®³à¯į
Ġà®ĩ à®²à¯į
Ġà®ķà¯Īà®ªà¯įà®ª à®±à¯įà®±
Ġà®İ à®°
à¯Ģ à®©
Ġà®ķà®Ł à¯Ī
à¯Ĩ à®ķ
Ġà®ĩ à®²à¯įà®²à®¾à®®à®²à¯į
à®ªà¯įà®ªà®Ł à®¿à®ļà¯į
à®¤à¯Ģ à®¯
à®¾à®© à®¤à¯ģ
à®® à®²
à®¿à®¯ à¯Īà®ªà¯į
Ġà®¤à¯Ĥ à®£à¯įà®Ł
Ġà®Ĵà®©à¯įà®± à¯Ī
Ġà®ªà®¿à®° à®¾à®£
à®¿à®ķà¯įà®ķ à®¾à®©
à®¤ à®Ł
à¯ģà®µ à¯Ī
à®®à®±à¯įà®± à¯ģà®®à¯į
à®¤à¯įà®¤ à¯Īà®¯à¯ģà®Łà¯Īà®¯
Ġ E
à®ķ à®¿à®¯à®¾à®®
à®ħà®µ à®³à¯į
Ġà®ħà®µà®°à¯įà®ķà®³ à¯ĩ
Ġà®µà¯Ĩà®³à®¿à®¯ à®¾à®ķà¯įà®ķ
Ġà®İ à®²
(à®µ à¯į
Ġà®ªà®¿à®©à¯įà®ª à®±à¯įà®±à®¿
Ġà®ªà¯Ĭà®° à¯ģà®³à¯į
à®ĩà®¤ à®©à¯Ī
à®°à¯ģà®³ à¯įà®µà®¾à®¯à®¾à®ķ
Ġà®ļà¯Ĥà®´ à¯įà®ļà¯įà®ļ
à¯įà®¨à¯įà®¤ à®¤à¯ģ
Ġà®µà¯Ĩà®± à¯ģà®ªà¯įà®ª
Ġà®ħà®Łà®¿à®¯à®¾à®°à¯įà®ķà®³ à®¿à®²à¯į
Ġà®µà®¿à®ļ à®¾à®°
à®¿à®ªà¯įà®ª à®¤à¯ģ
Ġà®ļà¯ģà®® à®¨à¯įà®¤à¯ģ
Ġà®ķà¯ĩà®Łà¯įà®ª à®¾à®°à¯įà®ķà®³à¯į
Ġà®¨à®¿à®©à¯įà®± à¯ģà®®à¯ģà®³à¯įà®³
Ġà®ļà¯Ĩà®¯à¯įà®µ à®¾à®°à¯įà®ķà®³à¯į
Ġà®ķà®°à¯ģà®£ à¯Īà®¯à¯ģà®Łà¯Īà®¯
à®ª à®¾à®¤
Ġtranslat e
Ġà®ªà®¿à®°à®¿à®µ à®¿à®©à®°à¯į
à®®à¯įà®ª à¯ģ
à¯ģà®ªà¯įà®ª à®¿
à®®à®± à¯ģà®®à¯Ī
Ġà®®à¯ģà®©à¯įà®© à¯ĩ
Ġà®ĩà®² à¯ĩà®ļ
Ġà®ħà®±à®¿à®¨à¯įà®¤ à®µà®©à¯į
à¯Īà®¯ à®¾à®ķà¯ģà®®à¯į
! "čĊ
Ġti tle
Ġà®ªà¯Ĥà®° à®£
Ġà®®à®± à¯Ī
Ġà®ļà¯Ĩà®¯à¯įà®µ à®¤à¯ģ
Ġà®ªà®¿à®° à®ļà¯įà®ļ
Ġà®¤à¯Ģà®°à¯įà®ªà¯įà®ª à®³à®¿à®ªà¯įà®ª
Ġà®ī à®±à¯įà®±
Ġà®¨à®©à¯įà®®à®¾à®°à®¾à®¯ à®®à¯į
à®ī à®©à¯įà®©
à¯ģà®® à®¾à®ķà®¿à®¯
h is
à®¿à®¯à¯Ī à®¤à¯į
à®ī à®²
à®İ à®µà®©à¯į
Ġà®İà®± à®¿à®¨à¯įà®¤
Ġà®īà®®à¯įà®® à¯Īà®ªà¯į
Ġà®¨à®Ł à¯įà®ļ
Ġà®ķà¯ģà®® à®¾à®°
à¯Ī à®ļà¯įà®ļ
Ġà®ĩà®Ł à®¤à¯įà®¤à¯Ī
Ġà®ħà®²à¯įà®²à®¾à®¹ à¯įà®¤à®¾à®©à¯į
Ġà®®à®¿à®ķ à®ªà¯į
à®¤ à®²
Ġà®ªà¯Ĩà®± à¯ģà®®à¯į
" à®®à¯ĩà®²à¯ģà®®à¯į
Ġà®ķà¯Ĥà®Łà¯įà®Ł à®¾à®³
i r
Ġà®ķà®¾à®Łà¯įà®ļ à®¿
" à®ħà®©à¯įà®±à®¿à®¯à¯ģà®®à¯į
Ġà®¨à®°à®ķ à®®à¯į
à¯Ĭà®° à¯ģà®³
à¯įà®µ à®°à¯Ī
à®¿à®¯ à®¿à®²à®¿à®°à¯ģà®¨à¯įà®¤à¯ģ
Ġà®¤ à®³à¯įà®³
à®µ à®¾à®¯
à®³ à®®à¯į
à®© à®ķà¯įà®ķ
Ġà®®à®©à¯įà®© à®¿à®¤à¯įà®¤à¯ģ
à¯ģà®ªà¯įà®ª à¯Ĭ
b el
Ġà®¤à®¯ à®µà¯ģ
à®Ļà¯įà®ķ à®¿à®°à¯ģà®¨à¯įà®¤à¯ģ
à®©à¯įà®± à¯Īà®¯
à®ħà®¤ à®©à®¾à®²à¯į
Ġà®ļà¯Ĩà®¯à¯įà®¯ à®¾à®¤à¯Ģà®°à¯įà®ķà®³à¯į
Ġà®īà®£à¯įà®®à¯Īà®¯à®¾à®³ à®°à¯įà®ķà®³à®¾à®ķ
Ġà®ļà¯Ĩà®µ à®¿à®®
à®¾à®¸ à®°à¯ĭ
Ġà®İà®©à®ķà¯įà®ķ à¯ģà®®à¯į
Ġà®¤à®¨à¯įà®¤ à¯Ī
à® Ĭ
Ġà®ķà¯Ĭ à®£à¯įà®Łà¯ģ
à®³ à¯įà®ķ
à¯įà®ļ à®¿
Ġà®® à®¾à®°
à¯Īà®¯à®¾à®ķ à®ķà¯į
o g
Ġà®ļà¯Ĩà®¯à¯įà®¤ à®¤à¯ģ
Ġà®µ à®ķà¯Īà®¯
à¯ģà®ķà®³ à¯Īà®ķà¯į
Ġà®ª à®ļ
Ġà®®à¯ģà®©à¯įà®© à®°à¯ģà®®à¯į
Ġà®ħà®´ à®¿à®¨à¯įà®¤à¯ģ
Ġà®µà®¿à®Łà¯įà®Ł à¯Ģà®°à¯įà®ķà®³à¯į
Ġà®ķà®°à¯ģà®µ à®¿
à®ħà®µà®© à¯įà®¤à®¾à®©à¯į
Ġà®ķà¯Ĭ à®³à¯įà®³
à®µ à®¿à®ļ
Ġà®¨à®®à¯įà®® à®¿à®Łà®®à¯į
Ġà®īà®³à¯įà®³ à®µà¯Īà®¯à¯ģà®®à¯į
Ġà®¤à¯Ĩà®°à®¿à®¯ à¯ģà®®à®¾
à®µ à®£à¯įà®£
Ġà®ĩà®° à®µà¯ģ
à®¤ à®£à¯įà®Ł
Ġà®ķà®£ à¯įà®ķà®¾à®£
Ġà®ªà¯ĩà®° à¯Ģ
Ġà®ļà®¿à®±à®¿à®¤ à¯ģà®®à¯į
Ġà®ĩà®¤ à¯ģà®¤à®¾à®©à¯į
à®¿à®°à¯ģà®ķà¯įà®ķà®¿à®©à¯įà®± à®©
à¯ģà®µ à®©
Ġà®µà®¿à®³à¯Īà®¯ à®¾à®Łà¯įà®Łà¯ģ
à¯ģà®² à®ª
Ġà®®à®¾à®± à®¿
Ġà®ħà®´ à®¿à®¨à¯įà®¤
à®¤à¯įà®¤ à¯Īà®¯à¯ĩ
Ġà®ķà®¾à®² à¯įà®¨à®Ł
Ġà®¨ à®±à¯įà®ļà¯Ĩà®¯
à®¨à¯įà®¤ à®¿à®°
à®¿à®ķà®³ à¯ĩ
Ġà®ħà®±à®¿à®µ à¯ģà®Łà¯Īà®¯
Ġà®ļà®¾à®Łà¯įà®ļ à®¿à®¯
à¯Ģ à®²à¯į
Ġà®®à®¾à®© à®ķà¯įà®ķ
Ġà®¯ à¯Ĥà®¤
Ġà®®à®± à¯Īà®¨à¯įà®¤
Ġà®¤ à¯ģà®¤
Ġà®ħà®©à¯ģà®® à®¤à®¿à®¯
à®¤à¯ĩà®°à¯įà®¨à¯įà®¤ à¯Ĩà®Łà¯ģà®ķà¯įà®ķ
à®°à¯įà®ķà®³ à¯ģà®ķà¯įà®ķà¯ģà®®à¯į
Ġà®®à®¸ à¯įà®ľà®¿à®¤
à¯Ģà®°à¯įà®ķà®³ à¯ĩ
ran ce
à®µ à®¿à®©à¯į
Ġà®Ĩà®¤à®° à®µà¯ģ
à®¤à¯įà®¤ à®¿à®©
Ġà®¤à¯Ĥà®¤ à®°à¯Ī
à®© à¯Īà®ªà¯į
Ġà®¤à®ķ à®µà®²
Ġà®īà®± à®µà®¿à®©
Ġà®ĩà®°à®µ à®¿à®²à¯į
Ġà®Ĩ à®´
Ġà®¨à®¾à®Łà®¿à®¯ à®µà®°à¯įà®ķà®³à¯Ī
Ġà®ªà®°à®¾à®® à¯ģà®ķ
Ġà®µà®´à®¿à®ķà¯ĩ à®Łà¯įà®Ł
à¯įà®ķà¯įà®ķ à¯ģ
Ġà®®à¯ĩà®²à®¾à®© à®µà®©à¯į
à®¿à®¤à¯įà®¤ à®²à¯į
Ġà®ªà¯Ĥà®®à®¿à®¯ à®¿à®©à¯į
à®µà¯Īà®¯ à¯Ĩà®²à¯įà®²à®¾à®®à¯į
à®¯à®µà®ŀà¯įà®ļ à®ķ
à®µ à®¾à®´
Ġà®ķ à¯ģà®ĥà®ªà¯įà®°
à¯Īà®¤à¯įà®¤ à®µà®¿à®°
à®İà®©à¯įà®ª à®¤à¯Ī
Ġà®µà®ļà®© à®Ļà¯įà®ķà®³
à®¾à®³à®° à®¾à®ķ
à¯Ĩà®Ł à¯į
Ġà®¤à®Ł à¯ģà®ªà¯įà®ª
à®¾à® ·
à®® à¯ģà®®à®¿à®²à¯įà®²à¯Ī
Ġà®Ĵà®¤ à¯ģà®Ļà¯įà®ķ
Ġà®ªà®¯à®ªà®ķà¯įà®¤à®¿à®¯ à¯ģà®Łà®©à¯į
Ġà®ĩà®±à¯Īà®µà®© à®¾à®ķà®¿à®¯
Ġà®¤à¯Ģà®°à¯įà®ªà¯įà®ª à¯ģà®ļà¯į
Ġth is
à®ī à®¤à®µ
Ġà®ĥà®ªà®¿à®°à¯įà®ħà®µà¯įà®© à¯į
à¯ģà®µà®¿à®Łà¯įà®Ł à¯ģ
Ġà®¤à¯ģà®µ à®Ļà¯įà®ķ
à®¿à® ·à®¯
Ġà®ļà¯ĩ à®µà¯Īà®¯
Ġà®ħà®° à¯įà®·
à¯ģà®µà®° à¯Ī
ri p
Ġà®¨à®²à¯įà®²à®Łà®¿à®¯ à®¾à®°à¯įà®ķà®³
à®¤ à®Ļà¯įà®ķà®³
à¯Īà®ķà®³ à¯ģà®ķà¯įà®ķà¯ģ
à®ķ à®®à®¾à®ķ
à®² à¯įà®ķà®³
à®¸ à¯įà®¤
Ġà®° à®¸
à®¯ à®¾
à®µà®°à¯įà®ķà®³ à¯ģà®Łà®©à¯į
à®¾à®³ à®°à¯įà®ķà®³à¯į
à¯ĩ à®©
Ġà®ªà¯Ĩ à®Łà¯įà®Ł
à®¿à®°à¯ģà®¨à¯įà®¤ à®¤à¯ģ
à®ī à®°à¯Ī
Ġà®ħà®³ à®¿à®ªà¯įà®ª
Ġà®µà¯ĩà®¤à®©à¯Īà®¯ à¯ģà®£à¯įà®Łà¯ģ
à®° à®¾
Ġà®µà®¿à®³ à¯Īà®µ
" à®¨à®¾à®©à¯į
Ġà®īà®®à¯įà®® à¯Īà®ķà¯į
Ġà®¤à®Ļà¯įà®ķà¯ģà®® à®¿à®Łà®®à¯į
à®ķ à®²à¯į
u e
à®¿à®ķà®³ à¯ģà®ķà¯įà®ķà¯ģ
à¯Īà®¯ à®¿à®²
Ġà®ıà®±à¯įà®ķ à®©à®µà¯ĩ
à®ĩ à®Ļà¯įà®ķà¯ĩ
?" čĊ
Ġà®ķà®µà®© à®¿à®ķà¯įà®ķ
à®¾à®µ à¯ģà®®à¯į
à®ķ à®¿à®Ł
à®ª à¯Ī
à¯ģà®ªà¯įà®ª à®¿à®©à¯į
à®ª à¯įà®¸à®¿à®©à¯į
à®¿à®µ à®¾à®©
Ġà®ķ à®¿à®±à®¿à®¸
à®Ł à®¿à®ķà¯įà®ķà¯Ī
Ġà®ļà®° à®¿à®¯à®¾à®ķ
R L
à®ħà®¤ à®¾à®µà®¤à¯ģ
à®¾à®± à¯įà®ķ
Ġà®ļ à®¿à®©à¯įà®©
Ġà®µà¯ĩ à®³
à¯ģà®ķà®³ à®¾à®ķ
Ġà®ªà®¿à®³ à¯įà®³
Ġà®ªà®¾à®ķà¯įà®ķà®¿à®¯ à®®à¯į
à®° à¯ģà®ķà¯įà®ķà¯ģ
à¯Īà®µ à®¿à®Łà¯įà®Ł
Ġà®ķà¯ģà®³ à®¿à®°
Ġà®¨à®¿à®° à®ªà¯įà®ª
Ġà®µà®¿à®°à¯ģà®®à¯įà®ª à®¿à®©à®¾à®²à¯į
r ic
à¯įà®Ł à®°à¯į
à¯Ĩ à®¤à®¿à®°
Ġà®ļ à®¤
à¯Īà®ķà®³ à®¿à®²à®¿à®°à¯ģà®¨à¯įà®¤à¯ģ
Ġà®ī à®ªà®¯
Ġà®ļà¯ģà®° à¯ģà®ķà¯įà®ķ
Ġà®µà®¾à®ķà¯įà®ķà®³ à®¿à®¤à¯įà®¤
Ġà®¤à¯ģà®©à¯įà®ª à®®à¯į
Ġà®ķ à®¤
Ġ( "
a b
Ġà®ī à®£à¯įà®£
Ġà®ķà¯ģà®° à¯ģà®Ł
Ġà®Ĩ à®©à¯įà®®
r y
Ġà®ļ à¯ģà®²à®ª
à¯ģà®ķà¯įà®ķ à¯Ĭ
à®¿à®¯ à®¿à®°à¯ģà®ķà¯įà®ķ
Ġà®īà®°à¯ģà®µà®¾à®ķà¯įà®ķ à¯ģ
à®ļà¯Ĩ à®²à¯įà®²
Ġà®ļ à®¿à®°
Ġà®ı à®±
à®¤à¯įà®¤à®¿à®±à¯įà®ķ à¯ģà®ªà¯į
Ġà®Ĩà®£ à¯įà®ķà®³à¯ģà®®à¯į
Ġà®ļà®° à®¿à®ª
Ġà®ªà¯ģà®ķ à®Łà¯įà®Ł
it h
Ġà®ħà®µà®© à¯Īà®ªà¯į
à¯ģà®¤à¯įà®¤ à®¾à®©à¯į
à¯ģà®ª à®µà®°à¯įà®ķà®³à¯į
à®¾à®Łà¯įà®Ł à¯Ī
à®°à¯įà®ķà®³ à®¾à®ķà®µà¯ģà®®à¯į
ex t
à®®à®©à¯įà®© à®¿à®ªà¯įà®ª
à®¨ à¯Ĩ
ŀ à¯įà®ļ
à®¾à®¯ à®¾
à®¤à®±à¯įà®ķ à®¾à®ķà®µà¯ĩ
à®ķà¯įà®³ à®ªà¯įà®¸à®¿à®©à¯į
Ġà®ķà¯ĩà®³ à¯ģà®®à¯į
Ġà®¨à¯Ĩà®°à¯ģà®ªà¯įà®ª à®¿à®©à¯į
" à®ħà®²à¯įà®²à®¾à®¹à¯įà®µ
? )čĊ
d i
à®´ à¯Ī
Ġà®ªà¯Ĩà®£ à¯įà®ķà®³à¯ģà®®à¯į
Ġà®®à®¾à®©à®ķà¯įà®ķ à¯ĩà®Ł
Ġà®ĩà®°à¯ģà®ķà¯įà®ķà®¿à®©à¯įà®± à®¾à®°à¯įà®ķà®³à¯į
Ġà®ĩà®¸à¯įà®°à®¾à®¯à¯Ģà®² à®¿à®©à¯į
Ġà®µà¯Ģà®Ł à¯ģà®ķà®³à®¿à®²à¯į
Ġà®ª à®³à¯įà®³
Ġà®¨à®¿à®©à¯Īà®ķà¯įà®ķ à®¿à®±à¯ĩà®©à¯į
? )
à®®à®° à®£
à®ĩà®± à¯ģà®¤à®¿
Ġà®µà®¿à®°à¯ģà®®à¯įà®ª à®µà®¿à®²à¯įà®²à¯Ī
Ġà®ķà®£à¯įà®£à®¿à®¯ à®®à®¾à®©
à®İà®²à¯įà®²à®¾à® µà®±à¯įà®±à¯Īà®¯à¯ģà®®à¯į
Ġà®ħà®¤à®¿à®ķ à®¾à®°à®®à¯į
à®¾à®Łà¯įà®ļ à®¿
Ġ/ /
ang u
Ġà®¤ à®¾à®µ
à¯Īà®¯ à®¿à®Ł
à¯Īà®¯ à®©à¯į
Ġà®Ĩ à®±à¯ģ
g re
Ġà®µà¯Ĩ à®±à¯įà®±à¯ģ
à®¿à®ļà¯įà®ļ à®®à®¯
Ġit em
Ġà®®à¯ģà®¤à¯įà®¤ à®¿à®°
à®ķà¯ģà®°à¯įà®Ĩ à®©à¯Ī
à®¨à®¿à®© à¯Īà®µ
Ġà®®à¯Ĥà®´à¯įà®ķ à®Ł
Ġà®ļ à®¾à®ª
Ġà®īà®³à¯įà®³ à®Ļà¯įà®ķà®³à®¿à®²à¯į
Ġà®ħà®µà®° à¯Īà®ªà¯į
Ġà®¤à¯ĩà®°à¯įà®¨à¯įà®¤à¯Ĩà®Łà¯ģà®ķà¯įà®ķ à®µà¯ģà®®à¯į
c rip
à¯ĩà®Ł à¯į
à®ª à®¾à®°
Ġà®ļ à®¿à®Łà®¿
à®¿à®ª à¯įà®°
Ġà®ĩ à®©à¯įà®ª
wor ld
Ġà®Ĩà®ķ à®¾à®°
Ġà®¤à¯Ģ à®®à¯Ī
à®¿à®ķà¯įà®ķà®¿à®± à¯ĩà®©à¯į
l ic
Ġà®ĩà®´ à®¿à®µà¯ģ
Ġà®®à¯ĩ à®©à¯įà®®à¯Īà®¯
Ġà®İà®£à¯įà®£ à®¿à®ķà¯įà®ķ
Ġà®ħ à®ªà¯įà®ªà®Łà®¿
à®¿à®©à¯įà®± à®¾à®©à¯į
Ġà®µà¯Ģà®£ à®¾à®©
à®®à¯Ĥ à®²
à¯įà® ī
à®¿à®¤ à®®à¯į
Ġà®Ĩ à®±à¯įà®±
Ġà®īà®£à¯įà®Ł à®¾à®ķà¯įà®ķà®¿
b er
à®¿à®ªà¯įà®ª à®¾à®ķ
Ġà®¨à®²à¯įà®² à¯ģà®£à®°
Ġà®ĩà®ªà¯įà®°à®¾à®¹à¯Ģ à®®à¯į
à®®à¯ģà®©à¯įà®© à®¿à®°à¯ģà®ªà¯įà®ªà¯ģ
Ġà®īà®£à¯įà®Ł à®¾
Ġà®¤à®µ à¯įà®°
Ġà®¨à®¿à®± à®®à¯į
Ġà®ªà®°à®¿à®ļà¯ģà®¤à¯įà®¤ à®®à®¾à®©
Ġà®® à®¾à®³à®¿à®ķ
Ġà®ħà®µà®°à¯įà®ķà®³ à¯ģà®ķà¯įà®ķà¯ģà®ļà¯į
e w
Ġà®ķà¯ĭà®ªà¯įà®ª à¯Ī
Ġà®µà®¾à®© à®Ļà¯įà®ķà®³à¯į
Ġà®®à¯ģà®±à¯įà®ª à®Łà¯ģà®¤à¯įà®¤
à®¾à®£ à®¿
à®ħ à®µà¯Ī
Ġà®µà®¿à®Łà¯įà®Ł à®¾à®°à¯į
Ġà®ķà¯ģà®´à®¨à¯įà®¤ à¯Ī
Ġ e
Ġà®µà¯Ģ à®Łà¯ģ
à¯ģà®¤à®¿à®¯ à®¾à®ķ
Ġà®īà®Ł à¯įà®ķà®¾à®°
r it
Ġà®ªà¯Ĩà®£ à¯įà®ķà®³à¯Ī
Ġà®ĩà®Łà¯įà®Ł à¯ģà®ķà¯į
Ġà®¨ à®®à®¤à¯ģ
Ġà®ħà®± à¯įà®ª
Ġà®ŀà®¾à®© à®¤à¯įà®¤à¯Īà®¯à¯ģà®®à¯į
à®ļ à¯Ģ
Ġà®ıà®±à¯įà®ª à®Łà¯ģà®®à¯į
Ġà®µà¯Ĩà®± à¯ģà®®à¯į
à®¿à®°à¯ģà®ªà¯įà®ª à®¿à®©à¯į
Ġà®īà®ªà®¯ à¯ĭà®ķ
à¯Ĩà®¯ à¯įà®¤à¯ģ
Ġà®İà®Ļà¯įà®ķà®³ à¯ģà®ķà¯įà®ķà®¾à®ķ
Ġà®İà®´à¯ģà®¤ à¯ģà®¤à®²à¯į
Ġà®ķà®Łà¯įà®Łà®³ à¯Īà®¯à¯Ī
à®ª à®ķà¯įà®ķ
Ġ' %
5 0
Ġà®Ĩ à®ļ
Ġà®ħà®²à¯įà®²à®¾à®¹à¯įà®µ à®¿à®Łà®¤à¯įà®¤à®¿à®²à¯į
Ġà®ķà¯ģà®± à¯Īà®µ
à®İ à®²à¯įà®²à®¾à®®à¯į
à¯ģà®µ à®©à¯į
à¯įà®® à¯Īà®¯à®¿à®²à¯į
Ġà®µà®¿à®°à¯ģà®®à¯įà®ª à¯ģà®®à¯į
à®¤à¯įà®¤ à®¿
Ġà®ħà®¤à®±à¯įà®ķ à¯ģà®°à®¿à®¯
à®ķà®Ł à®µ
Ġà®µà®¿à®¤ à®®à®¾à®©
à®ķà¯Ĥ à®Łà¯įà®Ł
Ġà®ļà¯Ĩà®¯ à®²à¯Ī
à®¿à®¤à¯įà®¤ à®¿à®¯
Ġà®ļà¯Ĩà®² à¯įà®ª
Ġà®®à¯Ĥ à®©à¯įà®±
Ġà®ķ à®³à¯Ī
Ġà®µà®¨à¯įà®¤ à¯ģà®³à¯įà®³
Ġà®ħ à®ª
b o
à®¤à®±à¯įà®ķ à®¾à®©
Ġà®ª à®³
à¯ģà®ķà®³ à®¿à®²à®¿à®°à¯ģà®¨à¯įà®¤à¯ģ
es t
Ġà®¤à®¿à®© à®®à¯į
angu age
à®µ à¯ģà®®
à®© à®¿à®²à¯į
Ġà®µà®¿à®Ł à®µà¯ģà®®à¯į
Ġà®®à®¾à®±à¯įà®± à¯ģà®ķ
Ġà®¤à®¿à®°à¯ģà® ®
Ġà®īà®³à¯įà®³ à®Łà®ķà¯įà®ķ
Ġla bel
Ġà®ªà®´ à¯Īà®¯
à®ķ à®Łà¯Ī
Ġà®İà®©à¯įà®© à¯Īà®ªà¯į
Ġà®µà®¿à®²à®ķ à®¿
à®¨à®Ł à®ªà¯įà®ªà¯ģ
a il
à¯ģà®µ à®¾à®©
ou t
c t
Ġà®¤à¯Ģà®° à¯įà®®à®¾à®©
Ġà®ļ à®¿à®¤
à®ī à®©à®ķà¯įà®ķà¯ģ
Ġà®ħà®¤à¯įà®¤à®¾à®Łà¯įà®ļà®¿à®ķà®³ à¯Īà®ķà¯į
Ġac tion
6 0
Ġà®® à®¹
Ġà®¨à®¿à®ļà¯įà®ļà®¯à®®à®¾à®ķ à®ķà¯į
Ġà®ĩà®£ à¯Īà®ªà¯įà®ª
Ġà®ĵà®Ł à®¿à®ķà¯į
à®¿à®ķà¯įà®ķ à®ªà¯įà®ªà®Łà¯ģà®®à¯į
Ġà®ķà¯Ĥà®² à®¿à®¯à®¾à®ķ
à®¾à®ķà¯įà®ķ à®¿à®©à®¾à®©à¯į
Ġà®®à®¾à®©à®ķà¯įà®ķà¯ĩà®Ł à®¾à®©
Ġà®ļà®¿à®¤à¯įà®¤ à®®à¯į
Ġà®ħà®®à¯Īà®ªà¯įà®ª à¯ģà®ķà®³à¯į
Ġ =
Ġà®µà®¿à®·à®¯ à®®à¯į
Ġà®ħà®©à¯Ī à®µà®°à¯Īà®¯à¯ģà®®à¯į
à®¤ à®Ļà¯įà®ķà®³à¯į
à®¤à¯Ī à®ļà¯į
à®¿à®°à¯ģà®ķà¯įà®ķà®¿à®± à¯ĩà®©à¯į
" à®İà®©à¯įà®©à¯ģà®Łà¯Īà®¯
Ġà®ķà¯Ĥ à®±à¯įà®±
Ġà®İà®´à¯ģà®¤ à®ķà¯įà®ķà¯Ĥà®Łà®¿à®¯
à®® à¯Ĭ
Ġà®īà®©à¯įà®© à¯ģà®Łà¯Īà®¯
Ġà®®à®±à¯ģà®®à¯Īà®¯ à®¿à®©à¯į
Ġà®ķà¯ģà®±à¯įà®± à®®à®¿à®²à¯įà®²à¯Ī
à®® à¯Ĩà®¯à¯įà®¯
Ġà®ĩ à®µà®°
Ġà®īà®®à¯įà®® à¯Īà®¤à¯į
Ġà®µà®¿à®³ à®Ļà¯įà®ķà®¿à®ķà¯į
Ġà®ļà®®à¯Ĥà®ķà®¤à¯įà®¤ à®¾à®°à¯į
Ġà®¨à®Łà¯įà®ļ à®¤à¯įà®¤à®¿à®°
Ġà®®à¯ģà®© à®¾à®ĥà®ª
Ġà®µà®¿à®ļ à¯Ī
Ġà®īà®£à¯įà®® à¯Īà®¯à®¿à®²à¯į
à®ħà®© à¯Īà®¤à¯įà®¤
à®īà®®à¯įà®® à¯Ī
Ġà®ªà®¿à®© à¯įà®¤
Ġà®¨à®¿à®± à¯įà®ª
à®ª à®£
à®Ļà¯įà®ķà®³à¯Ī à®¤à¯į
Ġà®ħà®©à¯Īà®¤à¯įà®¤ à¯ģà®®à¯į
à®¾à®¤ à®¾
à®¿à®°à¯ģà® ³
Ġà®¯ à®ĥà®ķà¯Ĥ
Ġà®¤à¯ĩà®Ł à®¿à®ķà¯į
Ġà®ķà®¾à®¤à¯įà®¤ à¯ģà®ķà¯į
Ġà®ª à®¾à®Ł
Ġà®® à¯Ĩà®¯
à®ķ à¯ģà®±à¯įà®±
Ġà®¤à®¿à®°à¯ģà®ª à¯įà®¤à®¿à®¯
Ġà®ļà¯Ĩà®¯à¯įà®ª à®µà®°à¯įà®ķà®³à¯į
Ġà®ĩà®°à¯ģà®¨à¯įà®¤ à¯Ģà®°à¯įà®ķà®³à¯į
Ġà®¤à¯ĩ à®Łà®¿
Ġà®ļà¯Ĩà®¯à¯įà®¯ à®¾à®¤
à®²à¯įà®² à®°à¯į
Ġà®µà®¾à®ķà¯įà®ķà¯ģà®± à¯ģà®¤à®¿à®¯à¯Ī
à®¤à¯įà®¤ à¯ģà®ķà¯įà®ķà¯ģ
)à®ķ à®³à¯Ī
Ġà®µà®Łà®¿à®ķ à®Łà¯įà®Łà®¿
à®ļà¯įà®ļ à¯Ī
Ġà®Ĩà®ķà¯įà®ķ à®¿à®¯
Ġà®ļà®®à¯Ĥà®ķà®¤à¯įà®¤à®¾à®° à¯ģà®ķà¯įà®ķà¯ģ
Ġà®ļà®®à®¾à®¤ à®¾à®©
Ġà®®à®° à®¿à®¤à¯įà®¤
Ġà®ĩà®¤à®¯ à®Ļà¯įà®ķà®³à®¿à®²à¯į
à¯įà®ª à®¾à®²à¯į
Ġà®¤à¯Ĥà®¤ à®°à¯įà®ķà®³à¯Ī
Ġà®ªà®°à®¿à®ķ à®ļ
à¯ģà®ª à®µà®°à¯įà®ķà®³à®¾à®ķ
à®ĩà®¤ à¯ģà®µà¯ĩ
R O
Ġà®ªà®¿à®®à¯įà®ª à®¤à¯įà®¤à¯Ī
Ġà®İ à®µà®°à¯įà®ķà®³à¯Ī
à¯Ĩ à®£
Ġà®¨à®²à¯įà®²à¯ģà®£à®° à¯įà®µà¯ģ
à®¤à®µà®± à®¾à®©
à®¾à®© à¯įà®ķ
Ġà®īà®£à¯įà®® à¯Īà®¯à¯Ī
à®¾à®ķà¯įà®ķ à®¿à®©à¯ĭà®®à¯į
Ġà®µà®¿à®´ à¯ģà®Ļà¯įà®ķ
Ġà®ķ à¯ģà®µ
Ġà®¨à¯Ģ à®¤
à®µ à¯į
à¯įà®ķ à¯Ĥà®±à¯ģ
Ġà®¯ à¯Ĥ
Ġà®®à®± à¯ģà®®à¯Īà®¯à¯Ī
Ġà®ªà¯Īà®¤à¯įà®¤ à®¿à®¯
Ġà®ķà®Ł à®¨à¯įà®¤à¯ģ
à®¨à¯ĩà®° à¯įà®µà®´
à®¿à®ķ à®¿à®±
Ġà®ķà¯ĩà®Łà¯įà®ª à®¾à®©à¯į
Ġà®ķà¯ģà®± à®¿à®¤à¯įà®¤
R AN
Ġà®ķ à®¾à®¯
Ġà®ªà¯Ĩà®±à¯įà®± à¯ģ
Ġà®ħà®°à¯įà®°à®¹à¯įà®® à®¾à®©
Ġà®ıà®±à¯įà®± à¯ģ
Ġà®ļà¯Ĩà®¯à¯įà®µ à®¤
à®²à¯įà®² à®µà®¾
Ġà®°à®¹à¯įà®® à®¤à¯įà®¤à¯Ī
à¯ĩ à®²à¯į
Ġà®ªà¯ģà®ķà®´ à¯į
Ġà®ĩ à®µà®±à¯įà®±à¯Ī
à®¾à®ķà¯įà®ķ à®®à¯į
Ġà®¨à®¿à®° à®¨à¯įà®¤à®°
Ġà®®à¯ģà®ķà®µà®° à®¿
à®¿à®² à¯Ĩà®²à¯įà®²à®¾à®®à¯į
Ġà®ķ à¯Īà®¯
in t
à¯ģà®ķà®¿à®± à®¾à®°à¯į
Ġà®¤à®¯ à®¾à®°
à¯įà®ķà®³ à®¿à®²à¯ģà®®à¯į
à®©à¯įà®® à®¾à®°à¯įà®ķà¯įà®ķ
Ġà®Ĭ à®¤
Ġa re
à¯ĭ à®©à®¿
à®ļ à®¾à®°
à®¤à¯įà®¤ à®°
Ġà®ļ à®¿à®ķà¯įà®ķ
Ġà®¨à¯ģà®´ à¯Īà®µ
à®ķà¯Ĥ à®±
à®ķà¯ģà®±à®¿à®ªà¯įà®ª à®¿à®Łà¯įà®Ł
il l
à®¨ à¯Ĩà®°
à®®à®¾à®ķ à®ªà¯į
à®¿à®²à¯įà®² à®¾
à®ļà¯įà®ļ à¯ģ
Ġà®¯ à¯Ī
à®®à¯Ģ à®£à¯įà®Łà¯ģà®®à¯į
à¯ģà®µ à®¾à®°à¯į
à¯ģà®° à¯Ī
à®¿à®² à¯Īà®¯à®¿à®²à¯į
E R
Ġà®ļà¯Ĩà®¯à¯įà®¯ à®²à®¾à®®à¯į
à¯ģà®® à¯ģà®±à¯Ī
à®ħà®µà®° à¯ģà®Łà¯Īà®¯
Ġà®ļà¯Ĩ à®µà¯įà®µ
à®¨à®¿à®© à¯Īà®µà¯ģ
à®¿à®¤à¯įà®¤ à®¿à®°
à®¤à¯ĩà®° à¯įà®µà¯ģ
Ġà®Ĩ à®©
Ġà®µà®¿à®Ł à¯ģ
Ġà®µ à®¾à®¤
Ġà®ļà¯Ĩà®¯à¯įà®¯ à®µà®¿à®²à¯įà®²à¯Ī
à®¿à®ķà¯įà®ķà®ªà¯įà®ªà®Łà¯įà®Ł à¯ģ
Ġà®µà®¿à®´ à¯ģà®¨à¯įà®¤à¯ģ
Ġà®ĩà®Ł à¯Ī
Ġà®µà®¿à®° à®¿à®µ
Ġà®ķà®¿à®±à®¿à®¸ à¯įà®¤
à¯ģà®® à®¾à®±
Ġà®ĩà®¤à®¯ à®Ļà¯įà®ķà®³à¯į
à®µ à®Łà¯įà®Łà¯ģ
à®¤ à®±à¯įà®ªà¯ĭà®¤à¯Īà®¯
Ġà®ĩà®°à¯ģà®¨à¯įà®¤ à®©
Ġà®ħà®³ à®µà¯Ī
Ġà®īà®£à¯įà®Ł à®¾à®µà®¤à®¾à®ķ
Ġà®®à¯ģà® °
à®¿à®ªà¯įà®ª à®¾à®°à¯įà®ķà®³à¯į
à¯Ĩà®¯ à®°à¯į
Ġà®İà®©à¯įà®© à¯ģà®Łà®©à¯į
Ġà®®à¯ģà®¤ à¯ģà®ķ
à®¤ à¯Ĩà®°à®¿à®¯
à®ķà¯įà®ķ à®¿à®¯
à¯Ĩà®© à®ķà¯į
Ġà®¤à®Ļà¯įà®ķà¯ģà®® à®¿à®Ł
Ġà®ļà®¿à®± à¯ģ
Ġà®ļà¯Ĭ à®²à¯įà®²
Ġà®ªà®Łà¯įà®Łà®¿à®¯ à®²
Ġà®ķ à¯Ĭà®Łà¯ģà®ķà¯įà®ķ
h er
Ġà®ĩà®°à¯ģà®¨à¯įà®¤ à®¾à®²à¯ģà®®à¯į
Ġà®ķà®Ł à®²
Ġà®ª à®£à®®à¯į
IN G
à®° à¯įà®ª
Ġà®ħà®µà®±à¯įà®± à¯Īà®ªà¯į
Ġà®®à¯ģà®±à¯Ī à®ªà¯įà®ªà®Łà®¿
à¯įà®ķà®³ à¯ģà®ķà¯įà®ķà¯ģà®®à¯į
Ġà®ķà¯ģà®± à®¿
Ġà®¤ à®¿à®ķ
Ġà®ªà®¾à®¤ à¯Ī
Ġà®ĩà®¸ à¯įà®¹
Ġà®¤à¯Ģà®Ļà¯įà®ķ à¯ģà®®à¯į
Ġà®®à®¿à®ķ à®¤à¯į
à®Ļà¯įà®ķà®³ à®¾à®ķ
Ġà®Ĵà®°à¯ģà®µ à®©
Ġà®İà®¤à®¿à®°à¯įà®ª à®¾à®°à¯įà®¤à¯įà®¤
Ġà®ķà¯Ĥà®±à®¿à®¯ à®¤à¯Ī
Ġà®ĩà®µà¯įà®µ à®¿à®°à®£à¯įà®Ł
Ġà®ķà®Łà¯įà®Łà®³à¯Īà®¯ à®¿à®Ł
à®° à¯įà®¤à¯įà®¤
Ġà®ĩà®°à®µ à®¿à®©à¯į
à¯Īà®ķà¯įà®ķ à®¾à®©
( à®ĩà®µà¯įà®µà®¾à®±à¯ģ
à¯Ĩ à®²à¯į
Ġà®ħà®µà®© à®¤à¯ģ
Ġà®¨à®®à¯įà®ª à®¿
Ġà®¤à®¿à®° à¯ģ
Ġà®ĩà®ªà¯įà®ª à¯Ĥà®®
ti es
Ġà®®à¯Ĥà®¸à®¾à®µ à¯ģà®ķà¯įà®ķà¯ģ
Ġà®ĩà®¤ à¯Īà®ķà¯į
Ġà®ħà®°à¯ģà®³ à®¿à®¯
à®µà®¾à®© à®Ļà¯įà®ķà®³à¯Īà®¯à¯ģà®®à¯į
à®®à®¾à®ķà¯įà®ķ à®¿à®ķà¯į
Ġà®īà®®à¯įà®® à¯ģà®Łà®©à¯į
Ġà®ħà®¤à¯įà®¤à®¾à®Łà¯įà®ļà®¿à®ķà®³ à®¿à®²à¯į
Ġà®ª à®¤à®µ
Ġà®ħà®±à®¿à®¨à¯įà®¤ à®µà®©à®¾à®ķ
Ġà®īà®Ļà¯įà®ķà®³ à®¿à®Łà¯Īà®¯à¯ĩ
Ġà®¤à®¿à®°à¯ģà®ªà¯įà®ª à®¿à®ķà¯į
à®¤à¯įà®¤ à®¿à®²à®¿à®°à¯ģà®¨à¯įà®¤à¯ģà®®à¯į
Ġà®īà®ªà®¤à¯ĩà®ļ à®®à¯į
er ver
Ġà®µà¯Ģ à®£à¯į
Ġà®Ĵà®°à¯ģà®µ à®©à®¾à®ķ
Ġà®¤à®¿à®Łà¯įà®Ł à®¤à¯įà®¤à¯Ī
à®¨à®®à¯įà®® à¯ģà®Łà¯Īà®¯
Ġà®ªà®Ł à®¿à®ķà¯įà®ķ
Ġà®ªà®°à®¾à®®à¯ģà®ķ à®®à®¾à®ķ
Ġà®µ à®¿à®ª
Ġà®ªà®° à®¿à®¨à¯įà®¤à¯ģ
Ġà®īà®Ļà¯įà®ķà®³à¯Ī à®ļà¯į
à®¿à®ªà¯įà®ª à®¤à®±à¯įà®ķà®¾à®ķ
à®İ à®©à¯įà®©à¯ģà®®à¯į
Ġà®¤à¯Ĩà®° à®¿à®¨à¯įà®¤
à®ĩ à®µà®°à¯į
à®İ à®ªà¯įà®ª
Ġà®ķà¯Ĩà®Łà¯įà®Ł à®¤à¯ģ
à®® à®¾à®°à¯įà®ķà¯įà®ķ
Ġà®¤à®Ļà¯įà®ķ à®¿à®¯à®¿à®°à¯ģà®ªà¯įà®ª
à®¿à®ļà¯įà®ļà®®à®¯ à®¾à®ķ
a p
Ġà®µà®¨à¯įà®¤ à®¾à®²à¯į
Ġà®ħà®±à®¿à®ª à®µà®©à®¾à®ķà®µà¯ģà®®à¯į
s ia
Ġà®Ĳ à®¨à¯įà®¤à¯ģ
Ġà®¤à¯ģà®ķà¯įà®ķ à®ªà¯įà®ªà®Ł
Ġà®ĩà®£ à¯Īà®¯à®¾à®ķà¯įà®ķ
Ġà®¤à®© à®ķà¯įà®ķà¯ģ
Ġà®ı à®°à®¿
à®®à¯Ĩà®¯à¯įà®¯ à®¾à®ķà®µà¯ĩ
à®ķ à®¾à®ĥà®ªà®¿à®°
à®ħà®²à¯įà®²à®¾à®¹à¯įà®µ à¯Ī
Ġà®Īà®®à®¾à®© à¯Ī
Ġà®ħà®ŀà¯įà®ļ à®¿à®ķà¯į
Ġà®®à®ķà®¿à®´ à¯įà®µ
Ġà®® à®¾à®Łà¯ģ
Ġà®¨à®¿à®° à®²à¯į
à®ļ à®¾à®²
à®ħà®²à¯įà®²à®¾à®¹à¯įà®µ à®¿à®Łà®®à¯į
Ġà®ĩà®© à®¿
à¯Ĩ à®±
à®ļ à¯ģà®´
Ġà®¨à¯Ģà®Ļà¯įà®ķà®³ à¯ĩ
) à®µà®©à¯į
à®©à¯įà®ª à®¤à¯ģ
M AN
Ġà®®à¯ģà®© à¯įà®ªà¯ģ
à®ª à®´
Ġà®ªà®¯à®ªà®ķà¯įà®¤à®¿à®¯à¯ģà®Łà¯Īà®¯ à®µà®°à¯įà®ķà®³à¯ģà®ķà¯įà®ķà¯ģ
Ġà®İà®©à®ķà¯įà®ķ à¯ģà®ķà¯į
tt p
Ġ !čĊ
Ġà®ħà®´ à¯Īà®ķà¯įà®ķà¯ģà®®à¯į
Ġà®ªà®± à®µ
Ġà®ĩà®°à¯ģà®ªà¯įà®ª à®¤à¯ģ
Ġà®İà®¤à®¿à®° à¯į
Ġà®ļà®ķ à¯įà®¤
Ġà®İà®² à¯ģà®®à¯įà®ª
Ġà®ªà¯ģà®ļ à®¿à®¯à¯ģà®Ļà¯įà®ķà®³à¯į
in e
Ġà®ķà®£ à®ķà¯įà®ķà¯ģ
Ġà®¤à®° à®µà¯ģ
Ġà®ĩà®Łà¯Īà®µà¯Ĩà®³ à®¿
Ġà®µà®¿à®Łà¯įà®Ł à®©à®°à¯į
Ġà®¨à¯Ĩà®°à¯ģà®ªà¯įà®ª à®¿à®²à¯į
Ġà®ªà®¿à®©à¯įà®ªà®±à¯įà®± à¯ģà®Ļà¯įà®ķà®³à¯į
Ġà®µà®¾à®ķà¯įà®ķà¯ģà®± à¯ģà®¤à®¿à®¯
Ġà®ķà¯ĩà®Łà¯įà®ķ à¯ģà®®à¯į
Ġà®ļà®¾à®³à®° à®®à¯į
à®ĩà®£ à¯Ī
à®¤à¯ĩà®°à¯įà®¨à¯įà®¤à¯Ĩà®Łà¯ģà®ķà¯įà®ķ à®ªà¯įà®ªà®Łà¯įà®Ł
( à®¤à¯įà®¤
Ġà®® à¯ģà®ķà¯įà®ķà®¿à®¯
Ġà®¨à®¿à®± à¯Īà®¯
Ġà®ªà®£ à®¿
à®¨ à®©à¯įà®®à¯Ī
à®¿à®ķà®° à®®à®¾à®ķ
Ġà®ħà®©à¯Ī à®µà®°
Ġà®¤ à®¿à®ļ
Ġà®ªà®£ à¯įà®ª
" à®Ĩà®ķà®µà¯ĩ
Ġà®ħà®´ à®¿à®ķà¯įà®ķ
Ġà®ķà®Łà®µ à¯ģà®ļà¯įà®ļà¯Ĭ
Ġà®ªà®¾à®ķ à®®à¯į
à¯ģà®Ł à¯į
à¯Ĩà®° à¯ģà®®à¯į
Ġà®¤à®Ļà¯įà®ķ à®¿
Ġà®ĩ à®©à¯įà®©
Ġà®ļ à®¿à®°à®®
Ġà®īà®³à¯įà®³à®¿à®Ł à®µà¯ģà®®à¯į
à®® à¯ģà®¤à®²
à¯įà®¸ à¯ĭà®©à®¿
Ġà®µà®¿à®¤ à®¿à®¤à¯įà®¤
1 9
à®¤à®¾à®© à®¿à®¯
à¯įà®¯ à¯Ĥ
Ġà®ķà®° à¯įà®ªà¯įà®ª
Ġà®ķà¯Ĩà®Łà¯įà®Ł à®¤à®¾à®ķà¯ģà®®à¯į
à®¯ à®¤à¯įà®¤à®¿à®²à¯į
à®µ à®¿à®Łà¯įà®Ł
Ġà®µ à®¿à®¯
Ġà®ļà®ķ à¯įà®¸à¯ĭà®©à®¿
à®® à¯ģà®¤
T S
Ġà®¤à®° à®µ
Ġà®ķ à¯ģà®¤
Ġà®ª à®¨à¯įà®¤
à®¤à¯įà®¤ à®¿à®²
à¯įà®ķà®¿à®©à¯įà®± à®©à®°à¯į
à®µ à®Łà¯įà®Ł
Ġà®® à¯Ĭà®´
Ġà®ħà®©à¯Īà®¤à¯įà®¤ à¯Īà®¯à¯ģà®®à¯į
Ġà®Ĵà®°à¯ģà®µà®° à¯Ī
Ġà®ķà¯Ģà®´à¯įà®ª à®Ł
à¯ģà® ¸
l l
Ġà®ħà®¨ à®¾à®¤
Ġà®ªà®¿à®° à®¿à®¨à¯įà®¤à¯ģ
Ġà®®à¯ģà®©à¯įà®© à®¿à®°à¯ģà®ªà¯įà®ªà¯ģ
0 2
Ġà®¤ à®¾à®Ļ
à®¤ à®¾à®ķà®µà¯ĩ
Ġà®µà®Łà®¿à®µ à®®à¯Īà®ªà¯įà®ªà¯ģ
Ġà®¤ à¯ģà®±
Ġà®ı à®¤à¯ģà®®à¯į
Ġà®İà®¤ à®©à¯Īà®¯à¯ģà®®à¯į
Ġà®¤à®ķ à¯ģà®¤à®¿à®¯
Ġà®ļ à¯Ĭà®Łà¯ģà®ķà¯įà®ķ
à®ªà¯įà®ªà¯Ĩ à®±à¯įà®±
à®Ĩ à®£
Ġà®®à®¾à®± à¯ģà®ª
à¯ģà® Ĳ
Ġà®İà®´ à¯ģà®¤à¯ģ
à¯Ģ à®Łà¯įà®Łà¯ģ
Ġà®ª à¯Īà®¯à®©à¯į
à®®à¯ģà®± à¯Ī
Ġà®ĩà®°à¯ģà®ªà¯įà®ª à®¾à®°à¯į
Ġà®¨à®¿à®²à¯Ī à®¨à®¿à®±à¯ģà®¤à¯įà®¤
Ġà®µ à®¿à®°à¯ģà®¨à¯įà®¤
Ġà®®à®± à®ķà¯įà®ķ
Ġà®ĩ à®¨à¯įà®¨
à®® à®¾à®ķà¯įà®ķà®¿
à®īà®° à¯ģà®µ
à®īà®¤à®µ à®¿
Ġà®®à®¿à®ķ à®ªà¯įà®ª
à®¿à®µà®¿à®Łà¯įà®Ł à®¤à¯ģ
à®ķà¯įà®ķ à¯ģà®±
à®ªà®¿à®° à®¾à®°à¯įà®¤à¯įà®¤
Ġà®ļà¯Ĩà®µ à®¿à®Ł
Ġà®®à®¾à®¤ à®¿à®°à®¿
à®¿à®ķà¯įà®ķà®ªà¯įà®ªà®Łà¯įà®Ł à®¤à¯ģ
Ġà®¨à¯Ģà®ķà¯įà®ķ à®µà¯ģà®®à¯į
à¯Ģ à®®
Ġà®¤ à®Łà¯Ī
à¯ģà®® à¯ģà®©à¯į
à®¨ à®ª
)à®¤ à®¿à®©à¯į
Ġà®ıà®±à¯įà®ªà®Łà¯įà®Ł à®¾à®²à¯į
t on
Ġà®ħà®¤à®¿à®ķ à®°
o d
à®° à®¾à®³
Ġà®Ĩà®£ à®µ
à®ħ à®®à®°
Ġà®ļà¯Ĩà®¯à®²à¯įà®ª à®Łà¯ģà®¤à¯įà®¤à¯ģ
à®¿à®¯ à®°à¯į
Ġà®ļà¯ĩ à®ķà®°
à®µ à¯ģà®®à¯ĩ
Ġà®ħà®°à¯ģà®³ à®ªà¯įà®ªà®Łà¯įà®Ł
Ġà®®à®©à¯Īà®µ à®¿
Ġà®µà®°à®² à®¾à®±à¯įà®±
Ġà®Ĩà®¤à¯įà®®à®¾à®µ à¯ģà®®à¯į
à®¾à®° à®¤à¯įà®¤à¯Ī
à®® à¯Īà®ªà¯įà®ª
Ġà®īà®Ļà¯įà®ķà®³ à¯ģà®ķà¯įà®ķà¯ģà®®à¯į
Ġà®¨ à®¿à®±à¯įà®ķ
Ġà®ħà®±à®¿à®µ à¯ģ
Ġà®ĩà®°à¯ģà®¤à®¯ à®Ļà¯įà®ķà®³à®¿à®²à¯į
à®īà®®à¯įà®® à¯ģà®Łà¯Īà®¯
Ġà®µà¯Īà®¤à¯įà®¤ à®¿à®°à¯ģà®ªà¯įà®ª
Ġà®¤à¯ģà®£ à¯Ī
à¯Ģà®° à®¾à®¯à®¿à®©à¯į
à®µà®°à¯įà®ķà®³ à¯ģà®Łà¯Īà®¯
à®¯à®¾à®µ à¯ģà®®à¯į
Ġà®®à®¾à®°à¯įà®ķà¯įà®ķ à®¤à¯įà®¤à¯Ī
Ġà®ıà®±à¯įà®ªà®Łà¯ģà®¤à¯įà®¤ à®¿à®ķà¯į
s h
Ġà®µà®´à®¿à®ªà®Ł à¯ģà®Ļà¯įà®ķà®³à¯į
K DE
Ġà®ŀà®¾à®©à®®à¯ģà®Łà¯Īà®¯ à®µà®©à®¾à®ķà®µà¯ģà®®à¯į
Ġà®ļà®® à®®
Ġà®¨à®©à¯įà®® à¯Īà®¯à¯Ī
à®ķ à®©
Ġà®ħà®µà®° à¯Īà®¯à¯ģà®®à¯į
à¯Īà®ķà®³ à®¿à®²à¯ģà®®à¯į
Ġà®ªà¯Ĭà®° à¯ģà®¤à¯įà®¤
à®¤ à¯Ĥ
Ġà®®à®©à¯įà®©à®¿à®ªà¯įà®ª à¯ģà®®à¯į
b ia
à®¿à®¯ à®¾à®²à¯į
à®ķà¯Ĥ à®Ł
Ġà®ħà®ķ à®²à®®à¯į
à®¿à®°à¯ģà®³ à¯įà®³
à®ª à®¿à®³
Ġà®®à®± à¯ģà®ª
Ġà®Ĩ à®ļà¯Ī
à®µà¯ĩà®¤ à®©
à®¿à®¸à¯įà®ķ à¯Ĭ
( à®®à¯į
à®¿à®ķà®³ à®¾à®©
à®ĩ à®µà¯įà®µà®¾à®±
à®¿à®Łà®® à®¿à®°à¯ģà®¨à¯įà®¤à¯ģà®®à¯į
Ġà®ħà®¨à®¿à®¯à®¾à®¯à®ķà¯įà®ķà®¾à®° à®°à¯įà®ķà®³à¯į
à®Ł à®¿à®µà®¿à®Ł
à®ļ à®¾à®¯
à®µà®¾à®© à®Ļà¯įà®ķà®³à®¿à®²à¯ģà®®à¯į
Ġà®ªà¯Ĩà®° à¯ģà®®
à®ªà¯Ĩ à®±à¯įà®±
Ġà®ĩà®°à¯ģà®¨à¯įà®¤ à®¾à®©à¯į
Ġà®ķà®¾à®£ à¯ģà®®à¯į
à®µà®° à®¿
Ġà®¨à®®à¯įà®® à®¿à®Łà®®à¯ĩ
Ġà®ªà®¿à®©à¯įà®© à¯ģà®®à¯į
st ar
Ġà®¤à®© à®ķà¯įà®ķ
Ġà®İà®²à¯įà®²à®¾à® µ
Ġà®µà®¾à®¯ à®¿à®²
à®ĩà®µà¯įà®µà¯ģà®²à®ķ à®¿à®²à¯į
Ġà®µà®° à¯ģà®µà®¾à®°à¯įà®ķà®³à¯į
Ġà®¨à®° à®ķà®¤à¯įà®¤
Ġtranslat ed
à¯Ĩà®°à®¿à®ķà¯įà®ķ à®¾
Ġà®ª à®£à¯įà®£
Ġà®ķà®¾à®£ à®®à®¾à®Łà¯įà®Łà¯Ģà®°à¯į
à®®à®° à¯įà®¯
à®¿à®¤à¯įà®¤ à®¾à®²à¯į
à®¿à® Ļ
Ġà®Ĵ à®¤à¯įà®¤
à¯ģà®ķà®³ à¯Īà®ªà¯į
on g
à¯Ī à®®à®Łà¯įà®Ł
à®® à®¿à®Ł
à®· à¯Īà®¤à¯įà®¤
Ġà®ļà¯ģà®µà®°à¯įà®ķà¯įà®ķ à®¤à¯įà®¤à®¿à®²à¯į
Ġà®ħà®©à¯Ī à®µà®°à¯ģà®®à¯į
Ġà®ħà®ķà¯įà®ķà®¿à®°à®® à®®à¯į
à¯ģà® ĥà®ªà¯į
Ġà®¤à¯Ģ à®Ļà¯įà®ķà¯ģ
Ġà®µà®ļ à®ªà¯įà®ªà®Łà¯ģà®¤à¯įà®¤à®¿à®ķà¯į
à¯Ĥà®¸ à¯ģà®ĥà®ªà¯į
Ġà®ķà®¾à®ĥà®ªà®¿à®° à¯įà®ķà®³à¯Ī
à®İà®²à¯įà®² à®¾
Ġà®ī à®©à®ķà¯įà®ķ
C O
à®µ à®±
Ġà®ħà®¤à¯įà®¤à®¾à®Łà¯įà®ļà®¿à®ķà®³ à¯ģà®Łà®©à¯į
à®ĩà®±à¯Īà®µà®© à¯ģà®ķà¯įà®ķà¯ģ
Ġà®¤à®µà¯įà®° à®¾à®¤à¯įà®¤
à®¾à®ķà¯įà®ķ à¯ģà®®à¯į
us sia
à®¿à®Ł à®¤à¯įà®¤à®¿à®²à¯ģà®®à¯į
à®ª à®¿à®´
Ġà®īà®¤à®µà®¿à®¯ à®¾à®³
à®ħ à®®à¯įà®®
à®ļ à®¨à¯įà®¤
Ġà®ķà®¾à®ªà¯įà®ªà®¾à®±à¯įà®± à®¿à®©à¯ĭà®®à¯į
Ġà®ļà¯Ĩà®µà®¿à®¯à¯ģà®± à¯ģà®µ
Ġà®¨à®°à®ķ à®µà®¾à®ļ
Ġà®ķà¯Ĥà®± à®ªà¯įà®ªà®Łà¯įà®Łà®¾à®²à¯į
à¯Ĩà®´ à¯ģà®¤à¯įà®¤
Ġà®İà®µà®° à¯ģà®Łà¯Īà®¯
o c
u g
à®¤à¯įà®¤ à®¿à®²à¯ģà®³à¯įà®³
à®İà®© à®ķà¯į
à®ĥ à®ªà¯į
Ġà®ī à®±à¯įà®±à¯ģ
Ġà®Ĭ à®±à¯įà®±
Ġà®µà®°à¯ģà®¨à¯įà®¤ à¯ģà®ķà®¿à®±à¯ĩà®©à¯į
Ġà®ļà¯Ĩà®¯à¯įà®ķà®¿à®± à¯ĩà®©à¯į
à®Łà¯įà®ļ à®¿à®¯
ĠK DE
à®¿à®ªà¯įà®ª à®¤à¯Ī
à®ľ à¯įà®ľ
Ġà®İà®¤à®¿à®°à¯įà®ª à®¾à®°à¯įà®ķà¯įà®ķ
Ġà®¸ à®²à®¾à®®à¯į
Ġà®ªà¯Ĩà®°à¯ģà®®à¯Īà®¯à®Ł à®¿à®¤à¯įà®¤à¯ģà®ķà¯į
à®® à®©à¯į
Ġà®ªà®¿à®° à®¿à®¯
Ġà®ĵ à®°
à¯įà®ª à¯į
Ġà®¤ à®¾à®°
à®ļ à®¿à®¸à¯įà®ķà¯Ĭ
Ġà®Ĵ à®ªà¯įà®ªà®Ł
Ġà®¤à¯ģà®Ł à¯Īà®ķà¯įà®ķ
à¯Īà®¯ à®¾à®¤à¯ģ
à¯Īà®ķà®³ à®¾à®²à¯į
Ġà®īà®£à¯įà®Łà®¾à®ķà¯įà®ķ à®¿à®©à®¾à®©à¯į
Ġà®ªà®Łà¯Īà®¤à¯įà®¤ à®µà®©à¯į
à®Ĵà®° à¯ģà®µà®°
Ġà®İ à®Ļà¯įà®ķà¯ģ
AT OR
à¯įà® Ĵ
Ġà®ķà®¾à®² à®¤à¯įà®¤à®¿à®²à¯į
à®¾à®Ł à®¿
Ġà®ħà®Łà®¿à®¯à®¾à®°à¯įà®ķà®³ à¯Ī
à®¿à® ®à¯į
Ġà®¤à®µ à®±à®¿à®¯
Ġà®ĩà®£ à¯Īà®ķà¯įà®ķ
à®ķ à®³à¯į
Ġ Y
Ġà®ħ à®ªà¯įà®ªà®Łà®¿à®¯
à®¤à¯įà®¤ à®¾à®©à¯į
Ġà®ĩà®°à¯ģà®ªà¯įà®ª à®¤à¯Ī
Ġà®¤à®¿à®°à¯ģà®ª à¯įà®¤à®¿
à®ķ à®²
Ġà®µà®¿à®ļ à®¾à®°à®£
à®¤à¯Ĭ à®ķ
es crip
à®®à®¾à®Łà¯įà®Ł à®¾à®¤à¯ģ
Ġà®ĩà®Ł à®¤à¯ģ
Ġà®īà®³à¯įà®³ à¯ĩ
à¯įà®ķà®³ à¯Īà®ķà¯į
Ġà®ķà¯įà®³ à®¿à®ķà¯į
à®µ à®¾à®±
Ġà®ļà¯Ĩ à®²à¯į
o me
à®ħ à®Łà¯ģà®¤à¯įà®¤
Ġà®ħ à®ªà¯įà®ªà®Ł
à®İà®´ à¯ģà®¤
à®ļ à®®
Ġà®īà®° à®¿à®®à¯Ī
à¯Ĩà®Ł à¯ģà®ªà¯įà®ª
Ġà®ħà®´ à®¿à®µ
à®²à®¾à®® à¯ģà®©à¯į
Ġà®ļ à®¾à®ªà¯įà®ª
Ġà®®à¯ģà®¤à®² à®¿à®²à¯į
à¯Ĥ à®Łà¯įà®Łà¯ģà®®à¯į
A ME
Ġà®µà®¿à®Łà¯ģà®µ à¯ĩà®©à¯į
Ġà®ħà®¤à®±à¯įà®ķ à®¾à®ķ
à¯įà®ķà®³ à¯Īà®¤à¯į
Ġà®¨ à®¿à®ļà¯įà®ļà®¯
à®® à¯Īà®¯à¯ģà®®à¯į
Ġà®¤à®¾à®© à®¿à®¯
Ġà®¤à¯Ĭà®ķ à¯ģà®ªà¯įà®ª
eg ion
à®ħ à®¤à¯Īà®ªà¯į
Ġst at
à®¤ à¯ģà®ª
Ġà®ķà®Ł à®²à®¿à®²à¯į
Ġà®ļ à®¤à®¿
Ġà®ħà®©à¯Īà®¤à¯įà®¤ à¯ģà®ªà¯į
Ġà®ķà®¿à®Ł à®ķà¯įà®ķ
Ġà®ķ à®¤à¯Ī
Ġà®ķà®Łà¯įà®Łà®³ à¯Īà®ķà®³à¯Ī
Ġà®µà®° à®¿
à®¿à®ķà®³ à®¿à®Łà®®à¯į
à®ħà®µà®°à¯įà®ķà®³ à®¿à®©à¯į
Ġà®ª à¯ģà®©à®¿à®¤
à¯ĭ à®°à¯į
à®¾à®¯ à®¿à®©à¯ģà®®à¯į
Ġà®µà¯Ĩà®± à¯ģà®¤à¯įà®¤
Ġà®ª à®¤à¯įà®¤à¯ģ
à¯įà®® à¯ĩà®ļ
à®Łà®¿à®¯ à¯ĭ
ĠS t
Ġà®ıà®±à¯įà®± à¯ģà®®à®¤à®¿
Ġà®ĩà®° à®ķà¯įà®ķ
Ġà®ħ à®²à¯įà®²à®¾à®®à®²à¯į
à®µà®¿à®³ à¯Īà®¯
Ġà®¨à®²à¯įà®² à®¤à¯ģ
Ġà®ķà¯ĩà®Łà¯įà®Ł à¯ģà®ķà¯į
L E
Ġà®ļà¯Ĥà®´ à¯įà®¨à¯įà®¤
Ġà®ļà¯Ĩà®²à¯ģà®¤à¯įà®¤ à¯ģà®ķà®¿à®±à®¾à®©à¯į
Ġà®ĩ à®¤à¯Īà®ªà¯į
à®¨ à¯į
Ġà®Ĵ à®©à¯įà®ªà®¤à¯ģ
Ġà®µà®Łà®¿à®µ à®®à¯į
à®¿à®° à¯į
Ġà®īà®£ à®°à¯įà®¨à¯įà®¤à¯ģ
Ġà®īà®£ à®µ
Ġà®ķà®¾à®£ à¯įà®ķà®¿à®±
à®¤ à®¿à®°à¯ģà®®à¯įà®ª
à®ĩ à®¤à®¿à®²à¯į
à®¾à®Ł à¯ģà®ķà®³à¯į
Ġà®īà®°à¯ģà®µà®¾à®ķà¯įà®ķ à¯ģà®ķ
à®ħà®£ à¯ģà®ķ
tin g
(à®ħ à®¤à¯ģ
Ġà®ĩà®°à¯ģà®ķà¯įà®ķ à®²à®¾à®®à¯į
à¯ĩ à®³à¯Ī
à¯įà®ª à®Ł
à®ķ à®¿à®³
yp e
à®ħ à®¤à¯įà®¤à®ķà¯Īà®¯
à®¤à¯įà®¤à®¿à®±à¯įà®ķ à¯ģà®®à¯į
à®µà®Ł à®¿à®µ
Ġà®İà®µà®° à¯Ī
Ġà®ªà¯ģà®° à®¿à®¨à¯įà®¤à¯ģ
à®Ł à¯Īà®ķ
en d
Ġà®ªà®¯à®©à¯įà®ªà®Łà¯ģà®¤à¯įà®¤ à®¿
Ġà®ªà¯ģà®ķ à®²
à¯ģà®Ł à¯Ī
Ġà®ªà®°à®¿à®ķ à®¾à®ļà®®à¯į
Ġà®ļà¯Ģà®ķà¯įà®ķ à®¿à®°
Ġà®īà®£à¯įà®Ł à®¾à®ķà¯įà®ķà®¿à®¯
à®®à®ķ à¯įà®ķà®³à¯Ī
Ġà®ĩà®Łà¯įà®Ł à¯ģà®ķà¯įà®ķ
Ġà®¨à®¾à®Ļ à¯įà®ķà®³à¯ģà®®à¯į
f rance
à¯Ī à®ªà¯įà®ªà®Ł
Ġà®ķ à¯ģà®ªà¯įà®ª
Ġà®µà¯ĩà®¤à®© à¯Īà®¯à®¿à®²à¯į
Ġà®®à®¾à®°à¯įà®ķà¯įà®ķ à®¤à¯įà®¤à®¿à®²à¯į
Ġà®ħà®µà®±à¯įà®± à¯Īà®ķà¯į
Ġà®Łà®¿à®µà®¿à®Ł à®¿
à®© à¯įà®®à¯Īà®¯à®¾à®©
Ġà®ħ à®Łà¯įà®Łà®µà®£à¯Ī
Ġà®ķà¯Ĥà®± à¯ģà®ķà®¿à®©à¯įà®±
Ġà®µà¯ĩà®¤ à®¤à¯įà®¤à¯Īà®ķà¯į
à®®à®¾à®ķ à®¤à¯į
Ġà®ªà®±à¯įà®± à®¿à®ķà¯į
Ġà®¤à®¾à®® à®¤
à¯įà®Ł à®¿
Ġà®ªà®¿à®°à®µà¯ĩà®ļ à®¿à®ķà¯įà®ķà®ļà¯į
Ġà®®à®ķ à¯įà®ķà®³à®¿à®²à¯į
à®¿à®ķà¯įà®ķà®¿à®©à¯įà®± à®©à®°à¯į
à®¿à® ĥà®ªà¯į
Ġà®ĩà®±à®ķà¯įà®ķà®¿à®¯ à®°à¯ģà®³
Ġà®ļà®¾à®¯ à¯įà®¨à¯įà®¤à¯ģ
Ġà®ªà®² à®©à¯Ī
Ġà®ĩà®£ à¯Īà®¯
Ġà®®à®©à¯įà®©à®¿à®ªà¯įà®ª à¯ģ
à®İ à®Ļà¯įà®ķà®³à¯ģà®ķà¯įà®ķà¯ģ
Ġà®ªà®¿à®°à®¾à®°à¯įà®¤à¯įà®¤ à®¿à®¤à¯įà®¤à®¾à®°à¯į
1 1
Ġ #
à¯ģà®ķà¯įà®ķ à®¿
à¯įà®ļ à¯į
Ġà®ļà®¤à¯įà®¤à®¿à®¯ à®¤à¯įà®¤à¯Ī
) à®²
Ġà®īà®¯ à®¿à®°à¯ģà®³à¯įà®³
à®µà®´ à®¿
à®¤ à®¾à®Ļà¯įà®ķà®³à¯į
à®¤ à®¿à®¯à®¾à®ķ
à®¿à®°à¯ģà®¨à¯įà®¤ à®¾à®°à¯įà®ķà®³à¯į
Ġà®ªà®¿à®°à®ķ à®¾à®ļ
à®¿à®°à¯ģà®ªà¯įà®ª à®¤à¯ģà®®à¯į
Ġà®¤à¯Ĥà®¤à®°à¯įà®ķà®³ à¯Īà®ªà¯į
Ġà®ªà®¿à®®à¯įà®ª à®®à¯į
à®®à®¿à®© à¯įà®©
Ġà®¤à¯Ĥà®¤à®° à®¾à®ķ
Ġà®ª à®Ļà¯įà®ķà¯ģ
Ġà®¤ à®¿à®¯à®¾à®©
Ġà®µà¯ĩà®¤ à®¤à¯įà®¤à®¿à®©à¯į
Ġà®ķà¯Ĥà®Łà¯įà®Łà®¤à¯įà®¤ à®¿à®©à®°
Ġà®Ĵà®³ à®¿
Ġà®ħà®®à¯Īà®ķà¯įà®ķ à®µà¯ģà®®à¯į
Ġà®¹à®¾à®° à¯Ĥ
à®Ļà¯įà®ķà®³ à¯ģà®ķà¯įà®ķà¯Ĩà®²à¯įà®²à®¾à®®à¯į
Ġà®ħà®Ł à¯Īà®¨à¯įà®¤à¯ģ
à®ī à®©à¯į
à®ªà¯įà®²à¯Ģ à®¸
Ġà®¤à¯Ĩà®° à®¿à®µ
à®µà®° à®¿à®ļà¯Ī
Ġà®¨à®©à¯įà®ķà®± à®¿à®ķà®¿à®±à®¾à®©à¯į
ĠT RAN
Ġà®®à®©à¯Īà®µà®¿à®¯ à®°
SL ATOR
ĠTRAN SLATOR
ĠTRANSLATOR S
à®µ à®¿à®¯
Ġà®Ĩà®ķà¯įà®ķ à®¿à®µà®¿à®Ł
Ġà®¸à¯ģà®²à¯Ī à®®à®¾à®©
à®ķà¯įà®ķà¯Ĥ à®Ł
à®ķ à¯įà®ļ
Ġà®ļà¯Ĩà®¯à¯įà®µ à®¾à®¯à®¾à®ķ
Ġà®¨à¯Ģà®ķà¯įà®ķ à®¿
Ġà®ķà®¿à®°à¯ģà®ªà¯Īà®¯à¯ģà®Łà¯Īà®¯ à®µà®©à®¾à®ķà®µà¯ģà®®à¯į
Ġsh ould
à®¿à®ªà¯įà®° à®¯
Ġà®ĩà®°à¯ģà®ķà¯įà®ķà®¿à®©à¯įà®± à¯Ģà®°à¯įà®ķà®³à¯į
à®ªà®¤ à®¿à®µ
Ġà®Ĵà®Łà¯įà®Ł à®ķà®®à¯į
à¯ģà®Ł à¯įà®ª
Ġà®İà®©à¯įà®ªà®¤à¯Ī à®ªà¯į
Ġà®ļà¯Ĩà®¯à®² à¯įà®ķà®³à¯Īà®ļà¯į
Ġà®¨à®®à¯įà®® à®¿à®Łà®®à®¿à®°à¯ģà®¨à¯įà®¤à¯ģ
Ġà®ļà¯Ĩà®²à¯ģà®¤à¯įà®¤ à¯ģà®®à¯į
Ġà®¨à¯ģà®´ à¯Īà®¯à¯ģà®Ļà¯įà®ķà®³à¯į
Ġà®®à¯Ĥà®¸à®¾à®µ à®¿à®©à¯į
Ġà®ª à®¿à®¨à¯įà®¤
à®¿à®Ł à¯Īà®¯à®¿à®²à¯ģà®®à¯į
à®µà®© à¯ģà®ķà¯įà®ķà¯ģ
Ġà®¨à®¾à®Łà®¿à®¯ à®µà®°à¯įà®ķà®³à¯ģà®ķà¯įà®ķà¯ģ
Ġà®¤à¯ĩà®µà¯Īà®¯ à®¾à®©
Ġà®ªà®¯ à®©à®°à¯į
Ġà®ķ à®±
à¯Ģ à®ķà¯įà®ķ
à®µà¯ĩà®¤ à®©à¯Ī
Ġà®ķà®³ à®¿à®®
Ġà®µà®² à®ķà¯įà®ķà®°
Ġà®ĵà®¤ à®¿à®ķà¯įà®ķ
à¯įà®ķà®¿à®± à®¾à®©à¯į
Ġà®µà®¿à®¯ à®¾à®ª
Ġà®®à®¾à®² à¯Īà®¯à®¿à®²à¯ģà®®à¯į
ĠO F
à®¨ à®©à¯įà®®
Ġà®¨à®·à¯įà®Ł à®µà®¾à®³
à®Ĩ à®µà®£
à®±à¯įà®ª à¯ĭà®¤à¯ģ
Ġà®¨à®¿à®°à®¾à®ķà®° à®¿à®ķà¯įà®ķ
V D
Ġà®ī à®¤à¯įà®¤à®°
Ġà®µà®² à®ªà¯įà®ªà¯ģà®±
Ġà®¤à¯ģà®ķà¯įà®ķà®ªà¯įà®ªà®Ł à®µà¯ģà®®à¯į
à®¾à®Ł à¯į
à®ı à®©à¯į
Ġà®ķà¯Ĥà®Łà¯įà®Łà®¤à¯įà®¤ à®¿à®©à®°à¯į
Ġà®ªà®¯ à®ªà®ķ
à¯įà®¤à¯įà®¤ à¯ģà®ķà¯į
Ġà®ªà®° à®¿à®ª
Ġà®ķà¯Ī à®ļ
Ġà®®à¯Ĩà®¯ à¯įà®ªà¯įà®ª
à®¿à®ªà¯įà®ª à®µà®©à¯į
à®® à¯ģà®¨à¯įà®¤
à®¾à®°à¯įà®ķà®³ à®¾à®¯à®¿à®©à¯į
à®²à®ķ à¯Ī
à®©à®¾à®ķ à®¿à®¯
à®ļà¯Ĩà®¯ à¯įà®¤
Ġà®¤à¯Ģà®° à¯įà®ķà¯įà®ķ
Ġor g
Ġà®ĩà®¯ à®ķà¯įà®ķà®¿
v in
Ġà®ħà®µà®° à¯ģà®ķà¯įà®ķà¯ģà®ķà¯į
à¯Īà®¤à¯įà®¤ à¯ģà®ªà¯į
Ġà®ªà®¾à®¤à¯ģà®ķ à®¾à®¤à¯įà®¤
Ġà®ļà¯Ĩà®¯à¯įà®ķà®¿à®± à®¾à®©à¯ĭ
Ġà®¤à¯Ĭ à®²à¯Ī
Ġ [
à®¸ à¯įà®ķ
Ġà®ħà®©à¯ģà®ªà¯įà®ª à®µà®¿à®²à¯įà®²à¯Ī
à®ħà®µà®° à¯ģà®ķà¯įà®ķà¯ģ
à®¿à® ĥà®ª
Ġà®ķà¯Īà®ļ à¯ĩà®¤
à®µà®°à¯įà®ķà®³à®¾à®ķ à®¿
Ġà®µà¯Ĩà®±à¯įà®± à®¿à®ķà®°à®®à®¾à®ķ
Ġà®ª à®¾à®°à¯į
Ġà®¤à¯ĩà®°à¯įà®¨à¯įà®¤à¯Ĩà®Łà¯ģà®¤à¯įà®¤ à¯ģà®ķà¯į
Ġ v
à®¿à® Ĳ
à¯įà®®à¯Īà®¯ à®¾à®ķ
Ġà®¨à®© à¯įà®®à¯Īà®¯à®¾à®©
à®© à®¾à®ķà®µà¯ģà®®à¯į
escrip tion
Ġà®ħà®²à¯įà®²à®¾à®¹à¯įà®µ à¯ģà®Łà®©à¯į
Ġà®ļà¯Ĩà®¯à®² à¯įà®ķà¯Ĥà®±à¯ģ
Ġà®ªà®ķ à®²à¯Ī
Ġà®µà®¿à®°à¯ģà®®à¯įà®ª à¯ģà®ķà®¿à®±à¯ĩà®©à¯į
Ġà®² à¯į
à®¤ à¯ģà®°
à¯ģà®ķà¯įà®ķ à®¿à®Łà¯Īà®¯à¯ĩ
Ġà®ĩà®° à®¤à¯įà®¤
Ġà®¨à®·à¯įà®Łà®® à®Łà¯Īà®¨à¯įà®¤
à®ļà¯Ĩà®¯ à®²à¯įà®ª
Ġà®İà®´à¯ģà®¤à¯įà®¤ à¯ģà®°à¯ģ
Ġà®ļà¯ĩà®° à¯ģà®®à¯į
Ġà®ªà¯Ĩà®± à¯ģà®µà®¤à®±à¯įà®ķà®¾à®ķ
Ġà®µà®¾à®´à¯įà®ķà¯įà®ķ à¯Īà®¯à®¿à®²à¯į
Ġà®ĩà®± à¯ģà®¤
Ġà®¨à¯ĩà®° à¯įà®¨à¯įà®¤à®¤à¯ģ
Ġà®¨à®¾à®Ł à®¿
Ġà®ħà®ļà¯įà®ļ à¯ģà®ªà¯įà®ªà¯Ĭ
Ġà®ªà®¿à®± à®¨à¯įà®¤
à®¿à®ķ à®°à¯į
à®ª à¯ģà®ķ
Ġà®İ à®Ļà¯įà®ķ
Ġà®ĩà®´ à¯ģà®¤à¯įà®¤
à®¨à¯ĩà®° à®¾à®©
Ġà®ª à¯Ģ
à®¿à®± à®¾à®°à¯į
à®ı à®©à¯Ĩà®©à¯įà®±à®¾à®²à¯į
Ġà®ªà®¾à®°à¯įà®ķà¯įà®ķ à®µà¯ģà®®à¯į
à¯Īà®ķà¯įà®ķ à¯ģà®ªà¯į
Ġà®µà®¿à®ļà®¾à®² à®®à®¾à®©
Ġà®ĩà®°à¯ģà®¨à¯įà®¤ à¯ģà®®à¯į
à®Ĵ à®²à®¿
Ġà®ķà¯ģà®± à®¿à®ªà¯įà®ªà¯ģ
Ġà®ħà®¤ à®¿à®°
Ġà®¨à®¿à®± à¯Īà®¨à¯įà®¤
Ġà®µ à®¿à®ķ
ro m
Ġà®ĩà®´ à®¨à¯įà®¤à¯ģ
l o
à®¨à¯įà®¤ à¯Ī
Ġà®ļà¯Ĩà®¯à¯įà®ª à®µà®°à¯į
Ġà®ªà¯Īà®¤à¯įà®¤à®¿à®¯ à®ķà¯įà®ķà®¾à®°
à®ķ à®°à¯į
Ġ- -
à®ħ à®µà®±à¯įà®±à¯Ī
à¯ĩ à®±à¯ģ
Ġà®®à¯ģà®ķ à®®à¯į
Ġà®µà®¿à®Łà¯įà®Ł à¯ĩà®©à¯į
à®µà®° à®¿à®©à¯į
Ġà®ķ à®µà®²
Ġà®µà®´ à®¿à®ªà¯įà®ªà®Ł
à®ı à®±à¯įà®ª
à®® à¯ģà®¤à®²à¯į
à®İ à®²
Ġà®ªà¯Ĭà®¤à¯įà®¤ à®¾à®©à¯Ī
on th
à®ĩ à®¸
à¯įà®£ à®¯
Ġà®µà®¾à®Ļà¯įà®ķ à®¿
u er
_ :
à®¨ à®¿à®ķà®´
Ġà®®à®± à¯Īà®µ
à®¿à®ª à®¤à®¿
Ġà®ķà®Ł à®©à¯į
Ġs p
à®¿à®® à¯ģà®±à¯Ī
Ġà®ķà®° à¯ģà®¤à¯įà®¤à¯ģ
Ġà®ĩà®° à®Łà¯įà®Ł
Ġà®ķ à¯Īà®ķà®³à¯į
Ġà®ªà®´ à®¿
Ġà®¤ à¯ģà®ªà¯įà®ª
à®¿à®°à¯ģà®ªà¯įà®ª à®¤à¯Ī
à¯Ģ à®Łà¯įà®Łà¯Ī
Ġà®ħà®µà®© à¯Īà®ķà¯į
Ġà®¤ à¯ģà®£à¯įà®Łà¯ģ
Ġà®ĩà®´ à®ªà¯įà®ª
à®ķà®° à¯ģà®µ
Ġà®¨à®¿à®©à¯įà®± à¯ģ
à¯ĩà®ļ à®¿
Ġà®ķà®²à¯įà®µ à®¿
à®³ à®¿à®ķà¯įà®ķà¯ģà®®à¯į
Ġà®®à®¾à®±à¯įà®± à®¿
Ġà®īà®² à®ķà®¤à¯įà®¤
Ġà®ļà¯Ĩà®¯à¯įà®¤ à®¿à®¯à¯Ī
Ġà®ķà¯ĩà®³ à¯ģà®Ļà¯įà®ķà®³à¯į
à®¿à®¤à®´ à¯į
Ġà®ħà®¤ à¯ĩ
à®¤à¯įà®¤ à®¾à®°à¯į
à®¤ à¯ģà®¤à®¾à®©à¯į
à®±à¯įà®± à¯Ī
a se
à®® à®¿à®©à¯įà®±à®¿
à¯Īà®¯ à¯ģà®®à¯ĩ
à®ªà¯įà®° à®¾à®¸à®°à¯ĭ
Ġà®®à¯Ģ à®³à¯įà®µ
Ġà®®à®² à¯Īà®ķà®³à¯Ī
Ġà®¤à®¿à®° à¯ģà®Ł
Ġà®¸ à¯įà®ª
Ġà®µà¯Ĩà®± à¯ģà®ķà¯įà®ķ
à®ļ à¯Ĭ
Ġà®µà®¾à®© à®®à¯į
P I
à®¨ à®ķà®°
Ġc oun
Ġà®ħà®´ à¯Īà®ªà¯įà®ªà¯ģ
Ġà®¨à®¿à®° à¯įà®£à®¯
Ġà®ħà®´ à¯Īà®¤à¯įà®¤à¯ģà®ķà¯į
la ss
à®µ à®¿à®°à¯ģà®ªà¯įà®ª
Ġà®¨à®¿à®° à¯įà®ªà¯įà®ª
Ġà®ħà®ŀà¯įà®ļ à¯ģà®Ļà¯įà®ķà®³à¯į
Ġà®¤ à®¤à¯įà®¤
Ġà®İ à®Łà¯įà®Łà¯ģ
Ġà®µà¯ĩà®£à¯įà®Ł à¯ģà®®à¯ĩ
à®¿à®¯à®¾à®¯ à®®à¯į
Ġà®ļà®¿à®± à®ªà¯įà®ª
ount ry
à®® à¯Īà®¯à®¾à®ķ
Ġà®ķà®£à¯įà®Ł à®¾à®°à¯į
Ġà®ķà®¾à®°à®¿à®¯ à®¤à¯įà®¤à¯Ī
à®°à®¾à®³ à®®à®¾à®©
Ġà®ķà¯Ĥ à®°à¯įà®¨à¯įà®¤à¯ģ
Ġà®ķà®Łà®®à¯Īà®¯ à®¾à®ķà¯ģà®®à¯į
à®¿à®© à®°à¯ģà®®à¯į
à¯ģà®ªà¯įà®ª à®Łà¯ģà®¤à¯įà®¤
Ġà®īà®£à¯įà®Ł à®¾à®ķ
Ġà®¨à¯ĩà®°à¯įà®µà®´ à®¿à®¯à¯Ī
Ġà®ķà¯ģà®´à®ªà¯įà®ª à®¤à¯įà®¤à¯Ī
à®Ļà¯įà®ķ à¯ģà®¤à¯įà®¤à¯ģ
à®ĩà®° à¯ģà®ķà¯įà®ķ
à®ĩ à®²
à®¿à®ķà®³ à¯Īà®ªà¯į
Ġà®µà®£ à®ķà¯įà®ķà®¤à¯įà®¤à®¿à®±à¯įà®ķà¯ģà®°à®¿à®¯
Ġà®ķà®Łà¯įà®Łà®³à¯Īà®¯ à®¿à®Łà¯įà®Ł
Ġà®ħà®µà®°à¯įà®ķà®³ à®¿à®²à®¿à®°à¯ģà®¨à¯įà®¤à¯ģ
Ġà®¤à¯Ĥà®¯ à®µà®©à¯į
Ġ <
Ġà®ħà®µà®°à¯įà®ķà®³ à¯įà®¤à®¾à®®à¯į
à®¿à®µ à®ķ
à®¿à®°à¯ģà®ķà¯įà®ķ à®µà¯ģà®®à¯į
Ġà®¨à¯Ĩà®°à¯ģà®ªà¯įà®ª à¯ģ
à®¾à®² à¯Ī
Ġà®İà®Ļà¯įà®ķà®³ à®¿à®Łà®®à¯į
Ġà®ĩà®ªà¯įà®±à®¾à®¹à¯Ģ à®®à¯į
à¯Ĩà®° à®¿à®¯à¯ģà®®à¯į
Ġà®µà®°à¯Īà®¯ à®±
Ġà®ħà®Ł à®¿à®¤à¯įà®¤
Ġà®µà®´à®¿à®ª à®Łà¯įà®Ł
à¯ģà®Łà®© à¯ĩà®¯à¯ĩ
à®¤à¯Ĩà®°à®¿à®¯ à®¾à®¤
Ġà®ļà¯Ĩà®µà®¿à®® à®Ł
à¯Īà®¯ à¯ģà®³à¯įà®³
Ġà®ĩà®° à®Łà¯įà®ļ
Ġf ucking
Ġà®ĩà®Łà¯įà®Łà¯ģà®ķà¯įà®ķ à®Łà¯įà®Ł
Ġà®®à®²à®ķà¯įà®ķ à¯ģà®ķà®³
à¯ĭ à®ļ
à®¤à®¿à®Ł à®®à®¾à®ķ
à¯ģà®ķà¯įà®ķ à¯ģà®±
Ġà®ªà¯Ĩà®° à¯ģà®Ļà¯įà®ķ
Ġà®ķà®¿à®°à¯ģà®ª à¯Īà®¯à®¾à®³
à®® à®¾à®¯à¯į
Ġà®īà®¤à®µ à®¿à®¯à¯ģà®®à¯į
Ġà®ªà¯ģà®ķà®´ à¯ģà®®à¯į
à®İ à®ªà¯įà®ªà®Łà®¿
Ġà®ªà®¾à®¤à¯ģà®ķ à®¾à®ķà¯įà®ķ
à®ħà®Ł à¯Īà®µà¯ģ
Ġà®¨à®¿à®¯à®¾à®¯ à®¤à¯į
Ġà®ĩà®¤à¯įà®¤ à¯Ĥà®¤
à®¤ à®©à®¾à®²à¯į
à®¤à¯įà®¤à®¿à®±à¯įà®ķ à®¾à®ķ
à®¤à¯įà®¤ à¯ģà®Łà¯Īà®¯
à®ħ à®ŀà¯įà®ļà®²à¯į
Ġcoun ties
Ġà®Ĩ à®®à®¾à®®à¯į
Ġà®ķà¯ĩà®Ł à¯ģ
Ġà®ķà¯ĩà®Łà¯įà®Ł à®¾à®°à¯įà®ķà®³à¯į
Ġà®ĩà®µà®°à¯įà®ķà®³ à®¿à®²à¯į
Ġà®ħà®Łà¯Īà®¯à®¾à®³ à®®à¯į
i re
à¯įà®ķà®³ à®¿à®²à®¿à®°à¯ģà®¨à¯įà®¤à¯ģ
à®ħà®Ł à¯Īà®µ
Ġà®¨à®©à¯įà®®à¯Īà®¯ à®¾à®ķà¯ģà®®à¯į
( à®ħà®µà®°à¯įà®ķà®³à¯į
) à®ªà¯į
à®¿à®² à¯ģà®®à¯ģà®³à¯įà®³
Ġà®ªà®² à®©à¯į
Ġà®ħà®µà¯įà®µ à®¿à®°à®£à¯įà®Ł
Ġà®īà®Ļà¯įà®ķà®³ à¯ģà®ķà¯įà®ķà¯ĩ
à®±à¯įà®ļ à®¿
Ġà®·à¯Īà®¤à¯įà®¤à®¾à®© à®¿à®©à¯į
Ġà®İà®©à¯įà®© à¯Īà®¯à¯ģà®®à¯į
Ġà®ħà®° à¯ģà®¨à¯įà®¤
à®ªà®¯ à®ªà®ķà¯įà®¤à®¿à®¯
Ġà®īà®¯à®°à¯įà®¨à¯įà®¤ à®µà®©à¯į
à®µ à®²à¯į
Ġà®ªà¯Ĥà®® à®¿à®ķà¯įà®ķà¯ģà®®à¯į
Ġà®®à¯ĩà®² à®¾à®³à®°à¯į
ar d
Ġà®ªà®¿à®³ à®¨à¯įà®¤à¯ģ
Ġà®Ĩ à®µà¯ĩ
Ġà®ħà®¤ à®¾à®µà®¤à¯ģ
Ġà®Ī à®¸à®¾à®µ
Ġà®ª à¯įà®°
Ġà®İ à®µà®°à¯įà®ķà®³à¯ģà®ķà¯įà®ķà¯ģ
à¯ĭ à®¤à¯ģà®®à¯į
Ġà®®à®©à¯įà®©à®¿à®ªà¯įà®ª à®¾à®©à¯į
Ġà®µà¯ĩà®¤à®©à¯Īà®¯ à®¿à®²à®¿à®°à¯ģà®¨à¯įà®¤à¯ģ
Ġà®īà®Łà®©à¯įà®ª à®Łà®¿à®ķà¯įà®ķà¯Ī
" à®ħà®²à¯įà®²à®¾à®¹à¯į
Ġà®ªà¯Ĩà®£ à¯įà®ķà®³à¯Īà®¯à¯ģà®®à¯į
à®¨à®Ł à®¿à®ķà®°
Ġà®®à¯ģà®ķ à®Ļà¯įà®ķà®³à¯į
à®µà¯Ĩ à®±à¯įà®±à¯ģ
Ġà®µà®¿à®¤ à®¿à®ķà¯įà®ķà®ªà¯įà®ªà®Łà¯įà®Ł
Ġà®¤à¯Ĥà®¤ à®°à¯Īà®¯à¯ģà®®à¯į
à®ħà®¤à®±à¯įà®ķ à®µà®°à¯įà®ķà®³à¯į
Ġà®¨à®¿à®ļà¯įà®ļà®¯à®®à®¾à®ķ à®ªà¯į
( à®ĩà®¤à¯ģ
à®¨ à¯Ĥà®¹
à®ļà¯Ĥ à®©à®¿à®¯
( G
à®® à¯įà®¤à®¾à®©à¯į
à®Łà®¿à®¯ à¯ģà®Ļà¯įà®ķà®³à¯į
Ġà®µà®¿à®³ à®ķà¯įà®ķà®®à¯į
Ġun it
à¯ģà® ħ
à®ĩ à®µà®°à¯įà®ķà®³à¯ģà®ķà¯įà®ķà¯ģ
à¯ģà®° à¯ģà®µ
Ġà®ªà®¿à®©à¯įà®ª à®±à¯įà®±à®¿à®¯
à®İà®Ļà¯įà®ķà®³ à¯ģà®Łà¯Īà®¯
à®© à¯Īà®ķà¯į
Ġà®ķ à¯Īà®ķà®³à¯Ī
Ġà®ķà¯Ĥà®± à®ªà¯įà®ªà®Łà¯įà®Ł
Ġà®¤à®¿à®°à¯ģà®ªà¯įà®ª à®ªà¯įà®ªà®Ł
à®¿à®Łà¯įà®Ł à¯ģà®ķà¯į
Ġà®ĵ à®Łà¯įà®Ł
Ġà®ĩà®¨à¯įà®¤ à®¿à®°à®¿à®¯
Ġà®ħà®°à¯ģà®³ à¯Ī
Ġà®¤à®²à¯Ī à®µà®°à¯įà®ķà®³à¯į
à®µà®£ à®ķà¯įà®ķà®¤à¯įà®¤à®¿à®±à¯įà®ķà¯ģà®°à®¿à®¯
Ġà®İà®± à®¿à®¨à¯įà®¤à¯ģ
Ġà®®à¯ģà®³ à¯Īà®ªà¯įà®ª
Ġà®ħà®²à¯įà®²à®¾à®¹à¯įà®µ à¯Īà®ªà¯į
Ġà®ĩà®²à¯įà®² à¯Īà®¯
Ġà®ħà®©à¯ģà®ªà®µ à®¿à®ķà¯įà®ķ
à®µà¯Ĩà®³ à®¿à®¯à¯ĩ
Ġà®µà®° à¯įà®£
Ġm onth
Ġw ill
Ġà®ħà®±à®¿à®¨à¯įà®¤ à®µà®©à®¾à®ķà®µà¯ģà®®à¯į
Ġà®ªà®ķ à¯ģà®¤
Ġw or
à®¿ City
Ġà®ĩà®°à¯ģà®ªà¯įà®ª à®µà®°à¯įà®ķà®³à¯į
Ġà®®à®©à®¿à®¤ à®©à¯ģà®ķà¯įà®ķà¯ģ
Ġà®¨à®¿à®´ à®²
Ġk de
Ġà®ķ à®¾à®µà®²
Ġà®¤à®®à¯įà®® à¯ģà®Łà¯Īà®¯
à®¿à®© à®¿à®©à¯įà®±
à®© à¯Īà®¤à¯įà®¤
Ġà®ħà®¤à®±à¯įà®ķ à¯ģà®ªà¯į
à®¿à®ķ à®¿à®±à®¤à¯ģ
Ġà®®à®ķà®¿à®´ à¯įà®ļà¯įà®ļà®¿
Ġà®µà®Łà®¿à®µ à®®à¯Īà®ķà¯įà®ķ
Ġà®ªà®¿à®Ł à®¿
Ġà®ªà®¯à®©à¯įà®ª à®Łà¯ģà®®à¯į
Ġà®ļà®¾à®¤ à®©
Ġà®ķà¯ģà®´ à¯ģ
Ġà®¨à®ķà®² à¯Ĩà®Łà¯ģà®ķà¯įà®ķ
o b
Ġà®ħà®¤à¯įà®¤à®¾à®Łà¯įà®ļ à®¿à®¯à¯Ī
à®® à®¾à®±
Ġà®Ĩ à®³
Ġà®ªà®¾à®¤à¯ģà®ķà®¾à®µà®² à®©à¯į
) à®ķà¯įà®ķ
* .
à®ļ à®¾à®©à¯įà®±
Ġà®®à¯Ĥà®² à®®à®¾à®ķ
à®ķà®Łà¯įà®Ł à®³
Ġà®°à®¸ à¯Ĥà®²
in es
Ġà®ķà¯Ĥà®±à¯ģà®µ à®¤à¯ģ
Ġà®µà¯Īà®ķà¯įà®ķ à¯ģà®®à¯į
Ġà®ªà®¿à®° à®¿à®¤à¯įà®¤
Ġà®ĩà®Ł à®Ļà¯įà®ķà®³à®¿à®²à¯į
Ġà®ľ à®¾à®ķà¯į
Ġà®¤à®¿à®Ł à¯Ģà®°
w e
Ġà®ķ à¯Īà®¯à¯Ī
à¯Ģ à®¯
, %
Ġà®Ī à®¸à®¾
Ġà®¤à®¿à®° à¯Ī
à¯Īà®ķà®³à¯Ī à®ļà¯į
Ġà®¨à¯Ĩà®°à¯ģà®Ļà¯įà®ķ à®¿
Ġà®īà®Ļà¯įà®ķà®³ à¯Īà®¯à¯ģà®®à¯į
Ġà®¸ à¯įà®Ł
Ġà®ĩà®° à¯ģà®µà®°
à¯įà®¸à¯į City
à¯ģà®® à®¿à®Łà®®à¯į
à®ħ à®³
à®ļ à¯ģà®µà®°à¯įà®ķà¯įà®ķ
Ġà®®à¯ģà®´ à¯ģà®µà®¤à¯ģà®®à¯į
à®° à¯ģà®¨à¯įà®¤
à®ħà®® à¯Ĩà®°à®¿à®ķà¯įà®ķà®¾
à¯ģà®ķà®³ à®¿à®²à¯ģà®®à¯į
à®¿à®ķ à¯Ī
Ġst ate
à®®à®¿à®ķ à®µà¯ģà®®à¯į
Ġà®®à®± à¯Īà®¤à¯įà®¤
à®¯ à¯Ĥà®¸à¯ģà®ĥà®ª
à¯Ĩà®¯ à¯įà®¤
Ġà®° à®¾à®ľ
Ġà®®à¯ģà®±à¯Ī à®®à¯Ī
à®ı à®±à¯įà®±
Ġà®ªà®¿à®Ł à®¿à®¤à¯įà®¤à¯ģ
Ġ {
Ġà®¨ à®®à®ķà¯įà®ķ
à®¤à¯įà®¤à®¿à®±à¯įà®ķ à®¾à®©
à®µ à®¿à®Łà¯įà®Łà¯ģ
Ġà®ĩà®°à¯ģà®ķà¯įà®ķà®¿à®± à¯Ģà®°à¯įà®ķà®³à¯į
Ġà®¨à®Ł à¯Ī
Ġà®Ĩà®ķà®¿à®¯ à®µà®±à¯įà®±à®¿à®©à¯į
à®¤à¯Ĭ à®²à¯Ī
Ġà®ĩ à®µà®±à¯įà®±
Ġà®¹ à®²
Ġà®® à¯Ĩ
à®¯ à®©à¯į
à¯ģà®± à®®à¯į
Ġà®ļà¯Ĩà®¯à®² à¯įà®ķà®³à¯Ī
Ġà®µà¯ĩà®± à¯ģà®ª
Ġà®ªà®¯à®ªà¯įà®ªà®Ł à¯ģà®ķà®¿à®±à¯ĩà®©à¯į
Ġà®ķà®¾à®£à¯įà®ª à®¿à®ķà¯įà®ķ
Ġà®¤à¯ĩ à®µ
Ġà®µà®° à¯ģà®ķà®¿à®±à®¤à¯ģ
Ġà®İà®²à¯įà®²à®¾à® µà®±à¯įà®±à¯Īà®¯à¯ģà®®à¯į
Ġà®ħà®¨ à¯ĩà®ķ
Ġà®İà®©à¯įà®ªà®¤à¯Ī à®¤à¯į
Ġà®µ à®¾à®²
à®¨ à®¾à®®
Ġà®¨à®¿à®² à¯Īà®¯à¯Ī
ĠU RL
Ġà®¤à¯Ģ à®µà®¿à®°
à®¤ à®©à¯įà®©
à®¾à®ªà¯įà®ª à¯ģ
à®®à¯ģà®Łà®¿à®¯ à®¾à®¤à¯ģ
Ġà®ĩà®¸ à¯įà®²
à®¸ à®²à®¾à®®à¯ģà®©à¯į
à®¾à®±à¯įà®± à¯ģ
ic e
Ġà®®à®¾à®± à®¾à®ķ
Ġd ist
T ML
Ġà®®à®± à®¨à¯įà®¤
Ġà®ķà¯Ĥ à®ªà¯įà®ª
on t
à®İà®²à¯įà®²à®¾à® ªà¯į
à®Ł à¯įà®°
Ġà®ĩà®°à¯ģà®ķà¯įà®ķà®¿à®± à®¤à®¾
Ġà®®à¯Ĥ à®Łà¯įà®Ł
à®²à¯įà®² à®¾à®¤
ar i
Ġà®µà®´ à®¿à®ªà¯įà®ª
Ġà®µà®¿à® ·
Ġà®¯à®¾à®° à¯Ī
Ġà®ħà®¤à®© à¯Īà®ķà¯į
gre at
Ġà®ķ à¯Īà®¯à®¾à®³
Ġà®®à¯ģà®¤à¯įà®¤à®¿à®° à¯Īà®¯
à®ķà¯ģà®± à¯Īà®¨à¯įà®¤
à¯įà®® à®ķ
Ġà®ķà¯Ĭ à®³à¯įà®ķ
Ġà®ª à®¾à®Ļà¯įà®ķ
Ġà®ķà®¾à®Łà¯įà®Ł à®¿à®¯
Ġf ile
Ġà®¤à®©à¯įà®© à¯Ī
C ountry
à®¿à®© à®°à¯Ī
Ġà®¤ à®¾à®¯à¯į
i pp
à¯įà®© à¯į
à¯ģà®ķ à¯Ĥ
à®®à®¾à®ķ à®¿
à®¸ à¯įà®µ
Ġà®ªà®¤ à®¿à®ªà¯įà®ªà¯ģ
Ġ le
à®© à®¾à®¤
à®¿à®¯ à¯ģà®Łà®©à¯į
Ġà®ī à®µ
à®ļ à¯ĩà®°
Ġà®®à¯ĩ à®®à¯įà®ª
Ġcon t
à®© à®¿à®¯à®¾
Ġà®ļ à®¾à®¨à¯įà®¤
à®¾à®± à¯įà®ª
M A
Ġà®Ĩ à®ª
Ġà®Ĵ à®©à¯įà®±à¯ģà®®à¯į
Ġà®ļà®¿à®² à®µà®±à¯įà®±à¯Ī
Ġà®ªà®£ à®¿à®¯
à®± à®¿à®µà¯ģ
Ġà®µ à®¿à®²à¯įà®²à¯Ī
à®¾à®¤ à®®à¯į
Ġs y
Ġà®ħà®¤ à®©à¯įà®ª
à®µà®¿à®²à¯įà®² à¯Īà®¯à¯ĩ
Ġà®¤à¯ģà®©à¯įà®ª à¯ģà®±à¯ģà®¤à¯įà®¤
Ġà®ªà®° à®ªà¯įà®ª
à®µ à®¤à¯ģ
à®ĩ à®©à¯įà®©
Ġà®ĩà®°à¯ģà®ķà¯įà®ķà®¿à®± à®¾à®¯à¯į
Ġà®ĥà®ªà®¿à®°à¯įà®ħà®µà¯įà®© à®¿à®©à¯į
à®® à¯ģà®ķà¯įà®ķà¯ģ
à®ª à¯ģà®±
à¯ģà®¯ à®²à¯į
à¯Īà®¯ à¯ģà®Łà®©à¯į
à®µà®°à¯įà®ķà®³ à®¾
Ġà®®à¯Ģ à®£à¯įà®Łà¯ģ
à®¨ à®¾à®³
Ġà®µà®° à®¿à®ļà¯Ī
Ġà®¨ à®¾à®µ
à®®à®¾à®ķ à®ļà¯į
Ġà®¤à®£à¯įà®£ à¯Ģà®°
ti c
Ġà®ļà¯Ĩà®¯à¯įà®µ à®¤à®±à¯įà®ķà®¾à®ķ
Ġà®µà¯Ģ à®Łà¯įà®Łà®¿à®²à¯į
à®ªà¯įà®ªà®Łà¯įà®Łà¯ģà®³à¯įà®³ à®©
à®µ à®¨à¯įà®¤
U N
à®¯ à®¾à®°
rit ain
à®¨ à®¾à®Ł
Ġh ow
Ġà®µà®¿à®Łà¯įà®Ł à¯ģà®¤à¯į
T he
Ġà®µà®¿à®°à¯ģà®®à¯įà®ª à¯ģà®ķà®¿à®±à®¾à®°à¯įà®ķà®³à¯į
Ġà®µà®° à¯ģà®µà®¤
Ġà®µà®¿à®° à®Łà¯įà®Ł
à®¯ à®©à¯įà®±à®¿
à®µà®°à¯įà®ķà®³ à®¾à®©
Ġà®ļà®¿à®¨à¯įà®¤ à®¿à®¤à¯įà®¤à¯ģà®ªà¯į
Ġà®¤à¯ĭ à®²à¯įà®µ
à¯ģà®ķà¯įà®ķ à®µà¯ģà®®à¯į
Ġà®ķà¯Ĥà®± à¯ģà®ķà®¿à®±
Ġà®ħà®±à®¿à®¯ à®®à®¾à®Łà¯įà®Łà®¾à®°à¯įà®ķà®³à¯į
Ġà®¨à®¾à®Łà®¿à®¯ à®µà®°à¯Ī
Ġà®¨à®¿à®°à¯įà®ªà¯įà®ª à®¨à¯įà®¤
. %
à®ª à¯ģà®²
Ġà®ħà®µà®°à¯įà®ķà®³ à¯Īà®¯à¯ģà®®à¯į
Ġà®µà®¿à®Łà¯ģà®µ à¯Ģà®°à®¾à®ķ
Ġà®Īà®Ł à¯ĩà®±à¯įà®±
Ġà®¨ à®¾à®ļ
Ġà®µà®¿à®Łà¯ģà®µ à¯Ģà®°à¯įà®ķà®³à¯į
Ġà®µà®£à®Ļà¯įà®ķ à®¿à®ķà¯į
à®ĩà®° à¯ģà®ªà¯įà®ª
Ġà®®à®´ à¯Ī
à®ĩà®¤ à¯Īà®ķà¯į
ĠS h
Ġà®¨ à®¿à®ļà¯įà®ļà®®à®¯à®¾à®ķ
Ġà®µà®´ à®¿à®¤
à®ĩà®¤ à®¿à®²à®¿à®°à¯ģà®¨à¯įà®¤à¯ģ
Ġà®µà®¾à®ķà¯įà®ķà¯ģà®± à¯ģà®¤
Ġà®ħà®µà®±à¯įà®± à®¿à®²à®¿à®°à¯ģà®¨à¯įà®¤à¯ģ
Ġb ritain
Ġà®µà®´à®¿à®¯ à®¾à®ķà¯ģà®®à¯į
à®¿à®ķà¯įà®ķ à®¾à®¤à¯Ģà®°à¯įà®ķà®³à¯į
Ġà®ļà®® à®¯à®®à¯į
Ġà®ħà®¨à®¿à®¯à®¾à®¯à®ķà¯įà®ķà®¾à®° à®©à¯į
Ġà®® à®¾à®®
Ġà®µà®¾à®© à®¤à¯įà®¤à¯Ī
Ġà®ī à®ªà®ķ
à®ļ à®¿à®¯à®®à¯į
Ġà®ħ à®ļà®¤à¯įà®¤à®¿à®¯
Ġà®ħ à®ªà¯įà®ªà®Łà®¿à®¯à®²à¯įà®²
Ġà®ļà¯ģà®® à®ªà¯įà®ª
Ġà®İà®¤ à®©à¯Ī
Ġà®ªà®¾à®µ à®®à®©à¯įà®©à®¿à®ªà¯įà®ª
Ġà®İà®Ļà¯įà®ķà®³ à¯Īà®ªà¯į
à®Ĩ à®¤à¯ģ
Ġà®®à®©à¯įà®©à®¿à®ªà¯įà®ª à¯ģà®¤à¯į
Ġà®ĩà®µà®°à¯įà®ķà®³ à®¿à®©à¯į
Ġà®ķà®µà®© à®¿à®ªà¯įà®ªà¯Ģà®°à®¾à®ķ
Ġà®µà®¨à¯įà®¤ à®¤à¯ģà®®à¯į
Ġà®ķà¯Ĩ à®Łà¯ģà®¤à¯įà®¤
à®©à¯į City
Ġc h
Ġà®İ à®ªà¯įà®ªà®Łà®¿à®¯
Ġà®ļà¯Ĩà®¯à¯įà®ª à®µà®©à¯į
Ġc an
à®¤à¯įà®¤à®¾à®° à®¿à®Łà®®à¯į
à®īà®£ à¯įà®®à¯Īà®¯
à¯Ĩ à®©à¯įà®©
Ġà®ħà®® à¯Īà®¨à¯įà®¤
Ġà®ªà¯Ĥà®®à®¿à®¯ à®¿à®²à®¿à®°à¯ģà®¨à¯įà®¤à¯ģ
Ġà®¤à®© à®¤à¯ģ
Ġà®¨à®¿à®® à®¿à®Ł
à®¤ à¯ģà®µà¯ģà®®à¯į
Ġà®¨à®° à®ķà®¤à¯įà®¤à®¿à®©à¯į
Ġà®®à¯Ģà®¤ à¯ģà®³à¯įà®³
C K
Ġà®ħà®¤à¯Ī à®ªà¯įà®ªà®±à¯įà®±à®¿
Ġà®ħà®°à¯įà®°à®¹à¯įà®® à®¾à®©à¯į
i k
à®¿à®²à¯ģà®³à¯įà®³ à®µà¯Īà®¯à¯ģà®®à¯į
Ġà®İà®©à®ķà¯įà®ķ à¯ĩ
Ġà®ļà¯ģà®µà®©à®ªà®¤ à®¿à®ķà®³à®¿à®²à¯į
Ġà®ªà¯Ĥà®®à®¿à®¯à®¿à®²à¯ģà®³à¯įà®³ à®µà¯Īà®¯à¯ģà®®à¯į
" à®ĩà®¤à¯ģ
à®® à¯Ĩà®²à¯įà®²à®¾à®®à¯į
à®Ĩ à®ļ
Ġà®īà®£à¯įà®®à¯Īà®¯à®¾à®© à®¤à¯ģ
Ġà®īà®£ à¯įà®ª
Ġà®¤à¯Ģà®°à¯įà®ªà¯įà®ª à¯ģà®ķà¯įà®ķà¯ģà®°à®¿à®¯
Ġà®µà®´à®¿à®¯ à¯Īà®ķà¯į
à®īà®²à®ķ à®¿à®²à¯į
Ġà®¨à®±à¯įà®ķà¯Ĥà®² à®¿à®¯à¯Ī
à®¤à¯įà®¤ à¯ĩà®°
Ġà®ļà¯Ĩà®¯à¯įà®ķà®¿à®©à¯įà®± à®©à®°à¯į
Ġà®ļà®¨à¯įà®¤à¯ĩ à®ķà®¤à¯įà®¤
Ġc lass
Ġà®¤à¯Ĩà®¯à¯įà®µ à®Ļà¯įà®ķà®³à¯į
Ġ ex
Ġà®µà®¿à®Łà¯įà®Ł à¯ģà®ªà¯į
Ġà®ĩà®µà¯įà®µà¯ĩà®¤ à®¤à¯įà®¤à¯Ī
Ġà®Ĩ à®²à¯į
Ġà®ħà®©à¯ģà®ªà¯įà®ª à¯ģ
Ġà®¤à®²à¯Īà®®à¯ģà®± à¯Īà®¯à®¿à®©
à®ķ à®³
Ġà®ī à®´
à®ļ à®¾à®¨à¯įà®¤
à®Ļà¯įà®ķà®³ à¯ģà®ķà¯įà®ķà®¾à®ķ
Ġà®ªà®Ł à¯Īà®¤à¯įà®¤à¯ģ
à®¤ à¯ģà®®à®¿à®²à¯įà®²à¯Ī
à®°à¯įà®ķà®³ à®¿à®Łà®®à¯į
Ġà®ħà®Ł à¯Īà®¯à¯ģà®®à¯į
(à®¨ à¯į
Ġà®ļ à®¿à®°à®®à¯į
Ġà®ķà¯ģà®±à¯įà®± à®Ļà¯įà®ķà®³à¯Ī
- -
à®° à¯įà®ķà¯įà®ķ
à®ĩà®¨à¯įà®¤ à®ªà¯į
Ġà®ĩà®© à¯įà®ľ
Ġà®®à¯ģà®±à¯įà®ª à®Ł
à®¿à® £à¯įà®Ł
Ġà®µà®´à®¿à®ķà¯ĩà®Łà¯įà®Ł à®¿à®²à¯ĩà®¯à¯ĩ
à¯ģà®ª à®µà®°à¯įà®ķà®³à®¿à®²à¯į
Ġà®ªà¯ĩà®ļ à®¿à®ķà¯į
Ġà®®à¯ģà®Ł à¯įà®Ł
Ġà®īà®°à®¿à®® à¯Īà®¯
Ġ an
à®Ĵ à®°à¯ĩ
à¯įà®µ à®°
à®® à®¿à®ļà¯įà®ļ
à¯ģà®ªà¯įà®ª à®Ł
Ġà®īà®©à¯įà®© à®¿à®Łà®®à¯į
¨ à®¾à®®
Ġà®ĩà®µà¯įà®µà¯ģà®²à®ķ à®¿à®²à¯į
à¯ģà®¨ à®¿à®°
Ġà®¨à®ķ à®²à¯į
Ġà®ļà®¿à®¤à¯įà®¤ à®ªà¯įà®ªà®Łà¯ģà®¤à¯įà®¤à®¿
Ġà®ħà®µà®°à¯įà®ķà®³à¯ģà®ķà¯įà®ķ à®¿à®Łà¯Īà®¯à¯ĩ
Ġbut ton
à®® à¯ĩà®¯à®©à¯įà®±à®¿
Ġà®ļà®¨à¯įà®¤à¯ĩ à®ķà®®à¯į
Ġà®¤à®Ļà¯įà®ķà®¿à®¯à®¿à®°à¯ģà®ªà¯įà®ª à®¾à®°à¯įà®ķà®³à¯į
à®¤ à®¿à®±
à®ĩ à®Ļà¯įà®ķà¯ģ
à®¿à®Ł à¯į
Ġà®ħà®ķà®¿à®² à®Ļà¯įà®ķà®³à®¿à®©à¯į
à®¿à®ķà¯įà®ķà®ªà¯įà®ªà®Łà¯įà®Ł à®¾à®²à¯į
à®®à¯ģà®Łà¯Īà®¯ à®µà®©à¯į
Ġà®ķà®Ł à®¨à¯įà®¤
à®ĩà®®à¯įà®® à¯Īà®¯à®¿à®²à¯į
Ġà®ħà®©à¯įà®ª à¯ģà®Łà¯Īà®¯
Ġà®¤à¯Ģà®Ļà¯įà®ķà®¿à®´ à¯Īà®¤à¯įà®¤à¯ģà®ķà¯į
Ġà®¨ à®¿à®ķà®°
Ġà®ªà¯Ĩà®° à¯ģà®Ļà¯į
à®¿à®ķ à¯Ĩà®©à¯į
jec t
Ġà®ħà®¤à¯Ī à®ļà¯į
Ġk ey
à®ĥà®ªà®¿à®°à¯įà®ħà®µà¯įà®© à¯į
Ġà®ªà®¿à®°à®¯à®¾à®£ à®®à¯į
Ġà®¤à¯Ĩà®° à®¿à®¨à¯įà®¤à¯ģ
Ġà®ĩà®©à¯įà®ľ à¯Ģà®²
à®ħà®²à¯įà®²à®¾à®¹à¯įà®µ à¯ĩ
Ġà®ķà®£ à¯įà®ķà®³à¯į
à¯įà®µ à¯ģà®ķà®³à¯į
Ġà®ħà®ŀà¯įà®ļ à®²à¯į
à¯įà® Ĳ
Ġà®ĩ à®©à¯įà®±à¯Īà®¯
Ġà®ķà®¾à®ĥà®ªà®¿à®° à¯įà®ķà®³à®¾à®ķ
Ġw ith
Ġà®¤à¯ĩà®°à¯įà®µ à¯ģà®ķà®³à¯į
à®¿à®©à¯įà®ª à®¾à®²à¯į
à®®à®¿à®ļà¯įà®ļ à®¿à®ķà¯Ĩà®©à¯į
R egion
Ġà®ĩà®°à¯ģà®¨à¯įà®¤ à®¿à®°à¯ģà®ķà¯įà®ķ
à®ħà®µà®°à¯įà®ķà®³ à¯ģà®ķà¯įà®ķà¯ģà®ķà¯į
S E
à®ª à¯ģà®°
à®ķà¯ĭà®ªà¯įà®ª à®¿à®©à¯Ī
Ġà®ķ à¯Ĭà®Ł
Ġà®¤ à¯ģà®¤à®¿
à¯ģà®® à®²à¯įà®²
Ġà® ±
Ġà®ħà®´à¯Īà®ķà¯įà®ķ à®¿à®©à¯įà®±
à®© à¯ĭ
à®¤à®µ à®¿à®°
Ġà®ħà®Łà¯Īà®µ à¯Ī
Ġà®µà®¾à®© à®Ļà¯įà®ķà®³à®¿à®²à¯į
Ġà®ªà®Łà¯Īà®ķà¯įà®ķ à®ªà¯įà®ªà®Łà¯įà®Ł
à®ķ à¯Ĭ
à®¤à®±à¯įà®ķ à®¾à®²à®¿à®ķ
Ġà®®à®± à¯ģ
Ġà®ķà®¾à®£à¯įà®ª à®¿à®¤à¯įà®¤
Ġà®ļà¯Ĩà®¯ à®±à¯įà®ª
(à®µà¯įà®µ à¯ĩà®¤
à®¿à®® à¯ģà®±
Ġà®ļà¯Ĩà®² à¯įà®ķà®¿à®©à¯įà®±
à®¿à®¯à¯ģà®³à¯įà®³ à®¾à®©à¯į
Ġà®¤à¯ĩà®°à¯įà®¨à¯įà®¤à¯Ĩà®Łà¯ģà®ķà¯įà®ķ à®ªà¯įà®ªà®Łà¯įà®Ł
Ġà®¤ à¯ģà®³
Ġà®ķà¯ģà®° à¯įà®ªà®¾à®©
Ġà®ªà¯Ĩ à®Łà¯įà®Łà®¿
Ġà®Ĩà®ķ à¯Īà®¯à®¾à®²à¯į
Ġà®ļà®® à®¯à®¤à¯įà®¤à®¿à®²à¯į
Ġà®ķà¯ĩà®Łà¯įà®ķ à®µà®¿à®²à¯įà®²à¯Ī
Ġà®®à¯ģà®± à¯Īà®¯à®¾à®ķ
à®ķà¯įà®ķà¯Ĥ à®Łà¯ģà®®à¯į
à®µ à¯ģà®Łà®©à¯į
Ġà®ªà®¯à®©à¯įà®ªà®Łà¯ģà®¤à¯įà®¤ à®µà¯ģà®®à¯į
ul t
Ġà®µ à¯Ī
Ġà®¤à®¿à®° à¯ģà®¤à¯įà®¤à¯ģ
à®ķ à®µà®©
Ġà®®à®©à®¿à®¤ à®©à¯Ī
Ġà®ħà®® à®°à¯įà®µ
Ġà®¨à®¿à®± à¯ģà®¤à¯įà®¤à¯ģ
Ġ he
à®ĩ à®¤à®±à¯įà®ķ
Ġà®ķà¯ģà®± à¯Īà®ķà¯įà®ķ
à¯ģà®² à¯įà®²
à®µà¯ĩà®£à¯įà®Ł à¯ģà®®à®¾
Ġà®ļà®¿à®¨à¯įà®¤ à®¿à®ķà¯įà®ķ
à®¾à®ª à¯Ĩà®°à¯ģà®®à¯į
à®¤à®¿à®¯ à®¿à®©à¯į
à®® à®¿à®²à¯įà®²
à®² à®¾à®ķ
à®¿à®° à¯ģà®¤à¯įà®¤
ion s
Ġà®īà®³à¯įà®³ à®¿à®Łà¯ģ
Ġà®ĩà®±à¯Īà®µà®© à¯ģà®®à¯į
Ġà®ªà®¯à®©à¯įà®ª à®¾à®Łà¯ģ
Ġth at
Ġà®ķà¯ģà®±à¯įà®±à®µà®¾à®³ à®¿à®ķà®³à¯į
à¯Īà®¯ à®®à¯į
à®ļ à¯Ĥà®°
Ġà®İà®©à¯įà®© à¯Īà®ķà¯į
I G
à®®à¯ĩ à®²à¯į
Ġà®®à®¿à®©à¯įà®© à®ŀà¯įà®ļà®²à¯į
Ġà®ĩà®¤ à®©à®¾à®²à¯į
à®®à¯ģà®© à¯į
Ġà®ħà®ķ à®±à¯įà®±
à®ļà®¿à®± à®¿à®¤
Ġà®ļà¯ģà®²à®ª à®®à®¾à®©
à®®à®¾à®Łà¯įà®Ł à¯ĩà®©à¯į
Ġà®ķà®Łà¯Ī à®ļà®¿
Ġà®®à®¾à®±à¯įà®± à®¿à®ķà¯į
Ġà®¤à¯ĩà®°à¯įà®µ à¯ģà®ļ
à®¤ à¯Ĩà®³à®¿à®µ
à®ħà®£à¯ģà®ķ à®ķà¯įà®ķà¯Ĥà®Łà®¿à®¯
Ġà®ħà®ļà¯įà®ļ à¯ģ
Ġà®ªà®¯ à®¨à¯įà®¤
Ġs ub
à®¨à®¿à®² à¯Īà®¯à®¾à®©
à®ļ à¯ĭà®¤
Ġà®¨à®¿à®° à®²
Ġà®¤à®¿à®Łà¯Ģà®° à¯Ĩà®©
Ġà®®à¯ģà®¨à¯įà®¤ à¯Īà®¯
Ġà®Ĳ à®¯à®¾
Ġà®ªà®¿à®©à¯įà®© à®£à®¿
ar y
à®®à®¤ à®¿à®ªà¯įà®ªà¯ģ
à®ĩ à®²à¯įà®²
Ġà®ķà®Łà¯įà®Łà®³ à¯Īà®ķà¯įà®ķà¯ģ
Ġà®ķ à®¾à®µà®²à¯į
Ġà®īà®³à¯įà®³ à¯Ģà®Łà¯ģ
à®¤à¯ģà®µ à®¾à®ķ
o st
à¯ģà®ķà®³à¯Ī à®¤à¯į
Ġà®Ĩà®¯ à®¿à®±à¯įà®±à¯ģ
Ġà®ıà®±à¯įà®ªà®Łà¯ģà®¤à¯įà®¤ à®¿à®¯
Ġà®ļà¯Ĩà®¯à®²à¯įà®ª à®Ł
à¯ģà®£à®° à¯įà®ķà®¿à®±à¯ĩà®©à¯į
à®¾à®Łà¯įà®Ł à®¿à®²à¯į
à®¿ Name
à®¾à® ¨
Ġà®ķ à®¿à®£
an ia
à®ļà¯Ĩ à®²à¯įà®µ
Ġà®¤à®ķà®µ à®²à¯Ī
à®ĩ à®¤à¯Īà®ªà¯į
er e
Ġà®µà®°à¯Ī à®ªà®Ł
Ġà®ªà¯Ĭà®° à¯ģà®¨à¯įà®¤
à®®à¯ģà®¤à®² à®¿à®²à¯į
à®¾à®¹ à¯į
Ġà®Ĩà®£à¯įà®Ł à¯ģà®ķà®³à¯į
Ġà®¤à¯Ĭà®Łà®° à¯įà®ª
à®µ à®¾à®¤
Ġà®ķà¯ģà®± à¯Īà®¤à¯įà®¤à¯ģ
à®ª à®ļà¯Ĥ
Ġà®® à®£à®¿
Ġà®¤à®¾à®Ļ à¯įà®ķà®³à¯ĩ
à®® à¯Īà®¯à®¿à®²à¯į
à®¾à®£ à¯įà®ª
à®µà¯Īà®¯ à®¾à®ķà¯ģà®®à¯į
Ġà®¤à¯ĩà®µà¯Īà®¯ à®±à¯įà®±
à®µ à¯Īà®¯à¯ĩ
à®© à¯ģà®ķà¯įà®ķà¯ģà®®à¯į
p er
à¯ģà®µ à®¾à®¯
à®³ à®©
il ipp
ilipp ines
à®¿à®¯ à®®
Ġà®µà®° à®¿à®ļ
à®ħ à®µà®±à¯įà®±à®¿à®²à¯į
à®¤ à®¾à®®à¯į
Ġà®ļà¯Ĩà®¯à¯įà®¤ à¯ģà®µà®¿à®Łà¯įà®Ł
Ġà®¤à®Ļà¯įà®ķ à®¿à®¯
à®ª à®¿à®Ł
Ġà®¨à®¾à®Ł à¯įà®ķà®³à¯į
Ġà®¤à®¿à®°à¯ģà®® à®£à®®à¯į
Ġà®ħà®Łà®¿à®¯à®¾à®°à¯įà®ķà®³ à¯ģà®ķà¯įà®ķà¯ģ
Ġà®µà¯Ĩà®³à®¿à®ªà¯įà®ªà®Ł à¯Īà®¯à®¾à®©
à®ı à®´
Ġà®İà®²à¯įà®² à®¾à®ķà¯į
ind ow
d s
Ġà®ķ à¯ģà®©
à®ķà¯ĩ à®³à¯įà®µ
à¯įà® ®à¯į
Ġà®µà®°à®®à¯įà®ª à¯Ī
Ġà®ļà¯ģà®® à®ķà¯įà®ķ
Ġà®ªà®Łà¯įà®Łà®¿à®¯ à®²à®¿à®²à¯į
à¯ģà® İ
Ġà®¨à¯Ģ à®Ļà¯įà®ķ
à®ĩ à®¨à¯įà®¨
Ġà®®à®° à®¿à®ķà¯įà®ķà®ļà¯į
Ġà®īà®°à¯Īà®¯à®¾à®Ł à®²à¯į
à¯ģà®ķà¯įà®ķ à¯ģà®³à¯įà®³
Ġà®ĩà®´ à®¨à¯įà®¤
ph ilippines
à®ªà¯įà®²à¯Ģ à®¸à¯į
à®¿à®©à®¾à®² à®©à¯įà®±à®¿
Ġà®ªà¯ĩà®°à¯Ģ à®¤à¯įà®¤
à®ħ à®ªà¯įà®ªà®Łà®¿à®¯
Ġà®ħà®³à®¿à®¤à¯įà®¤ à®¾à®©à¯į
Ġà®¨à®Łà®ķà¯įà®ķ à¯ģà®®à¯į
à®¨à¯Ģ à®Ļà¯įà®ķà®³à¯ģà®®à¯į
Ġà®ħà®Ł à®¿à®ļà¯įà®ļ
à®Ĵà®° à¯ģà®µ
Ġà®İà®¤à®¿à®°à¯įà®ª à®¾à®°
à®ªà®¯ à®©à®°à¯į
Ġà®®à¯ģà®©à®¾à®ĥà®ª à®¿à®ķà¯įà®ķ
A E
t or
à®® à¯Ĭà®´
Ġà®ļà®¾à®Łà¯įà®ļ à®¿à®¯à®®à¯į
Ġà®īà®±à¯ģà®¤ à®¿à®®
o s
Ġà®¨à®¾à®³ à®¿à®²à¯ģà®®à¯į
à®µà¯ĩà®¤ à®¤à¯įà®¤à¯Īà®¯à¯ģà®Łà¯Īà®¯
a k
à®¾à®£à¯įà®Ł à¯įà®¸à¯į
à®ħà®µà¯įà®µà®¾à®± à®¾à®¯à®¿à®©à¯į
Ġà®ļà¯Ĩà®¯à¯įà®¯ à¯ģà®®à®¾à®±à¯ģ
Ġà®ħà®Ł à¯ģà®ķà¯įà®ķ
Ġà®ķà®£ à¯į
Ġà®ħà®ķà®¿à®² à®¤à¯įà®¤à®¾à®°
à®ªà®¿à®´ à¯Ī
Ġà®ķ à¯Īà®¯à®¿à®²à¯į
à®ª à¯ģà®³à¯įà®³
Ġà®ļ à®¾à®²
Ġà®ħà®¤à¯Ī à®µà®¿à®Ł
à®Ĵ à®³
Ġà®¤à¯Ĥà®¤à®°à¯įà®ķà®³ à¯Īà®¯à¯ģà®®à¯į
Ġà®ªà®ķà®² à¯Īà®¯à¯ģà®®à¯į
C D
à¯ģà®ķ à¯ģ
à®¸ à®®à¯Ĥà®¤à¯ģ
Ġà®¸ à®®à¯Ĥà®¤à¯ģ
Ġà®ªà¯Ĥà®° à¯įà®¤à¯įà®¤à®¿
Ġà®µà®¿à®· à®®
Ġà®¤à®¿à®° à®¾à®Łà¯įà®ļ
Ġà®ªà®±à¯įà®± à®¿à®¤à¯į
à®ļà®¤à¯įà®¤à®¿à®¯ à®¤à¯įà®¤à¯Ī
Ġà®ļà®¿à®¤ à®±
Ġà®®à®¾à®±à¯įà®± à®®à¯į
Ġà®ªà®Łà¯įà®Łà®¿à®¯ à®²à¯Ī
Ġà®ļà®ķà¯įà®¤à®¿à®¯ à®±à¯įà®±
Ġà®ħà®®à¯įà®® à®¾
à®®à®² à®ķà¯įà®ķ
à®® à®¾à®Ł
Ġà®µà¯ĩà®¤ à®¤à¯įà®¤à®¿à®²à¯į
Ġà®ªà®£ à®¿à®¨à¯įà®¤à¯ģ
à®´ à®¿
Ġà®ĩà®°à¯ģà®ķà¯įà®ķà®¿à®± à¯Ģà®°à¯įà®ķà®³à®¾
Ġà®ĵ à®¯
Ġà®ªà¯Ĭ à®¤à¯ģ
Ġà®ı à®°à®¾à®³à®®à®¾à®©
à®¯à®¾à®µ à®°à¯ģà®®à¯į
à®ķ à¯įà®¸
Ġà®ħà®¤à®© à¯Īà®ªà¯į
Ġà®ªà¯Ĥà®®à®¿à®¯ à®¿à®©
à®Łà¯Īà®¨à¯įà®¤ à®¤à¯ģ
Ġà®®à®´ à¯Īà®¯à¯Ī
Ġà®ħà®³ à®¿à®ķà¯įà®ķà®ªà¯įà®ªà®Łà¯įà®Ł
à¯Ģ à®¸à¯į
à®°à¯įà®ķà®³ à®¾à®©
à¯ģà®° à¯įà®Ĩ
Ġà®¤à®¿à®° à®Łà¯įà®Ł
h t
Ġà®ħà®µà®° à¯Īà®¤à¯į
à®¾à®¤ à®¿à®°à¯ģà®ªà¯įà®ª
Ġà®µà¯Īà®ªà¯įà®ª à®¾à®¯à®¾à®ķ
Ġà®·à¯Īà®¤à¯įà®¤à®¾à®© à¯įà®ķà®³à¯į
Ġà®µà®¹à¯Ģ à®¯
Ġà®ļà®¿à®²à®° à¯Īà®µà®¿à®Ł
à¯ Į
à®² à®µ
Ġà®ļà¯Ĩà®¯à¯įà®¤ à¯ģà®µà®¿à®Ł
Ġà®ħà®¤à®¿à®ķ à®®à®¾à®ķà¯įà®ķ
Ġà®ļà¯Ĩà®¯à¯įà®ª à®µà®°à¯įà®ķà®³à¯Ī
Ġà®ªà®¯à®©à¯įà®ªà®Łà¯ģà®¤à¯įà®¤ à®ªà¯įà®ªà®Łà¯ģà®®à¯į
Ġà®ªà®±à¯įà®± à®¿à®ªà¯į
Ġà®¨ à®¿à®¤à¯įà®¤à®¿à®¯
Ġà®ķà¯Ĥà®± à®¿à®ķà¯į
Ġà®µà®¿à®µ à®¾à®ķà®®à¯į
Ġà®ķà®£à®ķà¯įà®ķ à¯ģà®ķà¯į
Ġà®īà®£à¯įà®® à¯Īà®¯à¯ĩ
Ġà®¨ à®¿à®
à®ĩ à®ªà¯įà®±à®¾à®¹à¯Ģ
Ġà®ļà®®à¯Ĥà®ķà®¤à¯įà®¤à®¾à®° à¯ģà®®à¯į
Ġà®ħà®¤à¯įà®¤à®¾à®Łà¯įà®ļà®¿à®ķà®³ à¯Īà®¯à¯ģà®®à¯į
Ġà®ªà®Łà¯Īà®ķà¯įà®ķ à®µà®¿à®²à¯įà®²à¯Ī
Ġà®¹à®² à®¾à®²
à®ī à®®à®ķà¯įà®ķà¯ģ
Ġà®ķà®¾à®ĥà®ªà®¿à®° à¯įà®ķà®³à®¿à®©à¯į
Ġà®¤à¯Ĥà®¤à®°à¯įà®ķà®³ à®¿à®²à¯į
Ġà®īà®Łà®©à¯įà®ª à®Łà®¿à®ķà¯įà®ķ
à¯Īà®µà®¿à®Łà¯įà®Ł à¯ģà®®à¯į
à¯ĩ à®¤à®®à¯į
à®¿à®Ł à®¤à¯įà®¤à®¿à®²à®¿à®°à¯ģà®¨à¯įà®¤à¯ģ
Ġà®¤à¯ĩ à®Łà¯ģ
Ġà®İà®µà®° à¯ģà®ķà¯įà®ķà¯ģà®®à¯į
ĠC D
à®¾à®µ à®¾à®°à¯į
Ġà®ħà®±à®¿à®µ à®¿à®²à¯įà®²à®¾à®¤
Ġà®µà®´à®¿à®ª à®Łà¯įà®Łà¯ģ
Ġà®ķà®³à®¿à®® à®£à¯įà®£
Ġà®ķ à®²à¯įà®²
Ġà®ħà®µà®°à¯įà®ķà®³ à®¿à®Łà®¤à¯įà®¤à®¿à®²à¯į
Ġà®Ĵà®° à¯ģà®Ļà¯įà®ķ
Ġà®Ĭ à®°à¯Ī
Ġà®®à®¿à®ķà¯Īà®¤à¯įà®¤ à®µà®©à®¾à®ķà®µà¯ģà®®à¯į
Ġà®ļà®¨à¯įà®¤à®¿à®° à®©à¯Īà®¯à¯ģà®®à¯į
à®£à¯įà®Ł à¯Ī
Ġà®ªà¯ĩ à®°à¯į
à®¿à®® à®¾à®±à¯įà®±
à®¿à®©à®° à¯ģà®ķà¯įà®ķà¯ģ
(à®¨ à¯įà®¨
à®¾à®° à¯Ī
à¯Ĩà®¤à®¿à®° à®¾à®ķ
à®µ à¯ĭ
Ġà®ħà®²à¯įà®²à®¾à®¹à¯įà®µ à¯ģà®ķà¯įà®ķà®¾à®ķ
Ġà®ªà®¿à®©à¯įà®ªà®±à¯įà®± à¯ģà®ķà®¿à®±à®¾à®°à¯įà®ķà®³à¯į
à®ķ à¯Ĩà®²
Ġà®Ĩ à®¤à¯ģ
à¯įà®¨à¯įà®¤ à®¿à®°à¯ģà®ªà¯įà®ª
Ġà®ªà®° à¯ģà®ķ
Ġà®Ĵà®Łà¯įà®Ł à®ķ
à®ªà®¯à®©à¯įà®ª à®Łà¯ģà®¤à¯įà®¤
Ġà®ķà®Łà¯Īà®ªà¯įà®ªà®¿à®Ł à®¿à®¤à¯įà®¤à¯ģ
Ġà®¨à®¾à®³ à¯Īà®¯à¯ģà®®à¯į
à®ħà®ķ à®¿à®²
à®ķà¯ģà®±à¯įà®± à®µà®¾à®³
Ġà®ªà®¿à®° à®¤
Ġà®µà®¿à®² à¯Īà®ķà¯įà®ķà¯ģ
Ġà®īà®¯à®¿à®° à¯įà®ķà®³à¯Īà®¯à¯ģà®®à¯į
à®¿à®Łà®®à®¿à®°à¯ģà®¨à¯įà®¤ à¯ģà®³à¯įà®³
à¯įà®¤ à¯į
Ġà®µà®ļ à®ªà¯įà®ªà®Łà¯ģà®¤à¯įà®¤
Ġà®ŀ à®¾à®ª
à®° à¯ģà®µ
Ġà®ķ à®¾à®³
Ġà®ħà®ªà¯įà®ª à¯Ĩà®£
Ġà®ħà®® à¯Īà®¯à¯ģà®®à¯į
à®ħà®° à¯ģà®³à¯į
à¯Īà®ķà¯įà®ķ à¯ģà®³à¯į
Ġa s
Ġà®¤à®Ļà¯įà®ķ à®¿à®¯à®¿à®°à¯ģà®¨à¯įà®¤
Ġà®ħà®Łà®¿à®¯ à®¾à®°à¯įà®ķà®³à¯į
à¯ģà®µà®¤ à¯Ĩà®²à¯įà®²à®¾à®®à¯į
à®¿à®ķà¯įà®ķ à®ªà¯įà®ªà®Łà¯ģà®µà®¾à®°à¯įà®ķà®³à¯į
à¯ģà®®à¯įà®ªà®Ł à®¿à®¯à¯ģà®®à¯į
Ġà®ķà¯Ģà®´à¯įà®ª à®Łà®¿à®¯à¯ģà®Ļà¯įà®ķà®³à¯į
à®ħ à®³à®µà¯ģ
Ġà®ªà®°à®¿à®ķ à®¾à®°
à®ħà®± à®¿à®¨à¯įà®¤à¯ģ
Ġà®ĩà®±à¯Īà®µà®© à¯Īà®ªà¯į
Ġà®¨à®¾à®³ à®¾à®ķà¯ģà®®à¯į
Ġà®¨à®©à¯įà®ķà®±à®¿à®ª à®µà®©à®¾à®ķà®µà¯ģà®®à¯į
Ġà®ķà¯ģà®Łà¯ģà®®à¯įà®ªà®¤à¯įà®¤à®¾à®° à¯Īà®¯à¯ģà®®à¯į
Ġ _
à®¤ à®²à¯įà®²
Ġà®µà®¯ à®¿à®±
Ġà®¤à®¿à®°à¯ģà® ¨à®¾à®®
l and
Ġ ra
à®¯ à®¾à®ķà¯ģà®®à¯į
à®® à®¾à®¤
Ġà®µà®¾à®Ļà¯įà®ķ à®¿à®ķà¯į
à®µ à®¾à®ķ
m age
à®ħ à®µà®±à¯įà®±
à®ļà¯Ĩà®¯ à¯įà®¯
Ġà®ħà®³à®¿à®¤à¯įà®¤ à¯ģà®³à¯įà®³
Ġà®ªà¯Ĭà®¤à¯įà®¤ à®¾à®©à¯į
Ġà®µà®¿à®°à¯ģà®ªà¯įà®ª à®¤à¯įà®¤à¯ĩà®°
Ġà®ªà®¾à®° à¯ģà®®à¯į
Ġ option
Ġà®µà®ļ à®¿à®¤à¯įà®¤
Ġà®ķà®¾à®² à¯Īà®¯à®¿à®²à¯ģà®®à¯į
I L
Ġà®ķà®´ à¯ģà®¤
Ġà®¨à¯Ģ à®Łà¯įà®Ł
à®ª à¯įà®Ł
à®¾à®°à¯įà®ķà®³ à®¾à®ķ
Ġà®ļà¯ĩ à®µà®ķ
à®³à®µ à®¿à®²à¯į
à®ķà¯ģà®°à¯įà®Ĩ à®©à¯į
D VD
à¯Ĭ à®ªà¯įà®ª
à®ªà¯Ĩ à®±
à®² à®¾à®®à®¾
Ġà®ª à¯ģà®£à®°à¯įà®ķà®¿à®±à¯ĩà®©à¯į
Ġà®ķà®¾à®Łà¯įà®Ł à¯ģà®ķ
ĠS erver
Ġà®ļà¯Ģ à®Łà¯įà®Łà¯ģ
e p
Ġà®µà¯Ĩà®³à®¿à®¯à¯ĩ à®±à¯įà®±à®¿
Ġà®ħà®´à®ķ à®¾à®ķ
à¯Ģ à®®à¯į
à®ªà¯Ĭ à®²
Ġà®µà®¿à®Ł à®²à®¾à®®à¯į
Ġà®° à®ªà¯įà®ª
p i
Ġà®ĩà®´ à®ķà¯įà®ķ
Ġà®µà¯Ĩà®³ à®¿à®ļà¯įà®ļ
à®ħà®ªà¯įà®ª à®¾à®²à¯į
Ġà®µà¯Ģà®Ł à¯ģà®ķà®³
ou r
à®© à¯Īà®¯à®¾à®ķ
Ġà®ħà®± à®¿à®ķ
Ġà®İà®´ à¯ģà®¨à¯įà®¤
ĠD PI
à®¨ à®¾à®³à¯į
à®Łà¯įà®Ł à¯ģà®®à®¾
Ġà®ªà®¾à®µ à®¿à®ķà®³
Ġà®ļà¯ĩà®°à¯įà®ķà¯įà®ķ à¯ģà®®à¯į
Ġà®ķà®µà®²à¯Ī à®ªà¯įà®ªà®Ł
Ġà®¤à¯Ĩà®° à®¿à®ķà®¿à®±à®¤à¯ģ
Ġà®µà®¿à®ļ à¯Īà®¯à¯Ī
Ġà®ħà®´à¯ģà®¤à¯įà®¤ à®µà¯ģà®®à¯į
Ġà®ļà¯Ĩà®µà®¿à®¯à¯ĩ à®±à¯įà®±
Ġà®¨ à¯Ĩà®Ł
à®Ł à¯ĩ
Ġb y
Ġà®¨ à®¿à®¨à¯įà®¤
Ġà®ĩ à®²à¯įà®²à®¾à®®
Ġà®µà®¾à®´à¯įà®µ à®¿à®²à¯į
à®¤à®¿à®¯ à®¾à®©
Ġà®İ à®Łà¯įà®Ł
Ġà®®à®¤à®¿à®ªà¯įà®ª à¯Ī
à®ħ à®©à¯Ī
Ġà®ļà¯ģà®µà®°à¯įà®ķà¯įà®ķ à®ļà¯į
Ġà®®à¯ģà®Łà®¿à®¨à¯įà®¤ à®¤à¯ģ
Ġà®İà®´ à¯ģà®¤à¯įà®¤à¯ģ
Ġà®ļà¯Ĩà®¯à¯įà®ķà®¿à®± à¯Ģà®°à¯įà®ķà®³à¯į
Ġà®¤à®ķ à¯įà®µ
(à®ĩ à®¤à®±à¯įà®ķà¯ģ
à®İà®´à¯ģà®¤à¯įà®¤ à¯ģà®°à¯ģ
à®® à®¿à®Łà¯įà®Ł
à®¿à®ķà¯įà®ķà®¿à®± à®¾à®°à¯į
à®¨ à®©à¯įà®±à®¿
Ġà®İà®© à¯ģà®®à¯į
ic o
à®¿à®ªà¯įà®ª à¯Ī
Ġà®ķà®´ à¯ģà®¤à¯įà®¤
à®ļà®¾à®³à®° à®¤à¯įà®¤à¯Ī
à¯ģà®µà¯ĩ à®³à¯Ī
à®ħ à®µà®³
à¯įà®ķà¯įà®ķ à¯Ī
à®İà®¤ à¯ģà®µà¯ģà®®à¯į
n s
à¯Īà®ķà¯įà®ķ à®ªà¯įà®ªà®Łà¯įà®Ł
Ġstat us
Ġà®ķà®© à®µ
à®¨ à®¾à®Ļ
r ess
à®¤ à®¾à®¯à¯į
à®¨à®¿à®± à®®à¯į
Ġà®ħà®± à®¿à®ķà¯įà®ķ
Ġà®ªà®¾à®°à¯įà®µ à¯Ī
Ġà®īà®£à¯įà®®à¯Īà®¯ à®¾à®ķ
à®¿à®° à¯Ī
à®Ĩ à®£à¯į
à®® à¯ģà®ķà¯įà®ķà®¿à®¯
Ġà®µ à®²à¯Ī
Ġà®®à®©à¯įà®© à®¿à®¤à¯įà®¤
Ġà®¤à®² à¯Īà®ªà¯įà®ª
à®ķà®£ à®¿à®©
Ġà®ļà¯Ĩà®µà®¿à®¯à¯ĩà®±à¯įà®ª à®µà®©à¯į
à®µà®£ à®ķà¯įà®ķà®®à¯į
bo x
ment s
à¯Īà®µ à¯Ĥà®Łà¯įà®Ł
c es
à®© à®¿à®ķà¯įà®ķ
Ġà®ķà¯ĭà®ªà¯įà®ª à®¿à®©à¯į
u st
à¯Ĩ à®²à¯įà®²
Ġà®®à¯ģà® ¹
Ġà®ħà®´ à¯Īà®¯à¯ģà®Ļà¯įà®ķà®³à¯į
à¯Ĩà®© à¯įà®Łà¯į
Ġà®īà®¯à®¿à®° à¯ģà®Łà®©à¯į
" à®Ĩà®©à®¾à®²à¯į
à®īà®£ à¯įà®®à¯Īà®¯à®¾à®©
à®¿à®ķà¯įà®ķ à®µà®¿à®²à¯įà®²à¯Ī
Ġà®µà¯Ģ à®ļ
à®ªà¯įà®ª à®¿à®°
à®ļ à®¿à®Łà®¿
' %
à®¿à® ŀ
Ġà®ªà¯ĭ à®ķ
à¯įà®¯ à¯ģ
à¯įà®¯ à®©à¯į
à®¿à®ķà®³à¯Ī à®¤à¯į
à®¾à®° à¯įà®µ
Ġà®¤à®¿à®± à®¨à¯įà®¤à¯ģ
Ġà®¤ à®±à¯įà®ªà¯ĭà®¤à¯Īà®¯
à®² à¯įà®¸à¯į
à®¿à® ĩ
Ġà®¨à®Ł à®ªà¯įà®ªà¯ģ
Ġme ss
Ġà®ķà®°à¯ģà®£ à¯Ī
Ġà®ļ à®¿à®ª
Ġà®ķà¯ĭ à®°
Ġà®¨à®®à¯įà®ªà®¿à®ķà¯įà®ķ à¯Īà®ķà¯įà®ķà¯ģà®°à®¿à®¯
Ġà®ªà®¾à®¤à¯ģà®ķà®¾à®ªà¯įà®ª à¯ģ
Ġà®®à®¾à®® à®¿à®ļ
à®® à¯ģà®±à¯įà®±
à®® à®Łà¯Īà®¯
Ġà®µà®¿à®Ł à¯ģà®¤à®²à¯Ī
Ġà®ķà®¾à®°à®£ à®¤à¯įà®¤à®¿à®©à®¾à®²à¯į
Ġà®ķà¯Ĥ à®Łà¯įà®Łà¯ģ
à¯ģà®ª à®µà®°à¯įà®ķà®³à¯ģà®ķà¯įà®ķà¯ģ
à®¿à®¯à®¾à®ķ à®ªà¯į
Ġà®ķà®° à¯ģà®¤à®¿
Ġà®®à®©à®¿à®¤ à®°à¯į
à®İ à®¤à¯Īà®¯à¯ģà®®à¯į
Ġà®¤à¯ĩ à®¤à®¿
Ġà®ķà®¿à®Ł à¯Īà®¯à®¾à®¤à¯ģ
à¯ģà®® à®¤
Ġà®®à®© à®®à¯į
Ġà®ľ à¯Ģ
Ġà®µà®¯ à®¤à¯ģ
' čĊ
Ġà®µà¯ĩ à®³à¯Ī
Ġà®İ à®£
à®ħ à®ªà¯įà®ªà®Ł
Ġt ype
or m
à®© à¯ģà®ªà¯įà®ª
à®¤à¯įà®¤ à®¾à®ķà¯įà®ķ
or e
Ġà®ĩà®¯ à®Ļà¯įà®ķ
Ġà®ķà®¾à®£à¯įà®ª à®¿à®ªà¯įà®ª
Ġà®¨à®Łà®¨à¯įà®¤ à®¤à¯ģ
à®¨ à®¿à®¯à®¾à®¯
el la
Ġà®¨à®¿à®¯à®¾à®¯ à®®à®¾à®©
Ġà®Ĩà®±à¯įà®± à®²
Ġà®µà®´ à®¿à®¯à®¾à®ķ
Ġà®¨à®¾à®© à¯ĩ
Ġà®¤à¯Ĭà®Łà®° à¯įà®ªà¯ģ
à®¿à®°à®¿à®¯ à®°à¯į
Ġà®µà®¨à¯įà®¤ à®¾à®°à¯į
Ġà®µà®¾à®´à¯įà®ķà¯įà®ķ à¯Īà®¯à®¿à®©à¯į
Ġà®®à¯Ĩà®¯à¯įà®¯ à®¾à®ķ
à®¿à®ľ à¯įà®°
à®²à¯įà®² à®©à¯į
Ġà®ħà®°à¯ģà®ķ à¯ĩ
Ġà®ļà®®à®¾à®¤ à®¾à®©à®®à¯į
Ġà®¨à®¿à®©à¯Īà®¤à¯įà®¤ à¯ĩà®©à¯į
à®ħ à®Łà¯įà®Łà®µà®£à¯Ī
Ġà®µà®² à®¿à®®à¯Ī
à®¿à®° à®£à¯įà®Łà¯ģ
Ġà®ķà¯Ĥà®Łà¯įà®Ł à®®à¯į
Ġà®®à¯ģà®Ł à®ķà¯įà®ķà¯ģ
Ġà®ļà¯Ĩà®¯à¯įà®ķà®¿à®± à®¤à¯ģ
à®Łà¯įà®Ł à¯ĭ
Ġà®µà®¨à¯įà®¤ à®¾à®²à¯ģà®®à¯į
Ġà®ļ à®µà®©
Ġà®ªà®² à®ķ
à®Ĵà®° à¯ģà®µà¯ĩà®³à¯Ī
Ġà®¨à®Łà®ķà¯įà®ķ à®¿à®±à®¤à¯ģ
à®¾à®° à¯Īà®¯à¯ģà®®à¯į
à¯įà®© à¯ģ
à®¾à®ļ à¯Ī
Ġà®µà®¿à®°à¯ģà®®à¯įà®ª à¯ģà®µ
Ġà®² à®¿à®²à¯įà®²
Ġà®ħà®µà®° à¯ģà®ķà¯įà®ķà®¾à®ķ
à¯Ĭ à®©à®¿à®¯à®¾
à®ħà®µà®°à¯įà®ķà®³ à¯Īà®ªà¯į
à®¿à®ĥà®ª à¯Ĭà®©à®¿à®¯à®¾
à®ķà¯Ĩà®² à®¿à®ĥà®ªà¯Ĭà®©à®¿à®¯à®¾
à®¾à®Łà¯įà®Ł à®¿à®©à¯į
Ġà®ªà®¯ à®£à®®à¯į
Ġà®ªà®° à®¿à®¨à¯įà®¤
Ġà®¨à®¿à®©à¯Īà®µ à®¿à®²à¯į
Ġà®¤à¯Ĭà®Ł à®Ļà¯įà®ķ
1 00
à®¨ à®®à®¤à¯ģ
à®ķà®Łà¯Ī à®ļà®¿
à¯ģà®®à®¾à®± à¯ģà®®à¯į
Ġà®ļà¯ĩà®°à¯įà®ªà¯įà®ª à®¾à®©à¯į
Ġ Â
à¯Ģà®° à¯įà®ªà¯įà®ª
à®® à®£
Ġà®ļà¯Ĩà®¯à¯įà®µ à®¤à®¿à®²à¯į
Ġà®¤à®² à®¾à®ķà¯į
Ġà®ªà¯Ĩà®£à¯įà®ķà®³ à¯ģà®ķà¯įà®ķà¯ģà®®à¯į
Ġà®ħà®µà®© à®©à¯įà®±à®¿
Ġà®µà®¿à®Ł à¯ģà®ķà®¿à®±à®¾à®©à¯ĭ
Ġà®ļà¯Ĩà®¯à¯įà®ª à®µà®©
à®¤à®¾à®ķ à®ķà¯į
à®ļà¯Ĩà®¯ à®²à¯į
p ort
à®° à¯įà®Ł
Ġà®¨à¯ĩà®° à¯įà®®à¯Īà®¯à®¾à®©
Ġà®ļà®¨à¯įà®¤ à®¿à®¤à¯įà®¤
à®¾à®®à®² à®¿à®°à¯ģà®ķà¯įà®ķ
Ġà®ķà¯Ĥà®Łà¯įà®Łà®¤à¯įà®¤à®¾à®° à¯Ī
à®ª à¯Ĭà®°à¯ģà®³
à¯ģà®ķà®¿à®©à¯įà®± à®¤à¯ģ
Ġà®ĩà®µà®°à¯įà®ķà®³ à¯ģà®®à¯į
à®¤ à®¿à®²à¯ģà®®à¯į
Ġà®ķ à¯ģà®£
Ġà®ļà®¿à®¨à¯įà®¤ à®¿à®¤à¯įà®¤à¯ģ
Ġà®ķà¯Ĥà®±à¯ģà®µ à®¤à¯Ī
Ġà®ªà®Łà¯įà®Ł à®¿
Ġà®¨à®¾à®Ł à®¿à®©à®¾à®²à®©à¯įà®±à®¿
à®®à¯ģà® ¸à¯įà®²
Ġà®µà®ķà¯Īà®¯ à®¾à®©
à®ŀà¯įà®ļ à®®à¯į
à®ľ à®¾à®ķà¯į
Ġà®µà®°à®²à®¾à®±à¯įà®± à¯Ī
à®¿à®ľà¯įà®° à®¤à¯į
Ġà®ĩà®°à¯ģà®ķà¯įà®ķà®¿à®©à¯įà®± à®¾à®°à¯į
Ġà®®à®¯ à®ķà¯įà®ķ
Ġà®ĩà®±à¯Īà®µà®© à®¾à®²à¯į
Ġà®¯ à®¾à®ķà¯ģà®®à¯į
Ġà®° à¯ģà®ķà¯Ĥ
Ġà®°à¯ģà®ķà¯Ĥ à®ĥ
Ġà®¨à®¾à®¯à®© à®¿à®²à¯įà®²à¯Ī
Ġ Ã
O M
à®ħà®¨ à¯įà®¨
) !čĊ
Ġà®ļà¯Ĩà®¯à¯įà®ª à®µà®°
Ġà®µà®ļà®© à®Ļà¯įà®ķà®³à¯Īà®¯à¯ģà®®à¯į
Ġà®¤à®Ļà¯įà®ķà®³ à®¿à®Łà®®à¯į
à®® à®Łà¯įà®Łà¯ģà®®à¯į
Ġà®İà®µà®° à¯ģà®ķà¯įà®ķà¯ģ
Ġà®¤à¯Ĥà®° à®®à¯į
3 60
à¯įà®ķà®³ à®¾à®²à¯į
Ġà®ļà®° à®¿à®¯
à®¤à®° à¯įà®²
Ġà®µà¯Ĩà®³à¯įà®³ à¯Ī
à®¤ à®¿à®ķ
Ġà®ķ à¯Īà®ķà®³à¯Īà®¯à¯ģà®®à¯į
à®Łà¯įà®Ł à®¿à®©à¯į
Ġà®İà®¤ à®©à¯į
à®ķà¯įà®ķà®¾à®° à®°à¯įà®ķà®³à¯į
Ġà®ªà¯ĭ à®©à¯įà®±
à®ªà®¯à®ªà®ķà¯įà®¤à®¿à®¯ à¯ģà®Łà¯Īà®¯
à®¨à¯įà®¤ à®®à¯į
Ġà®ħà®° à®ªà®¿
Ġà®ıà®±à¯įà®ª à®Łà¯įà®Łà¯ģ
Ġà®Ĩà®£ à¯įà®ķà®³à¯į
Ġà®Ĩà®µ à®£à®®à¯į
à¯Ĥà®° à¯įà®µ
à®ĩà®±à¯Īà®µà®© à®¿à®©à¯į
Ġà®ļ à®¤à®¾
Ġà®ĩà®° à®µà¯Īà®¯à¯ģà®®à¯į
à®¸ à®²à®¾à®®à¯į
Ġà®ªà®Łà®¿à®ªà¯įà®ª à®¿à®©à¯Ī
à®¾à®¯ à®¿à®±à¯įà®±à¯ģ
Ġà®ļà¯Ĩà®¯à¯įà®¤ à®µà®°à¯įà®ķà®³à¯į
Ġà®ļà¯Ĩà®¯à¯įà®¯ à®¾à®¤à¯ģ
Ġà®µà®¿à®Ł à¯ģà®ķà®¿à®©à¯įà®±à®©à®°à¯į
Ġà®ķ à¯Īà®¤à¯įà®¤
à®® à¯ĩà®¯à¯ĩ
à®ħà®²à¯įà®²à®¾à®¹ à¯įà®¤à®¾à®©à¯į
Ġà®İà®©à¯įà®± à¯ĩ
à¯ģà®ķ à®ļà¯į
Ġà®ħà®Ł à®¿à®¤à¯įà®¤à¯ģà®ķà¯į
Ġà®ļà®¨à¯įà®¤ à®¿à®ķà¯įà®ķ
Ġà®®à¯ģà®ĥà®®à®¿à®© à¯įà®ķà®³à¯Ī
Ġà®ļ à®¾à®®à¯įà®ª
Ġà®¨à®¿à®ļà¯įà®ļà®¯à®®à®¾à®ķ à®¤à¯į
à®ªà®° à®¿à®ķ
( à®ªà®¿à®©à¯įà®©à®°à¯į
Ġà®®à®± à¯ģà®ķà¯įà®ķ
Ġà®®à¯Ĥ à®Łà¯ģ
1 4
Ġà®ļà¯ģà®µ à¯Īà®ķà¯įà®ķ
Ġà®ħà®ķà®¿à®² à®Ļà¯įà®ķà®³à¯ģà®ķà¯įà®ķà¯Ĩà®²à¯įà®²à®¾à®®à¯į
Ġà®¤à®Łà¯įà®Ł à®´
à®¨ à®±à¯įà®ª
Ġà®µà®¾à®Ļà¯įà®ķ à®¿à®©à¯ĭà®®à¯į
Ġà®¨à®°à®ķ à®®à¯ĩ
Ġme nu
Ġà®īà®ªà®ķ à®¾à®°à®®à¯į
à®®à¯ģà®© à¯įà®©à®°à¯į
à®¿à®Ł à®ļà¯į
Ġà®ĩà®®à¯įà®® à¯Īà®¯à®¿à®²à¯ģà®®à¯į
Ġà®ĩà®²à¯įà®²à®¾à®¤ à®¿à®°à¯ģà®¨à¯įà®¤à®¾à®²à¯į
Ġà®ªà®¯à®© à®³à®¿à®ķà¯įà®ķ
à®¤à®° à®µà¯ģ
Ġà®ķ à¯Īà®¯à¯ĩ
Ġà®ħà®µà®° à¯Īà®ķà¯į
Ġà®ħà®¤ à®¿à®²à¯ģà®³à¯įà®³
à®¾à®°à¯įà®ķà®³ à¯ģà®®à¯į
Ġà®ĩà®²à¯ĩà®ļ à®¾à®ķà¯įà®ķ
à®¨à¯Ĩ à®¤à®°à¯įà®²
Ġà®µ à®¸
Ġà®ħà®Ł à¯Īà®ķ
à®®à¯Ĥ à®ķà®¤à¯įà®¤
à®ĩà®¤ à®©à®¾à®²à¯į
Ġà®ķà®Łà®¿à®© à®®à®¾à®ķ
Ġà®¤à®Łà¯ģà®ķà¯įà®ķ à®ªà¯įà®ªà®Łà¯įà®Ł
Ġà®µà®£à®Ļà¯įà®ķ à¯ģà®ª
Ġà®İà®Ļà¯įà®ķà®³ à¯ģà®ķà¯įà®ķà¯ģà®ķà¯į
à®¿à®ķà¯įà®ķà®ªà¯įà®ªà®Ł à®µà®¿à®²à¯įà®²à¯Ī
Ġà®ıà®´ à¯Īà®ķà®³à¯ģà®ķà¯įà®ķà¯ģà®®à¯į
Ġà®ļà®®à¯ģà®¤à®¾à®¯ à®¤à¯įà®¤
Ġà®®à®°à¯įà®¯ à®®à®¿à®©à¯į
à®¤à®ķ à®µà®²à¯į
z er
à¯įà®® à®¾à®¯
à®¿à®ªà¯įà®ª à¯ģà®²
Ġà®¨à®©à¯įà®®à¯Īà®¯ à¯Īà®ķà¯į
Ġà®µà®¾à®°à¯įà®¤à¯įà®¤ à¯Ī
Ġà®µà®´à®¿à®ķà®¾à®Łà¯įà®Ł à®¿à®¯à®¾à®ķà®µà¯ģà®®à¯į
r or
à®© à®¿à®¯à®®à¯į
à¯ģà®ķà¯įà®ķ à®®à¯į
Ġà®īà®± à¯ģà®ªà¯įà®ª
he ck
Ġà®ķà®Łà®µ à¯ģà®³
Ġà®ħà®´ à®¿à®ªà¯įà®ª
à¯ģà®ķà®³ à®¾à®ķà®µà¯ģà®®à¯į
à®ľ à¯įà®¤
Ġà®ļà¯Ĩà®¯à¯įà®ª à®µà®©à®¾à®ķ
à®¿à®µà®¿à®Łà¯įà®Ł à®¾à®²à¯į
Ġà®®à¯Īà®¯ à®®à¯į
Ġà®ħà®µà®°à¯įà®ķà®³ à®¿à®Łà®®à®¿à®°à¯ģà®¨à¯įà®¤à¯ģ
Ġà®İà®¤ à¯ģà®µ
Ġà®ļà¯Ĥà®°à®¿à®¯ à®©à¯Īà®¯à¯ģà®®à¯į
à®ªà®¿à®©à¯įà®© à®°à¯ģà®®à¯į
Ġà®µà®¿à®Łà¯įà®Ł à¯Ĩà®°à®¿à®¯à¯ģà®®à¯į
Ġà®īà®£ à®°à¯įà®µ
Ġà®®à¯ĩà®²à®¾à®© à®¤à¯ģ
Ġà®ħà®¨à®¿à®¯à®¾à®¯à®ķà¯įà®ķà®¾à®° à®°à¯įà®ķà®³à¯ģà®ķà¯įà®ķà¯ģ
Ġà®µà®¿à®³ à¯Īà®ļà¯įà®ļ
Ġà®ļà®°à®¿à®ª à®¾à®°à¯įà®ķà¯įà®ķ
) à®¤à¯Īà®¯à¯ģà®®à¯į
Ġà®Ĵà®©à¯įà®± à®¾à®ķ
Ġà®¨à®¿à®ķà®´ à¯įà®µ
le ase
Ġà®¨à¯Ĩà®°à¯ģà®ªà¯įà®ª à¯Ī
à®µ à®¿à®µà®°
à®¤à¯įà®¤ à®ķà¯įà®ķ
Ġà®ļà®¾à®¯ à¯įà®¨à¯įà®¤
à®²à¯Ĥ à®¯
à®©à®¾à®¤ à®¿à®ªà®¤à®¿
Ġà®ļà®®à¯Ĥà®ķà®¤à¯įà®¤ à®¿à®±à¯įà®ķà¯ģ
Ġ> čĊ
à®ª à®¿à®£
à®ķà¯įà®ķ à®®à®¾à®©
à¯Īà®ķà®³à¯Ī à®¤à¯į
à®µà¯ĩà®¤ à®©à¯Īà®¯à¯Ī
Ġà®µà®¿à®°à¯ģà®ªà¯įà®ª à®®à¯į
à®ķà®Łà¯įà®Ł à®³à¯Ī
Ġà®¨à®¿à®©à¯Īà®µà¯Ĥà®Łà¯įà®Ł à¯ģà®µà¯Ģà®°à®¾à®ķ
à®® à¯įà®¤à¯ģ
à¯Īà®µ à¯ģà®ķà®³à¯į
Ġà®®à®©à¯įà®© à®¿à®ķà¯įà®ķ
Ġà®ļà®¨à¯įà®¤ à®¿à®ķà¯įà®ķà¯ģà®®à¯į
Ġà®ļà¯Ĩà®µ à®¿à®ªà¯įà®ªà¯ģà®²
à®µà®² à®¤à¯ģ
Ġà®ĩà®¸ à¯įà®®à®¾à®¯
à¯įà®¹ à®®à¯įà®¤à¯ģ
à®¤ à®¿à®©à®¾à®²à¯į
Ġà®ĩ à®µà®°à¯Ī
Ġà®µà¯ĩ à®Łà®¿à®ķà¯įà®ķ
à®¤à¯ĩ à®¤à®¿
à®Ĵà®°à¯ģà®µ à®©à®¾à®ķ
Ġà®®à¯Ģ à®Łà¯įà®ķ
Ġà®ļ à®¾à®°à¯į
Ġà®ħà®µà®ļà®° à®ªà¯įà®ªà®Ł
" ;
Ġà®İ à®ľ
Ġà®µà®¿à®Ł à®¿à®¯
Ġà®ļà®ķ à®¿à®¤à¯įà®¤à¯ģà®ķà¯į
Ġà®İà®¨à¯įà®¤ à®¤à¯į
Ġà®ķà¯ĩà®Łà¯įà®ķ à®ªà¯įà®ªà®Łà¯ģà®®à¯į
Ġà®¤à¯Ģà®® à¯Īà®¯à¯Ī
Ġà®İà®ľ à®®à®¾à®©
à¯ģà®® à¯Īà®¯à¯ģà®®à¯į
Ġà®¨à®®à¯įà®ª à®¾à®¤
Ġà®·à¯Īà®¤à¯įà®¤à®¾à®© à¯Ī
Ġà®ªà®° à®µ
u re
Ġp re
Ġà®µà®¿à®°à¯ģà®ªà¯įà®ª à®Ļà¯įà®ķà®³à¯į
Ġà®ªà®¾à®¤à¯ģà®ķà®¾à®µà®² à®°à¯įà®ķà®³à®¾à®ķ
Ġà®¤à¯ĭ à®±à¯įà®±
L anguage
à¯ĭ à®¸à¯į
Ġà®ħà®¨à®¿à®¯à®¾à®¯ à®ķà¯į
Ġà®®à¯ģà®¯ à®²
à®² à¯Īà®¯à¯ģà®®à¯į
Ġà®µ à¯Ģà®´
à®¨ à®©à¯įà®®à¯Īà®¯
à®ĩ à®µà®°à¯įà®ķà®³
à¯įà®¤à¯įà®¤ à®¿à®ķà¯į
Ġà®ķà®Łà¯įà®Łà¯ģà®ªà¯įà®ª à®Łà¯ģà®¤à¯įà®¤
Ġà®¤ à®±à¯įà®ķ
à®µà¯ĩà®¤ à®®à¯į
C on
à®¿à®¯ à®¾à®ļ
à®ħ à®ªà¯įà®ªà®Łà®¿
Ġà®ļà¯Ĩà®² à¯įà®ķà®¿à®±
à®ķà¯įà®ķ à®¾à®³
Ġà®ķà¯ģà®Ł à®¿à®ªà¯įà®ª
Ġà®ħà®µà¯įà®µà®¾à®± à®¾à®¯à®¿à®©à¯į
Ġà®ªà¯ģà®°à®¿à®¯ à¯ģà®Ļà¯įà®ķà®³à¯į
Ġà®īà®³à¯įà®³ à®ļà¯įà®ļ
Ġà®īà®£à¯įà®®à¯Īà®¯ à®¾à®³à®°à®¾à®ķ
et s
Ġà®¤à¯ĩà®°à¯įà®µ à¯Ī
l i
Ġà®ªà¯ģà®³à¯įà®³ à®¿
Ġà®®à®©à®¿à®¤ à®©à¯ģà®®à¯į
Ġà®¨à¯ģà®´ à¯Īà®¨à¯įà®¤
jec ts
Ġà®®à¯ĩ à®±à¯įà®ª
Ġà®İà®©à¯įà®± à®¾à®²à¯ģà®®à¯į
Ġà®¨à®©à¯įà®± à®¿à®¯
Ġà®ļà®¾à®¤ à¯įà®¤à®¿à®¯
( c
Ġà®¤à¯Ģà®°à¯įà®ªà¯įà®ª à®³à®¿à®ķà¯įà®ķ
à®ķ à®¾à®ªà¯įà®ª
Ġà®ħà®°à¯ģà®Ł à¯į
à®ħà®® à¯Īà®ªà¯įà®ª
Ġà®ª à®¤à¯įà®¤à¯Ī
à®¿à®° à®¾à®¤
" )
Ġà®¨ à¯ĭ
Ġà®®à¯ģà®ķ à®Ļà¯įà®ķà®³à¯Ī
à®¿à®¯à®¾à®© à®¾
à®ķà¯ģà®´ à¯ģ
Ġà®ķà®£à¯įà®ķà®¾à®£ à®¿à®ªà¯įà®ª
à¯įà®®à¯ĩà®ļ à¯Ī
2 5
à®µà¯ĩ à®²
Ġà®ļà¯Ĩà®¯à¯įà®¤ à®¿à®ķà®³à¯Ī
Ġà®®à®² à®ķà¯įà®ķà¯ģ
à¯įà®ķà®³ à®¿à®Łà®®à¯į
Ġà®® à¯ĩà®¯
à®ķ à®ªà¯įà®ª
à®ĩà®° à®£à¯įà®Ł
Ġà®¨ à®¯à®µà®ŀà¯įà®ļà®ķ
Ġà®ķà®¾à®£à¯įà®ª à®¿
Ġà®Ĩà®¯ à¯ģà®¤
Ġà®ªà®ķ à¯ģà®¤à®¿à®¯
à®ĩà®µà¯įà®µ à¯ĩà®¤
Ġà®¨à®¿à®²à¯Īà®¯ à®¿à®²à¯ĩà®¯à¯ĩ
Ġà®¤à®¾à®´ à¯įà®¨à¯įà®¤
Ġà®ĩ à®Ļà¯įà®ķà®¿à®°à¯ģà®¨à¯įà®¤à¯ģ
à®µà®¿à®Ł à®¿à®¯à¯ĭ
Ġà®®à®²à®ķà¯įà®ķ à¯ģà®ķà®³à¯ģà®®à¯į
Ġà®ªà¯ģà®¤à¯įà®¤ à®ķ
à®ªà¯Ĭà®² à®¾à®£à¯įà®Łà¯į
Ġà®ķà¯Ĥà®Ł à®¾à®¤à®¾
Ġà®ªà®¿à®± à¯įà®ªà®Łà¯ģà®¤à¯įà®¤
Ġà®īà®£ à®µà¯ģà®®à¯į
à®®à¯įà®ª à®¿
Ġs ome
Ġà®ķà¯ģà®±à®¿à®¯ à¯Ģà®Łà¯ģ
3 0
à®¨ à¯ĩà®°à¯į
Ġf il
Ġà®īà®³à¯įà®³à®¿à®Ł à¯ģà®ķ
à®ļ à®ķ
Ġà®®à¯ģà®± à®¿à®¤à¯įà®¤à¯ģ
Ġà®ļà®® à®®à®¾à®©à®¤à¯ģ
Ġà®ļà¯Ĩà®¯à®² à¯įà®ķà®³à®¿à®©à¯į
Ġà®ªà®¾à®¤à¯ģà®ķà®¾à®¤à¯įà®¤ à¯ģà®ķà¯į
Ġà®īà®³à¯įà®³ à®µà®±à¯įà®±à¯Ī
Ġà®ıà®±à¯įà®ªà®Łà¯įà®Ł à®¤à¯ģ
" à®¨à®¾à®®à¯į
Ġà®ħà®±à®¿à®µà®¿à®¤à¯įà®¤ à®¤à¯ģ
à®® à¯Ĩà®¯
à®Ļà¯įà®ķà®³ à®¿à®²à¯ģà®³à¯įà®³
à®¿à®ªà¯įà®ª à®Łà¯Ī
Ġà®ħà®®à¯Īà®¤à¯įà®¤ à®¾à®©à¯į
H S
à®Ļà¯įà®ķ à®°
Ġà®ªà®ķ à®²à®¿à®²à¯į
Ġà®¨à¯ĩà®° à®¤à¯įà®¤à¯Ī
s p
Ġà®ķà®¾à®Łà¯įà®Ł à®¿
Ġà®īà®°à¯ģà®µà®¾à®ķà¯įà®ķ à¯ģà®ķà®¿à®±à®¤à¯ģ
à®® à®¿à®°
à®® à¯Īà®¯à¯Ī
à¯Īà®¯ à®¾à®µà®¤à¯ģ
à®ļ à¯ģà®°
à®¿à®ķà®³à¯Ī à®ļà¯į
à®ķà¯ĭ à®£
Ġ V
m l
Ġà®®à¯ģà®´ à¯ģà®®à¯Īà®¯à®¾à®ķ
Ġà®ķà®¾à®² à®¿
Ġà®ªà®°à®¿à®ļ à®¤à¯įà®¤
Ġà®ĩà®° à®¾à®¤à¯ģ
Ġà®ĩà®¤ à¯ģà®µ
Ġà®ķà®¾à®² à¯Ī
à®µà®¿à®²à¯įà®²à¯Īà®¯ à®¾à®©à®¾à®²à¯į
à®ķ à®£à¯įà®£
Ġà®µà®¨à¯įà®¤ à¯ģà®³à¯įà®³à®¤à¯ģ
à®Ĵ à®´
Ġà®Ĩà®¯ à®¿à®°à®®à¯į
à®®à¯ģà®±à¯įà®± à®¿à®²à¯ģà®®à¯į
à®¿à®± à®¾à®¯à¯į
Ġà®ķà¯ģà®± à¯Ī
Ġà®ªà¯ģà®± à®Ļà¯įà®ķ
Ġà®ļà¯ĩà®® à®¿à®¤à¯įà®¤à¯ģ
à®ķà¯Ģà®´ à¯ĩ
à®ļà®¾à®¤ à®©
à®µ à®¿à®´
Ġà®Ĵà®° à¯ģà®ª
Ġà®µà¯Ĩ à®ķ
Ġà®µà¯Īà®¤à¯įà®¤ à®¿à®°à¯ģà®ķà¯įà®ķ
Ġà®¤à®±à¯įà®ķ à®¾à®²à®¿à®ķ
A d
st ella
à¯ģà®ªà®Łà¯ģà®¤à¯įà®¤ à¯ģà®®à¯į
stella tion
à¯ĭ City
Ġà®¤à¯Ĩà®³à®¿à®µ à®¾à®ķà¯įà®ķ
à®¨à®¿à®± à¯Īà®µà¯ĩ
Ġà®ħà®£ à¯ģà®µ
à®ĩà®£ à¯Īà®ªà¯įà®ªà¯ģ
Ġà®ĩà®°à¯ģà®ķà¯įà®ķà®¿à®± à®¾à®°à¯į
r ussia
à®¿à®¤ à®¾à®ķ
Ġà®ħà®² à®¾à®°
Ġà®ļà¯Ĩà®¯à®²à¯įà®ª à®¾à®Łà¯ģ
à®µà¯ĩà®£à¯įà®Ł à¯ģà®®
à®ªà¯Ĩà®° à¯ģà®®à¯į
Ġà®ķà®¿à®´ à®ķà¯įà®ķ
à¯ģà®® à¯įà®µà®°à¯Ī
à®¿à®¤à¯įà®¤ à®¾à®°à¯įà®ķà®³à¯į
à®ķà®¿à®Ł à¯Īà®®à®Łà¯įà®Ł
à®µ à®¿
Ġà®ħ à®ªà¯į
à®©à¯įà®± à¯Ī
me nu
Ġà®ªà®¿à®© à¯įà®µ
Ġà®ķà®° à¯ģà®¤à¯įà®¤
à®¨ à®²à¯įà®²à®¤à¯ģ
Ġà®µà¯ĩ à®ķà®®à¯į
à¯įà®ļà¯įà®ļ à®¿à®¯à®¾à®ķ
Ġà®¨à®£à¯įà®ª à®°à¯įà®ķà®³à¯į
à®īà®Ļà¯įà®ķà®³ à®¿à®Łà®®à¯į
Ġà®® à®ŀà¯įà®ļ
à®¨ à®ķà®²à¯į
Ġà®ļà¯Ĩà®¯à¯įà®¤ à®²à¯į
Ġà®¤ à®¾à®Ļà¯įà®ķ
à®ķ à®±à¯įà®ª
Ġà®İà®´ à¯ģà®¤à®¿à®¯
Ġà®µà®£à¯įà®£ à®¤à¯įà®¤à¯Ī
à®ĩ à®´
à®ħà®¤ à¯ģà®µà¯ĩ
Ġà®ĩ à®ªà¯įà®ªà®Łà®¿
Ġà®¤à®µà®¿à®° à¯įà®¤à¯įà®¤à¯ģ
Ġà®Ĵà®µà¯įà®µ à¯Ĭà®°à¯ģ
Ġà®ķà®¾à®°à®¿à®¯ à®®à¯į
Ġà®¨à®¾à®Ļ à¯įà®ķà®³
â Ģ
Ġà®ķà¯ĭà®ªà¯įà®ª à®¿à®²à¯į
Ġre g
à®ķà¯įà®ļ à®®à¯į
Ġà®ª à®¾à®´
Ġà®µ à¯Īà®¯à¯ģà®Ļà¯įà®ķà®³à¯į
à®ķ à¯įà®¸à¯į
à®ļ à®²
à¯ĭ à®²
Ġà®µà¯Ĩ à®Łà¯įà®ķ
Ġà®īà®² à®¾à®µ
C T
ot her
à¯įà®Łà¯į City
Ġà®ħà®±à®¿à®µà®¿à®ªà¯įà®ª à®¾à®©à¯į
à®ĩà®¯ à®²à¯įà®ª
à®µ à¯ģà®©à¯į
Ġà®®à®¾à®±à¯įà®± à®Ļà¯įà®ķà®³à¯į
à®ķ à®¾à®Łà¯įà®Ł
à¯Ĩà®Ł à¯ģà®ªà¯įà®ªà¯ģ
Ġà®¤à¯ĭà®²à¯įà®µ à®¿à®¯
Ġ .
Ġà®ħ à®²à¯Ī
à®¿à®ķ à®¿à®©à¯įà®±
d er
Ġà®¤ à®¾à®³à¯į
Ġà®µà®¿à®Ł à®¿à®¯à¯ĭ
ric ts
Ġà®®à®ķ à®©à¯ĩ
is c
Ġà®¤à®¾à®© à¯ĩ
à®µà®¾à®± à¯ĩ
Ġà®ĩ à®µà¯Īà®¯
Ġà®ļà¯Ĩà®¯à¯įà®¯ à®ªà¯įà®ªà®Łà¯ģà®®à¯į
Ġà®®à®©à®¿à®¤à®°à¯įà®ķà®³ à¯Ī
Ġà®ļ à®¾à®µ
Ġà®ħà®± à®¿à®ķà¯įà®ķà¯Ī
à®ķà¯įà®ķà¯Ĥ à®Łà¯įà®Ł
Ġà®ħà®² à®Łà¯įà®ļà®¿à®¯
à®®à¯Ģ à®©à¯į
Ġ ba
Ġà®®à®± à¯ģà®¤à¯įà®¤à¯ģ
Ġà®īà®³à¯įà®³ à®¤à®¾
à®ķà®° à¯Ī
Ġà®µà®¯ à®¿à®±à¯įà®±
à®¿à®ķ à¯įà®ļ
à®ķà®¾à®² à®®à¯į
Ġà®ħà®® à¯Īà®¤à¯įà®¤à¯ģà®ķà¯į
O N
Ġà®ª à®¾à®¯
à®® à®¾à®µà®¤à¯ģ
Ġà®®à®©à¯Īà®µ à®¿à®¯à¯Ī
à®ħà®© à¯ģà®ªà¯įà®ª
Ġdist ricts
Ġà®ħà®®à¯Īà®ªà¯įà®ª à¯Ī
Ġà®ħ à®Łà¯įà®Ł
Ġà®®à®ķ à¯įà®ķà®³à®¿à®©à¯į
Ġà®¤à¯Ĩà®°à®¿à®¯ à®¾à®¤
Ġà®¤à®¿à®± à®¨à¯įà®¤
Ġà®®à¯ģà®´ à¯ģà®®à¯Īà®¯
Ġà®ķ à®¤à®¿à®°
à®¿à®© à®¾à®¯à¯į
Ġà®ħà®® à®²
Ġà®ĩà®°à¯ģà®ªà¯įà®ª à®¿à®©à¯ģà®®à¯į
Ġà®ħà®±à®¿à®µ à®¿à®ªà¯įà®ªà¯ģ
à¯ģà®Łà¯įà®Ł à®¿
à®īà®£ à¯įà®®à¯Ī
Ġà®ļà¯Ĭà®°à¯ģà®ķ à¯ģà®ªà¯įà®ª
Ġà®¤à®¾à®© à®¾à®ķ
Ġà®®à¯ģà®¤à¯įà®¤à®¿à®°à¯Īà®¯ à®¿à®Łà¯įà®Łà¯ģ
à®¤ à®ªà¯įà®ª
Ġà®ªà¯ĭ à®²
a re
Ġpro vin
Ġprovin ces
Ġà®ķ à®¯
à®¾à®² à¯Īà®¯à®¿à®²à¯į
à®Ĩ à®´
Ġà®µà¯Īà®¤à¯įà®¤ à®¿à®°à¯ģà®¨à¯įà®¤
Ġà®ªà®¾à®µ à®¤à¯įà®¤à®¿à®©à¯į
Ġà®ļà¯Ĩà®µ à®¿
à®ĩ à®ķà¯įà®ķ
Ġà®µà®¿à®ļ à¯ģà®µ
à¯ģà®µà®¤à®±à¯įà®ķ à®¾à®©
f f
Ġà®ķà¯ģà®Łà¯ģà®®à¯įà®ª à®¤à¯įà®¤
Ġyou r
à®¿à®ķà¯įà®ķ à®ķà¯į
à¯ģà®® à®¿à®Ł
Ġà®µà®¿à®Ł à¯ģà®ķà®¿à®±à®¤à¯ģ
Ġà®®à¯ĩ à®ķ
à®© à¯ģà®Łà¯Īà®¯
à®¨ à®®à®ķà¯įà®ķà¯ģ
à¯ģà®µà®¿à®Łà¯įà®Ł à®¾à®©à¯į
Ġà®ª à®¾à®£à®¿
Ġà®ħà®µà®©à¯Ī à®ļà¯į
à®ļà¯Ĩà®¯ à¯įà®¤à®¿
Ġà®¨à®ķ à®±à¯įà®±à¯ģ
à®¨à¯Ĩà®° à¯ģà®ªà¯įà®ª
à®¤à¯įà®¤ à¯ģà®®à¯į
Ġ Q
Ġt ext
à®Ĵà®µà¯įà®µ à¯Ĭà®°à¯ģ
à®İ à®¤à¯įà®¤à®ķà¯Īà®¯
Ġà®ħà®¤ à¯ģà®¤à®¾à®©à¯į
à®¿à®°à¯ģà®ķà¯įà®ķ à®ķà¯į
Ġà®¨à®Ł à¯ģà®Ļà¯įà®ķ
Ġà®ķà¯ģà®´ à¯ģà®µ
Ġà®¤à¯Ĭà®ķ à¯ģà®ªà¯įà®ªà¯ģ
Ġà®µà¯ĩà®£à¯įà®Łà¯ģà®® à¯Ĩà®©
à®µà®° à®®à¯įà®ªà¯ģ
Ġà®ļ à®¾à®¸
Ġà®ħà®Ł à®¿à®ª
Ġà®µà®´ à¯ģ
Ġà®īà®£à¯įà®Ł à®¾à®ķà¯ģà®®à¯į
re e
Ġà®Ĭ à®Ł
à¯Ĥà®¤ à®°à¯įà®ķà®³à¯į
Ġà®µà®¿à®© à®µ
" à®¨à®¾à®Ļà¯įà®ķà®³à¯į
k ey
à®¤ à¯ģà®©à¯įà®ª
Ġà®¤ à®¾à®ķà¯įà®ķ
à®ªà¯įà®ªà®Ł à®®à®¾à®Łà¯įà®Łà®¾à®¤à¯ģ
à®ļ à®¿à®¨à¯įà®¤
Ġà®¯à®¾à®° à®¾à®µà®¤à¯ģ
à®´ à¯ģà®µ
à®ªà¯įà®ªà®Łà¯įà®Ł à¯ģà®ķà¯į
à¯ģà®ª à®µà®°
Ġà®ļà¯Ĩà®¯à¯įà®¤ à®©à®°à¯į
Ġà®µà®ķ à¯Īà®¯à¯Ī
Ġà®Ĩà®µà®£ à®¤à¯įà®¤à¯Ī
Ġà®ħà®°à®ļ à®¾à®Ļà¯įà®ķ
Ġà®İà®©à¯įà®± à®¾à®°à¯į
Ġà®µà®° à¯ģà®ķà®¿à®±à¯ĩà®©à¯į
à®ĩà®± à¯ģà®¤
Ġà®īà®³à¯įà®³ à®µà®°à¯įà®ķà®³à¯ģà®®à¯į
Ġà®¤à¯Ģà®°à¯įà®ªà¯įà®ª à¯ģà®ķà¯į
Ġà®µà¯Ĩà®±à¯įà®±à®¿à®¯ à®¾à®³à®°à¯įà®ķà®³à¯į
à®¿à®ª à¯įà®²
Ġa b
Ġà®ħà®¤à¯įà®¤à®¾à®Łà¯įà®ļà®¿à®ķà®³ à¯Īà®ªà¯į
Ġà®¨à®¿à®©à¯Īà®µ à¯ģà®±à¯ģà®¤à¯įà®¤
à®¾à®® à®¾à®©
Ġà®®à®¿à®ķ à¯Īà®ªà¯įà®ª
Ġà®ħà®µà®© à®¿à®Łà®¤à¯įà®¤
Ġà®ħà®° à¯įà®¤à¯įà®¤
Ġà®¨à®¾à®Ł à¯ģà®ķà®¿à®±à®¾à®©à¯į
à®¿à®¯à®¾à®¯ à®¿à®©à¯į
Ġà®ĩà®±à®ķà¯įà®ķ à®¿à®µ
Ġà®ıà®µ à®ªà¯įà®ªà®Łà¯įà®Łà¯ģà®³à¯įà®³
Ġà®ħà®µà®³ à¯ģà®ķà¯įà®ķà¯ģ
Ġà®ĩà®©à¯įà®ª à®®à¯į
à®¨à¯Ĩà®¤à®°à¯įà®² à®¾à®£à¯įà®Łà¯įà®¸à¯į
) à®Ł
à®¿à®°à¯ģà®ķà¯įà®ķ à®µà®¿à®²à¯įà®²à¯Ī
Ġc ol
Ġà®ĩ à®ķà¯įà®ķ
Ġà®µà¯Ĩ à®£
Ġà®ĩà®µà¯įà®µ à®¿à®°à¯ģà®µà®°à¯ģà®®à¯į
Ġà®¤à®Ļà¯įà®ķ à®¿à®µà®¿à®Ł
Ġà®ķà¯ĩà®Łà¯įà®Ł à®¾à®²à¯į
" à®ħà®²à¯įà®²à®¤à¯ģ
à®ħ à®¤à®±à¯įà®ķà®¾à®ķ
Ġà®ħà®µà®© à¯ģà®ķà¯įà®ķà¯ģà®ªà¯į
Ġà®®à®° à®Ļà¯įà®ķà®³à¯ģà®®à¯į
Ġin menu
Ġà®ķà®¾à®±à¯įà®± à¯Ī
Ġà®ħà®ķà¯įà®ķà®¿à®°à®®à®ķà¯įà®ķà®¾à®° à®°à¯įà®ķà®³à¯į
à¯Īà®ķà®³ à¯Īà®¯à¯ĩ
Ġà®¨à®¾à®³ à¯įà®µà®°à¯Ī
Ġà®ĩà®¨à¯įà®¤ à®ªà¯į
à®Ĩà®ķ à®¿à®¯
le ct
à®µà¯ĩà®±à¯Ĩ à®µà®°à¯Īà®¯à¯ģà®®à¯į
u d
Ġà®İà®¤ à¯Īà®ķà¯į
Ġà®¨à®®à¯įà®® à®¿à®Łà®¤à¯įà®¤à®¿à®²à¯į
Ġà®ķà®¾à®°à®¿à®¯ à®Ļà¯įà®ķà®³à¯į
Ġà®ħà®¤à®©à¯Ī à®ļà¯į
Ġà®İà®´à¯ģà®ªà¯įà®ª à®ªà¯įà®ªà®Łà¯ģà®®à¯į
à¯ģà®© à¯įà®©
à®¿à®°à¯ģà®ķà¯įà®ķà®¿à®©à¯įà®± à®©à®°à¯į
Ġà®®à¯ģà®´ à®ķà¯įà®ķà®®à¯į
Ġà®ħà®¨ à¯ĩ
Ġsub jects
à®¿à®ķà¯įà®ķà®¿à®± à®¾à®°à¯įà®ķà®³à¯į
Ġà®®à¯ģà®©à¯įà®ª à¯ģà®®à¯į
Ġà®ªà®¿à®°à®¾à®°à¯įà®¤à¯įà®¤ à®©à¯Īà®¯à¯Ī
Ġà®ħà®µà¯įà®µà®¾à®± à®²à¯įà®²
Ġà®°à®¹à¯įà®®à®¤à¯įà®¤ à®¾à®ķà®µà¯ģà®®à¯į
Ġà®Ĩà®£à®µ à®®à¯į
Ġà®®à¯ģà®ĥà®®à®¿à®©à¯įà®ķà®³ à®¾à®©
Ġà®ķà®ªà¯įà®ª à®²à®¿à®²à¯į
i z
Ġà®ķ à¯Ĩà®Łà¯ģà®ķà¯įà®ķ
à¯Īà®¯ à®¾à®ķà®µà¯ģà®®à¯į
à®ķ à®¾à®Łà¯įà®ļà®¿
Ġà®¨à¯Ģ à®³
\\ \\
à®µà¯Ģ à®Łà®¿à®¯à¯ĭ
à®° à®®à¯į
à®ħ à®³à®µ
Ġà®ķà¯Ĥà®± à®¿à®µà®¿à®Ł
à®¿à®ªà¯įà®ª à®µà®°à¯įà®ķà®³à¯ģà®ķà¯įà®ķà¯ģ
Ġà®ªà®¾à®¤ à¯Īà®¯à®¿à®²à®¿à®°à¯ģà®¨à¯įà®¤à¯ģ
Ġà®ķà®¿à®Ł à®¨à¯įà®¤
Ġà®ªà®¾à®µ à®Ļà¯įà®ķà®³à®¿à®©à¯į
Ġà®ªà¯ĩà®ļ à¯ģà®®à¯į
Ġà®ħà®µà¯įà®µà®¿à®°à¯ģà®µà®° à¯ģà®ķà¯įà®ķà¯ģà®®à¯į
Ġà®ļà®¿à®²à®° à¯Īà®¤à¯į
) à®µà®°à¯įà®ķà®³
Ġà®ķ à¯ģà®ķ
à®² à¯Īà®ķà¯į
Ġà®¤ à¯ģà®²
Ġà®¤à¯ģà®©à¯įà®ª à®¤à¯įà®¤à¯Ī
à¯ģà®¤à®² à¯ģà®®à¯į
Ġà®ķà¯Ĥà®² à®¿à®¯à®¾à®ķà¯ģà®®à¯į
à®ĩà®±à¯Īà®µà®© à¯Ī
Ġà®ļà¯Ĭà®Łà¯ģà®ķà¯įà®ķ à®µà¯ģà®®à¯į
à¯ĩ à®ķà¯į
à¯ģà®° à®¿à®®à¯Ī
Ġà®®à®± à¯Īà®¤à¯įà®¤à¯ģà®ķà¯į
Ġà®ħà®¨ à¯įà®¨
Ġà®ļà¯Ĩà®¯à¯įà®ª à®µà®°à¯įà®ķà®³à¯ģà®ķà¯įà®ķà¯ģ
à®¤à®¿à®° à¯ģ
Ġà®Ĩà®¤à¯įà®®à®¾à®µ à¯ģà®ķà¯įà®ķà¯ģà®®à¯į
Ġà®Ĵà®¤ à¯ģà®ķà¯įà®ķ
à®¤ à®Ļà¯įà®ķà®³à¯ģà®ķà¯įà®ķà¯ģ
à®² à¯ģà®ķà¯įà®ķà¯ģ
Ġà®ħà®° à¯ģà®®
à®µà¯Ĩ à®±à¯įà®±
à®¨à®®à¯įà®ª à®¿à®ķà¯įà®ķ
Ġà®¤à¯Ģà®Ļà¯įà®ķà®¿à®´ à¯Īà®ķà¯įà®ķ
à¯ĩ à®±à¯įà®ª
à¯ģà®µ à¯Ģà®°à¯įà®ķà®³à®¾à®ķ
Ġà®ļà®®à¯Ĥà®ķà®¤à¯įà®¤à®¾à®° à®¿à®©à¯į
Ġà®ļà¯ģà®µ à¯Īà®¤à¯įà®¤à¯ģà®ªà¯į
Ġà®ªà®ķà®¿à®°à®Ļà¯įà®ķ à®®à®¾à®ķ
Ġà®¤à®°à¯įà®ķà¯įà®ķ à®¿à®¤à¯įà®¤à¯ģà®ķà¯į
Ġà®ħà®³à®¿à®ķà¯įà®ķ à®¾à®¤à¯ģ
Ġà®ķà¯Ĥà®²à®¿à®¯à®¾à®ķ à®ķà¯į
Ġà®İà®©à¯įà®©à¯Ī à®ļà¯į
Ġà®ķ à®¿à®Łà¯įà®Ł
Ġà®İà®¤à¯Ī à®ļà¯į
à®ħ à®°à¯ģà®³
à¯ĩà®¯ à®¿à®²à¯įà®²à¯Ī
Ġà®¨à®ª à®¿
Ġà®Ĩà®ķ à®¿
à¯ģà®ķà¯įà®ķ à®¿à®Łà¯Īà®¯à®¿à®²à¯į
à¯ģà®µ à¯Ģà®°à¯įà®ķà®³à®¾à®©à®¾à®²à¯į
Ġ( #
Ġà®ħà®Ł à®ķà¯įà®ķà®¿à®¯
Ġp h
Ġà®®à¯ģà®©à¯įà®©à¯ĭ à®ķà¯įà®ķà®¿
Ġà®ħà®Łà®ķà¯įà®ķà®¿à®¯ à®¾à®³
à®¤ à¯Ĩà®¯à¯įà®µ
à®ķ à¯ģà®ĥà®ªà¯įà®°
à®µà®© à®¾
Ġà®ķà®Łà¯ģà®®à¯Īà®¯à®¾à®© à®µà®©à¯į
Ġà®ļà®®à®® à®¾à®µ
Ġà®µà®² à®¿à®®
Ġà®īà®¯à®° à®®à¯į
Ġà®ķà®¾à®ªà¯įà®ªà®¾à®±à¯įà®± à®¿
Ġà®µà®²à¯įà®² à®®
Ġà®µà®¾à®² à®¿à®ª
à®İ à®Ļà¯įà®ķà®³à¯Ī
Ġà®ħà®µà®© à¯ĭ
Ġà®¤à®©à¯įà®© à®¿à®Łà®®à®¿à®°à¯ģà®¨à¯įà®¤à¯ģ
Ġà®ªà®¿à®°à®¿à®µ à®¿à®©
Ġà®ļà¯Ĩà®µà®¿à®¯à¯ĩ à®±à¯įà®ķ
Ġà®ľà®ķà®¾à®¤à¯įà®¤ à¯ģà®®à¯į
Ġà®ħà®ªà¯įà®ªà®Łà®¿à®¯ à®¿à®°à¯ģà®¨à¯įà®¤à¯ģà®®à¯į
Ġà®ħ à®ªà®¯
à®µà®±à¯įà®±à¯Ī à®ļà¯į
Ġà®µà®¿à®ļ à®©
Ġà®ªà®Łà¯Īà®ķà¯įà®ķ à®¿à®±à®¾à®©à¯į
Ġà®īà®¯à®¿à®°à¯įà®ªà¯įà®ª à®¿à®ķà¯įà®ķà®¿à®±à®¾à®©à¯į
Ġà®¨à®¿à®°à®¨à¯įà®¤à®° à®®à®¾à®ķ
; "
à®ħ à®ªà¯įà®ªà®Łà®¿à®ļà¯į
à®¾à®¯ à¯ĩ
à®¿à®Łà®® à¯ģà®³à¯įà®³
Ġà®ªà®£ à®¿à®µ
Ġà®µà®´à®¿à®¯ à¯Īà®ªà¯į
à®¤à®© à®ķà¯įà®ķ
Ġà®ļà¯ģà®ķ à®®à¯į
Ġà®¨à®±à¯įà®ª à®¾à®ķà¯įà®ķà®¿à®¯
Ġà®°à®¹à¯įà®®à®¤à¯įà®¤ à¯ģà®®à¯į
(à®ħ à®¤à®±à¯įà®ķ
Ġà®īà®°à®¿à®¯ à®©
Ġà®ļà¯Ģ à®Łà¯įà®Ł
à®®à¯ĩà®² à®¾à®©
Ġà®¨à¯Ĥà®¹ à¯į
à®ķà®Łà®µ à¯ģà®ļà¯įà®ļà¯Ĭ
( S
C H
à¯įà®± à¯ģ
à®¾à®© à®¾à®ķ
Ġà®µà®¿à®Łà¯įà®Ł à¯ģà®ķà¯į
Ġà®ķà¯Ĩà®Łà¯įà®Ł à®µà®°à¯įà®ķà®³à¯į
Ġà®µà¯ĩà®¤à®©à¯Īà®¯ à¯Īà®¯à¯ģà®®à¯į
Ġà®µà¯Īà®ªà¯įà®ª à¯Ģà®°à®¾à®ķ
Ġà®®à¯ģà®Łà®¿à®µ à®¿à®²à¯į
Ġà®¯à®ĥà®ķà¯Ĥ à®ª
Ġà®İà®²à¯įà®²à®¾à®µ à®±à¯įà®±
Ġà®ªà¯ģà®ķà®² à®¿à®Łà®®à¯į
c ess
Ġà®µ à®±
Ġà®İ à®µà®°à¯įà®ķà®³à¯ģà®Łà¯Īà®¯
ro up
Ġà®¸ à®ľà¯įà®¤
Ġà®ªà®¿à®± à®¿à®¤
à®µà®¾à®ļ à®¿à®ķà®³à¯į
Ġà®īà®¯à®°à¯įà®¤à¯įà®¤ à®¿
Ġà®ļà¯Ĥà®©à®¿à®¯à®ķà¯įà®ķà®¾à®° à®°à¯įà®ķà®³à¯į
( à®Ĩà®©à®¾à®²à¯į
à®µà®° à®¾à®ķà®µà¯ĩ
à¯ģà®ķà¯įà®ķ à®¾à®²à¯ģà®®à¯į
Ġà®İà®¨à¯įà®¤ à®ķà¯į
Ġà®Ł à®ķà¯įà®ķ
à¯ģà®¨ à®°à¯į
Ġà®ļà®®à¯įà®ªà®¾à®¤ à®¿à®¤à¯įà®¤à¯ģà®ķà¯į
à®¿à®¯à®¿à®°à¯ģà®ªà¯įà®ª à®¾à®©à¯į
à®µà®© à®¿à®Łà®®à¯į
Ġà®ķà®¾à®£à¯įà®ª à®¿à®ķà¯įà®ķà®ªà¯įà®ªà®Łà¯įà®Łà®¾à®²à¯į
Ġà®īà®¯à®¿à®°à¯įà®ªà¯įà®ª à®¿à®¤à¯įà®¤à¯ģ
Ġà®ĩà®±à¯Īà®µà®© à®¾à®ķ
Ġà®ķà®© à®¿
Ġà®İà®´à¯ģà®ªà¯įà®ª à®ªà¯įà®ªà®Łà¯ģà®µ
à®ĩ à®¤à®±à¯įà®ķà®¾à®ķ
Ġà®®à®© à®¤à®¿à®²à¯į
Ġà®īà®³à¯įà®³ à®µà®±à¯įà®±à¯Īà®¯à¯ģà®®à¯į
à®¿à®±à¯įà®ķ à¯ģà®®à®¿à®Łà¯Īà®¯à¯ĩ
Ġà®®à®¸à¯įà®ľà®¿à®¤ à¯ģà®²à¯į
Ġà®İà®£à¯įà®£à®¿à®ķà¯įà®ķ à¯Īà®¯à¯Ī
Ġà®ļà®¨à¯įà®¤à¯ĩà®ķà®¤à¯įà®¤ à®¿à®²à¯ĩà®¯à¯ĩ
à¯Ĩ à®±à¯įà®±
à®¿à®¯ à®µà®°à¯įà®ķà®³à®¾à®ķ
à®ľ à¯į
Ġà®ªà®¾à®°à¯įà®µ à¯Īà®ķà®³à¯Īà®¯à¯ģà®®à¯į
Ġà®®à¯ģà®±à¯įà®ªà®Łà¯ģà®¤à¯įà®¤ à®¿
à¯ģà® ĩ
à®ľ à®¿à®©
Ġà®ªà®¾à®¤à¯ģà®ķà®¾à®µà®² à®©à®¾à®ķ
Ġà®ļà¯Ĩà®µà®¿à®®à®Ł à¯ģà®ªà¯įà®ª
à®¿à®°à¯ģà®¨à¯įà®¤ à®¿
Ġà®īà®Ļà¯įà®ķà®³ à®¾à®²à¯į
à®¾à®³ à®¿
Ġà®ħà®Ł à®¿à®ªà¯įà®ªà®Ł
Ġà®İà®´ à¯ģà®¨à¯įà®¤à¯ģ
Ġà®° à¯ĩ
à®®à®± à¯ģà®®à¯Īà®¯
Ġà®İà®©à®ķà¯įà®ķ à®¾à®ķ
Ġà®¨à®¿à®°à¯įà®µ à®ķ
Ġà®¤à®°à®µ à¯ģà®¤à¯įà®¤
Ġà®¨à®¿à®ķà®° à®±à¯įà®±
Ġà®ªà¯Ĥà®® à®¿à®¯à¯ģà®®à¯į
it e
à®ħà®²à¯įà®²à®¾à®¹à¯įà®µ à¯ģà®Łà¯Īà®¯
Ġà®¨à¯ĩà®°à¯įà®µà®´ à®¿à®¯
à®ĩà®° à®£à¯įà®Łà¯ģ
Ġà®ªà¯Ĭ à®´
O P
Ġà®ļ à®²
à®Łà®¿à®¯ à®¿
Ġà®ĩà®¤ à®¿à®²à¯ĩ
Ġà®ªà®° à¯ģà®µ
à®ľ à®¿à®ªà¯įà®°à®¯
à®® à®¯à®®à¯į
Ġà®ı à®¸à¯į
à®¿à®°à¯ģà®ķà¯įà®ķà®¿à®± à®¾à®°à¯įà®ķà®³à¯į
à¯ģà®£ à¯įà®®à¯Īà®¯à¯Ī
Ġà®ĩà®µà®°à¯įà®ķà®³ à¯ĩ
Ġà®®à®²à®ķà¯įà®ķ à¯ģà®ķà®³à¯Ī
Ġà®ªà®¤à®¿à®² à®³
Ġà®ķà¯Ĥà®Łà¯įà®Łà®¤à¯įà®¤ à®¾à®°à¯ģà®®à¯į
Ġà®İà®´à¯ģà®¤ à¯ģà®®à¯į
Ġà®¨à®¾à®Łà®¿à®¯ à®µà®°à¯ģà®ķà¯įà®ķà¯ģ
Ġà®°à®¹à¯įà®® à®¤à¯įà®¤à®¿à®²à¯į
Ġà®ļà®Łà¯įà®Ł à®®à¯į
Ġà®ªà¯Īà®¤à¯įà®¤ à®¿à®¯à®®à¯į
à®¿à®Łà®®à®¿à®°à¯ģà®¨à¯įà®¤ à¯ĩ
Ġà®Ĩà®£ à¯įà®ķà®³à¯Īà®¯à¯ģà®®à¯į
à®¤à®¿à®° à¯Ī
Ġà®ĩà®°à®µ à®¿à®²à¯ģà®®à¯į
à¯ĩ à®©à®¾
à®ĩà®±à¯ģà®¤ à®¿à®¤à¯į
Ġà®ķà¯Ĥà®² à®¿à®¯à¯ģà®®à¯į
Ġà®®à®ķ à¯įà®ķà®³à¯ģà®®à¯į
à®īà®£ à¯įà®®à¯Īà®¯à®¿à®²à¯į
Ġà®ķà®¿à®³ à®¿à®ķà¯į
à®¿à®©à¯įà®± à®¾à®°à¯įà®ķà®³à¯į
al l
Ġà®µà®¾à®© à®¤à¯įà®¤à®¿à®©à¯į
Ġà®ªà¯ģà®ķà®´ à¯Īà®ķà¯į
Ġà®¤à¯Ĩà®¯à¯įà®µ à®Ļà¯įà®ķà®³
Ġà®®à®ķà®¿à®´ à¯įà®ļà¯įà®ļà®¿à®¯
Ġ Z
Ġà®ªà®ķ à¯ģà®¤à®¿à®¯à¯Ī
Ġà®¤à®¿à®°à¯ģà®®à¯įà®ª à¯ģà®®à¯į
à®ħà®µà®° à®¤à¯ģ
Ġà®¨à®ª à®¿à®¯à®¾à®ķ
ĠM B
Ġà®¨à®©à¯įà®®à¯Īà®¯ à®¾à®ķ
Ġunit s
à®ķà¯ĩà®³à¯įà®µ à®¿
" à®īà®Ļà¯įà®ķà®³à¯į
Ġà®¨ à¯Ĭà®Ł
Ġà®¨à®¾à®Ł à¯ģ
Ġà®ħà®¤à®¿à®ķà®¾à®° à®®à¯ģà®®à¯į
Ġà®®à®°à¯įà®¯ à®®à¯ģà®Łà¯Īà®¯
Ġà®¤à®¿à®ķ à¯įà®°à¯ģ
à®ķ à®Ļà¯įà®ķà®³
Ġà®®à®¿à®ķ à¯Īà®¤à¯įà®¤à¯ģ
à¯ģà®¨ à®¿à®²à¯Ī
à®¾à®° à¯ģà®ķà¯įà®ķà¯ģ
Ġà®Ĩà®£ à¯Īà®¯à®¾à®ķ
Ġà®ħà®²à¯įà®²à®¾à®¤ à®µà®±à¯įà®±à¯Ī
à®±à¯įà®± à¯ģà®®à¯Ī
Ġà®ļà®ķ à®²
à®ªà¯Ĩ à®¤à¯į
Ġà®¤à®µà¯įà®ª à®¾à®µà¯Ī
Ġà®¨à¯Ģ à®¤à®¿
Ġà®ªà®Łà¯Īà®¤à¯įà®¤ à¯ģà®³à¯įà®³
à®ļà®¾à®³à®° à®®à¯į
Ġà®¤à®Ļà¯įà®ķà®³ à¯ģà®ķà¯įà®ķà¯ģà®³à¯į
Ġà®ħà®µà®° à¯ģà®ķà¯įà®ķà¯ģà®ªà¯į
Ġà®µà¯ĩ à®ķà®®à®¾à®ķ
Ġà®ķà¯ĩà®Łà¯įà®ª à®µà®©à®¾à®ķà®µà¯ģà®®à¯į
Ġà®®à®¿à®ķà¯Īà®¤à¯įà®¤ à®µà®©à¯ģà®®à¯į
à¯ģà®Ļà¯įà®ķ à®¿
B AR
à®ªà®¿à®©à¯įà®© à¯ģà®®à¯į
Ġà®ļà®®à¯ģà®¤à®¾à®¯ à®®à¯į
Ġà®® à®¿à®¤
P S
à®¤ à¯ĭ
à®ļà¯ĩ à®µà¯Īà®¯
f t
à¯įà®ķ à¯ĭ
à®ķ à®¾à®°à®£
Ġà®¤à¯ĩ à®¤
à®¤ à¯Ĩ
à¯įà®¸ à®¿à®¯à®¾à®©à®¾
Ġà®ļà®° à®¿à®¯à®¾
à®²à¯Ĥà®¯ à¯įà®¸à®¿à®¯à®¾à®©à®¾
Ġà®İà®´ à¯ģà®¤à®¿
Ġà®ªà®¾à®°à¯įà®ķà¯įà®ķ à¯ģà®®à¯į
à¯Ĩà®ķ à¯įà®¸
Ġà®ĩ à®µà¯įà®µà®¾à®±
Ġà®ļ à®©à¯įà®®à®¾à®°à¯įà®ķà¯įà®ķ
à®¿à®± à®©à¯į
Ġà®¯à®¾à®° à¯ģà®ķà¯įà®ķà¯ģ
Ġà®ª à®¿à®ļ
à®¾à®© à®¿à®©à¯į
Ġà®¤à¯Ĥà®¤à®° à®¿à®©à¯į
r ing
à®®à¯ģà®Ł à®¿à®µà¯ģ
Ġà®®à¯ģà®·à¯įà®°à®¿à®ķà¯įà®ķ à¯ģà®ķà®³à®¿à®²à¯į
Ġà®ķà¯ģà®±à¯Īà®µ à®¾à®ķ
Ġà®Łà®ķà¯įà®ķ à¯Ĭà®Ł
à®ĩ à®µà¯Īà®¯à¯Ĩà®²à¯įà®²à®¾à®®à¯į
à¯Ĥ à®±à¯įà®±
Ġà®ªà®¾à®°à¯įà®ªà¯įà®ª à®µà®©à®¾à®ķà®µà¯ģà®®à¯į
Ġà®ļà®®à¯Ĥà®ķà®¤à¯įà®¤ à®¿à®©à®°
à®¿à®°à¯ģà®¨à¯įà®¤ à®¾à®²à¯ģà®®à¯į
a h
Ġà®¨à®®à¯įà®ª à¯ģà®ķà®¿à®±à¯ĩà®©à¯į
) à®µ
Ġà®¤à¯ĩà®°à¯įà®¨à¯įà®¤ à¯Ĩà®Łà¯ģà®¤à¯įà®¤à¯ģ
Ġà®¤à®© à®¿à®¤à¯įà®¤
Ġà®ª à®¾à®©
Ġà®ķà¯ģà®´à®¨à¯įà®¤ à¯Īà®ķà®³à¯į
à®¨ à®Łà¯įà®ļ
Ġà®¤à¯Ĥà®¤ à®©à¯į
Ġà®ħà®©à¯ģà®®à®¤à®¿à®¯ à®¿à®©à¯įà®±à®¿
Ġ J
Ġà®ķà¯Ĥ à®Łà¯ģà®®à¯į
Ġà®İà®© à®¤à¯ģ
Ġà®µà¯Ģà®£ à®¾à®ķà¯įà®ķ
à¯ģà®ķà¯įà®ķà¯Ĭ à®³à¯įà®³
Ġà®®à¯ģà®° à®£à¯įà®ª
Ġà®ļà®¾à®ªà¯įà®ª à®¿à®Ł
1 6
Ġà®ķà®¾à®°à®¿à®¯ à®¤à¯įà®¤à®¿à®²à¯į
à®ª à®¾à®Ł
à®¿à®ļ à®ªà¯Ĩà®¤à¯į
à¯ģà®® à®²à¯į
Ġà®¤à¯Ĥ à®³
Ġà®īà®£à®° à¯įà®¨à¯įà®¤
Ġà®µà®Łà®¿à®ķà®Łà¯įà®Łà®¿ Name
à¯ģà®ķ à®¿
à®¨ à®°
ar ch
à®¤ à¯Īà®¯
à®ķà¯įà®ķà¯Ĥà®Ł à®¾à®¤à¯ģ
7 20
w at
Ġà®ļà¯ĭà®¤ à®©à¯Ī
à®©à®¿à®ķà¯įà®ķ à®¿à®´
à®¤à¯įà®¤ à®¿à®©à¯Ī
an t
à®ĵ à®°à¯į
à®µà¯Ĩà®³ à®¿à®¯
um ber
a v
à®²à®ķ à®®à¯į
Ġà®ļà®®à¯įà®ª à®¨à¯įà®¤
à¯ģà® Ĩ
à®¯ à¯ģà®®à¯į
à¯Ģ à®¸
à®¿à®Ļà¯įà®ķ à¯į
Ġà®īà®£ à®µà¯Ī
Ġà®İà®´à¯ģà®¤ à®ªà¯įà®ªà®Łà¯įà®Łà®¤à¯ģ
à¯ĩ à®Łà¯ģ
à®¹ à®¾à®°
Ġwh at
à®µ à®¾à®²
à®¨ à¯ĩ
Ġà®ķà®Łà¯įà®Ł à®¾à®¯
Ġà®ªà¯Ĩà®°à¯ģà®®à¯įà®ªà®¾à®² à®¾à®©
Ġà®ĥà®ªà®¿à®°à¯įà®ħà®µà¯įà®© à¯ģà®Łà¯Īà®¯
à®ħ à®ļ
Ġà®ħà®® à®°
Ġà®ª à¯Ī
Ġà®ħà®° à¯įà®ªà¯įà®ª
Ġà®®à®¸ à¯Ģà®¹
Ġà®ļà®¾à®ª à®®à¯į
Ġwor ld
M M
à¯Īà®ªà¯įà®ª à®²à®ķà¯Ī
00 0
Ġà®ļà¯ģà®±à¯įà®± à®¿à®¯à¯ģà®³à¯įà®³
à¯ģà® ŀ
Ġà®ª à®µ
à®¿à®² à®¾à®©
Ġà®®à®± à¯Īà®¯à®¾à®ķà¯įà®ķ
Ġà®ĩà®¯ à®Ļà¯įà®ķà¯ģà®®à¯į
Ġà®ķà®Łà®µà¯ģà®ļà¯įà®ļà¯Ĭ à®²à¯į
Ġà®ªà®¿à®° à®¿à®¤à¯įà®¤à¯ģ
Ġà®ªà¯Ĩà®°à®¿à®¤ à¯ģà®®à¯į
à¯ģà®® à®¾à®¯à®¿à®©à¯į
Ġà®ļà®®à¯įà®ª à®µ
I M
Ġà®® à®¾à®ªà¯Ĩà®°à¯ģà®®à¯į
Ġà®µà®Łà®¿à®µ à®®à¯Ī
à®Ļà¯įà®ķ à®¿à®²
Ġà®µà®¾à®¯ à¯įà®ªà¯įà®ªà¯ģ
Ġà®® à¯Ĭ
à®¿à®ķà¯įà®ķ à®¾à®¤
Ġà®ªà®£à¯įà®ª à¯ģà®ķà®³à¯į
à®Ł à¯ģà®ķà®³à¯Ī
Ġà®¤à®¿à®°à¯ģà®ªà¯įà®ª à®¿à®µà®¿à®Ł
Ġw indow
à®ĩà®¯ à®ķà¯įà®ķ
à®Ļà¯įà®ķà®³ à¯ģà®Łà®©à¯į
Ġà®ħà®µ à¯Īà®¯
Ġà®īà®¤ à®¯
Ġà®¤à®¾à®° à®¾à®³
ob ject
Ġà®ķ à®¾à®°à¯į
Ġà®ĩ à®³à¯Ī
Ġà®ĩà®°à¯ģà®ķà¯įà®ķ à®¾à®¤à¯ģ
Ġà®ļà¯Ĩà®¯à¯įà®¤ à®¿à®°à¯ģà®ªà¯įà®ª
Ġà®ķà®£à®ķà¯įà®ķ à®¿à®Ł
m b
Ġà®®à®± à¯ģà®¤à¯įà®¤
Ġà®ķà®£à¯įà®Ł à®¿à®ªà¯įà®ªà®¾à®ķ
à¯Īà®¯à®¾à®³ à®°à¯į
Ġà®ªà¯ģà®¤ à¯ģà®ªà¯įà®ª
Ġà® ©
Ġà®ĩ à®ļ
à¯ĭ à®²à¯į
Ġà®®à®± à¯Īà®¨à¯įà®¤à¯ģ
à®ªà¯įà®ªà®Łà¯ģà®¤à¯įà®¤ à¯ģà®®à¯į
Ġà®µà®¾à®¯ à¯įà®ªà¯įà®ª
à®¤à¯ģà®µ à®ķà¯įà®ķ
à®® à®¿à®²à¯įà®²à®¾à®¤
à®ĩ à®°à®ķ
à®¿à®°à¯ģà®¨à¯įà®¤ à®©à®°à¯į
à®¹ à¯įà®°
Ġà®ªà®°à®¿à®¨à¯įà®¤ à¯ģà®°
à®¾à®° à®¿à®ļ
at a
à®ļ à®¾à®°à¯į
c ame
ro on
Ġà®ķà¯ģà®±à¯Īà®¨à¯įà®¤ à®¤à¯ģ
wat ers
à®ļ à®Łà¯įà®Ł
Ġà®Ł à¯Ī
1 8
à®° à¯įà®²
à®¤ à¯ģà®®à®¾à®©
à¯įà®ļ à®¿à®¯à®®à¯į
à®İ à®µà¯įà®µ
Ġà®ķà®¾à®² à®¿à®¯à®¾à®ķ
Ġà®Ĩà®¤ à®¾à®°à®®à¯į
à®¤à®Ł à®®à¯į
à¯ģà®ŀ à¯į
Ġà®µà®Łà®¿à®ķ à®Łà¯įà®Ł
à®° à®¿à®Łà®®à¯į
à®® à¯ģà®®
Ġà®ļà¯Ĩà®¯à¯įà®µ à®¤à®±à¯įà®ķà¯ģ
Ġà®¤à¯ĩà®Ł à¯ģà®®à¯į
à®¾à®µ à®¿à®Ł
Ġh ttp
Ġà®ķà®¾à®±à¯įà®± à¯ģ
Ġà®¤à®¯à®¾à®° à®¾à®ķ
Ġà®ħà®°à¯įà®¤à¯įà®¤ à®®à¯į
N AME
Ġà®ª à®©
à®ªà¯Ĩ à®£
Ġà®ľà¯ĭ à®Łà®¿
D A
Ġà®® à¯Ī
à®¤à¯įà®¤ à®¿à®²à¯ĩà®¯à¯ĩ
Ġà®ħà®² à¯ģà®µ
à®®à¯ģà®Ł à®¿à®¯à¯ģà®®à¯į
à®¤à¯ģà®µ à®¾à®©
à®¯ à¯Ĥ
à®µà®° à¯ģà®ķà¯įà®ķà¯ģà®®à¯į
à®¿à®¯ à®¾à®ķà¯įà®ķ
Ġà®µà¯Īà®ķà¯įà®ķ à®ªà¯įà®ªà®Łà¯įà®Ł
h ttp
à¯ģà®Ł à¯įà®Łà¯ģ
Ġà®µà®° à¯ģà®µà®¤à®±à¯įà®ķà¯ģ
à®ĩà®Ł à®¤à¯ģ
à®ĩ à®Łà¯Ī
à®ļà¯Ī à®®à®©à¯į
Ġà®ªà®¾à®°à¯įà®¤à¯įà®¤ à¯ĩà®©à¯į
Ġà®ħà®ļ à¯ģà®¤à¯įà®¤
à®ħ à®±à¯įà®ª
ag es
à®¾à®© à¯įà®Ł
Ġà®®à®ŀà¯įà®ļ à®³à¯į
Ġà®Ĵà®¤à¯įà®¤ à®¿à®ļ
à®ļà®¤à¯įà®¤à®¿à®¯ à®®à¯į
oo k
or y
Ġà®ħà®±à®¿à®¯ à®¾à®®
Ġà®ķà®² à®¨à¯įà®¤à¯ģ
à¯įà®ķà¯į City
à¯Ĥ à®²à¯į
à¯įà®ļ à¯Ĩà®©à¯įà®Łà¯į
à¯ģà®ªà¯įà®ª à®Łà®¿
Ġà®īà®³à¯įà®³ à®¿à®Łà¯įà®Ł
ĠM i
Ġà®µà®° à¯ģà®µà®¾à®©à¯į
à®Ĩ à®²
à®ļà¯Ĩ à®Ļà¯įà®ķà¯ģà®¤à¯įà®¤à¯ģ
Ġreg ions
à®¨à®Łà¯įà®ļ à®¤à¯įà®¤à®¿à®°
Ġà®ľ à®©à®¾à®¤à®¿à®ªà®¤à®¿
à®¿à® ŀà¯įà®ļ
à®¨ à®©
à®Łà¯įà®Ł à¯ģà®ķà¯į
Ġà®®à®¾à®±à¯įà®± à®Ļà¯įà®ķà®³à¯Ī
Ġà®ķà®© à®µà¯ģ
à®¨à¯įà®¤ à®¿à®°à®®à¯į
à®ªà¯Ĥà®® à®¿
Ġà®ķà®¿à®° à®¾à®®
à®ķ à®¾à®Łà¯įà®ļ
Ġà®ļà¯Ĩà®¯à¯įà®¤ à¯ģà®ķ
Ġà®ļà®¾à®³à®° à®¤à¯įà®¤à¯Ī
Ġà®ļà¯Ĥà®°à®¿à®¯ à®©à¯į
Con stellation
Ġà®ĩ à®µà®±à¯įà®±à®¿à®©à¯į
Ġà®®à®² à¯Īà®ķà®³à¯į
Ġ et
à¯Ĥà®Ł à®¿à®¤à¯į
Ġà®µà¯ĩà®£à¯įà®Łà¯ģà®® à¯Ĩà®©à¯įà®ª
à®¿à®ķà¯įà®ķ à®¤à¯į
à®ª à¯ģà®©à®¿à®¤
Ġà®µà®¿à®µà®° à®¿à®¤à¯įà®¤
p art
Ġà®µà®¿à®² à®Ļà¯įà®ķ
Ġà®¨à®·à¯įà®Ł à®®à¯į
à®®à®¾à®±à¯įà®± à¯ģ
à®ªà¯ģà®ķ à®´
Ġà®ļà¯ģà®® à®¤à¯įà®¤
Ġà®ªà¯Ĭà®°à¯ģà®³ à¯Ī
à®µà®¾à®° à®¿
à®īà®² à®ķà®¤à¯įà®¤
Ġà®µ à®¿à®±à¯įà®ķ
à®µà®° à¯ĩ
à®ķ à®¿à®¯
à®ķà¯įà®ķ à®ªà¯įà®ªà®Łà¯įà®Ł
Ġà®ħà®±à®¿à®µ à®¿à®ķà¯įà®ķà¯ģà®®à¯į
à®¤ à®¾à®µ
à®ķà¯įà®ķ à®¾à®©
Ġà®ħà®¤ à¯ģà®ª
Ġà®ĩà®°à¯ģà®ªà¯įà®ª à®¤à®¾à®ķ
à®¿à®¸ à¯įà®Ł
Ġà®ªà®¾à®¤à¯ģà®ķà®¾à®ªà¯įà®ª à®¾à®©
Ġà®µà®¾à®°à¯įà®¤à¯įà®¤ à¯Īà®ķà®³à¯į
Ġà®ļà¯Ĩà®¯à¯įà®¤ à®¿à®ķà®³à¯į
Ġc heck
à®° à®ļ
Ġà®µà¯ĩà®£à¯įà®Łà¯ģà®® à¯Ĩà®©à¯įà®±à¯ģ
à®¤ à®¾à®®
Ġà®ķ à®©à¯įà®©
à®¿à®± à¯Ģà®°à¯įà®ķà®³à®¾
à®µà®© à®¿à®©à¯į
Ġà®µà®ķ à¯Īà®ķà®³à¯į
Ġà®¤à®¿à®°à¯ģà®ª à¯įà®¤
Ġà®ħà®¤à®¿à®ķ à®®à¯į
Ġà®¤à¯ģà®µ à®ķà¯įà®ķà¯ģ
Ġà®ļà®¿à®ª à®¾à®°à®¿à®ļ
à¯ģà®¤à¯įà®¤ à®¿
ub lic
à¯įà®ķà¯įà®ķ à¯ģà®®à¯į
Ġà®ªà®¯ à®¿à®±
Ġà®®à¯ģà®©à¯įà®© à®¿à®²à¯Īà®¯à®¿à®²à¯į
à®ªà®Łà¯įà®Ł à®¿à®¯
came roon
à®¾à®² à®¤à¯įà®¤à®¿à®²à¯į
Ġà®ªà¯ģà®ķ à¯Īà®ªà¯įà®ªà®Ł
ĠA l
à®¿à®ķà¯įà®ķ à®¿à®Ł
Ġà®ķà®Łà¯įà®Ł à®Ł
à®ĩà®± à®¨à¯įà®¤à¯ģ
Ġà®İà®£à¯įà®£ à®¿
Ġà®ķ à¯Īà®µà®¿à®Ł
à®ª à¯ĩà®ļ
Ġà®ĩ à®µà®±à¯įà®±à®¿à®²à¯į
Ġà®ªà®ķ à¯ģà®¤à®¿à®¯à®¿à®²à¯į
ic k
ra ck
Ġà®ªà¯ģà®³à¯įà®³ à®¿à®¯à¯Ī
à®®à®©à¯įà®© à®¿à®ķà¯įà®ķà®µà¯ģà®®à¯į
Ġà®ĩà®²à¯įà®²à®¾à®® à®²
Ġà®µ à®±à¯įà®ª
Ġà®īà®³à¯įà®³ à®µà®±à¯įà®±
Ġà®īà®°à®¿à®¯ à®¤à®¾à®ķà¯ģà®®à¯į
Ġà®µà®±à¯įà®ª à¯ģà®±à¯ģà®¤à¯įà®¤
à®¿à®© à¯ĩà®©à¯į
à®Ĵ à®²
Ġà®ļ à®¿à®ķ
à®¿à®±à¯įà®ķ à®¾à®©
Ġà®ķà®¾à®Łà¯įà®Ł à®µà¯ģà®®à¯į
à®®à®±à¯įà®± à®µà®°à¯įà®ķà®³à¯Ī
Ġà®ªà®¾à®°à¯įà®ªà¯įà®ª à®¾à®°à¯įà®ķà®³à¯į
à®¤ à¯ģà®Łà®©à¯į
oun d
la t
Ġà®µà®ķ à¯ģà®ªà¯įà®ª
Ġet c
Ġà®¨à¯Ģ à®°à¯Ī
Ġà®¨à®¿à®² à¯Īà®¯à®¿à®²à¯ģà®®à¯į
(à®ħ à®µà®©à¯ĩ
à¯Īà®¯ à¯ģà®®
u k
) ?
Ġà®İà®Łà¯ģà®¤à¯įà®¤ à¯ģà®°
à®ħà®µ à¯į
Ġ ed
à®¿à®² à®¿à®°à¯ģà®ªà¯įà®ª
Ġà®ļà¯Ĩà®¯à¯įà®ķà®¿à®©à¯įà®± à®©
Ġà®ĩ à®ļà¯Ī
Ġà®ļ à®¾à®Łà¯įà®Ł
Ġà®µà¯Ĩà®³ à®¿à®¯à®¾à®ķ
Ġà®µà®² à®ķà¯įà®ķ
Ġà®ķà¯ģà®°à¯įà®Ĩ à®©à®¿à®²à¯į
Ġà®ķà®© à®¿à®µà®ķ
Ġà®®à¯ģà®¯ à®©à¯įà®±
ter s
à®®à¯ģà®´ à¯ģ
Ġà®ļà®µà®© à®ªà®¤
G L
à®³ à®µà¯ģà®®à¯į
à®¾à®° à¯ĭ
Ġà®ħà®µà®° à¯ģà®ķà¯įà®ķà¯ĩ
Ġà®ķà¯Ĥà®± à¯ģ
à¯ģà®ª à®Ł
à®µà®Ł à®ķà¯įà®ķà¯ģ
Ġà®¨à®² à¯įà®µà®´
à®ª à¯Ĩà®¯à®°
in k
Ġà®ķà®µà®© à®¿à®¤à¯įà®¤à¯ģà®ķà¯į
à¯Ĩà®©à¯įà®± à¯ĩ
Ġà®¤à¯Ĭà®Ł à®°à¯į
Ġà®¨à®¿à®©à¯Īà®µ à¯Ĥà®Łà¯įà®Łà¯ģà®®à¯į
Ġà®ħà®°à¯įà®· à®¿à®©à¯į
à®®à¯Ĭ à®¤à¯įà®¤
à®©à¯Īà®¤à¯įà®¤ à¯ģà®®à¯į
Ġra re
à®¨ à¯įà®¨à®¾à®³à®¿à®²à¯į
Ġà®ķà®¾à®£à¯įà®ª à¯Ģà®°à¯įà®ķà®³à¯į
Ġà®ĩà®´ à¯ģà®ķà¯įà®ķ
Ġà®®à®©à®¿à®¤à®°à¯įà®ķà®³ à¯ģà®ķà¯įà®ķà®¾à®ķ
Ġà®¨à¯ĩà®ļ à®¿à®ķà¯įà®ķ
Ġà®ľà¯ĭ à®Łà®¿à®¯à®¾à®ķ
Ġà®ħà®Ł à®¿à®ķà¯įà®ķ
Ġà®ªà®ķà¯įà®ķ à®®à¯ģà®®à¯į
Ġà®¨à®©à¯įà®® à¯Īà®ķà®³à¯į
Ġà®¤à®© à¯įà®®
Ġà®®à®¤ à¯įà®¯à®©à¯į
Ġà®īà®¤ à®µà¯ģà®®à¯į
Ġà®ĩà®¸à¯įà®¹ à®¾à®ķà¯įà®ķ
à¯įà®ķ à¯ĩ
à¯Ģ à®ķ
à®® à¯ģà®£à¯įà®Łà¯ģ
Ġà®ļà¯Ĩà®¯à¯įà®ª à®µà¯Ī
Ġà®¹ à®¿à®ľà¯įà®°à®¤à¯į
à®ħà®± à®¿à®µ
à¯ģà®µ à®¤à®¾à®ķ
à®Łà®¿à®µà®¿à®Ł à®¿
I n
Ġà®ħà®£ à®¿à®µ
Ġà®®à¯ģà®©à¯įà®© à¯ģà®®à¯į
Ġà®ħà®ļà¯įà®ļ à®®à¯į
Ġà®ĩà®µà¯įà®µ à¯ģà®²
Ġl ist
Ġà®®à®£ à®¨à¯įà®¤à¯ģ
Ġà®ļà®¿à®²à®°à¯Ī à®ļà¯į
à®®à®¾à®© à®µà®°à¯įà®ķà®³à¯į
Ġà®µà¯ĩà®¤ à®¤à¯įà®¤à¯Īà®¯à¯ģà®Łà¯Īà®¯
Ġà®ªà®¯ à®£
ar n
Ġà®ĩà®µà¯įà®µà¯ģà®²à®ķ à®¿à®²à¯ģà®®à¯į
à®¿à®¯ à®Ł
Ġà®¸ à®¾à®²à®¿à®¹
à®ħà®¤ à®¿à®²à®¿à®°à¯ģà®¨à¯įà®¤à¯ģ
Ġà®®à¯ģà®ĥà®®à®¿à®© à¯įà®ķà®³à¯ĩ
Ġà®ªà¯Ĩà®£ à¯įà®ķà®³à®¿à®©à¯į
Ġà®ªà¯ģà®± à®ªà¯įà®ªà®Łà¯įà®Ł
Ġà®¤à¯Ĥà®¤à®° à¯ģà®ķà¯įà®ķà¯ģ
Ġà®ķà¯Ĥà®Łà¯įà®Łà®¤à¯įà®¤à®¾à®° à®¿à®Łà®®à¯į
Ġà®ļà®¨à¯įà®¤à¯ĩà®ķ à®¤à¯įà®¤à®¿à®²à¯į
Ġà®®à¯Ģà®Łà¯įà®Ł à®ªà¯įà®ªà®Łà¯ģà®µà¯Ģà®°à¯įà®ķà®³à¯į
Ġà®µà®²à¯įà®² à®®à¯Ī
à®ĩà®ªà¯įà®±à®¾à®¹à¯Ģ à®®à¯į
(à®¨à¯įà®¨ à®°à®ķ
Ġà®¤ à®±à¯įà®ªà¯ĭà®¤à¯ģ
à®ķà¯įà®ķ à®®à®¾à®ķ
à®ĩ à®ķà¯į
Ġà®ħà®±à®¿à®µ à¯Ģà®°à¯įà®ķà®³à¯į
Ġà®¤à®Ļà¯įà®ķà®³ à¯ģà®ķà¯įà®ķà¯ģà®¤à¯į
Ġà®īà®±à¯ģà®¤à®¿à®¯ à¯ģà®Łà®©à¯į
Ġà®µà®´à®¿à®ķ à¯Ĩà®Łà¯ģà®¤à¯įà®¤
à®ķà¯Ĥà®± à¯ģà®µà¯Ģà®°à®¾à®ķ
Ġà®ĩà®ªà¯įà®ªà¯Ĥà®® à®¿à®¯à®¿à®²à¯į
Ġà®ļà®¾à®¸ à®©
à®µ à®ķà¯Ī
à®®à®¾à®ķ à®¾à®¤à¯ģ
Ġà®ªà¯Ĥà®®à®¿à®¯ à®¿à®²à¯ģà®®à¯ģà®³à¯įà®³
Ġà®ıà®±à¯įà®ªà®Łà¯ģà®¤à¯įà®¤ à®¿
Ġà®ķà®© à®¿à®µà®°
Ġà®İà®ļà¯įà®ļà®°à®¿à®ķà¯įà®ķ à¯Īà®¯à®¾à®ķ
Ġà®ļà¯Ģà®ķà¯įà®ķ à®¿à®°à®®à¯į
RO AN
Ġà®ķà®©à®¿à®µà®° à¯įà®ķà¯įà®ķ
à®ªà¯įà®ª à®µà®©à¯į
Ġà®¨à®¿à®°à®¾à®ķà®° à®¿à®ķà¯įà®ķà¯ģà®®à¯į
à®ķà®° à¯įà®ªà¯įà®ª
Ġà®ļà¯Ĩà®²à¯įà®² à®¾à®¤
Ġà®µà¯Ĩà®³à®¿à®ªà¯įà®ª à®Łà¯įà®Łà¯ģ
Ġà®µà®¾à®ļ à®¿à®ķà®³à¯į
Ġà®Ĵà®° à¯ģà®ķà¯įà®ķà®¾à®²à¯ģà®®à¯į
Ġà®ħà®µà®© à¯ģà®®à¯į
Ġà®®à®©à®¿à®¤à®°à¯įà®ķà®³ à®¿à®Łà¯Īà®¯à¯ĩ
Ġà®ķà¯ģà®®à®¾à®° à®°à¯į
à®¿à®¯ à®¤à¯ģà®®à¯į
à®ķ à®ĥà®ª
à®¿à®¤à¯įà®¤ à®µà®°à¯įà®ķà®³à®¾à®ķ
Ġà®ļà¯Ĩà®¯à¯įà®ª à®µà®±à¯įà®±à¯Īà®¯à¯Ĩà®²à¯įà®²à®¾à®®à¯į
Ġà®µà®°à®®à¯įà®ª à¯ģà®ķà®³à¯Ī
Ġà®®à®¾à®°à¯įà®ķà¯įà®ķ à®®à®¾à®ķà¯ģà®®à¯į
Ġà®ªà®¾à®ķà¯įà®ķà®¿à®¯ à®®à¯ģà®³à¯įà®³
Ġà®ļà¯Ģà®ķà¯įà®ķà®¿à®° à®®à¯ĩ
à®¤à¯įà®¤à®¿à®±à¯įà®ķ à¯ģà®³à¯įà®³
st his
Ġà®ķà®² à®¨à¯įà®¤
Ġà®ķà¯Ĥà®±à¯ģà®ª à®µà®°à®¾à®ķà®µà¯ģà®®à¯į
Ġà®¤à¯Ģà®°à¯įà®ªà¯įà®ªà®³à®¿à®ªà¯įà®ª à®¾à®©à¯į
"à®ħà®²à¯įà®²à®¾à®¹à¯įà®µ à¯Īà®¯à®©à¯įà®±à®¿
Ġwhat sthis
à®¾à®° à®¿à®Łà®®à¯į
Ġà®İ à®Ļà¯įà®ķà®³à®¿à®²à¯į
à¯ģà®ª à®µà®°à¯įà®ķà®³à®¾à®ķà®µà¯ģà®®à¯į
Ġà®İà®©à¯įà®© à¯Īà®¯à¯ĩ
Ġà®®à®¾à®±à¯įà®± à®ªà¯įà®ªà®Łà¯įà®Ł
Ġà®¤à®¿à®°à¯ģà®®à¯įà®ª à®ķà¯į
Ġà®µà®¿à®µ à®ļà®¾à®¯
à®¤ à®¾à®²à¯ģà®®à¯į
à®ĩà®£ à¯Īà®µ
Ġà®ªà¯Ĥà®° à¯įà®¤à¯įà®¤
Ġà®µà®²à®ķà¯įà®ķà®° à®Ļà¯įà®ķà®³à¯į
à®¿à®ļ à®¾à®¯
Ġà®ļà®®à¯Ĥà®ķà®¤à¯įà®¤à®¾à®° à®¾à®ķà®µà¯ĩ
à®¤à¯ĩ à®Ł
Ġà®ªà¯Ĥà®®à®¿à®¯à®¿à®© à¯ģà®Łà¯Īà®¯à®µà¯ģà®®à¯į
Ġà®ªà¯Ĩà®£ à¯įà®ķà®³à®¿à®²à¯į
Ġà®ħà®´à®ķ à®¾à®ķà®ķà¯į
" à®ħà®²à¯įà®²à®¾à®¹à¯įà®µà®¿à®©à¯į
à®ķà¯įà®ķ à®¤à¯įà®¤à¯Ī
Ġà®ļà¯ģà®µà®© à®ª
Ġà®µà¯Ģà®Ł à¯ģà®ķà®³à¯Ī
Ġà®īà®£à®° à¯įà®µà¯ģ
Ġà®®à®©à¯įà®© à®¿à®¤à¯įà®¤à®¾à®©à¯į
Ġà®µà¯Īà®ķà¯įà®ķ à®¿à®±à®¾à®©à¯į
à®¿à®°à¯ģà®µà®° à¯ģà®ķà¯įà®ķà¯ģà®®à¯į
Ġà®ªà®¯à®© à®±à¯įà®±
à¯įà®¹ à¯ģà®²à¯į
Ġà®µà®¿à®³à¯Īà®¯à®¾à®Łà¯įà®Ł à¯Ī
Ġà®®à¯Ĥà®©à¯įà®± à®¿à®²à¯į
Ġà®®à®¹ à¯įà®ĥà®ª
à®²à®µ à¯įà®¹à¯ģà®²à¯į
Ġà®µà®²à¯įà®²à®® à¯Īà®¯à¯ģà®Łà¯Īà®¯
à¯ģà®ª à®µà®°à¯įà®ķà®³à¯ģà®®à¯į
Ġà®ªà®¯ à®ªà¯įà®ªà®Łà¯ģà®µ
Ġà®ħà®³ à®¿à®¤à¯įà®¤à¯ģ
(à®ħ à®µà¯įà®µà®¾à®±à¯ģ
à®ªà®ķ à¯Ī
à®µà¯Īà®¯ à®¾à®ķà®µà¯ģà®®à¯į
Ġà®µà®¿à®·à®¯ à®Ļà¯įà®ķà®³à¯Ī
Ġà®µà¯Īà®ªà¯įà®ª à®¤à¯Īà®¯à¯ģà®®à¯į
Ġà®ĥà®ªà®¿à®°à¯įà®ħà®µà¯įà®© à¯ģà®®à¯į
Ġà®¨à®©à¯įà®®à¯Īà®¯ à¯ģà®Łà¯Īà®¯
Ġà®ļà¯Ĩà®¯à¯įà®¯à®ªà¯įà®ªà®Ł à®µà¯ģà®®à¯į
Ġà®ļà¯ģà®µà®©à®ªà®¤ à®¿à®¯à®¿à®²à¯į
) à®³
y le
Ġ j
à®² à¯įà®ķà®³à¯Īà®¯à¯ģà®®à¯į
Ġneed s
à¯Ĥà®° à®£
Ġà®¨à®ª à®¿à®®
à®ķà®¾à®² à¯įà®ļà®¿à®¯à®®à¯į
Ġà®¨à®²à¯įà®²à®Łà®¿à®¯à®¾à®°à¯įà®ķà®³ à®¿à®²à¯į
Ġrare ly
Ġà®ª à®¾à®ª
Ġà®İà®Ļà¯įà®ķà®³ à¯ģà®ķà¯įà®ķà¯ģà®®à¯į
Ġà®¤à¯Ĩà®°à®¿à®¯ à®µà®¿à®²à¯įà®²à¯Ī
Ġà®®à¯Ĥà®Ł à®¿à®ķà¯į
à¯ģà®Łà¯Īà®¯ à®µà®°à¯įà®ķà®³à¯į
à¯ģà®ķà®¿à®± à®¾à®°à¯įà®ķà®³à®¾
à¯Īà®ķà¯įà®ķ à®ļà¯į
Ġà®®à®¿à®ķ à¯ģà®¤
Ġà®ħà®° à®¿à®¯à®¾à®ļ
à¯įà®¨ à¯Ģ
Ġà®ħà®µà¯įà®µ à¯Ĥà®°
à®¿à®²à®¿à®°à¯ģà®¨à¯įà®¤ à¯ģà®³à¯įà®³
Ġà®¨à®©à¯įà®® à¯Īà®¯à¯ģà®®à¯į
Ġà®ĥà®ª à®¾à®¸
à®ķà¯įà®ķà®¾à®³ à®®à¯į
Ġà®ļà¯Ĭà®°à¯ģà®ķà¯ģà®ªà¯įà®ª à¯Ĭà®°à¯ģà®³à¯į
Ġà®ļà¯Ĩ à®´
à¯Īà®ķà®³ à¯ĩ
à®ħà®²à¯įà®²à®¾à®¹à¯įà®µ à¯Īà®¯à®©à¯įà®±à®¿
(à®ħ à®ªà¯įà®ª
Ġà®¤à®®à¯įà®® à®¿à®Łà®®à¯į
Ġà®ķà¯ģà®ĥà®ªà¯įà®° à¯Ī
Ġà®²à®¿à®²à¯įà®² à®¾à®¹à¯į
Ġà®īà®° à¯Īà®¯à¯Ī
Ġà®ļà®¿à®¨à¯įà®¤ à®¿à®¤à¯įà®¤
Ġà®Ĩà®° à®¾à®¯
à®Ĵ à®©à¯įà®±
Ġà®ħà®³à®µ à¯ģà®ķà¯įà®ķà¯ģ
Ġà®²à¯Ĥ à®¤à¯įà®¤à¯ģà®Łà¯Īà®¯
Ġà®ħà®Łà®¿à®ļà¯įà®ļ à¯ģà®µ
à¯ĩà®¤ à®©à¯Ī
à®· à¯ģà®Ĳ
ab le
à®¤à®° à¯įà®®
à®®à®Łà¯Īà®¯ à®ļà¯į
Ġà®ªà¯ģà®± à®¤à¯įà®¤à®¿à®²à®¿à®°à¯ģà®¨à¯įà®¤à¯ģ
(à®¨ à®¿à®©
âĻª čĊ
à®ķà®° à®¿à®¯à¯įà®¯
Ġà®®à¯ģà®¸à¯įà®² à¯Ģà®®
à®µà®¾à®° à¯ģà®Ļà¯įà®ķà®³à¯į
Ġà®¨à®©à¯įà®ķà®±à®¿à®¨à¯įà®¤ à®µà®©à®¾à®ķ
à®Ł à®¾à®ķ
à®ķ à¯įà®ķà®³à¯į
à®ļà®° à®¿à®¯à®¾à®©
Ġà®ļà¯ĩà®°à¯įà®ķà¯įà®ķ à®µà¯ģà®®à¯į
Ġà®ıà®µ à®ªà¯įà®ªà®Łà¯įà®Ł
Ġà®µà®¸ à®¿à®¯à¯įà®¯
à¯ģà®® à®¾à®ķà®µà¯ģà®®à¯į
Ġà®īà®³à¯įà®³ à®µà¯Ī
Ġà®¤à¯Ģà®° à¯ģà®®à¯į
Ġà®ªà®¿à®©à¯įà®© à®°
à®¤à®µ à¯įà®ª
Ġà®®à¯ģà®ĥà®®à®¿à®© à¯įà®ķà®³à®¿à®²à¯į
Ġà®ªà®¿à®©à¯įà®ªà®±à¯įà®± à¯ģà®µ
Ġà®¤à®² à®¤à¯įà®¤à®¿à®²à¯į
Ġà®ªà¯ĩà®°à®¾à®±à¯įà®± à®²à¯į
Ġà®ļà¯Ģà®° à¯įà®¤
" ,
à®® à®¾à®°
à¯Ĥ à®ª
à®ħ à®Ļà¯įà®ķ
à®¿à®ķ à®®à¯į
Ġà®īà®Ļà¯įà®ķà®³ à®¿à®°à¯ģà®µà®°
à®ĩà®± à¯ģà®¤à®¿à®¯à®¿à®²à¯į
Ġà®İà®£à¯įà®£ à¯Ī
Ġà®ªà®Łà¯Īà®¤à¯įà®¤ à¯ģà®³à¯įà®³à®¾à®©à¯į
Ġà®µà¯Īà®ķà¯įà®ķ à®¿à®©à¯įà®±
Ġà®ħà®µà¯įà®µà®¿à®°à¯ģà®µà®° à®¿à®©à¯į
ĠI mage
Ġà®¨à®±à¯įà®ķà¯Ĥà®² à®¿à®¯
t o
· à¯įà®Ł
à®² à¯įà®ķà®³à®¾à®ķ
à®ªà¯įà®ªà®Ł à®¿à®ķà¯į
Ġà®ħà®µà®±à¯įà®± à¯ģà®ķà¯įà®ķà¯ģ
Ġà®ªà®£ à®¿à®¨à¯įà®¤
)à®¤ à¯Īà®ķà¯į
og l
à®¨ à®¾à®Łà¯įà®Ł
à®²à¯įà®²à®¾à® µ
à¯ģà®® à¯įà®¤à®¾à®©à¯į
Ġà®ķà¯Ĥ à®°
Ġà®ļà¯ĩ à®µ
Ġà®ķà®£à¯įà®£à®¿à®¯ à®®à®¿à®ķà¯įà®ķ
m in
à®¤ à¯Īà®¯à¯Ĩà®²à¯įà®²à®¾à®®à¯į
Ġà®® à®¿à®²à¯įà®²
à®µà®°à¯įà®ķà®³ à®¾à®¯à¯į
Ġà®¤à¯Ĥ à®¤à¯Ī
Ġà®¤à®µà®¿à®° à¯įà®¤à¯įà®¤à¯ģà®ķà¯į
Ġà®µà¯ĩà®¤à®© à¯Īà®ķà¯įà®ķà¯ģ
Ġà®ļà¯Ĥ à®©à®¿à®¯à®®à¯į
à®ħà®° à¯įà®°à®¹à¯įà®®
Ġà®ªà¯ģà®¤à¯įà®¤ à®ķà®¤à¯įà®¤à®¿à®²à¯į
Ġà®ĩà®ļà¯įà®ļ à¯Īà®ķà®³à¯Ī
Ġà®µà®´à®ķà¯įà®ķ à®®à®¾à®©
Ġà®¸à¯ģà®²à¯Ī à®®à®¾à®©à¯į
Ġà®ªà®¯à®ªà®ķ à¯įà®¤
à®ªà¯įà®ª à®±à¯įà®±
Ġà®ħà®²à¯įà®²à®¾à®¹à¯įà®µ à®¿à®Łà®®à®¿à®°à¯ģà®¨à¯įà®¤à¯ĩ
Ġà®¨à®Ł à®®à®¾à®Ł
Ġà®ļà¯Ĩà®¯à¯įà®ķà®¿à®©à¯įà®± à®¾à®©à¯į
Ġà®İà®²à¯ģà®®à¯įà®ª à¯ģà®ķà®³à®¾à®ķà®µà¯ģà®®à¯į
o ss
Ġà®ķà®Ł à®®à¯Ī
à®¨à®¿à®°à®¾à®ķà®°à®¿à®ªà¯įà®ª à®µà®°à¯įà®ķà®³à¯į
à®¤ à¯ģà®¤à®¿
à®ķ à®¿à®´
Ġà®¨à¯Ģà®¯ à¯ģà®®à¯į
à¯ģà®¸ à¯į
T P
f a
Ġà®¨à®¿à®©à¯Īà®¤à¯įà®¤ à¯ģà®ªà¯į
Ġà®ı à®Łà¯įà®Łà®¿à®²à¯į
Ġà®İà®´à¯ģà®¤ à®ªà¯įà®ªà®Łà¯įà®Ł
Ġà®®à¯Ĥà®¸à®¾à®µ à¯ģà®ķà¯įà®ķà¯ģà®®à¯į
Ġà®ħà®µà®° à¯ģà®ķà¯įà®ķà¯ģà®¤à¯į
Ġà®¨à¯Ģ à®Ļà¯įà®ķà®¿
Ġà®ħà®Łà®¿à®¯ à®¾à®°à¯į
Ġ im
à®© à¯Īà®¯à®¿à®²à¯į
Ġà®ļ à®¿à®®
Ġà®¤ à®¿à®ļà¯Ī
Ġà®ļà¯Ĩ à®¤à¯įà®¤
à®¿à®¤ à®®à®¾à®©
Ġà®ĩà®°à¯ģà®ķà¯įà®ķ à®Łà¯įà®Łà¯ģà®®à¯į
Ġà®µà®° à®ªà¯įà®ªà®Łà¯ģà®®à¯į
Ġà®ļà®¤à¯įà®¤à®¿à®¯ à®¤à¯įà®¤à¯Īà®ķà¯į
Ġà®ķà®¿à®° à®¯
à®µà®¿à®¤ à®®à®¾à®©
Ġà®¨à®¿à®ļà¯įà®ļà®¯ à®®à¯į
uer y
1 5
à¯įà®ª à¯Ĭ
à®® à®¿à®¸
à®¿à®°à¯ģà®ªà¯įà®ª à®¤à¯Īà®ķà¯į
à®¿à®ª à¯ģà®°
Ġà®ªà®¿à®° à®¿
Ġà®ļà¯Ĩà®² à¯įà®ķà®¿à®±à¯ĩà®©à¯į
Ġà®īà®Łà¯Īà®¯ à®µà®©à¯į
Ġà®ªà®°à®¿à®ķ à®¾à®ļ
Ġà®ĩà®£à¯Īà®µ à¯Īà®ķà¯įà®ķ
Ġà®Ĵà®´à¯ģà®Ļà¯įà®ķ à¯ģ
Ġà®¨à®¿à® ĥ
à®² à®©à¯į
à®ª à®¤à®¿à®²à¯į
à®¾à®³ à®°à¯įà®ķà®³
à¯Īà®ķà®³ à®¾à®ķ
Ġà®ķà®Ł à®²à¯į
à¯ģà®µà®¿à®Łà¯įà®Ł à®©
à®µà®¾à®© à®µà®°à¯įà®ķà®³à¯į
ĠT he
ĠT his
à®µà®¿à®° à¯Īà®µ
à®ªà¯Ĩà®° à®¿à®¯
Ġà®® à¯Ĩà®©
Ġà®¯ à¯Ĥà®¸à¯ģà®ĥà®ªà¯į
à®¿à®±à¯įà®ķ à®¾à®ķ
Ġa pp
Ġà®ķà¯Ĥà®Łà¯įà®Ł à®®à®¾à®ķ
Ġà®®à®¾à®± à¯ģà®ªà®Łà¯įà®Ł
a ck
à®¾à®µ à¯ĩ
Ġà®®à®ķ à¯įà®ķà®³à¯Īà®¯à¯ģà®®à¯į
Ġà®ĩà®µà¯įà®µ à®¿à®°à¯ģ
à®° à¯ĭà®ªà¯įà®ª
Ġà®ĩà®±à¯ģà®¤ à®¿à®¨
Ġà®ļà¯Ĩà®²à¯įà®µ à®®à¯ģà®®à¯į
Ġà®ķà®¾à®² à¯Īà®¯à®¿à®²à¯į
n am
Ġà®ª à®ļà¯įà®ļà¯Ī
Ġà®ļà¯Ĩà®¯à¯įà®µ à®¤à®±à¯įà®ķà®¾à®ķà®µà¯ģà®®à¯į
Ġà®ĩà®°à®Łà¯įà®Ł à®¿à®ªà¯įà®ª
( à®©
à®ķ à¯įà®°
Ġà®ī à®Ļà¯įà®ķ
Ġà®®à¯ģà®© à¯Īà®¯
ic h
à®¾à®¸ à®¾à®°à¯ĭ
à¯ģà®³à¯įà®³ à®©
à¯ģà®ķà®³ à¯ģà®Łà®©à¯į
à¯Ĩà®© à®µà¯ĩ
Ġà®µà®¿à®µ à®¾à®¤
Ġà®ķà®¾à®°à®¿à®¯ à®Ļà¯įà®ķà®³à¯ģà®®à¯į
à®¨à¯ĩà®° à®®à¯į
Ġà®µà®´ à®¿à®ķà®³à®¿à®²à¯į
Ġà®¨à¯ĩà®° à®Ļà¯įà®ķà®³à®¿à®²à¯į
Ġà®ħà®©à¯ģà®®à®¤ à®¿à®ķà¯įà®ķà®ªà¯įà®ªà®Łà¯įà®Ł
Ġà®ªà¯ģà®¤à¯įà®¤ à®ķà®®à¯į
à®¤à¯įà®¤ à®¿à®°à®®à¯į
Ġà®İà®©à¯įà®© à®µ
à®®à®©à®¿à®¤ à®©à¯į
Ġà®¨à®¿à®©à¯Īà®ķà¯įà®ķ à®µà®¿à®²à¯įà®²à¯Ī
Ġà®ĩà®° à¯ģà®ķà¯įà®ķà¯ģ
Ġà®ĩà®±à®ķà¯įà®ķ à®ªà¯įà®ªà®Ł
Ġ if
Ġà®ªà®¯ à®®à¯ģà®±
à®®à¯ģà®¨à¯įà®¤ à¯Īà®¯
Ġà®ļà¯Ĩà®¯à®² à¯įà®ķà®³
à®¿à®µà®¿à®Łà¯įà®Ł à¯ģ
Ġ )
Ġà®µà¯Ĩ à®°
6 00
Ġà®İ à®Łà¯ģ
à®ĩà®° à¯ģà®¨à¯įà®¤
à®Ī à®¸à®¾
Ġà®ļà¯Ĩà®°à¯ģà®ķ à¯ģ
à®ªà®¿à®®à¯įà®ª à®¤à¯įà®¤à¯Ī
Ġà®®à®±à¯ģà®ª à¯Ĩà®¯à®°
Ġà®ħà®ļà¯įà®ļà¯ģà®ªà¯įà®ªà¯Ĭ à®±à®¿
à¯ģà®ķ à¯Ī
à¯ģà®° à®¿à®®
Ġà®ļà¯Ĩà®²à¯įà®² à¯ģà®ª
Ġà®ħà®°à¯ģà®³ à¯ģà®®à¯į
à®¿à®©à¯įà®± à®¿à®ķà¯į
à¯Ĭ à®²
Ġà®ķà®Ł à¯ģà®®à¯Īà®¯à®¾à®ķ
à®®à¯Ģ à®³
Ġà®¤à®¯ à®¾à®°à¯į
à®ķà®Łà¯Ī à®ļ
P P
à¯Ģ à®ķà®°
Ġà®ħà®¨à®¿à®¯à®¾à®¯ à®®à®¾à®ķ
Ġà®Ĵà®Łà¯įà®Ł à®ķà¯Ī
P G
1 7
Ġà®ħ à®±à¯įà®±
Ġà®¤à®°à¯įà®® à®®à¯į
Ġà®ĩà®´à¯ģà®¤à¯įà®¤ à¯ģà®ļà¯į
Ġab out
Ġà®ķ à®¾à®©à¯įà®ķ
à¯ģà®ķà¯įà®ķ à¯ģà®ªà¯įà®ªà®¿à®©à¯į
à®ľ à¯Ĥ
à®¨ à¯Ģà®°
à¯ģà®¤à¯įà®¤ à®²à¯į
Ġà®µà®° à®µà®¿à®²à¯įà®²à¯Ī
à®¿à®¯à®¾à®¯ à¯į
à®¿à®¤à®´ à¯Ī
A S
Ġà®ħ à®®à¯įà®ª
à®ħ à®®à¯Īà®ªà¯įà®ªà¯ģ
Ġà®µà®ļ à®¤à®¿à®¯
à®µà®¾à®´ à¯įà®ķà¯įà®ķà¯Ī
à®¤à¯Ĩà®³à®¿à®µ à®¾à®©
Ġà®ªà¯Ĭà®´ à¯ģà®¤à¯ģ
à¯įà®² à®¿
Ġà®İà®ªà¯įà®ª à¯ĭà®¤à¯ģà®®à¯į
vi et
M B
Ġà®¤ à®¿à®£
à®ª à¯Ĭà®°à¯ģà®³à¯į
à®¿à®ªà¯įà®ª à®¯à®©à¯į
à¯įà®ķà®¿à®± à®¾à®°à¯į
Ġà®¨à¯Ĩ à®±
à®Ĵà®´ à¯ģà®Ļà¯įà®ķ
i ve
à®ķà®£ à®ķà¯įà®ķ
Ġà®ħà®Łà¯Īà®µ à®¿à®²à¯į
Ġà®ĩà®°à¯ģà®ªà¯įà®ª à¯Ģà®°à¯įà®ķà®³à¯į
Ġà®µà®¿à®³ à¯Īà®µà¯ģ
Ġà®¤à®¾à®© à®¾
= \\\\
à®° à¯ģà®ķà¯įà®ķ
Ġà®ª à¯įà®³
à®ķ à®®à¯įà®ª
Ġà®ļ à®µà®¾à®°à®¿
à¯ģà®µ à®Łà¯Ī
à¯Īà®ķà¯įà®ķ à®¾à®°
à®µ à®¿à®²à¯į
Ġà®ħà®® à¯Īà®¤à¯įà®¤à¯ģ
4 0
Ġà®µà¯ĩ à®ķ
Ġà®µà¯Ģ à®Łà¯įà®Łà¯Ī
à®¿à®ķà¯įà®ķà®ªà¯įà®ªà®Ł à¯ģà®ķà®¿à®±à®¤à¯ģ
à®© à®¾à®²
à¯įà®² à¯Ī
à®¿à®¤à¯įà®¤ à®©à®°à¯į
E X
Ġà®ĩ à®Ļà¯įà®ķ
Ġà®µà®¿à®µà®° à®®à¯į
Ġà®ķà®£à®¿à®© à®¿
à®ĩà®¯à®²à¯įà®ª à®¾à®©
à®¤à®¿à®° à¯ģà®¤à¯įà®¤
à®ķ à®Ļà¯įà®ķà®³à¯į
Ġà®Ĩà®ķà®¿à®¯ à®µà®±à¯įà®±à¯Ī
à®¿à®Ł à¯ģà®ķ
Ġà®ľ à¯ĭà®Ł
à®² à¯Īà®ªà¯į
à®ļà¯Ĩà®¯ à®²
à®Ļà¯įà®ķ à®¿à®¯
ĠC ol
Ġ en
à¯ģà®ķà®¿à®± à®¾à®¯à¯į
Ġà®ĩà®¨à¯įà®¤ à®ķà¯į
à®ķà¯ĩ à®Ł
à®¤ à®¾à®°
à®ĩ à®©à¯įà®±à¯ģ
if f
à®ª à®©
à®¿à®°à¯ģà®ªà¯įà®ª à®¤à¯ģ
Ġà®īà®° à¯ģà®ªà¯įà®ªà®Ł
Ġà®ªà¯Ĩà®± à®µà®¿à®²à¯įà®²à¯Ī
à®ħà®®à®° à¯įà®µà¯ģ
Ġà®ħà®¤ à¯ģà®µà¯ģà®®à¯į
Ġà®ĩà®Ł à¯Īà®¯à®¿à®²à¯į
Ġà®ļà¯ĩ à®µà¯Ī
Ġà®ħà®©à¯Īà®µà®° à¯ģà®ķà¯įà®ķà¯ģà®®à¯į
Ġà®ķà®Łà¯įà®Ł à®®à¯Ī
o v
à¯įà®ª à¯Ĥ
à®¿à®ķà¯įà®ķ à®¾à®ķ
à®µ à®Łà¯įà®Łà¯Ī
Ġà®ªà®¯ à®©à¯į
Ġà®¨à®¿à®±à¯ģà®¤à¯įà®¤ à®¿
à®¿à®© à¯įà®®
à®ļà¯Ĩà®²à¯įà®² à¯ģà®ª
c tion
Ġde part
Ġdepart ments
Ġà®ļà¯Ĩà®¯à¯įà®¤ à®¤à¯Ī
à®īà®° à®¿à®®
D I
o ck
à¯ģà®ķà¯įà®ķ à®¾à®ķà®µà¯ģà®®à¯į
on ia
... .čĊ
Ġà®ļà¯Ĩà®°à¯ģà®ķ à¯ģà®µà®¾à®¯
Ġà®ļà¯Ĩ à®ķà¯įà®ļà®®à¯į
à®ļ à®¾à®ķ
à®®à¯Ĥ à®©à¯įà®±à¯ģ
à®İà®© à®ķà¯įà®ķ
Ġà®®à®¾à®² à¯Ī
à®¿à®İ à®©
Ġà®ļà¯ĩà®µà®ķ à®©à¯į
ĠL ong
à®¿à®© à¯įà®Łà¯į
Ġà®ĩà®Ł à®¤à¯įà®¤à®¿à®±à¯įà®ķà¯ģ
à¯ģà®ļ à¯Ĩà®¯à¯įà®¤à¯ģ
à¯ģà®¤à®² à¯Īà®¯à¯ģà®®à¯į
à®īà®Ł à®©
à®® à®¿à®²à¯įà®²à®¾à®®à®²à¯į
Ġà®ĩ à®©à®¿à®¯
Ġà®ħà®®à¯Ī à®¤
Ġà®ĩà®° à¯ģà®®
Ġà®®à¯ĩ à®ļ
à®¤ à®¿à®°à¯ģà®
à®® à®Łà¯Īà®¨à¯įà®¤
Ġà®ĩà®° à¯ģà®ª
Ġà®ķà®¾à®Łà¯įà®Ł à¯ģà®ķà®¿à®±à®¤à¯ģ
à®ķà¯įà®ķ à®¤à¯įà®¤à®¿à®²à¯į
Ġà®ļà¯Ĩà®¯à¯įà®¯ à®ķà¯į
Ġà®īà®Łà¯įà®ķà®¾à®° à¯įà®¨à¯įà®¤à¯ģ
Ġà®¤ à¯Ī
Ġà®µà¯ĩ à®Łà¯įà®Ł
à®ķà¯Īà®¯ à®¿à®©à¯į
Ġà®®à¯ģà®ķ à®¤à¯įà®¤à¯Ī
" à®ĩà®¨à¯įà®¤
à®¯ à¯Ī
à®£ à¯Ī
à®ļà¯įà®ļ à¯Ĩà®¯
à®ŀ à¯į
viet nam
à®°à¯į City
à®¿à®ķ à®¾à®Łà¯įà®Ł
it al
à¯ģà®µà®¿à®Łà¯įà®Ł à¯ĩà®©à¯į
ĠO nt
ari o
à®¿à®® à®¾à®±
Ġf rom
à®ħà®² à®¾à®°
à®®à¯įà®ª à¯Ī
Ġà®ªà®¿à®° à®ļ
er ror
Ġà®İà®¤à®¿à®° à¯įà®ªà¯įà®ª
Ġà®¤à®ªà¯įà®ª à®¿
Ġà®ļà¯ģà®Łà¯įà®Ł à®¿
à¯ģà®° à¯ģà®µà¯Ī
Ġà®¤à¯Ĩà®³à®¿à®µ à¯ģ
Ġà®¤à®© à®¿à®¯à®¾à®ķ
à®ªà®¯à®©à¯įà®ª à®¾à®Łà¯ģ
Ġà®¤à¯ĩà®°à¯įà®µà¯ģà®ļ à¯Ĩà®¯à¯į
D escription
à®¿à®ķà¯įà®ķ à®¾
à®¾à®Ļà¯įà®ķ à¯į
à®¨à®°à®ķ à®¤à¯įà®¤à®¿à®²à¯į
ĠSh ort
à¯įà®µ à®¾à®©à¯į
Ġa d
Ġà®¤à¯Ĭ à®ķà¯ģ
Ġà®ªà¯Ĩ à®£à¯įà®Ł
Ġà®īà®± à®µ
à®ªà¯įà®ªà®Łà¯ģà®¤à¯įà®¤ à¯ģ
id g
à®ħà®©à¯Īà®¤à¯įà®¤ à¯Īà®¯à¯ģà®®à¯į
à®ļ à®®à¯įà®ª
Ġà®µà®¿à®³à®ķà¯įà®ķ à®¤à¯įà®¤à¯Ī
o op
à®© à¯įà®ķ
Ġà®ª à¯ģà®¯à®²à¯į
Ġà®® à®ķà¯įà®ķ
à®µà®¾à®¯ à®¿à®²à¯įà®²à¯Ī
Ġà®ļà¯ĩà®ķà®° à®¿à®¤à¯įà®¤à¯ģ
à®ļà¯įà®ļ à®¿
à®¨à®®à¯įà®® à®¿à®Łà®®à¯į
Ġà®ıà®®à®¾à®±à¯įà®± à®¿
à®ĩà®°à®ķ à®ļà®¿à®¯
ĠOnt ario
Ġà®¤à¯Ĥ à®Ļà¯įà®ķ
à®¤à®£à¯įà®Ł à®©à¯Ī
à®ĩà®£ à¯Īà®ªà¯įà®ª
Ġà®īà®³à¯įà®³ à¯Ģà®Ł
Ġà®ķà®° à¯ģà®®
Ġà®ªà®¿à®Ł à¯į
Ġà®µà®´à®¿à®¯ à¯Īà®¯à¯ģà®®à¯į
à®¿à®ķà¯įà®ķà®ªà¯įà®ªà®Ł à®¾à®¤
r on
à®µà®° à®¿à®ļ
LE S
Ġà®ħà®²à¯įà®² à®µà®¾
Ġà®µà®¿à®·à®¯ à®Ļà¯įà®ķà®³à¯į
Ġà®ħà®µà®© à¯ģà®Łà®©à¯į
Ġà®ĩà®°à®ķ à®ļà®¿à®¯à®®à¯į
b le
à®µ à¯Īà®ķà¯į
Ġà®İà®Łà¯ģà®¤à¯įà®¤ à¯ģà®ļà¯į
Ġà®Ĵà®°à¯ģà®µ à¯ĩà®³à¯Ī
à®ļà®¿à®² à®°à¯į
p en
Ġà®µà®° à®µà¯ĩ
à®ķà®Ł à®¿à®©
à¯ģà®¨à®¿à®° à®²à¯į
à®ļ à®¿à®Ł
Ġà®ķà®¾à®°à®¿à®¯ à®Ļà¯įà®ķà®³à¯Ī
Ġà®ªà®°à®¿à®ļà¯ģà®¤à¯įà®¤ à®®à®¾à®ķà¯įà®ķ
Ġà®ħà®®à¯Īà®ķà¯įà®ķ à®¿à®±à®¤à¯ģ
à®Ĩà®° à¯įà®Ĳ
Ġà®®à¯ģà®©à¯įà®ª à¯ĩ
a ve
i x
à®¨ à®¾à®¯
Ġà®Ĵà®° à¯ģà®¤à¯įà®¤
Ġà®µà®¿à®²à®ķ à®¿à®¯
Ġà®ħà®£ à®¿
Ġà®İà®³à®¿à®¤ à®¾à®ķ
à®īà®©à¯įà®© à¯Ī
ĠSt encils
Q uery
à®¤ à®®à®¾à®©
à®¤à¯įà®¤ à®¿à®©à®°à¯į
Ġà®ħà®µà®° à¯ģà®®à¯į
Ġà®ķà¯Ĥà®± à®µà®¿à®²à¯įà®²à¯Ī
Ġà®¤à®µà®¿à®° à¯įà®ķà¯įà®ķ
Ġà®ªà®³à¯įà®³ à®¤à¯įà®¤à®¾à®ķà¯įà®ķ
à®ļà®¨à¯įà®¤ à¯ĩà®ķ
à®İ à®µà®°à¯ģà®®à¯į
Ġà®µà®° à¯ģà®¤à¯įà®¤
Ġà®İà®©à¯įà®© à®µà¯Ĩ
à®ªà¯įà®ªà®Łà¯ģà®¤à¯įà®¤ à®¿à®¯
à®ķà¯ĩ à®ªà®ļà¯Ĥ
à®ªà®Ł à¯Īà®ªà¯įà®ª
Ġà®¨à¯Ģ à®²à®®à¯į
à®¿à®ļà¯įà®ļ à¯Ī
à®¿à®°à¯ģà®ķà¯įà®ķà®¿à®©à¯įà®± à®¤à¯ģ
à®®à¯ĩà®² à¯ĩ
Ġà®ĩ à®®
à®¨ à®¿à®´
Ġà®īà®Ļà¯įà®ķà®³ à®¿à®Łà®®à®¿à®°à¯ģà®¨à¯įà®¤à¯ģ
Ġne w
Ġà®ļà®¾à®¤ à®¾à®°à®£
à®¿à®Łà®ªà¯įà®ªà®Łà¯įà®Ł à¯ģà®³à¯įà®³à®¤à¯ģ
Ġà®Ł à¯ĩ
Ġth ere
Ġpre f
à¯ģà® ¹
Ġà®īà®³à¯įà®³ à®¤à®¾à®ķà¯ģà®®à¯į
Ġà®ħà®ŀà¯įà®ļ à¯ģà®ķà®¿à®±à¯ĩà®©à¯į
Ġà®ªà®¯à®©à¯įà®ªà®Łà¯ģà®¤à¯įà®¤ à¯ģà®®à¯į
Ġà®ªà®¿à®³à¯įà®³ à¯Ī
Ġà®¤ à®¿à®¯à®¾à®ķ
Ġà®ħà®¤à¯Ī à®µà®¿à®Łà¯įà®Łà¯ģ
Ġà®ĩà®£ à¯Īà®¯à®¾à®©
Ġà®ªà®£ à®¤à¯įà®¤à¯Ī
à¯ģà®µà®¤à®±à¯įà®ķ à®¾à®ķà®µà¯ĩ
Ġus e
@ }
à¯įà®ķ à¯Ĥ
à®¯ à¯Ĥà®¤à®°à¯įà®ķà®³à¯į
à®¤à®±à¯įà®ķ à¯ģà®°à®¿à®¯
Ġà®ªà®¿à®° à®¾à®¯
Ġà®ªà¯įà®° à®¾à®¸à®°à¯ĭ
Ġ{ @}
à®¿à®¯ à¯Ĥ
Ġà®ķà¯Ĥà®±à®¿à®© à®¾à®²à¯į
Ġà®®à®² à¯Īà®¯à®¿à®©à¯į
Ġà®ıà®±à¯įà®ªà®Ł à®¾à®¤à¯ģ
à®¾à®© à®µà®°à¯įà®ķà®³à¯į
à®¿à®© à¯Ģà®°à¯įà®ķà®³à¯į
Ġà®¨à®ķà®° à®®à¯į
Ġà®ıà®´ à¯Ī
Ġà®¨à®¿à®®à®¿à®Ł à®Ļà¯įà®ķà®³à¯į
à®¨à®© à¯įà®ķà¯ģ
à¯ģà®ª à®µà®°à®¾à®ķ
Ġà®¨à®¿à®° à®®à¯įà®ª
Ġà®µà®£ à®ķà¯įà®ķà®®à¯į
à¯ģà®ķà¯įà®ķ à¯ģà®¤à¯įà®¤à®¾à®©à¯į
Ġà®®à®¾à®±à¯įà®± à®¿à®¯
à®¿à®©à®¿à®©à¯įà®± à¯ģ
Ġà®īà®³à¯įà®³ à®©à®°à¯į
Ġà®®à®© à¯ĭ
Ġà®īà®£à¯įà®Ł à®¾à®©
Ġà®ķà®£à¯įà®£ à®¿à®¯à®®à¯į
Ġst ring
Ġà®ķà¯ģà®¤ à®¿à®°
à®ļà¯Ĥà®° à®¿à®¯
à®¿à®¯ à®¿à®°à¯ģà®ķà¯įà®ķà¯ģà®®à¯į
Ġà®ķà®¿à®Łà¯Īà®ķà¯įà®ķ à®µà®¿à®²à¯įà®²à¯Ī
Ġà®Ĵà®°à¯ģà®µà®° à¯Īà®¯
Ġà®ª à®ŀà¯įà®ļ
à®¿à®ķà¯įà®ķ à¯ģà®®à®¾à®±à¯ģ
Ġà®ªà®Ł à®¿à®ļà¯į
Ġà®ķ à¯Īà®ķà®³
à®¿à®µ à®ªà¯įà®ªà¯ģ
à®¿à®® à¯ģà®ķ
Ġà®¨à®¿à®² à¯Īà®¤à¯įà®¤à¯ģ
Ġà®· à¯ģà®Ĳ
Ġà®Ĵà®°à¯ģà®µà®° à¯Īà®¯à¯ģà®®à¯į
à®ħà®© à¯ģà®ªà¯įà®ªà®¿
Ġà®ļà¯ģà®±à¯įà®± à®¿à®ķà¯į
Ġà®Ĩà®ķà®¿à®µà®¿à®Łà¯įà®Ł à®©à®°à¯į
Ġà®ªà¯ĩà®£ à®¿à®ķà¯į
à®¨à®° à®ķà®¤à¯įà®¤à®¿à®©à¯į
) à®ª
Ġà®¤ à®¿à®°à¯ģà®¨à¯įà®¤
à¯ģà®Ł à®©à¯ĩ
à®¨ à¯Ĩà®Ł
an s
Ġà®¨à®¾à®Ł à¯ģà®ķà®¿à®±à®¾à®©à¯ĭ
à®ķà¯ĩ à®®à®¿à®°
Ġà®ķà®¾à®±à¯įà®± à¯ģà®ķà®³à¯Ī
Ġà®ħà®µà®³ à¯ģà®Łà¯Īà®¯
Ġà®ļà®ªà¯įà®¤ à®®à¯į
Ġà®ħà®µà®©à®¿à®Łà®¤à¯įà®¤ à®¿à®²à¯ĩà®¯à¯ĩ
à®ªà¯ģà®ķà®´ à¯į
H TML
à®® à¯Īà®¯à®¾à®©
à®µà®° à¯Īà®ªà¯į
à®¨ à®¯à®µà®ŀà¯įà®ļà®ķ
à®¿à®±à¯įà®ķ à®¾à®²
Ġà®ĵ à®¤à®¿
Ġa m
Ġà®µà¯ĩà®¤à®© à¯Īà®¯à®¿à®©à¯į
Ġà®ķà®£ à¯įà®ķà®³à¯Ī
à®ı à®¤à¯ĩà®©à¯ģà®®à¯į
à®ªà®¿à®© à¯įà®ªà¯ģ
à®®à®©à®¿à®¤ à®°à¯įà®ķà®³à¯Ī
à®¨à®¿à®± à¯ģà®µ
Ġà®ļà®¨à¯įà®¤à®¤à®¿à®¯ à®¿à®©à®°à¯į
à®ħà®µà¯įà®µ à®¿à®°à®£à¯įà®Ł
Ġà®īà®£à¯įà®®à¯Īà®¯à®¾à®³ à®°à¯įà®ķà®³
Ġà®µà®¾à®©à®Ļà¯įà®ķà®³ à¯ģà®ķà¯įà®ķà¯ģà®®à¯į
à®ĥà®ªà®¿à®°à¯įà®ħà®µà¯įà®© à®¿à®©à¯į
Ġà®ħà®Łà®¿à®ª à®£
Ġà®ıà®µà®ªà¯įà®ªà®Łà¯įà®Łà¯ģà®³à¯įà®³ à¯ĩà®©à¯į
Ġ âĢ
à®ª à¯ĩà®°
à®ª à¯ĭà®°
à®Ļà¯įà®ķà®³ à®¿à®²à®¿à®°à¯ģà®¨à¯įà®¤à¯ģà®®à¯į
Ġà®ħà®µà®°à¯įà®ķà®³ à®¾à®²à¯į
à¯įà®® à¯Ĥ
à®ī à®¤
Ġà®¨à®¾à®³ à®©à¯įà®±à¯ģ
Ġà®ħà®³ à®¿à®ķà¯įà®ķà®¿à®©à¯įà®±à®¾à®©à¯į
à®¿à®´ à®¨à¯įà®¤
Ġà®®à®¾à®±à¯įà®± à®¿à®µà®¿à®Ł
Ġà®ªà¯Ĩà®¯ à¯įà®¯
Ġà®īà®Ļà¯įà®ķà®³à¯ģà®ķà¯įà®ķ à¯ģà®®à®¿à®Łà¯Īà®¯à¯ĩ
Ġà®ķà¯ģà®ªà¯įà®ª à¯ģà®±
( à®ĩà®©à¯įà®©à¯ģà®®à¯į
à®° à®¿à®²à¯į
à®° à®¾à®ķà®¿à®¯
à®¿à®°à¯ģà®ªà¯įà®ª à®¿à®©à¯ģà®®à¯į
Ġà®ªà¯Ĩà®° à¯ģà®¨à¯įà®¤
Ġà®ħà®® à®²à¯į
à®ħà®¤ à¯Īà®ķà¯į
Ġà®µà®¿à®² à®ķà¯įà®ķà®¿
Ġà®ļà¯Ĩà®²à¯įà®µ à®¨à¯įà®¤
Ġà®īà®°à®¿à®¯ à®µà¯Ī
à®ķà®Ł à®²à®¿à®²à¯į
Ġà®¤à¯Ģà®µà®¿à®° à®®à®¾à®©à®µà®©à¯į
Ġà®ĩà®¸à¯įà®² à®¾à®¤à¯įà®¤
à¯ģà®® à¯Īà®ªà¯į
Ġà®ĩà®°à¯ģà®¨à¯įà®¤ à®¾à®°à¯įà®ķà®³à¯ĩ
Ġà®īà®³à¯įà®³ à®Ļà¯įà®ķà®³à¯į
Ġà®ªà®¯ à®©à¯ģà®®à¯į
Ġà®İà®¤ à®¿à®²à¯į
(à®ħ à®¨à¯įà®¨à®¾à®³à®¿à®²à¯į
Ġà®ªà®¿à®©à¯įà®ª à¯ģà®±
Ġà®ļà¯Ĩà®¯à¯įà®ª à®µà®°à¯įà®ķà®³à®¾à®ķ
Ġà®µà®£à®Ļà¯įà®ķ à¯ģà®ķà®¿à®±à¯Ģà®°à¯įà®ķà®³à¯į
ar ac
Ġà®¤à®²à¯Ī à®µà®°à¯įà®ķà®³à¯Ī
Ġà®ħà®µà¯įà®µà®¿à®°à¯ģà®µà®° à¯Īà®¯à¯ģà®®à¯į
Ġà®ļà®¿à®¨à¯įà®¤ à®¿à®ķà¯įà®ķà¯ģà®®à¯į
Ġà®ķà¯ĭ à®£à®®à¯į
Ġà®¨à¯Ĥà®¹ à¯ģà®Łà¯Īà®¯
Ġà®ħà®µà®ķ à®¾à®ļ
Ġà®ľà®¿à®© à¯įà®ķà®³
Ġà®ķà®°à¯ģà®£à¯Īà®¯à¯ģà®Łà¯Īà®¯ à®µà®©à®¾à®ķà®µà¯ģà®®à¯į
Ġà®ªà®¨à¯įà®¤ à¯ģà®ķ
à®µà®¿à®³à¯Īà®¯ à®¾à®Łà¯įà®Łà¯ģ
à®ĩà®¸ à¯įà®²
Ġà®ħà®®à®² à¯įà®ķà®³à¯Īà®ļà¯į
à®µ à¯ģà®ļà¯Ĩà®¯à¯įà®¤à¯ģ
à®¿à®ķà¯įà®ķ à®¾à®¤à¯ģ
Ġà®İà®©à¯įà®© à¯Īà®¤à¯į
Ġà®ªà®¾à®° à®¾à®Łà¯įà®Ł
à¯Ĩà®¯ à®°à¯Ī
Ġà®ļà®° à®£
Ġà®ªà¯Ĩà®£ à¯įà®ķà®³à¯ģà®ķà¯įà®ķà¯ģ
Ġà®ªà®¾à®µ à®¤à¯įà®¤à¯Īà®¯à¯ģà®®à¯į
à®Ĳ à®°à¯ĭà®ªà¯įà®ª
Ġà®¨à®¾à®Łà¯įà®Ł à¯Ī
à®¨à®¿à®¯à®¾à®¯ à®¤à¯į
) à®¤à¯į
1 3
à¯Īà®ķà®³ à®¾à®ķà¯ģà®®à¯į
Ġà®ļà®¾à®° à¯įà®¨à¯įà®¤à¯ģ
Ġà®®à®©à¯Īà®µ à®¿à®®à®¾à®°à¯įà®ķà®³
Ġà®µà¯ĩà®¤à®©à¯Īà®¯à¯Ī à®¤à¯į
Ġà®ĩà®´à®¿à®µ à®¾à®©
Ġà®īà®£à®µà®³ à®¿à®ªà¯įà®ª
Ġà®¨à®ªà®¿à®®à®¾à®°à¯įà®ķà®³ à¯Ī
à®µ à®Łà¯įà®Łà®¿à®²à¯į
Ġà®ĩà®± à¯Īà®µ
Ġà®ħà®µà®© à®¿à®Łà®¤à¯įà®¤à®¿à®²à¯į
Ġà®¤à¯Ĥ à®°à¯į
Ġà®ļà¯Ĩà®¯à¯įà®µ à®¤à¯Īà®¯à¯ģà®®à¯į
Ġà®ªà¯Ĥà®®à®¿à®¯ à¯ģà®Łà¯Īà®¯à®µà¯ģà®®à¯į
Ġà®ļà¯Ĩà®©à¯įà®± à®©à®°à¯į
Ġà®ļà®¨à¯įà®¤à®¿à®° à®©à¯ģà®®à¯į
Ġà®®à¯ĩà®±à¯įà®ª à®Łà¯įà®Ł
Ġà®®à®° à®ķà¯įà®ķ
à®İà®©à¯įà®± à¯Ĩà®©à¯įà®±à¯ģà®®à¯į
o de
Ġà®Ĵà®ªà¯įà®ª à¯ģà®ķà¯į
Ġà®ħà®Łà®¿à®® à¯Īà®¯à¯Ī
Ġà®ħà®¨à¯ĩ à®ķà®°à¯Ī
Ġà®ļà¯Ĩà®¯à¯įà®¯ à®®à®¾à®Łà¯įà®Łà®¾à®©à¯į
Ġà®īà®£à¯įà®®à¯Īà®¯ à®¾à®ķà¯ģà®®à¯į
Ġà®İà®± à®¿à®¯à¯ģà®®à¯į
Ġà®®à¯Ĭ à®¤à¯įà®¤
) :čĊ
à®¤à¯įà®¤ à®¾à®²à¯ģà®®à¯į
à®¾à®°à¯įà®ķà®³ à®¿à®²à¯į
Ġà®īà®± à¯Ī
Ġà®ªà®¾à®°à¯įà®µ à¯Īà®¯à¯ģà®Łà¯Īà®¯
à®īà®®à¯įà®® à¯Īà®ªà¯į
Ġà®ªà¯ģà®©à®¿à®¤ à®®à®¾à®©
) à®©
Ġà®ļà¯Ĩà®¯ à®±à¯įà®ķ
Ġà®µà®° à®ķà¯įà®ķà¯Ĥà®Łà®¿à®¯
à®µà®±à¯įà®± à¯Īà®¯à¯ĩ
Ġà®° à®¤à¯įà®¤à¯ģ
à®ħà®µà®© à®¿à®Łà®®à¯į
Ġà®ļà¯ģà®® à¯Īà®¯à¯Īà®ļà¯į
Ġà®ķà¯Ĥà®Łà¯įà®Łà®¤à¯įà®¤à®¾à®° à¯ģà®ķà¯įà®ķà¯ģ
Ġà®ªà¯Īà®¤à¯įà®¤à®¿à®¯à®ķà¯įà®ķà®¾à®° à®°à¯į
Ġà®µà®£à®ķà¯įà®ķà®¤à¯įà®¤à®¿à®±à¯įà®ķà¯ģà®°à®¿à®¯ à®µà®©à¯į
à®¾à®¤à®¿à®°à¯ģà®ªà¯įà®ª à®¾à®¯à®¾à®ķ
à®µà®° à¯ģà®Łà¯Īà®¯
à®¨à¯įà®¤ à¯Ģà®°
à¯Īà®¤à¯įà®¤ à®¾à®©à¯į
Ġà®ļà¯Ĩà®¯à¯įà®¤ à¯ĩà®©à¯į
à¯ģà®³à¯įà®³ à¯ĩà®©à¯į
la r
Ġà®¤à¯Ģà®° à¯įà®¨à¯įà®¤à¯ģ
Ġà®ŀà®¾à®© à®¤à¯įà®¤à¯Īà®ķà¯į
Ġà®®à®©à®¿à®¤à®°à¯įà®ķà®³ à®¿à®©à¯į
Ġà®ªà®¿à®°à®¾à®°à¯įà®¤à¯įà®¤ à®¿à®¤à¯įà®¤à¯ģà®ķà¯į
Ġà®ªà®ķà¯Ī à®µà®©
à®Ĩà®¤ à®®à¯ģà®Łà¯Īà®¯
Ġà®µà®¿à®²à®ķà¯įà®ķ à®ªà¯įà®ªà®Łà¯įà®Ł
Ġà®µà®´à®¿à®¯à¯Ī à®¤à¯į
Ġà®ĩà®Łà¯įà®Łà¯ģà®ķà¯įà®ķà®Łà¯įà®Ł à®¿à®ķà¯į
Ġà®µà®¿à®ļà¯ģà®µ à®¾à®ļ
i al
Ġà®ħ à®¨à¯Ģ
à¯Ĩ à®£à¯įà®Ł
Ġà®ĩ à®µà®±à¯įà®±à¯Īà®ªà¯į
à®¿à®° à®£à¯įà®Łà¯ģà®®à¯į
Ġà®ĩà®° à®µà¯Ī
Ġà®¨à¯Ģ à®¤à®¿à®¯
à¯Īà®ķà¯įà®ķ à¯ģà®¤à¯į
Ġà®µà®¿à®Łà¯įà®Ł à¯ģà®µ
Ġà®ķà®Łà¯įà®Ł à®ªà¯įà®ªà®Łà¯įà®Ł
Ġà®ħà®¤à®¿à®ķ à®®à®¤
Ġà®µà®ļà®© à®Ļà¯įà®ķà®³à®¿à®©à¯į
Ġà®µà®ļà®© à®Ļà¯įà®ķà®³à¯Īà®ķà¯į
Ġà®İà®Ļà¯įà®ķà®³ à¯ģà®ķà¯įà®ķà¯ģà®¤à¯į
Ġà®īà®Łà¯Īà®¯ à®µà®©à®¾à®ķà®µà¯ģà®®à¯į
Ġà®®à¯ģà®¨à¯įà®¤ à®µà¯ģà®®à¯į
Ġà®İà®Ł à¯ģà®ªà¯įà®ª
Ġà®Ĩà®ķà®¿à®µà®¿à®Ł à®¾à®¤à¯Ģà®°à¯įà®ķà®³à¯į
Ġà®ļà®ķà¯įà®¤à®¿à®¯ à¯ģà®Łà¯Īà®¯à®µà®©à¯į
Ġà®®à®¯ à®ķà¯įà®ķà®¿
Ġà®ħà®³à®¿à®ªà¯įà®ª à®¾à®¯à®¾à®ķ
Ġà®ªà®¾à®Ł à®²à¯į
Ġà®ªà®¿à®¨à¯įà®¤ à®µà¯ģà®®à¯į
Ġà®ħà®°à¯ģà®® à¯Īà®¤à¯į
A M
à®¸ à®¾à®²à®¿à®¹
Ġà®®à¯ģà®Ł à®¿à®¤à¯įà®¤
Ġà®¤à¯ĩà®Ł à¯ģà®µà¯Ģà®°à®¾à®ķ
Ġà®ĩà®µà®°à¯įà®ķà®³ à®¿à®Łà®®à¯į
Ġà®ĩà®¤à®¯ à®®à¯į
Ġà®¤à¯Ĭà®ķ à¯ģà®¤à®¿
Ġà®İà®µà¯įà®µà®¿à®¤ à®¤à¯į
Ġà®ķà¯Ĩà®Ł à¯ģà®ªà¯įà®ª
Ġà®µà®¾à®©à®Ļà¯įà®ķà®³ à¯ģà®Łà¯Īà®¯à®µà¯ģà®®à¯į
Ġà®ªà®²à®¹à¯Ģà®© à®®à®¾à®©
à®·à¯Īà®¤à¯įà®¤ à®¾à®©
Ġà®¤à®¿à®°à¯ģà®ªà¯įà®ªà®ªà¯įà®ªà®Ł à¯ģà®ķà®¿à®±à¯Ģà®°à¯įà®ķà®³à¯į
Ġà®ĩà®©à¯įà®ľà¯Ģà®² à¯Īà®¯à¯ģà®®à¯į
Ġà®¤à¯ĩà®µà¯Īà®¯à®±à¯įà®± à®µà®©à¯į
à®ıà®´ à¯ģ
Ġà®īà®Łà®©à¯įà®ªà®Łà®¿à®ķà¯įà®ķ à¯Īà®¯à¯Ī
Ġà®ªà®¾à®µà®¿à®ķà®³ à®¾à®ķà®µà¯ĩ
( à®¨à®°à®ķ
à®¾à®Ł à¯ģà®ķà®³à¯Ī
Ġà®ħà®µà®°à¯įà®ķà®³ à®¿à®²à®¿à®°à¯ģà®¨à¯įà®¤à¯ĩ
à®İ à®µà®°à¯Īà®¯à¯ģà®®à¯į
Ġà®ħà®µà®© à®¿à®Łà®®à®¿à®°à¯ģà®¨à¯įà®¤à¯ģ
Ġà®®à®¿à®ķ à¯ģà®¨à¯įà®¤
Ġà®ĩà®°à¯ģà®ªà¯įà®ª à®¤à®¿à®²à¯įà®²à¯Ī
Ġà®ļà¯Ĩà®¯à¯įà®µ à®¤à¯Ĩà®²à¯įà®²à®¾à®®à¯į
Ġà®īà®£à¯įà®®à¯Īà®¯ à®¾à®³à®°
Ġà®īà®£à¯įà®Łà®¾à®ķà¯įà®ķ à®¿à®ķà¯į
Ġà®¤à®£à¯įà®Ł à®©à¯Īà®¯
Ġà®µà®¾à®ļ à®¿à®ķà®³à¯ģà®®à¯į
à®®à¯Ĥà®¸à®¾à®µ à¯Ī
Ġà®ªà¯ģà®¤à®²à¯įà®µ à®°à¯įà®ķà®³à¯Īà®¯à¯ģà®®à¯į
Ġà®®à¯ģà®·à¯įà®°à®¿à®ķà¯įà®ķ à¯ģà®ķà®³à¯į
Ġà®Ĩà®² à®¯
à®®à®²à®ķà¯įà®ķ à¯ģà®ķà®³à¯į
" à®İà®©à®µà¯ĩ
Ġ error
Ġà®ĩ à®®à¯į
Ġà®ĩà®±à¯Īà®µà®© à¯Īà®¤à¯į
Ġà®®à¯ģà®©à¯įà®© à®®à¯ĩà®¯à¯ĩ
Ġà®®à®©à¯įà®©à®¿à®ªà¯įà®ª à®¾à®¯à®¾à®ķ
Ġà®®à¯ģà®ĥà®®à®¿à®© à¯įà®ķà®³à¯ģà®®à¯į
Ġà®ªà®¾à®µ à®Ļà¯įà®ķà®³à¯Īà®¯à¯ģà®®à¯į
à®ħà®µà®© à¯Īà®¯à®©à¯įà®±à®¿
à®ªà®° à®£
Ġg roup
Ġà®µà®Łà¯įà®Ł à¯ģà®ķà¯įà®ķà¯ģ
Ġà®ļà¯Ģà®ķà¯įà®ķ à®°
Ġà®®à¯ģà®±à¯įà®ªà®Łà¯įà®Ł à®©à®°à¯į
Ġà®µà®´à®¿à®¤ à®µà®±
Ġà®ĩà®¸à¯įà®®à®¾à®¯ à¯Ģà®²
R I
à®µà®° à¯ģà®¨à¯įà®¤
Ġà®¨à®²à¯įà®² à®°à¯ģà®³
Ġà®µà®¿à®°à¯ģà®®à¯įà®ª à¯ģà®ª
Ġà®ªà®¿à®Ł à®¿à®ªà¯įà®ª
Ġà®ªà®¿à®©à¯įà®ªà®±à¯įà®± à®¾à®¤à¯Ģà®°à¯įà®ķà®³à¯į
à®®à¯ģà®ĥà®®à®¿à®© à®¾à®©
Ġà®ļà®¨à¯įà®¤à¯ĩà®ķ à®®à®¿à®²à¯įà®²à¯Ī
Ġà®®à¯ģà®©à¯įà®©à¯ĭ à®°à¯įà®ķà®³à®¿à®©à¯į
" à®īà®Ļà¯įà®ķà®³à¯ģà®ķà¯įà®ķà¯ģ
Ġà®īà®£à¯įà®®à¯Īà®¯ à¯Īà®¯à¯ĩ
à®Ļà¯įà®ķà®³ à¯ģà®ķà¯įà®ķà¯ģà®ļà¯į
Ġà®ħà®® à®²à¯įà®ķà®³à¯Ī
Ġà®ĩà®£ à®Ļà¯įà®ķ
Ġà®° à¯Ĥà®¹
Ġà®¨à®ķà®² à¯Ĩà®Łà¯ģ
Ġà®ļà¯Ĩà®µ à®¿à®ļà®¾à®¯
Ġà®µà®£à®Ļà¯įà®ķ à®¿
Ġà®ļà®°à®¿à®ªà®¾à®°à¯įà®ķà¯įà®ķ à®µà¯ģà®®à¯į
Ġà®µà®¿à®Ł à¯ģà®ķà®¿à®±à¯Ģà®°à¯įà®ķà®³à¯į
Ġà®ħà®¤à®¿à®ķ à®¾à®²à¯Īà®¯à®¿à®²à¯į
Ġà®ļà¯Ĩà®¯à¯įà®ķà®¿à®©à¯įà®± à¯ĩà®©à¯į
à®µà®°à¯įà®ķà®³ à¯ģà®ķà¯įà®ķà¯ģà®¤à¯į
Ġà®®à¯ģà®± à¯Īà®¯à®¾à®ķà®ķà¯į
Ġà®¤à¯Ģ à®µà®¿à®©
à¯įà®¸ à¯įà®ª
Ġà®¨à®¿à®°à®¾à®ķà®°à®¿à®ªà¯įà®ª à®µà®°à¯įà®ķà®³à¯ģà®ķà¯įà®ķà¯ģ
Ġà®¤à¯Ģà®® à¯Īà®¯à¯ģà®®à¯į
à®ĥ à®ľà¯Ĥ
) à®ļà¯Ĩà®¯
Y ou
à®² à¯įà®ķà®³à®¿à®²à¯į
Ġà®ĩ à®ªà¯įà®ªà®Ł
Ġà®İ à®ªà¯įà®ªà®Ł
à¯įà®® à®±à¯Ī
Ġà®¯ à¯Ĩà®²à¯įà®²à®¾à®®à¯į
Ġà®ªà®¿à®° à®®à¯ģà®ķ
Ġà®®à¯ĩ à®©à¯įà®®à¯Ī
Ġà®ħà®ļà¯įà®ļ à®¨à¯įà®¤à¯Ģà®°
à®ªà¯įà®ªà®Łà¯ģà®¤à¯įà®¤ à®ªà¯įà®ªà®Łà¯įà®Ł
Ġà®ķà®¾à®£à¯įà®ª à®¿à®¤à¯įà®¤à¯ģ
Ġà®¤à®Ļà¯įà®ķà®³ à¯Īà®¯à¯ĩ
Ġà®µà®¿à®·à®¯ à®¤à¯įà®¤à¯Īà®ªà¯į
Ġà®ķà¯Ĥà®±à®¿à®¯ à®¤à¯Īà®¯à¯ģà®®à¯į
Ġà®¤à®²à¯Ī à®µà®°à¯į
Ġà®µà®´à®¿à®¯ à®¿à®²à®¿à®°à¯ģà®¨à¯įà®¤à¯ģ
à®ªà¯Ĩ à®£à¯į
Ġà®ª à®¾à®®à¯įà®ª
à®ļ à®¿à®©à¯įà®©
Ġà®ħà®µà®°à¯įà®ķà®³ à¯ģà®ķà¯įà®ķà¯ģà®°à®¿à®¯
à®¿à®ļà¯įà®ļ à®¾à®Łà¯įà®Ł
Ġn umber
Ġà®İà®©à¯įà®© à®¿à®Łà®®à®¿à®°à¯ģà®¨à¯įà®¤à¯ģ
Ġà®Ĩà®ķ à®®
Ġà®ªà®ķ à®²à®¿à®©à¯į
Ġà®ĩà®±à®ķà¯įà®ķ à®¿à®µà¯Īà®¤à¯įà®¤
Ġà®ªà¯Ĩà®± à®ļà¯į
Ġà®ħà®¤à®¿à®ķ à®®à®¾à®ķà®ķà¯į
à®¿à®ķà¯įà®ķà®¿à®± à¯Ģà®°à¯įà®ķà®³à¯į
Ġà®İà®ļà¯įà®ļà®° à®¿à®ķà¯įà®ķà®ªà¯įà®ªà®Łà¯įà®Ł
Ġà®ķà¯ĩà®Łà¯įà®Ł à®¿à®²à¯į
à®ħà®¨ à®¿à®¯à®¾à®¯à®®à¯į
Ġà®µà®¿à®°à¯Īà®µ à®¿à®²à¯ĩà®¯à¯ĩ
Ġà®ªà¯ģà®³à¯įà®³ à®¿à®ķà®³à¯į
Ġà®¹à®° à®¾à®®à¯į
Ġà®¨à®¿à®²à¯Īà®¤à¯įà®¤ à®¿à®°à¯ģà®ķà¯įà®ķà¯ģà®®à¯į
Ġà®¤à®¾à®´ à¯įà®¤à¯įà®¤à®¿à®ķà¯į
Ġà®¨à®¾à®® à¯ģà®®à¯į
Ġà®µà®¿à®´à¯ģà®Ļà¯įà®ķ à®¿
Ġà®ªà®±à®µ à¯Īà®ķà®³à¯į
Ġà®¤à®²à¯Īà®®à¯ģà®±à¯Īà®¯à®¿à®© à®°à¯Ī
à®¿à®© à¯Īà®¤à¯į
Ġà®µà®° à®¿à®¯à®¿à®²à¯į
à®®à¯įà®® à®¤à¯ģ
Ġà®ĩà®°à¯ģà®¨à¯įà®¤ à®µà®°à¯įà®ķà®³à®¿à®©à¯į
à®¿à®°à¯ģà®ªà¯įà®ª à®µà®©à¯į
à®®à®¾à®© à®¿à®¤
Ġà®ħà®¨ à¯į
à®ĩà®± à®¨à¯įà®¤
Ġà®µà®£à®Ļà¯įà®ķ à®¾à®¤à¯Ģà®°à¯įà®ķà®³à¯į
à¯įà®¨à®¾à®³ à¯į
Ġà®¤à¯Ĥà®¤à®° à®¾à®ķà®¿à®¯
Ġà®µà¯ĩà®¤à®©à¯Īà®¯ à¯Īà®ªà¯į
Ġà®İà®Ļà¯įà®ķà®³à¯Ī à®¤à¯į
ur r
Ġà®¤à¯Ģà®Ļà¯įà®ķ à¯Ī
Ġà®®à®°à®£ à®¤à¯įà®¤à¯Ī
à®®à®ķ à¯įà®ķà®³à¯į
Ġà®ĩà®°à®£à¯įà®Ł à®¾à®µà®¤à¯ģ
à®ªà¯įà®ªà¯ģà®± à®¤à¯įà®¤
Ġà®ĩà®°à¯ģà®³ à¯įà®ķà®³à®¿à®²à¯į
à®ªà®¾à®¤ à¯ģà®ķ
Ġà®¯à®ĥà®ķà¯Ĥ à®ªà¯į
Ġà®¤à®µà¯įà®°à®¾à®¤à¯įà®¤ à¯Īà®¯à¯ģà®®à¯į
Ġà®ĵà®¤à®¿à®ķà¯įà®ķ à®¾à®£à¯įà®ª
Ġà®ļà®¿à®® à¯įà®²
Ġà®Ĵà®°à¯ģà®¤à¯įà®¤ à®¿à®¯à®¾à®ķ
g e
à®© à¯įà®ķà®³à¯į
Ġà®¨ à®±à¯į
Ġà®µ à®¾à®£à¯įà®Łà¯į
à¯ģà®ķà¯įà®ķ à®¤
Ġà®ĩà®±à¯Īà®µà®© à®¾à®©
Ġà®µà®¿à® ®
Ġà®ķà®Łà¯įà®Ł à¯ģà®ķà¯įà®ķà®¤
Ġs et
Ġà®ħà®¤à®±à¯įà®ķ à®µà®°à¯į
à®®à¯ģà® ·à¯įà®°à®¿à®ķà¯įà®ķ
Ġà®ªà¯Ĭà®° à¯ģà®Ł
Ġà®®à¯ģà®¯ à®²à¯įà®µ
Ġà®ħà®¨à®¿à®¯à®¾à®¯à®ķà¯įà®ķà®¾à®° à®°à¯įà®ķà®³à®¾à®ķ
ĠD o
Ġà®īà®®à®ķà¯įà®ķ à¯ģà®®à¯į
Ġà®īà®®à®ķà¯įà®ķ à®¾à®ķ
Ġà®¨à¯Ĩ à®Łà®¿à®¯
à®ķà®Łà¯įà®Ł à¯ģà®ªà¯įà®ª
Ġà®®à®£à¯įà®£ à®¾à®ķà®µà¯ģà®®à¯į
Ġà®ªà®¯à®ªà®ķ à¯įà®¤à®¿
Ġà®ħà®µà¯įà®µà®¿à®°à®£à¯įà®Ł à®¿à®±à¯įà®ķà¯ģà®®à¯į
à®ļ à®®à¯Ĥà®ķà®¤à¯įà®¤
à®¿à®ķà¯įà®ķ à®ªà¯įà®ªà®Łà¯ģà®µà¯Ģà®°à¯įà®ķà®³à¯į
Ġà®ĩà®±à¯Īà®µà®© à¯ģà®ķà¯įà®ķà¯ģà®ªà¯į
Ġà®®à¯ģà®ĥà®®à®¿à®© à¯įà®ķà®³à¯Īà®¯à¯ģà®®à¯į
Ġà®ķà¯ģà®±à¯įà®± à®®à®¾à®ķà®¾à®¤à¯ģ
Ġà®µà¯Īà®ªà¯įà®ª à®¾à®©à¯į
Ġà®¨à®ª à®¿à®¯
Ġà®¤à®ªà¯įà®ª à®¿à®¤à¯įà®¤à¯ģà®ķà¯į
Ġà®¤à¯Ĥà®° à®®à®¾à®©
à®İà®µà®° à¯ĩà®©à¯ģà®®à¯į
Ġà®Ĵà®ªà¯įà®ªà®Ł à¯Īà®¤à¯įà®¤à¯ģ
Ġà®ĥà®ªà®¾à®¸ à®¿à®ķà¯įà®ķ
à®¾à®° à®¿à®²à¯į
à®ħ à®µà®±à¯įà®±à¯Īà®ªà¯į
à®¿à®ķà®³ à®¿à®²à¯ģà®®à¯į
Ġà®ªà¯Ĩà®° à¯ģà®ķ
Ġà®ĩà®°à¯ģà®ªà¯įà®ª à®¤à®±à¯įà®ķà®¾à®ķ
Ġà®µà®¿à®°à¯ģà®®à¯įà®ª à®¿
à®ı à®³à®©
Ġà®ªà¯Ĩà®±à¯įà®± à®µà®°à¯įà®ķà®³à¯į
Ġà®ªà¯ģà®± à¯įà®ªà¯Ĥ
Ġb et
à®ĩà®µà¯įà®µ à¯ģà®£à¯įà®®à¯Īà®¯à¯Ī
à®ĩà®Ł à®®à¯į
Ġà®¨à¯Ĩà®°à¯ģà®ķà¯įà®ķ à®®à®¾à®©
Ġà®¸à®ľà¯įà®¤ à®¾
Ġà®İà®©à®ķà¯įà®ķ à¯ģà®ļà¯į
Ġà®ļà®¨à¯įà®¤à®¿à®ªà¯įà®ª à¯Ī
Ġà®īà®±à®µà®¿à®© à®°à¯įà®ķà®³à¯ģà®ķà¯įà®ķà¯ģà®®à¯į
Ġà®ĩà®µà®° à¯ģà®Łà¯Īà®¯
Ġà®īà®©à®ķà¯įà®ķ à¯ģà®ķà¯į
Ġà®ħà®²à®Łà¯įà®ļà®¿à®¯ à®®à®¾à®ķ
à®ļ à¯Ĩà®°
à®°à¯įà®ķà®³ à®¿à®²à¯ģà®®à¯į
Ġà®µà®¿à®Ł à®¾à®¤à¯ģ
Ġà®¤à®µà®£ à¯Īà®¯à¯Ī
Ġà®ķà®£à¯įà®£à®¿à®¯ à®ªà¯įà®ªà®Łà¯ģà®¤à¯įà®¤
U CK
à®ª à¯ģà®¤à¯įà®¤
à®¿à®° à®¾à®¯
Ġà®Ĩ à®°à¯įà®µ
Ġà®¨à¯Ģà®° à¯Ĥà®±à¯įà®±
à®ķà¯ģà®±à¯Īà®¨à¯įà®¤ à®ªà®Łà¯įà®ļ
Ġà®ªà¯ģà®¤ à®¿à®¤à®¾à®ķ
à®¤ à¯ģà®£
à®ĩà®¤ à¯ģà®¤à®¾à®©à¯į
Ġà®İà®¤à¯įà®¤ à®©à¯Ī
à¯Ĩ à®¸
Ġà®ļà¯Ĥà®´ à¯įà®ļà¯įà®ļà®¿à®¯
Ġà®Ĩà®¯ à®¤
Ġà®¨à¯ģà®´ à¯Īà®¨à¯įà®¤à¯ģ
à¯Ĩ à®Łà¯įà®Łà®¿
Ġà®ª à®¾à®¤à¯ģ
à®İ à®µà®©
Ġà®ħà®¨ à¯įà®¨à®¾à®³
Ġà®ķà®°à¯ģà®µ à®¿à®ªà¯įà®ª
Ġà®ļà¯ģà®µà®©à®ªà®¤ à®¿à®ķà®³à¯į
Ġà®ªà¯ĩà®ļà¯įà®ļ à¯ģ
Ġà®ļà®Ļà¯įà®ķ à¯Ī
à®± à¯įà®ķà®³à¯į
Ġà®µ à®¿à®¤à¯įà®¤
Ġà®İ à®Łà¯Ī
à®¾à®¤ à¯Ī
à®ī à®®à®ķà¯įà®ķ
à®¾à®°à¯įà®ķà®³ à¯Ī
Ġà®¨à®°à®ķ à®¤à¯įà®¤à¯Ī
à¯ģà®±à¯įà®± à®¤à¯ģ
Ġà®µà®´à®¿à®ķ à¯Ĩà®Łà¯įà®Ł
Ġà®µà¯Ĩà®³à®¿à®ªà¯įà®ªà®Łà¯ģà®¤à¯įà®¤ à¯ģà®µà®¤à¯Īà®¯à¯ģà®®à¯į
à®īà®¯à®¿à®° à¯įà®ªà¯įà®ª
) -čĊ
à®£ à¯ģà®®à¯į
à®¿à®± à®ķà¯įà®ķ
à®¨ à¯Ĭà®Ł
à¯ģà®ª à®µà®©à®¾à®ķ
à®ħà®µà®°à¯įà®ķà®³ à¯ģà®ķà¯įà®ķà¯ģà®ªà¯į
à¯Ĩà®Ł à¯ģà®ķà¯įà®ķà¯ģà®®à¯į
Ġà®ĩà®µà¯įà®µ à¯Ĥà®°
à¯ģà®µà®¿à®Ł à¯ģà®µà®¾à®©à¯į
à®®à®± à¯ģà®®à¯Īà®¯à¯Ī
à®ªà¯įà®° à®¾à®¸à®¾à®°à¯ĭ
Ġà®ªà®¿à®°à®¾à®£ à®¿à®ķà®³à¯į
Ġà®ħà®°à¯įà®°à®¹à¯įà®®à®¾à®© à¯ģà®ķà¯įà®ķà¯ģ
Ġà®µà®¿à®ª à®ļà®¾à®°
à®µ à®¿à®ķà¯į
à®Ł à¯ģà®ķà®³à¯į
Ġà®ĩà®°à¯ģà®ªà¯įà®ª à®µà¯Ī
Ġà®İà®µà®° à¯ģà®®à¯ĩ
Ġà®¤à®° à¯ģà®µà®¾à®¯à®¾à®ķ
Ġà®¤à®Ļà¯įà®ķ à¯ģà®µà®¾à®°à¯įà®ķà®³à¯į
Ġà®ĩà®¸ à¯įà®°
Ġà®ļà¯ģà®µà®© à®ļà¯į
Ġà®¨à®±à¯įà®ķà¯Ĥà®² à®¿à®¯à¯ģà®®à¯į
Ġà®ªà®ķà®² à®¿à®²à¯ģà®®à¯į
à®®à®°à®£ à®¤à¯įà®¤à®¿à®±à¯įà®ķà¯ģà®ªà¯į
( à®µà¯įà®µà®¾à®±à¯ģ
Ġà®ķ à®ļ
Ġà®ª à¯ģà®´
Ġà®īà®¤à®µ à®¿à®ªà¯ģà®°
Ġà®·à¯Īà®¤à¯įà®¤à®¾à®© à¯įà®ķà®³à¯Ī
Ġà®¤à¯ĩà®µà¯Īà®¯ à¯ģà®®
Ġà®Ĩà®ļà¯įà®ļà®°à®¿à®¯ à®®à®¾à®©
(à®ļ à®¿à®°
Ġà®ļà¯ģà®°à¯ģà®ķà¯įà®ķ à®¿à®¯à¯ģà®®à¯į
Ġà®ħ à®©à¯įà®±à¯ģ
à®¿à®© à®¾à®©à¯ĭ
Ġà®ĩà®µà®°à¯įà®ķà®³ à¯Īà®¯à¯ģà®®à¯į
à®ħà®Ł à®¿à®ªà¯įà®ªà®Łà¯Ī
Ġà®µà®¿à®°à¯ģà®ªà¯įà®ª à®®à®¾
à®Łà¯Īà®µ à®¾à®°à¯įà®ķà®³à¯į
à®µà®°à¯įà®ķà®³ à¯ģà®ķà¯įà®ķà¯ģà®ªà¯į
Ġà®¹ à®ľà¯įà®ľ
à®İ à®¤à¯Ī
à®¤ à®¾à®ķà¯įà®ķ
à®¿à®ªà¯įà®ª à®¿à®°à®¾à®¯
Ġà®¤à¯Ĥ à®³à¯į
Ġà®¨à®°à®ķ à®¿à®²à¯į
Ġà®¨à®¾à®¯ à®©à¯Ī
Ġà®ķà®£ à®µà®©
Ġph p
3 00
A L
à®ªà¯įà®ªà®Ł à®¾à®¤à¯ģ
à®ħà®²à¯įà®²à®¾à®¹à¯įà®µ à¯ģà®ķà¯įà®ķà¯ģà®ªà¯į
Ġà®¨à®¿à®©à¯Īà®µ à®ķà®®à¯į
Ġà®ªà®¯à®ªà®ķà¯įà®¤à®¿à®¯à¯ģà®Łà¯Īà®¯ à®µà®°à¯įà®ķà®³
Ġti me
Ġà®µà¯ĩà®±à¯Ĩ à®¤à¯Īà®¯à¯ģà®®à¯į
à®¤ à®¾à®µà®¤à¯ģ
Ġà®ķà¯ģà®± à¯Īà®µà¯ģ
Ġà®ķà¯Ĭ à®Łà¯ģà®¤à¯įà®¤
Ġà®¨à®£à¯įà®ª à®°à¯į
à®®à¯ģà®Łà®¿à®¯ à®¾à®¤
Ġà®ªà®°à®¿à®ķà®¾à®° à®®à®¾à®ķ
à®¹à¯įà®° à®¾à®®à¯į
à®¾à®° à¯įà®ķà¯į
Ġà®¨à¯Ģ à®°à¯ĩ
Ġà®ķà¯Ĥà®± à®¾à®¤à¯Ģà®°à¯įà®ķà®³à¯į
Ġà®İà®©à¯įà®ª à®¤à®¿à®²à¯į
Ġà®ħà®±à®¿à®¯ à®¾à®®à®²à¯į
Ġw e
Ġà®Ĩà®©à¯įà®® à®¾à®µà¯ģà®®à¯į
t r
Ġà®ļ à®µ
à®¨ à®±à¯įà®ķ
Ġà®ļà¯Ĩà®²à¯įà®µ à®¤à¯įà®¤à¯Ī
ĠI n
à®Ĩà®° à¯įà®Ł
Ġà®ķà¯Īà®ªà¯įà®ªà®±à¯įà®± à®¿à®ķà¯į
Ġà®¤à¯ģà®³ à®¿
à®¤ à¯Ĥà®°à¯į
à®¾à®© à¯įà®¸à¯į
Ġà®ªà®¾à®° à®¿à®ļ
Ġà®īà®°à¯ģà®µ à®¾à®ķà¯įà®ķà®¿
Ġà®ĩà®² à®ķà¯įà®ķ
à®Ĩà®° à®®à¯įà®ª
Ġà®Ĭà®¤ à®ªà¯įà®ªà®Łà¯ģà®®à¯į
Ġà®ķà®¿à®Łà®ķà¯įà®ķ à®¿à®©à¯įà®±à®©
Ġà®İà®ªà¯įà®ªà®Łà®¿à®¯ à®¿à®°à¯ģà®¨à¯įà®¤à®¤à¯ģ
v al
à®¿à®ļ à¯Ģà®ķà¯įà®ķ
Ġà®µà®° à¯ģà®ķà®¿à®©à¯įà®±à®©à®°à¯į
à®®à¯ģà®Ł à®¿à®µ
we en
Ġà®ĩà®±à¯ģà®¤à®¿à®¨ à®¾à®³à¯į
à®¤ à®®à®ķà¯įà®ķ
Ġà®ķà®¾à®¤ à¯ģà®ķà®³à®¿à®²à¯į
à®´ à®¿à®¯à®®à¯į
à®¿à®·à®¯ à®¤à¯įà®¤à®¿à®²à¯į
Ġà®¤ à¯ģà®±à¯Ī
à®ļ à®©à¯įà®®à®¾à®°à¯įà®ķà¯įà®ķ
p le
Ġà®¤ à®¾à®³
Ġà®ħà®® à¯Ĩà®°à®¿à®ķà¯įà®ķ
Ġpro per
Ġà®¨à®£à¯įà®ª à®°à¯įà®ķà®³
Ġa r
Ġà®ķà¯Ĥà®Łà¯įà®Łà®¤à¯įà®¤à®¾à®° à¯ģà®ķà¯įà®ķà¯ģà®®à¯į
Ġà®Ĩà®¤à®¾à®° à®Ļà¯įà®ķà®³à¯į
% čĊ
à®İ à®¤à¯įà®¤
Ġd escription
à®Ĩà®¤ à®²à®¾à®²à¯į
à¯įà®Łà®©à¯į City
Ġ *.
à®¤ à®±à¯įà®ªà¯ĭà®¤à¯ģ
à¯ģà®ķà¯įà®ķ à¯ĭ
à®ħ à®Ļà¯įà®ķà¯ĩ
à®¾à®ķà¯įà®ķ à®ªà¯įà®ªà®Łà¯įà®Łà®¤à¯ģ
à®¿à®® à¯ĩ
Ġà®ªà®² à®ªà¯įà®ªà®Łà¯ģà®¤à¯įà®¤
Ġà®®à®¾à®¤ à®®à¯į
Ġà®Ĵà®¤à¯ģà®Ļà¯įà®ķ à¯ģà®®à®¿à®Łà®®à¯į
à®µ à®¿à®ļà¯Ī
à¯ĩ à®Łà¯įà®Ł
à¯ģà®ķ à¯Īà®¯à®¿à®²à¯į
à®¿à®ª à®¿à®Ĳ
à®¿à®® à¯įà®®
Ġà®ħà®® à¯Īà®µà¯ģà®ķà®³à¯į
Ġà®®à¯ģà®©à¯įà®© à®¿à®°à¯ģà®ªà¯įà®ª
à®īà®Ļà¯įà®ķà®³ à¯ģà®ķà¯įà®ķà¯ģà®ļà¯į
Ġà®ªà®Ł à¯ģà®ķà¯įà®ķ
Ġà®ħà®® à®°à¯įà®¨à¯įà®¤à¯ģ
Ġp la
à¯ģà®¤à¯įà®¤ à¯ģà®µ
Ġà®ªà®¾à®°à¯įà®ķà¯įà®ķ à®²à®¾à®®à¯į
Ġà®İà®´à¯ģà®ªà¯įà®ª à®ªà¯įà®ªà®Ł
à®īà®± à¯ģà®¤à®¿à®¯
à®īà®± à¯ģà®¤à®¿à®¯à®¾à®ķ
Ġbet ween
I D
h à®ª
Ġà®ķ à¯ģ
à®² à®¾
à®ī à®ª
Ġà®ªà®¯à®®à¯ģà®± à¯ģà®¤à¯įà®¤
Ġà®ª à®¤à¯įà®¤à®¿à®°
Ġà®¨à¯Ĩà®ŀà¯įà®ļ à®Ļà¯įà®ķà®³à®¿à®²à¯į
Ġà®İà®´à¯ģà®¤ à¯ģà®ķ
à®ªà¯įà®ª à®°
à¯Ĭà®° à¯ģà®µà®©à¯į
Ġà®¤à®¾à®¯ à¯įà®®
à®¿à®©à®¿à®©à¯įà®± à¯ģà®®à¯į
à®¤ à®²à¯į
Ġà®® à®¤à¯įà®¤à®¿à®¯
à®ĥà®ª à¯įà®°
à¯įà®ķ à®¾à®Łà¯įà®Łà®¿
Ġà®ķà¯ģà®± à¯ģà®ķà¯įà®ķ
à¯ģà®µà®° à¯įà®ķà®³à¯į
Ġà®İà®´à¯ģà®¤ à¯ģà®ķà®¿à®±à®¤à¯ģ
Ġf ol
à®ħà®Ł à¯ģà®ķà¯įà®ķ
à®¨à®¿à®° à®²à¯į
Ġà®¸à¯įà®ª à¯ĩà®Łà¯į
Ġà®ªà¯ģà®±à®Ļà¯įà®ķ à®¾à®Łà¯įà®Ł
k t
à®µ à®²à¯įà®²
Ġà®ĩà®±à¯Īà®µà®© à®¾à®ķà®µà¯ģà®®à¯į
Ġà®µà¯ĩà®£à¯įà®Łà®¿à®¯ à®¤à¯ģ
" à®¨à¯Ģ
à®¾à®µ à®¤à¯Ī
à¯ģà®ªà¯įà®ª à®¾à®©
Ġà®ªà¯Ĩà®¯ à®°à¯įà®ķà®³à¯į
Ġà®ªà¯Ĩà®¯ à®°à¯įà®ķà®³à¯Ī
tur key
à¯įà®Ĵ à®°
à®¿à®®à¯ĩ à®Łà¯Ī
Ġ *
à®µ à®¹à¯Ģ
à¯ĩ à®±
Ġà®ļà®¿à®± à¯ģà®µà®©à¯į
Ġà®¤à®ķ à¯ģà®¤à®¿
mb ol
à®İà®©à¯įà®± à¯ģà®Ļà¯į
Ġà®ī à®³
Ġà®¯à®¾à®° à¯Īà®¯à¯ģà®®à¯į
Ġà®¤à®ķà¯įà®µ à®¾
à®¤ à®Ļà¯įà®ķ
Ġà®ªà®¿à®©à¯įà®© à¯ĩ
Ġà®ªà®Łà¯ģà®¤à¯įà®¤ à®¿à®ķà¯į
l p
à®ķ à¯ģà®µ
Ġà®ħà®®à¯Ī à®¤à®¿
Ġà®İ à®²à¯įà®²à¯Ī
Ġse e
ĠP lease
à®ļà¯ģà®´ à®±à¯įà®ļà®¿
fa ult
Ġà®ķ à®¾à®©
à®± à®¿à®¨à¯įà®¤à¯ģ
Ġà®ı à®Łà¯ģ
à®ķ à¯ģà®ªà¯įà®ª
à®İ à®ļà¯įà®ļà®°
Ġà®ªà®Ł à¯Īà®ķà®³à¯į
Ġà®µà¯ĩà®±à¯ģà®ª à®¾à®Łà¯ģ
Ġà®ħà®³ à®¿à®ķà¯įà®ķà¯ģà®®à¯į
ur ph
à®ļà¯ĩ à®®
ĠâĢ Ķ
à®µ à®¿à®°à¯ģà®¨à¯įà®¤
à®¿à®¤à¯įà®¤ à¯ģà®µ
Ġà®ªà®Łà¯įà®Ł à¯ģà®³à¯įà®³à®¤à¯ģ
à®® à®¾à®¯
à®ķ à¯Īà®¯à®¿à®²à¯į
à¯ģà®¤ à®¾à®©
à®¿à®¤à¯įà®¤ à®©
à¯ģà®° à¯Īà®¯à¯Ī
à®ŀà¯įà®ļ à¯ģ
à®¤à¯ĩ à®µà¯Īà®¯
à®ªà®¤ à®¿à®²
Ġà®ħà®£ à¯įà®®à¯Īà®¯à®¿à®²à¯į
Ġre tur
e k
Ġà®ļà¯Ĩà®¯à¯įà®¯ à®ķà¯įà®ķà¯Ĥà®Łà®¿à®¯
Ġà®ļà¯Ĩà®²à¯įà®² à®²à®¾à®®à¯į
à®ļà®¿à®± à®¿à®¯
à®ħà®¤à®¿à®ķ à®ªà®Łà¯įà®ļ
à®ļà®¾à®ķ à¯įà®°
Ġà®¤à®¾à®© à®¾à®ķà®µà¯ĩ
Ġse lect
à®® à®´
Ġà®ļà®¾à®¤ à®©à®®à¯į
à®ļ à¯ģà®Łà¯įà®Ł
Ġà®Ł à¯įà®°
Ġà®¨à¯ĩà®° à¯įà®¨à¯įà®¤
à®´ à¯ģà®¤
Ġp er
à¯Ĩà®´ à¯ģà®¤à¯įà®¤à¯ģ
à®īà®¯à®¿à®° à¯į
à®¿à®ķà®³ à®¿à®²à®¿à®°à¯ģà®¨à¯įà®¤à¯ģ
Ġà®ĩà®Ł à®ªà¯įà®ªà¯ģà®±
à®ªà®¤ à®¿à®µà¯ģ
h o
i j
Ġà®ļ à®©à®¿à®ķà¯įà®ķà®¿à®´
à®¿à®ķ à¯įà®¸
Ġà®ĩà®± à®ķà¯įà®ķà¯ģ
à®¾à®ķà¯įà®ķ à¯ģà®±
Ġà®ħà®© à¯įà®ªà¯ģ
à®ħà®©à¯Ī à®µà®°à¯ģà®®à¯į
t a
à®¿à®ªà¯įà®ª à®¾à®°à¯į
on es
Ġà®µà®¿à®°à¯ģà®ªà¯įà®ª à®¤à¯įà®¤à¯Ī
à®ħà®ļà¯įà®ļ à¯ģà®ªà¯įà®ªà¯Ĭ
Ġà®Ĩà®´ à¯įà®¨à¯įà®¤
Ġà®¤à®°à®µà¯ģà®¤à¯įà®¤ à®³
R E
T D
Ġà®¨ à¯ģà®Łà¯įà®ª
à¯ģà®¤à¯įà®¤ à®¿à®°à¯Ī
Ġà®ļà¯Ĩà®¯à¯įà®µ à¯ĩà®©à¯į
Ġà®ļà¯ĩ à®©
à®¤à¯ĩà®° à¯įà®µ
Ġre p
Ġà®ªà®¿à®©à¯įà®µ à®¾à®Ļà¯įà®ķ
other f
Ġà®µà®¿à®Ł à¯ģà®ķà®¿à®±à¯ĩà®©à¯į
Ġà®ħà®´ à®¿
Ġà®ªà®¯ à®¿à®°
Ġà®®à¯ģà®©à¯įà®© à¯ģà®³à¯įà®³
Ġà®īà®Ł à®©
Ġà®¤à®Ł à®®à¯į
Ġà®ĩà®ªà¯įà®±à®¾à®¹à¯Ģ à®®à®¿à®©à¯į
à¯įà®µ à¯ĩ
à®¾à®µ à®¿à®²à®¿à®°à¯ģà®¨à¯įà®¤à¯ģ
n n
à¯įà®µ à®¿à®²à¯įà®²
ot e
Ġà®ļà¯ĭà®¤ à®¿à®ķà¯įà®ķà®µà¯ģà®®à¯į
l ot
à®¿à®²à¯įà®² à¯Īà®¯à¯ĩ
Ġà®İà®©à¯įà®ª à®¤à¯Īà®ķà¯į
Ġà®®à®±à¯įà®± à®µà®°à¯įà®ķà®³à¯į
Ġà®Ĩà®ļ à®¿à®°à®¿à®¯à®°à¯į
c at
à®ª à¯įà®¸à¯į
à®ķ à¯ģà®¤à®¿
à®¾à®ķ à®¤à¯įà®¤à¯Ī
Ġà®ļ à®¿à®Łà¯įà®Ł
à®¿à®Ł à®¤à¯įà®¤à¯Ī
à®ı à®¤à®¾à®µà®¤à¯ģ
Ġà®µà®² à®¿à®¯
qu es
à®ķ à®£à¯įà®Ł
à®¾à®ķ à®¤à¯į
à¯Īà®¤à¯įà®¤ à®²à¯į
à¯įà®¸ à¯įà®Ł
Ġà®ħà®©à¯ģà®®à®¤ à®¿à®ķà¯įà®ķ
Ġà®ķà¯ĩà®³à¯įà®µ à®¿à®ªà¯įà®ªà®Łà¯įà®Ł
à®®à®¤ à®¿à®ªà¯įà®ª
Ġà®¨à®°à®ķà®¤à¯įà®¤ à®¿à®±à¯įà®ķà¯ģ
S h
à®µà®° à¯ģà®Ł
à®ªà¯įà®ªà®Ł à¯ģà®¤à®²à¯į
Ġà®µà®° à¯ģà®®à®¾à®±à¯ģ
à¯įà®° à®¿
Ġa l
à¯Ĩà®© à®¿à®©à¯į
à®īà®©à¯įà®© à¯ģà®Łà¯Īà®¯
Ġsy mbol
à®¾à®£ à®®à¯į
Ġà®ļà¯Ģ à®Łà¯įà®Łà¯Ī
à®ļà®¾à®©à¯įà®± à®¿à®¤à®´à¯į
à¯įà®ª à¯ģà®°
Ġà®ħà®° à®ª
à®ı à®´à¯Ī
Ġà®ĩà®°à®ķà®ļà®¿à®¯ à®®à®¾à®ķ
Ġà®ķà¯Īà®¯ à¯Ĩà®´à¯ģà®¤à¯įà®¤
_ BAR
à®¾à® Ļà¯į
Ġà®®à®¾à®±à¯įà®± à®µà¯ģà®®à¯į
Ġà®ıà®±à¯įà®ªà®Łà¯įà®Ł à¯ģà®³à¯įà®³à®¤à¯ģ
à®Łà®¿à®¯à®¾à®ķ à®¾à®¤
Ġà®ħà®ļ à¯Īà®µà¯Ĥà®Łà¯įà®Ł
à®¾à®ļ à¯į
Ġà®ªà®ķ à®²à¯ģà®®à¯į
à®¾à®ķà¯įà®ķà®¿à®¯ à®®à¯į
Ġà®¤à®¿à®Łà¯įà®Ł à®®à®¿à®Łà¯įà®Ł
Ġà®ĩà®² à®µà®ļ
à®¨à®¾à®© à¯ģà®®à¯į
Ġv al
f ig
à¯ĩ à®©à¯ĩ
Ġà®īà®°à¯ģà®µà®¾à®ķà¯įà®ķ à¯ģà®®à¯į
à®ªà®¿à®®à¯įà®ª à®®à¯į
Ġà®µà®¿à®ļà®¾à®°à®£ à¯Ī
Ġà®µà¯ĩà®Łà¯įà®Ł à¯Īà®¯à®¾à®Ł
Ġà®ĩ à®²à¯įà®²à®¾à®µ
Ġà®ķà¯ĩ à®³à¯į
Ġà®ħà®ķ à®²
à®ĩà®£ à¯Īà®¯
à®īà®³à¯įà®³ à®Łà®ķà¯įà®ķ
Ġà®°à®¾à®ľ à®¾
" .
à®° à¯įà®ªà¯įà®ª
à®ķ à¯ģà®³
Ġà®¨à®¿à®²à¯Ī à®¨à®¾à®Łà¯įà®Ł
Ġretur ns
s a
à®© à¯įà®ķà®³à¯Ī
Ġà®ķ à¯ģà®²
à®± à®¿à®¨à¯įà®¤
à®ħ à®ª
à®£à¯įà®Ł à¯Ĭ
à®®à¯Ĩ à®£à¯įà®Łà¯Ĭ
Ġà®Łà®¿à®µà®¿à®Ł à®¿à®µ
Ġà®īà®³à¯įà®³à®Łà®ķà¯įà®ķ à®Ļà¯įà®ķà®³à¯Ī
à®ļà®¾à®ķà¯įà®° à®®à¯Ĩà®£à¯įà®Łà¯Ĭ
à®ħ à®¤à¯ĩ
à®¿à®¤ à®²
à¯Īà®ªà¯įà®ª à®¿à®©à¯įà®©
à¯ģà®µà®° à®¿à®ļ
à®®à¯ĩ à®ļà¯Ī
or d
wor d
à®ª à®ļ
Ġà®ļ à¯ģà®¤
à®®à®±à¯įà®± à®µà®°à¯įà®ķà®³à¯į
U S
at ed
à®¿à® Ĩ
Ġà®¤ à®¾à®£à¯įà®Ł
Ġà®Ĩà®µ à®¾à®°à¯į
Ġà®µà¯Ĩà®³à®¿à®ªà¯įà®ªà®Ł à¯Īà®¯à®¾à®ķ
Ġà®ĩà®°à®Łà¯įà®Łà®¿à®ªà¯įà®ª à®¾à®ķà¯įà®ķ
i an
à®© à¯įà®¸à¯į
à®¯ à¯ģà®³à¯įà®³
Ġà®ĩ à®³
Ġà®µà®¿à® £à¯įà®Ł
Ġà®µà®¿à®³ à®¿à®®à¯įà®ª
Ġà®ķà®£ à®µà®©à¯į
à®ķà¯ģà®± à®¿à®¯
à®µà¯Ĩ à®³à¯įà®³
i p
Ġ i
Ġà®ļà¯Ĭ à®²
Ġà®Īà®Ł à¯ģà®ªà®Łà¯įà®Ł
Ġà®ŀà®¾à®ª à®ķ
g er
à®© à¯Īà®ķà®³à¯Ī
Ġà®ĩ à®µà¯į
Ġ( -
à®¿à®° à®µà¯ģ
à®¿à®ªà¯įà®ª à®¤à®±à¯įà®ķà¯ģ
à¯įà®° à¯ĭ
à¯Ģà®´ à¯į
Ġà®ªà¯ĭ à®±
Ġà®ªà®¾à®¤à¯ģà®ķà®¾à®µà®² à®°à¯į
Ġà®ªà®¤à®¿à®² à®³à®¿à®ķà¯įà®ķ
à®İà®´ à¯ģà®ªà¯įà®ª
Ġà®ĩà®©à¯įà®© à¯Ĭà®°à¯ģ
Ġà® Ļà¯įà®ķà®³à¯į
à®¤ à®£à¯įà®£
à®¤ à¯ģà®£à¯įà®Ł
à®¿à®¤ à®¾à®©à¯į
Ġà®µà®° à¯Īà®ķ
Ġà®ķà®¿à®Ł à¯Īà®®à®Łà¯įà®Ł
Ġà®ļà®¾à®³à®° à®¤à¯įà®¤à®¿à®²à¯į
à®®à®ķ à®¿à®´
à®Ĩà®£ à®µ
Ġà®µ à®Łà¯įà®Łà®¿
à¯Īà®ķà¯įà®ķ à¯ģà®³à¯įà®³
- R
à®¾à®° à¯įà®µà¯Ī
à¯ģà®ķà¯įà®ķ à¯ģà®®à¯ĩ
Ġà®ķà¯Ĥà®± à®µà¯ģà®®à¯į
Ġà®µà¯Ĩà®³à®¿à®¯à¯ĩ à®±à®¿
à®ħà®© à¯ģà®®à®¤
Ġà®®à®¿à®²à¯įà®² à®¿à®¯à®©à¯į
à®¿à®©à¯įà®± à¯ģ
Ġà®¤à¯Ĥà®£à¯įà®Ł à®¿
à®® à¯Ĩà®°
à®Łà¯įà®Ł à®®à¯į
p uer
Ġà®ħà®Ł à®¿à®ªà¯įà®ª
ĠC omment
Ġà®ļà®¿à®ķà¯įà®ķ à®²à¯į
tor ico
puer torico
A F
à®¯ à®®à®¾à®ķ
Ġà®Ĵ à®±à¯įà®±à¯Ī
Ġà®ħà®®à¯Īà®ªà¯įà®ª à¯ģà®ķà®³à¯Ī
a st
à¯Ģà®° à¯įà®ªà¯įà®ªà¯ģ
ro l
Ġà®¤à®¿à®° à¯Īà®¯à¯Ī
ĠH TML
E E
a zer
à¯ģà®µ à®¿à®²à¯į
Ġà®ħà®ļà¯įà®ļ à®¿à®Ł
ba ij
Ġà®µà®¿à®° à¯Īà®¨à¯įà®¤
Ġà®¤à¯Ĭà®ķ à¯ģà®ķà¯įà®ķ
Ġà®Ĵà®´à¯ģà®Ļà¯įà®ķ à¯ģà®ªà®Łà¯ģà®¤à¯įà®¤
Ġhe ad
azer baij
azerbaij an
à®ª à¯Ĭà®°
à®ļ à®©
à®¾à®¯ à®¿à®°à®®à¯į
à¯įà®¯ à®¾
Ġà®ĩà®¯ à®ķà¯įà®ķà¯ģ
Ġà®®à¯ģà®¤ à®©à¯įà®®à¯Īà®¯à®¾à®©
à®µà®¿à®² à®ķ
Ġà®ħ à®Łà¯įà®Łà¯Ī
Ġà®ķ à¯Ģ
à®® à¯įà®µ
à®ķ à®¾à®°à®®à¯į
à¯įà®ļ à®©à¯į
Ġà®®à¯Ĥ à®Łà®¿à®ķà¯įà®ķ
à®ķà¯Īà®¯ à®¾à®²à¯į
Ġà®ķà¯ģà®±à®¿à®ªà¯įà®ª à¯Ī
Ġà®¨à®¿à®ķà®´ à¯įà®µà¯ģ
Ġà®ĩà®²à¯įà®²à¯Īà®¯ à¯Ĩà®©à¯įà®±à®¾à®²à¯į
à®Ł à¯Ĩ
à®ķ à®¾à®©
Ġà®ªà¯Ĩà®± à¯ģà®µ
Ġà®ķà®£à¯įà®Ł à®¾à®²à¯į
Ġà®ķà®¾à®Łà¯įà®ļ à®¿à®¯à¯Ī
Ġà®ļà¯ģà®´ à®±à¯įà®ļà®¿
à®ķ à®µà®²à¯Ī
Ġà®ĩà®°à¯ģà®¨à¯įà®¤ à®¿à®°à¯ģà®¨à¯įà®¤à®¾à®²à¯į
Ġà®ļà¯Ĩà®² à®µà®¿à®Ł
ĠR ussia
g ra
à®¾à®µ à¯ģà®ķà¯įà®ķà¯ģ
Ġà®ªà®¾à®°à¯įà®¤à¯įà®¤ à®¾à®²à¯į
Ġà®ļà®¿à®ªà®¾à®°à®¿à®ļ à¯ģ
à®Ł à®¿à®¯à®¿à®²à¯į
Ġà®ķà¯ģà®±à¯Īà®¨à¯įà®¤ à®ªà®Łà¯įà®ļ
Ġà®®à®¾à®Łà¯įà®Ł à®¾
Ġà®ļà¯Ĩà®²à¯ģà®¤à¯įà®¤ à®¿
IS T
ue b
Ġà®ħ à®ķà®°
Ġà®īà®¤à®µ à®¿à®¯à¯Ī
Ġà®İà®£à¯įà®£ à®¿à®¯
Ġà®µà®¾à®´ à¯įà®¨à¯įà®¤
Ġà®µà®´à®Ļà¯įà®ķ à®ªà¯įà®ªà®Łà¯įà®Ł
Ġà®µà¯Ĩà®±à¯įà®±à®¿à®¯ à®Łà¯Īà®¯
à¯Ĩ à®±à¯įà®±à®¿
Ġà®¨ à®¿à®±à¯įà®ķà¯ģà®®à¯į
à®ħ à®²à¯įà®²
à®¿à®ļ à¯Ĩà®¯à¯įà®¯
Ġà®īà®° à®¿à®¤à¯įà®¤
Ġà®ķà®³ à®¤à¯įà®¤à®¿à®²à¯į
à®Ĩà®¤ à®¾à®°
Ġà®Ĩ à®®à¯į
à®¾à®ķà¯įà®ķ à®ªà¯į
Ġà®ķà®Ł à¯ģà®®à¯į
Ġà®ĩà®¯ à®©à¯įà®±
Ġà®ªà¯Ĩà®± à®µà¯ģà®®à¯į
Ġà®ªà¯ĩà®ļ à®¿
Ġà®µà®¿à®°à¯ģà®ªà¯įà®ª à®ªà¯įà®ªà®Łà®¿
à®¨à®¿à®° à®ªà¯įà®ª
à®µà®¿à®´ à¯ģà®Ļà¯įà®ķ
Ġà®İà®©à¯įà®©à®µà¯Ĩ à®©à¯įà®±à¯ģ
D isc
w w
Ġà®İ à®®à¯į
Ġà®ħà®® à¯Īà®ķà¯įà®ķà¯ģà®®à¯į
Ġà®Ĩà®ļà¯įà®ļà®°à®¿à®¯ à®ªà¯įà®ªà®Ł
Ġà®ªà®Łà®¿à®ªà¯įà®ª à®¿à®©
à®ªà®´ à¯Īà®¯
à®® à¯Ĩà®©
à¯ģà®ķà¯įà®ķ à®¤à¯į
Ġà®ªà®¾à®°à¯įà®ķà¯įà®ķ à®¿à®±
Ġà®µà®² à¯ģà®ªà¯įà®ªà®Łà¯ģà®¤à¯įà®¤
Ġà®ķà®¾à®Łà¯įà®ļ à®¿à®¯
Ġà®ªà¯Ĭà®°à¯ģà®³ à®¿à®©à¯į
à¯Īà®¯ à®¿à®²à¯ģà®³à¯įà®³
à®ķà¯įà®ķ à®°à¯į
à¯ĩà®±à¯įà®± à®®à¯į
à®¤à¯ĩà®°à¯įà®¨à¯įà®¤ à¯Ĩà®Łà¯ģà®¤à¯įà®¤
Ġà®ªà®¿à®°à®¤ à®¿à®ª
Ġà®ĩ à®ķà¯į
Ġà®µà¯ĩ à®±à¯įà®±à¯ģà®®à¯Ī
Ġà®ħà®°à¯ģà®ķ à®¿à®²à¯į
Ġà®Ĵà®°à¯ģà®Ļà¯įà®ķ à®®à¯Īà®ªà¯įà®ªà¯ģ
Ġà®µà®¿à®Ł à®µà®¿à®²à¯įà®²à¯Ī
à¯ģà®£ à¯įà®£
Ġà®ķà¯ģà®±à®¿à®ªà¯įà®ª à®¿à®Łà¯įà®Łà¯ģ
Ġà®¨à®¿à®±à¯Īà®µà¯ĩ à®±
Ġà®ħà®Łà®¿à®¤à¯įà®¤ à®³
Ġà®¨à®®à¯įà®® à®¿à®²à¯į
à¯ģà®¨ à®¿à®²
à®µ à®¨à¯įà®¤à¯ģ
Ġà®µà®° à¯ģà®ķà®¿à®©à¯įà®±
Ġà®İà®´à¯ģà®¤ à®ªà¯įà®ªà®Ł
Ġà®¤à®ķà®µà®² à¯įà®ķà®³à¯Ī
Ġà®ĩ à®²à®ķ
à®¿à®µ à®¾à®¤
Ġà®ĩà®°à¯ģà®ķà¯įà®ķà®¿à®©à¯įà®± à®©à¯į
Ġà®®à¯ģà®©à¯įà®© à®¤à®¾à®ķà®µà¯ĩ
Ġà®İà®©à¯įà®ªà®¤à¯Ī à®ļà¯į
Ġà®° à®¾à®£à®¿
Ġà®ħà®ļà¯įà®ļ à¯ģà®±à¯ģà®¤à¯įà®¤
Ġà®ķà¯ģà®Ł à®¿à®¯à¯ĩ
Ġà®īà®©à¯įà®© à¯Īà®ªà¯į
à®ķà®¾à®° à®¿à®¯
à®ķà®Łà®µà¯ģà®ļà¯įà®ļà¯Ĭ à®²à¯į
Ġà®µ à®Łà¯įà®Łà®¿à®²à¯į
à®¨à¯įà®¤ à®¾à®©à¯į
à®ī à®£à¯įà®Ł
à®µà®¾à®© à®®à¯į
à®ªà®¯ à®©
Ġà®®à®Ł à®Ļà¯įà®ķ
Ġà®¤à®¿à®¯à®¾à®ķ à®®à¯į
à®¤ à¯Ĥà®°
à®¿à®° à¯ģà®®à¯į
Ġà®ī à®¤à®¿à®°
Ġà®ħà®´ à¯Ī
Ġà®¤à®¿à®° à®¿à®¯
Ġà®¤à®Ł à®µà¯Ī
Ġà®ªà®¿à®³ à®µ
Ġà®ªà®¾à®ķ à®¤à¯įà®¤à¯Ī
Ġà®µà®³ à®°à¯įà®ķà¯įà®ķ
eg er
Ġà®ļà¯ĩà®µà¯Īà®¯ à®ķà®®à¯į
Ġà®ī à®Ļ
Ġà®µà¯Ĩà®³ à®¿à®¯à®¿à®²à¯į
Ġà®ħà®³ à®¿à®ªà¯įà®ªà®¾à®©à¯į
Ġà®ľ à¯ĩ
Ġà®ħà®µ à®¤
Ġà®ħà®² à®¾à®°à®®à¯į
Ġà®¤à®©à¯įà®© à®¿à®Łà®®à¯į
Ġà®¤à®µà®± à®¾à®ķ
Ġà®ħà®´à¯Īà®ķà¯įà®ķ à®ªà¯įà®ªà®Łà¯įà®Ł
Ġà®ħà®´à¯Īà®¤à¯įà®¤ à¯ģà®ļà¯į
à®¤à¯Ĭà®Ł à®°à¯įà®ª
IG HS
" à®İà®©à®ķà¯įà®ķà¯ģ
a f
¸ à¯įà®¤
à®¾à®° à¯ĩ
à®¨ à®²à¯į
Ġà®®à®±à¯įà®± à®µà®°
Ġà®ķà¯ĭà®ªà¯įà®ª à¯ģà®ķà®³à¯ģà®ķà¯įà®ķà¯ģ
Ġà®ļà®° à®¿à®¯à¯ĩ
Ġà®ļà¯Ĩà®©à¯įà®± à®¾à®°à¯į
Ġà®¤à®ķà¯įà®ķ à®µà®¾à®±à¯ģ
à®¯ à®¾à®¤
Ġà®µ à®¾à®ķ
à®Łà¯įà®Ł à®¤à¯ģ
à¯ĩà®° à®¿
Ġà®ľ à®©à¯įà®©
Ġà®µà®°à¯Ī à®ªà¯įà®ªà®Ł
lic ation
Ġà®İà®¤à¯ģà®µ à¯ģà®®à®¿à®²à¯įà®²à¯Ī
Ġà®ļà®¾à®³à®° à®¤à¯įà®¤à®¿à®©à¯į
à¯ģà®µà®¤à®±à¯įà®ķ à¯ģà®®à¯į
à®¿à®· à¯į
s er
à®© à®¾à®µ
à®ī à®®à®¤à¯ģ
Ġà®µà®¨à¯įà®¤ à¯ģà®µà®¿à®Ł
Ġà®ªà¯Ĭà®¤à¯įà®¤ à®¾à®©
Ġà®ķ à®¿à®ªà¯įà®²
à®ķ à¯ģà®©
Ġà®ķà®¾à®Łà¯įà®Ł à®¿à®¯à®¾à®ķà®µà¯ģà®®à¯į
Ġà®ļà®®à¯Ĥà®ķà®¤à¯įà®¤à®¾à®° à®¾à®ķ
Ġà®ķà®Łà¯įà®Łà¯ģà®ªà¯įà®ª à®¾à®Łà¯ģ
Ġà®®à¯ģà®Łà¯įà®Ł à®¾à®³à¯į
à®¤ à¯ģà®ķà¯įà®ķ
à¯ģà®µ à®¾à®ķ
Ġ- (
Ġà®īà®£à¯įà®®à¯Īà®¯ à¯ģà®Łà®©à¯į
Ġà®ļà®®à¯Ĥà®ķà®¤à¯įà®¤à®¾à®° à¯Īà®¯à¯ģà®®à¯į
Ġà®¨à®¾à®Łà®¿à®¯ à®¤à¯Ī
Ġà®ªà¯ģà®° à®¿à®ķà®¿à®©à¯įà®±
Ġà®¨à®ª à®¿à®ķà¯įà®ķà¯ģà®®à¯į
Ġà®¨à®©à¯įà®®à®¾à®°à®¾à®¯ à®®à®¾à®ķà®µà¯ģà®®à¯į
Ġà®īà®®à®ķà¯įà®ķ à¯ģà®¤à¯į
à®ªà®¿à®©à¯įà®© à®£à®¿
Ġà®·à¯ģà®Ĳ à®ªà¯Ī
8 8
C R
à®© à®¾à®©
Ġà®¨ à®¾à®¯à¯į
à®¾à®ķà¯įà®ķ à®µà¯ģà®®à¯į
Ġà®®à®± à¯Īà®ªà¯įà®ª
Ġà®ħà®¤à¯įà®¤à®¾à®Łà¯įà®ļ à®¿à®¯à®¾à®ķà®µà¯ģà®®à¯į
à®¿à®ķà¯įà®ķà®¿à®± à®¾à®©à¯ĭ
re ad
à¯ģà®µà®¿à®Ł à¯ģà®µà®¾à®°à¯įà®ķà®³à¯į
Ġà®¤à®¨à¯įà®¤ à®°à¯ģà®³à¯įà®µà®¾à®¯à®¾à®ķ
Ġà®ķà¯ĭ à®£
Ġà®īà®ªà®¤à¯ĩà®ļ à®¿à®¤à¯įà®¤
à®¤à®¿à®Ł à¯ģà®ķà¯įà®ķ
à®ļà®¾à®¤ à®¾à®°à®£
à®¤à®² à¯Īà®ªà¯įà®ª
Ġà®ªà®¿à®°à®¿à®¤à¯įà®¤ à®±à®¿à®µ
Ġà®¨à®®à®ķà¯įà®ķ à¯ģà®®à¯į
Ġà®ķà¯ģà®© à®¿à®¨à¯įà®¤à¯ģ
2 2
e v
à®µ à®³à¯į
Ġà®¨ à®¾à®´
Ġà®ª à®¿à®±à¯įà®ķà®¾à®²
Ġà®µ à®¿à®ķà¯įà®ķ
à®¿à®¯ à®°à¯ģà®®à¯į
à®ªà¯įà®ª à®¾à®±
Ġà®ķà¯Ĥ à®Łà®¿
Ġà®ħà®µà®°à¯įà®ķà®³ à¯ģà®ķà¯įà®ķà¯ĩ
à®¿à®µ à®¾à®Ļà¯įà®ķ
à®¿à®¤à¯įà®¤ à¯ģà®ļà¯į
à®¿à®²à¯įà®² à®¾à®¤à¯ģ
à¯ģà®ª à®£à¯įà®£
à®©à¯Ī à®¤à¯į
à®¿à®ª à¯įà®µ
Ġà®®à®¾à®Łà¯įà®Ł à¯Ģà®°à¯į
Ġà®ĩà®°à¯ģà®ªà¯įà®ª à®¤à®±à¯įà®ķà®¾à®ķà®µà¯ģà®®à¯į
Ġà®ħà®³ à®¨à¯įà®¤à¯ģ
Ġà®īà®± à®µà¯ģ
à¯ģà®ķà®¿à®©à¯įà®± à®¾à®©à¯ĭ
(à®ħ à®µà¯įà®µ
Ġà®¤à¯Ģà®°à¯įà®ªà¯įà®ª à®³
Ġà®¨à®¾à®Łà®¿à®¯ à®µà®°à¯įà®ķà®³à¯Īà®¤à¯į
à®®à¯ģà® ¯
à®®à®© à¯ģà®ªà®µ
Ġà®ħà®±à®¿à®¨à¯įà®¤ à®¿à®°à¯ģà®¨à¯įà®¤à®¾à®²à¯į
Ġà®µà®Łà®¿à®µ à®¤à¯įà®¤à¯Ī
Ġà®µà®¾à®Ļà¯įà®ķ à®¿à®¯
Ġà®¨à®·à¯įà®Ł à®¤à¯įà®¤à¯Ī
us a
à®ħà®¤à¯Ī à®¤à¯į
à¯ģà®µà®¤ à®¾à®ķà®µà¯ģà®®à¯į
à®İà®´ à¯ģà®¤à¯įà®¤à¯ģ
Ġà®ĩà®£à¯Īà®µ à¯Īà®¤à¯įà®¤
Ġà®ĩà®°à®ķà®ļà®¿à®¯ à®®à®¾à®ķà®µà¯ģà®®à¯į
Ġà®®à¯Ĥà®´à¯įà®ķ à®Łà®¿à®ķà¯įà®ķ
Ġà®ļà®Ļà¯įà®ķ à¯Īà®¯à®¾à®©
" à®ħà®µà®°à¯įà®ķà®³à¯į
à®ķà¯įà®ķ à®¿à®Ł
à®ĩ à®ªà¯įà®²à¯Ģà®¸à¯į
Ġà®¨à®¾à®³ à¯ģà®ķà¯įà®ķà®¾à®ķ
... )čĊ
Ġà®ķà¯Ĥà®±à¯ģà®µà¯Ģà®°à®¾à®ķ à¯į
Ġà®ªà®¤ à®¿à®ªà¯įà®ª
Ġà®¯à®¾à®µ à®°à¯ģà®ķà¯įà®ķà¯ģà®®à¯į
Ġà®ĩà®µà®°à¯įà®ķà®³ à¯Īà®ªà¯į
Ġà®ķà®¾à®°à®¿à®¯ à®Ļà¯įà®ķà®³à¯Īà®ļà¯į
Ġà®¤à¯Ģà®® à¯Īà®ķà®³à¯Ī
Ġà®ħà®¨à®¿à®¯à®¾à®¯à®ķà¯įà®ķà®¾à®° à®°à¯įà®ķà®³à®¿à®²à¯į
Ġà®ĩà®© à®¤à¯įà®¤à®¾à®°à®¿à®Łà®®à¯į
Ġà®¤à®ķà®µ à®²à¯įà®ķà®³à¯į
Ġà®Ĩà®± à®ķà®³à¯į
Ġl oc
Ġà®ħà®±à®¿à®ª à®µà®©à®¾à®ķ
à®®à¯ģà®Łà®¿à®¯ à®µà®¿à®²à¯įà®²à¯Ī
à®¤à®² à¯Īà®ªà¯įà®ªà¯ģ
Ġà®ħà®ķà®¿à®²à®¤à¯įà®¤à®¾à®° à¯ģà®ķà¯įà®ķà¯Ĩà®²à¯įà®²à®¾à®®à¯į
Ġà®ħà®£à¯ģà®µ à®³à®µà¯ģà®®à¯į
à®¾à®° à®¾à®©à®¾à®²à¯į
à®¾à®² à¯ģà®®à®¾
Ġà®īà®Ļà¯įà®ķà®³ à®¿à®²à¯ģà®³à¯įà®³
Ġà®µà®° à¯ģà®µà¯Ģà®°à®¾à®ķ
à®Ĩ à®ķà¯Īà®¯à®¾à®²à¯į
Ġà®µà®¿à®Ł à®ªà¯į
Ġà®ĩà®±à¯Īà®µà®© à¯Īà®ļà¯į
Ġà®ĩà®°à¯ģà®ªà¯įà®ª à¯ģ
Ġà®ªà®¾à®¤ à¯įà®¤à®¿à®¯
Ġà®ļà¯Ĩà®¯à¯įà®ª à®µà®°à®¾à®ķ
à®µà®©à®¾à®ķ à®¿à®¯
Ġà®ŀà®¾à®© à®®à®¿à®ķà¯įà®ķ
Ġà®®à®©à®¿à®¤à®°à¯įà®ķà®³ à¯Īà®¯à¯ģà®®à¯į
Ġà®µà®¿à®¤ à®¤à¯įà®¤à®¿à®²à¯į
Ġà®ļà¯Ĩà®²à¯įà®µ à®¾à®°à¯įà®ķà®³à¯į
Ġà®µà¯Ĩà®± à¯ģà®¤à¯įà®¤à¯ģ
Ġà®ķà®¾à®ªà¯įà®ªà®¾à®±à¯įà®± à¯ģà®µà®¾à®¯à®¾à®ķ
Ġà®ħà®³à®¿à®¤à¯įà®¤ à®µà®±à¯įà®±à®¿à®²à®¿à®°à¯ģà®¨à¯įà®¤à¯ģ
Ġà®ªà®¾à®°à¯įà®µ à¯Īà®ķà®³à¯į
Ġà®ļà¯Ĭà®°à¯ģà®ķ à¯ģ
Ġà®ħà®ªà¯įà®ªà®Ł à®¿à®¯à®¾à®¯à®¿à®©à¯į
Ġà®ļà®¿à®±à®ªà¯įà®ª à®¾à®©
Ġch arac
Ġà®ķà¯ģà®Łà¯ģà®®à¯įà®ªà®¤à¯įà®¤ à®¿à®©à®°
Ġà®ħà®µà®¤ à¯Ĥà®±à¯ģ
: )
à¯Ĩ à®©à¯įà®©à¯ģà®®à¯į
à®¤à¯įà®¤ à¯ģà®²à¯į
à®¾à®¤ à®¿à®°à¯ģà®ķà¯įà®ķ
à®¿à®ªà¯įà®ª à®¤à¯Ĩà®²à¯įà®²à®¾à®®à¯į
Ġà®īà®Ļà¯įà®ķà®³ à®¿à®²à®¿à®°à¯ģà®¨à¯įà®¤à¯ģ
Ġà®ħà®±à®¿à®µ à¯ĩà®©à¯į
Ġà®ħà®±à®¿à®µ à®¿à®¤à¯įà®¤à¯ģ
à®ŀà¯įà®ļ à®¤à¯įà®¤
Ġà®ļà¯Ĩà®¯à¯įà®ª à®µà®©à®¾à®ķà®µà¯ĩ
Ġà®Ĩà®£ à¯įà®ķà®³à¯ģà®ķà¯įà®ķà¯ģ
Ġà®¨à®©à¯įà®® à¯Īà®¯à¯ĩ
Ġà®¤à®£à¯įà®Ł à®©à¯Īà®¯à¯Ī
Ġà®ļà¯Ģ à®®à®¾à®©
Ġà®ªà®¾à®ķà¯įà®ķà®¿à®¯ à®®à¯ģà®Łà¯Īà®¯à®µà®©à¯į
à®µà¯ĩà®±à¯Ĩ à®¤à¯ģà®µà¯ģà®®à¯į
Ġà®ķà¯ģà®±à¯įà®±à®µà®¾à®³ à®¿à®ķà®³à®¿à®©à¯į
à®®à¯ģà®ķ à®µà®°
Ġà®ħà®Ļà¯įà®ķ à¯Ģà®ķà®°
Ġà®¨à®±à¯įà®ļà¯Ĩà®¯ à¯įà®¤à®¿
Ġà®µà¯ĩà®³ à¯Īà®¯à®¿à®²à¯į
Ġà®ĩà®µà¯įà®µà®¿à®°à®£à¯įà®Ł à®¿à®±à¯įà®ķà¯ģà®®à¯į
Ġà®ĩà®¸à¯įà®² à®¾à®®à¯į
Ġà®ħà®¤à®©à¯įà®ª à®¿à®©à¯į
à®®à¯ģà®¸à¯įà®² à®¿à®®
Ġà®ĩà®¸à¯įà®¹à®¾à®ķà¯įà®ķ à¯Īà®¯à¯ģà®®à¯į
Ġà®ĩ à®ªà¯įà®²à¯Ģà®¸à¯į
à®¤à¯įà®¤ à®²
Ġà®ĩà®± à¯ģà®¤à®¿à®¯à®¿à®²à¯į
à®¤à®±à¯įà®ķ à¯ģà®ķà¯į
Ġà®µà®¨à¯įà®¤ à®¿à®°à¯ģà®ķà¯įà®ķà®¿à®±
Ġà®İà®©à®ķà¯įà®ķ à¯ģà®ªà¯į
Ġà®ħà®¨à®¿à®¯à®¾à®¯à®ķà¯įà®ķà®¾à®° à®°à¯įà®ķà®³à¯Ī
Ġà®¤à®¨à¯įà®¤à¯Īà®¯ à®°à¯į
Ġà®ĩà®ļà¯įà®ļ à¯Īà®ķà®³à¯Īà®¯à¯ĩ
Ġà®ªà¯ĩà®°à¯Ģ à®ļà¯įà®ļ
à®¨à®Łà®¿à®ķà®° à®¿à®©à¯į
à¯Ĥà®°à¯įà®µ à®¾à®ļ
" à®Ĵà®°à¯ģ
S T
s w
Ġà®® à¯Ĩà®©à¯įà®ª
à¯ģà®ķà¯įà®ķ à¯ģà®Łà®©à¯į
Ġà®ħà®²à¯įà®²à®¾à®¹à¯įà®µ à®¿à®Łà®®
Ġà®ħà®± à®¿à®ķà®¿à®±
à®Ĩ à®£à¯įà®Ł
Ġà®ħà®¨à¯įà®¤ à®ļà¯į
Ġà®¨à¯Ĩà®°à¯ģà®ªà¯įà®ª à®¿à®²à®¿à®°à¯ģà®¨à¯įà®¤à¯ģ
Ġà®µà®¿à®³à®ķà¯įà®ķ à®¿à®ķà¯į
Ġà®µà¯Ĩà®³à®¿à®¯ à®¾à®ķà¯įà®ķà®¿
à®īà®£ à¯įà®®à¯Īà®¯à¯Ī
Ġr es
Ġà®¨à®¿à®°à¯įà®µ à®¾à®ķ
Ġà®®à¯ģà®©à®¾à®ĥà®ªà®¿à®ķà¯įà®ķ à¯ģà®ķà®³à¯į
à¯Īà®¯ à®¿à®©à®°
Ġà®ķà¯Ĥ à®³
Ġà®ķà¯Ĥà®± à¯ģà®ķà®¿à®±à¯Ģà®°à¯įà®ķà®³à¯į
Ġà®®à®° à¯ģà®Łà¯įà®Łà®¿
à®ħà®¤à¯įà®¤ à¯Ĥà®¤
Ġà®ĩà®¤à®±à¯įà®ķ à¯ģà®ªà¯į
Ġà®ļà¯Ģà®ķà¯įà®ķà®¿à®° à®¤à¯įà®¤à®¿à®²à¯į
Ġà®ªà®° à®ķà¯įà®ķ
Ġà®®à¯ģà®ĥà®®à®¿à®© à®¾à®ķ
em p
A l
à®ļà¯įà®ļ à¯Ĩà®¯à¯įà®¤à¯ģ
Ġà®İà®©à¯įà®ª à®¤à®±à¯įà®ķà®¾à®ķ
Ġà®¤à®° à®µà¯Ī
Ġà®¤à®Ļà¯įà®ķ à®¿à®¯à®¿à®°à¯ģà®ķà¯įà®ķ
Ġà®®à®²à®ķà¯įà®ķà¯ģà®ķà®³ à®¿à®Łà®®à¯į
à®© à¯Īà®ķà¯įà®ķà¯ģ
à®¿à®© à®¾
à®¤à¯įà®¤ à¯ģà®Łà®©à¯ģà®®à¯į
Ġà®ħà®µà®© à¯Īà®¤à¯įà®¤à®µà®¿à®°
Ġà®ħà®Ł à¯ģà®ķà¯įà®ķà¯ģ
Ġà®ļà¯Ĩà®¯à¯įà®ª à®µà®©à¯ģà®®à¯į
Ġà®Ĵà®°à¯ģà®µ à®©à¯ĩ
Ġà®¤à®Ļà¯įà®ķà®³à¯Ī à®¤à¯į
à¯ģà®°à¯įà®Ĩ à®©à¯į
Ġà®ĩà®µà¯įà®µà¯ģà®² à®ķà®¤à¯įà®¤
Ġà®¨ à¯Ĥà®²
Ġà®¨ à®¯à®µà®ŀà¯įà®ļ
à®ª à®Łà¯ģà®®à¯į
à®¿à®ķà¯įà®ķ à¯ģà®°à®¿à®¯
Ġà®ħà®µà®°à¯įà®ķà®³ à¯Īà®¯à¯ĩ
à¯ĭ à®ķà¯įà®ķà¯ģ
à¯ģà®ª à®µà®©à®¾à®ķà®µà¯ģà®®à¯į
à¯Īà®ķà¯įà®ķ à¯ģà®ķà¯į
Ġà®®à¯ģà®Ł à®¿à®ļà¯įà®ļ
à¯ģà®ļ à¯Ĩà®¯à¯įà®¯
Ġà®ħà®¤à¯įà®¤ à¯ģà®Łà®©à¯į
Ġà®¸ à¯Ĥà®°à¯į
Ġà®µà®¿à®° à®¿à®ªà¯įà®ªà®¾à®ķ
Ġà®Ĩà®¤ à®²à®¿à®©à¯į
Ġà®µà¯Ĩà®³à®¿à®¯à¯ĩ à®±à¯įà®±à®¿à®¯
Ġà®¨à®¿à®°à®¾à®ķà®°à®¿à®ªà¯įà®ª à®¿à®©à¯į
Ġà®ªà®ķà¯Ī à®µà®©à¯į
Ġà®ĩà®ªà¯įà®ª à¯ĭà®¤à¯ģ
Ġà®ħà®µà®°à¯įà®ķà®³à¯ģà®ķà¯įà®ķ à®¿à®Łà¯Īà®¯à®¿à®²à¯į
ig n
Ġà®¨à®¿à®°à®¾à®ķà®°à®¿à®ķà¯įà®ķà®¿à®± à®¾à®°à¯įà®ķà®³à¯į
Ġà®ªà¯Ĭà®°à¯ģà®¤à¯įà®¤ à®®à®¾à®©
, "
Ġà®ķ à®ªà¯įà®°
à®® à®³à®¿à®ªà¯įà®ª
à®ªà¯įà®ª à®¾à®©
à®¨à¯įà®¤ à®¿à®°à¯ģà®¨à¯įà®¤à®¿
à®ªà¯įà®ªà®Ł à¯ģà®ªà®µà®©à¯į
à®®à¯Ĥ à®´à¯įà®ķ
Ġà®īà®®à¯įà®® à¯Īà®¯à¯ģà®®à¯į
Ġà®®à®ķ à¯įà®ķà®³à®¾à®ķ
à®İà®© à®µà¯ģà®®à¯į
Ġà®ħà®¤à¯įà®¤à®¾à®Łà¯įà®ļ à®¿à®¯à®¾à®ķ
Ġà®ľ à®¿à®ªà¯įà®°à®¯
(à®ħ à®µà¯įà®µà®¾à®±à¯ĩ
Ġà®¤à®¿à®°à¯ģà®®à¯įà®ª à®¿à®ªà¯į
Ġà®®à®² à¯Īà®ķà®³à¯Īà®ªà¯į
Ġà®ļà®®à¯Ĥà®ķà®¤à¯įà®¤à®¾à®° à¯ģà®ķà¯įà®ķà¯ģà®®à¯į
Ġà®īà®¯à®¿à®° à¯įà®ķà®³à¯Ī
Ġà®İà®Ļà¯įà®ķà®³ à¯ģà®Łà®©à¯į
à®ħà®µà®° à¯Īà®ªà¯į
Ġà®ļà¯ģà®µ à¯Īà®¯à¯ģà®Ļà¯įà®ķà®³à¯į
st em
Ġà®¤à¯Ģà®® à¯Īà®¯à¯Īà®ļà¯į
à®®à®©à®¿à®¤ à®°à¯įà®ķà®³à¯ģà®ķà¯įà®ķà¯ģ
Ġà®ħà®Łà¯Īà®µ à®¤à®±à¯įà®ķà¯ģ
ul es
Ġà®ĩà®µà¯įà®µà¯ĩà®¤ à®¤à¯įà®¤à®¿à®²à¯į
Ġà®¤à®¾à®µ à¯Ĥà®¤à¯ģ
Ġà®ĩà®¸à¯įà®¹ à®¾à®ķà¯į
( à®ķà¯įà®ķ
( à®³à¯į
Ġ ver
Ġà®¨ à®¿à®¤à¯įà®¤à®¿à®°
à®¿à®° à®¤à¯įà®¤à®¿à®²à¯į
à®¿à®± à®¾à®©à¯ĭ
à®¨ à®©à¯įà®±
à®ĩ à®ªà¯į
Ġà®īà®Ļà¯įà®ķà®³ à®¿à®²à®¿à®°à¯ģà®¨à¯įà®¤à¯ĩ
à®¾à®µ à¯Īà®¯à¯ģà®®à¯į
Ġà®ħà®¤ à®¿à®²à¯ĩà®¯à¯ĩ
à®°à¯įà®ķà®³ à®¿à®²à¯Ĩà®²à¯įà®²à®¾à®®à¯į
Ġà®ħà®© à®¨à¯įà®¤à®°
es kt
à®©à¯įà®ª à®¿à®©à¯į
Ġà®¨à®¿à®°à®¾à®ķà®° à®¿à®ªà¯įà®ªà¯ģ
Ġà®®à®¾à®±à¯įà®± à¯ģà®®à¯į
Ġà®µà¯Īà®¤à¯įà®¤ à®²à¯į
Ġs c
Ġà®īà®Ł à®²à¯į
Ġà®µà¯Īà®ªà¯įà®ª à®¤à¯Ī
Ġà®ĥà®ªà®¿à®°à¯įà®ħà®µà¯įà®© à®¿à®Łà®®à¯į
Ġà®ļà®ª à®¿à®¤à¯įà®¤à¯ģ
Ġà®¨à®©à¯įà®®à¯Īà®¯ à¯Īà®¯à¯ģà®®à¯į
Ġà®¤à®°à¯įà®ķà¯įà®ķ à®¿à®¤à¯įà®¤à¯ģ
à®®à®ķ à¯įà®ķà®³à¯ģà®ķà¯įà®ķà¯ģ
Ġà®ļà¯Ĥà®©à®¿à®¯ à®®à¯ĩ
Ġà®ļà¯Ĥà®©à®¿à®¯ à®¤à¯įà®¤à¯Īà®ķà¯į
Ġà®¨à®¾à®Łà¯įà®Ł à®¿à®²à¯į
Ġà®¨à¯Ĩà®ŀà¯įà®ļ à®Ļà¯įà®ķà®³à¯į
Ġà®¨à®² à®®à®¾à®ķ
Ġà®®à®±à¯Īà®¨à¯įà®¤ à®¿à®°à¯ģà®ªà¯įà®ª
Ġà®®à®¹ à®°à¯Ī
Ġà®ħà®¤à®¿à®ķà®®à®¤ à®¿à®ķà®®à¯į
eskt op
" à®¨à¯Ģà®°à¯į
( à®¸
H A
Ġà®µ à®¿à®±à¯įà®±à¯ģ
Ġà®ĩ à®ªà¯įà®²à¯Ģà®¸
à¯ģà®ķà¯įà®ķ à¯ģà®®à®¿à®Łà¯Īà®¯à¯ĩ
à®ĩ à®ªà¯įà®°à®¾à®¹à¯Ģ
à®µà®°à¯įà®ķà®³ à®²à¯įà®²à®°à¯į
Ġà®ķà¯Ĥà®± à®¿à®¤à¯į
Ġà®µà®° à¯ģà®®
à®°à¯įà®ķà®³ à®¾à®ķà®µà¯ĩ
Ġà®ĩà®°à¯ģà®ªà¯įà®ª à®¤à¯Īà®ķà¯į
Ġà®ļà¯Ĩà®² à®µà¯ģà®®à¯į
Ġà®¨à®²à¯įà®² à®±à®¿à®µà¯ģ
à®¿à®µà®¿à®Ł à¯ģà®Ļà¯įà®ķà®³à¯į
Ġà®ķà®° à¯įà®µ
Ġà®¤à®° à®®à¯į
Ġà®ªà®Łà¯įà®Ł à®£
Ġà®ŀà®¾à®© à®®à¯ģà®³à¯įà®³
Ġà®µà®¿à®² à¯Ī
Ġà®ķà¯ģà®±à®¿à®ªà¯įà®ª à®Łà¯įà®Ł
Ġà®ķà¯ĩà®Łà¯įà®ķ à®®à®¾à®Łà¯įà®Łà®¾à®°à¯įà®ķà®³à¯į
Ġà®Ĵà®°à¯ģà®µà®° à®¾à®ķà®¿
Ġà®ªà¯ĩà®° à®±à®¿à®µ
Ġà®¤à®¿à®Ł à¯ģà®ķà¯įà®ķ
Ġà®¤à¯Ģà®® à¯Īà®ķà®³à¯į
à®ĩà®µà¯įà®µ à¯ĩà®¤à®®à¯į
Ġà®Ĩà®¤à¯įà®® à®¾
Ġà®ħà®±à®¿à®¯à®¾à®¤ à®µà®°à¯įà®ķà®³à®¾à®ķ
Ġà®īà®¤à®¾à®°à®£ à®®à®¾à®ķ
Ġà®µà®¾à®°à®¿à®ļ à¯ģà®ķà®³
à®¿à®· à®®
Ġà®ıà®± à®¿à®ļà¯į
Ġà®ķà¯ģà®µ à®¿à®¯
Ġà®µà®¿à®Łà®¿à®¯ à®±à¯įà®ķ
m a
à®ħà®²à¯įà®²à®¾à®¹à¯įà®µ à¯Īà®¤à¯į
à®¿à®ķà¯įà®ķà®ªà¯įà®ªà®Łà¯įà®Ł à®µà®°à®¾à®ķà®µà¯ģà®®à¯į
Ġà®ļà®¿à®± à¯ģà®®à¯Ī
Ġà®Ĩà®¤ à®¿à®ķà¯įà®ķ
Ġà®Ł à®¿à®°
Ġà®ħà®°à¯ģà®³ à¯Īà®¤à¯į
Ġà®Ĭ à®¤à®¿à®¯
Ġà®ªà¯ĩà®° à®¿à®Łà®¿
Ġà®¯à®¾à®° à¯ģà®®à®¿à®²à¯įà®²à¯Ī
à®¨à®°à®ķ à®®à¯į
Ġà®ħà®¤à®© à¯ģà®Łà¯Īà®¯
Ġà®µà®¾à®ķà¯įà®ķà®³à®¿à®¤à¯įà®¤ à¯ģà®³à¯įà®³à®¾à®©à¯į
à®®à®¿à®©à¯įà®© à®ŀà¯įà®ļà®²à¯į
Ġà®ķà®¿à®£ à¯įà®£
Ġà®ªà¯ģà®±à¯įà®ªà¯Ĥ à®£à¯įà®Ł
Ġà®¨ à®©à¯įà®©
à®¾à®° à®¿à®©à¯į
à¯įà®® à®¾à®°
à¯Ģà®° à®¾à®©à®¾à®²à¯į
Ġà®¨à®¿à®± à®Ļà¯įà®ķà®³à¯į
Ġà®ħà®¤à¯įà®¤à®¾à®Łà¯įà®ļ à®¿à®¯
Ġà®ħà®¨à¯įà®¤ à®ªà¯į
Ġà®ļà¯Ĩà®²à¯įà®² à®µà¯ģà®®à¯į
Ġà®ħà®°à¯ģà®³ à¯Īà®¯à¯ģà®®à¯į
Ġà®µà®¾à®ķà¯įà®ķà¯ģà®± à¯ģà®¤à®¿à®¯à®¿à®²à¯į
Ġà®¤à¯Ĥà®¤à®°à¯įà®ķà®³ à¯ģà®®à¯į
Ġà®īà®Ļà¯įà®ķà®³à¯ģà®ķà¯įà®ķ à®¿à®Łà¯Īà®¯à¯ĩ
Ġà®ķà®ªà¯įà®ª à®²à¯į
Ġà®µà®¿à®ļà®¾à®² à®®à®¾à®ķà¯įà®ķ
Ġà®ªà®²à®¹à¯Ģà®© à®°à¯įà®ķà®³à®¾à®ķ
Ġà®ļà¯Ĩà®¯à¯įà®µà®¤ à¯Īà®¯à¯Ĩà®²à¯įà®²à®¾à®®à¯į
Ġà®µà®¾à®¤ à®¾à®Ł
Ġà®ªà®°à®¿à®ª à®¾à®²
Ġà®ķà®³à®¿à®®à®£à¯įà®£ à®¿à®²à®¿à®°à¯ģà®¨à¯įà®¤à¯ģ
Ġà®¤à®Łà¯įà®Łà®´ à®¿à®¨à¯įà®¤à¯ģ
Ġà®ļà®®à¯Ĥ à®ķà®¤à¯įà®¤à¯Ī
Ġà®ļà¯Ĩà®¯à¯įà®ª à®µà®°à¯įà®ķà®³à®¾à®ķà®µà¯ģà®®à¯į
Ġà®ļà®®à¯Ĥà®ķà®¤à¯įà®¤à®¾à®° à®¿à®²à¯į
Ġà®İà®¤à®¿à®° à¯įà®¤à¯įà®¤
Ġà®µà®´à®¿à®¯ à®¾à®ķà®µà¯ģà®®à¯į
Ġà®®à®ķà®¤à¯įà®¤ à®¾à®©à¯į
Ġà®ªà®°à®¿à®ķà®ļ à®¿à®¤à¯įà®¤à¯ģà®ķà¯į
Ġà®¨à¯ģà®´à¯Īà®µ à®¾à®°à¯įà®ķà®³à¯į
Ġà®ķà¯Ģà®´à¯įà®ªà®Ł à®¿à®¨à¯įà®¤à¯ģ
Ġà®ķ à®±à¯įà®±à¯ģ
à¯ģà®µ à®¾à®¯à¯į
Ġà®¤à®© à®¿à®ªà¯įà®ªà®Łà¯įà®Ł
à®¿à®¯à®¾ Name
à®ħà®ªà¯įà®ªà®Łà®¿à®¯ à®¾à®©à®¾à®²à¯į
à®ħà®ķà®¿à®² à®¤à¯įà®¤à®¾à®°
Ġà®ļà®¿à®² à®¤à¯Ī
Ġà®ĩà®°à¯ģà®¤à®¯ à®Ļà¯įà®ķà®³à®¿à®©à¯į
à®¿à®ª à¯Ĩà®±
à®ĩà®± à®ķà¯įà®ķ
Ġà®µà®°à®² à®¾à®±à¯ģ
Ġà®ĵà®¤à®¿à®ķà¯įà®ķ à®¾à®Łà¯įà®Ł
à®¿à®ķà®³ à®¾à®²à¯į
Ġà®®à¯ĩà®² à®¾à®£
Ġà®®à¯ģà®¸à¯įà®²à®¿à®® à¯įà®ķà®³
Ġà®ļà®®à¯Ģà®ª à®®à®¾à®ķ
à®ķà®°à®¿à®¯à¯įà®¯ à®¾
Ġà®İà®©à¯įà®© à®¿à®Łà®®à¯ĩ
Ġà®īà®²à®ķà®¤à¯įà®¤ à®¿à®²à¯ģà®³à¯įà®³
à®µ à®¾à®©à¯į
Ġà®ķà¯ĩà®Ł à®¾à®©
Ġà®ªà®³ à¯ģà®µà®¾à®©
Ġà®ħà®ļà¯įà®ļà¯ģà®ªà¯įà®ªà¯Ĭ à®±
Ġed u
à®ķ à®¾à®ļ
à®ļ à¯ģà®µà®©
an n
Ġà®µà®Łà®¿à®µ à®®
à®ĩà®µà¯įà®µ à®¿à®¤
AR S
I ME
à®° à¯įà®Łà¯į
à®ª à¯ĩà®ļà®¿
Ġà®ļ à¯Ī
Ġà®ªà®² à®µà®¾à®±
Ġà®ħà®°à¯ģà®³ à®¾à®²à¯į
à¯Īà®¯à¯ģà®Łà¯Īà®¯ à®µà®©à¯į
Ġà®ķà®¿à®°à¯ģà®ª à¯Īà®¯à¯ģà®®à¯į
à®īà®Ļà¯įà®ķà®³ à¯Īà®ªà¯į
Ġà®ªà¯Ĭ à®±
Ġà®ıà®´ à¯Īà®ķà®³à¯ģà®ķà¯įà®ķà¯ģ
Ġà®¨à¯Ĥà®¹ à¯Ī
Ġà®ķà®´à¯ģà®¤ à¯Ī
Ġà®ªà®© à¯Ĥ
Ġà®®à®¹à¯įà®ĥà®ª à¯Ĥ
) à®µà®°à¯į
à®Ł à®¿à®¯à¯ģà®®à¯į
Ġà®® à®£à¯įà®Ł
à®¿à®© à¯įà®®à¯Ģà®¤à¯ģ
à¯ģà®ķà¯įà®ķ à¯Ĩà®¤à®¿à®°à®¾à®ķ
Ġà®ħà®¤ à®¿à®²à®¿à®°à¯ģà®¨à¯įà®¤à¯ĩ
à¯Ĩà®° à¯ģà®ªà¯įà®ª
Ġà®ªà®¾à®¤ à®¿
al onia
Ġà®ªà¯Ĥà®®à®¿à®¯ à¯Īà®ªà¯į
Ġà®ªà¯Ĩà®£ à¯įà®®à®ķ
ar ques
Ġà®Ł à®¿à®ªà®¿à®Ĳ
Ġà®¨à®¾à®Łà®¿à®¯ à®µà®°
Ġà®īà®©à¯įà®© à®¿à®Łà®®à®¿à®°à¯ģà®¨à¯įà®¤à¯ģ
Ġà®µà®ķ à¯Īà®¯à®¿à®²à¯į
Ġà®ķà®µà®© à®¿à®¤à¯įà®¤à¯ģ
à®ªà®¤ à¯įà®°à¯ģ
Ġà®¤à®µà®± à®ļà¯į
Ġà®°à®¹à¯įà®® à®¾à®©
Ġà®¨à®©à¯įà®ķà®±à®¿à®¨à¯įà®¤ à®µà®©à®¾à®ķà®µà¯ģà®®à¯į
à®ħà®´ à®¿à®¨à¯įà®¤à¯ģ
à¯įà®· à¯įà®Ł
Ġà®µà®¿à®© à¯įà®ļà¯Ĩà®©à¯įà®Łà¯į
Ġcom arques
Ġà®¤à®°à¯įà®® à®Ļà¯įà®ķà®³à¯į
Ġà®ķà®¾à®¯ à¯įà®¨à¯įà®¤à¯ģ
à®¨à®©à¯įà®®à¯Īà®¯ à®¿à®©à¯į
Ġà®¤à¯Ģà®°à¯įà®ªà¯įà®ªà®³à®¿à®ķà¯įà®ķ à®ªà¯įà®ªà®Łà¯ģà®®à¯į
tr l
cat alonia
( à®Ĩà®ķà®µà¯ĩ
Ġà®¤ à®¿à®©à¯įà®ª
Ġà®ħà®²à¯įà®²à®¾à®¹à¯įà®µ à®¿à®©à®¾à®²à¯į
Ġà®µà®° à®ªà¯įà®ªà®Łà¯ģà®µà®¾à®°à¯įà®ķà®³à¯į
à®¿à®ķà®³ à®¾à®ķà®µà¯ģà®®à¯į
Ġà®ħà®® à¯Īà®µà¯ģ
Ġà®ªà®² à®ķà¯ĭà®£
(à®ħ à®©à¯įà®±à®¿à®¯à¯ģà®®à¯į
Ġà®ħà®°à¯ģà®³ à¯įà®µà®¾à®¯à®¾à®ķ
Ġà®² à®¿à®°à¯ģà®¨à¯įà®¤à¯ģ
à¯įà®ľ à¯į
Ġà®®à¯Ĥà®¸à®¾à®µ à®¿à®Łà®®à¯į
Ġà®·à¯Īà®¤à¯įà®¤à®¾à®© à¯ģà®Łà¯Īà®¯
Ġà®ªà¯ģà®ķà®´ à¯įà®¨à¯įà®¤à¯ģ
Ġà®ļà®¨à¯įà®¤à®¤à®¿à®¯ à®¿à®©à®°
Ġà®®à¯Ĥà®´à¯įà®ķà®Ł à®¿à®¤à¯įà®¤à¯ģ
à®®à®°à¯įà®¯ à®®à¯ģà®Łà¯Īà®¯
Ġà®¨à®·à¯įà®Łà®µà®¾à®³ à®¿à®ķà®³à¯į
Ġà®µà®¿à®ķ à®¿à®¤à®®à¯į
) à®µà®°à¯ģà®ķà¯įà®ķà¯ģ
R UN
à®ª à¯ģà®¤
à®¤à¯įà®¤ à¯ģà®²à¯įà®²
à®ªà¯įà®ªà®Łà¯įà®Ł à®¿à®°à¯ģà®ķà¯įà®ķà¯ģà®®à¯į
Ġà®ħà®¤ à®¿
Ġà®ļà¯Ĩà®² à¯įà®ķ
Ġà®ķà®Łà¯įà®Ł à®®à¯Īà®ªà¯įà®ªà¯ģ
Ġà®İà®µà®° à¯ģà®®
(à®ħ à®¨à¯įà®¤
Ġà®ķà¯Ĩ à®£à¯įà®Ł
Ġà®ļà¯Ĩà®µ à®¿à®Łà¯įà®Ł
Ġà®ªà¯ģà®±à®ķà¯įà®ķà®£ à®¿à®¤à¯įà®¤à¯ģà®ªà¯į
Ġà®¤à®£à¯įà®Ł à®¿à®ªà¯įà®ª
à®µà¯Ģ à®£à¯į
Ġà®µà®´à®¿à®ªà®Ł à®¾à®¤à¯Ģà®°à¯į
Ġà®ªà®¾à®² à¯Ī
Ġà®¨à®¿à®® à®¿à®°
Ġà®¤à®µà®£à¯Ī à®µà®°à¯Ī
Ġà®®à¯ģà®±à¯įà®ªà®Łà¯įà®Ł à®¾à®²à¯į
Ġà®ªà¯ģà®°à®¿à®µ à®¾à®¯à®¾à®ķ
Ġà®ªà¯Ĩà®Łà¯įà®Ł à®¿à®¯à¯Ī
Ġà®°à®¾à®ľ à®¾à®µà¯Ī
Ġà®ķà®¾à®³ à¯Īà®ķà¯į
à®ķà®£à®¿à®© à®¿
Ġà®ĩà®²à¯įà®²à®¾à®®à®² à®¿à®²à¯įà®²à¯Ī
Ġà®ħà®°à®¿à®¯à®¾à®ļ à®©
Ġà®¨à®¿à®ĥ à®®
" à®ªà¯Ĥà®®à®¿à®¯à®¿à®²à¯į
Ġà®® à®¾à®Ł
Ġà®ļ à®£à¯įà®Łà¯Ī
à¯ģà®ķà¯įà®ķ à¯Ĩà®©
à¯ģà®ª à®µà®©à¯ģà®®à¯į
Ġà®ħà®±à®¿à®µ à®¿à®²à¯įà®²à®¾à®®à®²à¯į
Ġà®®à¯ģà®ĥà®®à®¿à®© à¯įà®ķà®³à®¿à®©à¯į
Ġà®īà®±à¯ģà®¤à®¿à®¯ à®¾à®ķà®ķà¯į
Ġà®¤à¯Ĥà®¤à®° à®¿à®Łà®®à¯ģà®®à¯į
à®°à¯įà®ķà®³à®¾à®ķ à®¿à®¯
Ġà®µà®¾à®´à¯įà®ķà¯įà®ķ à¯Īà®¯à¯Ī
à®¤à®° à®µ
Ġà®®à¯Ĥà®¤à®¾à®¤à¯Īà®¯ à®°à¯įà®ķà®³à¯į
Ġà®¨à¯Ģà®° à¯Īà®ªà¯į
Ġà®İà®¤à¯įà®¤à®ķà¯Īà®¯ à®µà®©à¯į
à®ļà®¾à®² à®¿à®ķà®³à®¾à®©
Ġà®ªà®¿à®°à®ļ à®µ
à®Ĳà®°à¯ĭà®ªà¯įà®ª à®¾
Ġà®ĩà®¸à¯įà®° à®µà¯ĩà®²
d ay
à¯ģà®ķà¯įà®ķà®¾à®ķ à®ļà¯į
à®ľ à¯Ģà®¸
Ġà®µà®£à®Ļà¯įà®ķ à¯ģà®ķà®¿à®±
Ġà®Ł à®¿
Ġà®®à®©à®¿à®¤à®° à¯ĩà®¯à®©à¯įà®±à®¿
Ġà®¤à®µà®±à®¿à®¯ à®µà®°à¯įà®ķà®³à¯į
( "
Ġà®ĩà®°à¯ģà®ªà¯įà®ª à®¤à¯ĩ
Ġà®ķà®Łà¯įà®Ł à¯ģà®ķà¯į
à®ħà®Ł à®¿à®®
Ġà®µà®Łà®¿à®µ à®®à¯Īà®ªà¯įà®ª
à®¤à®© à®¾à®²
Ġà®İà®µà®© à¯ģà®Łà¯Īà®¯
à®¨à¯ĩà®°à¯įà®µà®´ à®¿
à®ļà®¿à®¨à¯įà®¤ à®¿à®¤à¯įà®¤à¯ģà®ªà¯į
d om
Ġà®ĩ à®¤à®±à¯įà®ķà®¾à®ķ
à®¤à¯įà®¤à®¿à®±à¯įà®ķ à¯ģà®¤à¯į
P oss
Ġà®®à®ķ à®³
Ġà®ªà®Łà¯Īà®¤à¯įà®¤ à¯ģà®ªà¯į
Ġà®µà®¿à®µà®° à®Ļà¯įà®ķà®³à¯į
ess ive
Poss essive
à®µà¯ĩà®¤ à®®à¯ģà®Łà¯Īà®¯
Ġà®Ĩà®£ à¯įà®®à®ķ
Ġà®¨à®¾à®¯à®© à¯įà®¤à®¾à®©à¯į
Ġn nn
Ġà®İ à®µà®©à¯ģà®®à¯į
à¯Ĥà®¤ à¯ģà®ķà¯įà®ķà¯ģ
ĠC OM
Ġà®ļà®¾à®° à®¾à®°à¯į
Ġtranslat or
Ġle arn
à®¤à¯įà®¤ à®²à¯į
bab we
Ġà®ªà¯Ĭ à®¯à¯į
im babwe
as k
ĠQ ueb
(à®¨à®¿à®© à¯Īà®µà¯ģ
ĠQueb ec
( à®³
Ġà®ĩ à®¹à¯įà®°à®¾à®®à¯į
à®¸ à®©à¯į
Ġà®¯ à®¹
Ġà®ķà®Ł à¯ģà®ķ
Ġà®ħà®³ à®µà®±à¯įà®±
Ġà®İà®Łà¯ģà®¤à¯įà®¤ à¯ģà®ķà¯įà®ķ
Ġà®¤à®Ł à®®à®±
à®¿à®°à¯ģà®µà®° à®¿à®©à¯į
à®®à®° à®¿à®¤à¯įà®¤à¯ģ
ĠL anguage
Ġà®ļà¯ģà®¤à¯įà®¤ à®®à¯į
Ġse arch
à®ķà¯Ĥà®Ł à¯ģà®¤à®²à¯į
Ġà®ļà®¿à®¤à®± à®Ł
Ġà®¤à®Łà®®à®± à®¿
à®ķ à¯ģà®¤
Ġà®ļà¯Ĩà®¯à¯įà®¯ à®µà¯ĩà®£à¯įà®Łà¯ģà®®à¯į
à®Łà®¿à®¯ à®¾à®ķà®ªà¯į
Ġà®¸ à¯įà®ķ
à®ĩà®± à¯ģà®¤à®¿à®¯à®¾à®ķ
Ġà®ħà®°à¯ģà®³ à®ªà¯į
Ġà®¤à®Ļà¯įà®ķà®³ à¯Īà®ªà¯į
Ġà®ķà¯Ĭà®£à¯įà®Ł à¯ģà®³à¯įà®³à®¤à¯ģ
Ġà®¨à®²à¯įà®²à®Łà®¿à®¯ à®¾à®°à¯į
à®®à¯ģà®¨à¯įà®¤ à®¿à®¯
Ġà®µà®¸à®¿à®¯à¯įà®¯ à®¤à¯įà®¤à¯ģ
! '
l es
à®İ à®Ł
Ġà®ªà®¯ à®®à¯ģà®®à®¿à®²à¯įà®²à¯Ī
Ġà®¨à¯ĩà®° à®¿à®Łà¯įà®Łà®¾à®²à¯į
Ġà®µà®¿à® ¨
à®Ĵ à®©à¯įà®±à¯ģ
Ġà®¤à®µà®¿à®° à¯į
Ġà®ľ à®ķà¯įà®ķ
Ġà®ķà¯ĩà®Łà¯įà®Ł à®¿à®²à¯ĩà®¯à¯ĩ
Ġà®īà®¯à®¿à®°à¯įà®ªà¯įà®ª à®¿à®ªà¯įà®ªà®¾à®©à¯į
à®ļà®¿à®± à®¨à¯įà®¤
à®İà®µà®° à®¿à®Łà®¤à¯įà®¤
à®ªà¯ĭ à®Łà¯įà®Łà¯ĭ
Ġà®µà®¯à®¿à®± à¯ģà®ķà®³à®¿à®²à¯į
à¯įà®ķ à¯įà®ķà®³
à¯įà®ķà®³ à¯ģà®Łà®©à¯į
à®ªà¯įà®ª à®¤à®¾à®ķ
à®ķà¯įà®ķ à¯Ĩà®Łà¯ģ
Ġà®µà®¿à®° à®¿à®ªà¯įà®ª
Ġà®µà®£à®Ļà¯įà®ķ à¯ģà®®à¯į
Ġà®¤à®¿à®°à¯ģà®¤à¯įà®¤ à®¿
à®µà®¿à®ļ à®¾à®°à®£
à®ļà®¿à®±à®¿à®¤ à¯ģ
) à®µà®°à¯įà®ķà®³à¯Ī
à®µ à®¿à®£
Ġà®ħ à®ªà¯įà®ªà®Łà®¿à®ļà¯į
Ġà®ª à®¾à®³
à®ħ à®®à¯Ī
Ġà®ªà®Ł à¯Īà®ķà®³à¯ģà®®à¯į
Ġà®ħà®ļà¯įà®ļ à®®à®±à¯įà®±
Ġà®ħà®°à¯ģà®³ à®¿à®©à®¾à®²à¯į
Ġà®ªà¯ģà®° à®¿à®ª
Ġà®ªà®¾à®°à¯įà®ªà¯įà®ª à®µà®©à¯į
Ġà®¨à®±à¯įà®ķà¯Ĥà®² à®¿à®¯à¯Īà®ķà¯į
Ġà®ķà®²à¯įà®µ à®¿à®¯
à®¤à®¿à®Łà¯įà®Ł à®®à®¾à®ķ
Ġus ed
à®¾à®· à¯į
Ġà®ªà®¿à®¨à¯įà®¤ à®¿à®¯
( à®İà®©à®¿à®©à¯ģà®®à¯į
l ut
r int
à¯ģà® Ĵ
à®° à¯ģà®³à¯į
à®¤à®±à¯įà®ķ à¯ģà®ªà¯į
me d
Ġà®µà®¨à¯įà®¤ à¯ģà®µà®¿à®Łà¯įà®Łà®¾à®²à¯į
Ġà®®à®ķ à®¾
Ġà®ªà®¾à®µ à®Ļà¯įà®ķà®³à¯į
Ġà®ħà®±à®¿à®¨à¯įà®¤ à®µà®©à®¾à®ķà®µà¯ĩ
Ġà®µà¯Ĩà®³à®¿à®¯ à®¿à®Ł
Ġà®ªà®Łà¯Īà®ªà¯įà®ª à®¾à®ķ
à®¤à¯Ĭà®Ł à®°
Ġà®ļà¯Ĩà®µà®¿à®¯à¯ĩà®±à¯įà®ª à®µà®©à®¾à®ķà®µà¯ģà®®à¯į
Ġà®ĩà®Łà¯Ī à®®à¯ģà®ķ
ik e
à®ķà¯įà®ķ à¯ģà®µ
à®¿à®ªà¯įà®ª à®¤à®±à¯įà®ķà®¾à®ķà®µà¯ģà®®à¯į
Ġà®ħà®²à¯įà®²à®¾à®¹à¯įà®µ à¯ģà®ķà¯įà®ķà¯ģà®ªà¯į
Ġà®®à®£ à®¿à®ķà¯įà®ķà¯ģ
Ġà®ĵà®¯ à¯įà®µà¯ģ
Ġà®ªà®¯à®©à¯įà®ªà®Łà¯ģà®¤à¯įà®¤ à®ªà¯įà®ªà®Łà¯įà®Łà®¤à¯ģ
Ġà®¨à¯Ĩà®°à¯ģà®ªà¯įà®ª à¯Īà®ķà¯į
Ġà®Ĵà®°à¯ģà®µà®° à®¾à®ķà®µà¯ģà®®à¯į
Ġà®ªà®¯à®ªà®ķà¯įà®¤à®¿à®¯à¯ģà®Łà¯Īà®¯ à®µà®°à¯įà®ķà®³à¯į
Ġà®ħà®ª à®¿à®ªà¯įà®ªà®¿à®°à®¾à®¯
Ġà®Ĭ à®°à¯įà®ķà®³
Ġà®¨à®£à¯įà®ª à®°à¯įà®ķà®³à®¾à®ķ
Ġà®ķà®Łà¯įà®Łà®³à¯Īà®¯ à®¿à®Łà®ªà¯įà®ªà®Łà¯įà®Ł
tur es
" .čĊ
à®¾à®£ à®¿à®¯à¯Ī
Ġproper ly
m m
à®¨ à®Łà¯Ī
à®ķà¯ģà®´ à®¨à¯įà®¤
à®¿à®¯à¯įà®¯ à¯Ĥà®©à¯į
Ġà®ªà®¤à®¿à®µ à¯ĩ
à¯ĭ à®³à¯į
Ġà®ħà®ļà¯įà®ļ à®¿à®²à¯į
Ġb ug
Ġà®¤à¯Ĥà®¯ à¯įà®®à¯Ī
ra ine
Ġà®ķà¯ĩà®³à¯įà®µ à®¿à®ķà®³à¯į
Ġà®ħà®±à®¿à®µà®¿à®ªà¯įà®ª à¯Ģà®°à®¾à®ķ
Ġà®µà®¿à®£à¯įà®Ł à¯ĭà®¸à¯į
à¯ģà®ķ à¯įà®ķà®³à¯Īà®¯à¯ģà®®à¯į
Ġà®ļà¯Ĩ à®Ļà¯įà®ķà¯ģà®¤à¯įà®¤à¯ģ
à®¾à®² à®¾à®©
à¯ģà®³à¯įà®³ à¯ĩ
Ġa ll
Ġà®ļà®¿à®± à¯ģà®µà®°à¯įà®ķà®³à¯į
Ġà®¨à¯Ĩà®°à¯ģà®ªà¯įà®ª à¯ģà®ķà¯į
Ġw ww
Ġà®®à®©à¯Īà®µ à®¿à®¯à¯Īà®¤à¯į
Ġà®ļà®¨à¯įà®¤à®¤à®¿à®¯ à®¿à®©à®°à¯ģà®ķà¯įà®ķà¯ģ
à¯įà®°à®¾à®¯ à¯Ģà®²à¯į
à®ķ à®¿à®©
à®Ļà¯įà®ķà®³ à¯ģà®ķà¯įà®ķà¯ģà®®à¯į
Ġà®ħà®²à¯įà®²à®¾à®¹à¯įà®µ à®¿à®Łà®®à¯ģà®®à¯į
à®®à¯Ĥ à®Ł
Ġà®ķà®£ à®¿à®ªà¯įà®ª
Ġà®µà®¿à®ļ à¯Īà®ķà®³à¯į
à¯ģà®®à®¾à®© à®¾à®²à¯ģà®®à¯į
Ġà®¤à®µà®± à®¿
Ġà®¤à®¿à®°à¯ģà®ªà¯įà®¤à®¿à®¯ à®Łà¯Īà®¨à¯įà®¤à¯ģ
Ġà®ķà®Łà®² à®¿à®²à¯ģà®®à¯į
oop er
v en
à®© à®®à®¾à®ķ
à®Ł à®®à¯į
Ġà®µ à®¿à®¤à¯įà®¤à®¿à®¯
Ġà®® à®¾à®¤à¯įà®¤
Ġà®¨à®¿à®² à¯Īà®ķà¯įà®ķà¯ģ
Ġà®ħà®µà¯įà®µ à¯ĩà®³à¯Ī
Ġà®ķà¯Ĥà®Ł à¯ģà®¤à®²à¯į
Ġà®ħà®©à¯ģà®®à®¤ à®¿à®ķà¯įà®ķà®¿à®±à®¤à¯ģ
Ġà®¨à®¿à®ķà®´ à¯ģà®®à¯į
à®īà®³à¯įà®³ à®®à¯Ī
Ġà®®à¯Ģà®³ à¯ģà®¤à®²à¯į
Ġà®ªà¯ĩà®°à®¾à®±à¯įà®±à®² à¯ģà®³à¯įà®³
Ġà®¤à®³ à®®à¯į
Ġà®ļà¯Ĩà®°à¯ģà®ķà¯ģà®µà®¾à®¯ à¯įà®ķà¯įà®ķà¯ģ
p g
à®ª à¯įà®³
à®¿à®¯ à®®à®¾à®ķ
Ġà®ķà¯Ĥà®² à®¿à®¯à¯Īà®¯à¯ģà®®à¯į
Ġà®ļà¯ģà®´ à®©à¯įà®±à¯ģ
Ġà®µà¯Īà®¤à¯įà®¤à®¿à®°à¯ģà®ªà¯įà®ª à®¤à¯Īà®¯à¯ģà®®à¯į
Ġà®ĩà®± à®Ļà¯įà®ķà®¿
Ġà®¹ à¯ģà®¤à¯ģ
Ġb rack
à¯įà®°à®¾à®¯à¯Ģà®² à®¿à®©à¯į
Ġbrack ets
à®ª à®Łà¯ģà®¤à¯įà®¤
à®ħ à®¯
Ġà®®à®¾à®¤ à®Ļà¯įà®ķà®³à¯į
à®®à¯Ĩ à®©à¯į
à®ªà¯Ĭ à®¤à¯ģ
Ġà®ĩà®°à¯ģà®ªà¯įà®ª à®¤à¯Īà®¯à¯ģà®®à¯į
Ġà®ĩ à®µà®°à¯ģà®ķà¯įà®ķà¯ģ
Ġà®ĩà®°à¯ģà®¨à¯įà®¤ à®¤à®¿à®²à¯įà®²à¯Ī
Ġà®¯ à®¾
Ġk tur
Ġà®ħà®¤à®¿à®ķ à®ªà®Łà¯įà®ļ
Ġktur tle
O T
à®¿à®¯ à®¿à®²à¯ģà®³à¯įà®³
Ġà®ħà®± à®¿à®®à¯ģà®ķ
Ġà®ļà®® à®®à®¾à®©
à®¿à®± à¯Ī
à®ħ à®±à®¿à®¯
Ġà®ķà¯ģà®± à¯ģà®®à¯įà®ªà®Ł
Ġà®ªà®¿à®° à®¤à®¿
Ġà®¨à®®à¯įà®® à®¿à®Łà®¤à¯įà®¤
Ġto ol
à®ķà®¾à®° à¯įà®ķà¯ĭ
Ġà®İà®° à®¿à®ª
Ġà®¯à¯Ĥ à®Ĩà®°à¯įà®Ĳ
à®ķà®¾à®°à¯įà®ķà¯ĭ à®¸à®©à¯į
à®® à¯ĭ
à®µà®°à¯įà®ķà®³ à¯ģà®ķà¯įà®ķà¯ģà®ķà¯į
à®®à¯Ĥ à®ļà¯įà®ļ
à®¹ à®ľà¯įà®ľ
Ġr ules
Ġà®® à®¾à®ļ
à¯ģà®µ à®´
à®¨à¯Ģ à®ķà¯įà®ķ
t e
t y
à®° à¯įà®ªà¯įà®ªà¯ģ
à¯ģà®ķ à¯Ĭ
à¯ĩà®° à®®à¯į
Ġà®Ł à¯Ĩ
Ġà®ħà®ªà¯įà®ª à®¾
Ġà®ķà®¾à®ªà¯įà®ªà®¾à®±à¯įà®± à®¿à®ķà¯į
Ġà®ħà®³à®µ à®¿à®²à¯į
Ġà®¤à¯ģà®° à¯ģà®µ
19 9
Ġà®¤à¯ģà®ªà¯įà®ª à®¾à®ķà¯įà®ķà®¿
Ad min
Ġà®ªà®¾à®°à®¿à®ļ à®¤à¯įà®¤à®¿à®²à¯ģà®³à¯įà®³
p ut
Ġà®ļ à®£à¯įà®Ł
Ġà®ªà®Łà¯Īà®ªà¯įà®ª à¯Īà®¤à¯į
Ġà®¤à¯ģà®° à®¿à®¤
% %
( à®ĩà®°
Ġà®¤ à®´à¯ģà®µ
Ġà®ĩà®°à®µ à¯Īà®ªà¯į
Ġà®Ĵà®´à¯ģà®Ļà¯įà®ķ à¯ģà®ªà¯įà®ªà®Łà¯ģà®¤à¯įà®¤
à®¿à®´ à®ķà¯įà®ķ
at or
Ġà®µà®¿à®°à¯ģà®®à¯įà®ªà¯ģà®ķà®¿à®± à®¾à®°à¯į
à¯Īà®¯ à®¿
Ġà®ķà¯Ĩà®Ł à¯ģà®¤à®¿
Ġà®ħ à®Łà¯įà®Łà®µà®£
i ew
à®Ļà¯įà®ķ à¯ģà®¤à¯įà®¤
ec e
gre ece
a ch
Ġà®ĩà®° à®µà¯ģà®®à¯į
Ġà®µà®° à¯ģà®ķà®¿à®±à®¾à®°à¯įà®ķà®³à¯į
Ġà®ħà®ªà¯įà®ª à¯ģà®±à®®à¯į
Ġà®®à®¾à®¤ à®¿à®°
à®ħà®ļà¯įà®ļ à¯ģ
w are
à¯įà® ı
à¯Ĩ à®£à¯įà®£
à®¿à®©à¯įà®± à®¤à¯ģ
Ġà®ĩà®°à¯ģà®ªà¯įà®ª à¯ĩà®©à¯į
la y
Ġà®¹à®¾à®° à¯Ĥà®©à¯į
Ġà®¤à¯ĭà®²à¯įà®µà®¿à®¯ à¯ģà®±à¯įà®±à®¤à¯ģ
8 0
Â ¢
Ġà®ħà®³ à®µà¯ĩ
Ġà®µà®£ à®¿à®ķ
Ġà®®à¯ĩà®² à¯įà®®à¯ĩà®ļà¯Ī
Ġà®ķà¯ģà®Ł à®¿à®¯
à®³à¯įà®µ à®Łà¯įà®Ł
Ġà®ķà®¾à®¤à¯įà®¤ à®¿à®°à¯ģà®ķà¯įà®ķ
IN T
à®¤à¯Ĭà®Ł à®°à¯į
(G ROAN
n or
à®ļ à¯ĭ
à®Ĩ à®°à¯į
Ġà®ªà®Ł à¯ģà®®à¯į
à®®à®£à¯įà®Ł à¯į
à®ħà®©à¯Īà®¤à¯įà®¤ à¯ģà®®à¯į
Ġà®ķ à¯ģà®¤à¯įà®¤
Ġà®µà¯Ĩ à®Ł
Ġà®ķà®¾à®£ à®ªà¯įà®ªà®Łà®µà®¿à®²à¯įà®²à¯Ī
à®¤à¯ĩ à®µà¯Ī
Ġà®īà®± à¯ģà®ªà¯įà®ªà¯ģ
Ġà®ķà®£ à®µà®°à¯į
à®ļà¯Ĩà®¯ à®±à¯įà®ª
Ġà®ħà®´à¯Īà®ªà¯įà®ª à¯Ī
ist an
T his
a i
à¯įà®µ à®¾à®©
à®¾à®² à¯ĩ
Ġà®¯ à¯ģ
à®ķà¯Īà®¯ à¯Ĭà®ªà¯įà®ª
ow n
Ġà®İà®¤à®¿à®°à¯įà®ªà®¾à®° à¯įà®ªà¯įà®ª
Ġà®ļà®¿à®ķ à®¿à®ļà¯įà®ļà¯Ī
à®¿à®² à¯įà®¨
Ġà®īà®Ł à¯įà®ª
Ġà®µà®¾à®° à¯įà®ªà¯įà®ª
Ġus er
Ġà®µà®¿à®°à¯Īà®µ à®¾à®ķ
Ġà®®à®¿à®©à¯įà®© à¯Ĩà®´à¯ģà®¤à¯įà®¤
9 0
Ġà®īà®±à¯ģà®¤ à®¿à®ªà¯įà®ª
iz e
' ,
Ġ op
à®¨ à®¿à®ļà¯įà®ļà®¯
Ġà®Ĩà®ķ à®¿à®±à®¤à¯ģ
à®¾à®Ļà¯įà®ķ à¯ģ
à®¾à®¸ à¯įà®Ł
Ġà®®à®¾à®³à®¿à®ķ à¯Ī
à®¿à®ªà¯įà®ª à¯ģà®¤à¯įà®¤
à®ĵ à®°
à®µà®´ à¯ģ
rom ania
Ġà®ī à®¤à¯įà®¤à®¿à®°
à¯ģà®µ à®¿à®¯
à¯įà®® à®¾
Ġà®ªà®Ł à®®à¯į
Ġà®µà®¿à® £
Ġà®®à¯ģà®± à¯Īà®¯à¯ģà®®à¯į
Ġà®ĩà®£ à¯Īà®ªà¯įà®ªà¯Ī
Ġà®¹ à®¾à®°à¯įà®Ł
à®ķà¯ĩ à®Łà®¿à®¯à®¿
Ġm otherf
à®¨à®Ł à®¿à®ķà®°à¯į
Ġà®µà®¾à®°à¯įà®¤à¯įà®¤ à¯Īà®ķà®³à¯Ī
Ġwh ich
Ġà®ªà®¾à®Ļà¯įà®ķ à¯ģ
/ à®¨à®¾à®©à¯į
Ġà®ķ à®µ
Ġ" čĊ
à¯ģà®ª à¯ĩ
Ġà®®à¯ģà®Ł à®¿
Ġà®ļà¯Ĩà®©à¯įà®± à®¾à®²à¯į
Ġà®ļà®¨à¯įà®¤à®¿à®° à®©à¯į
Ġà®ļà¯Ĩà®²à¯įà®ķà®¿à®©à¯įà®± à®©
" à®ħà®¤à¯ģ
l u
à®¿à®Ł à¯ĩà®°à¯į
à®ªà¯įà®ª à®¿à®²à¯į
à®Ļà¯įà®ķà®³ à®¾à®²à¯į
Ġà®ĩà®° à¯ģà®®à¯ģà®±à¯Ī
ĠF ucking
Ġà®ļà¯ĩà®°à¯įà®¤à¯įà®¤ à¯ģà®ķà¯į
Ġà®ħà®®à®°à¯įà®µ à¯Ī
Ġà®ļà®¾à®®à¯įà®ª à®²à¯į
Ġà®ĩ à®ªà¯į
Ġà®īà®³à¯įà®³ à®®à¯Ī
à®īà®° à¯Īà®¯à¯Ī
Ġà®ķà®Łà®µà¯ģà®ļà¯įà®ļà¯Ĭ à®²à¯įà®²à¯Ī
Ġà®ħ à®²à¯į
à®¾à®° à¯įà®¨à¯įà®¤
Ġà®ķà¯ģà®± à®¿à®ķà¯įà®ķà¯ģà®®à¯į
à¯ģà®¨ à¯Ģ
Ġà®¤à®¿à®Łà¯įà®Ł à®ªà¯įà®ª
à®¤à®¾à®© à®¾à®ķ
à®ªà®¾à®Ł à®²à¯į
( à®®
à¯ģà®µ à¯Īà®¯à®¿à®²à¯į
Ġà®ļà¯Ĩà®² à¯įà®ķà®¿à®±à®¤à¯ģ
Ġ qu
à®ķ à¯ģà®®à¯į
Ġà®®à®± à¯ģà®®
Ġà®ļà¯Ĩà®² à®µà®´
Ġà®İà®©à¯įà®ª à®¤à®±à¯įà®ķà¯ģ
Ġà®¨à®¾à®© à¯įà®ķ
MAN D
ĠCOM MAND
z am
z imbabwe
à®¯ à®°
à®Łà¯įà®ļ à®¿
Ġà®ªà¯Ĩà®¯à®° à®¿à®Ł
Ġà®ªà®¿à®°à®ļà¯įà®ļ à®©à¯Ī
int eger
à®ļà¯Ĩà®²à¯įà®²à¯ģà®ª à®Łà®¿à®¯à®¾à®ķà®¾à®¤
à®ķ à¯ģà®£
à¯įà®¤à¯įà®¤ à¯ģà®ķà¯įà®ķà®³à¯į
Ġà®ļà®¿à®± à¯Ī
Ġà®ĩà®¯à®² à¯įà®ªà®¾à®©
Ġà®ķà®µà®© à®®à¯į
Ġà®ªà®´ à®¿à®µà®¾à®Ļà¯įà®ķ
Ġà®¨à¯Ĥ à®±à¯ģ
Ġà®İà®³ à®¿à®¯
qu est
t ed
Ġà®® à¯Ĩà®©à¯į
à®¿à®ķ à®¾à®°
Ġà®ħà®± à¯ģà®µà®Łà¯Ī
Ġà®µà®¨à¯įà®¤ à®¿à®°à¯ģà®ķà¯įà®ķà®¿à®±à¯ĩà®©à¯į
à¯Ĭà®° à®°à¯į
ĠN ew
Ġà®ħà®´à¯ģà®¤à¯įà®¤ à®¿
Ġà®ļà®¾à®©à¯įà®± à®¿à®¤à®´à¯į
Ġà®¤à®¿à®°à¯ģà®® à®£
à¯Ģ à®ļ
à¯Ĭ à®®à¯įà®ª
à®ŀà¯įà®ļ à®¿à®¯
Ġh ave
Ġà®ļà¯ģà®¤à¯įà®¤ à®®à®¾à®©
à®¨à®¾à®Ļ à¯įà®ķà®³
urr ent
z il
à®¤ à®¿à®ļà¯Ī
à®£ à®¿à®¯à¯Ī
Ġà®ļà¯Ĩà®©à¯įà®± à®¤à¯ģ
Ġà®¤à®² à¯Īà®ķ
Ġkey word
RUN TS
" ),
U R
Ġà®µà¯ĩà®£à¯įà®Ł à®¿
Ġà®ªà®Ł à®¤à¯įà®¤
à®ŀ à®°à¯į
à®īà®¯ à®°
Ġmess ages
à®¿à®İà®© à¯įà®¯à¯ģ
à®¾à®° à¯ģà®ķà¯įà®ķà¯ģà®®à¯į
CH UCK
C op
Ġà®ķ à¯įà®°
ation al
à®µà®Łà¯įà®Ł à¯ģà®ķà¯įà®ķà¯ģ
à®ªà¯įà®ªà®Łà¯ģà®µ à®¤à¯ģ
Ġà®¨à®¿à®® à®¿à®Łà®®à¯į
Ġà®®à¯ģà®©à¯įà®© à®¾à®²
à®®à¯ģà®± à¯Īà®¯à®¾à®ķ
O V
à®ª à®³
Ġà®¨ à®Łà¯ģà®¤à¯įà®¤
Ġà®¨à®®à¯įà®ª à®µà®¿à®²à¯įà®²à¯Ī
Ġà®ķà®¾à®°à®£ à®¿
à®¤à®¿à®°à¯ģà® ®
à¯ĭ à®µà®°à¯į
à¯įà®° à®¾
Ġa t
ro w
Ġà®ĩà®¯ à®±à¯įà®ķ
Ġà®¤à®Ł à®¤à¯įà®¤à¯Ī
Ġà®Ĵà®´ à¯ģà®ķà¯įà®ķ
Ġà®ĩà®°à®ķà®ļà®¿à®¯ à®Ļà¯įà®ķà®³à¯Ī
n ame
à®¨ à®®à®ķà¯įà®ķ
à®¾à®¯ à®¿à®²
Ġà®ħà®® à®°à¯įà®¨à¯įà®¤
Ġà®ħà®® à®°à¯įà®¤à¯įà®¤
à®ħà®Ł à¯Īà®¯à®¾à®³
V I
¹ à®®à¯įà®®à®¤à¯ģ
à¯įà®ķ à®°
à®© à¯Īà®¯à®¿à®©à¯į
à®ª à®¾à®°à¯į
Ġà®ĩ à®©à¯įà®±
à®ĩ à®ļà¯įà®ļ
Ġà®ļà¯Ĩà®¯à¯įà®¤ à®¿à®°à¯ģà®ķà¯įà®ķ
Ġà®µà®¿à®° à¯Īà®µà®¾à®©
à®ı à®±à¯įà®ķ
Ġà®² à¯ĩ
à®®à¯ģà® ¹à®®à¯įà®®à®¤à¯ģ
Ġà®ļà¯ĩà®® à®¿à®ªà¯įà®ªà¯ģ
à®īà®° à®¿à®¯
à¯įà®İ à®²à¯į
à¯Ĩà®¯à®° à¯įà®ªà¯įà®ª
Ġà®ļà®¿à®®à¯įà®² à®¿à®Ļà¯įà®ķà¯į
à®ª à®³à¯įà®³
à®ķ à®¤à¯į
à¯įà®© à®¾
Ġà®ĩà®° à®Łà¯įà®Łà¯Ī
Ġà®ķà¯Ĥ à®ļà¯įà®ļ
à®Ĩ à®Ł
Ġà®µà¯Ĩ à®Łà¯įà®Łà®¿
Ġà®ĩà®°à¯ģà®ªà¯įà®ª à®¿à®Ł
Ġà®¤à®ķà¯įà®ķ à®ªà®Łà®¿
(S IGHS
m s
à®µ à®¿à®°à¯ģà®®à¯įà®ª
à¯Īà®¯ à¯ĭ
Ġà®® à®¿à®¸
à®ķ à®©à¯į
à®¿à®© à¯ģà®³à¯į
Ġà®Ĵ à®Ł
Ġà®ļà¯Ĩà®¯à¯įà®¯ à®¾à®®à®²à¯į
Ġà®İà®Ł à¯ģà®ķà¯įà®ķà¯ģà®®à¯į
Ġà®ķà®£à®¿à®© à®¿à®¯à®¿à®²à¯į
à®¨à®¿à®±à¯Īà®µà¯ĩ à®±à¯įà®±
à®ķ à®¾à®±à¯įà®±à¯ģ
Ġs u
Ġà®ķà®¾à®ªà¯įà®ª à¯ģ
à¯Ĩà®ķà¯įà®¸ à¯įà®ļà¯įà®ļ
Ġà®ļà¯Ĩà®¯à¯įà®¤ à®¾à®¯à¯į
à¯Īà®µ à¯Ī
Ġà®ķà¯Ĥà®Łà¯įà®Łà®¾à®³ à®¿
à®¤ à¯ģà®ªà¯įà®ª
Ġà®¤à®ķ à¯ģà®¨à¯įà®¤
o ice
à®³ à®¿
à®¿à®¯ à¯ģ
à¯įà®° à®¾à®ª
à®ħà®µ à®³à¯Ī
à®İà®¤ à®©à¯Īà®¯à¯ģà®®à¯į
Ġà®ļà¯Ĩà®¯à¯įà®¯ à®ªà¯įà®ªà®Łà¯įà®Łà®¤à¯ģ
Ġà®ªà®¿à®° à®¿à®¨à¯įà®¤
Ġà®ĩà®Ł à®®à®¾à®ķ
Ġà®µà®¾à®° à®®à¯į
à®ħà®© à¯ĭà®µà®°à¯į
p ar
à®ķ à¯įà®ķà®³à¯Ī
à®İ à®³
Ġà®µà®¿à®Łà¯įà®Ł à¯Ģà®°à¯įà®ķà®³à®¾
Ġà®ĩà®Ł à®®à¯ģà®³à¯įà®³
à¯įà®¨ à®¿à®²à¯Ī
Ġà®µà¯Ĩà®³à®¿à®¯à¯ĩà®±à¯įà®± à®ªà¯įà®ªà®Łà¯įà®Ł
Ġà®¤à¯ĩà®°à¯įà®¨à¯įà®¤à¯Ĩà®Łà¯ģà®¤à¯įà®¤ à®¾à®²à¯į
Ġde v
à®® à®´à¯Ī
à®¿à®¯ à®¿à®²à¯ģà®®à¯į
Ġà®¤ à®¾à®¯à®¿à®©à¯į
à®ĩ à®ļ
Ġà®¨à®¿à®° à¯Ĥà®ª
à¯įà®¸ à¯įà®ķ
Ġà®¨à®¿à®© à¯Īà®ªà¯įà®ª
à®ħà®¤ à¯ģà®ª
Ġà®®à®² à®®à¯į
12 0
Ġà®İà®±à®¿à®¯ à¯ģà®Ļà¯įà®ķà®³à¯į
à¯ģà®ķà¯įà®ķà¯ģà®± à®¿
à®ªà®¿à®£ à¯Īà®¯
Ġà®®à®±à¯ģà®ªà¯Ĩà®¯à®° à®¿à®Łà¯ģ
u tion
Ġà®ĩà®° à¯ģà®®à¯įà®ª
à¯ĭ à®©à¯į
à®¾à®³ à¯Ī
Ġà®µà®¿à®·à®¯ à®¤à¯įà®¤à¯Ī
à®°à¯ģà®³ à¯Ī
; .čĊ
à®¤ à®¿à®ķà®³à¯į
à®¾à®° à¯įà®ķ
à¯ģà®° à¯ģà®ķà¯įà®ķà®³à¯į
à¯ĩà®¯ à®¾à®©à®¾à®²à¯į
Ġà®ĩà®µà¯įà®µ à®³à®µà¯ģ
à®®à¯ĩ à®±à¯įà®ķ
Ġà®ĩà®© à®¿à®®
à®¿à®µà®° à®®à¯į
à®ªà¯Ī à®²
à®ªà®¿à®³ à¯įà®¯à¯Ĥ
à®Ĩà®°à¯įà®Ł à®ªà®¿à®³à¯įà®¯à¯Ĥ
à®® à®¾à®ķà¯įà®ķà®¿à®¯
Ġà®µà®° à®µ
Ġà®ĩà®Ł à®¤à¯įà®¤à®¿à®²à®¿à®°à¯ģà®¨à¯įà®¤à¯ģ
Ġà®®à®¾à®±à¯įà®± à®¿à®©à®¾à®²à¯į
Ġà®ªà¯Ĩà®±à¯įà®± à¯ģà®³à¯įà®³à®¤à¯ģ
ra y
Ġà®ı à®¯à¯į
Ġà®ªà®Ł à®Ļà¯įà®ķà®³à¯į
Ġà®¤à®° à®¾à®¤à¯ģ
à®µà¯Ĩ à®±à¯ģà®®à¯į
Ġà®İà®³à®¿à®¤ à®¾à®©
à®¨à®Łà®¿à®ķà®° à¯ģà®ķà¯įà®ķà®¾à®©
Ġà®ķ à¯Īà®µà®¿à®Łà¯įà®Łà¯ģ
Ġh as
à®ª à®¾à®ķ
à®¿à®¤ à®²à¯į
à®¿à®± à¯įà®ķà¯įà®ķà¯ģ
Ġà®ļà®¿à®² à¯ģà®µà¯Īà®¯à®¿à®²à¯į
Ġà®ķà®¾à®² à®¿à®¯à®¾à®©
Ġà®¤à®© à¯įà®®à¯Ī
Ġà®ļà¯ģà®µ à®°à¯į
Â ¡
Ġà®µà¯Ĩ à®ªà¯įà®ª
à®¨à¯Ģ à®£à¯įà®Ł
Ġà®ķà¯ģà®° à®Ļà¯įà®ķ
wor k
C E
à®¾à®Łà¯įà®Ł à¯ģà®®à¯į
Ġà®ķà®Ł à®ķà¯įà®ķ
Ġà®īà®¯à®° à®®à®¾à®©
Ġà®¨à®£à¯įà®ª à®©à¯į
à®ļà¯Ĥà®° à®¿à®¯à®©à¯į
Ġmess age
Ġval ue
S S
o ve
w ay
Â ¨
à®ª à®Łà¯įà®Łà®¿
Ġà®ī à®³à¯įà®µ
à®Ĵ à®ªà¯įà®ª
Ġà®®à®±à¯įà®± à®µà®°à¯įà®ķà®³à¯Ī
Ġà®¤à¯Ģ à®ªà¯įà®ª
Ġà®¨à®¿à®© à¯Īà®¤à¯įà®¤à¯ģ
Ġà®īà®°à¯ģà®µà®¾à®ķà¯įà®ķ à®ªà¯įà®ªà®Łà¯įà®Łà®¤à¯ģ
à®ħà®± à®¿à®¨à¯įà®¤
Ġà®®à®±à¯Īà®ķà¯įà®ķ à®µà¯ģà®®à¯į
Ġà®ª à®¿à®ļà¯į
Ġà®ª à®ļà®¿à®¯
à¯Ĥ à®±
à®ĩ à®µà¯į
à®£à¯įà®Ł à¯į
à¯ģà®ª à®¤à¯ģ
à®Ĩ à®©à®¾à®²
Ġà®®à®ķ à®©à¯Ī
à®ħà®© à¯ģà®®à®¤à®¿
Ġà®¨à®¿à®±à¯Īà®µà¯ĩ à®±à¯įà®±à®¿à®¯
Ġà®ªà¯Ĩà®¯à®° à®¿à®²à¯į
Ġà®ļà®Ļà¯įà®ķ à®¿à®²
à®ļà¯Ĩà®¯à®²à¯įà®ª à®Łà¯ģà®¤à¯įà®¤
à¯ģà®ķà¯įà®ķà¯ģà®³à¯įà®³ à¯ĩ
, à®¨à®¾à®©
à®© à¯įà®ļ
à®® à¯Īà®ªà¯į
Ġà®ª à¯ģà®©
Ġà®ļ à®¤à®µ
à®İ à®£à¯įà®£
à®®à¯Ĥ à®²à®®à¯į
Ġà®¨à®¿à®± à¯Īà®µ
ar u
Ġà®µà®¾à®¯ à®¿à®²à¯į
à®®à¯ģà®©à¯įà®© à¯ĭ
Ġà®Ĵà®°à¯ģà®Ļà¯įà®ķ à®¿à®£
Ġà®¤à®¾à®°à®¾à®³ à®®à®¾à®ķ
à¯Īà®¯ à®ļà¯įà®ļ
à¯ģà®ķà¯įà®ķ à¯ģà®®
à¯įà®µ à¯Ĩà®³
à®ħ à®©à¯įà®±à¯ģ
à®ļ à®¾à®®à¯įà®ª
à®¿à®ķà¯įà®ķ à®²à®¾à®®à¯į
Ġà®µà¯ĩ à®°
à®ŀà¯įà®ļ à®²
Ġà®¯à®¾à®° à¯ģà®ķà¯įà®ķà¯ģà®®à¯į
à®ªà®Łà¯įà®Ł à®¿à®¯à®²à¯į
vi ew
Ġà®ļà¯Ĩà®¯à®±à¯įà®ª à®Łà¯ģà®¤à¯įà®¤
Ġà® ³
à®¾à®© à¯įà®ª
à®İ à®Ļà¯įà®ķà¯ĩ
à®Łà®¿à®¯ à®¾à®ķà¯ģà®®à¯į
Ġà®¨à®¿à®± à¯Ī
Ġà®ªà®¯à®©à¯įà®ª à®¾à®Ł
à®ķà¯ģà®´ à®¨à¯įà®¤à¯Ī
à®ķà®Łà®µ à¯ģà®³à¯į
à®ªà¯įà®ªà®¿à®° à®¿à®ķà¯įà®ķà®¾
Ġà®ļà¯Ģà®Łà¯įà®Ł à¯ģà®ķà®³à¯Ī
( à®²
à®¾à®² à®©à¯įà®±à®¿
à®¾à®Łà¯įà®Ł à®®à¯į
Ġà®İà®¤à®¿à®° à¯įà®ķà¯įà®ķ
Ġà®¤à¯Ĩà®°à®¿à®µ à®¿à®¤à¯įà®¤
à®¿à®ķà¯įà®ķ à¯Ĭ
Ġà®Ĩ à®Łà¯įà®Ł
Ġà®İà®¤à®¿à®° à¯įà®¤à¯įà®¤à¯ģ
Ġà®ķà®µà®² à¯Īà®¯à¯ģà®®à¯į
à®° à®¤à¯įà®¤à¯Ī
Ġà®ĩà®± à®Ļà¯įà®ķà¯ģà®®à¯į
à®¿à®ķà®³ à¯ģà®ķà¯įà®ķà¯ģà®®à¯į
Ġà®ªà®¿à®° à®®
Ġà®µà®¿à®° à®¯à®®à¯į
Ġà®ķà®£à®ķà¯įà®ķ à®¿à®²à¯į
Ġà®ħ à®¯
à®¿à®² à¯įà®¤à®¾à®©à¯į
à®¾à®ļ à®°à®¿
Ġà®ªà®¾à®¤ à¯įà®¤
Ġà®µà®¾à®© à®¤à¯įà®¤à®¿à®²à¯į
Ġà®¤à¯Ĭ à®²
Ġà®ªà¯Ĩà®°à®¿à®¯ à®¤à¯ģ
Ġà®ķà¯ģà®³à®¿à®° à¯įà®ļà¯įà®ļ
zam bia
Ġà®¤ à®Łà¯įà®Łà¯ģ
à®¤à¯įà®¤ à¯ģà®ļà¯į
Ġà®ªà®¯à®©à¯įà®ª à®Ł
Ġà®ķà®£à¯įà®Ł à®¿à®ªà¯įà®ª
Ġà®ĩà®´ à¯ģà®¤à¯įà®¤à¯ģ
at h
à¯ģà®±à¯įà®± à¯ģ
Ġà®ĩà®¤à¯Ī à®µà®¿à®Ł
à®ªà®Ł à®¿à®ªà¯įà®ª
Ġà®ķà®°à¯ģà®µ à®¿à®ķà®³à¯į
à®īà®³à¯įà®³ à¯ĩ
Ġà®Ĩà®¤à®° à®µà®¿à®²à¯įà®²à¯Ī
Ġà®İà®³à®¿à®¤ à®¾à®ķà¯įà®ķ
ont rol
Ġà®ķà¯ģà®£ à®Ļà¯įà®ķà®³à¯į
à®¤à®£à¯įà®£ à¯Ģà®°à¯į
K S
e b
Ġ :čĊ
à®ķ à®ļà®¿à®¯
à®ļ à®¿à®°
à¯Īà®ķà®³ à¯ģà®Łà®©à¯į
à®ķà¯Ĥ à®Łà®¿à®¯
à®ĩà®£ à¯Īà®ªà¯įà®ªà¯Ī
Ġà®īà®´ à¯Īà®ªà¯įà®ª
à®³ à¯ģà®®à¯į
à®µ à®¾à®°à¯įà®¤à¯įà®¤
Ġà®¨ à¯Ĩà®Łà¯ģà®ķà¯įà®ķ
Ġ( '
à¯įà®® à¯ĩ
Ġà®®à®± à¯ģà®µ
à®¾à®³à®° à®¿à®©à¯į
Ġà®ªà¯ĭ à®Ł
à®ĩà®° à®Łà¯įà®Łà¯Ī
Ġà®ħà®³à®¿à®ķà¯įà®ķ à®ªà¯įà®ªà®Łà¯ģà®®à¯į
Ġà®ķ à®²à¯Ī
à®±à¯įà®± à®®à¯į
ran k
Ġà®° à¯Ĩ
Ġà®ļà®° à®¿à®ªà¯įà®ª
Ġà®ªà¯Ĭ à®¤à®¿à®¯
à®¤à®© à®¿à®ªà¯įà®ªà®¯à®©à¯į
Ġà®ļà®¨à¯įà®¤à¯ĩà®ķ à®®à¯ģà®®à¯į
Ġà®µà®ļà®¤ à®¿à®ķà®³à¯Ī
Ġà®µà¯Ģà®Łà¯įà®Ł à®¿à®±à¯įà®ķà¯ģ
Ġà®µà¯Ĩà®ķ à¯ģà®®à®¤à®¿
U T
Ġà®ħà®Ł à®¿à®¤à¯įà®¤à¯ģ
Ġà®īà®° à¯ģ
Ġà®µà®¨à¯įà®¤ à¯ģà®µà®¿à®Łà¯įà®Ł
Ġà®¨à®¿à®± à®¤à¯įà®¤à¯Ī
à®®à¯ģà®Ł à®¿
Ġà®īà®£à®° à¯įà®¤à¯įà®¤
Ġà®µà®¿à®°à¯ģà®ªà¯įà®ªà®¤à¯įà®¤à¯ĩà®° à¯įà®µà¯ģà®ķà®³à¯į
Ġà®ļ à®Łà¯įà®Łà¯Ī
Ġà®¤à®¿à®°à¯ģà®®à¯įà®ª à®ļà¯į
à®ļà¯ĩ à®µà®ķ
à¯ģà®® à¯ģà®±
ti val
es tival
à¯ģà®ķà¯įà®ķà®¾à®ķ à®¤à¯į
ĠN ational
Ġà®®à¯Ĥà®´à¯įà®ķ à®¿
Ġà®µà®¿à®± à¯įà®ª
di an
Ġà®®à®¾à®±à¯ģà®ª à®¾à®Łà¯ģ
ric e
à®Ĭ à®Ł
a ti
à®¾à®² à¯ĩà®¯à¯ĩ
Ġà®¨à¯Ģ à®²à¯įà®¸à¯į
Ġà®µà®° à¯ģà®ķà®¿à®©à¯įà®±à®©
Ġà®ļà¯Ĩà®¯à¯įà®¯ à®¤à¯į
Ġà®µà®ļ à®¿à®ķà¯įà®ķ
Ġà®ªà®¯à®©à¯įà®ªà®Łà¯ģà®¤à¯įà®¤ à®²à®¾à®®à¯į
Ġà®ķà¯ĩà®Łà¯įà®ķ à®ªà¯įà®ªà®Ł
Ġà®¨à®¿à®²à¯Ī à®®à¯Ī
à®īà®Ļà¯įà®ķà®³ à¯ģà®ķà¯įà®ķà¯ģà®®à¯į
à®Ł à®¾à®©
à®¿à®¯ à®Łà¯Īà®¨à¯įà®¤
à®¾à®ķ à®¿à®µà®¿à®Łà¯ģà®®à¯į
Ġà®ĩà®°à¯ģà®¨à¯įà®¤ à®¾à®¯à¯į
Ġà®ªà®Ł à¯įà®ļ
Ġd is
(à®ħ à®©
Ġà®®à¯ģà®´ à¯ģà®¤à¯ģà®®à¯į
Ġà®®à¯ģà®Łà®¿à®¯à®¾à®¤ à®ªà®Łà®¿
ĠF rance
Ġcont ain
à®²à®¾à®ķ à®¾à®¤à¯ģ
Ġà®¨à®Łà¯ģà®Ļà¯įà®ķ à¯ģà®®à¯į
à®ª à®£à®¿
à¯įà®® à¯Ģà®©à¯į
à®¿à®¤à¯įà®¤ à®©à®®à¯į
Ġà®ļà¯Ĩà®¯à¯įà®¯ à®¾à®µà®¿à®Łà¯įà®Łà®¾à®²à¯į
Ġà®İà®©à¯įà®© à®µà®¾à®¯
à¯ģà®µà®° à®¿à®ļà¯Ī
Ġà®ĩà®±à®ķà¯įà®ķ à¯ģà®®à¯į
Ġà®ķà®£ à¯įà®ķà®³à¯ģà®®à¯į
Ġà®īà®©à¯įà®© à®¤à®®à®¾à®©
Ġà®ļà¯ģà®® à¯Īà®¯à¯Ī
Ġà®ķà®ªà¯įà®ª à®²à¯įà®ķà®³à¯į
Ġà®¤à®¿à®°à¯ģà®¤à¯įà®¤ à®®à¯į
Ġà®®à®Ł à®Ļà¯įà®ķà¯ģ
Ġà®ªà®Łà¯įà®Łà®¿à®¯à®² à®¾à®ķ
à®° à¯ģà®£
à®¤ à®©à¯Īà®¯à¯ģà®®à¯į
à¯ĩ à®·
à®® à®±à¯ģ
à®¾à®µ à®¾à®ķ
Ġà®ļà¯Ĩà®¯à¯įà®¤ à®¿à®°à¯ģà®¨à¯įà®¤à®¾à®²à¯į
Ġà®µà®¨à¯įà®¤ à®Łà¯Īà®¯à¯ģà®®à¯į
Ġà®ªà®¾à®°à¯įà®ķà¯įà®ķ à®¿à®±à¯ĩà®©à¯į
Ġà®¨à¯Ģà®ķà¯įà®ķ à¯ģà®®à¯į
Ġà®ĩà®¤à¯Ī à®ļà¯į
à®¿à®¨ à®¿à®¤
Ġà®ħà®³à®¿à®ķà¯įà®ķ à®µà®¿à®²à¯įà®²à¯Ī
Ġà®¤à®³ à®¤à¯įà®¤à®¿à®²à¯į
Ġà®ħà®´à®¿à®¨à¯įà®¤ à¯ģà®µà®¿à®Łà¯ģà®®à¯į
Ġfil es
Ġà®ļà®² à¯ģà®ķ
2 4
à®µ à¯Īà®ķà¯įà®ķ
à¯Īà®¯ à®¿à®²à¯ĩà®¯à¯ĩ
Ġà®ļ à¯ĭ
à®ķà¯įà®ķ à®¾à®²
Ġà®µà¯Īà®¤à¯įà®¤ à®¤à¯ģ
Ġà®ľ à®¿à®İà®©à¯įà®¯à¯ģ
Ġs erver
Ġà®ļà®¾à®Łà¯įà®ļ à®¿à®ķà®³à¯į
Ġà®¨à®£à¯įà®ª à®©à®¾à®ķ
Ġà®¨à®©à¯įà®± à®¿à®¯à¯Ī
Ġà®ķà¯Ĥà®Łà¯įà®Łà®¾à®³ à®¿à®ķà®³à¯į
% d
D B
à¯ģà® ī
Ġà®ī à®³à¯į
à®°à¯įà®ķà®³ à¯Īà®ªà¯į
an c
Ġà®ļà¯Ĩà®¯à®² à®¿à®²à¯į
à®ļà¯Ĩà®¯ à¯įà®¤à¯ģ
Ġà®ļà¯Ĩà®²à¯įà®µ à®¤à¯Ī
Ġà®ļà¯Ĩà®¯à¯įà®¯à®ªà¯įà®ªà®Ł à®¾à®®à®²à¯į
Ġà®Ĩà®° à®®à¯į
à®µà®¿à®³ à¯Īà®¯à®¾à®Ł
Ġà®®à¯ģà®ķà®µà®° à®¿à®¯à¯Ī
Ġà®ªà®³ à®¿à®Ļà¯įà®ķ
à¯ģà®® à®¾à®±à¯įà®±
à®¿à®ªà¯įà®ª à®µà®°à¯įà®ķà®³à¯į
à®ªà¯įà®ªà®Ł à¯ģà®ķà®¿à®±à®¾à®°à¯įà®ķà®³à¯į
Ġà®ħà®Ł à®¿à®¯à®¿à®²à¯į
Ġà®ªà®Łà¯įà®Ł à®©à¯Ī
à¯ģà®£à¯įà®Ł à®¾
Ġà®µà®¿à®°à¯ģà®¨à¯įà®¤ à®¿à®©
à®¿à®²à¯įà®¨ à¯ģà®Łà¯įà®ª
Ġ z
à¯ģà®µà®¿à®Ł à¯ģ
Ġà®¤à®¿à®°à¯ģà®ªà¯įà®ª à®ªà¯įà®ªà®Łà¯įà®Ł
Ġà®µà®¿à®¯à®¾à®ª à®¾à®°à®¤à¯įà®¤à¯Ī
V oice
Ġà®¤à¯Ĩà®³à®¿à®µ à¯ģà®ªà®Łà¯ģà®¤à¯įà®¤
Ġà®®à®¾à®° à®¿
In dian
Ġà®µà®³ à®°à¯įà®¤à¯įà®¤
à®¤ à®®à¯įà®®
à®Ł à®¿à®µ
à®ļ à®¿à®ķ
à®µà®±à¯įà®± à¯ģà®ķà¯įà®ķà¯ģ
Ġà®ħà®¤à®±à¯įà®ķ à¯ĩ
Ġà®®à®©à¯Īà®µ à®¿à®¯à¯ģà®®à¯į
Ġà®µà¯Ĩà®±à¯įà®± à®¿à®ªà¯į
à®µà¯Ģ à®£
R es
Ġà®ķ à¯ĩà®²
Ġà®ī à®Łà¯Ī
Ġà®ķà®¾à®² à®¤à¯įà®¤
Ġà®µà®´à®Ļà¯įà®ķ à®¿à®¯
Ġà®¤à¯ģà®µ à®Ļà¯įà®ķà¯ģà®®à¯į
à®ªà®¾à®µ à®®à¯į
à¯įà®İ à®¸à¯į
Ġà®īà®£à®µà®³ à®¿à®ķà¯įà®ķ
à®¤ à¯Ģà®°à¯įà®ªà¯įà®ª
Ġà®ķ à®µà®°
à¯ģà®¤ à®¾à®ª
Ġà®ħà®µà®© à¯Īà®µà®¿à®Ł
Ġà®µà®´ à®¿à®¯à®¿à®©à¯į
Ġn o
Ġà®¨à®¿à®° à®²à¯Ī
Ġà®µà¯Ģ à®ļà®¿
Ġà®®à®©à®¿à®¤à®°à¯įà®ķà®³ à¯Īà®ªà¯į
Ġà®µà®¿à®ļ à¯Īà®ªà¯įà®ªà®²à®ķà¯Ī
Ġà®¨à®©à¯įà®® à¯Īà®ķà¯įà®ķ
ber ta
à®©à¯ģà®ªà¯įà®ª à®¿à®¯
ĠAl berta
Ġà®ŀà®¾à®ªà®ķ à®¾à®°à¯įà®¤à¯įà®¤
" à®ªà®¿à®©à¯įà®©à®°à¯į
K ey
à®¤ à¯ģà®¤
Ġà®® à®¿à®°
à®²à¯įà®² à®¾à®¤à¯ģ
Ġà®İà®© à®ªà¯į
à®Ĩ à®ª
Ġà®ħà®´ à®¿à®µà¯ģ
à®¹ à¯įà®µ
à¯įà®° à¯Ī
Ġà®¤à¯Ĥà®¤ à¯ģà®µ
à®İà®© à¯ģà®®à¯į
Ġà®Ł à®¾à®ķ
Ġà®īà®°à¯ģà®µà®¾à®ķà¯įà®ķ à®µà¯ģà®®à¯į
Ġà®ķà®°à¯ģà®µ à®¿à®ªà¯įà®ªà®Łà¯įà®Ł
à®ħà®£ à¯ģ
Ġam ount
Ġà®¹à®¾à®°à¯įà®Ł à¯įà®¸à¯į
? '
à¯įà®¤ à®¿à®ļ
Ġà®İ à®Ļà¯įà®ķà®¿à®°à¯ģà®¨à¯įà®¤à¯ģ
à®¿à®©à¯įà®± à®¿à®¤à¯į
à®¸ à®°à¯į
Ġà®¨à®¿à®² à¯Īà®¯à®¿à®²à®¿à®°à¯ģà®¨à¯įà®¤à¯ģ
Ġà®ħà®¤à¯įà®¤ à®¿à®¯à®¾à®¯à®®à¯į
Ġà®µà®ļ à®¿à®ªà¯įà®ª
Ġà®®à¯ĩ à®ķà®®à¯į
Ġà®ĩà®¯ à®ķà¯įà®ķà®®à¯į
Ġà®®à®² à¯Īà®¯à¯Ī
à®ķà¯ģà®± à®¿à®ªà¯įà®ªà¯ģ
); čĊ
Ġà®ĩà®¤à®¯ à®Ļà¯įà®ķà®³à¯Ī
Ġà®Ĵà®³ à®¿à®µ
à¯įà®· à®ļ
à®°à¯ģà®ķ à¯ĩ
Ġà®ķà®Łà¯įà®Łà¯ģà®ªà¯įà®ª à®Ł
Ġà®¨à¯ĭ à®ķà¯įà®ķà®¿
à®ļà®ķ à¯įà®¤à®¿à®¯
à®ķà®¿à®© à¯įà®·à®ļ
O W
à®¤ à®Łà¯Ī
Ġà®ħ à®©à¯įà®©
à®Ļà¯įà®ķ à®²à¯į
à¯Ĩà®³ à®¿à®¨à¯įà®¤
Ġà®ĩà®±à®ķà¯įà®ķ à®µà®¿à®²à¯įà®²à¯Ī
Ġà®ħà®©à¯ģà®ªà¯įà®ª à®¿à®µ
Ġà®ªà¯Ĩà®± à®²à®¾à®®à¯į
Ġà®¹ à¯Ĥ
à®µà®¾à®© à®¤à¯įà®¤à®¿à®²à¯į
Ġà®µà®´à®Ļà¯įà®ķ à®¿
Ġà®¤à®¯ à®µà¯ģà®ļà¯Ĩà®¯à¯įà®¤à¯ģ
Ġà®¤à¯ĩà®°à¯įà®µ à¯ģà®ķà®³à¯Ī
Ġà®¨à®Łà®¨à¯įà®¤ à®¾à®²à¯į
Ġà®®à®¿à®ķà®ªà¯įà®ª à¯Ĩà®°
à¯ģà®µ à®¤à¯Īà®¤à¯į
à®ļ à®¿à®ķà¯įà®ķ
Ġà®ªà®¿à®Ł à®¿à®ķà¯įà®ķà¯ģà®®à¯į
Ġà®ķà¯Ģà®´ à¯įà®ªà¯įà®ª
à¯ĩà®¤ à®¾à®©à¯į
Ġà®Ĵà®³ à®¿à®¯à¯Īà®¯à¯ģà®®à¯į
à®ħà®ķ à®±à¯įà®±
di tion
Ġà®µà®¿à®¯à®¾à®ª à®¾à®°
[...]
