{
  "version": "1.0",
  "truncation": null,
  "padding": null,
  "added_tokens": [
    {
      "id": 32000,
      "content": "<|endoftext|>",
      "single_word": false,
      "lstrip": false,
      "rstrip": false,
      "normalized": false,
      "special": true
    }
  ],
  "normalizer": null,
  "pre_tokenizer": {
    "type": "Sequence",
    "pretokenizers": [
      {
        "type": "Split",
        "pattern": {
          "Regex": "[^\\r\\n\\p{L}\\p{N}]?[\\p{Lu}\\p{Lt}\\p{Lm}\\p{Lo}\\p{M}]*[\\p{Ll}\\p{Lm}\\p{Lo}\\p{M}]+|[^\\r\\n\\p{L}\\p{N}]?[\\p{Lu}\\p{Lt}\\p{Lm}\\p{Lo}\\p{M}]+[\\p{Ll}\\p{Lm}\\p{Lo}\\p{M}]*|\\p{N}{1,3}| ?[^\\s\\p{L}\\p{N}]+[\\r\\n/]*|\\s*[\\r\\n]+|\\s+(?!\\S)|\\s+"
        },
        "behavior": "Isolated",
        "invert": false
      },
      {
        "type": "ByteLevel",
        "add_prefix_space": false,
        "trim_offsets": true,
        "use_regex": false
      }
    ]
  },
  "post_processor": null,
  "decoder": {
    "type": "ByteLevel",
    "add_prefix_space": true,
    "trim_offsets": true,
    "use_regex": true
  },
  "model": {
    "type": "BPE",
    "dropout": null,
    "unk_token": null,
    "continuing_subword_prefix": null,
    "end_of_word_suffix": null,
    "fuse_unk": false,
    "byte_fallback": false,
    "ignore_merges": false,
    "vocab": {
      "!": 0,
      "\"": 1,
      "#": 2,
      "$": 3,
      "%": 4,
      "&": 5,
      "'": 6,
      "(": 7,
      ")": 8,
      "*": 9,
      "+": 10,
      ",": 11,
      "-": 12,
      ".": 13,
      "/": 14,
      "0": 15,
      "1": 16,
      "2": 17,
      "3": 18,
      "4": 19,
      "5": 20,
      "6": 21,
      "7": 22,
      "8": 23,
      "9": 24,
      ":": 25,
      ";": 26,
      "<": 27,
      "=": 28,
      ">": 29,
      "?": 30,
      "@": 31,
      "A": 32,
      "B": 33,
      "C": 34,
      "D": 35,
      "E": 36,
      "F": 37,
      "G": 38,
      "H": 39,
      "I": 40,
      "J": 41,
      "K": 42,
      "L": 43,
      "M": 44,
      "N": 45,
      "O": 46,
      "P": 47,
      "Q": 48,
      "R": 49,
      "S": 50,
      "T": 51,
      "U": 52,
      "V": 53,
      "W": 54,
      "X": 55,
      "Y": 56,
      "Z": 57,
      "[": 58,
      "\\": 59,
      "]": 60,
      "^": 61,
      "_": 62,
      "`": 63,
      "a": 64,
      "b": 65,
      "c": 66,
      "d": 67,
      "e": 68,
      "f": 69,
      "g": 70,
      "h": 71,
      "i": 72,
      "j": 73,
      "k": 74,
      "l": 75,
      "m": 76,
      "n": 77,
      "o": 78,
      "p": 79,
      "q": 80,
      "r": 81,
      "s": 82,
      "t": 83,
      "u": 84,
      "v": 85,
      "w": 86,
      "x": 87,
      "y": 88,
      "z": 89,
      "{": 90,
      "}": 91,
      "~": 92,
      "¡": 93,
      "¢": 94,
      "£": 95,
      "¤": 96,
      "¥": 97,
      "¦": 98,
      "§": 99,
      "¨": 100,
      "©": 101,
      "ª": 102,
      "«": 103,
      "¬": 104,
      "®": 105,
      "¯": 106,
      "°": 107,
      "±": 108,
      "²": 109,
      "³": 110,
      "´": 111,
      "µ": 112,
      "¶": 113,
      "·": 114,
      "¸": 115,
      "¹": 116,
      "º": 117,
      "»": 118,
      "¼": 119,
      "½": 120,
      "¿": 121,
      "Â": 122,
      "Ã": 123,
      "Ä": 124,
      "Å": 125,
      "Ë": 126,
      "Î": 127,
      "Ò": 128,
      "Û": 129,
      "à": 130,
      "â": 131,
      "ï": 132,
      "Ċ": 133,
      "č": 134,
      "Ġ": 135,
      "Ģ": 136,
      "ģ": 137,
      "Ĥ": 138,
      "ĥ": 139,
      "Ħ": 140,
      "ħ": 141,
      "Ĩ": 142,
      "ĩ": 143,
      "Ī": 144,
      "ī": 145,
      "Ĭ": 146,
      "ĭ": 147,
      "Į": 148,
      "į": 149,
      "İ": 150,
      "ı": 151,
      "Ĳ": 152,
      "ĳ": 153,
      "Ĵ": 154,
      "ĵ": 155,
      "Ķ": 156,
      "ķ": 157,
      "ĸ": 158,
      "Ĺ": 159,
      "ĺ": 160,
      "Ļ": 161,
      "ļ": 162,
      "Ľ": 163,
      "ľ": 164,
      "Ŀ": 165,
      "ŀ": 166,
      "Ł": 167,
      "ł": 168,
      "Ń": 169,
      "à¶": 170,
      "à·": 171,
      "Ġà¶": 172,
      "à·Ĭ": 173,
      "à¶±": 174,
      "à·Ĵ": 175,
      "à·Ģ": 176,
      "à·ı": 177,
      "à¶º": 178,
      "čĊ": 179,
      "à¶¸": 180,
      "à¶ļ": 181,
      "à¶±à·Ĭ": 182,
      "à·Ļ": 183,
      "à¶»": 184,
      "à¶Ń": 185,
      "à·Ķ": 186,
      "à·ļ": 187,
      "à·Ħ": 188,
      "à¶½": 189,
      "à¶§": 190,
      ".čĊ": 191,
      "à¶±à·Ĭà¶±": 192,
      "Ġà¶ļ": 193,
      "à·ĥ": 194,
      "à¶¯": 195,
      "à·Ĳ": 196,
      "Ġà¶¸": 197,
      "Ġà·Ģ": 198,
      "à¶ļà·Ĭ": 199,
      "à¶ºà·ı": 200,
      "à¶ľ": 201,
      "à·ľ": 202,
      "à·Ĵà¶º": 203,
      "à¶Ńà·Ĭ": 204,
      "à¶´": 205,
      "Ġà¶±": 206,
      "Ġà¶¯": 207,
      "Ġà¶ĳ": 208,
      "Ġà¶´": 209,
      "Ġà·Ħ": 210,
      "Ġà¶ħ": 211,
      "à¶ºà·Ĵ": 212,
      "Ķà¶ºà·ı": 213,
      "à·Ģà·ı": 214,
      "Ġà¶Ń": 215,
      "?čĊ": 216,
      "Ġà¶ľ": 217,
      "Ġà·ĥ": 218,
      "à¶½à·ı": 219,
      "à·Ļà¶±": 220,
      "à¶¸à·Ĭ": 221,
      "âĢ": 222,
      "Ġà¶ļà¶»": 223,
      "âĢį": 224,
      "à¶©": 225,
      "..": 226,
      "à·ĥà·Ĭ": 227,
      "à·Ķà·Ģ": 228,
      "à¶¶": 229,
      "à·ĵ": 230,
      "Ġà¶Ķà¶ºà·ı": 231,
      "Ġà¶¶": 232,
      "à¶ľà·ļ": 233,
      "à·Ŀ": 234,
      "Ġà¶ļà·Ĵà¶º": 235,
      "à·ĳ": 236,
      "à·Ļà¶±à·Ĭà¶±": 237,
      "à¶½à·Ĭ": 238,
      "Ġà¶ī": 239,
      "à¶»à·Ĵ": 240,
      "Ġà¶Ĵ": 241,
      "à¶«": 242,
      "Ġà¶º": 243,
      "Ġà¶ĩ": 244,
      "à¶´à·Ĵ": 245,
      "!čĊ": 246,
      "à¶Ķà¶ºà·ı": 247,
      "à·Ĵà¶±à·Ĭ": 248,
      "à¶»à·Ĭ": 249,
      "à·ıà·Ģ": 250,
      "à¶Ńà·Ĭà¶Ń": 251,
      "à¶ħ": 252,
      "à¶¸à¶¸": 253,
      "à·ħ": 254,
      "Ġà¶ĳà¶ļ": 255,
      "Ġà¶ļà¶»à¶±à·Ĭà¶±": 256,
      "Ġà¶Ķ": 257,
      "à·Ļà¶±à·Ĭ": 258,
      "Ġà·Ģà·Ĵ": 259,
      "Ġà¶±à·Ĳ": 260,
      "à¶Ĥ": 261,
      "à·Ĳà¶±": 262,
      "à¶Ńà·Ĵ": 263,
      "à¶ĳ": 264,
      "à¶Ĵ": 265,
      "Ġà¶ĭ": 266,
      "à¶±à·Ģà·ı": 267,
      "à¶ºà¶ļà·Ĭ": 268,
      "à¶±à·ļ": 269,
      "à¶»à·Ķ": 270,
      "à·ģ": 271,
      "Ġà¶¸à¶¸": 272,
      "Ġà¶½": 273,
      "âĢįà¶»": 274,
      "Ġà¶¸à·ļ": 275,
      "à¶±à·Ĭà¶±à·ļ": 276,
      "à·Ģà·Ķ": 277,
      "à¶±à·ı": 278,
      "à·Ģà·Ĭ": 279,
      "Ġà¶±à·ĳ": 280,
      "Ġà¶Ńà·Ĵà¶º": 281,
      "Ġà¶ķ": 282,
      "Ġà·Ħà·Ĵ": 283,
      "Ġà¶Ĩ": 284,
      "âĪ": 285,
      "à¶Ńà·Ķ": 286,
      "âĪĻ": 287,
      "Ġà¶Ĵà¶ļ": 288,
      "à¶ł": 289,
      "à·ľà¶ļ": 290,
      "à¶±à·Ĵ": 291,
      "à¶¸à¶§": 292,
      "à¶Ķ": 293,
      "Ġà¶ĳà¶ºà·ı": 294,
      "à·Ħà·Ĳ": 295,
      "Ġà¶¸à¶§": 296,
      "Ġà·Ħà·ľ": 297,
      "Ġà¶ļà·Ĵà¶ºà¶½à·ı": 298,
      "à·Ħà·Ļ": 299,
      "à¶³": 300,
      "à¶¸à·ļ": 301,
      "à¶ļà·Ĭà¶ļ": 302,
      "à·Ģà·Ĵ": 303,
      "Ġà¶´à·Ķ": 304,
      "à·ĥà·Ĭà·ĥ": 305,
      "à¶½à·Ĭà¶½": 306,
      "à·Ļà¶ļà·Ĭ": 307,
      "Ġà¶ħà¶´à·Ĵ": 308,
      "Ġà¶»": 309,
      "à¶¯à·Ĭ": 310,
      "à·Ħà·Ķ": 311,
      "...": 312,
      "Ġà·Ģà·Ĳ": 313,
      "Ġà·Ģà·Ļ": 314,
      "à¶¯à·Ĵ": 315,
      "Ġà·Ģà·Ļà¶±": 316,
      "à¶¸à·Ķ": 317,
      "à¶ľà¶±à·Ĭà¶±": 318,
      "Ġà¶ļà·ľ": 319,
      "Ġà¶īà¶±à·Ĭà¶±": 320,
      "...čĊ": 321,
      "à·Ģà¶¯": 322,
      "Ġà¶ļà·Ĵ": 323,
      "à·Ĥ": 324,
      "à¶¸à·ı": 325,
      "à¶ľà·Ļ": 326,
      "Ġà·Ħà·Ĳ": 327,
      "à¶¢": 328,
      "Ġà¶¸à·Ļ": 329,
      "Ġà·Ģà·Ļà¶±à·Ĭà¶±": 330,
      "à·ıà¶»": 331,
      "à¶°": 332,
      "à¶ħà¶´à·Ĵ": 333,
      "à¶§à·Ĭ": 334,
      "à·ĸ": 335,
      "à¶Ńà·ı": 336,
      "Ġà¶¯à·Ļ": 337,
      "à·Ħà·ľ": 338,
      "à·Ĳà¶±à·Ĭ": 339,
      "Ġà¶±à·Ĵ": 340,
      "âĪĻčĊ": 341,
      "Ġà¶Ķà¶ºà·ıà¶§": 342,
      "à¶Ĵà¶ļ": 343,
      "à¶¸à¶ºà·Ĵ": 344,
      "à·Ķà·Ģà¶±à·Ĭ": 345,
      "Ġà¶ľà·Ĳà¶±": 346,
      "Ġà¶ºà¶±à·Ĭà¶±": 347,
      "Ġà¶¢": 348,
      "à¶ĳà¶ºà·ı": 349,
      "Ġà·Ħà·Ĵà¶Ń": 350,
      "à·ĥà·Ĵ": 351,
      "Ġà·Ħà¶»à·Ĵ": 352,
      "Ġà·Ģà¶ľà·ļ": 353,
      "à¶¯à·Ķ": 354,
      "à¶´à·ı": 355,
      "à¶½à·Ĵ": 356,
      "Ġà¶ķà¶±": 357,
      "à·ģà·Ĭ": 358,
      "Ġà¶¸à·ľà¶ļ": 359,
      "à·Ļà¶±à·Ģà·ı": 360,
      "à·Ģà·Ļ": 361,
      "à·Ģà¶Ńà·Ĭ": 362,
      "à¶ĩ": 363,
      "Ġà¶¸à¶ľà·ļ": 364,
      "..čĊ": 365,
      "à¶§à¶¸": 366,
      "Ġà·Ģà·Ĳà¶©": 367,
      "à¶Ńà¶»": 368,
      "Ġà¶¯à¶±à·Ĭà¶±": 369,
      "Ġà¶¸à·Ĵ": 370,
      "Ġà¶´à·Ĭ": 371,
      "à·ľà¶©": 372,
      "Ġà¶´à·Ĵ": 373,
      "Ġà¶±à·Ĳà·Ħà·Ĳ": 374,
      "à¶±à¶º": 375,
      "à¶ľà·Ļà¶±": 376,
      "Ġà¶ļà·ı": 377,
      "à¶ļà·ľ": 378,
      "Ġà¶¸à·ľ": 379,
      "Ġà·Ģà·Ļà¶½à·ı": 380,
      "Ġà¶¶à¶½": 381,
      "Ġ?čĊ": 382,
      "à·ĥà·ı": 383,
      "Ġà¶ľà¶±à·Ĭà¶±": 384,
      "à¶ļà¶»": 385,
      "à¶´à·Ķ": 386,
      "à·Ħà·ı": 387,
      "à¶ļà¶§": 388,
      "à¶¯à·Ĭà¶¯": 389,
      "à¶¯à¶»": 390,
      "à¶½à¶§": 391,
      "à¶§à·Ĵ": 392,
      "Ġà¶ļà·Ĵà¶ºà¶±à·Ĭà¶±": 393,
      "Ġà¶Ńà·Ĵ": 394,
      "Ġà¶ĳà¶ļà·Ĭà¶ļ": 395,
      "à·Ĵà¶ºà¶§": 396,
      "à¶¸à¶¯": 397,
      "Ġà¶¯à·Ļà¶±à·Ĭà¶±": 398,
      "à¶Ńà·Ĵà¶º": 399,
      "à·Ģà·ļ": 400,
      "Ġà¶§": 401,
      "à¶Ńà¶±": 402,
      "Ġà·Ģà·Ķ": 403,
      "à·Ħà·Ĵ": 404,
      "Ġà¶¯à·ļ": 405,
      "à·ĵà¶¸": 406,
      "Ġà¶´à·Ĳ": 407,
      "à¶łà·Ĭ": 408,
      "âĢįà¶º": 409,
      "à¶ļà·Ķ": 410,
      "Ġà¶±à·Ļ": 411,
      "Ġà¶ļà·Ĳ": 412,
      "Ġà·ĥà·Ĵ": 413,
      "à·Ħà¶»à·Ĵ": 414,
      "à¶±à·Ģ": 415,
      "Ġà¶¶à·Ĳ": 416,
      "à·ĥà·Ķ": 417,
      "à¶¸à·Ļ": 418,
      "à¶Ł": 419,
      "à¶½à·Ĵà¶±à·Ĭ": 420,
      "à¶ļà·Ĵ": 421,
      "à¶Ķà¶ºà·ıà¶§": 422,
      "Ġ.čĊ": 423,
      "à¶ī": 424,
      "à¶¹": 425,
      "à¶´à·Ĭ": 426,
      "à·Ħà·ļ": 427,
      "à¶ļà·Ĭà·Ĥ": 428,
      "Ġà·Ħà·ľà¶³": 429,
      "Ġà¶¸à·ļà¶ļ": 430,
      "Ġà¶Ńà¶¸à¶ºà·Ĵ": 431,
      "Ġà¶ļà·Ļà¶±": 432,
      "Ġà¶´à·Ķà·ħ": 433,
      "Ġà¶±à¶¸à·Ĭ": 434,
      "Ġà¶¯à·Ļà¶ºà¶ļà·Ĭ": 435,
      "à¶±à¶¸à·Ĭ": 436,
      "Ġà¶ļà·Ĵà¶ºà¶½": 437,
      "à¶¯à·ı": 438,
      "Ġà¶¯à·Ĳà¶±à·Ĭ": 439,
      "Ġà¶ļà·Ĵà·Ģà·Ĭ": 440,
      "Ġà¶ĳà¶´à·ı": 441,
      "à¶§à·Ĵà¶º": 442,
      "à¶¸à·ľà¶ļ": 443,
      "à¶±à·Ģà¶¯": 444,
      "Ġà¶Ķà¶¶": 445,
      "à·Ĵà¶ļ": 446,
      "à¶łà·Ĭà¶ł": 447,
      "Ġà¶´à·Ķà·ħà·Ķà·Ģà¶±à·Ĭ": 448,
      "Ġà¶ľà·Ĵ": 449,
      "à¶½à·ļ": 450,
      "Ġà¶¸à·Ĵà¶±à·Ĵ": 451,
      "à¶±à·Ķ": 452,
      "à¶»à·ı": 453,
      "à¶ºà¶§": 454,
      "à·Ħà·Ļà¶¸": 455,
      "Ġà¶ħà¶»": 456,
      "Ġà¶ĳà¶±à·Ĭà¶±": 457,
      "Ġà¶¸à·Ķ": 458,
      "à¶ĭ": 459,
      "ĠâĢį": 460,
      "Ġà¶ķà¶±à·ļ": 461,
      "à¶±à·Ļ": 462,
      "Ġà¶¯à·Ĳà¶±": 463,
      "Ġà¶ħà·Ģ": 464,
      "à¶ºà·ļ": 465,
      "à¶ļà·Ĭà¶¯": 466,
      "Ġà¶¸à·ı": 467,
      "Ġà¶¸à·Ĳ": 468,
      "Ġà·ĥà·Ĭ": 469,
      "à·Ħà·Ĭ": 470,
      "à·Ĩ": 471,
      "à¶¸à·Ĵ": 472,
      "Ġ,": 473,
      "Ġà¶ļà¶Ńà·ı": 474,
      "Ġà¶Ńà·Ĵà¶¶": 475,
      "à¶®": 476,
      "Ġà¶¯à·ı": 477,
      "Ġà¶ħà¶´": 478,
      "à¶¸à¶Ĥ": 479,
      "Ġà¶¯à·Ķ": 480,
      "Ġà¶Ńà·Ĵà¶ºà·Ļà¶±à·Ĭà¶±": 481,
      "à¶ļà·ı": 482,
      "Ġà¶Ńà·Ĵà¶ºà·Ļà¶±à·Ģà·ı": 483,
      "à¶Ńà·Ĭà¶Ńà·ı": 484,
      "à¶¸à·Ĭà¶¶": 485,
      "Ġà¶¯à·Ĵ": 486,
      "à¶©à·ı": 487,
      "à¶¸à¶ļà·Ĭ": 488,
      "Ġà¶Ńà·ı": 489,
      "à·Ģà¶±à·Ĭà¶±": 490,
      "Ġà¶¯à·Ĳ": 491,
      "Ġà¶Ķà·Ħà·Ķ": 492,
      "Ġà¶Ķà¶ºà·ıà¶ľà·ļ": 493,
      "Ġà¶ļà¶»à¶±à·Ģà·ı": 494,
      "Ġà¶ĩà¶Ńà·Ĵ": 495,
      "à¶©à·Ĵ": 496,
      "à·Ħà·ľà¶¸à¶¯": 497,
      "Ġà·Ħà·Ĳà¶¸": 498,
      "à¶©à·Ĭ": 499,
      "à¶«à·ı": 500,
      "à·ľà¶Ńà·Ĭ": 501,
      "Ġà·ĥà¶¸": 502,
      "à·Ģà·Ķà¶±à·Ĭ": 503,
      "Ġà·Ģà·Ļà¶±à·Ģà·ı": 504,
      "Ġà¶ĳà¶ļà¶ļà·Ĭ": 505,
      "à¶½à·Ķ": 506,
      "Ġà·ĥà·Ħ": 507,
      "Ġà·Ħà·ľà¶¯": 508,
      "Ġà¶±à·Ĳà¶Ńà·Ĵ": 509,
      "à·Ģà·Ķà¶»à·Ķ": 510,
      "Ġà¶¸à·ıà·Ģ": 511,
      "à·ħà·Ķ": 512,
      "Ġà¶ħà¶´à·Ĵà¶§": 513,
      "Ġà¶ľà·ľà¶©": 514,
      "Ġà¶ĩà¶Ńà·Ĭà¶Ń": 515,
      "à¶±à·Ĭà¶±à·Ļ": 516,
      "Ġà¶ļà·Ĭ": 517,
      "Ġà¶ļà¶»à¶±à·Ĭà¶±à·ļ": 518,
      "à·ļà¶¯": 519,
      ",čĊ": 520,
      "à·ľà¶»": 521,
      "Ġà¶¸à¶Ĥ": 522,
      "à¶¸à¶ľà·ļ": 523,
      "Ġà¶ļà·Ĳà¶¸": 524,
      "à¶¸à¶±à·Ĭ": 525,
      "Ġà¶¶à·ĳ": 526,
      "Ġà¶ħà·Ħ": 527,
      "Ġà¶´à·Ķà¶½": 528,
      "Ġà¶ĭà¶¯": 529,
      "à¶§à·Ķ": 530,
      "Ġà¶¶à¶½à¶±à·Ĭà¶±": 531,
      "à¶Ńà·Ķà·Ģ": 532,
      "à·Ģà¶»": 533,
      "Ġà·Ģà·Ĵà¶Ńà¶»": 534,
      "à¶Ńà·Ĵà¶±à·Ĭ": 535,
      "à·Ħà¶»": 536,
      "à¶ºà·Ļà¶±à·Ĭ": 537,
      "à¶Ķà·Ģà·Ĭ": 538,
      "Ġà¶ĳà·Ħà·Ļà¶¸": 539,
      "Ġà¶¯à¶±à·Ĭà¶±à·Ģà·ı": 540,
      "à·Ģà·ıà·ĥ": 541,
      "à¶ļà·ıà¶»": 542,
      "à¶Ĵà¶Ńà·Ĭ": 543,
      "Ġà¶ľà·Ļ": 544,
      "à¶ºà·Ļà¶ļà·Ĭ": 545,
      "à¶·": 546,
      "Ġà¶´à·Ķà¶½à·Ķà·Ģà¶±à·Ĭ": 547,
      "à·ĥà·Ĭà·ĥà·Ķ": 548,
      "Ġà¶§à·Ĵà¶ļ": 549,
      "Ġà¶´à·ı": 550,
      "à¶Ńà·Ĵà¶ºà·Ĵ": 551,
      "à¶»à·ĵ": 552,
      "à¶¸à·ļà¶ļ": 553,
      "Ġà·ĥà·Ĳ": 554,
      "à¶«à·Ķ": 555,
      "Ġà¶½à·Ĳ": 556,
      "Ġà¶ļà·Ļà¶±à·Ļà¶ļà·Ĭ": 557,
      "Ġà¶´à·ĥà·Ĭà·ĥ": 558,
      "in": 559,
      "à¶¸à·ľ": 560,
      "Ġà¶±à·ľ": 561,
      "Ġà¶Ķà¶ºà·ıà·Ģ": 562,
      "Ġà·Ħà¶¯": 563,
      "Ġ!čĊ": 564,
      "à¶Ńà·ıà·Ģ": 565,
      "Ġà¶¸à·Ļà¶Ńà¶±": 566,
      "à·ļà¶»": 567,
      "Ġà¶īà¶±à·Ĭà¶±à·ļ": 568,
      "âĪĻâĪĻ": 569,
      "à¶ľà·Ĭ": 570,
      "à·Ģà¶½à·Ĭ": 571,
      "Ġ...": 572,
      "Ġà¶ºà·ı": 573,
      "Ġà¶Ńà·Ĵà¶ºà·Ļà¶±": 574,
      "à¶¯à·Ĳà¶±à·Ĭ": 575,
      "à¶Ķà¶¶": 576,
      "à¶«à¶º": 577,
      "Ġà¶¸à·ľà¶ļà¶¯": 578,
      "Ġà¶©": 579,
      "Ġ-": 580,
      "Ġà¶ļà·ľà·Ħà·ľà¶¸à¶¯": 581,
      "à¶±à·Ĳ": 582,
      "à¶ľà·Ĵ": 583,
      "à¶¯à·Ļ": 584,
      "Ġà·Ģà·Ĵà·ģà·Ĭ": 585,
      "Ġà·Ħà·ľà¶ºà·ı": 586,
      "Ġà¶ļà·Ļ": 587,
      "à¶Ĩ": 588,
      "Ġà·Ģà¶½": 589,
      "à·Ķà·Ģà·ļ": 590,
      "Ġà¶ļà·Ĵà¶ºà¶±à·Ĭà¶±à·ļ": 591,
      "à·Ģà·Ļà¶ºà·Ĵ": 592,
      "Ġà¶ł": 593,
      "à¶Ńà¶ļ": 594,
      "Ġà¶ļà·ħ": 595,
      "à¶ľà·Ļà¶±à·Ĭ": 596,
      "Ġà¶±à·Ĵà·ĥà·ı": 597,
      "à¶Ńà·Ĭà¶Ńà·ļ": 598,
      "à¶ļà·Ŀ": 599,
      "Ġà¶Ĩà¶»": 600,
      "à¶§à¶±à·Ĭ": 601,
      "à¶¶à·ı": 602,
      "Ġà¶ħà¶´à·ļ": 603,
      "Ġà·Ħà·Ĵà¶§à·Ĵà¶º": 604,
      "à¶Ķà·Ħà·Ķ": 605,
      "à¶ħà¶´à·Ĵà¶§": 606,
      "Ġà¶¢à·ĵ": 607,
      "à¶ļà·ľà¶§": 608,
      "à¶ļà·ļ": 609,
      "à¶łà·Ĭà¶łà¶»": 610,
      "à¶±à·Ĭà¶§": 611,
      "à·Ģà·Ķà¶¯": 612,
      "Ġà¶Ńà·Ĵà¶ºà·Ļà¶±à·Ĭà¶±à·ļ": 613,
      "Ġà¶ļà¶»à¶½à·ı": 614,
      "âĢįà¶»à·Ĵ": 615,
      "Ġà¶ľà·ľà¶©à¶ļà·Ĭ": 616,
      "Ġà·Ħà¶»": 617,
      "à·Ħà·Ļà¶±": 618,
      "Ġà·ĥà·ı": 619,
      "Ġà¶ħà¶º": 620,
      "Ġà¶ħà¶¯": 621,
      "Ġà¶¸à¶»": 622,
      "Ġà·Ģà·Ĵà·ģà·Ĭà·Ģà·ıà·ĥ": 623,
      "Ġà·ĥà·Ķ": 624,
      "à·Ķà·Ģà·Ļà¶±à·Ĭ": 625,
      "Ġà¶¶à¶½à·ı": 626,
      "Ġà·Ģà·ı": 627,
      "Ġà¶īà¶±à·Ĭà¶±à·Ģà·ı": 628,
      "à·Ģà·ĥ": 629,
      "à¶±à·ĳ": 630,
      "Ġà¶¶à·Ĵ": 631,
      "Ġà¶½à·Ĳà¶¶": 632,
      "Ġà¶ĩà¶º": 633,
      "à¶½à·Ŀ": 634,
      "à¶¸à¶Ńà·Ĭ": 635,
      "Ġà¶Ńà¶»": 636,
      "Ġà¶¸à·Ħ": 637,
      "Ġà¶Ńà·Ĳà¶±": 638,
      "à¶ļà·Ĵà¶±à·Ĭ": 639,
      "Ġà¶Ĵà¶Ńà·Ĭ": 640,
      "Ġà¶ĩà¶Ńà·Ķ": 641,
      "Ġà¶±à·ļà¶¯": 642,
      "Ġà¶ļà¶»à¶±": 643,
      "à¶Ńà·Ķà¶»": 644,
      "à¶¯à·Ĭà¶°": 645,
      "à·Ĵà¶ºà·ļ": 646,
      "Ġà¶¶à·ľ": 647,
      "Ġà¶ķà¶±à·Ļ": 648,
      "Ġà¶Ķà¶ºà·ıà¶ľà·Ļ": 649,
      "Ġà¶ļà¶½à·Ĵà¶±à·Ĭ": 650,
      "Ġà¶¸à·Ļà·Ħà·Ļ": 651,
      "Ġà·Ģà·ļ": 652,
      "Ġà¶ļà·Ĵà·ĥà·Ĵ": 653,
      "à¶¸à¶±": 654,
      "âĢįà¶ºà·ı": 655,
      "\"čĊ": 656,
      "Ġà¶Ńà·Ķ": 657,
      "Ġà¶ºà¶±à·Ģà·ı": 658,
      "à·ĺ": 659,
      "Ġà¶ĳà¶ºà·ıà¶§": 660,
      "Ġà¶ĭà¶¹": 661,
      "à·Ķà·Ģà¶ļà·Ĭ": 662,
      "à¶ĩà¶ºà·Ĵ": 663,
      "Ġà·ģ": 664,
      "Ġà¶±à·Ļà·Ģà·Ļà¶ºà·Ĵ": 665,
      "Ġà¶ļà·Ķ": 666,
      "à¶±à·Ĵà¶º": 667,
      "Ġà·Ģà¶½à¶§": 668,
      "à¶©à·Ķ": 669,
      "à¶Ńà·ļ": 670,
      "âĢįà¶»à·ģà·Ĭ": 671,
      "à¶ļà¶¸à·Ĭ": 672,
      "à¶ºà·Ĵà¶±à·Ĭ": 673,
      "Ġà¶Ńà·Ģ": 674,
      "à¶±à¶ºà¶ļà·Ĭ": 675,
      "Ġà¶±à·Ĵà¶º": 676,
      "à·Ģà·Ĵà¶º": 677,
      "à¶½à·Ļ": 678,
      "Ġà·Ħà·Ĵà¶Ńà¶±à·Ĭà¶±à·ļ": 679,
      "à·ĥà¶¸": 680,
      "à¶§à¶»à·Ĭ": 681,
      "an": 682,
      "à·Ħà·Ĵà¶±à·Ĭ": 683,
      "er": 684,
      "Ġà¶ºà¶±à·Ĭà¶±à·ļ": 685,
      "à¶Ńà·Ĭà·Ģ": 686,
      "à¶½à¶º": 687,
      "à¶ļà¶º": 688,
      "Ġà·Ģà·Ļà¶±à·Ĭà¶±à·ļ": 689,
      "Ġà¶Ķà·Ģà·Ķà¶±à·Ĭ": 690,
      "Ġà·Ģà·Ĵà¶¯à·Ĵ": 691,
      "à¶Ńà·Ĭà¶¸": 692,
      "Ġà¶Ńà·Ĵà¶¶à·Ķ": 693,
      "à¶¯à·ĵ": 694,
      "à¶´à·Ħà·Ķ": 695,
      "Ġà·ĥà¶»à·Ĭ": 696,
      "Ġà¶ľà·Ĳ": 697,
      "it": 698,
      "Ġà¶´à·ľà¶©": 699,
      "Ġà¶Ķà¶º": 700,
      "Ġà¶ļà·Ĵà¶ºà¶±": 701,
      "à·Ģà¶§": 702,
      "Ġà·Ģà¶ľà·ļà¶¸": 703,
      "Ġà·Ģà·Ķà¶±à·ı": 704,
      "Ġà¶´à·ľ": 705,
      "à¶ľà·Ķ": 706,
      "on": 707,
      "Ġà¶ļà¶½à·ı": 708,
      "Ġà¶ĭà¶¯à·Ģà·Ĭ": 709,
      "Ġà·Ģà·Ĵà¶Ńà¶»à¶ºà·Ĵ": 710,
      "Ġà¶¸à·ľà¶ļà¶ļà·Ĭà¶¯": 711,
      "Ġà¶ĩà·Ģà·Ĵ": 712,
      "Ġà¶Ĩà¶¯à¶»": 713,
      "à·Ĵà¶ºà¶ļà·Ĭ": 714,
      "Ġà¶ĳà¶ļà¶§": 715,
      "Ġà¶ĩà¶ºà·Ĵ": 716,
      "Ġà¶ĳà¶ºà·ıà·Ģ": 717,
      "à¶¸à·ľà¶ļà¶¯": 718,
      "Ġà·ħ": 719,
      "à¶Ńà·Ķà¶»à·Ķ": 720,
      "Ġà·Ģà¶©à·ı": 721,
      "à¶¶à·Ĭ": 722,
      "Ġà¶·": 723,
      "à·Ĥà·Ĭ": 724,
      "à¶«à·Ĭ": 725,
      "à¶¶à¶½": 726,
      "à·ıà·Ģà·Ļà¶±à·Ĭà¶±": 727,
      "Ġà¶¯à·ļà·Ģà¶½à·Ĭ": 728,
      "Ġà¶¸à·Ĵà¶±à·Ĵà·ĥà·Ĭà·ĥà·Ķ": 729,
      "Ġà·Ħà·ı": 730,
      "à¶»à·Ķà·Ģ": 731,
      "à·Ģà·Ĳ": 732,
      "Ġà·Ĩ": 733,
      "à¶½à·Ĭà¶½à·ı": 734,
      "à·ıà·Ģà·Ĵ": 735,
      "à·Ħà·Ļà¶±à¶¸à·Ĭ": 736,
      "à·Ģà·Ļà¶±": 737,
      "à·Ħà·ľà¶³": 738,
      "à¶ºà·Ķ": 739,
      "Ġà¶¯à·Ĳà¶ļà·Ĭà¶ļ": 740,
      "Ġà¶ľà·Ļà¶¯à¶»": 741,
      "à¶ºà·Ļ": 742,
      "Ġà·Ģà·Ļà¶±à·Ķà·Ģà·Ļà¶±à·Ĭ": 743,
      "Ġà·Ģà·Ĵà¶¯à·Ĵà·Ħ": 744,
      "à¶īà¶Ńà·Ĵà¶±à·Ĭ": 745,
      "Ġà¶ħà¶¸à·Ĭ": 746,
      "Ġ\"": 747,
      "à·ĥà¶±à·Ĭ": 748,
      "Ġà·Ģà·Ĵà¶¯": 749,
      "Ġà¶ļà·Ģà¶¯": 750,
      "à¶ĳà¶ļ": 751,
      "Ġà¶¸à·ľà¶±à·Ģà¶¯": 752,
      "à¶½à·Ĭà¶½à·Ĵ": 753,
      "Ġà¶Ńà·ļ": 754,
      "à·ıà¶±": 755,
      "à·Ģà·Ļà¶±à·Ĭà¶±": 756,
      "Ġà¶Ĭ": 757,
      "me": 758,
      "à¶±à·Ĭà¶¯": 759,
      "Ġà¶Ĩà¶´à·Ħà·Ķ": 760,
      "Ġà¶ļà·Ĳà¶¸à¶Ńà·Ĵ": 761,
      "Ġà¶ļà¶»à¶±à·Ĭà¶±à·Ļ": 762,
      "à¶»à¶ļ": 763,
      "Ġà¶ħà¶½à·Ĭà¶½": 764,
      "Ġà¶īà·Ģà¶»": 765,
      "à·ıà·Ģà¶ļà·Ĭ": 766,
      "Ġà¶Ķà·Ģà·Ĭ": 767,
      "à¶ħà¶´": 768,
      "Ġà¶§à·Ĵà¶ļà¶ļà·Ĭ": 769,
      "à·Ģà¶Ń": 770,
      "Ġà¶ºà·Ķ": 771,
      "Ġà¶ļà·Ĵà·Ģà·Ĭà·Ģà·ı": 772,
      "à·ıà·Ģà¶Ńà·Ĭ": 773,
      "à¶Ĥà¶ľ": 774,
      "Ġà¶ľà·Ĵà¶ºà·ı": 775,
      "Ġà¶ľà·Ĵà·Ħà·Ĵà¶±à·Ĭ": 776,
      "à¶ºà·Ŀ": 777,
      "à¶»à·ļ": 778,
      "Ġà¶¯à¶±à·Ĭà¶±à·ļ": 779,
      "à¶§à·Ĭà¶§": 780,
      "à·ľà¶ļà·Ķ": 781,
      "à·ĥà·Ĵà¶º": 782,
      "à·Ŀà¶¸": 783,
      "Ġt": 784,
      "Ġà¶ĩà¶Ńà·Ĭà¶Ńà¶§à¶¸": 785,
      "Ġà¶ļà·Ģà·Ķà¶¯": 786,
      "à·Ħà·Ļà¶¯": 787,
      "à·Ģà¶ļà·Ĭ": 788,
      "à¶ĩà¶º": 789,
      "Ġà¶±à·Ĳà¶¯à·Ĭà¶¯": 790,
      "à¶ºà¶±à·Ĭ": 791,
      "Ġà¶¶à·Ĳà¶»à·Ĵ": 792,
      "Ġà¶Ĩà¶»à¶ļà·Ĭà·Ĥ": 793,
      "à¶¸à·Ķà¶Ńà·Ĭ": 794,
      "à·Ħà·ľà¶¸": 795,
      "à¶Ķà¶ºà·ıà¶ľà·ļ": 796,
      "à¶¸à·Ĵà¶±à·Ĭ": 797,
      "Ġà·Ģà·Ļà¶ºà·Ĵ": 798,
      "Ġà¶ħà¶Ń": 799,
      "à¶ķ": 800,
      "Ġà·Ģà·Ĳà¶»": 801,
      "Ġ(": 802,
      "à¶½à·ĵ": 803,
      "Ġà¶Ńà¶¸à·ı": 804,
      "Ġà¶ļà·Ĵà¶ºà¶±à·Ĭà¶±à·Ļ": 805,
      "Ġà¶ļà·ĳ": 806,
      "Ġà¶ķà¶±à·ı": 807,
      "à·ľà¶¸": 808,
      "Ġà¶ļà·Ŀ": 809,
      "Ġà¶¯à·Ļà¶ļ": 810,
      "à¶ĭà¶¹": 811,
      "à¶Ńà·Ĭà¶Ńà·Ķ": 812,
      "Ġà¶´à·Ļ": 813,
      "Ġà¶±à·Ģ": 814,
      "à¶³à·Ķ": 815,
      "à¶´à¶±à·Ĭ": 816,
      "à·Ķà·Ģà·Ļ": 817,
      "Ġà¶´à·ļ": 818,
      "Ġà¶ļà·ıà¶»à·Ĭ": 819,
      "Ġà¶¶à·Ĳà·Ħà·Ĳ": 820,
      "Ġà¶»à·ı": 821,
      "Ġà¶ĭà¶±à·ı": 822,
      "à¶½à·Ĵà¶º": 823,
      "Ġà·Ħà·Ļ": 824,
      "à·ĥà·Ļ": 825,
      "à¶ļà¶±à·Ĭ": 826,
      "Ġà¶Ńà·ļà¶»à·Ķ": 827,
      "à¶±à·ĵ": 828,
      "Ġà¶ľà·Ļà¶±": 829,
      "à¶Ńà¶ļà·ľà¶§": 830,
      "Ġà¶ĳà¶ļà·ļ": 831,
      "Ġà¶¢à·ĵà·Ģà·Ĵ": 832,
      "à·Ķà·Ģà¶§": 833,
      "Ġà¶´à·ıà¶»": 834,
      "à¶Ńà¶º": 835,
      "à¶¸à·Ĭà¶´": 836,
      "or": 837,
      "Ġà¶½à·Ŀ": 838,
      "à·Ħà·ĥà·Ĭ": 839,
      "Ġà·ĥà¶Ńà·Ķ": 840,
      "à¶Ńà·ĸ": 841,
      "Ġà¶´à·Ħ": 842,
      "à¶±à·Ĭà¶°": 843,
      "à·ħà·Ĵ": 844,
      "Ġà¶ľà·Ħ": 845,
      "Ġà·ĥà¶Ĥ": 846,
      "à·ĵà¶¸à¶ļà·Ĭ": 847,
      "Ġà¶ĳà¶±à·Ģà·ı": 848,
      "00": 849,
      "Ġà¶Ńà·Ĵà¶¶à·Ĭ": 850,
      "Ġin": 851,
      "Âł": 852,
      "Ġà¶ĳà¶ºà·ıà¶½": 853,
      "Ġà¶īà¶ļà·Ĭ": 854,
      "Ġà¶Ķà¶ļà·Ĭà¶ļ": 855,
      "Ġà¶±à¶¸": 856,
      "Ġà¶½à·ľà¶ļà·Ķ": 857,
      "Ġà¶¯à·Ģà·ĥ": 858,
      "à·Ģà·ĵ": 859,
      "Ġà¶īà¶±à·Ĭà¶±à·Ļ": 860,
      "Ġà·Ħà¶¸à·Ĭà¶¶": 861,
      "Ġà¶ħà¶±": 862,
      "Ġà·Ħà·Ķ": 863,
      "Ġà¶ļà¶½": 864,
      "à¶«à·Ĵ": 865,
      "à¶®à·ı": 866,
      "Ġà¶´à·Ĵà¶§": 867,
      "à·Ģà·Ļà¶½à·ı": 868,
      "Ġà¶ļà·Ĵà·ĥà·Ĵà¶¸": 869,
      "Ġà·Ħà·ľà¶³à¶ºà·Ĵ": 870,
      "à¶ľà·ı": 871,
      "âĻ": 872,
      "à·ĥà¶ļà·Ĭ": 873,
      "à¶«à·ıà¶ļà¶»": 874,
      "Ġà¶ľà·ļ": 875,
      "à·Ħà·ľà¶³à¶ºà·Ĵ": 876,
      "Ġà¶´à·ĥà·Ĭà·ĥà·ļ": 877,
      "Ġà·Ģà·Ļà¶±à·ĥà·Ĭ": 878,
      "à·ĥà·ļ": 879,
      "Ġà¶¯à·ıà¶±à·Ĭà¶±": 880,
      "Ġà¶ļà·Ģà¶¯à·ıà·Ģà¶Ńà·Ĭ": 881,
      "à¶ºà¶±à·Ĭà¶±": 882,
      "Ġà¶Ĵà¶ļà¶§": 883,
      "ar": 884,
      "at": 885,
      "Ġà¶ħà¶±à·Ĵ": 886,
      "Ġà¶ļà¶»à¶ľà¶±à·Ĭà¶±": 887,
      "âĢįâĢį": 888,
      "Ġà·ĥà·Ļ": 889,
      "à¶ľà¶Ńà·Ĭà¶Ńà·ı": 890,
      "Ġà·Ģà·Ĵà¶±à·ı": 891,
      "Ġà¶¸à·Ĳà¶»": 892,
      "Ġà¶Ĵà·Ģà·ı": 893,
      "Ġà¶´à·Ĳà¶Ńà·Ĭà¶Ń": 894,
      "Ġà·Ħà·Ĵà¶§à·Ĵà¶ºà·ļ": 895,
      "à¶½à¶ļà·Ĭ": 896,
      "Ġà¶ļà¶½à·ļ": 897,
      "à¶ľà¶Ńà·Ĭà¶Ń": 898,
      "Ġà¶ļà¶»à·ı": 899,
      "Ġà¶ĳà¶ºà·ıà¶ľà·ļ": 900,
      "à·Ĵà¶ºà·Ĵ": 901,
      "à¶ºà·ıà·Ģ": 902,
      "Ġà¶´à¶»à·Ĵ": 903,
      "Ġà¶¯à·Ļà¶±": 904,
      "à¶Ńà·Ĭà¶±à¶¸à·Ĭ": 905,
      "à·Ļà¶ºà·Ĵ": 906,
      "Ġà¶¸à¶ľà·Ļ": 907,
      "à·Ĳà¶ļà·Ĭ": 908,
      "Ġà¶ļà·ħà·ı": 909,
      "Ġà¶Ńà·Ĵà¶ºà·Ļà¶±à·Ĭà¶±à·Ļ": 910,
      "à¶ºà¶ļ": 911,
      "à·Ĵà¶Ń": 912,
      "Ġà¶»à·Ĳ": 913,
      "Ġà¶īà¶¯": 914,
      "Ġà¶Ńà·Ĵà¶ºà¶±à·Ģà·ı": 915,
      "Ġà¶īà¶³": 916,
      "à¶Ķà·Ģà·Ķà¶±à·Ĭ": 917,
      "à·Ļà¶±à·Ĭà¶±à·ļ": 918,
      "à¶ľà·Ŀ": 919,
      "Ġà¶ºà¶¸à·Ķ": 920,
      "à¶¯à·ļ": 921,
      "Ġà¶ħà·Ħà¶±à·Ĭà¶±": 922,
      "Ġà¶ĭà¶Ńà·Ĭ": 923,
      "à¶¸à·Ļà¶ºà·Ĵ": 924,
      "à¶±à·Ĭà¶Ń": 925,
      "Ġà¶ĳà¶½": 926,
      "à·ľà¶»à·ľ": 927,
      "Ġà·Ħà·Ĵà¶Ńà¶±à·Ĭà¶±à·Ļ": 928,
      "à·Ģà·Ķà¶»à·Ķà¶¯à·Ķ": 929,
      "à¶§à¶¯": 930,
      "Ġà¶¸à·ľà¶±": 931,
      "à¶±à·Ĭà·Ģ": 932,
      "à¶±à·ıà¶¯": 933,
      "Ġà¶ºà¶±": 934,
      "Ġà¶ļà·Ļà¶½à·Ĭà¶½": 935,
      "Ġà¶±à·Ļà¶¸à·Ļà¶ºà·Ĵ": 936,
      "Ġà¶Ĩà·Ģà·ļ": 937,
      "Ġà¶ļà·Ĵà·Ģà·Ĭà·Ģà·ļ": 938,
      "Ġà·Ģà·Ķà¶±à·ļ": 939,
      "à¶¸à·ľà¶ļà¶ļà·Ĭà¶¯": 940,
      "Ġà·Ģà·Ĵà¶¯à·Ĵà·Ħà¶§": 941,
      "Ġà¶´à·ľà¶©à·Ĵ": 942,
      ")čĊ": 943,
      "Ġà¶Ńà·ıà¶Ńà·Ĭà¶Ńà·ı": 944,
      "à¶Ķà·Ħà·Ĭ": 945,
      "âĢįà¶»à·ĵ": 946,
      "Ġà¶±à·ı": 947,
      "Ġà·Ģà¶½à·Ĵà¶±à·Ĭ": 948,
      "à¶±à·ıà·Ģ": 949,
      "Ġà¶ħà¶ºà·Ĵ": 950,
      "à¶ĩà¶Ńà·Ĭà¶Ń": 951,
      "à¶ļà¶»à·Ķ": 952,
      "à·Ģà¶¸": 953,
      "Ġ...čĊ": 954,
      "Ġà¶ĭà¶´": 955,
      "Ġà¶ľà·ľ": 956,
      "Ġà¶¸à¶Ńà¶ļ": 957,
      "à·Ħà·Ķà·Ģ": 958,
      "âĢįà¶»à·ı": 959,
      "à·Ģà¶½": 960,
      "à·Ħà·ļà¶ºà·Ĵ": 961,
      "Ġà·Ļ": 962,
      "Ġà¶ľà¶Ńà·Ĭà¶Ńà·ı": 963,
      "Ġà·ĥà¶¸à·Ĭà¶¶": 964,
      "Ġà¶´à¶§à¶±à·Ĭ": 965,
      "à¶©à¶ļà·Ĭ": 966,
      "Ġà·Ħà·ľà¶ºà·ıà¶ľà¶±à·Ĭà¶±": 967,
      "Ġà·Ħà·Ĳà¶¸à¶¯": 968,
      "Ġà¶¯à¶±à·Ĭà¶±à·Ģ": 969,
      "à¶ļà¶»à¶±à·Ĭà¶±": 970,
      "à¶§à·Ĵà¶ºà·ı": 971,
      "Ġà¶»à·ĳ": 972,
      "Ġà¶Ńà·Ĵà¶ºà·ı": 973,
      "Ġà¶ļà·ľà·Ħà·Ļà¶¯": 974,
      "Ġà·Ģà·ĵ": 975,
      "Ġà¶Ķà¶¶à¶§": 976,
      "Ġà¶ļà·Ļà¶±à·ı": 977,
      "à¶»à¶º": 978,
      "Ġà¶¯à¶±à·Ĭà¶±à·Ģà¶¯": 979,
      "à¶ļà·Ķà¶Ńà·Ĭ": 980,
      "Ġà¶ħà¶Ńà·Ĭ": 981,
      "à¶¸à·ıà·Ģ": 982,
      "à¶¢à·Ĭ": 983,
      "Ġà·ĥà¶¸à·ıà·Ģà·Ļà¶±à·Ĭà¶±": 984,
      "à·Ħà·Ĳà¶¸": 985,
      "Ġà¶´à¶»": 986,
      "Ġà·Ģà·Ļà¶±à·Ĭà¶±à·Ļ": 987,
      "à·Ģà·Ĵà¶§": 988,
      "Ġà¶ħà·Ģà·ģà·Ĭ": 989,
      "Ġà¶Ńà·ļà¶»": 990,
      "à¶¸à·Ĳ": 991,
      "Ġà·ĥà¶½à·Ĭà¶½à·Ĵ": 992,
      "Ġà¶ļà·ĵ": 993,
      "Ġà·Ģà·Ĳà¶©à·Ĵ": 994,
      "Ġà¶ļà¶»à¶´à·Ķ": 995,
      "à¶ĳà¶±à·Ĭà¶±": 996,
      "Ġà¶ľà¶Ńà·Ĭà¶Ń": 997,
      "Ġà¶ļà·ľà¶§": 998,
      "Ġà¶¶à¶º": 999,
      "à¶Ķà¶º": 1000,
      "à¶Ĥà¶ł": 1001,
      "à·ĥà·Ħ": 1002,
      "à·Ĵà¶±à·Ĭà¶¯": 1003,
      "à¶»à·Ĭà¶«": 1004,
      "Ġà¶¯à·Ķà¶±à·Ĭà¶±": 1005,
      "Ġà·Ģà·Ĳà¶©à¶ļà·Ĭ": 1006,
      "à¶Ĭ": 1007,
      "à·ĥà¶»à·Ĭ": 1008,
      "Ġà·Ģà·Ķà¶±": 1009,
      "Ġà¶¶à·ı": 1010,
      "Ġà·Ģà·Ļà¶½à·ıà·Ģ": 1011,
      "à·Ĩà·Ĭ": 1012,
      "Ġà¶ĭà¶±": 1013,
      "Ġà¶¶à·Ļ": 1014,
      "âĻª": 1015,
      "à¶´à·Ĳ": 1016,
      "à¶ļà·Ĵà¶º": 1017,
      "à¶ļà¶½à·Ĭ": 1018,
      "à¶ļà·Ļ": 1019,
      "à·Ħà·ľà¶¯": 1020,
      "Ġà¶ħà·Ģà·Ķ": 1021,
      "à¶ļà·ľà·Ħà·ľà¶¸à¶¯": 1022,
      "Ġà¶¯à·Ĵà·Ħà·ı": 1023,
      "à¶ľà¶º": 1024,
      "à¶ĳà¶ºà·ıà¶§": 1025,
      "Ġà¶Ķà¶ļà·Ĭà¶ļà·ľà¶¸": 1026,
      "Ġà¶½à·Ĵ": 1027,
      "Ġà¶¯à¶±à·Ĭà¶±à·Ļ": 1028,
      "Ġà·Ħà·Ŀ": 1029,
      "Ġà¶ħà¶¸": 1030,
      "Ġà·Ģà·Ĵà¶¯à·Ĵà¶ºà¶§": 1031,
      "Ġà¶ļà·Ģà·Ķà¶»à·Ķ": 1032,
      "Ġà¶½à·Ļ": 1033,
      "Ġà¶¯à·Ĳà¶±à¶ľà¶±à·Ĭà¶±": 1034,
      "à¶½à·Ķà·Ģ": 1035,
      "à¶´à·ĥà·Ĭà·ĥ": 1036,
      "Ġà¶ķà¶±à·Ĵ": 1037,
      "Ġà¶¶à·Ģ": 1038,
      "Ġà·Ģà·Ĵà·ģ": 1039,
      "Ġà¶ļà¶§": 1040,
      "ity": 1041,
      "âĪĻâĪĻâĪĻ": 1042,
      ".\"čĊ": 1043,
      "Ġà¶ĳà¶ļà¶¸": 1044,
      "Ġà¶ĳà¶º": 1045,
      "Ġà·Ħà·ļ": 1046,
      "Ġà¶½à·Ĳà¶¶à·Ķ": 1047,
      "à¶¶à·Ĵ": 1048,
      "Ġà·Ħà¶»à·Ĵà¶ºà¶§": 1049,
      "Ġà·Ģà·Ħ": 1050,
      "à¶¶à¶½à¶±à·Ĭà¶±": 1051,
      "à¶¸à·ľà¶±": 1052,
      "Ġk": 1053,
      "à·ĥà¶¸à·Ħà¶»": 1054,
      "Ġà¶Ķà¶ºà·ıà¶½": 1055,
      "âĢįà¶»à·ļ": 1056,
      "Ġà¶½à·ļ": 1057,
      "Ġà¶ĩà·Ģà·Ĵà¶Ńà·Ĭ": 1058,
      "à·Ĵà¶ºà·Ŀ": 1059,
      "he": 1060,
      "Ġs": 1061,
      "Ġà¶¸à·ľà¶ļà¶ļà·Ĭ": 1062,
      "Ġà¶ºà¶±à·Ĭà¶±à·Ļ": 1063,
      "Ġà¶±à·Ĳà¶Ńà·Ĭà¶±à¶¸à·Ĭ": 1064,
      "ou": 1065,
      "Ġà¶¯à·Ķà·Ģ": 1066,
      "à·ĥà·Ĭà·ĥà¶±": 1067,
      "Ġà¶¶à·Ŀ": 1068,
      "à¶¸à¶º": 1069,
      "City": 1070,
      "Ġà¶ħà¶»à¶ľà·Ļà¶±": 1071,
      "à¶±à·Ĭà¶Ńà·Ĵ": 1072,
      "Ġà¶ļà·ľà¶½à·Ĭà¶½": 1073,
      "à¶°à·ı": 1074,
      "à¶¯à·Ļà¶±": 1075,
      "Ġà¶±à·Ĳà¶Ńà·Ķà·Ģ": 1076,
      "à·ħà·Ķà·Ģ": 1077,
      "Ġà·ĥà¶¸à·Ĭà¶¶à¶±à·Ĭà¶°": 1078,
      "Ġà¶ĳà·Ħà·Ļ": 1079,
      "Ġà¶ĳà¶½à·Ĵà¶ºà¶§": 1080,
      "à¶»à·ĵà¶ļà·Ĭà·Ĥ": 1081,
      "Ġà·Ħà·Ĵà¶§à·Ĵà¶ºà·ı": 1082,
      "Ġà¶Ńà¶¸à·Ķ": 1083,
      "Ġà¶Ńà·Ĵà¶¶à·Ĭà¶¶": 1084,
      "es": 1085,
      "Ġà¶ħà¶»à¶±à·Ĭ": 1086,
      "Ġà¶ļà¶»à·Ķ": 1087,
      "Ġà¶ľà·Ĵà¶º": 1088,
      "à¶łà·Ĭà¶łà·Ĵ": 1089,
      "ame": 1090,
      "à¶»à·Ĵà¶º": 1091,
      "Ġà¶ħà¶Ńà¶»": 1092,
      "âĢįà¶»à¶Ńà·Ĵ": 1093,
      "à·Ľ": 1094,
      "à¶«à¶ºà¶ļà·Ĭ": 1095,
      "à¶§à¶Ńà·Ĭ": 1096,
      "Ġà¶īà¶ļà·Ĭà¶¸à¶±": 1097,
      "à¶¶à·Ŀ": 1098,
      "à¶»à·Ŀ": 1099,
      "Ġà¶Ńà¶»à¶¸à·Ĭ": 1100,
      "à·Ĭà¶©à¶ļà·Ĭ": 1101,
      "Ġà¶ĳà¶ºà·ıà¶½à·ı": 1102,
      "Ġà¶¸à·Ŀ": 1103,
      "Ġà¶Ńà·ıà¶Ńà·Ĭà¶Ń": 1104,
      "à¶Ķà¶ºà·ıà¶ľà·Ļ": 1105,
      "Ġà¶ħà·Ģà·Ķà¶»à·Ķà¶¯à·Ķ": 1106,
      "à¶ĳà·Ħà·Ļà¶±à¶¸à·Ĭ": 1107,
      "Ġà¶ļà·Ĳà¶¸à¶Ńà·Ĵà¶ºà·Ĵ": 1108,
      "Ġà¶ĳà¶Ńà¶±": 1109,
      "à¶Ĥà¶ļ": 1110,
      "Ġà·ĥà·Ĳà¶½": 1111,
      "à·Ģà¶»à·Ĭ": 1112,
      "à·ŀ": 1113,
      "âĢįà¶»à·Ĵà¶ºà·ı": 1114,
      "Ġà¶¯à¶ļà·Ĵ": 1115,
      "à¶±à·Ŀ": 1116,
      "à¶¸à·Ĵà¶±à·Ĵ": 1117,
      "Ġà¶ĳà¶±": 1118,
      ":čĊ": 1119,
      "à¶¢à·Ĵ": 1120,
      "Ġà¶ļà·Ĵà¶ºà¶±à·Ģà·ı": 1121,
      "Ġà·ĥà·Ĵà¶º": 1122,
      "Ġà¶¯à·Ļà·Ģà·Ĵà¶º": 1123,
      "Ġà¶ļà·ıà¶»": 1124,
      "à¶±à¶ļà·Ĭ": 1125,
      "Ġà¶ĭà¶©": 1126,
      "Ġà¶½à¶¶à·ı": 1127,
      "Ġà¶¸à·ľà¶±à·Ģà·ı": 1128,
      "à¶ħà¶´à·ļ": 1129,
      "ĠC": 1130,
      "à¶Ńà·Ķà¶Ńà·Ĵà¶ºà·Ĵ": 1131,
      "à¶¶à·Ĳ": 1132,
      "à¶ľà¶Ń": 1133,
      "à¶»à·Ļ": 1134,
      "Ġà¶ħà¶´à·Ĵà·Ģ": 1135,
      "en": 1136,
      "à¶ľà¶±à·Ĭà¶±à·Ģà·ı": 1137,
      "à·Ħà·Ļà¶±à·Ĭ": 1138,
      "Ġà¶±à·Ĳà·Ģà¶Ń": 1139,
      "à·ĥà·Ĭà¶®": 1140,
      "à·Ģà¶ºà·Ĵ": 1141,
      "à¶ļà·Ģà·Ķà¶¯": 1142,
      "à·ıà·Ģà¶§": 1143,
      "Ġà¶ĭà¶±à·ļ": 1144,
      "à·Ŀà¶±à·Ĭ": 1145,
      "à¶ľà·Ĳ": 1146,
      "Ġà¶ĳà·ħ": 1147,
      "à¶ħà¶»": 1148,
      "à¶©à·ıà¶º": 1149,
      "Ġà¶´à·Ĵà·ħà·Ĵ": 1150,
      "Ġà·Ģà·Ļà¶©à·Ĵ": 1151,
      "Ġà¶ļà·Ĵà·Ģà·Ĭà·Ģ": 1152,
      "à¶ľà¶Ńà·Ĭ": 1153,
      "Ġà¶ľà¶¸à¶±à·Ĭ": 1154,
      "Ġà¶±à·Ļà¶¸à·ļ": 1155,
      "Ġà¶´à·ıà¶½": 1156,
      "Ġà¶īà¶Ńà·Ĵà¶±à·Ĭ": 1157,
      "Ġà¶±à·Ģà¶Ńà·Ĭà¶Ń": 1158,
      "Ġà¶Į": 1159,
      "à·ĳà¶±à·Ĭ": 1160,
      "Ġà¶¸à·Ĳà¶»à·Ķ": 1161,
      "à¶ļà¶½à·ı": 1162,
      "Ġà¶ĳà·Ħà·Ļà¶±à¶¸à·Ĭ": 1163,
      "Ġà¶ļà·ıà¶½": 1164,
      "à·ľà¶ļà·Ĭ": 1165,
      "à¶Ńà·ĸà¶Ńà·Ĵà¶ºà·Ĵ": 1166,
      "à¶¸à·ĵ": 1167,
      "Ġà¶±à·Ĳà¶Ńà·Ĭà¶Ń": 1168,
      "Ġà¶±à·ļ": 1169,
      "Ġà¶¯à·ĵ": 1170,
      "Ġà·ĥà·ĵ": 1171,
      "à¶ĳà¶Ńà¶ļà·ľà¶§": 1172,
      "Ġà¶Ĩà·Ģà·ı": 1173,
      "Ġà·Ģà·Ĳà¶©à·ļ": 1174,
      "Ġà¶´à·Ģà·Ķ": 1175,
      "Ġà¶¸à·ĸ": 1176,
      "à·ĥà¶ºà·Ĵ": 1177,
      "Ġà¶ºà·Ķà¶Ńà·Ķ": 1178,
      "Ġà¶īà¶©": 1179,
      "Ġà¶¢à·Ĵ": 1180,
      "gm": 1181,
      "Ġà¶¸à¶Ń": 1182,
      "Ġà·Ħà¶¸": 1183,
      "Ġà¶±à¶»à¶ļ": 1184,
      "à¶«à·ıà¶ļà¶»à¶½à·ı": 1185,
      "Ġà¶´à·Ĳà¶±": 1186,
      "à·Ģà¶±": 1187,
      "à¶»à·Ĳ": 1188,
      "à¶±à¶¸à·Ķà¶Ńà·Ĭ": 1189,
      "Ġà¶´à·Ĳà·Ħà·Ĳ": 1190,
      "Ġkgm": 1191,
      "à¶´à·ľ": 1192,
      "Ġà¶¶à·ļà¶»": 1193,
      "à¶§à·Ĵà¶±à·Ĭ": 1194,
      "à·Ħà¶±à·Ĭ": 1195,
      "à·Ģà·ĥà·Ĭ": 1196,
      "à¶ļà¶¸": 1197,
      "Ġà¶½à·ĥà·Ĭà·ĥà¶±": 1198,
      "Ġà¶´à¶»à·ĵà¶ļà·Ĭà·Ĥ": 1199,
      "Ġ.": 1200,
      "Ġà¶´à·ĥà·Ĭà·ĥà·Ļ": 1201,
      "à¶ħà¶±à·ļ": 1202,
      "à¶Ńà·Ģ": 1203,
      "Ġà¶ļà·ıà¶¸": 1204,
      "à¶§à·Ĭà¶§à·Ĵà¶º": 1205,
      "Ġà¶ļà·Ĵà¶ºà¶½à¶¯": 1206,
      "Ġà·Ħà·ľà¶¯à¶ºà·Ĵ": 1207,
      "à·Ģà¶ľà·ļ": 1208,
      "à¶¯à·Ķà·Ģ": 1209,
      "à·Ħà·Ŀ": 1210,
      "à¶ºà·Ļà¶±à·Ĭà¶¸": 1211,
      "Ġc": 1212,
      "is": 1213,
      "à·ĥà·Ķà¶±à·Ĭ": 1214,
      "Ġà¶½à¶ľ": 1215,
      "à¶´à¶Ńà·Ĭ": 1216,
      "Ġà¶»à·Ŀ": 1217,
      "à·Ģà·Ļà¶±à·Ĵ": 1218,
      "Ġà¶Ķà¶¶à·ļ": 1219,
      "Ġà¶´à·Ķà¶Ńà·ı": 1220,
      "à¶¥": 1221,
      "Ġà·Ħà¶»à·Ĵà¶¯": 1222,
      "Ġà·ĥà·ļ": 1223,
      "à¶ľà·Ĳà¶±": 1224,
      "à·Ģà¶º": 1225,
      "à¶¸à·ıà¶±à·Ĭ": 1226,
      "Ġà¶¸à·ľà¶ļà¶¯à·Ĭà¶¯": 1227,
      "à·Ŀà¶¯à¶»": 1228,
      "Ġà·Ħà·ľà¶º": 1229,
      "à·Ģà¶±à·Ĭ": 1230,
      "Ġà¶ļà·ľà¶łà·Ĭà¶łà¶»": 1231,
      "à¶ħà¶±à·Ĵ": 1232,
      "à¶§à·Ķà¶ºà·Ĵ": 1233,
      "Ġà¶ļà¶«à·Ĭ": 1234,
      "Ġà¶ħà¶¸à·ı": 1235,
      "à·ĥà·Ĭà¶Ńà¶»": 1236,
      "Ġà¶Ńà·Ĵà¶ºà¶±à·Ĭà¶±": 1237,
      "Ġà¶ļà·Ĵà·Ģà·Ĭà·Ģà·Ļ": 1238,
      "à·ĥà¶»": 1239,
      "à·ĥà·Ĭà¶Ńà·Ĵ": 1240,
      "à·ļà¶¸": 1241,
      "Ġà·ĥà¶¸à·Ħà¶»": 1242,
      "Ġà¶¸à·Ļà·Ħà·ļ": 1243,
      "Ġà·Ħà·Ĵà¶Ńà¶±à·Ģà·ı": 1244,
      "à·ıà¶»à·Ĭ": 1245,
      "à¶°à·Ĵ": 1246,
      "Ġà¶ĭà¶±à·Ĭ": 1247,
      "à¶«à·ļ": 1248,
      "à¶Ńà¶¸à·Ķ": 1249,
      "Ġà¶Ķà·Ħà·Ķà¶§": 1250,
      "à¶ĳà¶ºà·ıà¶½à·ı": 1251,
      "Ġà¶¸à¶»à¶±à·Ĭà¶±": 1252,
      "à¶ľà·ľ": 1253,
      "Ġà·Ħà¶»à·Ĵà¶º": 1254,
      "Ġà¶±à¶ľ": 1255,
      "à¶¸à·Ļà¶Ńà¶±": 1256,
      "Ġà·Ħà·Ĳà¶ļà·Ĵ": 1257,
      "Ġà¶ĭà¶¶": 1258,
      "Ġà·ĥà·ľ": 1259,
      "à¶ļà·Ĳ": 1260,
      "Ġà·Ģà·Ļà¶±à·Ģ": 1261,
      "Ġ..": 1262,
      "à¶ĳà¶ºà·ıà¶½": 1263,
      "Ġà·Ģà·ļà·Ģà·Ĵ": 1264,
      "à¶ļà¶ºà·Ĵ": 1265,
      "Ġà¶ļà·Ĵà¶»": 1266,
      "à·Ģà¶±à·Ģà·ı": 1267,
      "à¶ĳà·Ħà·Ļà¶¸": 1268,
      "à·ĥà·ĵ": 1269,
      "Ġà·Ģà¶»": 1270,
      "à¶ħà¶¸à·Ĭ": 1271,
      "Ġà·Ģà¶ľ": 1272,
      "à¶´à·Ĭà¶´": 1273,
      "Ġà¶¯à·ıà¶½à·ı": 1274,
      "Ġà¶ľà¶±à·Ĭà¶±à·Ģà·ı": 1275,
      "Ġà¶īà·ĥà·Ĭà·ĥ": 1276,
      "Ġà¶´à·ľà¶½à·Ĵ": 1277,
      "Ġà¶Ķà¶ºà·ıà¶½à·ı": 1278,
      "à·Ļà¶±à·Ĭà¶±à·Ļ": 1279,
      "Ġà¶¸à·Ļà¶ºà·ı": 1280,
      "Ġà¶Ńà·Ĵà¶ºà¶±": 1281,
      "Ġà¶ĩà·Ħà·Ķ": 1282,
      "Ġà¶īà·Ģà¶»à¶ºà·Ĵ": 1283,
      "Ġà¶´à·Ĵà¶»à·Ĵ": 1284,
      "Ġà¶¶à·ľà¶»à·Ķ": 1285,
      "Ġà¶Ńà·Ģà¶Ńà·Ĭ": 1286,
      "Ġà¶ļà¶¸à¶ļà·Ĭ": 1287,
      "à·ĥà·Ĭà¶§": 1288,
      "à¶ļà·ĵ": 1289,
      "Ġà¶Ńà·ĵ": 1290,
      "al": 1291,
      "Ġà¶ĳà¶ºà·ıà¶ľà·Ļ": 1292,
      "Ġà·Ħà·Ĵà¶Ńà¶±à·Ĭà¶±": 1293,
      "Ġà·Ģà·Ĵà¶§": 1294,
      "Ġà¶ļà¶«à·Ĭà¶©à·ıà¶º": 1295,
      "Ġà¶¢à·ĵà·Ģà¶Ńà·Ĭ": 1296,
      "Ġà·ĥà·Ļà¶½à·Ĭà¶½": 1297,
      "à¶Ńà·Ĵà¶Ĥ": 1298,
      "Ġà¶īà¶¯à·Ĵ": 1299,
      "Ġà¶Ķà·Ħà·ļ": 1300,
      "Ġà¶ĩà¶Ńà·Ķà¶½à¶§": 1301,
      "à¶½à¶»à·Ĭ": 1302,
      "Ġà¶Ķà·Ħà·Ķà·Ģ": 1303,
      "à·Ļà¶±à·Ĭà¶¸": 1304,
      "à¶ļà·Ĭà¶ļà·Ķ": 1305,
      "à¶Ńà·Ĭà·Ģà¶º": 1306,
      "Ġà¶¯à·Ļà¶±à·Ģà·ı": 1307,
      "Ġà¶ħà¶¸à·Ĭà¶¸à·ı": 1308,
      "à·Ħà·ľà¶¯à¶ºà·Ĵ": 1309,
      "à¶Ĵà¶ºà·Ĵ": 1310,
      "Ġà¶ħà¶¸à¶Ńà¶ļ": 1311,
      "à·ļà·Ĥ": 1312,
      "à¶Ńà·ıà·Ģà¶ļà·Ĭ": 1313,
      "à·ĸà¶»à·Ĭà¶«": 1314,
      "à¶´à·ıà¶»": 1315,
      "Ġà¶ļà¶»à¶±à·Ģ": 1316,
      "Ġà¶ļà¶©": 1317,
      "âĢįà¶»à·ģà·Ĭà¶±à¶ºà¶ļà·Ĭ": 1318,
      "Ġà¶ħà¶¯à·Ħ": 1319,
      "à¶±à·Ĭà¶¯à·Ķ": 1320,
      "Name": 1321,
      "à¶ħà¶¯": 1322,
      "Ġà·Ħà·Ĳà¶¸à·Ŀà¶¸": 1323,
      "à·ĥà·Ĳ": 1324,
      "Ġà¶¶à·Ĭ": 1325,
      "Ġà¶»à·Ĵ": 1326,
      "Ġà·Ħà¶¸à·Ķ": 1327,
      "à¶»à·Ĭà¶®": 1328,
      "Ġà¶±à¶¸à·Ķà¶Ńà·Ĭ": 1329,
      "Ġà¶ĳà¶ļà·Ļà¶±à·Ĭ": 1330,
      "Ġà·ĥà·Ħà·Ŀà¶¯à¶»": 1331,
      "Ġà·ĥà¶¸à·ı": 1332,
      "Ġà¶¯à·Ĳà¶¸à·Ĭ": 1333,
      "Ġà¶¸à·ľà¶±à·ıà¶¯": 1334,
      "Ġà·Ģà·Ĵà¶º": 1335,
      "à¶»à¶ºà¶ļà·Ĭ": 1336,
      "as": 1337,
      "Ġà·Ħà·Ĵà¶§": 1338,
      "Ġà·Ħà·ľà¶³à·Ĵà¶±à·Ĭ": 1339,
      "à¶½à·Ĵà¶ļ": 1340,
      "Ġà·ĥà·ĳ": 1341,
      "à¶¢à·ı": 1342,
      "Ġà¶ļà¶»à¶±à·Ĭà¶±à¶¸à·Ĭ": 1343,
      "à·ĥà¶§": 1344,
      "Ġà¶±à·Ĵà¶¯": 1345,
      "Ġà¶īà¶½à·Ĭà¶½": 1346,
      "à·ĥà·Ĵà¶±à·Ĭ": 1347,
      "--": 1348,
      "à·ĸà¶´": 1349,
      "ion": 1350,
      "Ġà¶¸à·ĵ": 1351,
      "Ġà¶¸à·Ħà¶Ńà·Ĭà¶Ń": 1352,
      "Ġà·Ģà·Ĵà·Ħà·Ĵ": 1353,
      "Ġà¶±à·Ĵà¶ºà¶¸à¶ºà·Ĵ": 1354,
      "Ġà¶±à·Ĳà¶Ńà·Ĵà·Ģ": 1355,
      "à¶±à·Ĭà¶ľà·ļ": 1356,
      "Ġà¶±à·ĵ": 1357,
      "à¶´à·ľà¶»à·ľ": 1358,
      "à¶īà¶ļà·Ĭ": 1359,
      "à¶¯à·Ķà¶¸": 1360,
      "Ġà¶´à·Ķà¶½à·Ķà·Ģà¶±à·Ĭà¶¯": 1361,
      "Ġà¶¸à¶ľ": 1362,
      "Ġ'": 1363,
      "Ġà¶ļà¶»à¶½": 1364,
      "Ġà¶ļà·ļ": 1365,
      "Ġà·ĥà¶³": 1366,
      "Ġà¶ļà·Ĵà¶»à·ĵ": 1367,
      "Ġà¶ħà¶©à·Ķ": 1368,
      "à¶½à·Ķà¶Ńà·Ĭ": 1369,
      "Ġà·ĥà·Ĵà¶¯à·Ĭà¶°": 1370,
      "à¶¯à·Ĭà¶¯à·Ĵ": 1371,
      "Ġà¶ľà·Ķ": 1372,
      "Ġà¶ħà¶ºà·Ĵà¶±à·Ĭ": 1373,
      "à¶»à·Ĭà·ģ": 1374,
      "Ġà¶¯à·Ķà¶»": 1375,
      "à·ĥà·Ĭà¶¸": 1376,
      "Ġà·Ģà·Ĵà¶±à·ıà·ģ": 1377,
      "Ġà¶¯à·Ĵà¶ľ": 1378,
      "Ġà¶Ńà·Ĵà¶ºà·Ļà¶±à·Ģà¶¯": 1379,
      "à¶Ńà·Ķà¶¸à·ı": 1380,
      "ĠM": 1381,
      "Ġà¶Ńà·ļà¶»à·Ķà¶¸à·Ĭ": 1382,
      "Ġà¶ļà¶»à¶¯à¶»": 1383,
      "à·Ķà¶Ńà·Ĭ": 1384,
      "Ġà¶ļà·ľà·Ħà·ļ": 1385,
      "Ġà¶¸à·Ŀà¶©": 1386,
      "Ġà·Ģà·Ĳà¶»à¶¯à·Ĵ": 1387,
      "Ġà·Ģà·Ķà¶«à·ı": 1388,
      "le": 1389,
      "Ġà·ĥà¶¸à·Ĭà¶´": 1390,
      "à¶ĩà¶Ńà·Ĭà¶Ńà¶§à¶¸": 1391,
      "Ġà¶Ńà·Ĵà¶ºà¶±à·Ģ": 1392,
      "Ġà¶´à·Ĵà·ĥà·Ĭà·ĥà·Ķ": 1393,
      "Ġà¶ħà¶±à·Ĭà¶Ńà·Ĵ": 1394,
      "à·ļà¶»à¶¸": 1395,
      "Ġà¶¶à¶½à·ıà¶ľà¶±à·Ĭà¶±": 1396,
      "Ġà¶´à·ıà·Ģà·Ĵ": 1397,
      "à¶Ĵà¶ļà¶§": 1398,
      "Ġà¶´à·Ļà¶±à·Ĭ": 1399,
      "Ġà¶±à·Ĵà¶ºà¶¸": 1400,
      "à·ĥà·Ķà¶¸à·Ĭ": 1401,
      "à¶»à·Ĵà¶½à·ı": 1402,
      "Ġà¶´à·Ļà¶±à·Ĭà¶±": 1403,
      "Ġà¶Ĩà¶ºà·Ļ": 1404,
      "à¶«à·Ĭà¶©": 1405,
      "Ġà¶´à¶Ńà·Ĭ": 1406,
      "Ġà¶Ńà·Ŀ": 1407,
      "ic": 1408,
      "Ġà¶ľà·ı": 1409,
      "à·Ĵà¶ºà·Ķ": 1410,
      "à¶ºà·Ĵà¶º": 1411,
      "Ġà·Ħà¶»à·Ĵà¶¸": 1412,
      "à¶ļà·Ķà¶«à·Ķ": 1413,
      "Ġà·ĥà·ĸ": 1414,
      "Ġà¶ļà¶»à·ļ": 1415,
      "Ġà¶ħà·Ģà·ĥà·Ĭà¶®": 1416,
      "Ġà¶¸à¶ľà·Ķ": 1417,
      "Ġà¶ľà·Ĵà¶ºà·ļ": 1418,
      "Ġà¶´à·Ļà¶±": 1419,
      "à¶»à·Ĭà¶ľ": 1420,
      "Ġà¶´à·ľà¶©à·Ĭà¶©à¶ļà·Ĭ": 1421,
      "à¶±à·Ĳà·Ħà·Ĳ": 1422,
      "à¶Ĥà¶łà·Ĵ": 1423,
      "à·ĥà·Ĭà¶§à¶»à·Ĭ": 1424,
      "à¶½à¶ºà·Ĵ": 1425,
      "Ġà¶¢à·ļ": 1426,
      "à¶Ľ": 1427,
      "Ġà¶´à·ıà·Ģà·Ĵà¶łà·Ĭà¶łà·Ĵ": 1428,
      "à¶¶à·ľ": 1429,
      "Ġà¶ĩà¶»": 1430,
      "Ġà·Ģà·Ĳà¶¯": 1431,
      "à¶Ķà¶ºà·ıà¶½à·ı": 1432,
      "Ġà¶ļà¶»à¶ºà·Ĵ": 1433,
      "Ġà¶ĩà¶ºà·Ģ": 1434,
      "Ġà¶ľà·ıà·Ģ": 1435,
      "Ġà¶ħà¶±à·Ķ": 1436,
      "à·Ģà¶ľà·ļà¶¸": 1437,
      "Ġà¶īà·ĥà·Ĭà·ĥà¶»": 1438,
      "Ġà¶ħà¶±à·Ĵà¶Ńà·Ĭ": 1439,
      "à·ĥà¶¸à·ıà·Ģà·Ļà¶±à·Ĭà¶±": 1440,
      "Ġà¶¯à·Ĳà¶ļà·Ĭà¶ļà·ı": 1441,
      "à·Ħà·Ĵà¶Ń": 1442,
      "Ġà·Ħà·Ĵà¶Ńà·Ķà·Ģà·ļ": 1443,
      "à¶±à·Ĭà¶©": 1444,
      "à¶±à¶ºà¶§": 1445,
      "Ġà¶ĳà¶Ńà¶ļà·ľà¶§": 1446,
      "à¶ļà·Ģà·Ķà¶»à·Ķ": 1447,
      "Ġà¶ĩà¶ºà¶§": 1448,
      "Ġà·Ħà¶¯à¶±à·Ĭà¶±à·ļ": 1449,
      "à¶±à·Ĵà¶ºà¶¸": 1450,
      "Ġw": 1451,
      "à¶°à·ıà¶»": 1452,
      "ĠS": 1453,
      "à·ľà¶ºà·Ĵ": 1454,
      "à·Ģà¶½à·ı": 1455,
      "à¶¸à¶«": 1456,
      "Ġà¶¢à·ĵà·Ģà·Ĵà¶Ń": 1457,
      "Ġà·Ħà·Ĵà¶Ńà·Ķ": 1458,
      "om": 1459,
      "Ġà¶ĩà¶¸": 1460,
      "Ġà¶ļà·ĳà¶¸": 1461,
      "à¶°à·Ĭ": 1462,
      "Ġà¶ĳà¶łà·Ĭà¶łà¶»": 1463,
      "Ġà·Ħà·ľà¶»": 1464,
      "Ġà·Ģà·Ĵà¶Ńà¶»à¶ļà·Ĭ": 1465,
      "Ġà¶±à·ľà¶ļ": 1466,
      "Ġà·ħà¶Ł": 1467,
      "à¶´à·ľà¶©": 1468,
      "à¶¯à¶±à·Ĭà¶±": 1469,
      "Ġà·Ħà·ľà¶¯à·Ĵà¶±à·Ĭ": 1470,
      "à¶¯à·Ĭà¶ľ": 1471,
      "Ġà¶¸à·Ħà¶Ńà·Ĭà¶¸": 1472,
      "Ġà¶ļà¶»à¶¸à·Ķ": 1473,
      "Ġà¶Ńà·Ķà·Ģ": 1474,
      "Ġà¶Ĩà·Ģ": 1475,
      "à¶Ńà·Ĳà¶±": 1476,
      "Ġà¶¸à·Ķà·Ħà·Ķ": 1477,
      "Ġà¶Ńà·ıà¶¸": 1478,
      "à¶³à·Ĵ": 1479,
      "Ġà¶±à·Ĳà¶Ńà·Ĭà¶Ńà·ļ": 1480,
      "à·Ħà·ıà¶§": 1481,
      "à¶¸à·ľà¶±à·Ģà¶¯": 1482,
      "Ġà¶ķà¶ļ": 1483,
      "à¶½à·Ĵà¶±à·Ĭà¶¸": 1484,
      "Ġà¶¶à·ļ": 1485,
      "Ġà·Ĥ": 1486,
      "Ġà¶½à¶Ł": 1487,
      "à¶´à¶Ńà·Ĵ": 1488,
      "Ġà·ĥà¶½": 1489,
      "à¶¸à¶ľà·Ļ": 1490,
      "à¶ĳà¶´à·ı": 1491,
      "Ġà¶ĩà¶Ń": 1492,
      "à¶¸à·ľà¶ļà¶¯à·Ĭà¶¯": 1493,
      "à¶ºà¶ºà·Ĵ": 1494,
      "Ġà¶¯à·ľà¶»": 1495,
      "à·Ģà·Ķà¶±à·ı": 1496,
      "Ġà¶ĳà¶ºà·ıà¶½à¶§": 1497,
      "ĠU": 1498,
      "10": 1499,
      "à·Ģà·Ĭà·Ģà·ı": 1500,
      "Ġà¶¶à¶½à·ıà¶´à·ľà¶»à·ľ": 1501,
      "à¶¸à·ľà¶ļà¶ļà·Ĭ": 1502,
      "Ġà·ĥà¶³à·Ħà·ı": 1503,
      "Ġà¶Ńà·ľà¶»": 1504,
      "Ġà¶ľà·ıà¶±": 1505,
      "Ġà¶Ĭà¶§": 1506,
      "Ġà·ĥà·Ĵà¶§à·Ĵ": 1507,
      "Ġà¶Ńà·ĵà¶»": 1508,
      "à·Ħà·Ļà¶ļà·Ĭ": 1509,
      "à¶¯à·Ĳ": 1510,
      "Ġà¶¯à¶ļà·Ĵà¶±à·Ĭà¶±": 1511,
      "Ġà¶¸à·Ĵà¶±à·Ĵà·Ħ": 1512,
      "à¶¯à·Ĵà¶±à·Ĭà¶±": 1513,
      "Ġà¶±à·Ĵà¶»à·Ĭ": 1514,
      "Ġà¶¶à¶½à·ıà¶ľà·Ļà¶±": 1515,
      "Ġà·ĥà·Ĭà¶Ńà·Ķà¶Ńà·Ĵà¶ºà·Ĵ": 1516,
      "à¶¸à·Ļà¶±à·Ĭà¶±": 1517,
      "à¶¯à·Ļà¶±à·Ĭà¶±": 1518,
      "Ġà¶ļà·ıà¶½à¶º": 1519,
      "à¶½à·Ķà·Ģà·ı": 1520,
      "Ġà·Ħà¶¸à·Ķà·Ģ": 1521,
      "Ġà¶¢à·ı": 1522,
      "Ġà¶¸à·ľà¶±à·Ģ": 1523,
      "re": 1524,
      "Ġà·Ģà·Ĭ": 1525,
      "Ġà¶´à·Ĳà·Ħà·Ĳà¶¯à·Ĵ": 1526,
      "à¶Ńà·Ĭà¶Ńà¶»": 1527,
      "Ġà¶¸à·ıà¶Ńà·Ĭ": 1528,
      "Ġà¶±à·Ģà¶Ńà·Ĭ": 1529,
      "à·Ħà¶¸": 1530,
      "Ġà¶Ńà·Ĵà¶ºà·ıà¶ľà¶±à·Ĭà¶±": 1531,
      "à¶´à·ļ": 1532,
      "Ġà¶¸à¶±à·Ķ": 1533,
      "Ġ..čĊ": 1534,
      "Ġà¶ĳà¶ļà¶Ńà·Ķ": 1535,
      "à·ľà¶±à·Ĭ": 1536,
      "à¶»à·ıà·Ģ": 1537,
      "à¶Ķà¶¶à¶§": 1538,
      "Ġà¶ħà¶¸à·ıà¶»à·Ķ": 1539,
      "Ġà·Ģà¶ł": 1540,
      "Ġà·Ģà¶Ńà·Ķà¶»": 1541,
      "Ġà¶ħà¶©": 1542,
      "Ġà¶Ķà·Ħà·Ķà¶ľà·ļ": 1543,
      "à¶±à¶ºà·ļ": 1544,
      "à¶Ĥà·ģ": 1545,
      "à¶ºà¶ļà¶§": 1546,
      "à¶ħà·Ħ": 1547,
      "Ġà¶Ĩà¶»à¶ļà·Ĭà·Ĥà·ı": 1548,
      "à¶§à·ı": 1549,
      "ia": 1550,
      "Ġà¶´à·ľà¶»à·ľ": 1551,
      "Ġà¶ĩà¶¯": 1552,
      "Ġà¶īà¶¯à¶±à·Ĭ": 1553,
      "à·Ģà·ıà·Ħ": 1554,
      "à¶ĭà¶¶": 1555,
      "Ġà¶¸à·Ļà·Ħà·Ļà¶§": 1556,
      "Ġà·ĥà¶Ńà·Ķà¶§": 1557,
      "à¶¢à·Ķ": 1558,
      "à¶°à·ıà¶±": 1559,
      "Ġà¶¯à·Ķà¶±à·Ĭà¶±à·ı": 1560,
      "à¶ļà·ıà·Ģ": 1561,
      "Ġà¶Ńà·Ĵà¶¶à·Ķà¶±à·ı": 1562,
      "Ġà¶Ĩà¶¯à¶»à·Ļà¶ºà·Ĵ": 1563,
      "âĢįà¶»à·Ħ": 1564,
      "Ġf": 1565,
      "Ġà¶ĩà·ĥà·Ĭ": 1566,
      "à·ĥà¶¸à·Ħà¶»à·Ģà·Ĵà¶§": 1567,
      "Ġà·Ģà·ıà¶»à·Ĭ": 1568,
      "Ġà¶ľà·Ĭ": 1569,
      "Ġà¶ļà·ıà¶§": 1570,
      "Ġà¶¯à·Ģà·ĥà·Ĭ": 1571,
      "Ġà¶ĳà¶ļà·Ĭ": 1572,
      "à¶»à·ıà¶°": 1573,
      "Ġà¶ĭà¶Ńà·Ĭà·ĥà·Ħ": 1574,
      "Ġà¶½à·ĳ": 1575,
      "Ġà¶´à·Ħà¶»": 1576,
      "à¶ľà·ľà¶©": 1577,
      "à¶ļà·Ķà¶«": 1578,
      "à¶»à·Ĵà¶ºà·ı": 1579,
      "à¶±à·Ķà·Ģ": 1580,
      "Ġà¶ļà¶»à¶±à·Ģà¶¯": 1581,
      "Ġà·ĥà·Ĭà¶Ńà·ĸà¶Ńà·Ĵà¶ºà·Ĵ": 1582,
      "Ġà·Ħà·Ĵà¶»": 1583,
      "à¶½à¶±à·Ĭ": 1584,
      "Ġb": 1585,
      "à¶ĭà¶±à·Ĭ": 1586,
      "Ġà¶¯à·Ļà¶ļà¶ļà·Ĭ": 1587,
      "Ġà¶ļà¶§à·Ĭà¶§à·Ĵà¶º": 1588,
      "à¶¶à·Ķ": 1589,
      "à¶´à¶Ń": 1590,
      "Ġà¶ħà¶½à·Ķà¶Ńà·Ĭ": 1591,
      "Ġà¶¸à¶Ł": 1592,
      "Ġà¶ļà·Ĵà·Ģ": 1593,
      "Ġ(_": 1594,
      "Ġà¶Ĵà¶ļà·Ļà¶±à·Ĭ": 1595,
      "Ġà¶¸à·Ļà·Ħà·Ļà¶¸": 1596,
      "Ġà¶´à·Ķà·ħà·Ķà·Ģà¶±à·Ĭà¶¯": 1597,
      "Ġà¶°": 1598,
      "Ġà·ĥà·Ĳà¶ļ": 1599,
      "âĢįà¶»à¶¸": 1600,
      "à·Ģà·ĵà¶¸": 1601,
      "à¶¸à·Ĭà¶¸à·Ĭ": 1602,
      "Ġà¶ľà·ĳ": 1603,
      "à¶ºà¶ļà·Ĭà¶¸": 1604,
      "Ġà¶´à·ıà¶½à¶±à¶º": 1605,
      "à¶¢à·ļ": 1606,
      "à·ħà·Ķà·Ģà·ı": 1607,
      "à¶´à·Ĵà¶º": 1608,
      "Ġà¶¸à¶ºà·Ĵ": 1609,
      "Ġà¶´à·ħ": 1610,
      "Ġà¶ļà¶½à·Ĭ": 1611,
      "à¶»à·Ĵà¶±à·Ĭ": 1612,
      "Ġà¶īà¶ļà·Ĭà¶¸à¶±à¶§": 1613,
      "à¶½à·ľ": 1614,
      "Ġà¶ļà·ħà·ļ": 1615,
      "Ġà¶´à·ĵ": 1616,
      "Ġà¶½à·Ļà·ĥ": 1617,
      "Ġà·Ģà·Ĳà¶¯à¶ľà¶Ńà·Ĭ": 1618,
      "à¶Ķà¶ºà·ıà¶½": 1619,
      "Ġà¶ĳà·ħà·Ĵà¶ºà¶§": 1620,
      "nt": 1621,
      "Ġà¶łà·Ĵ": 1622,
      "Ġà¶¶à·Ĵà¶»à·Ĵ": 1623,
      "à¶¯à·Ļà·Ģà·Ĵà¶º": 1624,
      "Ġà¶Ķà¶ºà·ıà¶½à¶§": 1625,
      "à¶»à·Ĵà¶±à·Ĭà¶±": 1626,
      "ĠâĻª": 1627,
      "à¶±à·ļà¶±": 1628,
      "Ġà¶±à·Ĵà¶ļà¶±à·Ĭ": 1629,
      "Ġà·Ģà·Ĵà·ģà·ļà·Ĥ": 1630,
      "à¶ļà·Ĭà·ģ": 1631,
      "à¶±à·Ĵà¶ºà¶¸à¶ºà·Ĵ": 1632,
      "Ġà·Ħà¶¯à¶±à·Ĭà¶±": 1633,
      "Ġà·Ħà·ļà¶Ńà·Ķà·Ģ": 1634,
      "à¶¯à¶º": 1635,
      "à¶¸à·Ŀ": 1636,
      "Ġà·Ħà·Ĵà¶§à·Ĵà¶ºà·Ļ": 1637,
      "Ġà·Ģà·Ľ": 1638,
      "Ġà¶ľà·Ļà¶±à·Ĵà¶º": 1639,
      "Ġà¶ļà·Ĵà¶»à·ĵà¶¸": 1640,
      "à¶¯à·ıà¶±à¶¸à·Ĭ": 1641,
      "Ġà·ĥà¶¸à·Ĭà¶´à·ĸà¶»à·Ĭà¶«": 1642,
      "à·Ļà·Ĭ": 1643,
      "Ġà¶ĳà¶±à·Ĭà¶±à¶¸à·Ĭ": 1644,
      "Ġà·ĥà¶¸à·Ĭ": 1645,
      "à·Ģà·ıà¶»à·Ĭ": 1646,
      "Ġ?": 1647,
      "âĢįà¶»à¶¸à·ı": 1648,
      "Ġà·ĥà·ļà¶»à¶¸": 1649,
      "Ġà¶´à·ĥà·Ķ": 1650,
      "Ġà¶ľà¶Ń": 1651,
      "Ġà¶¢à·Ĳà¶ļà·Ĭ": 1652,
      "à·Ħà·Ļà¶±à·Ĭà¶±": 1653,
      "à¶ļà¶»à·Ĭ": 1654,
      "Ġà¶¶à·Ķ": 1655,
      "Ġà¶ļà·ıà¶½à·Ļ": 1656,
      "à¶«à¶ľà·ı": 1657,
      "à¶Į": 1658,
      "Ġà¶ľà¶«": 1659,
      "à¶Ńà·Ĵà¶ļ": 1660,
      "Ġà·ĥà·Ĭà¶®à·ı": 1661,
      "Ġà¶Ĩà·Ģà·Ļ": 1662,
      "Ġthe": 1663,
      "Ġà¶ħà·Ģà·ĥà·ı": 1664,
      "âĪĻâĪĻâĪĻčĊ": 1665,
      "Ġà·Ģà¶±": 1666,
      "Ġà¶±à·Ģà¶Ńà·Ĭà¶Ńà¶±à·Ĭà¶±": 1667,
      "à¶īà¶±à·Ĭà¶±": 1668,
      "Ġà¶¸à·Ļà¶Ńà¶±à·Ĵà¶±à·Ĭ": 1669,
      "Ġà¶īà¶±à·Ĭà¶±à·Ģ": 1670,
      "Ġà¶½à·Ĵà¶º": 1671,
      "à¶ļà·Ĵà·ĥà·Ĵ": 1672,
      "Ġà¶¸à·ļà¶ļà¶§": 1673,
      "à¶Ńà·ĵ": 1674,
      "Ġà¶ºà¶§": 1675,
      "Ġà·Ģà¶§": 1676,
      "Ġà¶¸à·ľà¶±à·ı": 1677,
      "Ġà¶ºà·ľ": 1678,
      "ing": 1679,
      "ad": 1680,
      "Ġà·ģà¶ļà·Ĭ": 1681,
      "Ġà¶ļà·Ŀà¶½à·Ĭ": 1682,
      "Ġà·ĥà¶¸à¶ľ": 1683,
      "Ġà¶¸à·Ĵà¶±à·Ĵà·Ħà·ı": 1684,
      "Ġà¶¸à·Ĵà¶±à·Ĵà·Ħà·Ļà¶ļà·Ĭ": 1685,
      "à·Ļà¶ļà·Ķ": 1686,
      "à·Ģà·ĺ": 1687,
      "Ġà¶¸à·Ĳà¶»à·Ļà¶±à·Ĭà¶±": 1688,
      "à·ĥà·ıà·Ħ": 1689,
      "Ġà¶Ĩà¶¯à¶»à¶º": 1690,
      "à·Ĳà¶¯à·Ĭà¶¯": 1691,
      "ol": 1692,
      "à¶§à¶ºà·Ĵ": 1693,
      "Ġà¶ĳà¶±à·Ĭà¶±à·ļ": 1694,
      "à¶¸à·Ļà¶ºà·ı": 1695,
      "el": 1696,
      "Ġà¶ļà¶±à·Ĭà¶±": 1697,
      "à¶ĳà¶Ńà·Ĭ": 1698,
      "Ġà¶½à·ľ": 1699,
      "à¶¸à·Ļà·Ħà·Ļ": 1700,
      "Ġà·ħà¶¸à¶ºà·Ĵ": 1701,
      "à·ĥà·Ĭà¶Ńà·Ķà·Ģ": 1702,
      "Ġà¶¸à·Ķà¶«": 1703,
      "à¶½à·Ĭà¶½à¶ļà·Ĭ": 1704,
      "à¶¶à·ĳ": 1705,
      "à¶Ĭà¶§": 1706,
      "Ġà·Ģà¶º": 1707,
      "Ġà·Ģà¶Ńà·Ĭ": 1708,
      "à¶¸à·Ļà¶±à·Ĭ": 1709,
      "Ġà·Ģà·Ĳà¶§": 1710,
      "Ġà¶Ķà¶ºà¶Ńà·Ĭ": 1711,
      "Ġà¶ļà¶»à¶ľà·Ļà¶±": 1712,
      "à¶īà¶Ńà·Ĵà¶Ĥ": 1713,
      "SA": 1714,
      "à¶´à·ĵ": 1715,
      "Ġa": 1716,
      "Ġà¶±à·Ĵà¶¯à·ı": 1717,
      "Ġà¶´à·Ļà¶»": 1718,
      "Ġà¶ĭà¶Ńà·Ĭà·ĥà·ıà·Ħ": 1719,
      "Ġà¶¯à·Ĳà¶±à·Ĭà¶¸": 1720,
      "à¶ºà·Ķà¶°": 1721,
      "Ġà·Ħà·Ĵà¶Ńà·ı": 1722,
      "il": 1723,
      "à¶»à·Ķà·Ģà·ı": 1724,
      "à¶Ńà·Ĵà¶ºà¶ļà·Ĭ": 1725,
      "à¶§à·Ŀ": 1726,
      "à¶´à¶ºà¶ļà·Ĭ": 1727,
      "Ġà·Ħà·Ĳà¶»": 1728,
      "Ġà¶´à·Ĳà¶¸à·Ĵ": 1729,
      "Ġà¶Ńà·Ĵà¶¶à·Ĭà¶¶à·ı": 1730,
      "à¶´à·Ķà¶»": 1731,
      "à¶½à·Ģ": 1732,
      "Ġà¶¸à·Ķà·ħà·Ķ": 1733,
      "à¶¯à·ļà·ģ": 1734,
      "her": 1735,
      "Ġà¶ºà·Ķà¶Ńà·Ķà¶ºà·Ĵ": 1736,
      "Ġà¶¯à·Ĳà¶±à¶§à¶¸": 1737,
      "à¶ľà¶Ńà·Ĭà¶Ńà·ļ": 1738,
      "Ġà¶ħà¶¯à·Ħà·ĥà·Ĭ": 1739,
      "à¶Ķà·Ħà·ļ": 1740,
      "Ġà¶ļà·Ģà·Ķ": 1741,
      "Ġà¶¢à·ĵà·Ģà·Ĵà¶Ńà·ļ": 1742,
      "Ġà¶ħà¶¸à·Ķ": 1743,
      "à¶©à¶º": 1744,
      "Ġà¶Ńà·ıà¶¸à¶Ńà·Ĭ": 1745,
      "à¶ľà¶±à·Ĭ": 1746,
      "à¶¢à¶±": 1747,
      "Ġd": 1748,
      "Ġà¶ħà¶¯à·Ħà·ĥà¶ļà·Ĭ": 1749,
      "Ġà¶´à·Ĵà¶½à·Ĵ": 1750,
      "ĠâĪĻâĪĻâĪĻ": 1751,
      "Ġà¶ļà·Ļà¶±à¶ļà·ļ": 1752,
      "à·Ħà¶¯à·Ļ": 1753,
      "Ġà¶´à·Ķà¶¯à·Ķà¶¸": 1754,
      "Ġà¶¯à·Ļà¶ºà¶ļà·Ĭà¶¸": 1755,
      "Ġà¶ĭà¶¯à·ļ": 1756,
      "Ġà·Ģà·Ļà¶Ń": 1757,
      "à¶±à·Ĭà¶Ńà·Ĭ": 1758,
      "ĠA": 1759,
      "à·Ļà¶±à·Ģ": 1760,
      "Ġà¶ļà¶»à¶±à·Ĭà¶±à¶¯": 1761,
      "Ġà¶¸à·Ķà¶ļà·Ķà¶Ńà·Ĭ": 1762,
      "Ġà·Ģà·Ķà¶±à¶Ńà·Ĭ": 1763,
      "Ġà¶ļà·Ĵà¶ºà¶´à·Ķ": 1764,
      "à·ıà¶¸": 1765,
      "à·Ĵà¶ºà·Ļà¶ļà·Ĭ": 1766,
      "Ġà¶ļà¶Ńà·ıà·Ģ": 1767,
      "Ġà·ĥà¶§à¶±à·Ĭ": 1768,
      "à·ĵà¶¸à¶§": 1769,
      "à·Ĵà¶±à·Ĭà¶¸": 1770,
      "Ġà·ĥà·Ļà¶½à·Ĭà¶½à¶¸à·Ĭ": 1771,
      "à¶łà·ıà¶»": 1772,
      "Ġà¶Ī": 1773,
      "Ġà¶¯à·Ĵà¶±": 1774,
      "Ġà¶¸à¶±à·Ķà·ĥà·Ĭà·ĥ": 1775,
      "ĠD": 1776,
      "Ġà·Ģà·Ļà¶½à·ıà·Ģà¶§": 1777,
      "ow": 1778,
      "Ġà·Ģà·Ĵà¶¯à·Ĭ": 1779,
      "Ġà¶ĭà¶¹à¶§": 1780,
      "Ġà·Ħà·ľà¶³à¶§": 1781,
      "Ġà¶ħà¶±à¶Ńà·Ķà¶»": 1782,
      "à¶ĳà¶º": 1783,
      "Ġà·ħà¶¸": 1784,
      "à¶»à·Ķà·Ģà¶Ńà·Ĭ": 1785,
      "Ġà¶ħà·ĥ": 1786,
      "Ġà·Ħà·Ĳà¶¸à¶¯à·ļà¶¸": 1787,
      "Ġà·Ģà¶¯": 1788,
      "Ġà¶Ńà¶¸à¶±à·Ĭ": 1789,
      "Ġà¶īà¶³à¶±à·Ĭ": 1790,
      "Ġà¶¯à·Ĳà¶±à·Ķ": 1791,
      "à¶ļà¶½": 1792,
      "à·Ļà¶½à·Ĭ": 1793,
      "Ġà·Ģà¶§à·Ĵ": 1794,
      "Ġà¶ħà¶·": 1795,
      "Ġà¶»à·ıà¶¢": 1796,
      "Ġà·Ħà·Ĳà¶¸à·Ŀ": 1797,
      "Ġm": 1798,
      "à¶½à¶ļà·Ĭà¶¯": 1799,
      "Ġà¶ļà·ıà¶½à¶ºà¶ļà·Ĭ": 1800,
      "à·ĵà¶¸à·Ĭ": 1801,
      "à¶¯à·Ĭà¶¯à·ĵ": 1802,
      "Ġà¶ħà¶±à·ļ": 1803,
      "Ġà¶±à·ľà·Ħà·Ĳ": 1804,
      "Ġà·Ĩà·Ĭ": 1805,
      "Ġà¶¯à·Ĳà¶±à¶ľà·Ļà¶±": 1806,
      "à¶±à¶§": 1807,
      "Ġà¶¸à·Ħà¶Ńà·Ĭà¶Ńà¶ºà·ı": 1808,
      "à¶§à·Ĵà¶ļ": 1809,
      "Ġà·Ħà¶»à·Ĵà¶ºà¶§à¶¸": 1810,
      "Ġà¶ĳà¶Ńà·Ĭ": 1811,
      "Ġà¶ºà·ıà·ħà·Ķà·Ģ": 1812,
      "Ġà¶´à·Ĳà¶º": 1813,
      "à·Ģà¶±à·Ĭà¶±à·ļ": 1814,
      "Ġà¶Ńà·Ķà·Ģà¶ļà·Ĭà¶ļ": 1815,
      "Ġà¶ļà¶»à·Ķà¶«à·ıà¶ļà¶»à¶½à·ı": 1816,
      "à¶½à·Ļà¶±à·Ĭ": 1817,
      "à¶ľà¶ļà·Ĭ": 1818,
      "Ġà¶§à·Ĭ": 1819,
      "à¶¬": 1820,
      "Ġn": 1821,
      "Ġà¶´à·Ĵà¶§à·Ĵ": 1822,
      "Ġà¶´à·ľà¶»à·ľà¶±à·Ĭà¶¯à·Ķ": 1823,
      "à¶ºà·ıà¶±": 1824,
      "à¶§à·Ĭà¶§à·Ķ": 1825,
      "Ġl": 1826,
      "Ġà¶´à¶½": 1827,
      "Ġà¶ļà¶«à¶ľà·ı": 1828,
      "Ġà·ĥà·ıà¶¸à·ıà¶±à·Ĭ": 1829,
      "à¶½à·Ĭà·ĥà·Ĭ": 1830,
      "Ġp": 1831,
      "à¶Ńà·Ĭà¶¸à¶ļ": 1832,
      "Ġà¶ħà·Ģà·Ķà¶½à¶ļà·Ĭ": 1833,
      "Ġà¶Ńà¶Ńà·Ĭ": 1834,
      "à¶Ĥà¶ľà·Ĵ": 1835,
      "Ġà¶ľà·Ķà·Ģà¶±à·Ĭ": 1836,
      "à¶´à·Ĵà¶§": 1837,
      "Ġà¶ľà¶Ńà·Ĭà¶Ńà·ļ": 1838,
      "Ġà¶ļà·Ĵà¶ºà·ı": 1839,
      "Ġà·Ģà·ıà·ĥ": 1840,
      "à¶©à·ļ": 1841,
      "Ġà¶Ńà¶¸à·Ķà·ĥà·Ļ": 1842,
      "Ġà·Ģà·ıà·Ħ": 1843,
      "Ġà¶ĭà¶±à¶Ńà·Ĭ": 1844,
      "Ġà¶½à·Ŀà¶ļ": 1845,
      "ĠUSA": 1846,
      "Ġà¶±à·Ĵà¶½": 1847,
      "Ġà¶īà¶±à·Ĭà¶±à·Ģà¶¯": 1848,
      "à¶±à·Ĳà¶ľà·Ĵ": 1849,
      "Ġà¶¸à¶ľà·Ļà¶±à·Ĭ": 1850,
      "Ġà¶¸à·ľà¶ļà¶§à¶¯": 1851,
      "à¶īà¶ļà·Ĭà¶¸à¶±": 1852,
      "à¶±à·Ĭà¶±à¶¸à·Ĭ": 1853,
      "FF": 1854,
      "Ġà¶¯à·Ļà·Ģà·Ĵà¶ºà¶±à·ļ": 1855,
      "à¶ļà·ľà·Ħà·Ļà¶¯": 1856,
      "Ġà¶Ńà·Ĳà¶±à¶ļà·Ĭ": 1857,
      "Ġà¶¸à¶ł": 1858,
      "Ġà¶±à·Ĳà¶Ńà·Ĭà¶Ńà¶¸à·Ĭ": 1859,
      "Ġà¶ºà¶±à·Ģ": 1860,
      "à·ıà¶½": 1861,
      "Ġà¶´à·Ĵà¶±à·Ĭ": 1862,
      "à¶ĳà¶ºà·ıà¶ľà·ļ": 1863,
      "à¶´à·Ļ": 1864,
      "Ġà·Ħà·Ĵà¶Ńà·Ķà·Ģà·ı": 1865,
      "à¶«à·Ĵà·Ģà·Ĵ": 1866,
      "à¶Ķà¶ºà·ıà·Ģ": 1867,
      "à·Ŀà¶¢": 1868,
      "Ġà·Ģà·Ĳà¶»à·Ĳà¶¯à·Ĭà¶¯": 1869,
      "Ġà¶ļà·ľà·Ħà·Ļ": 1870,
      "à·Ĳà¶±à·Ĵ": 1871,
      "à¶¯à·Ķà¶»": 1872,
      "Ġà¶ĭà¶¯à·Ģà·Ķ": 1873,
      "20": 1874,
      "Ġà¶¯à·Ĵà¶ľà¶§à¶¸": 1875,
      "à¶ļà¶ºà·Ļà¶ļà·Ĭ": 1876,
      "à·ĵà¶Ń": 1877,
      "Ġà¶īà¶ľà·Ļà¶±": 1878,
      "Ġà¶»à·ľ": 1879,
      "Ġà¶ħà¶ºà¶§": 1880,
      "à¶´à¶»à·Ĵ": 1881,
      "Ġà¶©à·Ĵ": 1882,
      "Ġà¶©à·ľ": 1883,
      "Ġà¶Ĩà¶¯à¶»à·ļ": 1884,
      "à¶ħà¶±à·Ĭà¶±": 1885,
      "à·Ļà¶±à·Ļà¶ļà·Ĭ": 1886,
      "à·ĥà·ıà¶¯": 1887,
      "us": 1888,
      "à¶¢à·ĵ": 1889,
      "à·ĥà·Ĭà¶§à·Ĭ": 1890,
      "Ġà·Ħà·Ĵà¶§à¶´à·Ķ": 1891,
      "âĢįà¶§": 1892,
      "Ġà¶±à·Ŀ": 1893,
      "Ġà¶±à·Ķ": 1894,
      "Ġà·Ħà·Ĳà¶¯": 1895,
      "Ġà¶±à·Ģà¶Ńà·Ĭà·Ģà¶±à·Ĭà¶±": 1896,
      "Ġà¶¶à¶½à·ıà¶´à·ľà¶»à·ľà¶Ńà·Ĭà¶Ńà·Ķ": 1897,
      "Ġà¶´à·Ĳà·Ħà·Ĳà¶¯à·Ĵà¶½à·Ĵ": 1898,
      "Ġà¶·à·ıà·Ģà·Ĵ": 1899,
      "âĢįà¶ºà¶ºà·Ĵ": 1900,
      "Ġà¶īà·Ģà¶Ńà·Ĭ": 1901,
      "Ġà¶¯à¶±à·Ĭà¶±à·Ģà¶±à·ļ": 1902,
      "Ġà¶¢à¶±": 1903,
      "à¶ľà¶±": 1904,
      "à·Ħà·Ĳà¶»": 1905,
      "ĠâĻªčĊ": 1906,
      "à¶§à·Ĵà¶ºà¶§": 1907,
      "à¶Ńà·Ķà¶¸": 1908,
      "Ġà¶ļà·Ĵà¶»à·ĵà¶¸à¶§": 1909,
      "Ġà¶Ĩà¶ºà·ļ": 1910,
      "âĢįà¶±": 1911,
      "Ġà¶ľà·Ĵà·Ħà·Ĵ": 1912,
      "à¶ļà·Ĵà¶ºà¶±à·Ĭà¶±": 1913,
      "Ġà¶»à·ļ": 1914,
      "Ġà¶ºà·ıà·ħà·Ķà·Ģà·ı": 1915,
      "Ġà¶¸à·Ħà¶Ńà·Ĭà¶¸à¶ºà·ı": 1916,
      "Ġà¶»à¶§": 1917,
      "Ġà·Ģà·Ļà¶½à·ıà·Ģà¶ļà·Ĭ": 1918,
      "Ġà¶Ńà·Ĵà¶ºà·Ļà¶±à·Ģ": 1919,
      "Ġà·Ģà·Ĵà¶¯à·Ĵà¶º": 1920,
      "à¶±à¶ºà·Ĵ": 1921,
      "Ġà¶ĩà¶³à·Ķ": 1922,
      "Ġà¶ºà·Ģà¶±à·Ĭà¶±": 1923,
      "Ġà¶ľà·Ħà¶±à·Ĭà¶±": 1924,
      "à¶½à·Ĭà¶½à·Ŀ": 1925,
      "à·ĥà·Ĭà¶ļà·Ŀ": 1926,
      "Ġà¶¸à·ľà¶ļà·Ķà¶Ńà·Ĭ": 1927,
      "à¶Ĵà¶ļà·Ļà¶±à·Ĭ": 1928,
      "Ġà·Ħà¶Ńà¶»": 1929,
      "à·ĥà·Ķà¶·": 1930,
      "à¶ļà¶»à·Ķà¶«à·ıà¶ļà¶»à¶½à·ı": 1931,
      "Ġà¶»à·ıà¶Ńà·Ĭ": 1932,
      "Ġà¶¶à¶½à¶±à·Ĭ": 1933,
      "Ġà¶¯à·Ĳà¶±à¶§à¶¸à¶Ńà·Ĭ": 1934,
      "Ġà¶´à·Ĵà¶ºà·ı": 1935,
      "Ġà¶½à·ĳà·ĥà·Ĭà¶Ńà·Ĵ": 1936,
      "Ġà¶½à·Ķ": 1937,
      "Ġà¶´à·ĥà·Ĭà·ĥà·Ļà¶±à·Ĭ": 1938,
      "à¶ľà·ľà¶©à¶ļà·Ĭ": 1939,
      "à¶½à¶ºà¶ļà·Ĭ": 1940,
      "Ġà·Ģà¶Ńà·ıà·Ģ": 1941,
      "à¶ľà·Ĵà¶º": 1942,
      "Ġà¶¯à·Ĳà¶ļà¶½à·ı": 1943,
      "Ġà¶´à·ľà¶½à·Ĵà·ĥà·Ĭ": 1944,
      "Ġà¶Ĩà¶ºà·Ļà¶Ńà·Ĭ": 1945,
      "à·ļà¶¯à·ĵ": 1946,
      "Ġà¶¯à·Ļà¶±à·Ĭà¶±à¶¸à·Ĭ": 1947,
      "Ġà·ĥà·Ĵà¶¯à·Ĭà¶¯": 1948,
      "à·Ħà·ıà¶ºà·Ĵ": 1949,
      "à·ıà¶ļà·Ĭ": 1950,
      "et": 1951,
      "à·Ģà·ıà¶¯": 1952,
      "Ġà¶¢à·Ĵà·Ģà·Ĵ": 1953,
      "Ġà·ĥà·Ķà¶¯à·Ķ": 1954,
      "à¶©à·Ķà·Ģ": 1955,
      "Ġà¶¢à·ĵà·Ģà·Ĵà¶Ńà¶º": 1956,
      "à¶Ńà·Ķà¶¸à·Ĭ": 1957,
      "Ġà·ĥà·Ĭà¶§": 1958,
      "Ġà¶ħà¶ºà·Ĵà¶Ńà·Ĵ": 1959,
      "Ġà¶±à¶Ńà¶»": 1960,
      "Ġà¶¯à¶ļà·Ĭ": 1961,
      "Ġà¶ºà·ıà¶½à·Ķà·Ģ": 1962,
      "à¶½à·Ĵà¶ºà¶±": 1963,
      "Ġà¶Ńà·Ĵà¶¶à·Ķà¶±à·ļ": 1964,
      "à¶Ńà¶ļà·Ĭ": 1965,
      "Ġà¶¸à¶±à·Ĭ": 1966,
      "Ġà¶´à·Ķà¶¯à·Ĭà¶ľ": 1967,
      "âĢįà¶»à·Ļ": 1968,
      "Ġà¶´à·ıà¶»à¶ļà·Ĭ": 1969,
      "âĢįà¶»à·Ĵà¶º": 1970,
      "à¶Łà¶ļà·Ĭ": 1971,
      "Ġà·Ħà·ľà¶³à¶¸": 1972,
      "à¶»à·Ģ": 1973,
      "à·Ķà¶»": 1974,
      "à¶¸à·Ĭà¶·": 1975,
      "Ġà¶Ĵà·Ģ": 1976,
      "Ġà¶ħà¶½à·Ĭà¶½à¶ľà¶±à·Ĭà¶±": 1977,
      "à¶ľà¶±à·Ĭà¶±à·ļ": 1978,
      "Ġà¶·à·ı": 1979,
      "Ġà¶ļà·Ĵà·Ħà·Ĵ": 1980,
      "Ġà¶´à·Ļà¶±à·Ĭà·Ģà¶±à·Ĭà¶±": 1981,
      "Ġà¶ĭà·ĥ": 1982,
      "Ġà¶ħà¶±à·Ĭà¶Ńà·Ĵà¶¸": 1983,
      "Ġà¶Ńà·ľà¶»à¶Ńà·Ķà¶»à·Ķ": 1984,
      "ct": 1985,
      "Ġà·Ģà·Ĵà¶ļà·ıà¶»": 1986,
      "à¶Łà·Ĵ": 1987,
      "à¶ľà·Ħ": 1988,
      "ed": 1989,
      "Ġà¶¯à·ıà¶±à·Ģà·ı": 1990,
      "ĠT": 1991,
      "à·ĥà·Ķà·Ģ": 1992,
      "Ġà¶īà¶±à·Ĭ": 1993,
      "à¶´à·ĥà·Ĭà·ĥà·ļ": 1994,
      "à¶´à¶º": 1995,
      "Ġà¶¶à·ļà¶»à¶ľà¶±à·Ĭà¶±": 1996,
      "Ġà¶ĩà¶Ńà·Ķà¶½à·ļ": 1997,
      "Ġà¶»à·Ļ": 1998,
      "Ġto": 1999,
      "âĢįà¶»à·ģà·Ĭà¶±": 2000,
      "Ġà¶īà·Ħ": 2001,
      "Ġà¶Ńà·Ĳ": 2002,
      "Ġà¶±à·Ĵà¶¯à·Ħà·ĥà·Ĭ": 2003,
      "Ġà¶ľà·Ŀ": 2004,
      "Ġà¶ĩà·Ħ": 2005,
      "Ġà¶Ķà·Ģà·Ķà¶±à·Ĭà¶§": 2006,
      "Ġà¶»à¶¢": 2007,
      "Ġà¶ļà·ľà·Ħà·ľà¶¸": 2008,
      "Ġà·Ģà·Ļà¶±à·Ĭ": 2009,
      "à¶ľà¶ºà¶ļà·Ĭ": 2010,
      "Ġà¶¸à¶Ńà¶ļà·Ĭ": 2011,
      "à¶´à·Ĵà¶»à·Ĵ": 2012,
      "ĠF": 2013,
      "à·ĥà¶±à·Ĭà¶±": 2014,
      "à·ĥà·Ŀ": 2015,
      "Ġà¶Ńà¶±à·Ĵà¶ºà¶¸": 2016,
      "à¶Ńà·ıà¶Ńà·Ĭà¶Ńà·ļ": 2017,
      "à¶Ĵà·Ģà·ı": 2018,
      "Ġà¶´à·Ĳà¶±à¶½à·ı": 2019,
      "à·Ģà·Ĵà¶±à·Ĭ": 2020,
      "à¶ºà¶»à·Ĭ": 2021,
      "à¶ľà·ĵ": 2022,
      "Ġà·Ħà·Ļà¶§": 2023,
      "Ġà¶±à·Ĳà·Ģ": 2024,
      "à·Ħà¶§": 2025,
      "à¶±à·ľ": 2026,
      "à·ıà·Ģà·ļ": 2027,
      "Ġy": 2028,
      "à¶ĳà¶ºà·ıà·Ģ": 2029,
      "Ġà¶ĩà·Ģà·Ĵà¶½à·Ĭà¶½à·ı": 2030,
      "Ġà¶ħà¶´à¶»à·ıà¶°": 2031,
      "Ġà·Ģà·Ĳà¶©à·Ĵà¶º": 2032,
      "à·Ĩà·Ĵ": 2033,
      "à·Ļà¶¸": 2034,
      "à¶½à·Ĳ": 2035,
      "Ġà·ĥà·ıà¶ļà·Ĭà·Ĥ": 2036,
      "à¶Ķà¶¶à·ļ": 2037,
      "ĠB": 2038,
      "Ġà¶»à·ĥà·Ĭà·ĥ": 2039,
      "Ġà·Ħà·ĵ": 2040,
      "à¶ļà·ıà¶»à¶º": 2041,
      "à¶ļà·Ĭà¶ļà·ı": 2042,
      "Ġà¶±à·Ļà·Ģà·ļ": 2043,
      "à¶ķà·Ħà·Ĭ": 2044,
      "Ġà¶¶à¶½à¶¸à·Ķ": 2045,
      "à¶´à·Ĭà¶´à·Ķ": 2046,
      "à·ĳà¶¸": 2047,
      "Ġà¶łà·Ĵà¶Ńà·Ĭ": 2048,
      "Ġà¶ľà¶±à·Ĭà¶±à·ļ": 2049,
      "Ġà¶ħà·ħà·Ķ": 2050,
      "Ġà·ĥà¶§": 2051,
      "à¶»à¶«": 2052,
      "à¶ħà·Ħà·Ĭ": 2053,
      "Ġà¶´à·Ĳà¶Ńà·Ĭà¶Ńà¶§": 2054,
      "Ġà¶ļà¶Ńà·ıà¶ļà¶»": 2055,
      "Ġà·Ģà¶»à·Ĭ": 2056,
      "Ġà¶¸à·Ĳà¶»à·Ĵà¶½à·ı": 2057,
      "Ġà·ĥà¶¸à·ıà·Ģ": 2058,
      "ĠâĪĻčĊ": 2059,
      "Ġà·ĥà·Ĳà¶½à·Ĳ": 2060,
      "ĠN": 2061,
      "à·Ħà·Ĳà¶¸à·Ŀà¶¸": 2062,
      "Ġà·Ħà·ľà¶ºà¶±à·Ĭà¶±": 2063,
      "âĢįà·Ģ": 2064,
      "Ġà·Ģà¶ºà·Ĵ": 2065,
      "à¶±à·Ĭà¶±à·ı": 2066,
      "à·Ļà¶ºà¶ļà·Ĭà¶¸": 2067,
      "à¶¨": 2068,
      "à·Ħà·Ĳà¶¸à¶¯": 2069,
      "Ġà·Ģà·Ĵà·ĥà·Ĭà¶Ńà¶»": 2070,
      "à¶±à·Ļà·Ĭ": 2071,
      "Ġà¶¶à¶»": 2072,
      "à·ģà·ĵ": 2073,
      "Ġà¶½à·ı": 2074,
      "Ġà¶Ķà¶¶à·Ģ": 2075,
      "Ġà¶¸à·ıà·ĥ": 2076,
      "âĢįà¶ºà¶º": 2077,
      "Ġà¶±à¶ľà¶»": 2078,
      "Ġà·Ħà¶¸à·Ķà¶¯": 2079,
      "Ġà·Ģà·Ĵà¶±à·ıà¶©à·Ĵ": 2080,
      "Ġà¶±à·Ļà·Ģà¶ºà·Ĵ": 2081,
      "Ġà¶¯à·Ļà¶±à·Ĭà¶±à·ļ": 2082,
      "à·ģà·Ĵ": 2083,
      "Ġà·ģà·ı": 2084,
      "Ġà¶±à·ľà¶ļà¶»": 2085,
      "Ġà¶ļà¶®à·ı": 2086,
      "à¶¶à·Ļ": 2087,
      "Ġà¶ľà·Ĳà¶½": 2088,
      "Ġà¶´à·Ķà¶Ĥà¶łà·Ĵ": 2089,
      "à¶ħà·Ħà¶±à·Ĭà¶±": 2090,
      "Ġà¶´à·ĸ": 2091,
      "Ġà¶ľà·Ĳà¶±à¶¯": 2092,
      "à¶ļà·ıà·ģ": 2093,
      "Ġà¶´à¶»à¶«": 2094,
      "ay": 2095,
      "Ġh": 2096,
      "Ġà¶¸à·Ļà¶łà·Ĭà¶łà¶»": 2097,
      "à¶ļà¶Ĥ": 2098,
      "à¶±à¶±à·Ĭ": 2099,
      "à¶©à·Ŀ": 2100,
      "Ġà¶¸à·ıà¶»à·Ĭ": 2101,
      "Ġà¶¸à¶»à¶«": 2102,
      "Ġà·Ħà·ľà¶¯à¶§": 2103,
      "Ġà¶´à·Ĳà¶§à·Ĵà¶º": 2104,
      "âĢįà¶»à¶°à·ıà¶±": 2105,
      "Ġà¶īà¶Ńà·ı": 2106,
      "à·ħà¶§": 2107,
      "and": 2108,
      "Ġà¶ļà¶´": 2109,
      "Ġà·ĥà·ĸà¶¯à·ıà¶±à¶¸à·Ĭ": 2110,
      "Ġà¶±à·Ĳà¶Ń": 2111,
      "âĢįà·Ĥ": 2112,
      "ĠK": 2113,
      "à·ĥà·Ĭà·Ģ": 2114,
      "Ġà¶¯à¶ļà·Ĭà·Ĥ": 2115,
      "âĢįà¶»à¶º": 2116,
      "Ġà¶ļà·Ĵà¶ºà¶±à·Ĭà¶±à¶¸à·Ĭ": 2117,
      "Ġà¶Ĩà¶´à·Ķ": 2118,
      "**": 2119,
      "Ġà·ĥà·Ŀ": 2120,
      "à¶¶à·ĵ": 2121,
      "Ġà·Ģà·ĸ": 2122,
      "à¶ĭà¶¯": 2123,
      "Ġà¶Ńà·Ģà¶¸à¶Ńà·Ĭ": 2124,
      "ĠI": 2125,
      "à·ĥà·Ĭà¶®à·ı": 2126,
      "Ġà·ĥà¶¸à·Ħà¶»à·Ģà·Ĵà¶§": 2127,
      "à·Ģà·Ĳà¶»": 2128,
      "Ġà¶ºà¶ºà·Ĵ": 2129,
      "à¶ĳà·Ħà·Ļ": 2130,
      "Ġà·Ģà·Ĵà·ĥ": 2131,
      "Ġà¶¸à·Ķà¶¯": 2132,
      "ot": 2133,
      "Ġà·ĥà¶Ńà·Ķà¶§à¶ļà·Ĭ": 2134,
      "Ġà¶ħà¶Ĥà¶ļ": 2135,
      "à·Ķà¶±à·ı": 2136,
      "âĢįà¶¸": 2137,
      "Ġà·ĥà·Ħà·Ŀà¶¯à¶»à¶ºà·ı": 2138,
      "Ġà¶¸à·Ļà¶Ńà¶±à¶§": 2139,
      "Ġà¶¯à·Ĳà¶ļà·Ĭà¶ļà¶¯": 2140,
      "Ġà¶Ńà·ľ": 2141,
      "Ġà¶¯à·Ĳà¶¸à·Ĭà¶¸à·ı": 2142,
      "Ġà¶ļà·ıà¶§à·Ģà¶Ńà·Ĭ": 2143,
      "Ġà¶¯à·ľ": 2144,
      "Ġà·Ģà·Ĳà¶©à·Ĵà¶ºà·Ĵ": 2145,
      "Ġà¶¸à¶¸à¶ºà·Ĵ": 2146,
      "à¶ļà·ıà¶»à¶ºà·Ļà¶ļà·Ĭ": 2147,
      "à¶Ńà·Ĵà¶ºà·ļ": 2148,
      "à¶°à·ıà¶±à¶º": 2149,
      "à¶¯à·Ĳà¶±": 2150,
      "à¶¯à·Ĵà¶ºà·Ĵ": 2151,
      "Ġà·Ħà·ľà¶¯à·Ĵà¶±à·Ĭà¶¯": 2152,
      "Ġà¶Ńà·Ĵà¶¶à·Ķà¶±": 2153,
      "à¶½à·Ļà¶ļà·Ĭ": 2154,
      "Ġà¶ħà¶»à·Ĵà¶±à·Ĭà¶±": 2155,
      "Ġà¶±à·Ĳà¶ľà·Ĵ": 2156,
      "à·Ģà·Ļà¶±à·Ģà·ı": 2157,
      "Ġà¶¯à·Ģà·ĥà¶ļà·Ĭ": 2158,
      "Ġà¶Ĩà¶»à¶ļà·Ĭà·Ĥà·Ĵà¶Ń": 2159,
      "Ġà¶īà¶Ńà·Ĵ": 2160,
      "à¶»à·ľ": 2161,
      "Ġà¶Ńà·ıà¶Ńà·Ĭà¶Ńà·ļ": 2162,
      "Ġà¶ļà·ıà¶¸à¶»": 2163,
      "Ġà¶Ķà¶±": 2164,
      "à·ĥà·Ĭà¶Ńà·Ķà¶Ńà·Ĵà¶ºà·Ĵ": 2165,
      "Ġà¶Ķà¶ºà·ıà¶ľà·Ļà¶±à·Ĭ": 2166,
      "à¶»à·Ķà¶«": 2167,
      "am": 2168,
      "à¶©à·Ĵà¶º": 2169,
      "Ġà·Ħà·ľà¶»à¶ļà¶¸à·Ĭ": 2170,
      "à·ĥà¶Ĥ": 2171,
      "à¶¸à·Ĵà¶±à·Ĵà·ĥà·Ĭà·ĥà·Ķ": 2172,
      "à·Ļà¶±à·Ĵ": 2173,
      "Ġà¶¸à·Ĵà¶º": 2174,
      "Ġà¶»à·Ķ": 2175,
      "Ġyou": 2176,
      "Ġà¶¯à·Ļà¶±à·Ĭà¶±à·ı": 2177,
      "Ġà·Ģà·Ĵà·ĥà·Ĵà¶±à·Ĭ": 2178,
      "Ġà¶ĳà¶ļà¶ºà·Ĵ": 2179,
      "Ġà¶±à·Ģà¶Ńà·Ĵ": 2180,
      "Ġà¶ĳà¶ºà·ıà¶½à·Ģ": 2181,
      "âĢįà¶»à·ĵà¶º": 2182,
      "à¶±à·ĵà¶¸": 2183,
      "Ġà¶¯à·Ķà¶»à¶ļ": 2184,
      "Ġà¶´à¶«à·Ĵà·Ģà·Ĵ": 2185,
      "Ġà¶Ńà·Ķà·Ģà·ı": 2186,
      "à¶»à·Ĵà¶ºà¶§": 2187,
      "à¶Ńà¶±à·Ĭ": 2188,
      "Ġà¶Ķà·Ħà·Ķà¶ľà·Ļ": 2189,
      "à·ĥà·Ĭà¶Ńà·ĸà¶Ńà·Ĵà¶ºà·Ĵ": 2190,
      "Ġà·Ģà·Ĵà·Ģà·ıà·Ħ": 2191,
      "ĠP": 2192,
      "à¶Ĵà·Ģà¶ľà·ļà¶¸": 2193,
      "à¶½à¶ļà·Ĭà¶ļ": 2194,
      "Ġà·ĥà·Ĵà¶¯à·Ķ": 2195,
      "Ġà¶¶à¶±à·Ĭ": 2196,
      "Ġà·Ģà·Ĳà¶§à·Ķ": 2197,
      "Ġà·Ħà·ľà¶³à·Ĵà¶±à·Ĭà¶¯": 2198,
      "Ġà·Ħà¶¯à·Ĵ": 2199,
      "Ġà·ĥà¶Ńà·Ķà¶§à·Ķ": 2200,
      "Ġà¶ķà¶±à¶¯": 2201,
      "à¶Ńà¶»à¶¸à·Ĭ": 2202,
      "Ġà·Ħà·Ĳà¶¯à·Ķ": 2203,
      "Ġà·Ģà·Ļà¶łà·Ĭà¶ł": 2204,
      "à¶½à·ĸ": 2205,
      "Ġà¶´à¶«": 2206,
      "Ġà¶¸à·ļà·Ģà·ı": 2207,
      "à¶¸à·ľà¶±à·Ģà·ı": 2208,
      "à¶´à·ľà¶©à·Ĭà¶©à¶ļà·Ĭ": 2209,
      "à¶©à¶¸à·Ĭ": 2210,
      "à·Ħà·Ļà¶±à·Ĭà¶¯": 2211,
      "à·Ħà·Ĵà¶»": 2212,
      "Ġà¶Ńà¶¯": 2213,
      "of": 2214,
      "à¶ħà¶º": 2215,
      "à¶Ńà·Ĵà¶¸à¶Ńà·Ĭ": 2216,
      "à¶ļà¶»à¶«": 2217,
      "Ġà¶ħà¶±à·ı": 2218,
      "Ġà¶ľà¶½": 2219,
      "à¶½à¶ľ": 2220,
      "à¶Ńà¶±à¶º": 2221,
      "Ġà·Ģà·Ĵà·ģà·Ĭà·Ģà·ıà·ĥà¶ºà·Ĵ": 2222,
      "Ġà¶·à¶ºà·ıà¶±": 2223,
      "Ġà¶ļà¶Ńà·ıà¶ļà¶»à¶±à·Ĭà¶±": 2224,
      "Ġà¶¯à·Ħ": 2225,
      "Ġà¶ħà¶¸à·Ĭà¶¸": 2226,
      "Ġà·Ħà·Ĵà¶Ńà·Ķà·Ģà·Ļ": 2227,
      "à¶·à·ı": 2228,
      "Ġà¶Ńà·Ħ": 2229,
      "à¶¸à·Ħ": 2230,
      "à¶ļà¶ºà·ı": 2231,
      "Ġà¶ħà¶Ńà·Ķà¶»à·Ķ": 2232,
      "Ġà·Ģà·Ĵà·ĥà·Ĵ": 2233,
      "Ġà¶īà¶¯à¶½à·ı": 2234,
      "Ġà·Ģà·Ļà¶½à·ıà·Ģà·Ļ": 2235,
      "Ġà·ĥà¶±à·Ĭ": 2236,
      "Ġà¶Ńà·Ĭ": 2237,
      "Ġà¶ļà·Ĳà¶¸à·Ĳ": 2238,
      "Ġà¶¸à¶»à¶½à·ı": 2239,
      "15": 2240,
      "Ġà¶¯à·Ĵà¶º": 2241,
      "à¶´à·ĥà·Ķ": 2242,
      "à¶ºà·Ĵà¶ºà¶±à·ļ": 2243,
      "Ġà¶´à¶»à¶ļà·Ĭà¶ļà·Ķ": 2244,
      "Ġ!": 2245,
      "à¶½à·ļà¶¸": 2246,
      "à¶¸à·Ĭà·ĥà·Ĭ": 2247,
      "Ġà¶ļà¶ļà·Ķ": 2248,
      "à¶§à·Ĭà¶§à·Ķà·Ģ": 2249,
      "Ġà¶¶à·Ŀà¶¸à·Ĭà¶¶": 2250,
      "à¶łà·ıà¶»à·Ĭ": 2251,
      "Ġà¶½à·ĥà·Ĭà·ĥà¶±à¶ºà·Ĵ": 2252,
      "Ġà¶»à·Ħ": 2253,
      "Ġà·Ħà·Ķà¶Łà¶ļà·Ĭ": 2254,
      "Ġà¶Ńà·ĵà¶»à¶«à¶º": 2255,
      "à¶Ķà·Ħà·Ķà¶§": 2256,
      "à¶īà¶ļà·Ĭà¶¸à¶±à¶§": 2257,
      "Ġà·Ģà·Ķà¶«à·ļ": 2258,
      "à¶©à·ĵ": 2259,
      "à¶Ķà¶ļà·Ĭà¶ļ": 2260,
      "Ġà¶½à·Ĳà¶¶à·Ķà¶±à·ı": 2261,
      "Ġà¶¸à¶Łà·Ķ": 2262,
      "Ġà¶ļà¶«à¶ľà·ıà¶§à·Ķà¶ºà·Ĵ": 2263,
      "Ġà¶¸à·ĵà¶§": 2264,
      "à·ļà·Ģà·Ĵ": 2265,
      "à¶´à¶»à·Ĭ": 2266,
      "à¶»à¶±à·Ĭ": 2267,
      "Ġà¶Ńà¶±à·Ĵ": 2268,
      "à·Ħà¶»à·Ĵà¶ºà¶§": 2269,
      "à·Ĵà¶½à·ı": 2270,
      "Ġà·Ģà·Ķà¶«": 2271,
      "Ġà¶»à·Ħà·ĥà·Ĭ": 2272,
      "à¶¸à·ıà¶±": 2273,
      "Ġà¶¸à·ľà·Ħà·ľ": 2274,
      "à¶¢à·Ĳà¶ļà·Ĭ": 2275,
      "à¶ħà·Ģ": 2276,
      "à¶½à·ıà¶ļà·Ĭ": 2277,
      "à·ĥà·Ĭà¶Ń": 2278,
      "Ġà¶½à·Ŀà¶ļà¶º": 2279,
      "Ġà·Ħà·Ĳà¶§à·Ĵà¶ºà¶§": 2280,
      "à¶Ńà¶¸à·Ķà·ĥà·Ļ": 2281,
      "à¶»à·Ķà¶«à·Ķ": 2282,
      "Ġà¶¸à·ıà¶»": 2283,
      "à¶¶à·Ĳà¶ºà·Ĵ": 2284,
      "Ġà¶ĳà¶±à·Ĭà¶±à·Ļ": 2285,
      "Ġà¶ļà·ľà·Ħà¶¯à·Ļ": 2286,
      "à·Ģà·Ķà·Ģà·ı": 2287,
      "Ġà¶¶à·ĵ": 2288,
      "à¶½à¶¯": 2289,
      "Ġà¶´à¶¸à¶«": 2290,
      "Ġà¶´à¶¯à·Ĭà¶°": 2291,
      "à¶§à·Ķà·Ģ": 2292,
      "Ġà¶ħà¶±à·Ķà·Ģ": 2293,
      "Ġà¶Ńà·Ĵà¶¶à·Ĭà¶¶à·ļ": 2294,
      "Ġà¶ħà·Ģà·ĥà·Ĭà¶®à·ıà·Ģ": 2295,
      "Ġà·Ģà·Ļà¶½à·ıà·Ģà·ļ": 2296,
      "Ġà·Ħà¶¯à·ı": 2297,
      "Ġà¶¶à·ľà·Ħà·ľà¶¸": 2298,
      "Ġà¶¶à·Ģà¶§": 2299,
      "Ġà¶ĳà·Ħà·Ļà¶¸à¶ºà·Ĵ": 2300,
      "Ġà¶ĩà¶ľà·ļ": 2301,
      "à·Ħà·Ĳà¶±": 2302,
      "Ġà¶Ńà·Ĵà¶ºà¶±à·Ģà¶¯": 2303,
      "Ġà¶ľà·ŀ": 2304,
      "Ġà¶¸à·Ļà·Ħà·Ļà¶ºà·Ķ": 2305,
      "Ġà·ĥà·ľà¶ºà·ı": 2306,
      "Ġà·ģà·Ĵ": 2307,
      "Ġà·Ħà·Ĳà¶§à·Ĵ": 2308,
      "Ġà¶´à·ļà¶±à·Ģà·ı": 2309,
      "à¶ľà¶¸": 2310,
      "Ġà·Ģà·Ĵà¶±à·Ŀ": 2311,
      "à·Ģà¶½à¶§": 2312,
      "Ġà¶±à·ĵà¶Ńà·Ĵ": 2313,
      "à¶©à¶»à·Ĭ": 2314,
      "Ġà·Ģà·ľ": 2315,
      "à¶ļà¶ºà¶ļà·Ĭ": 2316,
      "Ġà¶´à·Ķà¶»à·Ķ": 2317,
      "Ġà¶½à·Ĵà¶´à·Ĵ": 2318,
      "Ġà·Ħà·ļà¶ºà·Ĵ": 2319,
      "à¶ļà·Ĭà·ĥà·Ĭ": 2320,
      "Ġà¶ļà·ľà·Ħà·ļà¶¯": 2321,
      "Ġà¶ºà¶¸à¶ļà·Ĭ": 2322,
      "à·Ģà·Ķà¶»à·Ķà¶¯à·Ĭà¶¯": 2323,
      "à¶ħà¶´à·ľà¶ºà·Ĵ": 2324,
      "Ġà¶ĩà¶³": 2325,
      "Ġà¶ľà·ıà¶±à¶ļà·Ĭ": 2326,
      "Ġà¶¶à¶½à¶º": 2327,
      "Ġà¶¶à·Ĵà¶¸": 2328,
      "âĢįà¶»à·Ŀ": 2329,
      "Ġà¶±à·Ĵà¶»à·Ĭà¶¸à·ı": 2330,
      "Ġà¶ĳà¶±à·Ģ": 2331,
      "Ġà¶´à·ıà¶§": 2332,
      "Ġà¶ħà¶»à¶ľà¶±à·Ĭà¶±": 2333,
      "Ġà¶ħà·Ģà·Ķà¶½à·Ĭ": 2334,
      "à¶±à·ľà¶Ńà·Ĭ": 2335,
      "ĠG": 2336,
      "Ġà¶´à·Ĵà¶º": 2337,
      "à¶©à·Ĵà¶ºà·Ŀ": 2338,
      "à¶ħà·Ģà·Ķà¶»à·Ķà¶¯à·Ķ": 2339,
      "à¶Ńà¶§": 2340,
      "à¶´à·Ĭà¶§à¶±à·Ĭ": 2341,
      "Ġà¶¸à·Ļà·Ħà·Ļà¶±à·Ĭ": 2342,
      "à¶Ńà·ıà¶Ńà·Ĭà¶Ńà·ı": 2343,
      "Ġà·Ģà¶»à¶¯": 2344,
      "Ġà·ĥà·Ĵà¶Ĥ": 2345,
      "à¶´à¶½": 2346,
      "Ġà·Ħà·Ĵà¶Ńà¶±à·Ģà¶¯": 2347,
      "à·Ħà¶»à·Ĵà¶¯": 2348,
      "à¶´à¶»": 2349,
      "Ġà¶´à·Ĳà¶Ńà·Ĭà¶Ńà·ļ": 2350,
      "à¶ļà¶¸à¶ļà·Ĭ": 2351,
      "Ġà·ĥà·Ĵà¶§": 2352,
      "Ġà·Ħà¶¯à·Ģà¶Ń": 2353,
      "Ġà¶ļà·Ļà¶½à·Ĭà¶½à·Ļà¶ļà·Ĭ": 2354,
      "Ġà¶¯à·ĵà¶½à·ı": 2355,
      "à¶ľà·ıà¶»": 2356,
      "à¶»à·Ĵà¶ļà·ı": 2357,
      "à¶±à·Ļà·Ģà·ı": 2358,
      "à·ĥà·Ĵà¶»": 2359,
      "Ġà¶ºà·ıà¶½à·Ķà·Ģà·ı": 2360,
      "à¶±à·Ĭà¶§à·Ĭ": 2361,
      "Ġà·ĥà¶¸à¶Ł": 2362,
      "à·ģà·ı": 2363,
      "Ġà¶¶à¶©à·Ķ": 2364,
      "à¶ķà¶ļ": 2365,
      "Ġà¶¢à·Ŀ": 2366,
      "Ġà¶Ńà·Ŀà¶»": 2367,
      "à¶ļà·ıà¶§": 2368,
      "ĠR": 2369,
      "à¶¸à¶Ńà¶ļ": 2370,
      "Ġà¶´à·Ķà·Ħà·Ķ": 2371,
      "Ġà·ĥà¶¯à·Ĭà¶¯": 2372,
      "Ġà¶Ĩà¶»à¶ļà·Ĭà·Ĥà¶ļ": 2373,
      "à¶ĳà¶Ńà¶±": 2374,
      "Ġà¶¸à·Ħà·ı": 2375,
      "Ġà·ĥà·Ĵà·Ħà·Ĵ": 2376,
      "à¶ļà·Ģà·Ķ": 2377,
      "Ġà¶ºà¶¸à·Ĭ": 2378,
      "à·ĥà¶ļ": 2379,
      "Ġà·Ģà·Ĵà·Ģà·ĺ": 2380,
      "Ġà¶Ĩà¶ºà·Ķà¶°": 2381,
      "à¶¯à·Ķà¶¸à·Ĭ": 2382,
      "30": 2383,
      "Ġà¶ĭà¶Ńà·Ĭà¶Ńà¶»": 2384,
      "ment": 2385,
      "Ġà¶Ńà·Ģà¶¸": 2386,
      "Ġà·Ģà·Ĵà¶»à·Ķ": 2387,
      "Ġà¶´à·Ĵà·ĥà·Ĭà·ĥ": 2388,
      "à¶¶à¶½à·ı": 2389,
      "âĢįà¶»à·Ģà·Ĭ": 2390,
      "Ġà¶¸à¶±": 2391,
      "Ġà¶¸à·Ļà¶¸": 2392,
      "Ġà¶¶à¶©": 2393,
      "à¶´à·Ħ": 2394,
      "Ġà¶¸à¶ľà·Ŀ": 2395,
      "Ġà¶ĭà¶¹à·ļ": 2396,
      "à¶°à·Ĵà¶´à¶Ńà·Ĵ": 2397,
      "Ġà¶ħà·Ģà·ĥà¶±à·Ĭ": 2398,
      "Ġà·Ħà·ľà¶ºà·ıà¶ľà·Ļà¶±": 2399,
      "Ġà¶¶à·Ĵà¶»à·Ĵà¶³": 2400,
      "à¶§à·Ĵà¶±à·Ĭà¶±": 2401,
      "à·Ĵà¶±à·Ĭà¶¯à·ı": 2402,
      "12": 2403,
      "Ġà¶ħà¶´à¶§": 2404,
      "à¶ĳà¶ºà·ıà¶½à¶§": 2405,
      "Ġà·ĥà·Ĵà¶¯à·Ķà·Ģ": 2406,
      "à¶½à¶ļ": 2407,
      "à¶½à¶Ł": 2408,
      "à·ħà¶Ł": 2409,
      "à¶¸à¶§à¶Ńà·Ĭ": 2410,
      "Ġà¶ĳà¶ºà·Ĵ": 2411,
      "st": 2412,
      "Ġà·ĥà·Ĭà¶®": 2413,
      "à·ľà¶ļà·Ĭà¶§à¶»à·Ĭ": 2414,
      "Ġà¶ľà·Ļà¶±à·Ĵà¶ºà¶±à·Ĭà¶±": 2415,
      "Ġà¶īà¶³à¶½à·ı": 2416,
      "Ġà·ĥà·Ķà¶»": 2417,
      "Ġà¶Ńà·Ŀà¶»à·ı": 2418,
      "à¶±à·Ĭà¶ľà·Ļ": 2419,
      "Ġà¶¸à·Ķà¶«à¶ľà·Ĳ": 2420,
      "à¶ĳà¶ºà·ıà¶ľà·Ļ": 2421,
      "à·ĥà·Ĵà¶ºà¶§": 2422,
      "Ġà¶ĩà¶Ńà·Ķà¶½à·Ĭ": 2423,
      "à·Ļà¶Ńà·Ĭ": 2424,
      "Ġà¶ħà·Ģà·ĥà·Ĭà¶®à·ıà·Ģà¶ļà·Ĭ": 2425,
      "à¶½à·Ĵà·ĥà·Ĭ": 2426,
      "à¶¶à¶»à·Ĭ": 2427,
      "Ġà¶Ńà·Ķà¶±": 2428,
      "Ġà¶±à·Ĵà¶ļà¶¸à·Ĭ": 2429,
      "Ġà¶´à¶»à·ĵà¶ļà·Ĭà·Ĥà·ı": 2430,
      "Ġà·Ħà·Ĳà¶¸à·Ŀà¶§à¶¸": 2431,
      "Ġà¶ļà·ıà¶¸à¶»à·ļ": 2432,
      "à·Ļà¶ļà·Ķà¶§": 2433,
      "à¶½à·Ĭà¶½à·Ķ": 2434,
      "à¶ļà·Ĵà·ĥà·Ĵà¶¸": 2435,
      "Ġà·Ħà¶¯à¶±à·Ĭà¶±à·Ļ": 2436,
      "à¶¸à·ľà¶±à·ıà¶¯": 2437,
      "Ġà¶Ńà¶Ńà·Ĭà·Ģ": 2438,
      "Ġà¶¸à·ıà¶»à·Ķ": 2439,
      "Ġà·Ħà·Ĵà¶Ńà¶±": 2440,
      "Ġà¶¸à·Ĵà¶±à·Ĵà·ĥà·Ĭà·ĥà·Ķà¶±à·Ĭà¶§": 2441,
      "--čĊ": 2442,
      "Ġà¶ħà¶½à·Ĭà¶½à¶±à·Ĭà¶±": 2443,
      "Ġà¶¸à·Ļà¶±à·Ĭà¶±": 2444,
      "Ġà¶Ńà·Ĵà·ĥà·Ĭà·ĥ": 2445,
      "à¶ĩà¶ºà¶§": 2446,
      "Ġà¶Ĩà¶»à¶¸à·Ĭà¶·": 2447,
      "Ġà¶ĭà¶©à¶§": 2448,
      "Ġà¶¯à·Ļà¶±à·Ļà¶ļà·Ĭ": 2449,
      "Ġà¶Ńà·ļà¶»à·Ļà¶±à·Ģà·ı": 2450,
      "à¶ļà¶»à¶½à·ı": 2451,
      "Ġà¶ķà¶±à·Ļà¶¯": 2452,
      "Ġà¶¸à·Ĵà¶½à·Ĵà¶ºà¶±": 2453,
      "Ġà·Ħà¶»à·Ħà·ı": 2454,
      "Ġà¶ļà·ıà¶±à·Ĭ": 2455,
      "à¶ħà¶ºà·Ĵ": 2456,
      "à¶´à·ļà¶±": 2457,
      "Ġà¶¯à·Ķà¶±à·Ĭà¶±à·ļ": 2458,
      "Ġà¶¶à·ıà¶»": 2459,
      "à¶ļà·Ģà¶¯": 2460,
      "à·Ĥà·Ĭà¶¨": 2461,
      "Ġà¶ļà·ıà¶½à·ļ": 2462,
      "Ġà·Ħà·Ĳà¶ļ": 2463,
      "âĢįà¶¯": 2464,
      "Ġà¶Ńà¶»à·Ĭ": 2465,
      "Ġà·Ģà¶ľà·Ļ": 2466,
      "Ġà·Ģà·ıà¶»à·Ĭà¶Ńà·ı": 2467,
      "à·Ħà·Ļà¶ºà·Ĵ": 2468,
      "we": 2469,
      "Ġà¶ľà·Ļà¶¯à¶»à¶§": 2470,
      "à¶¯à·Ĵà¶½à·ı": 2471,
      "Ġà¶±à·ĳà¶±à·ļ": 2472,
      "à¶Ķà¶ºà·ıà¶½à¶§": 2473,
      "Ġà¶´à·Ĳà¶Ńà·Ĭà¶Ńà·Ļà¶±à·Ĭ": 2474,
      "Ġà¶´à¶¯": 2475,
      "Ġà¶Ķà·Ħà·ľà¶¸": 2476,
      "Ġà¶ĭà·ĥà·Ĭà·ĥ": 2477,
      "Ġà¶¯à·ıà¶½": 2478,
      "ab": 2479,
      "Ġà¶±à¶Ĥà¶ľà·Ĵ": 2480,
      "à¶ļà·ıà¶»à·Ĭ": 2481,
      "à¶´à·Ļà¶±": 2482,
      "Ġà¶¸à·ıà¶»à·Ĭà¶ľ": 2483,
      "ve": 2484,
      "à¶½à¶ºà¶§": 2485,
      "Ġà¶¯à¶»à·Ĭà·ģ": 2486,
      "Ġà¶Ńà·Ĳà¶±à¶§": 2487,
      "Ġà¶ħà¶³à·Ķ": 2488,
      "ĠL": 2489,
      "50": 2490,
      "à·Ļà¶±à·ı": 2491,
      "à¶ħà¶¸à·Ĭà¶¸à·ı": 2492,
      "Ġà¶´à¶»à·Ĵà·ĥà·Ĭà·ĥ": 2493,
      "à¶½à·Ĭà¶½à·Ļà¶ļà·Ĭ": 2494,
      "à·Ģà·ľ": 2495,
      "Ġà¶¯à·Ĭ": 2496,
      "Ġà¶ħà¶¸à·Ĭà¶¸à·ļ": 2497,
      "à¶±à¶¯": 2498,
      "à·Ģà·Ķà¶¸à·Ĭ": 2499,
      "Ġà¶īà¶½à¶ļà·Ĭà¶ļ": 2500,
      "Ġà¶Ķà·Ħà·Ĭ": 2501,
      "Ġà¶¸à¶¸à¶Ńà·Ĭ": 2502,
      "Ġà¶ľà·ľà¶©à·ıà¶ļà·Ĭ": 2503,
      "à¶¶à¶º": 2504,
      "à·ıà·Ģà·Ļà¶±à·Ĭ": 2505,
      "-à¶¸à¶¸": 2506,
      "Ġà¶¸à¶§à¶Ńà·Ĭ": 2507,
      "à·ĥà·Ĵà¶ºà·ı": 2508,
      "à¶±à·Ĳà¶Ńà·Ĭà¶±à¶¸à·Ĭ": 2509,
      "à¶Ķà¶ļà·Ĭà¶ļà·ľà¶¸": 2510,
      "à¶´à·ĥà·Ĭà·ĥà·Ļ": 2511,
      "Ġà¶ľà·Ĵà¶ºà·ľà¶Ńà·Ĭ": 2512,
      "Ġà·Ģà·ıà·ĥà¶±à·ıà·Ģ": 2513,
      "Ġà¶±à·Ķà¶¹": 2514,
      "Ġà¶ħà·Ģà·Ķà¶»à·Ķà¶¯à·Ĭà¶¯": 2515,
      "Ġà¶Ńà·Ķà·Ģà¶ļà·Ĭà¶ļà·Ķà·Ģ": 2516,
      "Ġà·Ħà·Ĳà¶¸à¶¯à·Ļà¶ºà¶ļà·Ĭà¶¸": 2517,
      "Ġà¶¢à·Ĵà·Ģà¶Ńà·Ĭ": 2518,
      "Ġà¶Ńà·Ĵà¶¶à·Ļà¶±à·Ģà·ı": 2519,
      "Ġà¶īà¶Ńà·Ķà¶»à·Ķ": 2520,
      "Ġà¶¢à¶º": 2521,
      "à¶¸à·ĸ": 2522,
      "à¶±à¶¸": 2523,
      "à¶ĭà¶¹à¶§": 2524,
      "Ġà¶¸à·Ķà¶½à·Ĵà¶±à·Ĭà¶¸": 2525,
      "ac": 2526,
      "th": 2527,
      "Ġà¶īà¶ļà·Ĭà¶¸à¶±à·Ĭ": 2528,
      "Ġà·ĥà·Ķà·Ģ": 2529,
      "Ġà¶Ńà·Ĳà¶±à·Ĭ": 2530,
      "âĻ«": 2531,
      "à¶¸à¶¸à¶ºà·Ĵ": 2532,
      "Ġà¶ħà¶±à¶Ńà·Ķà¶»à·Ķ": 2533,
      "à¶ºà¶±à·Ģà·ı": 2534,
      "Ġfor": 2535,
      "à¶´à¶Ĥ": 2536,
      "Ġà¶¸à¶ľà·Ķà¶½à¶ļà·Ĭà¶¯": 2537,
      "à¶±à·Ĵà¶ºà·ı": 2538,
      "Ġà¶ĳà¶ļà·Ļà¶ļà·Ĭ": 2539,
      "à·Ģà·Ŀ": 2540,
      "Ġà¶´à·Ģà·Ķà¶½": 2541,
      "Ġà¶ľà¶±à·Ĭà¶±à¶¸à·Ĭ": 2542,
      "Ġà¶ĳà·Ħà·ı": 2543,
      "ur": 2544,
      "à¶´à·ĺ": 2545,
      "à¶ļà¶»à·Ķà¶«à·ıà¶ļà¶»": 2546,
      "Ġà·Ħà·ľà¶ºà·ıà¶ľà¶Ńà·Ĭà¶Ń": 2547,
      "à·Ģà¶¯à·Ķà¶»": 2548,
      "à·ĳà·ĥ": 2549,
      "à·Ħà·Ļà¶§": 2550,
      "Ġà¶¯à·Ļà¶±à·Ĭà¶±à¶¸": 2551,
      "Ġà¶ħà·Ģà·ĥà¶»": 2552,
      "à¶ľà¶±à·Ļ": 2553,
      "ran": 2554,
      "âĢįà¶»à¶´": 2555,
      "à¶½à·Ĵà¶ºà¶§": 2556,
      "à¶½à¶ºà·ļ": 2557,
      "Ġà¶¸à·Ķà·Ħà·Ķà¶«": 2558,
      "Ġà¶Ńà·Ĵà¶ºà¶½à·ı": 2559,
      "Ġà¶Ńà·Ķà¶½": 2560,
      "Ġà·Ģà·Ĵà¶±à·Ŀà¶¯": 2561,
      "Ġà¶ļà·Ģà·Ķà¶»à·Ķà·Ħà¶»à·Ĵ": 2562,
      "Ġà¶ļà·Ģà·Ķà¶»à·Ķà¶Ńà·Ĭ": 2563,
      "à¶½à·Ĭà¶©à·Ĭ": 2564,
      "100": 2565,
      "Ġà¶ľà·ľà¶±à·Ķ": 2566,
      "Ġà¶ļà·ľà¶ºà·Ĵ": 2567,
      "Ġà¶¶à·Ķà¶¯à·Ĭà¶°": 2568,
      "à·Ģà·Ķà¶»": 2569,
      "à¶¢à¶º": 2570,
      "à·Ģà·Ĭà¶¯": 2571,
      "Ġà¶īà¶Ńà·Ĵà¶Ĥ": 2572,
      "Ġà¶ļà·Ĵà¶ºà¶±à·Ģ": 2573,
      "à¶ļà·ıà¶»à¶ºà·ı": 2574,
      "à¶ĩà¶Ńà·Ķ": 2575,
      "à·ĥà·ľ": 2576,
      "Ġà·Ģà¶ľà·Ŀ": 2577,
      "Ġà¶īà¶¯à·Ĵà¶»à·Ĵ": 2578,
      "Ġà¶ĩà·Ħà·Ĳ": 2579,
      "Ġà·ĥà¶Ńà·Ĵ": 2580,
      "Ġà¶ħà¶½à·Ĭà¶½à·ı": 2581,
      "à¶ĭà¶¯à·Ģà·Ĭ": 2582,
      "Ġà¶łà·ı": 2583,
      "un": 2584,
      "à¶¯à·Ĵà¶±": 2585,
      "Ġà¶ľà·ļà¶±à·Ĭà¶±": 2586,
      "à¶łà·Ĵ": 2587,
      "Ġà¶¯à·ļà·ģ": 2588,
      "Ġà¶ļà¶«à·Ĭà¶©à·ıà¶ºà¶¸": 2589,
      "ro": 2590,
      "Ġà¶Ĵà·Ģà¶ľà·ļà¶¸": 2591,
      "à¶Ĩà¶»": 2592,
      "à¶¸à¶¸à¶Ńà·Ĭ": 2593,
      "Ġà¶ºà·Ķà¶¯à·Ĭà¶°": 2594,
      "Ġà·Ģà·ģ": 2595,
      "Ġà¶´à·Ļà¶±à·Ķ": 2596,
      "Ġà·Ģà·ĵà¶»": 2597,
      "Ġà¶¸à·Ļà·Ħà·ıà¶§": 2598,
      "à·Ħà·Ļà¶½à·Ŀ": 2599,
      "Ġà·ĥà¶¯": 2600,
      "à·Ģà¶¯à·Ķà¶»à¶§à¶Ńà·Ĭ": 2601,
      "à·Ģà·Ĭà·Ģ": 2602,
      "Ġà¶Ķà¶Ńà¶±": 2603,
      "Ġà¶ħà¶¸à·ıà¶»à·Ķà¶ºà·Ĵ": 2604,
      "à¶¸à·Ĭà·Ģ": 2605,
      "à¶¸à·ıà¶»": 2606,
      "Ġà¶ħà¶Ńà·Ķà¶»à·Ķà¶¯": 2607,
      ".\"": 2608,
      "à¶¯à·Ķà¶±à·ı": 2609,
      "à¶¯à·Ļà·Ģà·Ĵà¶ºà¶±à·ļ": 2610,
      "à·ĸà¶Ń": 2611,
      "à¶·à·ıà·Ģ": 2612,
      "Ġà·Ģà·Ĵà·ģà·ıà¶½": 2613,
      "à·Ŀà¶¢à·Ĵà¶Ń": 2614,
      "Ġà·Ģà·Ķà¶±à·ľà¶Ńà·Ĭ": 2615,
      "Ġà¶ħà¶ľ": 2616,
      "Ġà·Ģà·ļà¶ľ": 2617,
      "Ġà¶ĭà¶¯à·Ģà·Ĭà·Ģà¶ļà·Ĭ": 2618,
      "à¶»à·Ĭà¶Ń": 2619,
      "à¶½à·ĳ": 2620,
      "Ġà¶¸à·Ĵà¶±à·ĵà¶¸": 2621,
      "Ġà·Ħà·ľà¶¯à¶¸": 2622,
      "Ġà¶±à·Ĳà¶Ńà·Ĭà¶Ńà·Ļ": 2623,
      "à¶©à·ľ": 2624,
      "Ġà¶ļà·ľà¶½à·Ĭà¶½à·Ŀ": 2625,
      "à·ĥà¶º": 2626,
      "Ġà¶Ĵà¶ļà·Ļ": 2627,
      "Ġà¶Ńà·ļà¶»à·Ķà¶¸": 2628,
      "Ġà¶ļà·Ĵà¶»à·Ĵ": 2629,
      "à¶ļà·ľà¶½à·Ĭà¶½": 2630,
      "Ġà¶ĳà¶ļà¶Ńà·Ĭ": 2631,
      "ec": 2632,
      "Ġà¶ļà·ĸ": 2633,
      "Ġà·Ħà·Ĵà¶±à·Ĭà¶¯à·ı": 2634,
      "Ġà¶´à·Ĳà¶§": 2635,
      "Ġà¶ħà¶±à·Ĵà·Ģà·ıà¶»à·Ĭ": 2636,
      "Ġà¶ºà·Ĳ": 2637,
      "Ġà¶ļà·ľà¶§à·ĥ": 2638,
      "Ġà¶ļà·Ĳà¶¸à·Ĳà¶Ńà·Ĭà¶Ń": 2639,
      "Ġà¶Ńà¶Ńà·Ĭà·Ģà¶º": 2640,
      "Ġà¶¯à¶»à·Ķà·Ģ": 2641,
      "à·ĥà·Ĳà¶ļ": 2642,
      "Ġà¶ļà¶Ńà·ıà·Ģà¶ļà·Ĭ": 2643,
      "Ġà·Ħà¶¯à¶±à·Ģà·ı": 2644,
      "Ġà¶©à·ľà¶½à¶»à·Ĭ": 2645,
      "Ġà¶Ńà·Ķà¶±à¶ļà·Ĭ": 2646,
      "Ġà·Ħà·ľà¶ºà·ıà¶ľà¶Ńà·Ĭà¶Ńà·ı": 2647,
      "à·ĥà·Ķà¶¶": 2648,
      "Ġà·Ģà·Ĵà¶»à·Ķà¶¯à·Ĭà¶°": 2649,
      "Ġà¶´à·Ĵà¶±à·Ĭà¶Ńà·ĸ": 2650,
      "Ġà¶´à¶»à·ı": 2651,
      "à¶´à·ľà¶©à·Ĵ": 2652,
      "Ġà¶±à¶§": 2653,
      "à·ħà·Ķà·Ģà¶ļà·Ĭ": 2654,
      "Ġà·Ģà·Ĵà·Ģà·ĺà¶Ń": 2655,
      "à¶Ĩà¶´à·Ħà·Ķ": 2656,
      "à¶ļà¶»à¶±à·Ģà·ı": 2657,
      "Ġà¶ľà·Ļà·Ģà¶±à·Ĭà¶±": 2658,
      "19": 2659,
      "Ġà¶ħà¶Ĥà·ģ": 2660,
      "à¶¶à·ļ": 2661,
      "Ġà·Ģà·Ľà¶»": 2662,
      "Ġà¶Ķà·Ģà·Ķà¶±à·Ĭà¶ľà·ļ": 2663,
      "Ġà¶ĭà¶´à¶±à·Ĭ": 2664,
      "à·Ģà¶»à·Ķ": 2665,
      "ut": 2666,
      "à¶ºà·Ĵà¶§à·Ĭ": 2667,
      "à·ĵà¶¸à·ļ": 2668,
      "Ġà·ĥà·Ķà¶·": 2669,
      "à·ĳà¶±à·Ĭà¶ļà·Ĭ": 2670,
      "Ġà¶±à·Ĵà¶Ńà¶»": 2671,
      "à¶Ĥà¶ľà·Ĭ": 2672,
      "à¶ļà·ĺ": 2673,
      "Ġà¶ļà·Ĵà·Ģà·Ĭà·Ģà·ľà¶Ńà·Ĭ": 2674,
      "Ġà¶¶à¶½à·ıà¶ľà¶±à·Ĭà¶±à¶¸à·Ĭ": 2675,
      "à·Ļà·Ħ": 2676,
      "à¶±à·Ĭà·ĥà·Ĭ": 2677,
      "à¶¸à·Ķà¶¯": 2678,
      "Ġà·Ħà·Ķà¶ľà¶ļà·Ĭ": 2679,
      "Ġà·ĥà¶Ńà·Ķà¶§à·Ķà¶ºà·Ĵ": 2680,
      "à·ĳà¶¸à·Ĭ": 2681,
      "à¶»à·Ĵà·ĥà·Ĭ": 2682,
      "Ġà·Ģà·Ĵà·ģà·Ĭà·Ģà·ıà·ĥà¶¯": 2683,
      "à¶³à·Ĵà¶±à·Ĭà¶±": 2684,
      "Ġà·Ħà·Ķà·ĥà·Ĭà¶¸": 2685,
      "à¶Ĵà¶ļà¶ºà·Ĵ": 2686,
      "à¶ºà·ıà¶§": 2687,
      "à¶±à·ļà¶±à·Ļ": 2688,
      "ĠO": 2689,
      "à¶¸à·ıà¶Ńà·Ĭ": 2690,
      "âĢįà¶½": 2691,
      "à¶¹à·Ķ": 2692,
      "à·Ģà·Ĵà¶±à·ı": 2693,
      "à¶Ŀ": 2694,
      "Ġà¶´à·Ĵà·Ħà·Ĵ": 2695,
      "à·Ķà·Ģà¶Ńà·Ĭ": 2696,
      "Ġà¶ĳà¶ļà·Ĭà¶ļà¶¸": 2697,
      "à¶¢à·Ŀ": 2698,
      "Ġà¶¯à·ľà·ĥà·Ĭà¶Ńà¶»": 2699,
      "Ġà¶ĭà¶±à·ľà¶Ńà·Ĭ": 2700,
      "Ġà¶¯à·Ķà¶»à¶ļà¶®": 2701,
      "à¶Ķà·Ħà·ľà¶¸": 2702,
      "Ġà¶ĩà¶Ńà·Ķà¶½": 2703,
      "Ġà¶ħà·Ħà·Ĵ": 2704,
      "Ġ,čĊ": 2705,
      "Ġà¶¶à¶½à¶±à·Ģà·ı": 2706,
      "à¶¸à·Ĵà¶ļ": 2707,
      "âĢįà¶½à·ı": 2708,
      "Ġà¶ħà·ħà·Ķà¶Ńà·Ĭ": 2709,
      "Ġà¶Ŀ": 2710,
      "Ġà¶ħà¶¸à·Ķà¶Ńà·Ķ": 2711,
      "Ġà¶´à¶»à·Ĭ": 2712,
      "à·Ģà·Ĳà¶»à¶¯à·Ĵ": 2713,
      "Ġà¶ļà·ľà¶§à·ĥà¶ļà·Ĭ": 2714,
      "à¶ļà·ľà·Ħà·ľà¶¸": 2715,
      "Ġà·ĥà·Ĵà¶ºà¶½à·Ķ": 2716,
      "Ġà¶Ńà·ĳ": 2717,
      "Ġà¶ļà·Ģà·Ķà¶»à·Ķà·Ģà¶Ńà·Ĭ": 2718,
      "à¶ļà·ľà¶łà·Ĭà¶łà¶»": 2719,
      "Ġà¶ºà¶±à·Ĭà¶±à¶¸à·Ĭ": 2720,
      "Ġà¶¶à·ľà¶±à·Ĭà¶±": 2721,
      "Ġà¶½à·Ŀà¶ļà·Ļ": 2722,
      "à·Ļà¶¯à·Ĵ": 2723,
      "Ġà¶Ńà·Ĵà¶ºà·ıà¶ľà·Ļà¶±": 2724,
      "Ġà·Ģà·ĵà¶¸": 2725,
      "à¶½à·ıà·Ģ": 2726,
      "Ġà¶Ńà·ļà¶»à·Ļà¶±à·Ĭà¶±à·ļ": 2727,
      "Ġà¶«": 2728,
      "Ġà¶ļà·ľà·Ħà·Ļà¶±à·Ĭà¶¯": 2729,
      "Ġà¶Ķà¶ºà·ıà¶½à¶ľà·ļ": 2730,
      "à¶¶à¶»": 2731,
      "Ġà¶ħà¶Ĥ": 2732,
      "Ġà·Ĩà·Ŀà¶±à·Ĭ": 2733,
      "Ġà¶ĭà¶¯à·ĳà·ĥ": 2734,
      "Ġà·ĥà·Ĳà¶½à·ĥà·Ķà¶¸à·Ĭ": 2735,
      "à·Ķà·Ģà·Ļà¶½à·ı": 2736,
      "ri": 2737,
      "Ġà¶¸à¶ºà·Ĵà¶ļà¶½à·Ĭ": 2738,
      "à·Ĥà·Ĵ": 2739,
      "à·Ĥà·Ĭà¶§": 2740,
      "à¶ħà¶±à·Ĵà¶Ńà·Ĭ": 2741,
      "Ġà¶ħà¶«": 2742,
      "à·ĥà¶Ńà·Ĭ": 2743,
      "à¶Ńà·Ļà¶ļà·Ĭ": 2744,
      "à¶ļà·ĸ": 2745,
      "à¶»à·Ĭà¶ļà·Ĭ": 2746,
      "âĢįà¶»à·ľ": 2747,
      "Ġà¶¯à¶±à·Ĭà¶±à·ĳ": 2748,
      "Ġà¶ħà·Ħà·Ķ": 2749,
      "Ġà·Ģà¶ľà¶ºà¶ļà·Ĭ": 2750,
      "Ġà·Ģà·ļà¶¯": 2751,
      "à¶¸à·Ĳà¶Ńà·Ĵ": 2752,
      "Ġà¶¯à·Ĳà¶±à·Ļà¶±à·Ģà·ı": 2753,
      "âĢįà¶ºà¶ļà·Ĭ": 2754,
      "Ġà¶ļà·Ķà¶»à·Ķ": 2755,
      "à·Ģà·ļà·ģ": 2756,
      "Ġà¶¯à·Ķà¶»à·Ĭ": 2757,
      "à¶ºà·Ĵà·ĥà·Ĭà¶Ńà·Ķà·Ģ": 2758,
      "à¶±à·ıà·Ģà¶ļà·Ĭ": 2759,
      "à·Ħà¶±": 2760,
      "âĢįà¶ºà·Ĵ": 2761,
      "à¶Ķà¶±à·Ĭà¶±": 2762,
      "à¶ºà¶±": 2763,
      "à¶¯à·Ĵà¶º": 2764,
      "Ġà¶Ķà¶´à·Ĭà¶´à·Ķ": 2765,
      "Ġà¶»à·ĥ": 2766,
      "âĢįà¶»à·ģà·Ĭà¶«à¶ºà¶ļà·Ĭ": 2767,
      "à¶ļà·Ĭà·Ĥà·ı": 2768,
      "Ġà¶Ĵà¶ºà·Ĵ": 2769,
      "à¶ļà¶»à¶±": 2770,
      "ather": 2771,
      "à¶Ńà·Ĭà¶Ńà·Ķà·Ģ": 2772,
      "à¶´à¶±à¶º": 2773,
      "Ġà·ģà·Ĭ": 2774,
      "Ġà¶´à·Ĳà¶§à·Ĵà¶ºà·Ŀ": 2775,
      "à¶´à·Ķà¶»à·Ķ": 2776,
      "Ġg": 2777,
      "Ġà¶¢à·Ļ": 2778,
      "Ġà¶¸à·ĸà¶«": 2779,
      "Ġà¶ħà·ĥà·ı": 2780,
      "Ġà¶´à·Ĳà¶¸à·Ĵà¶«": 2781,
      "âĢįà¶ļ": 2782,
      "à¶¸à·Ĵà¶º": 2783,
      "à¶©à¶ºà¶ļà·Ĭ": 2784,
      "Ġà¶´à·Ļà¶±à·Ĭà¶±à¶±à·Ĭà¶±": 2785,
      "Ġà¶ļà¶»à¶¸à·Ĵà¶±à·Ĭ": 2786,
      "Ġà¶´à·ľà¶½à·ĵ": 2787,
      "Ġà¶Ķà·Ģà·Ķà¶±à·Ĭà·Ģ": 2788,
      "Ġà¶ļà¶»à·Ķà¶«à·ıà¶ļà¶»": 2789,
      "Ġà·ĥà¶ļ": 2790,
      "Ġà¶ľà·Ĵà¶±à·Ĵ": 2791,
      "Ġà·Ģà·ıà¶©à·Ĵ": 2792,
      "Ġà¶ħà¶´à·Ĭ": 2793,
      "Ġà¶¶à¶Ĥ": 2794,
      "Ġà¶Ĩà·ĥ": 2795,
      "200": 2796,
      "ĠE": 2797,
      "Ġà¶ĩà·Ħà·Ļà¶±": 2798,
      "Ġà¶Ĩà·Ģà¶»": 2799,
      "à¶Ńà·Ĳ": 2800,
      "Ġà¶´à·Ŀ": 2801,
      "ĠH": 2802,
      "Ġà·Ģà¶»à·Ĭà¶ľ": 2803,
      "à·Ģà·Ļà¶±à·Ĭà¶±à·ļ": 2804,
      "Ġà¶´à·Ķà¶»": 2805,
      "Ġà¶¯à·Ķà¶¸à·Ĭ": 2806,
      "Ġà¶Ĩà¶»à¶ļà·Ĭà·ģ": 2807,
      "à·Ģà·Ĵà·ģà·Ĭ": 2808,
      "à¶ºà·ıà¶ľà·ļ": 2809,
      "weather": 2810,
      "Ġà¶´à¶±à·Ĵ": 2811,
      "Ġà¶ļà·Ĵà¶ºà·Ģà¶±à·Ĭà¶±": 2812,
      "Ġà¶Ńà·Ĵà¶¶à·Ķà¶«à·ı": 2813,
      "à·²": 2814,
      "à·Ģà·ļà¶¯": 2815,
      "Ġà¶¸à¶Ńà·Ĭ": 2816,
      "Ġà¶¯à·Ļà¶±à·Ĭà¶±à·Ļà¶ļà·Ĭ": 2817,
      "Ġà¶ºà·Ĵ": 2818,
      "à¶ħà¶±à·Ĭà¶Ńà·Ĵ": 2819,
      "Ġà¶ļà¶»à·ıà·Ģà·Ĵ": 2820,
      "Ġà¶¯à·Ĳà¶ļ": 2821,
      "à¶ľà·Ļà¶¯à¶»": 2822,
      "à¶¯à·Ķà¶»à·Ķ": 2823,
      "Ġà·Ħà·Ĵà¶Ńà·ıà¶ľà¶±à·Ĭà¶±": 2824,
      "Ġà¶¶à·Ĵà¶»à·Ĵà¶¯": 2825,
      "à¶ļà·ıà¶»à·ĵ": 2826,
      "à·Ģà·Ĭà·Ģà·ļ": 2827,
      "Ġà¶ļà¶±": 2828,
      "Ġà·Ģà·Ĳà¶©à·ĥà¶§": 2829,
      "Ġà·Ħà·Ĳà¶Ł": 2830,
      "ĠJ": 2831,
      "000": 2832,
      "à¶ļà·Ģà·Ķà¶»à·Ķà·Ħà¶»à·Ĵ": 2833,
      "Ġà¶Ĵà¶ļà·ļ": 2834,
      "Ġà·Ģà·Ļà¶±à¶ļà¶¸à·Ĭ": 2835,
      "Ġà¶±à·Ĵà¶ļà¶Ĥ": 2836,
      "Ġà¶ľà¶¸à¶±": 2837,
      "Ġà·Ħà·Ĳà¶¸à¶¯à·ıà¶¸": 2838,
      ",à¶¸à¶¸": 2839,
      "Ġà¶ĳà¶ºà·ıà¶½à¶ľà·ļ": 2840,
      "Ġà·ĥà¶ºà·Ĵ": 2841,
      "Ġth": 2842,
      "à¶©à·Ĵà¶ºà¶ļà·Ĭ": 2843,
      "Ġà·ĥà·ıà¶ļà·Ĭà·Ĥà·Ĵ": 2844,
      "à¶§à·Ļ": 2845,
      "âĢįà¶»à¶±à·Ĭ": 2846,
      "Ġà·Ģà·Ĳà¶§à·Ĵ": 2847,
      "Ġà·Ħà·Ĳà¶¯à·Ķà·Ģà·ļ": 2848,
      "à·ĥà·Ķà¶¸": 2849,
      "Ġà¶īà¶ļà·Ĭà¶¸à¶±à·Ĵà¶±à·Ĭ": 2850,
      "à¶ľà·Ĵà¶±à·Ĭà¶±": 2851,
      "âĢįà¶»à·ģà·Ĭà¶«": 2852,
      "Ġà¶½à¶ľà¶§": 2853,
      "Ġà¶´à·ļà¶±à·Ĭà¶±à·ļ": 2854,
      "à·ĥà¶½": 2855,
      "Ġà¶ħà¶´à·Ĵà¶Ńà·Ĭ": 2856,
      "Ġà¶ļà·ıà·Ģ": 2857,
      "Ġà¶´à·Ķà·ħà·Ķà·Ģ": 2858,
      "à¶ºà·Ķà¶Ńà·Ķ": 2859,
      "Ġà·ĥà¶´": 2860,
      "à¶´à·ĥà·Ĭà·ĥà¶§": 2861,
      "à·Ģà¶Ńà·Ĵ": 2862,
      "à¶¯à·Ĵà¶ºà·ı": 2863,
      "Ġà¶ĩà¶±à·Ĭ": 2864,
      "Ġà¶±à·ľà·Ģà·ļ": 2865,
      "à·Ļà¶±à·ĵ": 2866,
      "à¶ļà¶»à¶«à¶º": 2867,
      "à¶´à·Ŀ": 2868,
      "Ġà¶§à·Ĳ": 2869,
      "à¶ļà·Ķà¶»à·Ķ": 2870,
      "à·Ħà·ıà¶»": 2871,
      "Ġà¶´à·Ĳà·Ħà·Ĳà¶»": 2872,
      "Ġà¶¸à¶§à·Ĭ": 2873,
      "à¶ļà¶±à·Ĭà¶±": 2874,
      "à·ĵà¶º": 2875,
      "à¶ĳà¶łà·Ĭà¶łà¶»": 2876,
      "Ġà¶ļà¶»à·Ĭ": 2877,
      "Ġà¶§à·Ļ": 2878,
      "âĢįà¶»à·Ħà·ıà¶»": 2879,
      "Ġà¶ķà¶±à¶¸": 2880,
      "Ġà¶ľà·Ĵà·Ħà·Ĵà¶½à·Ĭà¶½à·ı": 2881,
      "Ġà¶¸à·Ļà¶ºà·ıà·Ģ": 2882,
      "Ġà¶Ńà·Ķà¶±à·Ĭ": 2883,
      "Ġà¶¸à·ľà¶±à·Ģà·Ħà¶»à·Ĵ": 2884,
      "Ġà¶±à·ľà·Ħà·Ĳà¶ļà·Ĵ": 2885,
      "Ġà·ĥà·ĵà¶¸": 2886,
      "Ġà¶¶à·ľà¶»": 2887,
      "à¶ļà¶§à·Ĭ": 2888,
      "Ġà¶´à·ļà¶±": 2889,
      "Ġà¶¯à·Ĳà¶ļà·Ĭà¶ļà·ļ": 2890,
      "à·Ģà·Ķà¶±": 2891,
      "âĢįà¶»à·Ĵà¶ºà·ıà¶Ńà·Ĭà¶¸à¶ļ": 2892,
      "Ġà·Ħà·ľà¶³à¶§à¶¸": 2893,
      "à¶¶à¶³": 2894,
      "Ġà¶¸à·Ķà¶»": 2895,
      "à·Ķà·Ģà·Ļà¶ļà·Ĭ": 2896,
      "Ġà¶ľà·Ĳà¶§": 2897,
      "Ġà¶ļà¶½à¶¶à¶½": 2898,
      "à¶©à·Ĵà¶±à·Ĭ": 2899,
      "à¶ºà¶¸à·Ķ": 2900,
      "Ġà¶¶à·Ļà·Ħà·Ļ": 2901,
      "ate": 2902,
      "Ġà·Ħà·Ĳà¶¯à·Ķà·Ģà·ı": 2903,
      "à¶ħà¶¸à·Ĭà¶¸à·ļ": 2904,
      "Ġà·ģà¶ļà·Ĭà¶Ńà·Ĵà¶¸à¶Ńà·Ĭ": 2905,
      "à¶½à·Ĭà¶§à·Ĭ": 2906,
      "Ġà¶´à·Ķà¶´à·Ķà¶»": 2907,
      "Ġà¶·à·ıà·Ģà·Ĵà¶Ń": 2908,
      "à¶»à¶«à¶º": 2909,
      "Ġà¶¯à¶»à·Ķà¶«à·Ķ": 2910,
      "Ġà·ĥà¶»": 2911,
      "à·ĥà·Ĵà¶¯à·Ķ": 2912,
      "Ġà¶ļà·Ĳà¶¸à¶Ńà·Ĵà¶¯": 2913,
      "Ġà·Ħà·Ĵà¶Ńà·Ķà·Ģ": 2914,
      "à¶±à¶»à·Ĭ": 2915,
      "Ġst": 2916,
      "à¶Ĥà¶ľà·Ķ": 2917,
      "à¶Ńà·ıà¶±à·Ĭ": 2918,
      "Ġà¶ļà·Ļà¶±à·Ļà¶ļà·Ĭà·Ģ": 2919,
      "Ġà¶¶à·Ĳà¶»à·Ĵà¶¯": 2920,
      "Ġà¶ºà¶±à·Ģà¶¯": 2921,
      "ĠW": 2922,
      "Ġof": 2923,
      "Ġà·Ģà·ĥà·Ĭà¶Ńà·Ķà·Ģ": 2924,
      "à¶ħà¶©": 2925,
      "Ġà·Ħà¶¯à¶½à·ı": 2926,
      "Ġà·ĥà·ļà·Ģà·ı": 2927,
      "à¶ħà¶ºà·Ĵà¶ºà·Ŀ": 2928,
      "à¶¢à¶±à¶º": 2929,
      "Ġà¶ħà·Ħà·Ĭ": 2930,
      "à¶ºà·Ĵà¶¯": 2931,
      "Ġà¶¯à¶¸": 2932,
      "Ġà¶±à·Ĵà·ĥà¶ºà·Ĵ": 2933,
      "Ġà¶ºà·Ļ": 2934,
      "à¶Ĥà¶ľà·Ķà·Ģà¶§": 2935,
      "Ġà¶ļà·Ĵà¶»à·ĵà¶¸à¶ļà·Ĭ": 2936,
      "Ġà¶¸à·ľà¶±à·Ģà·ıà¶¯": 2937,
      "Ġà¶¢à·ļà¶±à·Ĭ": 2938,
      "à¶»à·Ķà¶±à·ı": 2939,
      "Ġà·Ģà·Ľà¶¯à·Ĭ": 2940,
      "à¶´à·Ĵà¶§à·Ĵà¶±à·Ĭ": 2941,
      "à¶»à·Ķà¶±à·Ĵ": 2942,
      "à·ħà·Ķà¶¸": 2943,
      "Ġà·Ģà·Ĳà¶»à¶¯à·Ĵà¶ºà·Ĵ": 2944,
      "Ġà¶±à·Ĵà¶ºà·Ŀà¶¢à·Ĵà¶Ń": 2945,
      "Ġà·Ģà¶±à·ļà¶±": 2946,
      "Ġà¶ħà¶ľà¶º": 2947,
      "Ġà¶¯à·Ģà·ĥà·ļ": 2948,
      "Ġà¶ĩà¶Ńà·Ķà¶½à·Ļ": 2949,
      "Ġà¶´à·Ķà¶»à·ı": 2950,
      "à¶¸à·Ļà¶¸": 2951,
      "à¶¯à¶»à¶ºà·Ļà¶±à·Ĭ": 2952,
      "à¶½à·Ĭà¶¸": 2953,
      "Ġà·Ĩà·Ĵ": 2954,
      "à¶Ńà·Ĭà¶Ńà¶¸à·Ĭ": 2955,
      "Ġà¶ļà·ĥà·ıà¶¯": 2956,
      "Ġà¶¸à·ľà¶±à·Ģà¶Ńà·Ĭ": 2957,
      "Ġà·Ħà·Ĳà·ĥà·Ĵà¶»": 2958,
      "à¶¥à·ı": 2959,
      "Ġà¶¸à¶°à·Ĭ": 2960,
      "à¶Ńà¶¸": 2961,
      "à·Ļà¶±à·Ģà¶¯": 2962,
      "à¶½à·Ĵà¶ºà·ı": 2963,
      "à·Ģà·Ķà¶±à·ļ": 2964,
      "op": 2965,
      "Ġà¶¢à·Ĵà·Ģà·Ĵà¶Ń": 2966,
      "à¶±à·ĥà·Ĭ": 2967,
      "Ġà·Ģà·Ĵà·ĥà·Ĭ": 2968,
      "Ġà¶´à·Ķà¶»à·Ķà¶¯à·Ķ": 2969,
      "Ġà¶´à·ĥà·Ĭà·ĥà¶§": 2970,
      "Ġà¶¸à·Ĳà¶»à·Ķà·Ģà·ı": 2971,
      "à¶Ńà·Ŀ": 2972,
      "à·ĥà·Ĵà¶ļ": 2973,
      "Ġà¶ļà¶»à¶¯à¶»à¶ºà¶ļà·Ĭ": 2974,
      "Ġà¶ļà¶©à·ı": 2975,
      "à¶ľà¶¸à·Ķ": 2976,
      "à¶ħà¶±à·Ĵà¶ļ": 2977,
      "Ġà¶¯à·Ļà¶±à·Ĭà¶±à·Ļ": 2978,
      "Ġà¶ľà¶±à·Ķ": 2979,
      "Ġà¶ħà·Ħà·Ķà·Ģ": 2980,
      "à·Ģà·Ĵà¶½à·Ĭ": 2981,
      "Ġà¶´à¶§": 2982,
      "Ġà¶´à·ļà¶±à·Ĭà¶±à·Ļ": 2983,
      "Ġà·Ģà¶łà¶±": 2984,
      "Ġà¶Ńà·Ģà¶¯à·Ķà¶»à¶§à¶Ńà·Ĭ": 2985,
      "à¶¯à·Ĵà¶ľ": 2986,
      "Ġà·Ģà·Ĵà·Ģà·ļ": 2987,
      "âĢįà¶ºà·ıà¶´à·ĺ": 2988,
      "ada": 2989,
      "à¶ºà·ľ": 2990,
      "à·Ģà·Ĵà·ģ": 2991,
      "Ġà·Ħà¶³à·Ķ": 2992,
      "Ġà¶ĳà¶½à·Ĭà¶½": 2993,
      "Ġà¶ļà·ľà¶§à·ĥà·Ĭ": 2994,
      "à¶»à·ıà¶¢à·Ĭ": 2995,
      "à¶±à·ıà¶°à·Ĵà¶´à¶Ńà·Ĵ": 2996,
      "Ġà¶Ńà·Ĳà¶±à¶ļ": 2997,
      "Ġà·ĥà·Ĵà¶ºà¶½à·Ĭà¶½": 2998,
      "à¶ļà·ıà¶»à·Ĵà¶º": 2999,
      "Ġà·Ģà¶§à·Ĵà¶±à·ı": 3000,
      "à¶Ķà¶ºà¶Ńà·Ĭ": 3001,
      "à·Ħà¶½à·Ŀ": 3002,
      "à·Ķà·Ģà·ı": 3003,
      "Ġà¶¶à·Ħà·Ĵ": 3004,
      "Ġà¶±à·ľà·Ħà·Ĳà¶ļ": 3005,
      "Ġà¶·à·ĸ": 3006,
      "à·Ģà·ĵà¶¸à¶ļà·Ĭ": 3007,
      "Ġà¶±à·ıà¶ºà¶ļ": 3008,
      "Ġà¶ħà¶Ńà¶±": 3009,
      "à·Ģà·ĸ": 3010,
      "à¶ļà¶»à·Ķà·Ģà¶±à·Ĭ": 3011,
      "Ġà¶ħà¶Ńà·ļ": 3012,
      "Ġà¶łà·ıà¶»à·Ĭ": 3013,
      "à¶¢à·Ļ": 3014,
      "Ġà¶ĭà¶Ńà·Ĭà·ĥ": 3015,
      "Ġà¶ħà¶Ńà¶§": 3016,
      "Ġà¶±à·Ĵà¶»à·Ĭà¶¸à·ıà¶«à¶º": 3017,
      "à¶¯à·Ķà¶±": 3018,
      "Ġà¶ĩà¶Ł": 3019,
      "à¶ľà¶«": 3020,
      "à¶»à·Ķà¶¸": 3021,
      "Ġà¶Įà·Ģ": 3022,
      "Ġà¶ļà·ľà¶½à·Ĭà¶½à·ı": 3023,
      "à·ĥà·Ĵà¶¯à·Ĭà¶°": 3024,
      "Ġà¶ħà¶°à·Ĵ": 3025,
      "ey": 3026,
      "Ġà¶ľà¶«à·Ķ": 3027,
      "à¶¸à·Ĭà¶¸": 3028,
      "Ġà¶½à·Ĳà¶ºà·Ĵà·ĥà·Ĭà¶Ńà·Ķà·Ģ": 3029,
      "à·ıà·Ģà·Ļ": 3030,
      "Ġà¶īà¶¯à·Ĵà¶»à·Ĵà¶ºà¶§": 3031,
      "ce": 3032,
      "Ġà¶Ńà·Ķà·Ģà·ıà¶½": 3033,
      "à¶Ńà·Ģà¶Ńà·Ĭ": 3034,
      "Ġà·Ģà·Ļà¶±à·Ģà¶¯": 3035,
      "Ġà¶±à·Ĵà¶¯à·ıà¶ľà¶±à·Ĭà¶±": 3036,
      "Ġà·Ħà·Ĵà·ĥà·Ĭ": 3037,
      "Ġà¶īà·Ģà¶»à¶ºà¶ļà·Ĭ": 3038,
      "Ġà¶¶à·Ķà¶¯à·Ĭà¶°à·Ĵ": 3039,
      "Ġà¶¸à·Ķà¶¯à¶½à·Ĭ": 3040,
      "à¶Ńà·Ķà¶±à·Ĭ": 3041,
      "à¶Ķà·Ħà·Ķà¶ľà·ļ": 3042,
      "Ġà¶ĳà¶Ńà¶±à¶§": 3043,
      "omment": 3044,
      "à¶»à·Ĵà¶ļà·ıà·Ģ": 3045,
      "Ġà¶±à·Ģà¶Ńà·Ĵà¶±à·Ĭà¶±": 3046,
      "Ġà·Ħà·Ĳà¶ļà·Ĵà¶ºà·ıà·Ģ": 3047,
      "à¶īà¶ļà·Ĭà¶¸à¶±à·Ĭ": 3048,
      "à¶±à·Ĭà¶¯à·Ĭ": 3049,
      "à¶ľà·Ĳà¶±à·ĵà¶¸": 3050,
      "Ġà¶Ńà¶»à¶Ł": 3051,
      "Ġà¶ĭà¶¹à·Ģ": 3052,
      "à¶Ńà·Ļà¶±à·Ĭ": 3053,
      "Ġà·ĥà¶Ńà·Ķà¶§à·Ĵà¶±à·Ĭ": 3054,
      "Ġà¶¸à·ļà¶ļà·Ļà¶±à·Ĭ": 3055,
      "Ġà¶ļà·Ĵà·Ģà·Ķà·Ģà·ı": 3056,
      "à¶´à¶¯": 3057,
      "à¶ļà¶©": 3058,
      "à¶¸à·Ĭà¶¶à¶»": 3059,
      "à·Ģà·Ļà¶±à·Ĭ": 3060,
      "Ġà¶ľà·ıà·Ģà¶§": 3061,
      "Ġà¶¸à·Ĵà¶±à·Ĵà·ĥà·Ķà¶±à·Ĭ": 3062,
      "à¶ħà¶©à·Ķ": 3063,
      "à¶ľà·Ĵà·Ħà·Ĵà¶±à·Ĭ": 3064,
      "ĠCan": 3065,
      "Ġà¶Ĩà¶Ńà·Ĭà¶¸": 3066,
      "Ġà¶ľà·Ĳà·Ħà·Ķ": 3067,
      "Ġà·ĥà·Ĵà¶»": 3068,
      "Ġà¶±à·Ĵà¶Ńà¶»à¶¸": 3069,
      "Ġà¶¯à·Ģà·ĥà¶ļ": 3070,
      "Ġà¶ļà·Ķà¶¸": 3071,
      "Ġà¶¸à¶Ńà¶ļà¶¯": 3072,
      "Ġà¶¸à¶Ńà¶ļà¶ºà·Ĵ": 3073,
      "Ġà·Ģà·Ŀ": 3074,
      "ain": 3075,
      "à¶½à·Ĭà·Ĩà·Ĭ": 3076,
      "Ġà¶ļà¶½à·ľà¶Ńà·Ĭ": 3077,
      "Ġà·ĥà·Ĭà·Ģà·ı": 3078,
      "à·ĥà·Ĵà¶ºà·Ļà¶±à·Ĭ": 3079,
      "à·Ģà·Ļà¶½à·ļà¶¸": 3080,
      "Ġà¶ĭà¶´à·ı": 3081,
      "à¶łà·ıà¶»à·Ĭà¶º": 3082,
      "Ġà¶ļà¶»à¶±à·Ĭ": 3083,
      "Ġà¶ĳà¶ļà¶ļ": 3084,
      "ĠâĪĻ": 3085,
      "à¶»à·Ĭà¶®à¶ļ": 3086,
      "à·Ħà·Ĵà¶º": 3087,
      "Ġ'čĊ": 3088,
      "à¶ļà·Ĭà¶¸": 3089,
      "Ġà¶ĳà¶¯à·ı": 3090,
      "à¶»à·Ĵà¶ļ": 3091,
      "Ġà¶ºà¶±à·Ĭà¶Ńà·Ĭ": 3092,
      "Ġà¶¯à·ĸà¶´": 3093,
      "à¶ļà·ļà·ĥà·Ĭ": 3094,
      "Ġà·ĥà·ļà·Ģ": 3095,
      "Ġà¶ļà·ıà¶»à·Ĭà¶ºà·ı": 3096,
      "âĢįà¶ºà·ıà¶´à·ıà¶»": 3097,
      "Ġà¶±à·Ĵà·Ģà·ĥ": 3098,
      "Ġà¶ĳà¶ļà·Ĵ": 3099,
      "Ġà¶Ĭà¶ºà·ļ": 3100,
      "Ġà¶īà¶Ńà·Ĵà¶»à·Ĵ": 3101,
      "à¶±à·Ĭà¶Ńà¶»": 3102,
      "Ġà·Ģà·Ļà¶±à¶ļà·ľà¶§": 3103,
      "à¶¯à·Ĭà¶ľà¶½à·Ĵà¶ļ": 3104,
      "Ġà¶ĳà¶ļà·ı": 3105,
      "à·Ģà·Ĵà¶½à·Ĵ": 3106,
      "à¶ļà¶ºà¶±à·Ĭ": 3107,
      "à¶¶à·ıà¶ºà·Ĵ": 3108,
      "Ġà¶ħà¶Ńà·ı": 3109,
      "à·Ģà·Ħ": 3110,
      "Ġà¶ĳà¶±à¶ļà¶¸à·Ĭ": 3111,
      "à¶Ńà¶ºà·Ĵ": 3112,
      "Ġà·Ħà·ıà¶¯": 3113,
      "à¶±à·Ĵà¶ºà·Ĵ": 3114,
      "à¶½à¶¸": 3115,
      "à¶¸à·Ļà·Ħà·ļ": 3116,
      "à¶ľà·ľà¶½à·Ĭà¶½": 3117,
      "Ġà¶Ńà¶»à·Ķà¶«": 3118,
      "Ġà·ĥà·Ħà·Ĵà¶Ń": 3119,
      "Ġà¶»à·Ŀà·Ħ": 3120,
      "Ġà¶ľà·ľà¶©à¶±à·Ĳà¶ľà·Ĵ": 3121,
      "Ġà¶¸à¶»à¶±à·Ģà·ı": 3122,
      "Ġà¶Ńà·Ĵà¶¶à·Ķà¶«": 3123,
      "Ġà¶ĳà¶ļà¶Ł": 3124,
      "ir": 3125,
      "Ġà·Ħà·ıà¶ºà·Ĵ": 3126,
      "Ġà·Ģà¶ľà·ļà¶¯": 3127,
      "Ġà¶ºà·ıà·Ģà·Ĵ": 3128,
      "à¶Ķà·Ģà·Ķà¶±à·Ĭà¶§": 3129,
      "Ġit": 3130,
      "à¶Ĩà·Ħà·Ĭ": 3131,
      "à¶¯à·Ĳà¶±à·Ĭà¶¸": 3132,
      "à¶«à·Ĵà¶º": 3133,
      "Ġà¶Ĵà¶ļà¶ºà·Ĵ": 3134,
      "à¶¯à·Ĵà¶±à·Ģà·ı": 3135,
      "Ġà¶ħà¶ºà·Ĵà¶ºà·ı": 3136,
      "Ġà¶ĭà¶¯à·ĳà·ĥà¶±à¶ļà·Ĭ": 3137,
      "à¶±à¶ºà·Ļà¶±à·Ĭ": 3138,
      "à¶»à¶½à·ı": 3139,
      "Ġà¶ħà¶¯à·Ħà·ĥ": 3140,
      "Ġà¶Ńà·Ĳà¶±à¶ļà¶§": 3141,
      "Ġà¶½à¶¶": 3142,
      "Ġà¶ĩà¶³à·Ķà¶¸à·Ĭ": 3143,
      "à¶±à¶½à·Ĭ": 3144,
      "11": 3145,
      "Ġà¶ļà·Ĭà¶½à·ıà¶ļà·Ĭ": 3146,
      "à¶½à·Ŀà¶ļ": 3147,
      "Ġà¶´à·Ħà¶½à¶§": 3148,
      "Ġname": 3149,
      "Ġà¶´à·Ħà·Ķ": 3150,
      "Comment": 3151,
      "Ġà¶Ķà¶½à·Ķà·Ģ": 3152,
      "à·Ģà·Ĳà¶©": 3153,
      "à¶ļà·Ĭà·Ĥà¶«": 3154,
      "Ġà¶¸à·Ħà¶±à·Ĭ": 3155,
      "Ġà¶ļà·Ļà¶±à·Ļà¶ļà·Ĭà¶§": 3156,
      "à¶¯à¶±à·Ĭà¶±à·Ģà¶¯": 3157,
      "Ġà¶īà¶¯à·Ĵà¶»à·Ĵà¶´à¶Ńà·Ĭ": 3158,
      "Ġà¶Ńà¶»à·Ħ": 3159,
      "à¶ħà¶±à·Ĵà·Ģà·ıà¶»à·Ĭ": 3160,
      "Ġà·ĥà·Ķà¶¯à·Ķà·ĥà·Ķ": 3161,
      "Ġà¶´à·Ģà·Ķà¶½à·ļ": 3162,
      "à¶Ńà·Ĭà¶Ńà·Ĵ": 3163,
      "ag": 3164,
      "Ġà¶Ńà·ĳà¶ľà·Ĭ": 3165,
      "Ġà¶ľà¶±": 3166,
      "à·ĥà¶½à·Ĭ": 3167,
      "à¶Ńà¶¸à·Ķà·ĥà·ļ": 3168,
      "à¶´à·ĸ": 3169,
      "Ġà·Ģà·Ļà¶½à·ıà·Ģà¶ļ": 3170,
      "Ġà¶¶à·Ĳà¶½à·Ķà·Ģà·ı": 3171,
      "Ġà¶ļà·ıà¶»à·Ĭà¶º": 3172,
      "Ġà¶·à¶ºà·ıà¶±à¶ļ": 3173,
      "à¶¢à¶±à·Ĭ": 3174,
      "à¶ļà·Ķà¶§": 3175,
      "Ġà¶»à·ĳà¶§": 3176,
      "à¶ļà·Ĵà¶±à·Ĭà¶±": 3177,
      "Ġà¶Ķà¶ºà¶ºà·Ĵ": 3178,
      "à¶§à·Ĵà¶ļà¶ļà·Ĭ": 3179,
      "Ġà¶ħà¶°à·Ĭ": 3180,
      "Ġà·ĥà·ĳà·Ħà·Ļà¶±à·Ĭà¶±": 3181,
      "Ġà¶»à¶Ńà·Ķ": 3182,
      "à¶ļà·Ķà¶ºà·Ĵ": 3183,
      "Ġà¶ħà¶©à·Ĵ": 3184,
      "Ġà¶¢à·ľ": 3185,
      "Ġà¶¸à·ıà¶ºà·ı": 3186,
      "Ġà·Ģà¶±à·Ļ": 3187,
      "à¶¸à·Ĵà¶ºà·ı": 3188,
      "Ġà¶±à¶ľà¶»à¶º": 3189,
      "ast": 3190,
      "Ġà·Ħà·Ĵà¶»à·ļ": 3191,
      "à¶±à·Ģà¶Ńà·Ĭà¶Ń": 3192,
      "Ġà·Ħà·ļà¶Ńà·Ķà·Ģà¶ļà·Ĭ": 3193,
      "Ġà·Ħà¶¯à¶±": 3194,
      "à¶±à·Ĵà¶ļ": 3195,
      "Ġà¶ĩà¶Ńà·Ĭà¶Ńà·ļ": 3196,
      "âĢįà¶»à¶ºà·Ĵ": 3197,
      "Ġà¶¸à·Ĵà¶±à·Ĵà·Ħà·Ŀ": 3198,
      "âĢįà¶»à¶¸à¶ºà¶ļà·Ĭ": 3199,
      "Ġà¶Ńà·Ħà·Ģà·Ķà¶»à·Ķ": 3200,
      "à·ĵà¶±à·Ĭ": 3201,
      "à¶±à·Ĭà¶¯à·ļ": 3202,
      "à¶Ķà·Ħà·Ĭà·Ħà·Ĭ": 3203,
      "à¶¢à¶»à·Ĭ": 3204,
      "Ġà¶Ńà·Ļ": 3205,
      "Ġà¶ľà¶«à·Ķà¶¯à·Ļà¶±": 3206,
      "à·Ļà¶±à·Ĭà¶§à·Ĭ": 3207,
      "à¶ļà¶Ńà·ı": 3208,
      "Ġà¶ºà·ľà¶¸à·Ķ": 3209,
      "Ġà¶ľà¶±à·ĵ": 3210,
      "à¶ļà·Ĵà¶±à·Ĭà¶¸": 3211,
      "Ġà¶ĳà·Ħà·ļ": 3212,
      "à¶±à·ĵà¶´": 3213,
      "à¶łà·ı": 3214,
      "Ġà¶ļà¶±à·Ĭ": 3215,
      "Ġà¶ħà·Ħà¶½à·ı": 3216,
      "Ġà¶½à¶Ĥ": 3217,
      "âĢįà¶»à¶ļà·Ĭ": 3218,
      "âĢįà·Ģà·ı": 3219,
      "à¶¯à·Ļà¶ºà¶ļà·Ĭ": 3220,
      "Ġà¶±à¶¸à¶ļà·Ĭ": 3221,
      "Ġà¶ľà¶Ńà·Ĭà¶Ńà·Ļ": 3222,
      "Ġà¶ľà·Ĳà·Ħà·Ĳ": 3223,
      "Ġà¶¶à·ĳà¶ľà·Ĭ": 3224,
      "Ġà¶Ĩà¶»à¶ļà·Ĭà·Ĥà·ıà·Ģ": 3225,
      "ĠCanada": 3226,
      "Ġà¶±à·Ĵà¶¯à·Ħ": 3227,
      "Ġà¶ľà¶±à·Ĭà¶±à·Ļ": 3228,
      "Ġà¶´à·Ĳà¶Ńà·Ķà¶¸à·Ĭ": 3229,
      "Ġà¶ļà·Ĵà·Ģà·Ķà·Ģà·ļ": 3230,
      "à¶Ńà·Ķà¶¸à·ıà¶«": 3231,
      "à¶½à·ľà¶ļà·Ĭ": 3232,
      "Ġà·ĥà¶¸à·Ĭà¶´à·ĸà¶»à·Ĭà¶«à¶ºà·Ļà¶±à·Ĭà¶¸": 3233,
      "à¶½à·Ŀà¶ļà¶º": 3234,
      "Ġà·Ģà·Ļà¶±à·Ķà·Ģà¶§": 3235,
      "Ġà·ĥà·Ĭà¶Ńà·ĸ": 3236,
      "Ġà¶©à·Ĭ": 3237,
      "Ġà¶ļà·Ģà¶¯à·ı": 3238,
      "Ġà·Ģà·ģà¶ºà·Ļà¶±à·Ĭ": 3239,
      "à¶»à·Ĭà¶§à·Ĭ": 3240,
      "Ġà¶ļà¶¸à·Ĭ": 3241,
      "Ġà¶¯à·Ķà¶ļà·Ĭ": 3242,
      "à¶¯à·Ĭà¶¯à¶ļà·Ĭ": 3243,
      "à·ļà¶±à·Ĭ": 3244,
      "Ġà¶Ńà¶§à·Ĭà¶§": 3245,
      "Ġà¶¶à·Ĳà¶½à·Ķà·Ģ": 3246,
      "Ġà·ĥà¶¸à·ıà¶ľ": 3247,
      "Ġà·ħà¶¸à¶ºà·Ļà¶ļà·Ĭ": 3248,
      "Ġà¶´à·ŀ": 3249,
      "Ġà¶¯à¶±à·Ĭà¶±à·Ģà¶±à·Ļ": 3250,
      "Ġà¶ļà·Ĳà¶´à·Ĭà¶§à¶±à·Ĭ": 3251,
      "os": 3252,
      "Ġà·Ģà·Ļà·ħ": 3253,
      "Ġà·Ģà·Ĵà¶¯à·Ķ": 3254,
      "à¶±à·Ĳà·Ģà¶Ń": 3255,
      "Ġà·ĥà·Ĭà¶®à·ıà¶±à¶º": 3256,
      "Ġà¶Ńà·ıà¶Ńà·Ĭà¶Ńà¶§": 3257,
      "Ġà¶ħà·Ħà¶±à·Ĭà¶±à·ļ": 3258,
      "à¶ľà¶±à·Ĵ": 3259,
      "Ġà¶¯à·Ļà¶±à·Ģà¶¯": 3260,
      "à¶´à·ıà¶½": 3261,
      "à¶ļà·ıà¶»à¶ºà·Ŀ": 3262,
      "Ġà¶īà¶´": 3263,
      "à·Ģà·Ļà¶±à·Ĭà¶±à·Ļ": 3264,
      "Ġme": 3265,
      "Ġà·Ģà·Ĳà¶»à·Ĳà¶¯à·Ĭà¶¯à¶ļà·Ĭ": 3266,
      "à¶´à·ĥ": 3267,
      "Ġà¶¸à¶»à¶«à¶º": 3268,
      "Ġà¶ĳà¶ļà·Ĵà¶±à·Ļ": 3269,
      "id": 3270,
      "Ġà¶¸à·Ĵà·ĥà·Ĭà¶§à¶»à·Ĭ": 3271,
      "Ġà¶¸à·Ļà·Ħà·Ĵ": 3272,
      "Ġà¶ħà·Ģà·ĥà·ıà¶±": 3273,
      "Ġà·Ħà¶¸à·Ķà·Ģà·Ļà¶±à·Ĭà¶±": 3274,
      "à¶»à·Ķà¶¸à·Ĭ": 3275,
      "à¶¯à·Ĵà¶¸": 3276,
      "à¶ľà·Ļà¶¸": 3277,
      "Ġà¶ħà¶ºà·Ģ": 3278,
      "à·ĥà·Ĭà¶¸à¶ļà·Ĭ": 3279,
      "Ġà¶ħà¶·à·Ĵ": 3280,
      "Ġà¶±à·Ĵà¶½à¶°à·ıà¶»": 3281,
      "Ġis": 3282,
      "Ġà¶ļà¶»à¶±à·Ĭà¶±à¶ºà·Ĵ": 3283,
      "Ġà¶ľà¶±à·Ķà¶¯à·Ļà¶±": 3284,
      "âĢįà¶»à·ģà·Ĭà¶±à·ļ": 3285,
      "Ġà¶½à·Ĳà¶¶à·Ļà¶±": 3286,
      "à¶¶à·Ĭà¶¯": 3287,
      "Ġà¶ľà·ľà¶±à·Ķà·Ģ": 3288,
      "Ġà¶¸à·Ĳà¶»à·Ķà·Ģ": 3289,
      "Ġà¶ħà¶Ńà·Ķà¶»à·Ķà¶¯à·Ħà¶±à·Ĭ": 3290,
      "à¶½à¶ºà¶±à·Ĭ": 3291,
      "Ġà¶¸à·Ļà¶Ńà·Ĳà¶±": 3292,
      "à¶¯à·Ĳà¶ļà·Ĭà¶ļ": 3293,
      "à¶¯à·ľ": 3294,
      "Ġà¶ĳà¶ļà¶Ńà·Ķà·Ģ": 3295,
      "Ġà¶ĩà·Ħà·Ļà¶±à·Ģà¶¯": 3296,
      "à¶¯à·ľà¶»": 3297,
      "Ġà¶ĳà¶ºà¶Ńà·Ĭ": 3298,
      "Ġà¶¸à·Ĭ": 3299,
      "Ġà¶ĳà¶±à·Ģà¶¯": 3300,
      "Ġà¶¯à·Ĳà¶±à¶ľà¶Ńà·Ĭà¶Ń": 3301,
      "Ġà¶´à·ľà¶Ń": 3302,
      "Ġà·Ģà·Ĵà·Ħà·Ĵà·ħà·Ķ": 3303,
      "Ġà¶Ńà¶¸à¶±à·Ĭà¶ľà·ļ": 3304,
      "âĢįà¶»à·Ĵà¶ºà·ıà·Ģ": 3305,
      "Ġà¶ľà¶«à¶±à·Ĭ": 3306,
      "à·ĥà·ĸ": 3307,
      "-à¶Ķà¶ºà·ı": 3308,
      "Ġà¶ħà¶Ł": 3309,
      "Ġà¶¸à·Ĳà¶»à·Ķà¶«à·ı": 3310,
      "à¶½à¶Ńà·Ĭ": 3311,
      "à¶¯à·ĵà¶¸": 3312,
      "à¶ľà¶½à·Ĭ": 3313,
      "Ġà·ħà¶¸à¶º": 3314,
      "à¶»à·ĸ": 3315,
      "à¶ħà¶Ńà·Ĭ": 3316,
      "à¶Ńà¶½": 3317,
      "Ġà·ĥà¶Ńà·Ĭ": 3318,
      "à¶ĳà¶ļà·Ĭà¶ļ": 3319,
      "Ġà·ĥà·Ħà¶Ńà·Ĵà¶ļ": 3320,
      "Ġà¶±à·Ĵà·Ģà·Ĭ": 3321,
      "à¶±à·Ļà·Ĭà¶±": 3322,
      "à·Ģà·ıà·ĥà¶±à·ıà·Ģ": 3323,
      "à·Ĥà¶«à¶º": 3324,
      "Ġà¶ľà·ŀà¶»à·Ģ": 3325,
      "Ġà¶Ķà¶¶à¶ľà·ļ": 3326,
      "Ġà¶ľà¶¶": 3327,
      "à¶»à¶±à·Ĭà¶±": 3328,
      "Ġà¶´à·Ļà·ħ": 3329,
      "Ġà·Ģà·Ĵà¶ļà·Ķà¶«": 3330,
      "à·Ĥà·ı": 3331,
      "à¶Ĩà¶¯à¶»": 3332,
      "Ġà¶ºà¶Ńà·Ķà¶»": 3333,
      "à¶¯à·ıà¶ºà¶ļ": 3334,
      "Ġà¶´à·Ļà¶¸à·Ĭà·Ģ": 3335,
      "Ġà·Ģà·Ļà¶±à¶Ńà·Ĭ": 3336,
      "Ġà·Ģà¶ºà·ĥ": 3337,
      "Ġà¶¯à·ıà¶ľà¶±à·Ĭà¶±": 3338,
      "à¶ļà·Ļà¶±à·Ļà¶ļà·Ĭ": 3339,
      "à¶½à·ľà¶ļà·Ķ": 3340,
      "à¶´à·Ķà¶»à·Ĭà¶«": 3341,
      "à·Ģà·ıà¶»": 3342,
      "à¶´à¶±à·ı": 3343,
      "Ġà¶ĭà¶Ńà·Ĭà¶Ń": 3344,
      "Ġà¶¸à·Ķà¶½à·Ķ": 3345,
      "od": 3346,
      "Ġà¶ļà·Ĵà·Ģà·Ķà·Ģ": 3347,
      "à¶¡": 3348,
      "Ġà·ĥà·Ĳà¶½à·Ĳà·ĥà·Ĭà¶¸": 3349,
      "à·Ģà¶¯à·Ĭà¶¯": 3350,
      ",à¶Ķà¶ºà·ı": 3351,
      "Ġà¶´à·ħà¶¸à·Ķ": 3352,
      "Ġà¶¯à·Ķà¶»à·Ĭà·Ģà¶½": 3353,
      "Ġà¶Ĩà¶º": 3354,
      "Ġà¶ºà·ıà¶±à¶º": 3355,
      "Ġà¶¸à·Ĳà¶©à¶¸à·Ĭ": 3356,
      "Ġà¶Īà¶Ńà·Ĭ": 3357,
      "à¶½à·Ļà¶ļà·Ĭà·ĥà·Ĭ": 3358,
      "Ġà¶ħà¶§": 3359,
      "em": 3360,
      "Ġà¶¸à·Ĳà¶¯": 3361,
      "à·Ļà¶ļà·Ĭà¶§": 3362,
      "Ġà¶½à·Ŀà¶ļà·ļ": 3363,
      "Ġà¶ħà·Ģà¶°à·ıà¶±à¶º": 3364,
      "Ġà¶»à·Ĵà¶¯": 3365,
      "Ġà·Ģà·Ļà¶±à·Ĵ": 3366,
      "Ġà¶ļà·ľà¶½à·Ĭà¶½à¶±à·ļ": 3367,
      "Ġà¶Ĩà¶©": 3368,
      "Ġà¶Ĩà¶»à¶Ĥà¶ł": 3369,
      "Ġà·ĥà¶±à·Ĭà·ĥà·Ķà¶±à·Ĭ": 3370,
      "Ġà¶´à·Ĵà¶»à·Ĵà·ĥà·Ĵà¶¯à·Ķ": 3371,
      "Ġà¶¯à·ıà¶ľà·Ļà¶±": 3372,
      "Ġà¶Ķà¶ºà·ıà¶½à·Ģ": 3373,
      "à¶ļà·ľà·Ħà·ļ": 3374,
      "Ġà¶¸à·Ļà¶º": 3375,
      "Ġà¶´à·ľà¶»": 3376,
      "à¶±à·Ķà¶¹": 3377,
      "à¶Ķà¶ºà¶ºà·Ĵ": 3378,
      "Ġà¶ħà¶±à·Ĭà¶±": 3379,
      "à¶ľà¶±à·ĵ": 3380,
      "um": 3381,
      "à¶ľà¶±à·Ĵà¶±à·Ĭ": 3382,
      "âĢįà¶»à¶ºà·Ŀ": 3383,
      "à¶¯à¶¸à·Ĭ": 3384,
      "Ġà¶ĳà¶¸": 3385,
      "Ġà¶ľà·Ļà¶±à·Ĭà¶±": 3386,
      "Ġà¶ĭà¶¶à¶§": 3387,
      "Ġà¶ļà·ľà·Ħà·ľ": 3388,
      "Ġà¶´à·Ħà¶½": 3389,
      "à¶¸à·ĵà¶§": 3390,
      "Ġà¶¯à·Ĳà¶±à¶±à·Ĭ": 3391,
      "Ġà¶´à·Ģà¶Ńà·Ĵ": 3392,
      "à¶Ńà·ıà¶Ńà·Ĭà¶Ń": 3393,
      "Ġà¶¯à·Ķà¶ļ": 3394,
      "à¶¸à·Ŀà¶©": 3395,
      "Ġà¶¸à·Ĵà¶Ńà·Ĭ": 3396,
      "à¶ľà·ľà¶½à·Ĭà¶½à·Ŀ": 3397,
      "âĢįà¶»à·Ĳ": 3398,
      "à·Ģà·Ĵà·ģà·Ĭà·Ģà·ıà·ĥ": 3399,
      "Ġà¶¶à·Ĵà¶º": 3400,
      "Ġà¶¢à¶»à·ı": 3401,
      "Ġà¶Ńà¶¸à·Ķà¶±à·Ĭ": 3402,
      "Ġà·Ħà·Ĵà¶Ńà·ļ": 3403,
      "Ġà¶¯à·Ķà·Ģà¶±à·Ĭà¶±": 3404,
      "ew": 3405,
      "Ġà·Ħà·Ĳà¶¸à·Ģà·Ļà¶½à·ļà¶¸": 3406,
      "âĢįà¶»à¶¯à·ļà·ģ": 3407,
      "Ġà¶ħà·Ģà¶¯": 3408,
      "à¶´à·ıà¶»à¶ļà·Ĭ": 3409,
      "Ġà¶¸à·Ħà¶Ńà·Ĭà¶¸à·Ĵà¶º": 3410,
      "Ġà¶Ńà·Ĵà¶¶à·Ķà¶±à·Ļ": 3411,
      "Ġà¶ļà·Ĵà¶ºà¶±à·Ĭà¶±à¶¯": 3412,
      "à¶»à¶ļà·Ĭ": 3413,
      "Ġà¶»à·ĥà·Ĭà·ĥà·ıà·Ģ": 3414,
      "Ġà¶ĳà·Ģà¶±à·Ĭà¶±": 3415,
      "Ġà·Ģà·Ĳà¶§à·Ĵà¶½à·ı": 3416,
      "Ġà¶¶à·ľà·Ħà·Ŀ": 3417,
      "Ġà·Ħà·Ĵà¶Ńà¶½à·ı": 3418,
      "Ġà¶ħà¶Ńà·Ĵ": 3419,
      "Ġà¶©à·ľà¶ļà·Ĭà¶§à¶»à·Ĭ": 3420,
      "à¶½à¶§à·Ĭ": 3421,
      "Ġà¶¯à¶Ńà·Ĭà¶Ń": 3422,
      "Ġà¶´à¶½à·Ģà·Ļà¶±à·Ĵ": 3423,
      "à¶Ńà·Ķà¶Ńà·Ĵ": 3424,
      "Ġà¶±à·Ĵà·ģà·Ĭ": 3425,
      "à¶¸à¶±à·ı": 3426,
      "Ġà¶¸à·Ĳà¶»à·Ļà¶±à·Ģà·ı": 3427,
      "à¶Ńà·ıà·Ģà¶º": 3428,
      "40": 3429,
      "Ġà¶ħà¶»à·Ĵ": 3430,
      "ent": 3431,
      "Ġà¶ĭà¶±à·Ĭà·Ģ": 3432,
      "Ġà¶¯à·Ļà¶º": 3433,
      "Ġà¶¶à¶½à¶±à·Ĭà¶±à¶¸à·Ĭ": 3434,
      "Ġà¶´à·Ķà¶¯à·Ĭà¶ľà¶½": 3435,
      "à¶»à¶½à·Ĭ": 3436,
      "Ġà·Ģà·ĺ": 3437,
      "Ġà¶½à·ľà¶ļà·Ĭà¶ļà·ı": 3438,
      "Ġà·ĥà·Ķà¶¶": 3439,
      "-čĊ": 3440,
      "à¶»à·Ĵà¶ļà·Ĭ": 3441,
      "Ġà¶¸à¶½à·Ĭ": 3442,
      "âĢįà¶ľà·ļ": 3443,
      "Ġà¶Ńà¶¸à·Ķà·ĥà·ļ": 3444,
      "Ġà¶¢à·Ŀà¶±à·Ĭ": 3445,
      "Ġà¶´à·Ķà·Ħà·Ķà¶«à·Ķ": 3446,
      "à¶Ńà¶¸à·Ķà¶±à·Ĭ": 3447,
      "à¶ħà¶´à·Ĵà·Ģ": 3448,
      "Ġà¶ĭà¶«à·Ķ": 3449,
      "ction": 3450,
      "Ġà¶ļà¶»à·Ģà¶±à·Ĭà¶±": 3451,
      "à·Ģà·Ķà¶½à·Ĭ": 3452,
      "Ġà¶´à¶½à·Ĭà¶½": 3453,
      "Ġà¶Ĩà¶´à·ĥà·Ķ": 3454,
      "Ġà¶ļà·ıà¶±à·Ĭà¶Ńà·ıà·Ģ": 3455,
      "Ġà¶ļà¶½à·Ĵ": 3456,
      "Ġà¶Ńà·ļà¶»à·Ķà¶«à·ı": 3457,
      "Ġà·Ģà·ıà·Ħà¶±à·ļ": 3458,
      "à¶ºà¶ļà·Ĭà¶¯": 3459,
      "Ġà¶ºà·Ŀ": 3460,
      "Ġà¶½à·Ĳà¶¶à·Ļà¶±à·Ģà·ı": 3461,
      "Ġà·Ħà¶º": 3462,
      "Ġà¶Ķà¶ļà·Ĭà¶ļà¶¸": 3463,
      "Ġà·ĥà·Ħà·ı": 3464,
      "à·ĥà·Ĭà¶Ńà·Ĵà¶ºà·Ĵ": 3465,
      "à¶Ķà·Ħà·Ķà·Ģ": 3466,
      "Ġà¶¸à·Ĳà¶»à·Ĵ": 3467,
      "Ġà¶±à·Ĵà·ĥà·ıà¶¯": 3468,
      "Ġà¶ĩà¶Ńà·Ķà·ħ": 3469,
      "à¶ĩà¶¸": 3470,
      "Ġà¶½à¶ļà·Ĭ": 3471,
      "Ġà¶¯à·Ļà·Ģà·Ĵà¶ºà¶±à·Ĭ": 3472,
      "Ġà·ģà¶ļà·Ĭà¶Ńà·Ĵà¶º": 3473,
      "Ġà·Ģà·Ĵà¶¸": 3474,
      "Ġà·Ħà·ľà¶¯à¶§à¶¸": 3475,
      "Ġà¶Ķà¶»": 3476,
      "Ġà¶´à·ļà¶±à·Ĭà¶±": 3477,
      "BI": 3478,
      "Ġà¶ħà¶¸à·Ĭà¶¸à¶§": 3479,
      "Ġà¶Ńà·Ķà·Ģà¶ļà·Ĭà¶ļà·Ķ": 3480,
      "à¶«à¶ļà·Ĭ": 3481,
      "à¶¯à¶»à·Ĭà·ģ": 3482,
      "Ġà¶ĳà¶łà·Ĭà¶łà¶»à¶ºà·Ĵ": 3483,
      "Ġà·Ģà¶§à·ļ": 3484,
      "Ġà¶¯à¶ļà·Ķà¶«à·Ķ": 3485,
      "oc": 3486,
      "Ġà¶ľà·Ĳà¶±à·ĵà¶¸": 3487,
      "à¶©à·Ļ": 3488,
      "Ġà·Ģà·Ļà¶ºà·Ĵà¶¯": 3489,
      "Ġà·Ģà·Ĵà·Ħà·Ĵà·ħà·Ķà·Ģà¶ļà·Ĭ": 3490,
      "à·ľà¶¸à·Ĭ": 3491,
      "à¶ºà·Ļà·Ĵ": 3492,
      "Ġà·ĥà·Ķà¶´à·Ĵà¶»à·Ĵ": 3493,
      "à·Ģà·ĵà¶¸à¶§": 3494,
      "Ġà¶ļà·Ĵà·Ħà·Ĵà¶´à¶ºà¶ļà·Ĭ": 3495,
      "Ġà¶ħà¶±à·Ĭà¶Ńà·Ĵà¶¸à¶§": 3496,
      "Ġà¶ĳà·Ħà·Ĵ": 3497,
      "Ġà¶±à·Ĵà¶ºà·Ŀ": 3498,
      "Ġà¶¸à·ľà¶±à·ıà·Ħà¶»à·Ĵ": 3499,
      "à¶Ńà·Ĭà¶Ńà·Ĵà¶º": 3500,
      "Ġà¶ħà¶±à·Ĵà¶ļà·Ĭ": 3501,
      "Ġà¶±à·Ĭ": 3502,
      "pp": 3503,
      "ist": 3504,
      "ak": 3505,
      "à·Ģà·Ĳà¶±à·Ĵ": 3506,
      "à¶¸à·ļà·Ģà·ı": 3507,
      "à¶¸à·ľà¶±à·Ģ": 3508,
      "à¶Ńà¶Ńà·Ĭ": 3509,
      "-à¶Ķà·Ģà·Ĭ": 3510,
      "Ġà¶īà·ĥà·Ĭà¶ļà·Ŀ": 3511,
      "à¶ħà¶½à·Ĭà¶½": 3512,
      "Ġà¶´à·Ħà¶ļà·Ĭ": 3513,
      "if": 3514,
      "Ġà¶¸à¶łà¶Ĥ": 3515,
      "à¶±à·Ķà¶ºà·Ĵ": 3516,
      "Ġà¶´à·Ĳà¶¸à·Ĵà¶«à·Ĵ": 3517,
      "Ġà·Ħà¶¯à·Ĵà·ĥà·Ĵ": 3518,
      "Ġà¶´à·Ĵà¶§à·Ķ": 3519,
      "Ġà·Ģà·Ĵà·ĥà·Ĭà·Ģà·ıà·ĥ": 3520,
      "Ġà¶¶à·Ļà·Ħà·Ļà¶Ńà·Ĭ": 3521,
      "Ġà¶ħà¶±à·Ĭà¶Ń": 3522,
      "Ġà¶¸à·Ĵà¶±à·Ĵà¶Ńà·Ĭà¶Ńà·Ķ": 3523,
      "Ġà¶ļà·Ĵà¶ºà¶½à¶ºà·Ĵ": 3524,
      "à¶«à·ıà·Ģ": 3525,
      "Ġà¶ļà·Ĵà·Ħà·Ĵà¶´": 3526,
      "Ġà¶½à¶¸à¶ºà·Ĵ": 3527,
      "Ġà¶Ķà¶ºà·ıà¶½à¶ľà·Ļ": 3528,
      "Ġcon": 3529,
      "à¶¸à·ıà¶»à·Ĭ": 3530,
      "Ġà¶½à·Ķà·Ħà·Ķ": 3531,
      "âĢįà¶ºà·ıà·Ģ": 3532,
      "à·Ģà·Ķà¶«à·ı": 3533,
      "Ġà¶ľà·Ĵà·Ģà·Ĵ": 3534,
      "Ġà¶´à¶±à·Ĭ": 3535,
      "Ġà¶Ĩà·Ħà·ıà¶»": 3536,
      "Ġà¶ĳà¶ļà·Ĭà¶ļà¶±à·Ĭ": 3537,
      "Ġà¶Ľ": 3538,
      "Ġà·Ģà·ıà¶»": 3539,
      "à¶¸à·Ļà¶§": 3540,
      "à¶Ĵà·Ģ": 3541,
      "Ġà¶ľà¶½à·Ĭ": 3542,
      "Ġà¶ļà·ıà¶»à¶ºà·Ļà¶ļà·Ĭ": 3543,
      "Ġà¶ĭà¶´à¶»à·Ĵ": 3544,
      "Ġà·Ħà·Ŀà¶§": 3545,
      "à·ıà¶±à·Ĭ": 3546,
      "Ġà¶Ŀà·ı": 3547,
      "à¶»à·ıà¶ľà¶±à·Ĭà¶±": 3548,
      "Ġà·ĥà¶½à¶ļà·Ķà¶«à·Ķ": 3549,
      "à·ĥà¶¸à·Ĭà¶´": 3550,
      "à¶¢à·Ĭà¶¢": 3551,
      "Ġà¶¶à¶½à¶±à·Ĭà¶±à·ļ": 3552,
      "à¶ľà¶½": 3553,
      "à¶®à·Ĵ": 3554,
      "Ġà¶ħà¶Ńà·Ĵà¶±à·Ĭ": 3555,
      "à·ĥà¶¸à·Ĭ": 3556,
      "Ġà¶»à¶®": 3557,
      "Ġà·Ģà·Ĳà¶©à¶ļà¶§": 3558,
      "Ġà¶¸à·ļà¶ļà·ļ": 3559,
      "Ġà¶¡": 3560,
      "ig": 3561,
      "Ġà·Ħà¶¸à·Ķà¶¯à·ıà·Ģ": 3562,
      "ll": 3563,
      "à·Ģà·ıà·Ģà·Ĭ": 3564,
      "à·Ħà·Ĳà¶ļà·Ĵ": 3565,
      "à¶Ńà·Ĭà¶Ńà·Ķà·Ģà¶ļà·Ĭ": 3566,
      "Ġà¶ļà¶»à¶±à·Ĭà¶±à¶Ńà·Ĭ": 3567,
      "Ġà¶§à¶ºà·Ĵ": 3568,
      "âĢįà¶»à·ģà·Ĭà¶±à·Ļ": 3569,
      "Ġà¶ľà¶±à·Ĵ": 3570,
      "Ġà¶ĩà·Ħà·Ķà¶¸à·Ĭ": 3571,
      "Ġà¶ľà·Ĳà¶±à·Ĭ": 3572,
      "Ġà¶½à·ļà·ĥà·Ĵ": 3573,
      "à¶ļà·ĵà¶¸": 3574,
      "ill": 3575,
      "à¶±à·Ĭà¶¯à¶»": 3576,
      "Ġà·Ģà·Ļà¶±à·ĥà¶ļà·Ĭ": 3577,
      "à¶§à·Ĭà·ĥà·Ĭ": 3578,
      "à¶¸à·ļà¶±à·Ĭ": 3579,
      "Ġà¶ºà·ľà¶¯à·ı": 3580,
      "Ġà¶¶à¶¶à·ı": 3581,
      "Ġà¶ĳà¶ļà·Ĭà¶ļà¶ľà·Ļà¶±": 3582,
      "Ġà¶ĳà·Ħà·ıà¶§": 3583,
      "ĠMr": 3584,
      "Ġà·Ģà·Ĵà¶ļà¶½à·Ĭ": 3585,
      "Ġà¶ħà¶±à¶Ńà·Ķà¶»à¶ļà·Ĭ": 3586,
      "Ġà¶¸à·Ļà¶±": 3587,
      "Ġà¶ľà¶¸à·Ķ": 3588,
      "à¶±à·Ķà¶Ńà·Ĭ": 3589,
      "Ġà·ĥà¶Ĥà¶ľ": 3590,
      "à¶´à¶½à·Ĭ": 3591,
      "à·Ħà·Ĳà¶¶à·Ĳà¶ºà·Ĵ": 3592,
      "âĢĶ": 3593,
      "Ġà¶ħà¶ļà·Ĭ": 3594,
      "Ġà¶ħà¶¯à·ı": 3595,
      "Ġà¶¸à·ıà¶»à·Ĭà¶ľà¶º": 3596,
      "Ġà¶ļà¶½à·ıà¶¯": 3597,
      "Ġà¶Ńà·Ĵà¶¶à·Ĭà¶¶à·Ļ": 3598,
      "Ġà·ĥà¶ļà·Ĭ": 3599,
      "Ġà·ĥà¶Ńà·Ĵà¶º": 3600,
      "à¶´à·Ĭà¶§": 3601,
      "Ġà¶ħà¶©à·Ķà¶¸": 3602,
      "Ġà·ĥà·ĳà¶¸à·Ĭ": 3603,
      "à·Ħà·Ĳà¶¸à¶¯à·ļà¶¸": 3604,
      "Ġà¶¸à·Ĵà¶±à·Ĵà·Ħà·Ģ": 3605,
      "{\\": 3606,
      "Ġà¶ĭà¶±à·Ĭà¶§": 3607,
      "Ġà¶¶à·Ĳà¶½": 3608,
      "Ġà·ĥà·Ĳà¶±à·Ĭ": 3609,
      "à¶Ńà·Ĵà¶ºà¶§": 3610,
      "Ġà¶·à·ıà¶»": 3611,
      "à¶«à·Ķà·Ģ": 3612,
      "Ġà¶¯à¶©à¶º": 3613,
      "Ġà·Ħà·Ĳà¶¶à·Ĳà¶ºà·Ĵ": 3614,
      "Ġà¶ĩà¶ºà¶ľà·ļ": 3615,
      "Ġà¶ļà·Ĵà·Ģà·Ĭà·Ģà¶¯": 3616,
      "Ġà¶ļà·Ĵà¶ºà¶±à·Ģà¶¯": 3617,
      "Ġà¶¶à·Ĳà¶³": 3618,
      "à·ħà·Ķà·Ģà¶±à·Ĭ": 3619,
      "à¶Ľà·Ĭ": 3620,
      "Ġà¶±à·Ĳà·Ħà·Ĳà¶±": 3621,
      "Ġà¶ħà·Ģà¶Ĥà¶ļ": 3622,
      "Ġà¶¯à·Ĳà¶±à·Ļà¶±à·Ĭà¶±à·ļ": 3623,
      "à·Ģà·ĵà¶¸à·Ĭ": 3624,
      "Ġà¶ľà·Ĳà¶½à¶´": 3625,
      "Ġà¶ĭà¶´à¶ļà¶»à¶«": 3626,
      "Ġà¶¸à¶¯à·Ĵ": 3627,
      "Ġà·Ģà·ıà·ĥà¶±à·ıà·Ģà¶±à·Ĭà¶Ń": 3628,
      "âĢįà¶»à·ĥà·Ĭà¶Ń": 3629,
      "à¶ķà¶±": 3630,
      "à¶ºà·Ĵà¶½à·Ĭ": 3631,
      "ess": 3632,
      "à¶Ńà¶½à·Ĭ": 3633,
      "Ġà¶±à·Ŀà¶±à·ı": 3634,
      "Ġà¶´à·ıà¶©": 3635,
      "Ġà·Ģà·ļà·Ģà·ı": 3636,
      "Ġà¶ľà·Ļà¶±à·ı": 3637,
      "à·Ħà·Ĭà¶¸à·Ĭà¶¸à·Ĭ": 3638,
      "Ġà¶¶à·ĸ": 3639,
      "Ġà·Ħà·Ĵà¶Ńà¶±à·Ĭ": 3640,
      "Ġà·Ħà·Ĵà¶Ńà·Ļà¶±à·Ģà·ı": 3641,
      "Ġà¶´à·ħà·Ģà·Ļà¶±à·Ĵ": 3642,
      "Ġà¶´à·Ĵà¶ºà·Ģà¶»": 3643,
      "à¶ļà·Ģà·Ķà¶»à·Ķà·Ģà¶Ńà·Ĭ": 3644,
      "Ġà¶´à·Ķà¶¯à·Ķ": 3645,
      "Ġà·ħà¶¸à¶ºà·ı": 3646,
      "Ġà¶ļà¶«à·Ĭà¶©à·ıà¶ºà¶¸à¶ļà·Ĭ": 3647,
      "Ġà¶ļà¶¸": 3648,
      "Ġà¶±à·Ĵà·Ģà·Ĳà¶»à¶¯à·Ĵ": 3649,
      "à¶§à·Ĵà¶ºà¶ļà·Ĭ": 3650,
      "Ġ\"čĊ": 3651,
      "Ġà¶Ķà¶Ńà·Ĭà¶Ńà·Ķ": 3652,
      "Ġà·Ģà·ĥ": 3653,
      "Ġà¶¯à¶ļà·Ĵà¶±": 3654,
      "à·ĥà·Ĵà¶ºà·ļ": 3655,
      "à¶§à·Ĭà·ĥà¶±à·Ĭ": 3656,
      "Ġon": 3657,
      "Ġà¶ĩà·Ģà·Ĵà¶¯": 3658,
      "Ġà¶ħà¶Ńà·Ĭà¶ħà¶©": 3659,
      "Ġà¶¯à·ļà¶¸": 3660,
      "Ġà¶ħà·Ģà·Ķà¶½": 3661,
      "à¶¯à·Ļà¶ºà·Ĵà¶ºà¶±à·ļ": 3662,
      "à¶´à·ıà¶¯": 3663,
      "Ġà¶±à·Ĳà·Ģà·Ĳ": 3664,
      "à¶»à·ĸà¶´": 3665,
      "à¶´à¶»à·Ĵà·ĥà·Ĭà·ĥ": 3666,
      "Ġà¶¯à·Ļà¶ļà¶ļà¶§": 3667,
      "à¶ĩà¶Ńà·Ĭà¶Ńà·Ļà¶±à·Ĭà¶¸": 3668,
      "Ġà¶ļà·Ĵà¶»à·ĵà¶¸à·ļ": 3669,
      "à¶ļà¶ºà·Ŀ": 3670,
      "Ġà¶ľà·Ĵà¶ºà·ıà¶¸": 3671,
      "à·Ļà·Ħà·ı": 3672,
      "ers": 3673,
      "âĢįà¶»à¶ļà·ıà·ģ": 3674,
      "Ġà·ĥà·Ĭà¶Ńà·ĸà¶Ńà·Ĵ": 3675,
      "à¶¯à¶ºà·Ĵ": 3676,
      "Ġà·Ħà¶ºà·Ĵ": 3677,
      "Ġà¶ļà·Ļà¶½": 3678,
      "à¶ļà¶»à¶ľà¶±à·Ĭà¶±": 3679,
      "à·ĵà¶Ńà¶º": 3680,
      "Ġà¶·à·ıà·Ģà·Ĵà¶Ńà·ı": 3681,
      "Ġà¶¶à¶ºà¶ºà·Ĵ": 3682,
      "Ġà·ĥà·ĳà·Ħà·Ļà¶±": 3683,
      "Ġà¶¯à·Ĳà¶¸à·Ĭà¶¸": 3684,
      "Ġà¶´à·Ļà¶§à·Ĭà¶§à·Ĵà¶º": 3685,
      "à¶«à·Ĭà¶©à·Ķ": 3686,
      "Ġà·Ħà¶¸à·Ĭà¶¶à·Ģà·Ļà¶±à·Ĭà¶±": 3687,
      "Ġà¶½à¶¶à·ıà¶ľà¶±à·Ĭà¶±": 3688,
      "-à¶¸à¶§": 3689,
      "Ġà¶¶à¶½à¶½à·ı": 3690,
      "à·ĥà·Ĳà¶ļà·Ģà¶¸": 3691,
      "âĢįà¶»à·ĥà·Ĵà¶¯à·Ĭà¶°": 3692,
      "13": 3693,
      "Ġà¶ļà·ĥà·ı": 3694,
      "ch": 3695,
      "Ġà¶Ķà¶½": 3696,
      "sl": 3697,
      "Ġà¶¯à·ļà¶§": 3698,
      "Ġà¶ļà·ħà·Ķ": 3699,
      "à¶©à·Ĵà¶ºà·ı": 3700,
      "Ġà¶´à·Ģà·ı": 3701,
      "à¶¸à¶ºà·Ĵà¶ļà¶½à·Ĭ": 3702,
      "à¶©à¶±à·Ĭ": 3703,
      "à¶Ńà¶ºà¶ļà·Ĭ": 3704,
      "à¶ºà·ļà¶¯à·ĵ": 3705,
      "à¶§à·ĵ": 3706,
      "Ġà·Ħà¶¯à¶´à·Ķ": 3707,
      "Ġà¶ļà·Ļà¶½à·Ĵà¶±à·Ĭà¶¸": 3708,
      "Ġà·ĥà·Ĵà¶§à·Ĵà¶±": 3709,
      "Ġà¶Ńà·Ķà·ħ": 3710,
      "Ġà¶īà¶ļà·Ĭà¶¸à¶«": 3711,
      "Ġà¶īà·ĥà·Ĭà·ĥà¶»à·Ħ": 3712,
      "ind": 3713,
      "Ġà¶´à¶»à·ĵà¶ļà·Ĭà·Ĥà¶«": 3714,
      "à¶¶à·ľà·Ħà·ľà¶¸": 3715,
      "Ġà¶´à·Ĳà¶»": 3716,
      "Ġà¶½à¶Łà¶§": 3717,
      "Ġà·ĥà·Ĵà¶§à·Ĵà¶±à·Ģà·ı": 3718,
      "qu": 3719,
      "à¶Ĩà¶ºà·Ļ": 3720,
      "Ġà¶ºà¶ļà·Ŀ": 3721,
      "Ġà¶´à·Ĵà¶´à·Ĵ": 3722,
      "Ġà¶Ĩà¶©à¶¸à·Ĭà¶¶à¶»": 3723,
      "à¶¸à¶ľà·Ķ": 3724,
      "Ġà·ĥà·Ķà·ħà·Ķ": 3725,
      "à·ĥà·ıà¶¸à·ıà¶±à·Ĭ": 3726,
      "art": 3727,
      "à¶½à·ĥà·Ĭ": 3728,
      "à·ĸà¶´à¶»à·Ĭ": 3729,
      "Ġà·Ħà¶¸à·Ĭà¶¶à·Ķ": 3730,
      "Ġà¶ĩà¶Ńà·Ĭà¶Ńà¶§": 3731,
      "âĢįà¶»à¶¸à¶º": 3732,
      "Ġà¶ļà·ıà¶§à¶¯": 3733,
      "Ġà¶´à·Ķà¶Ńà·ļ": 3734,
      "à·Ħà·Ĭà¶¸à·Ĭ": 3735,
      "à·Ĵà¶ºà¶§à¶¸": 3736,
      "Ġà·ĥà¶¸à·Ĭà¶¶à¶±à·Ĭà¶¯": 3737,
      "Ġà·Ģà·Ĵà·ģà·Ĵ": 3738,
      "Ġà¶´à·Ķà¶½à·Ķà·Ģ": 3739,
      "Ġà·Ģà·Ĳà¶©à·Ĵà¶´à·Ķà¶»": 3740,
      "Ġà¶¶à¶½à¶±": 3741,
      "Ġà¶ĳà¶±à·Ĭ": 3742,
      "nd": 3743,
      "Ġà¶Ĩà·Ģà·ľà¶Ńà·Ĭ": 3744,
      "à¶ļà¶»à¶½": 3745,
      "à·ĥà·ļà¶»à¶¸": 3746,
      "à·ĥà¶½à·Ĭà¶½à·Ĵ": 3747,
      "âĢįà¶»à¶¸à·ıà¶«": 3748,
      "âĢįà¶»à·ģà·Ĭà¶±à¶º": 3749,
      "Ġà¶´à¶§à·Ĵ": 3750,
      "à¶¯à·Ĵà¶ľà¶§à¶¸": 3751,
      "à¶´à·Ļà¶±à·Ĭ": 3752,
      "Ġà·Ģà¶Ńà·ıà·Ģà¶ļà·Ĭ": 3753,
      "Ġà¶Ńà·ļà¶»à·Ļà¶±à·Ĭà¶±à·Ļ": 3754,
      "Ġà¶±à·Ĳà¶Ńà·Ĭ": 3755,
      "Ġà·ĥà·ĳà¶¸": 3756,
      "Ġà¶ľà·Ĳà·Ħà·Ķà·Ģà·ı": 3757,
      "Ġà¶łà·ĵ": 3758,
      "Ġà¶ĩà¶§": 3759,
      "Ġà¶ĳà¶ļà¶ļà¶§": 3760,
      "Ġà¶ĳà¶ļà·Ĭà¶ļà·Ļà¶±à·Ļà¶ļà·Ĭ": 3761,
      "Ġà¶½à·ľà¶ļ": 3762,
      "dit": 3763,
      "Ġà·Ģà·Ĵà·ģà·Ĭà·Ģà·ıà·ĥà¶º": 3764,
      "à·Ģà·Ļà¶©à·Ĵ": 3765,
      "à¶¶à·Ŀà·Ģà¶±à·Ĭ": 3766,
      "Ġà¶ºà¶Ńà·Ķà¶»à·Ķ": 3767,
      "....": 3768,
      "Ġà¶µ": 3769,
      "Ġà¶¶à·Ĵà¶³": 3770,
      "à¶ĳà¶ļà·Ĭ": 3771,
      "ex": 3772,
      "Ġà¶ħà·ĥà·Ĭ": 3773,
      "Ġà¶±à·Ĵà·Ģà·ı": 3774,
      "Ġà¶¯à·ĸ": 3775,
      "Ġà¶´à·Ĵà·ħà·Ĵà¶¶à¶³": 3776,
      "Ġà·Ħà·Ĵà¶Ńà¶±à·Ģ": 3777,
      "à¶»à¶ºà·Ĵ": 3778,
      "Ġà¶Ĭà¶½à¶ľ": 3779,
      "Ġà¶´à·ļà¶±à·Ģà¶¯": 3780,
      "Ġà¶ħà¶½à·Ĭà¶½à¶ľà·Ļà¶±": 3781,
      "à¶ľà¶§": 3782,
      "à·Ħà¶ºà·Ĵ": 3783,
      "Ġà·Ħà·ľà¶ºà¶±à·Ģà·ı": 3784,
      "Ġà¶ħà·Ģà·ĥà·Ĭ": 3785,
      "à·ĥà·Ĵà¶ºà·Ĵ": 3786,
      "à¶Ĩà¶»à¶ļà·Ĭà·Ĥ": 3787,
      "Ġà¶±à·Ĳà¶Ńà·Ĵà¶±à¶¸à·Ĭ": 3788,
      "Ġà·ĥà·Ĭà¶Ńà·Ķà¶Ńà·Ĵ": 3789,
      "Ġà¶łà·Ŀ": 3790,
      "Ġà¶¸à·Ļà·Ħà·Ļà¶ºà·Ķà¶¸": 3791,
      "Ġà¶ļà¶³à·Ķ": 3792,
      "à·ĥà¶±à·Ĭà·ĥà·Ķà¶±à·Ĭ": 3793,
      "à¶Ńà·Ķà·Ģà·ļ": 3794,
      "Ġà¶ļà·ıà¶½à·Ļà¶ļà¶§": 3795,
      "Ġà·Ģà·Ĵà¶±à·Ĭ": 3796,
      "Ġà¶ĳà¶½à·Ĵà¶º": 3797,
      "Ġà¶ľà·Ļà¶±à·Ĭ": 3798,
      "à¶¶à¶½à·ıà¶ľà·Ļà¶±": 3799,
      "Ġà¶¢à·ĸ": 3800,
      "Ġà·Ģà·Ĵà¶¯à·Ĵà¶ºà¶ļà·Ĭ": 3801,
      "Ġà¶ħà·Ħà¶±à·Ģà·ı": 3802,
      "Ġà·Ģà·ĥà¶»": 3803,
      "à·Ģà¶ºà¶Ĥ": 3804,
      "Ġà¶±à·Ĵà¶±à·Ĭà¶¯": 3805,
      "Ġà¶Ńà·Ĵà·Ļ": 3806,
      "à¶¢à·ĵà·Ģà·Ĵ": 3807,
      "à¶ľà¶±à·ļ": 3808,
      "Ġà¶´à·Ĳà¶Ńà·Ĵ": 3809,
      "Ġà¶ħà¶Ĥà¶ļà¶º": 3810,
      "-à¶Ĵà¶ļ": 3811,
      "Ġà¶ĩà¶¯à¶½à·ı": 3812,
      "Ġà¶ľà·Ħà¶±à·Ģà·ı": 3813,
      "à¶Ńà·ľ": 3814,
      "Ġà¶ħà¶ºà·Ĵà·ĥà·Ĭ": 3815,
      "Ġà¶īà·ĥà·Ĭà·ĥà¶»à·Ħà¶§": 3816,
      "Ġà¶¸à¶ºà·Ĵà¶ļà·Ĭ": 3817,
      "à¶´à·ıà¶§": 3818,
      "Ġà¶ºà·Ħ": 3819,
      "à¶ļà·Ģà·Ķà¶»à·Ķà¶Ńà·Ĭ": 3820,
      "à¶ļà·ĥà·Ĭ": 3821,
      "âĢįà¶»à¶ºà¶ļà·Ĭ": 3822,
      "Ġà¶ĩà¶Ńà·Ĭà¶Ńà¶¸": 3823,
      "ee": 3824,
      "Ġà¶´à·Ĵà¶½à·Ĵà¶ľà¶±à·Ĭà¶±à·Ģà·ı": 3825,
      "Ġà¶ĭà·ĥà·ĥà·Ĭ": 3826,
      "à¶łà·Ŀ": 3827,
      "à·ħà·ı": 3828,
      "à¶Ńà·Ķà¶¸à¶±à·Ĵ": 3829,
      "à¶±à·Ĵà¶ºà¶ļà·Ĭ": 3830,
      "Ġà¶ļà·Ĵà·Ģà·Ĭà·Ģà¶±à·ļ": 3831,
      "Ġà¶´à¶«à¶´à·Ĵà¶§à·Ĵà¶±à·Ĭ": 3832,
      "Ġà¶´à·Ĵà·ħà·Ĵà¶ľà¶±à·Ĭà¶±à·Ģà·ı": 3833,
      "Ġà¶´à¶¯à·Ĭà¶°à¶Ńà·Ĵà¶º": 3834,
      "Ġà¶°à·ıà·Ģ": 3835,
      "Ġà¶¸à·Ħà¶Ńà·Ĭà·Ģ": 3836,
      "Ġà¶ļà¶¸à·Ĭà¶´": 3837,
      "Ġà¶Ķà¶±à·Ĭà¶±": 3838,
      "Ġà¶¸à¶±à·Ķà·ĥà·Ĭà·ĥà¶ºà·Ļà¶ļà·Ĭ": 3839,
      "à¶īà¶±à·Ĭ": 3840,
      "Ġà·ĥà·ıà¶¯à¶»à¶ºà·Ļà¶±à·Ĭ": 3841,
      "Ġà¶ĭà¶©à·Ĵà¶±à·Ĭ": 3842,
      "à·Ĩà·ĵ": 3843,
      "à¶´à·Ķà·Ģ": 3844,
      "Ġà¶ľà¶Ńà·Ĭà¶Ńà·ľà¶Ńà·Ĭ": 3845,
      "Ġà¶ļà¶§à¶ºà·Ķà¶Ńà·Ķ": 3846,
      "Ġà·Ģà¶»à·Ļà¶±à·Ĭ": 3847,
      "Ġà¶ĭà¶«à·Ĭà¶©": 3848,
      "Ġà¶´à·Ĭà¶½": 3849,
      "Ġà¶ļà·ľà¶½à·Ĭà¶½à·Ļà¶ļà·Ĭ": 3850,
      "à¶»à·Ĭà¶º": 3851,
      "à¶ľà¶»": 3852,
      "ha": 3853,
      "à·Ģà¶±à·Ĭà¶Ń": 3854,
      "Ġà¶ĩà¶Łà·Ĵ": 3855,
      "Ġà¶ľà·Ĳà¶±à·ĵà¶¸à¶§": 3856,
      "à¶½à·Ĵà¶ºà·Ĵ": 3857,
      "Ġà¶¯à¶±à·Ĭ": 3858,
      "Ġà¶ħà·ģà·Ĭ": 3859,
      "à¶ħà¶´à¶§": 3860,
      "im": 3861,
      "Ġà·Ģà¶łà¶±à¶ºà¶ļà·Ĭ": 3862,
      "Ġà¶½à·Ŀà¶ļà¶ºà·ļ": 3863,
      "à¶ºà·Ķà¶¶à·Ŀà·Ģà¶±à·Ĭ": 3864,
      "Ġà¶¯à·Ļà¶±à·ı": 3865,
      "16": 3866,
      "Ġà¶¸à·Ŀà¶©à¶ºà·Ļà¶ļà·Ĭ": 3867,
      "à·Ĥà¶«": 3868,
      "Ġà¶¯à·Ļà¶¸": 3869,
      "Ġà·Ģà·Ķà¶«à¶Ńà·Ĭ": 3870,
      "all": 3871,
      "Ġà¶ľà·Ķà¶»à·Ķ": 3872,
      "Ġà·Ħà¶¸à·Ķà¶¯à·ı": 3873,
      "Ġà·Ģà·Ļà¶±à¶ļà¶±à·Ĭ": 3874,
      "Ġà¶ļà·ĵà¶´": 3875,
      "Ġà·ĥà¶¸à·Ĭà¶´à·Ķà¶»à·Ĭà¶«": 3876,
      "Ġà¶´à·Ĳà¶Ńà·Ĭà¶Ńà¶ļà¶§": 3877,
      "Ġà¶»à·ıà¶¢à¶ļà·ıà¶»à·Ĵà¶º": 3878,
      "à¶ļà¶§à¶¸": 3879,
      "Ġà¶¯à¶»à·Ķà·Ģà·ı": 3880,
      "DE": 3881,
      "à·Ļà¶±à·Ĭà¶¯": 3882,
      "Ġà·Ļà·Ħà·ı": 3883,
      "Ġà¶´à¶»à·Ĵà¶ļà·Ĭà·Ĥà·ı": 3884,
      "Ġà·ĥà·Ĵà¶»à·Ķ": 3885,
      "à¶»à·ĵà¶¸": 3886,
      "Ġà·Ģà·Ĵà·Ħà·Ĵà¶½à·Ķ": 3887,
      "à¶»à¶§": 3888,
      "ev": 3889,
      "Ġà¶¯à·Ĳà¶ļà¶½": 3890,
      "Ġà¶ļà·Ģà·Ĭà¶¯": 3891,
      "Ġà¶ħà¶±à·ıà¶ľ": 3892,
      "Ġà·ĥà·ıà¶»à·Ĭà¶®à¶ļ": 3893,
      "à·Ħà·ıà·ĥ": 3894,
      "à¶©à·ıà·Ģ": 3895,
      "Ġà¶ĭà¶±à·ıà¶§": 3896,
      "Ġà¶¯à·Ķà¶±à·Ĭà¶±à·Ļ": 3897,
      "Ġà¶¶à¶ºà·Ĵ": 3898,
      "Ġà¶ľà·ĳà¶«à·Ķ": 3899,
      "Ġà¶±à¶ľà·Ĵà¶±à·Ĭà¶±": 3900,
      "Ġà¶¸à·ľà¶ļà·Ŀ": 3901,
      "Ġà¶¶à¶½à·Ĭà¶½": 3902,
      "Ġà¶Ķà¶ºà·ıà¶§à¶Ńà·Ĭ": 3903,
      "à¶ºà·ıà·Ģà¶ļà·Ĭ": 3904,
      "Ġà¶Ĩà·Ģà¶»à¶«à¶º": 3905,
      "âĢįà¶»à¶°à·ı": 3906,
      "à¶Ĵà¶ļà·Ļ": 3907,
      "-âĢį": 3908,
      "à·ıà¶»à·ı": 3909,
      "ount": 3910,
      "Ġà¶ħà¶ļ": 3911,
      "Ġà¶½à·ĵ": 3912,
      "Ġà¶©à·Ļ": 3913,
      "Ġ/": 3914,
      "à·ľà¶©à·Ĭ": 3915,
      "Ġà¶¶à¶¶à·Ŀ": 3916,
      "à¶ºà·Ģ": 3917,
      "Ġà¶¯à¶ļà·Ĭà·Ģà·ı": 3918,
      "Ġà¶¶à¶§": 3919,
      "Ġà¶ºà·ıà¶½à·Ķà·Ģà·Ļà¶ļà·Ĭ": 3920,
      "Ġà¶ľà¶Ńà·Ĭà¶Ńà¶¯": 3921,
      "Ġà¶Ńà¶»à¶¸à¶§": 3922,
      "Ġà¶ħà¶¸à·Ķà¶Ńà·Ĭà¶Ń": 3923,
      "Ġà¶¶à·Ĳà¶Ĥà¶ļ": 3924,
      "Ġà·Ħà¶ºà·Ĵà¶º": 3925,
      "Ġà·Ģà·ıà¶¯": 3926,
      "Ġà¶±à·ıà·ĥà·Ĭà¶Ńà·Ĵ": 3927,
      "Ġà¶¸à¶Ńà·Ĭà¶¯à·Ĭ": 3928,
      "à¶¸à·ľà¶ļà¶§à¶¯": 3929,
      "à¶½à·ĥà·Ĭà·ĥà¶±": 3930,
      "à¶ļà·ıà¶»à·Ĵ": 3931,
      "âĢįà¶»à·Ģà·ļà·ģ": 3932,
      "Ġà¶ľà·Ļà¶±à¶Ńà·Ĭ": 3933,
      "Ġà¶½à·Ĵà¶ºà·Ķ": 3934,
      "Ġà¶´à·ĺ": 3935,
      "Ġà¶ļà·Ŀà¶´à·Ĵ": 3936,
      "Ġà¶¸à·ĺ": 3937,
      "Ġà¶ļà·ĳà¶½à·Ĵ": 3938,
      "Ġà¶¯à·Ļà¶±à·Ģ": 3939,
      "à¶»à·Ĵà¶ºà·ļ": 3940,
      "Ġ%": 3941,
      "Ġà¶ĩà¶Ńà·Ĭà¶Ńà·Ļà¶±à·Ĭà¶¸": 3942,
      "à¶§à·Ĭà¶§à·Ĵ": 3943,
      "à·Ķà·Ģà¶±à·ļ": 3944,
      "Ġà¶¯à¶»": 3945,
      "Ġà¶±à·ĳà¶±à·Ļ": 3946,
      "Ġà¶ļà·ĵà¶´à¶ºà¶ļà·Ĭ": 3947,
      "ĠâĻ«": 3948,
      "Ġà¶»à¶¢à·Ķ": 3949,
      "Ġà¶±à·Ĳà·Ģà¶Ńà¶Ńà·Ĭ": 3950,
      "à¶ºà¶ļà·Ŀ": 3951,
      "Ġà¶¸à·Ļà¶ºà·ıà¶§": 3952,
      "à¶½à·Ĵà¶ļà·Ĭ": 3953,
      "Ġà·Ģà·Ĵà¶¯à·Ĵà·Ħà¶ļà·Ĭ": 3954,
      "Ġà¶´à·ŀà¶¯à·Ĭà¶ľà¶½à·Ĵà¶ļ": 3955,
      "Ġà¶¸à¶ľà·Ĵà¶±à·Ĭ": 3956,
      "Ġà¶ħà¶Ńà·Ĭà¶ħà¶©à¶Ĥà¶ľà·Ķà·Ģà¶§": 3957,
      "à·Ģà·Ĭà·Ģà·Ļ": 3958,
      "à¶ļà·Ĭà·ĥà·Ĵ": 3959,
      "Ġà¶±à·Ĵà·ħ": 3960,
      "Ġà¶Ķà¶łà·Ĭà¶łà¶»": 3961,
      "âĢįà¶ºà¶ºà·Ļà¶±à·Ĭ": 3962,
      ",à¶¸à¶§": 3963,
      "500": 3964,
      "Ġà¶´à·ĥà·Ķà·Ģ": 3965,
      "HFF": 3966,
      "Ġà¶ļà·ıà¶¸à¶»à¶º": 3967,
      "Ġà·ģà¶»à·ĵ": 3968,
      "à¶»à·Ĭà¶½à·Ĵ": 3969,
      "Ġà¶ħà¶´à·Ħ": 3970,
      "Ġà¶±à·Ĵà¶ļà¶¸à·Ĭà¶¸": 3971,
      "'čĊ": 3972,
      "pe": 3973,
      "à·ĥà·Ĭà·ĥà·Ĵ": 3974,
      "Ġà¶¶à·ĥà·Ĭ": 3975,
      "à¶§à·Ĵà¶ºà·ļ": 3976,
      "à¶ľà·Ļà¶ºà·Ĵ": 3977,
      "Ġà¶´à·Ĵà¶§à¶Ńà·Ĭ": 3978,
      "à¶¸à·ľà¶±à·Ģà·ıà¶¯": 3979,
      "à¶ĩà¶Ńà·Ķà¶½à¶§": 3980,
      "Ġà¶ħà·Ħà¶ļà¶§": 3981,
      "à¶¸à·ļà¶ļà¶§": 3982,
      "24": 3983,
      "à·ļà¶´": 3984,
      "à¶»à·Ķà¶«à·ı": 3985,
      "à·Ģà·Ĵà¶¯": 3986,
      "Ġà¶ħà¶Ńà·Ĭà·ĥà¶±à·Ĭ": 3987,
      "Ġà¶ĭà¶¶à·ļ": 3988,
      "Ġà·Ħà·Ĵà¶Ńà·ıà¶ľà·Ļà¶±": 3989,
      "Ġà·ĥà·Ĵà¶±à·Ĭ": 3990,
      "Ġà¶ħà¶Ńà¶»à·ļ": 3991,
      "Ġar": 3992,
      "âĢįà¶»à¶¸à·ıà¶«à¶º": 3993,
      "Ġà·Ģà·ĵà¶©à·Ĵà¶ºà·Ŀ": 3994,
      "Ġà¶ĩà·Ħà·Ķà¶¸à·Ĭà¶ļà¶±à·Ĭ": 3995,
      "Ġà¶´à·Ĵà·ħà·Ĵà¶ľà¶±à·Ĭà¶±": 3996,
      "Ġà¶ĭà¶Ńà·Ķà¶¸à·ıà¶«": 3997,
      "Ġà·Ħà¶¯à·ıà¶ľà¶±à·Ĭà¶±": 3998,
      "Ġà¶ļà·Ķà¶«à·Ķ": 3999,
      "Ġà¶´à¶»à·Ĵà·ĥà·Ĭà·ĥà¶¸à·Ĭ": 4000,
      "Ġà¶¸à·ľà·Ħà·ľà¶Ń": 4001,
      "Ġà¶±à¶ľà¶»à¶ºà·ļ": 4002,
      "Ġà¶ħà·Ģà·ĥà·ıà¶±à¶º": 4003,
      "à¶±à·Ĳà¶Ńà·Ĭà¶Ńà¶¸à·Ĭ": 4004,
      "à¶ĩà¶ºà·Ģ": 4005,
      "Ġà¶´à·Ķà¶¯à·Ĭà¶ľà¶½à·Ĵà¶ļ": 4006,
      "Ġà¶ħà¶°": 4007,
      "Ġà¶ĳà¶ºà·ıà¶½à¶ľà·Ļ": 4008,
      "Ġà¶¯à·Ļà¶ºà·Ĵà¶ºà¶±à·ļ": 4009,
      "à¶īà·ĥà·Ĭà·ĥ": 4010,
      "Ġà¶¯à·Ľ": 4011,
      "ub": 4012,
      "Ġà¶Ńà¶¶à·ı": 4013,
      "Ġà¶ļà¶½à·Ĭà¶´à¶±à·ı": 4014,
      "Ġà¶ľà·ľà¶©à¶±à·Ĳà¶ľà·Ĵà¶½à·Ĭà¶½": 4015,
      "à¶ħà¶±": 4016,
      "à¶»à·ĵà¶¸à·Ĭ": 4017,
      "à·Ģà¶½à·Ĵà¶±à·Ĭ": 4018,
      "Ġà¶Ĩà¶»à¶ļà·Ĭà·Ĥà·Ĵà¶Ńà¶ºà·Ĵ": 4019,
      "Ġà¶¯à¶ļà·Ķà¶«": 4020,
      "Ġà¶ľà·Ĳà·Ħà·Ĳà¶«à·Ķ": 4021,
      "Ġà¶¸à·ĥà·Ĭ": 4022,
      "Ġà¶Ĩà¶łà·Ĭà¶łà·Ĵ": 4023,
      "à¶µ": 4024,
      "à¶ĳà¶ļà¶§": 4025,
      "Ġà¶ľà·ĳà¶±à·Ķ": 4026,
      "Ġà¶Ńà·Ĵà¶¶à·Ĵà¶½à·ı": 4027,
      "Ġà¶Ńà·Ķà·Ģà¶ļà·Ĭà¶ļà·Ķà·Ģà¶ļà·Ĭ": 4028,
      "\".čĊ": 4029,
      "Ġà¶ļà¶³": 4030,
      "Ġà¶īà¶±à·Ĭà¶±à¶ļà·ľà¶§": 4031,
      "Ġà¶īà·ĥà·Ĭ": 4032,
      "Ġà¶¸à·Ĳà¶¯à·Ĵ": 4033,
      "à¶¯à·Ķà·Ģà¶±à·Ĭà¶±": 4034,
      "à·Ģà¶´à·Ķ": 4035,
      "Ġà¶¯à·Ļà¶ļà¶ºà·Ĵ": 4036,
      "Ġà¶ľà·ıà¶±à·ļ": 4037,
      "Ġà¶¯à·Ĳà¶±à¶§": 4038,
      "à¶Ńà·Ĵà·ĥà·Ĭà·ĥ": 4039,
      "Ġà¶¸à·Ķà¶½à·Ĭ": 4040,
      "Ġà¶¸à¶Łà·Ķà¶½à¶ļà·Ĭà¶¯": 4041,
      "Ġà¶±à·Ĳà·Ħà·Ĳà¶±à·ļ": 4042,
      "Ġà¶ĳà·Ħà·Ļà¶¸à¶¯": 4043,
      "Ġà¶§à·Ĵ": 4044,
      "à·Ģà·ıà¶¯à·ĵ": 4045,
      "Ġà¶ĳà·Ģà·ı": 4046,
      "Ġà¶ĭà¶ľà·Ķ": 4047,
      "Ġà·Ģà·Ĵà¶ļà·Ĭ": 4048,
      "à·Ħà¶»à·Ĵà¶ºà¶§à¶¸": 4049,
      "à¶°à·ıà¶»à¶«": 4050,
      "Ġà¶ºà¶±à·Ĭà¶±à¶¯": 4051,
      "à¶Ķà¶¶à¶ľà·ļ": 4052,
      "Ġà¶´à·ľà¶½à·Ĵà·ĥà·Ĵà¶º": 4053,
      "à·Ħà·Ĳà¶¯à·Ĵ": 4054,
      "Ġà·Ħà·ĵà¶±": 4055,
      "Ġà·Ģà·Ĵà¶»à·Ķà¶¯à·Ĭà¶°à·Ģ": 4056,
      "Ġà¶´à·Ģà¶Ńà·Ĭ": 4057,
      "Ġà·ĥà·Ĭà¶§à·ĵ": 4058,
      "à¶»à·Ĭà¶©à·Ĭ": 4059,
      "âĢįà¶»à·Ĵà·ĥà·Ĭ": 4060,
      "Ġà¶ľà¶¸à·ļ": 4061,
      "à¶¸à·Ķà¶½à·Ĵà¶±à·Ĭà¶¸": 4062,
      "Ġà·Ħà·ľà¶ºà¶±à·Ĭà¶±à·ļ": 4063,
      "Ġà·Ģà·Ļà¶½à·ıà¶¯": 4064,
      "Ġà¶¯à·Ķà¶¸à·Ĭà¶»à·Ĵà¶º": 4065,
      "Ġà¶¯à·Ĳà¶ļà·Ĭà¶ļà·Ļ": 4066,
      "Ġà·Ģà·Ĳà¶±à·Ĵ": 4067,
      "Ġà¶¢à¶±à·ıà¶°à·Ĵà¶´à¶Ńà·Ĵ": 4068,
      "Ġà¶Ńà·Ĵà·ĥà·Ĭà·ĥà·ļ": 4069,
      "Ġà¶īà¶±à·Ĭà¶±à¶¸à·Ĭ": 4070,
      "Ġà·Ģà·ĥà·Ĭà¶Ńà·Ķà·Ģà·ļ": 4071,
      "à¶¯à·Ļà¶±à·Ļà¶ļà·Ĭ": 4072,
      "à·Ŀà·Ĥ": 4073,
      "Ġà¶Ĩà·ĥà¶ºà·Ĵ": 4074,
      "Ġà·ĥà¶±à·Ĭà¶±": 4075,
      "Ġà¶ħà¶»à¶¸à·Ķ": 4076,
      "Ġà¶¸à·Ķà¶«à¶ľà·Ĳà·Ħà·Ļà¶±à·Ĭà¶±": 4077,
      "Ġà¶ħà¶½à·Ķ": 4078,
      "Ġà¶Ĵà¶ļà·Ĵ": 4079,
      "Ġà¶ļà¶«à·Ĭà¶©à·ıà¶ºà¶¸à·ļ": 4080,
      "âĢįà¶»à¶Ńà·Ĵà¶łà·ıà¶»": 4081,
      "Ġà·Ħà·ľà¶ºà¶½à·ı": 4082,
      "à·ħà·ļ": 4083,
      "Ġà¶¶à·ıà¶ºà·Ĵ": 4084,
      "Ġà¶´à·ľà¶½à·Ĵà·ĥà·Ĵà¶ºà¶§": 4085,
      "Ġà¶ľà·Ĳà·Ħ": 4086,
      "Ġà¶´à·Ĳà¶Ńà·Ĭà¶Ńà·Ļ": 4087,
      "Ġà¶´à¶¸à¶«à¶ºà·Ĵ": 4088,
      "Ġà·Ģà·Ĳà¶©à¶ļà¶»": 4089,
      "à·ĥà·ĵà¶¸": 4090,
      "à¶Ńà¶±à·Ĭà¶±": 4091,
      "à·Ģà·Ļà¶½à·ıà·Ģ": 4092,
      "ard": 4093,
      "à·Ħà¶º": 4094,
      "Ġà¶´à¶½à·ı": 4095,
      "Ġà¶ķà¶±à·ĳà¶¸": 4096,
      "Ġà¶¶à·Ļà¶¯à·ı": 4097,
      "à·Ĳà¶Ńà·Ĵ": 4098,
      "à¶±à·Ĭà¶¯à·Ķà·Ģ": 4099,
      "Ġà¶Ńà·ļà¶»à·Ķà¶±à·ı": 4100,
      "Ġà¶ļà·Ĵà·Ģà·ı": 4101,
      "à·Ķà¶¸à·Ĭ": 4102,
      "Ġà¶Ńà¶½à·Ĭà¶½à·Ķ": 4103,
      "Ġà¶ĩà·Ħà·Ķà·Ģà·ı": 4104,
      "à¶§à·Ĭà¶§à·Ķà·Ģà¶ļà·Ĭ": 4105,
      "à·Ļà¶ļ": 4106,
      "à¶īà·ĥà·Ĭà¶ļà·Ŀ": 4107,
      "Ġà¶ļà·Ķà¶©à·ı": 4108,
      "à¶ĭà¶©": 4109,
      "Ġà·ĥà¶Ĥà¶łà·ıà¶»": 4110,
      "ation": 4111,
      "Ġà¶¶à·Ļà¶½à·Ĭà¶½": 4112,
      "Ġà¶ĩà·Ħà·Ķà·Ģ": 4113,
      "Ġà¶łà¶»à·Ĵ": 4114,
      "Ġà¶ļà·ľà·Ħà·ľà¶¸à¶Ńà·Ĭ": 4115,
      "à¶»à·Ļà·Ħà·Ĵ": 4116,
      "Ġà·Ħà·Ĳà¶ľ": 4117,
      "Ġà·ĥà¶¸à·Ķ": 4118,
      "Ġà¶»à·Ĳà¶ļà·Ĵ": 4119,
      "Ġà·Ħà·Ĵà¶±à·ı": 4120,
      "Ġà¶¯à·Ĳà¶ļà·Ĭ": 4121,
      "Ġà¶´à·ľà¶Ńà·Ĭ": 4122,
      "'s": 4123,
      "Ġà¶ĳà·Ħà·Ļà¶§": 4124,
      "Ġà¶Įà¶§": 4125,
      "Ġà¶¸à¶»à·ı": 4126,
      "Ġà¶¸à·ıà¶±": 4127,
      "Ġà¶¯à·ıà¶±": 4128,
      "Ġà¶«à¶º": 4129,
      "Ġà¶»à·ĸ": 4130,
      "Ġà·Ģà·Ķà¶±à·ıà¶§": 4131,
      "Ġà·ĥà·Ĳà¶½à¶ļà·Ĵ": 4132,
      "à¶ĩà¶Ńà·Ĵ": 4133,
      "Ġà¶ħà¶´à·ı": 4134,
      "Ġà¶·à¶ºà·ıà¶±à¶ļà¶ºà·Ĵ": 4135,
      "Ġà¶±à·ĵà¶Ńà·Ĵà¶º": 4136,
      "âĢįà¶»à·ļà¶¸à·Ĭ": 4137,
      "Ġà¶´à·Ĵà¶§à·Ĵà¶´à·ĥà·Ĭà·ĥ": 4138,
      "à¶»à·ıà·Ģà¶§à¶¸": 4139,
      "Ġà·Ģà·ļà¶½à·ı": 4140,
      "Ġà¶¸à·Ĵà¶½": 4141,
      "Ġà¶ļà¶»à¶ľà¶Ńà·Ĭà¶Ńà·ı": 4142,
      "à¶©à·Ķà·Ģà¶ļà·Ĭ": 4143,
      "à¶Ńà¶´à·Ķ": 4144,
      "Ġà¶ĭà·Ģà¶¸": 4145,
      "Ġà¶ħà¶»à¶Ĥ": 4146,
      "à¶½à·Ŀà¶±à·Ĭ": 4147,
      "Ġà¶¶à·ıà¶°": 4148,
      "Ġà·Ħà·Ĳà¶¯à·Ķà·Ģ": 4149,
      "à·ĥà·Ĭà·ĥà¶±à·Ĭà¶±": 4150,
      "Ġà¶¸à·Ķà¶½à·Ĵà¶±à·Ĭ": 4151,
      "Ġà¶Ńà¶Ńà·Ĭà¶´à¶»": 4152,
      "Ġà¶»à·Ĵà¶º": 4153,
      "Ġà¶Ĩà¶»à¶ļà·Ĭ": 4154,
      "ht": 4155,
      "à¶´à·Ĵà¶ºà¶±à·Ĭ": 4156,
      "à¶¯à¶§": 4157,
      "Ġà¶ħà¶·à·Ĭ": 4158,
      "à¶Ĥà¶ľà·Ĵà¶ļ": 4159,
      "Ġà¶»à·Ĳà¶ļ": 4160,
      "Ġà·Ħà¶Ĥà¶ľ": 4161,
      "Ġà·ĥà¶´à¶Ńà·Ĭà¶Ńà·Ķ": 4162,
      "à¶¸à·Ĵà¶±à·Ĵà·Ħà·ı": 4163,
      "à¶¢à·Ĵà¶±à·Ĭ": 4164,
      "Ġà·Ģà·Ħà¶ľà¶±à·Ĭà¶±": 4165,
      "Ġà¶¶à¶»à¶´à¶Ń": 4166,
      "Ġà¶¸à·ıà¶¸à·ı": 4167,
      "Ġà·Ģà·Ļà¶±à·Ĭà¶±à¶ºà·Ĵ": 4168,
      "Ġà¶´à¶»à·Ĵà¶ľà¶«": 4169,
      "âĢįà¶ºà·ıà¶´à·ĺà¶Ńà·Ĵà¶º": 4170,
      "Ġà¶´à¶±à·Ĵà¶±à·Ĭà¶±": 4171,
      "Ġà¶ħà¶±à·Ĭ": 4172,
      "Ġà¶ľà·Ħà¶½à·ı": 4173,
      "Ġà¶±à·Ĳà¶ľà·Ĵà¶§à·Ĵà¶±à·Ĭà¶±": 4174,
      "Ġà¶ļà·Ĵà¶ºà¶ºà·Ĵ": 4175,
      "Ġà¶ĩà¶¸à¶»à·Ĵà¶ļà·ı": 4176,
      "Ġà¶´à·Ĵà¶±à·Ĭà¶Ńà·ĸà¶»": 4177,
      "Ġà¶ĭà¶´à¶¯à·Ļ": 4178,
      "av": 4179,
      "à·Ħà¶Ńà·Ĭ": 4180,
      "à¶ļà·Ļà¶½à·Ĭà¶½": 4181,
      "Ġà·Ģà·Ĳà¶©à¶§": 4182,
      "ome": 4183,
      "à¶ºà¶ºà·Ļà¶±à·Ĭà¶¸": 4184,
      "Ġà¶»à¶Ńà·Ĭ": 4185,
      "Ġà¶´à·Ķà¶»à·ıà¶¸": 4186,
      "ry": 4187,
      "à¶ĳà·ħ": 4188,
      "à¶±à¶»à¶ļ": 4189,
      "à¶Ńà·Ĳà¶±à¶¸": 4190,
      "Ġà·Ģà·ıà¶»à·Ĭà¶Ńà·ıà·Ģ": 4191,
      "Ġà¶±à·Ĳà·Ģà¶Ńà·Ķ": 4192,
      "à¶¸à·Ķà¶ļà·Ķà¶Ńà·Ĭ": 4193,
      "Ġà¶¸à·ļà·Ģ": 4194,
      "âĢįà¶»à·Ķ": 4195,
      "Ġà¶¶à·Ĵà¶½à·Ĭ": 4196,
      "à¶ļà·Ģà¶¯à·ıà·Ģà¶Ńà·Ĭ": 4197,
      "Ġà¶ļà¶»à·ľà¶Ńà·Ĭ": 4198,
      "Ġand": 4199,
      "Ġà¶ľà·ŀà¶»": 4200,
      "Ġà¶ĭà¶´à¶±à·Ĭà¶¯à·Ĵ": 4201,
      "Ġà¶¸à·Ĵà¶±à·Ĵà·ĥà·Ĭ": 4202,
      "Ġà¶Ńà·Ĵà¶ºà¶±à·Ļà·Ģà·ı": 4203,
      "à·Ģà·Ĵà¶½à·ı": 4204,
      "à¶ľà·Ĵà¶±à·Ĵ": 4205,
      "Ġà·Ģà·Ķà·Ģ": 4206,
      "Ġà¶ĳà¶ļà¶¯": 4207,
      "Ġà·Ģà·ıà·Ħà¶±": 4208,
      "Ġà¶¢à¶ºà¶ľà·Ĭ": 4209,
      "à¶ľà¶Ńà·Ĭà¶Ńà·Ļ": 4210,
      "Ġà¶¸à·Ĵà¶±à·ĵà¶¸à·Ĳ": 4211,
      "à·Ħà·ĵ": 4212,
      "à·Ļà¶½à·ı": 4213,
      "âĪĻâĪĻčĊ": 4214,
      "14": 4215,
      "à¶ºà·ıà¶»à·Ĭ": 4216,
      "Ġà¶½à·ĳà·ĥà·Ĭà¶Ńà·Ĵà¶ºà·Ĵ": 4217,
      "à¶ħà¶©à·Ķà¶¸": 4218,
      "Ġà·Ģà¶Ĥà¶ł": 4219,
      "Ġà·ĥà·ıà¶¯": 4220,
      "Ġà¶¯à·Ļà¶´à·ı": 4221,
      "à¶ľà¶»à·Ĭ": 4222,
      "Ġà¶´à·Ĳà¶±à¶½": 4223,
      "Mr": 4224,
      "Ġà¶ħà¶»à·Ĭ": 4225,
      "oh": 4226,
      "à¶ĳà¶½à·Ĵà¶ºà¶§": 4227,
      "à¶łà¶½à·Ĭ": 4228,
      "à¶´à·ĳ": 4229,
      "Ġà¶´à¶»à·Ĵà·Ģà¶»à·Ĭ": 4230,
      "Ġà¶½à·Ĳà¶¶à·Ķà¶±": 4231,
      "Ġà¶ļà¶ļà·Ķà¶½": 4232,
      "à¶±à¶±à·Ĭà¶±": 4233,
      "à·Ħà¶ļà·Ĭ": 4234,
      "Ġà¶¶à·Ĳà¶§": 4235,
      "âĢįà¶¸à·ı": 4236,
      "Ġà¶¸à·Ĳà¶»à·Ķà¶«": 4237,
      "à¶»à·ĥà·Ĭ": 4238,
      "à¶»à·Ŀà¶°": 4239,
      "Ġà·Ģà·Ħà¶±à·Ĭà¶±": 4240,
      "Ġà·Ģà·ļà¶¯à¶±à·ıà·Ģ": 4241,
      "Ġà¶¶à·Ĳà¶±à·Ĭ": 4242,
      "Ġà·Ħà·Ĳà¶»à·Ļà¶±à·Ĭà¶±": 4243,
      "à·ĥà·Ĵà¶»à·Ĳ": 4244,
      "Ġà·ĥà·Ĵà¶Ńà·Ĵà¶º": 4245,
      "Ġà¶´à·Ĵà·ĥà·Ĭà·ĥà·Ķà·Ģà¶ļà·Ĭ": 4246,
      "Ġà¶¸à·Ĵà¶±à·Ĵà·ĥà·ı": 4247,
      "Ġà·Ģà¶ľà·Ļà¶ºà·Ĵ": 4248,
      "Ġà¶¯à·Ĳà¶±à·Ķà¶¸à·Ĭ": 4249,
      "Ġà·ĥà·Ĳà¶´": 4250,
      "Ġà·ĥà·Ķà¶¯à·ıà¶±à¶¸à·Ĭ": 4251,
      "Ġà¶´à·Ļà¶±à·Ķà¶¸": 4252,
      "Ġà¶¸à¶½": 4253,
      "Ġà¶±à·Ĵà¶½à·Ĭ": 4254,
      "à¶Ńà·ĺ": 4255,
      "Ġà¶ļà·Ĳà¶©à·Ĵ": 4256,
      "Ġà¶¶à¶½à·Ĭà¶½à·Ļà¶ļà·Ĭ": 4257,
      "à¶¯à·Ģà·ĥà·Ĭ": 4258,
      "à¶¤": 4259,
      "Ġà¶½à·Ĳà¶¶à·Ļà¶±à·Ĭà¶±à·ļ": 4260,
      "Ġà¶´à¶±": 4261,
      "Ġà¶½à·ĳà·ĥà·Ĭà¶Ńà·Ĵà¶¯": 4262,
      "Ġà¶ºà·Ŀà¶¢": 4263,
      "à·Ģà·Ĵà¶Ńà·Ĭ": 4264,
      "à¶¸à·Ķà·ħà·Ķ": 4265,
      "à¶ļà·Ĭà¶½à·ıà¶ļà·Ĭ": 4266,
      "Ġà¶§à·Ŀ": 4267,
      "Ġà¶¢à·Ĵà·Ģà·Ĵà¶Ńà·ļ": 4268,
      "Ġforec": 4269,
      "Ġforecast": 4270,
      "Ġà¶½à·Ļà¶©": 4271,
      "Ġbe": 4272,
      "Ġà¶´à¶¸à¶«à¶ļà·Ĭ": 4273,
      "Ġà¶¯à·Ĳà¶±à¶ľà¶Ńà·Ĭà¶Ńà·ı": 4274,
      "à¶Łà·Ķ": 4275,
      "Ġà·ĥà·Ļà¶½à·Ĭà¶½à¶¸": 4276,
      "Ġà·Ģà·Ķà¶±à·ıà¶¯": 4277,
      "Ġà¶¸à·Ĵà¶±à·Ĵà·ĥà·Ĭà·ĥà·Ķà¶±à·Ĭà·Ģ": 4278,
      "à¶±à·ļà¶±à·ļ": 4279,
      "à·ĥà·ĳà¶¸à·Ĭ": 4280,
      "à¶Ķà·Ģà·Ķ": 4281,
      "Ġà¶ľà·Ĳà¶±à¶ºà·Ĵ": 4282,
      "Ġà·Ĩà·Ļ": 4283,
      "Ġà¶īà¶±à·Ĭà¶¯à·Ĵà¶ºà·ı": 4284,
      "à¶łà·Ĭà¶¡": 4285,
      "Ġà¶¸à¶łà·Ŀ": 4286,
      "à¶±à·Ĵà·ģà·Ĭ": 4287,
      "Ġà¶½à¶ºà·Ĵ": 4288,
      "Ġà¶»à·ıà¶¢à·Ĭ": 4289,
      "Ġà¶ļà·Ĳà¶¸à¶»à·ı": 4290,
      "Ġà¶Ĵà¶ļà¶Ńà·Ĭ": 4291,
      "Ġà¶ĭà¶«": 4292,
      "Ġre": 4293,
      "à¶´à·ħ": 4294,
      "âĢįà¶»à·Ĵà¶ºà¶ļà·Ĭ": 4295,
      "à·Ļà¶§": 4296,
      "Ġà¶¢à¶»à·ıà·Ģ": 4297,
      "?\"čĊ": 4298,
      "âĢįà¶ºà¶±à·Ĭà¶Ńà¶»": 4299,
      "Ġà·ĥà·Ļà¶±": 4300,
      "ort": 4301,
      "à¶Ńà·ıà¶¸": 4302,
      "Ġà¶¯à·Ĵà¶±à¶º": 4303,
      "Ġà¶¢à·ĵà·Ģà·Ĵà¶Ńà¶ºà¶ļà·Ĭ": 4304,
      "\\\\": 4305,
      "18": 4306,
      "à¶ļà·Ķà¶«à¶ļà·Ĭ": 4307,
      "Ġà¶´à·Ĵà¶§à·Ĵà¶´à·ĥà·Ĭà·ĥà·ļ": 4308,
      "ĠâĻ«čĊ": 4309,
      "à¶±à·Ĵà¶ļà·Ĭ": 4310,
      "Ġà¶ħà¶Ńà·ıà¶»à·Ĵà¶±à·Ĭà¶±": 4311,
      "à¶±à·Ĭà¶ľà·Ļà¶±à·Ĭ": 4312,
      "Ġà¶Ĩà·Ģà¶¸": 4313,
      "à¶±à·ļà¶¯": 4314,
      "Ġà¶łà·ıà¶»à·Ĭà¶½à·Ĵ": 4315,
      "à¶ĳà·Ħà·Ļà¶¸à¶¯": 4316,
      "à¶ĳà¶ļà¶ļà·Ĭ": 4317,
      "Ġà¶´à·Ħà·ĥà·Ķ": 4318,
      "Ġinf": 4319,
      "à¶±à·Ĳà¶Ńà·Ĵ": 4320,
      "à¶ľà¶±à·Ĭà¶±à·ı": 4321,
      "à¶´à·Ĳà¶º": 4322,
      "Ġà¶ĩà¶¯à·Ķà¶¸à·Ĭ": 4323,
      "à·Ģà·Ĳà¶©à·Ĵ": 4324,
      "à¶¶à¶¯": 4325,
      "à¶ļà·ľà¶§à·Ĭ": 4326,
      "ep": 4327,
      "à¶Ńà·Ķà¶»à¶ļà·Ĭ": 4328,
      "Ġà·ĥà¶¯à·Ħà·ı": 4329,
      "âĢįà¶ºà·Ģ": 4330,
      "Ġà¶ĩà¶¸à¶Ńà·Ķ": 4331,
      "à¶ļà·Ļà¶±": 4332,
      "à·Ĵà¶ºà¶±à·Ĭ": 4333,
      "Ġà¶ľà¶±à·Ĭà¶±à·Ģ": 4334,
      "Ġà¶½à·Ĳà¶¶à·Ļà¶ºà·Ĵ": 4335,
      "Ġà¶ĩà·Ģà·Ĵà¶½à·Ĭà¶½": 4336,
      "Ġà¶»à·ĸà¶´": 4337,
      "Ġà·Ģà¶»à¶¯à¶ļà·Ĭ": 4338,
      "à¶½à·Ķà¶¸": 4339,
      "à·Ħà·Ĳà¶¸à·Ŀ": 4340,
      "Ġà¶½à·Ĳà¶¶à·ĵà¶¸": 4341,
      "à¶¯à¶»à·Ĵà¶±à·Ĭ": 4342,
      "Ġà¶ľà·Ļà¶±à·ıà·Ģà·ı": 4343,
      "Ġà¶±à·Ĵà¶»à·Ĭà¶·": 4344,
      "Ġà¶ºà·ıà·ħà·Ķà·Ģà·ľ": 4345,
      "Ġà¶½à·Ĵà¶±à·Ĭ": 4346,
      "Ġà¶´à·ľà¶©à·Ĭ": 4347,
      "à¶ºà·Ĵà·ĥà·Ĭ": 4348,
      "à¶ĳà¶¯à·ı": 4349,
      "Ġà¶ļà·Ĳà¶´": 4350,
      "à¶´à·Ĳà·Ħà·Ĳà¶¯à·Ĵ": 4351,
      "ton": 4352,
      "Ġà·Ģà·Ħà¶½à·ı": 4353,
      "à¶±à·Ģà¶Ńà·Ĭà¶Ńà¶±à·Ĭà¶±": 4354,
      "Ġà¶¸à·ľà¶©": 4355,
      "à·Ħà¶»à·Ĵà¶±à·Ĭà¶±": 4356,
      "Ġà¶±à¶»à¶ļà¶ºà·Ĵ": 4357,
      "dition": 4358,
      "Ġà¶ħà¶¯à·Ĵà¶±à·Ĭà¶±": 4359,
      "à¶Ńà·Ĭà¶Ńà¶¸": 4360,
      "Ġà·ĥà·ļà·Ģà¶º": 4361,
      "Ġà¶ļà·ĺ": 4362,
      "à¶¸à·Ļà·Ħà·Ļà¶§": 4363,
      "Ġà¶ľà¶»à·Ķ": 4364,
      "Ġà¶īà¶½à·Ĭà¶½à¶±à·Ĭà¶±": 4365,
      "Ġà¶ļà·Ļà¶±à·Ļà¶ļà·Ķà¶§": 4366,
      "à·ĥà·Ĵà¶»à·Ĳà·ĥà·Ĵ": 4367,
      "Ġà¶Ĭà¶½à¶Ł": 4368,
      "à¶ļà¶»à·Ķà·Ģà·Ļà¶ļà·Ĭ": 4369,
      "Ġà·Ģà·Ĳà¶©à·ļà¶§": 4370,
      "à¶ľà·Ĵà¶±à·Ĭ": 4371,
      "Ġà¶Ńà¶»à¶¸à·ļ": 4372,
      "Ġà¶§à·ĵ": 4373,
      "à¶ļà·ĳ": 4374,
      "Ġà·Ģà·Ĵà·ĥà¶³": 4375,
      "à¶ļà·Ĳà¶´à·Ĭà¶§à¶±à·Ĭ": 4376,
      "Ġà¶Ĩà·Ģà¶¯": 4377,
      "Ġà¶ħà·Ħà·Ĵà¶Ĥ": 4378,
      "25": 4379,
      "Ġà·Ħà·Ĵà¶§à·Ĵà¶ºà·ľà¶Ńà·Ĭ": 4380,
      "Ġà¶¸à·Ĳà¶»à·Ķà·Ģà·ļ": 4381,
      "Ġà·ĥà¶¸à·ıà¶¢": 4382,
      "Ġà¶±à¶¸à¶ºà·Ĵ": 4383,
      "Ġà¶¸à·Ķà·Ħà·Ķà¶¯à·Ķ": 4384,
      "Ġà¶´à¶«à·Ĵà·Ģà·Ĵà¶©à¶ºà¶ļà·Ĭ": 4385,
      "à·Ħà·Ĵà¶§": 4386,
      "à¶ħà·Ħà·Ĭà·Ħà·Ĭ": 4387,
      "Ġà¶ħà·Ħà¶ľà¶±à·Ĭà¶±": 4388,
      "à¶ľà·Ĵà¶±": 4389,
      "à¶»à·Ļà¶±à·Ĭà¶±": 4390,
      "Ġà¶ĭà¶´à¶»à·Ĵà¶¸": 4391,
      "Ġà¶Ĵà·Ģà·Ĵ": 4392,
      "Ġà¶¯à·ıà¶´à·Ķ": 4393,
      "Ġà·Ģà·Ĵà¶°": 4394,
      "Ġà·ĥà·Ĭà¶®à·ıà¶±": 4395,
      "):čĊ": 4396,
      "à¶ĭà¶¹à·ļ": 4397,
      "à¶¶à¶±à·Ĭ": 4398,
      "Ġà¶ħà·Ħà·Ĵà¶¸à·Ĵ": 4399,
      "Ġà¶Ńà¶±à·Ĵà¶º": 4400,
      "Ġà¶½à·Ĵà¶´à·Ĵà¶±à¶º": 4401,
      "Ġà¶ļà·ĵà¶ºà¶ļà·Ĭ": 4402,
      "ul": 4403,
      "Ġà¶Ńà·ĳà¶ľà·Ĭà¶ľà¶ļà·Ĭ": 4404,
      "Ġà¶ĳà¶ºà·ıà¶ľà·Ļà¶±à·Ĭ": 4405,
      "Ġà¶ķà¶±à·ĳ": 4406,
      "à·ĸà¶»à·Ĭ": 4407,
      "à·Ĳà¶±à·Ĵà¶º": 4408,
      "Ġà¶´à¶«à·Ĵà·Ģà·Ĵà¶©à¶º": 4409,
      "Ġà·Ģà·Ķà¶±à·ıà¶¸": 4410,
      "Ġà¶ħà¶±à·Ķà¶¸à·ıà¶±": 4411,
      "ong": 4412,
      "Ġà¶¶à·Ģà¶ļà·Ĭ": 4413,
      "Ġà·ĥà·Ĳà¶»à¶ºà¶ļà·Ĭ": 4414,
      "Ġà¶¸à·Ħà¶±à·Ĭà·ĥà·Ĵ": 4415,
      "Ġà¶ļà¶»à¶´à¶±à·Ĭ": 4416,
      "à·ĥà¶¸à·Ĭà¶´à·ĸà¶»à·Ĭà¶«": 4417,
      "Ġtran": 4418,
      "Ġà¶ħà¶±à·ıà¶ľà¶Ńà¶º": 4419,
      "âĢį,": 4420,
      "Ġà·Ħà·Ļà¶½à·Ŀ": 4421,
      "Ġà¶ļà·Ĵà¶»à·ĵà¶¸à·Ĭ": 4422,
      "Ġà¶ĭà·Ģà¶¸à¶±à·ı": 4423,
      "Ġà¶¸à·Ĵà¶±à·Ĵà·Ħà¶§": 4424,
      "à·Ģà¶Ńà·Ķà¶»": 4425,
      "à·Ĳà¶´à·ĵ": 4426,
      "à¶¸à·Ļà¶º": 4427,
      "âĢįà¶»à·ıà¶»à·Ĭà¶®": 4428,
      "à¶½à·ĵà·ĥà·Ĭ": 4429,
      "Ġà·Ħà·Ĳà¶ļà·Ĵà¶ºà·Ĵ": 4430,
      "à¶Ńà·Ļà¶±à·Ĭà¶§": 4431,
      "Ġà¶ļà·ıà·ħ": 4432,
      "à·ĥà¶Ńà·Ķ": 4433,
      "Ġà·ĥà·Ĳà¶¶à·ĳ": 4434,
      "à¶ħà·Ģà·ĥà·ı": 4435,
      "Ġà¶±à·Ĳà¶Ńà·Ĭà¶¯": 4436,
      "Ġà¶´à·Ļà¶±à·Ĭà¶±à·ļ": 4437,
      "à·ıà·Ģà¶Ńà·Ĭà¶¸": 4438,
      "à¶ºà·ıà¶ľà¶±à·Ĭà¶±": 4439,
      "Ġà¶¯à¶±à·Ĭà¶±à·Ģà·ıà¶¯": 4440,
      "Ġà¶Ķà·Ħà·ļà¶§": 4441,
      "Ġà¶īà¶ļà·Ĭà¶¸à¶±à¶§à¶¸": 4442,
      "à·Ģà·ĵà¶¸à·ļ": 4443,
      "Ġà¶Ķà¶¶à¶½à·ı": 4444,
      "Ġà¶ļà·Ļà¶§à·Ĵ": 4445,
      "Ġà¶¸à·ľà¶ļà¶ļà·Ĭà·Ħà¶»à·Ĵ": 4446,
      "Ġà¶ļà·Ĵà¶ºà·Ģà¶±à·Ĭà¶±à·ļ": 4447,
      "Ġà¶ĩà¶Ńà·Ķà¶½à¶Ń": 4448,
      "à·Ħà¶¸à·Ĭ": 4449,
      "Ġà·Ģà¶½à¶¯à·Ĵ": 4450,
      "à¶´à·ľà¶½à·Ĵ": 4451,
      "Ġà¶´à·ıà·ĥ": 4452,
      "Ġà¶½à¶¸": 4453,
      "à·ĥà·Ļà¶½à·Ĭ": 4454,
      "à¶±à·Ģà¶Ńà·Ĵ": 4455,
      "Ġà¶ħà¶±à·Ĵà¶ļ": 4456,
      "Ġà¶´à·ĵà¶§à¶»à·Ĭ": 4457,
      "Ġà·Ħà·Ķà·Ģ": 4458,
      "Ġà¶¶à¶¯à·Ĵà¶±à·Ĭà¶±": 4459,
      "Ġà·ĥà·Ĵà¶ºà¶½à·Ķà¶¸": 4460,
      "ob": 4461,
      "Ġà¶ħà¶ºà¶Ńà·Ĭ": 4462,
      "Ġà·Ģà·Ĵà¶±à·ıà·ĥ": 4463,
      "Ġà¶¸à·Ļà¶ļ": 4464,
      "Ġà¶¯à·Ļà¶ºà·Ĵ": 4465,
      "Ġà¶¸à·Ĵà¶±à·Ĵà·ĥà·Ķ": 4466,
      "Ġà¶´à¶±à·Ĭà¶±": 4467,
      "Ġà¶´à·Ĳà¶±à¶ľà¶±à·Ĭà¶±": 4468,
      "Ġà·Ħà·Ĭ": 4469,
      "Ġà¶ļà·ıà¶½à·ı": 4470,
      "Ġà¶ļà·ıà¶©à·Ĭ": 4471,
      "Ġà·ħà¶Łà¶§": 4472,
      "à¶Ńà¶¸à¶±à·Ĭ": 4473,
      "Ġà¶ĩà·Ģà·Ĵà¶¯à·Ĵà¶±à·Ĭà¶±": 4474,
      "Ġà¶ļà¶ļà·Ķà¶½à·Ĭ": 4475,
      "à¶¯à·Ļà¶ļ": 4476,
      "Ġà¶±à¶Ĥ": 4477,
      "Ġà¶ľà¶±à¶±à·Ĭ": 4478,
      "Ġà·Ģà·ļà¶ľà¶º": 4479,
      "à·Ĵà¶ºà·Ļ": 4480,
      "Ġà·ĥà¶Ńà·Ĭà¶Ńà·Ķ": 4481,
      "Ġà¶ºà·Ķà¶°": 4482,
      "Ġà·ĥà¶¸à·ıà¶±": 4483,
      "à·Ģà¶±à·Ģ": 4484,
      "Ġà¶ħà·ĥà·Ĭà·ĥ": 4485,
      "Ġà¶¯à·Ķà¶´à¶Ń": 4486,
      "Ġà·Ħà·Ĵà¶§à·Ĵà¶ºà¶¯": 4487,
      "Ġà¶ļà¶©à·ļ": 4488,
      "ĠV": 4489,
      "Ġ@": 4490,
      "à¶¸à·Ķà·Ħà·Ķ": 4491,
      "à·Ħà·Ķà¶½à·Ĭ": 4492,
      "Ġà·ĥà·ıà¶ļ": 4493,
      "à¶ľà·Ĳà¶±à·ĵà¶¸à¶§": 4494,
      "Ġà·ĥà·Ĭà·Ģ": 4495,
      "à¶Ńà·Ĭà¶Ńà¶ļà·Ĵà¶±à·Ĭà¶¸": 4496,
      "Ġcondition": 4497,
      "ĠFBI": 4498,
      "Ġà·Ħà·ľà¶ºà·ıà¶ľà¶Ńà·Ĭà¶Ńà·ļ": 4499,
      "à¶ļà·Ĳà¶¸": 4500,
      "Ġà¶īà¶³à¶½": 4501,
      "Ġà·Ħà¶¸à·Ĭà¶¶à·Ķà¶±à·ı": 4502,
      "à¶»à·Ĭà·ĥà·Ĭ": 4503,
      "Ġà¶Ĩà¶ļà·ıà¶»": 4504,
      "Ġà¶´à¶§à¶±à·Ĭà¶ľà¶±à·Ĭà¶±": 4505,
      "Ġà·Ģà·Ļà¶½à·ıà·Ģà·Ļà¶¸": 4506,
      "Ġà·ĥà·Ħà¶º": 4507,
      "Ġà¶łà·Ļ": 4508,
      "à¶ĭà¶´": 4509,
      "Ġà¶ħà¶ºà·Ĵà¶Ńà·Ĵà¶º": 4510,
      "Ġà¶½à¶ļà·Ķà¶«à·Ķ": 4511,
      "Ġà¶Ĭà·ħà¶Ł": 4512,
      "à¶ļà·ľà·Ħà·Ļ": 4513,
      "Ġà·ĥà·ĵà¶¸à·ıà·Ģ": 4514,
      "Ġà·Ĩà·ľ": 4515,
      "à¶½à·Ĳà¶ļà·Ĭ": 4516,
      "Ġà¶¸à¶§à·Ĭà¶§": 4517,
      "à¶¸à·ıà¶»à·Ķ": 4518,
      "Ġà·Ģà·ļà¶ľà¶ºà·Ļà¶±à·Ĭ": 4519,
      "Ġà¶ĭà¶¹à¶½à·ı": 4520,
      "Ġà¶ļà·Ļà·ħ": 4521,
      "Ġà¶ľà·ĥà·Ĭ": 4522,
      "Ġà·Ħà·Ĵà¶Ńà·Ļà¶±": 4523,
      "Ġà·ĥà¶Ĥà¶ļà·ĵ": 4524,
      "Ġà¶Ńà·Ķà¶±à·Ĭà¶¯": 4525,
      "Ġà·ĥà¶§à·Ħà¶±à·Ĭ": 4526,
      "Ġà¶ľà·Ļà·Ģà¶½à·Ĭ": 4527,
      "Ġà¶½à·Ĳà¶¶à·Ķà¶±à·ļ": 4528,
      "17": 4529,
      "à¶»à·Ķà·Ģà·Ļà¶ļà·Ĭ": 4530,
      "à¶¸à·Ļà¶Ńà¶±à·Ĵà¶±à·Ĭ": 4531,
      "à·Ħà¶½": 4532,
      "Ġà¶´à·Ĵà·Ģà·Ĵ": 4533,
      "à¶¶à·Ĵà¶¸": 4534,
      "Ġà¶ĭà¶±à·ıà¶¯": 4535,
      "à¶ļà·ıà¶§à·Ģà¶Ńà·Ĭ": 4536,
      "Ġà¶ĩà¶¯à¶ľà·Ļà¶±": 4537,
      "Ġà¶½à·Ĳà¶¢à·Ĭà¶¢": 4538,
      "à¶©à·ľà¶ļà·Ĭà¶§à¶»à·Ĭ": 4539,
      "Ġà¶īà¶»": 4540,
      "Ġà¶ºà¶§à¶Ńà·ļ": 4541,
      "à¶ħà¶Ń": 4542,
      "à¶ºà¶¯": 4543,
      "à¶¯à¶½à·ı": 4544,
      "Ġtransl": 4545,
      "Ġà¶¸à·ıà·ħà·Ķ": 4546,
      "à·Ħà¶§à¶¸": 4547,
      "à¶¯à·Ģà·ĥ": 4548,
      "Ġà¶¸à·ıà¶±à·ĥà·Ĵà¶ļ": 4549,
      "Ġà¶ħà¶ļà·Ķà¶»à·Ķ": 4550,
      "Ġà¶¶à·Ķà¶¯à·Ĭà¶°à·Ĵà¶¸à¶Ńà·Ĭ": 4551,
      "à¶¥à¶ºà·Ļà¶ļà·Ĭ": 4552,
      "Ġà¶©à·ļ": 4553,
      "Ġà·Ħà·Ĳà¶¯à·Ķà·Ģà·Ļ": 4554,
      "Ġà¶ĳà¶ļà¶ľ": 4555,
      "ert": 4556,
      "à¶ľà·Ĵà¶ºà·ı": 4557,
      "Ġà¶ĭà¶¯à·ı": 4558,
      "Ġà¶½à¶ļà·Ĭà·Ĥ": 4559,
      "à¶±à·Ģà¶Ńà·Ĭ": 4560,
      "à¶ľà¶±à·Ĭà·Ģà¶±à·Ĭà¶±": 4561,
      "Ġà¶¶à·ļà¶»à·ı": 4562,
      "Ġà¶¯à·ļà¶ļà¶§": 4563,
      "Ġà¶īà·Ģà·ĥ": 4564,
      "Ġà¶īà¶Ĥà¶ľà·Ĭ": 4565,
      "ea": 4566,
      "à¶±à·Ĳà¶ľà·Ĵà¶§à·Ĵà¶±à·Ĭà¶±": 4567,
      "à·Ĵà¶ļà·ı": 4568,
      "à¶ĳà¶łà·Ĭà¶łà¶»à¶ºà·Ĵ": 4569,
      "à¶ħà·Ģà·Ķ": 4570,
      "Ġà¶½à·ľà¶ļà·Ķà¶¸": 4571,
      "ack": 4572,
      "Ġà¶ļà¶§à·Ĭà¶§": 4573,
      "Ġà·ĥà¶¸à·Ĭà¶¶à¶±à·Ĭà¶°à¶ºà¶ļà·Ĭ": 4574,
      "Ġà¶ħà·Ģà·Ĵ": 4575,
      "à¶½à·Ķà·Ģà¶ļà·Ĭ": 4576,
      "Ġr": 4577,
      "à¶Ńà·Ļ": 4578,
      "à·Ĵà¶ºà·Ļà¶±à·Ĭ": 4579,
      "Ġà·Ħà·Ĵà¶±à·Ĭà¶¯": 4580,
      "à·Ļà¶ļà·ı": 4581,
      "Ġà¶ºà·ıà·ħà·Ķà·Ģà·Ļà¶ļà·Ĭ": 4582,
      "à¶Ķà¶ºà·ıà¶½à¶ľà·ļ": 4583,
      "Ġà·ĥà·Ĵà¶Ńà·Ķà·Ģ": 4584,
      "Ġà¶īà·ĥà·Ĭà·ĥà¶»à·Ħà·ı": 4585,
      "à·ĥà·Ķà¶»": 4586,
      "Ġà¶Ńà¶¸": 4587,
      "à¶ľà¶¸à¶±à¶º": 4588,
      "Ġà¶ħà¶¯à·Ĭ": 4589,
      "Ġà¶Ńà¶»à·Ķ": 4590,
      "Ġà¶Ńà¶»à·Ĭà¶¢à¶±à¶º": 4591,
      "à¶¶à·ĸ": 4592,
      "à¶ļà·ľà·Ħà¶¯à·Ļ": 4593,
      "Ġà¶ľà·ļà¶¸à·Ĭ": 4594,
      "Ġà¶¯à¶¸à¶±à·Ĭà¶±": 4595,
      "Ġà·Ģà·Ļà¶ºà¶±à·Ĭ": 4596,
      "Ġà·ĥà·Ĳà¶½à·Ĳà·ĥà·Ĭà¶¸à¶ļà·Ĭ": 4597,
      "Ġà¶ļà·Ģà¶¯à·Ĭà¶¯": 4598,
      "Ġà·Ģà·Ĵà¶ºà¶¯à¶¸à·Ĭ": 4599,
      "Ġà¶Ńà¶»à¶ľ": 4600,
      "à¶½à·ļà¶±à·Ĭ": 4601,
      "à¶±à¶Ĥ": 4602,
      "Ġà·Ģà·Ĳà¶»à¶¯": 4603,
      "à¶¢à·Ŀà¶±à·Ĭ": 4604,
      "Ġà¶ħà¶ľà·Ķ": 4605,
      "Ġà¶´à¶Ńà·Ĭà·Ģ": 4606,
      "à¶ļà¶»à·ı": 4607,
      "Ġà¶¸à·Ĳà¶»à·Ļà¶±": 4608,
      "Ġà·Ħà·Ĳà¶Ĥà¶ľà·Ĵ": 4609,
      "Ġà¶¶à·Ĳà¶½à·Ĭà¶½à·Ĵ": 4610,
      "à¶ļà·Ķà¶½à·Ĭ": 4611,
      "ĠCh": 4612,
      "à¶ĳà¶±à·Ģà·ı": 4613,
      "Ġà·Ģà·ļà¶ľà·Ģà¶Ńà·Ĭ": 4614,
      "Ġà¶´à·ĥà·Ĭ": 4615,
      "Ġà¶¢à·Ķ": 4616,
      "Ġinfo": 4617,
      "à¶ľà¶Ńà·Ĭà¶Ńà·ľà¶Ńà·Ĭ": 4618,
      "à·Ģà·Ĵà¶±à·ıà¶©à·Ĵ": 4619,
      "Ġà¶ĳà¶ļà·Ĭà¶ļà¶¯": 4620,
      "âĢįà¶ºà·ıà·Ģà¶ļà·Ĭ": 4621,
      "Ġà¶Ĵà¶ļà·ı": 4622,
      "Ġà¶ĳà·ħà·Ĵà¶ºà·ļ": 4623,
      "à¶´à·Ĳà¶Ńà·Ĭà¶Ń": 4624,
      "Ġà·Ļà¶ļà·ı": 4625,
      "Ġà¶Ķà¶§à·Ĭà¶§à·Ķ": 4626,
      "à¶ļà¶ºà·ļ": 4627,
      "à·Ģà·Ĵà·ģà·ļà·Ĥ": 4628,
      "à¶¸à¶ľà·Ļà¶±à·Ĭ": 4629,
      "Ġà·Ħà·Ĵà¶¸": 4630,
      "Ġà·Ģà·ĵà¶»à¶ºà·Ļà¶ļà·Ĭ": 4631,
      "Ġà¶Ńà¶¸à·Ķà·ĥà·Ļà¶§": 4632,
      "Ġà¶§à·Ĵà¶ļà¶§à·Ĭ": 4633,
      "-à·Ħà¶»à·Ĵ": 4634,
      "Ġà¶ļà·ĳà¶¸à¶§": 4635,
      "Ġà·ĥà¶¸à·ĵ": 4636,
      "Ġà¶´à·ľà·ħ": 4637,
      "âĢįà¶ºà¶ļà·Ĭà·Ĥ": 4638,
      "Ġà¶±à·Ĵà¶½à¶°à·ı": 4639,
      "Ġà¶±à·ıà·Ģ": 4640,
      "à¶´à¶±": 4641,
      "à·Ļà¶ļà·Ĭà¶§à¶»à·Ĭ": 4642,
      "Ġà¶ħà·Ģà¶½": 4643,
      "à¶»à¶ºà·ļ": 4644,
      "Ġà¶±à·ľà·Ģà¶±": 4645,
      "Ġà¶¸à·Ķà¶½": 4646,
      "à¶¯à¶±à·ı": 4647,
      "Ġà¶»à·Ĳà¶¢à·Ĵ": 4648,
      "Ġà¶Ĩà¶»à·ıà¶°": 4649,
      "Ġà¶¯à·Ļà¶¸à·Ģà·Ĭ": 4650,
      "Ġà¶»à¶Ł": 4651,
      "Ġà¶¯à·Ķà¶±à·Ĭà¶±à·ľà¶Ńà·Ĭ": 4652,
      "à¶½à·Ģà¶±à·Ĭà¶±": 4653,
      "Ġà¶Ĭà¶ºà·Ļ": 4654,
      "Ġà¶¶à·Ĵà¶¸à¶§": 4655,
      "Ġà¶īà·Ħà¶½": 4656,
      "Ġà¶¯à¶Ńà·Ĭ": 4657,
      "à¶Ńà·Ĵà·ĥà·Ĭà·ĥà·Ļà¶¸": 4658,
      "âĢįà¶»à·Ģà·ĺ": 4659,
      "à¶Ĵà¶ļà·ļ": 4660,
      "Ġhe": 4661,
      "Ġà·Ģà·Ĳà¶§à·Ļà¶±à·Ĭà¶±": 4662,
      "à¶¸à¶Ń": 4663,
      "à¶¯à·ıà¶±": 4664,
      "%s": 4665,
      "à¶Ĵà¶ļà¶±à¶¸à·Ĭ": 4666,
      "Ġà¶ļà·Ĵà¶±à·Ĭ": 4667,
      "à·Ģà·Ĵà¶ļà·Ĭ": 4668,
      "Ġà¶ļà·ľà¶±à·Ĭà¶©": 4669,
      "à·ĥà·Ĭà¶§à·ĵ": 4670,
      "à·Ħà·ıà¶»à·Ĭà¶Ń": 4671,
      "à¶ľà¶¸à¶±à·Ĭ": 4672,
      "Ġà¶ĩà¶Ńà·Ķà·ħà¶§": 4673,
      "Ġà·Ħà¶³à·Ķà¶±à·ı": 4674,
      "Ġà¶ļà·ľà¶½": 4675,
      "à¶ľà·ľà¶±à·Ķ": 4676,
      "Ġà¶Ĩà¶»à¶Ĥà¶łà·Ĵà¶ºà¶ļà·Ĭ": 4677,
      "à¶½à·Ĭà¶¯à·ı": 4678,
      "Ġà¶¸à·Ķà¶±": 4679,
      "à¶ĳà¶ļà¶¸": 4680,
      "âĢįà¶Ń": 4681,
      "Ġà¶±à¶§à¶±à·Ĭà¶±": 4682,
      "Ġà¶´à·Ĵà¶»à·Ĵà¶¸à·Ĵ": 4683,
      "Ġà¶ķà¶±à·Ļà¶¸": 4684,
      "Ġà¶©à·Ŀ": 4685,
      "Ġà¶´à·Ķà·Ģ": 4686,
      "à¶¸à·Ĭà¶´à·Ĭ": 4687,
      "Ġà¶ļà·Ĵà¶§à·Ĭ": 4688,
      "Ġà¶»à¶ºà·Ĵ": 4689,
      "à¶»à·ĳ": 4690,
      "Ġà¶¸à·ıà¶ľà·ļ": 4691,
      "à¶¥à·ıà·Ģ": 4692,
      "Ġà¶Ńà·Ĵà¶ºà¶±à·ļà¶±à·Ļ": 4693,
      "Ġà·Ģà·Ħà¶±à·Ģà·ı": 4694,
      "Ġor": 4695,
      "Ġà¶±à·Ĳà¶Ńà·Ĭà¶Ńà¶±à·Ĭ": 4696,
      "Ġare": 4697,
      "à¶ĭà¶¶à¶§": 4698,
      "Ġà¶´à¶ļà·Ĭà·Ĥ": 4699,
      "Ġà¶´à·Ķà¶Ńà·ıà·Ģ": 4700,
      "à·Ģà·Ļà¶¸": 4701,
      "Ġà¶Ķà¶ļà·Ĭà¶ļà·ľ": 4702,
      "Ġà¶ħà¶¸à·ıà¶»": 4703,
      "Ġà¶ħà¶´à·Ħà·ĥà·Ķ": 4704,
      "...\"čĊ": 4705,
      "Ġà¶½à·Ĳà¶¶à·Ķà¶«à·ı": 4706,
      "âĢįà¶§à·Ķ": 4707,
      "Ġà¶ħà·Ħà¶½": 4708,
      "Ġà¶ľà·Ļà¶¯à¶»à·Ĵà¶±à·Ĭ": 4709,
      "Ġà¶¢à·ĵà·Ģ": 4710,
      "rit": 4711,
      "à¶´à·ľà¶½à·Ĵà·ĥà·Ĭ": 4712,
      "à·Ŀà¶¸à·ĥà·Ĭ": 4713,
      "Ġà¶¸à¶«à·Ĭà¶©": 4714,
      "Ġà¶¯à·ıà¶¸à·Ķ": 4715,
      "Ġà¶¯à·Ģà¶½à·Ĭ": 4716,
      "Ġà¶ħà·ĥà¶±à·ĵà¶´": 4717,
      "Ġà¶¯à¶©à¶ºà¶¸à·Ĭ": 4718,
      "Ġà¶ļà·Ĳà¶»": 4719,
      "à·Ģà·ıà¶ľà·Ļà¶±": 4720,
      "Ġà¶¶à¶½à·Ģà¶Ńà·Ĭ": 4721,
      "à¶¸à¶ľà·Ŀ": 4722,
      "Ġà¶ļà·Ĵà·Ģà·Ķà·Ģà·Ļ": 4723,
      "Ġà·Ĩà·Ĵà¶½à·Ĭ": 4724,
      "Ġà¶¯à·Ĵà¶±à¶±à·Ĭà¶±": 4725,
      "Ġà·Ħà·Ļà¶½à·Ĵ": 4726,
      "à¶¸à·Ĵà·ĥà·Ĭà¶§à¶»à·Ĭ": 4727,
      "Ġà¶ºà¶§à¶Ńà·Ĭ": 4728,
      "Ġà¶ĩà¶½": 4729,
      "à¶¸à·ľà¶ļà·Ķà¶Ńà·Ĭ": 4730,
      "à¶Ńà·Ĭà·Ģà·Ĳ": 4731,
      "Ġà·Ģà·Ļà¶±à·Ĭà¶±à¶Ńà·Ĭ": 4732,
      "Ġà¶¸à¶±à·Ķà·Ĥà·Ĭ": 4733,
      "Ġà·Ħà·Ĵà¶±à·ıà·Ģ": 4734,
      "Ġà¶´à·ıà¶»à·Ļà¶±à·Ĭ": 4735,
      "Ġà¶ħà·Ħà¶±à·Ĭà¶±à·Ļ": 4736,
      "à¶¸à·ıà·ĥ": 4737,
      "à¶ļà¶±": 4738,
      "Ġà·ĥà¶Ńà·Ķà¶»": 4739,
      "à·Ģà·Ĵà¶¯à·Ĭ": 4740,
      "Ġà¶ħà¶ºà·Ĵà¶ºà·ļ": 4741,
      "Ġà¶ħà¶±à·ıà¶ľà¶Ń": 4742,
      "à¶¸à¶ľ": 4743,
      "à¶ļà·Ĭà·Ĥà·ļà¶´": 4744,
      "Ġà·ĥà¶¸à·Ĭà¶¶à¶±à·Ĭà¶°à¶ºà·Ļà¶±à·Ĭ": 4745,
      "à¶ļà¶½à·ļ": 4746,
      "Ġà¶ļà·ļà·ĥà·Ĭ": 4747,
      "eg": 4748,
      "Ġà·Ħà¶»à·Ĵà¶ľ": 4749,
      "Ġà¶¸à¶½à·Ĭà¶½à·Ĵ": 4750,
      "à¶¸à·Ļà¶łà·Ĭà¶łà¶»": 4751,
      "Ġà¶´à·ĸà¶¢": 4752,
      "Ġà·ĥà¶¸à·ıà¶ľà¶¸": 4753,
      "à¶¸à·ľà¶±à·ı": 4754,
      "à¶ºà¶¸": 4755,
      "Ġà¶ĩà¶»à·Ļà¶±à·Ĭà¶±": 4756,
      "à·ģà¶ļà·Ĭ": 4757,
      "à·ĥà·Ĳà¶±à·Ĭ": 4758,
      "Ġà¶ĩà·Ħà·Ķà¶±à·ı": 4759,
      "Ġà¶Ńà·Ĵà¶ºà¶±à·Ĭà¶±à·ļ": 4760,
      "Ġà·Ħà¶§": 4761,
      "à¶¸à·ıà¶¢": 4762,
      "à¶´à·Ĵà¶±à·Ĭ": 4763,
      "Ġà¶´à¶½à¶ºà¶±à·Ĭ": 4764,
      "Ġà¶ļà·Ŀà¶łà·Ĭà¶ł": 4765,
      "Ġà¶´à·Ģà·Ķà¶½à¶ļà·Ĭ": 4766,
      "Ġà¶»à·Ŀà¶ľ": 4767,
      "à·Ħà·Ĭà·Ħà·Ĭ": 4768,
      "Ġà¶¯à·Ĳà¶ļà¶´à·Ķ": 4769,
      "à¶¢à·Ĵà¶ļà·Ĭ": 4770,
      "âĢįà¶»à·Ĳà¶±à·Ĭ": 4771,
      "Ġà¶Ńà·ļà¶»à·Ļà¶±à·Ģ": 4772,
      "à¶īà¶¯à·Ĵ": 4773,
      "Ġ....čĊ": 4774,
      "Ġà¶ľà·Ĵà¶«à·Ķ": 4775,
      "Ġà¶Ķà¶±à·ļ": 4776,
      "âĢįà¶»à¶°à·ıà¶±à·Ĵà¶ºà·ı": 4777,
      "Ġà¶¶à·Ļà¶±à·Ĭ": 4778,
      "ff": 4779,
      "Ġà¶ħà¶±à·Ĭà¶Ńà·Ĵà¶¸à·ļ": 4780,
      "Ġà¶ħà·ĥà¶¸à¶Ńà·Ĭ": 4781,
      "à·Ģà¶±à·Ĭà¶±à·Ļ": 4782,
      "à¶¯à·Ķà¶±à·ļ": 4783,
      "\"à¶¸à¶¸": 4784,
      "Ġà¶ĩà¶»à¶½à·ı": 4785,
      "Ġà¶īà·Ħà·ħ": 4786,
      "Ġà¶±à·Ĳà¶Ńà·Ĵà·Ģà·Ļà¶½à·ı": 4787,
      "à¶¯à·Ĳà¶±à¶§": 4788,
      "à¶¢à·ĸ": 4789,
      "Ġà·Ģà·ĵà¶¸à¶§": 4790,
      "Ġà¶ĩà·Ħà·Ķà·Ģà·ļ": 4791,
      "Ġà¶¯à·Ļà¶ļà¶¸": 4792,
      "Ġà¶īà¶»à·Ĵ": 4793,
      "Ġà¶ºà·ľà¶¯": 4794,
      "Ġà¶ľà·Ĳà¶±à¶¸": 4795,
      "Ġà¶»à·Ĳà·ĥà·Ĭ": 4796,
      "Ġà·Ħà·Ĳà¶¸à¶Ńà·Ĳà¶±à¶¸": 4797,
      "Ġà¶´à·Ĭà¶½à·Ŀà¶±à·Ĭ": 4798,
      "à¶»à·Ħà·ĥà·Ĭ": 4799,
      "ian": 4800,
      "Ġà¶Ńà·Ĳà¶±à¶¸": 4801,
      "Ġà·Ħà·ľà¶ºà¶±": 4802,
      "Ġ)čĊ": 4803,
      "Ġà¶ļà¶»à·ıà¶¯": 4804,
      "Ġà·ĥà·Ķà·Ģà¶³": 4805,
      "Ġà·ĥà·Ĵà¶ºà·ħà·Ķà¶¸": 4806,
      "Ġà·Ģà·Ĵà·Ĥ": 4807,
      "Ġà·ĥà·Ķà¶»à¶ļà·Ĵà¶±à·Ĭà¶±": 4808,
      "Ġà¶¸à·ıà¶ºà·Ĵ": 4809,
      "Ġà·Ģà·Ĵà·Ģà·ļà¶ļ": 4810,
      "Ġà¶¶à·Ĳà¶»à·Ĵà·Ģà·Ķà¶±à·ı": 4811,
      "Ġà¶īà¶ļà·Ĭà¶¸à¶±à·Ĵà¶±à·Ĭà¶¸": 4812,
      "à¶¯à·Ļà¶±à·Ģà·ı": 4813,
      "Ġà¶ĭà¶ľà·ļ": 4814,
      "à¶¸à·ļà¶ļà·Ļà¶±à·Ĭ": 4815,
      "à¶¸à¶ºà·Ĵà¶ļà·Ĭ": 4816,
      "à¶ĩà¶»": 4817,
      "à·Ģà·Ļà¶½": 4818,
      "Ġà¶ħà¶±à·Ĵà·Ģà·ıà¶»à·Ĭà¶ºà·Ļà¶±à·Ĭà¶¸": 4819,
      "Ġà¶ĭà¶´à·ĥà·Ĵà¶»à·Ĳà·ĥà·Ĵ": 4820,
      "Ġà¶½à·Ĵà¶ºà¶±à·Ĭà¶±": 4821,
      "Ġà¶ķà¶±à¶¯à·Ļ": 4822,
      "Ġà·Ħà¶Ĥ": 4823,
      "Ġà·Ħà·Ĵà¶»à·Ģà·Ļà¶½à·ı": 4824,
      "Ġà¶·à·ıà·Ĥ": 4825,
      "à¶ļà·ľà¶ºà·Ĵ": 4826,
      "à¶ļà·Ĭà·Ĥà¶«à¶º": 4827,
      "Ġà¶»à·Ĳà¶ľà·Ļà¶±": 4828,
      "Ġà¶±à·ľà¶¸à·Ĳ": 4829,
      "Ġà¶Ńà·ļà¶»à·Ķà¶¸à¶ļà·Ĭ": 4830,
      "Ġà·ĥà·Ĳà¶»": 4831,
      "ai": 4832,
      "Ġà¶±à·Ĳà¶§à·Ķ": 4833,
      "]čĊ": 4834,
      "Ġà¶Ńà·Ħà¶±à¶¸à·Ĭ": 4835,
      "à¶¶à·Ħà·Ķ": 4836,
      "Ġà·Ħà·Ĵà¶Ńà·Ļà¶±à·Ĭà¶±à·ļ": 4837,
      "à¶¬à·Ķà·Ģ": 4838,
      "Ġà¶ľà¶±à·Ĵà¶±à·Ĭ": 4839,
      "à¶±à·Ļà¶¸à·Ĭ": 4840,
      "à·ĥà·Ļà¶±": 4841,
      "Ġà¶´à·ļà¶±à·Ģ": 4842,
      "Ġà·Ģà·Ĳà¶§à·Ķà¶±à·ı": 4843,
      "Ġà¶¸à¶§à·Ĭà¶§à¶¸": 4844,
      "ang": 4845,
      "tion": 4846,
      "Ġà¶Ńà·ĵà¶»à¶«à¶ºà¶ļà·Ĭ": 4847,
      "à¶¢à·ľ": 4848,
      "à¶ħà¶½à·Ķà¶Ńà·Ĭ": 4849,
      "Ġà·Ħà·Ĳà¶©": 4850,
      "Ġà¶¯à·Ļà·Ģà·Ļà¶±à·Ĵ": 4851,
      "Ġà·ĥà·Ĳà¶Ńà¶´à·Ķ": 4852,
      "Ġà¶ĩà·Ħà·Ļà¶±à·Ģà·ı": 4853,
      "Ġà¶±à·Ĵà¶ļà¶±à·Ĭà¶¸": 4854,
      "Ġà¶ļà·ıà¶¸à¶»à¶ºà¶§": 4855,
      "à¶łà¶»": 4856,
      "Ġà¶ºà·ıà¶±à·ı": 4857,
      "Ġà¶ħà·Ħà¶ľà·Ļà¶±": 4858,
      "Ġà¶¸à·Ļà¶±à·Ģà·Ĵà¶º": 4859,
      "Ġà¶¢à¶±à¶Ńà·ıà·Ģ": 4860,
      "Ġà·Ģà·Ĵà¶±à·ıà¶©à·Ĵà¶ºà¶ļà·Ĭ": 4861,
      "Ġà·Ģà¶łà¶±à¶º": 4862,
      "Ġà·Ħà·Ĳà¶»à·ĵ": 4863,
      "Ġà¶¶à·ľà·ĥà·Ĭ": 4864,
      "Ġà¶¸à¶ľà·Ļà¶Ńà·Ĭ": 4865,
      "Ġà¶ĩà¶³à·Ķà¶¸": 4866,
      "à¶¯à·Ĵà·ĥà·Ĵ": 4867,
      "à¶¶à¶§à·Ĭ": 4868,
      "Ġà¶ľà·ŀà¶»à·Ģà¶º": 4869,
      "à¶Ńà¶»à·Ĭ": 4870,
      "Ġà·ĥà·Ĳà¶ļà·ĥà·Ķà¶¸à·Ĭ": 4871,
      "Ġà¶½à·ľà¶ļà·Ĭà¶ļ": 4872,
      "Ġà·Ģà¶Ńà·ıà·Ģà¶§": 4873,
      "à¶ļà¶«à·Ĭ": 4874,
      "à¶Ĭà¶½à¶Ł": 4875,
      "Ġà¶±à·ıà¶¸à¶º": 4876,
      "à¶´à¶»à¶ºà¶ļà·Ĭ": 4877,
      "à¶§à·Ĵà¶ļà·Ĭ": 4878,
      "à¶ĩà¶Ńà·Ĭà¶Ńà¶§": 4879,
      "Ġà·Ģà·Ļà¶»": 4880,
      "à¶ĭà¶¹à¶½à·ı": 4881,
      "Ġà¶½à¶±à·Ĭà¶©": 4882,
      "Ġà¶ºà¶±à·Ĭà¶±à¶ºà·Ĵ": 4883,
      "Qu": 4884,
      "You": 4885,
      "Ġà¶½à·ļà¶Ľ": 4886,
      "à¶ļà·Ģà·Ĭà¶¯": 4887,
      "Ġà¶īà·ĥà·Ĭà·ĥà·Ļ": 4888,
      "Ġà·ĥà·Ĵà·Ħà·Ĵà¶±": 4889,
      "Ġà¶±à¶ºà·Ĵà¶§à·Ĭ": 4890,
      "Ġà¶Ńà·Ļà¶½à·Ĭ": 4891,
      "Ġà·Ģà·ľà¶§à·Ĭà·ĥà¶±à·Ĭ": 4892,
      "Ġà¶½à·Ĳà¶¶à·Ĵà¶½à·ı": 4893,
      "Ġà¶ļà·Ĵà·ĥà·Ĵà·Ģà¶ļà·Ĭ": 4894,
      "Ġà¶´à·ıà¶»à·ļ": 4895,
      "Ġà¶ĳà¶Ńà¶±à·Ĵà¶±à·Ĭ": 4896,
      "à¶»à·Ĵà¶ºà¶±à·Ĭ": 4897,
      "à¶ļà·ľà·Ħà·ļà¶¯": 4898,
      "à¶ºà¶¸à·Ĭ": 4899,
      "à¶ļà¶»à·Ķà¶«à·ıà¶ļà¶»à¶½": 4900,
      "Ġà¶¸à·Ħà·Ļ": 4901,
      "Ġà¶´à¶ºà·Ĵà¶±à·Ĭ": 4902,
      "à¶ļà·ĺà¶Ńà·Ĵ": 4903,
      "Ġà¶¯à·Ĵà¶ºà·Ķ": 4904,
      "Ġà¶ĭà¶±à·ıà¶¸": 4905,
      "Ġà¶ĩà¶¸à¶Ńà·Ķà¶¸à¶ļà·Ĭ": 4906,
      "à¶¶à·Ģ": 4907,
      "Ġà·ģà·Ķ": 4908,
      "à¶¯à·Ĳà¶ļà·Ĭà¶ļà¶¯": 4909,
      "Ġà¶¯à·Ķà¶»à¶ļà¶®à¶±": 4910,
      "à¶ħà¶ºà·Ĵà¶±à·Ĭ": 4911,
      "Ġà¶¸à·Ħà¶Ńà·Ĭà·Ģà¶»à·Ķà¶±à·Ĵ": 4912,
      "âĢįà¶»à·ĵà·ĥà·Ĵ": 4913,
      "Ġà¶ļà·Ļà¶±à·ıà·Ģ": 4914,
      "à¶īà·ĥà·Ĭà·ĥà¶»": 4915,
      "à¶Ńà·ıà·Ģà¶ºà¶ļà·Ĭ": 4916,
      "Ġà·Ħà·Ĵà¶±": 4917,
      "à¶ĳà¶ºà·Ĵ": 4918,
      "à¶¹à·Ĵ": 4919,
      "IA": 4920,
      "à¶§à·Ĵà¶ºà·Ŀ": 4921,
      "Ġà¶´à·Ļà¶½": 4922,
      "à¶ļà¶»à·Ķà·Ģ": 4923,
      "Ġà¶ħà¶¸à·Ķà¶Ńà·Ķà¶ºà·Ĵ": 4924,
      "Ġà·ĥà·Ħà·Ŀ": 4925,
      "à¶ľà·ĳ": 4926,
      "Ġà¶±à¶©à·Ķ": 4927,
      "Ġà·ĥà·Ĵà¶Ńà·Ĭ": 4928,
      "Ġà·Ħà¶»à·Ģà¶±à·Ĭà¶±": 4929,
      "Ġà·Ģà·Ĵà¶ļà·Ĵ": 4930,
      "Ġà¶¶à¶³à·Ĵà¶±à·Ĭà¶±": 4931,
      "Ġà¶¯à¶±à·Ļà·Ĭà¶±": 4932,
      "à¶»à·Ķà¶±à·ļ": 4933,
      "à¶½à·Ŀà¶ºà·Ĵ": 4934,
      "à·ĥà·Ĭà¶Ńà·Ĭ": 4935,
      "à¶Ńà·Ĭà¶Ńà¶ļà·Ĭ": 4936,
      "âĢįà¶Ńà·Ķ": 4937,
      "NA": 4938,
      "à·ĥà·Ĵà¶½à·Ĭ": 4939,
      "Ġà¶¯à·ļà·Ģ": 4940,
      "Ġà·Ģà·Ĵà¶ļà·ıà¶»à¶ºà¶ļà·Ĭ": 4941,
      "à·ĥà·Ĭà¶§à·Ĵà¶±à·Ĭ": 4942,
      "Ġà¶´à·ĵà¶©": 4943,
      "à¶»à¶ºà·Ļà¶ļà·Ĭ": 4944,
      "Ġà¶ħà·ģà·Ĭà·Ģ": 4945,
      "Ġà·Ģà¶ľà·ļà¶¸à¶ºà·Ĵ": 4946,
      "à¶½à·Ķà¶ºà·Ĵ": 4947,
      "à·ĥà·Ĵà¶Ĥ": 4948,
      "Ġà¶©à·Ĵà¶»": 4949,
      "à·Ģà¶»à·Ļà¶±à·Ĭ": 4950,
      "Ġà¶¸à¶±à·ĥ": 4951,
      "vi": 4952,
      "à¶¸à·Ĭà¶¶à¶»à·Ĭ": 4953,
      "Ġà¶Ńà·Ķà¶»à·Ķ": 4954,
      "à·ĥà·Ķà¶¸à¶ļà·Ĭ": 4955,
      "à¶īà·ĥà·Ĭà¶ļà·Ŀà¶´à·Ĭà¶´": 4956,
      "Ġà¶¸à·Ĳà¶»à·Ļà¶ºà·Ĵ": 4957,
      "à¶§à·Ĭà¶±à·Ĵ": 4958,
      "-à¶±à·ĳ": 4959,
      "Ġà¶ļà·ıà¶»à¶ºà·ı": 4960,
      "à·ĥà·Ĵà¶ºà¶ļà·Ĭ": 4961,
      "à¶ľà¶±à·Ĭà·Ģ": 4962,
      "Ġà¶ļà·ľà·ħ": 4963,
      "Ġà¶¶à·ıà¶°à·ı": 4964,
      "à¶¯à¶±à·Ĭà¶±à·Ģ": 4965,
      "Ġà·Ħà·Ģà·Ķà¶½à·Ĭ": 4966,
      "Ġà¶Ńà·Ĵà¶ºà¶±à·Ļ": 4967,
      "Ġà¶¯à·Ļà¶±à·Ĭà¶±à¶§": 4968,
      "à¶´à·Ĵà¶ºà·ı": 4969,
      "Ġà·ĥà·Ĭà¶´": 4970,
      "Ġà¶±à·Ĵà·Ĥà·Ĭ": 4971,
      "à·ĥà·Ļà¶ļà·Ĭ": 4972,
      "Ġà·Ħà¶Ńà¶»à¶ļà·Ĭ": 4973,
      "out": 4974,
      "Ġà¶¯à·Ĳà¶±à·Ļà¶±à·Ĭà¶±à·Ļ": 4975,
      "à¶ļà·ıà¶½à·Ĵà¶ļ": 4976,
      "Ġà¶¸à¶»à¶´à·Ķ": 4977,
      "Ġà¶Ĩà¶»à·Ĭ": 4978,
      "Ġà¶´à·Ħà¶Ńà·Ĭ": 4979,
      "à¶¢à¶±à·Ĭà¶§à·Ĭ": 4980,
      "Ġà¶ħà¶¸à¶Ńà¶»": 4981,
      "Ġà¶½à·Ĵà¶ºà¶½à·ı": 4982,
      "Ġà¶½à·Ĳà¶¶à·Ļà¶±à·Ĭà¶±": 4983,
      "Ġà·Ħà·ıà¶¯à¶ºà·ı": 4984,
      "Ġà·Ģà·Ĵà¶¯à·Ĵà·Ħà·ļ": 4985,
      "ell": 4986,
      "à¶ļà·ĳà¶¸": 4987,
      "Ġà·ĥà¶±à·Ĭà¶°": 4988,
      "Ġà¶ħà¶¬": 4989,
      "Ġà¶±à·ľà·Ģà·Ļà¶ºà·Ĵ": 4990,
      "Ġà·Ģà¶©à·ıà¶Ńà·Ĭ": 4991,
      "à·Ģà·Ļà¶½à·ıà·Ģà·Ļà¶¸": 4992,
      "Ġà¶¸à¶§à¶ºà·Ĵ": 4993,
      "Ġà¶ļà¶¯": 4994,
      "Ġà¶ļà·Ĵà¶ºà¶´à¶±à·Ĭ": 4995,
      "à¶±à·Ĭà¶¯à·Ķà·Ģà¶ļà·Ĭ": 4996,
      "Ġà¶ľà¶¸": 4997,
      "Ġà¶ĳà¶»à·Ļà·Ħà·Ĵ": 4998,
      "à¶ļà·ĵà¶¸à¶ļà·Ĭ": 4999,
      "Ġà¶ļà·Ĵà¶ºà·Ļ": 5000,
      "Ġà·Ģà¶Ńà·ıà·Ģà·ļ": 5001,
      "à¶»à·ıà¶¢": 5002,
      "Ġà¶ħà¶±à·Ļà¶ļà·Ĭ": 5003,
      "Ġà¶ľà·Ķà·Ħ": 5004,
      "Ġà¶»à·ľà¶¶à·Ŀ": 5005,
      "Ġà·Ģà·Ļà¶¸à·Ķ": 5006,
      "Ġà·ĥà·Ĵà¶ºà·ħà·Ķ": 5007,
      "Ġà¶Ńà·ıà¶Ńà·Ĭà¶Ńà¶ľà·ļ": 5008,
      "âĢįà¶»à¶ºà·ı": 5009,
      "Ġà¶ļà·Ļà¶½à·Ĭà¶½à·ļ": 5010,
      "Ġà¶ļà·ĥà·ıà¶¯à·Ļ": 5011,
      "à·Ģà·ļà·Ģà·Ĵ": 5012,
      "Ġà¶¯à·Ķà¶»à¶§à¶Ńà·Ĭ": 5013,
      "Ġà¶¸à·ıà¶½à·Ĵ": 5014,
      ":%": 5015,
      "Ġà¶Ńà·ıà¶Ńà·Ĭà¶Ńà·Ģ": 5016,
      "Ġà¶´à¶»à·ĵà¶ļà·Ĭà·Ĥà¶ļ": 5017,
      "Ġà·ĥà·Ķà¶±à·Ĭà¶¯à¶»": 5018,
      "Ġà¶ĩà¶±": 5019,
      "Ġà¶ľà·Ħà¶ľà·Ļà¶±": 5020,
      "Ġà·Ģà¶ľà·Ŀà¶¸": 5021,
      "Ġà¶ħà¶¯à·ıà¶½": 5022,
      "Ġà¶ºà·ıà¶½": 5023,
      "\"?čĊ": 5024,
      "ap": 5025,
      "à·Ģà·Ľ": 5026,
      "Ġà·ĥà·Ĳà¶¸à·Ĵà¶ºà·ı": 5027,
      "à¶¸à·Ĳà¶ļà·Ĭ": 5028,
      "à¶¢à¶±à¶ºà¶ļà·Ĭ": 5029,
      "à¶½à¶ºà·Ļà¶±à·Ĭ": 5030,
      "Ġà¶´à·Ħà·ħ": 5031,
      "Ġà¶¶à·ļà¶»à·Ļà¶±à·Ĭà¶±": 5032,
      "à¶Ĭà·ħà¶Ł": 5033,
      "Ġà¶½à·Ķà·Ħà·Ķà¶¶": 5034,
      "Ġà·ĥà·Ĭà¶®à·ıà¶´à¶±à¶º": 5035,
      "Ġà¶¶à·Ŀà¶§à·Ĭà¶§à·Ķà·Ģ": 5036,
      "Ġà¶»à·ıà¶ļà·Ĭà·Ĥ": 5037,
      "à¶¸à¶ºà¶ļà·Ĭ": 5038,
      "à¶½à·ļà¶Ľ": 5039,
      "..\"čĊ": 5040,
      "Ġà¶¸à¶ºà·Ĵà¶½à·Ĭà·ĥà·Ĭ": 5041,
      "à¶¸à¶±à·Ĭà¶©à·Ĭ": 5042,
      "Ġà·Ģà·Ļà¶½à·ļà¶¸": 5043,
      "à·Ĩà·Ŀ": 5044,
      "Ġà¶ļà·Ķà¶©à·Ķ": 5045,
      "Ġà¶ĳà¶Ńà·Ĳà¶±": 5046,
      "Ġà¶§à·ļ": 5047,
      "ohn": 5048,
      "à·ĥà·Ĵà·ĥà·Ĭ": 5049,
      "à·Ķà¶ºà·Ĵ": 5050,
      "à¶ľà·Ĳà¶±à·ĵà¶¸à·ļ": 5051,
      "à¶¯à·Ĵà·Ģà·Ĵ": 5052,
      "Ġà¶§à·ľà¶¸à·Ĭ": 5053,
      "Ġà¶¯à·ıà¶±à·Ģ": 5054,
      "Ġà·Ħà¶¸à·Ķà·Ģà·Ļ": 5055,
      "à·ĥà·ĥà·Ĭ": 5056,
      "à¶ļà·ıà¶½à¶º": 5057,
      "Ġà¶īà¶¯à·Ĭà¶¯à·Ĵ": 5058,
      "Ġà·Ģà·Ĵà¶ļà·Ķ": 5059,
      "here": 5060,
      "à·Ħà¶±à·Ļà¶¸à·Ĭ": 5061,
      "Ġà¶ħà¶ºà·Ĵà¶ºà·Ŀ": 5062,
      "à·Ħà·Ħà·Ĭ": 5063,
      "à¶ļà·Ŀà¶½à·Ĭ": 5064,
      "à·ĥà·Ħà·Ŀà¶¯à¶»": 5065,
      "Ġà¶Ńà·Ŀà¶»à·ıà¶ľà¶±à·Ĭà¶±": 5066,
      "Ġà¶©à·Ĵà¶»à·Ļà¶ļà·Ĭà¶§": 5067,
      "ect": 5068,
      "Ġà¶ħà¶³à·Ķà¶»": 5069,
      "Ġà¶¸à¶»à·Ĭ": 5070,
      "Ġà·Ģà·Ĵà·ģà·Ĭà·Ģ": 5071,
      "à·Ĵà¶ļà·ıà¶»": 5072,
      "Ġà¶Ńà¶¶": 5073,
      "à·ĥà·Ĭà¶®à·ıà¶±à¶º": 5074,
      "Ġà¶¸à¶Ńà·Ķ": 5075,
      "à¶ļà¶§à¶¯": 5076,
      "à¶Ĭà¶ºà·ļ": 5077,
      "Ġà¶½à¶ļà·ļà·ĥà·Ĭ": 5078,
      "Ġà¶¸à¶±à·Ķà·ĥà·Ĭà·ĥà¶ºà·ı": 5079,
      "Ġà·Ħà¶½à·Ŀ": 5080,
      "Ġà·ĥà¶Ĥà·Ģà·Ĵ": 5081,
      "à¶±à·Ĭà¶ľà·Ĭ": 5082,
      "à·´": 5083,
      "Ġà·Ģà·Ĳà¶©à·ĥà¶§à·Ħà¶±": 5084,
      "Ġà·Ħà·Ĵà¶§à¶ľà·Ļà¶±": 5085,
      "Ġà¶ĭà¶«à·Ķà·ĥà·Ķà¶¸à·Ĭ": 5086,
      "âĢįà¶»à¶ºà·Ŀà¶¢à¶±": 5087,
      "Ġà¶¸à·Ĵà·ĥà·Ĭ": 5088,
      "Ġà¶¢à·Ļà¶±à·ĵ": 5089,
      "à·ĥà¶»à¶º": 5090,
      "Ġà·ĥà¶Ĥà·ĥà·Ķà¶±à·Ĭ": 5091,
      "Ġà¶¶à¶¶": 5092,
      "à·Ħà¶»à·Ĵà¶¸": 5093,
      "à¶ľà·Ĳà¶±à·Ĭ": 5094,
      "Ġà·Ħà¶¬": 5095,
      "âĢįà¶»à·ĳà¶±à·Ĭà¶ļà·Ĭ": 5096,
      "Ġà¶¶à·ľà¶»à·Ķà·Ģà¶ļà·Ĭ": 5097,
      "Ġà·ĥà·ħ": 5098,
      "à¶Ĩà¶ºà·Ļà¶Ńà·Ĭ": 5099,
      "Ġà¶ļà·ĸà¶´à¶»à·Ĭ": 5100,
      "Ġà¶ľà·Ħà¶±": 5101,
      "Ġà¶Ńà·Ĵà¶¶à·Ļà¶±": 5102,
      "à¶¸à·Ķà¶Ľ": 5103,
      "Ġà¶ħà¶´à·Ļà¶±à·Ĭ": 5104,
      "Ġà¶¯à¶ļà·Ĭà·Ĥà¶ºà·Ĵ": 5105,
      "Ġà¶ĭà¶±à·Ĭà¶±": 5106,
      "Ġà¶ļà·ľà·Ħà·Ļà·Ģà¶Ńà·Ĭ": 5107,
      "Ġà¶´à·Ĵà¶ºà·ıà¶¹": 5108,
      "Ġà¶Ķà·Ģà·Ķà¶±à·Ĭà¶ľà·Ļ": 5109,
      "Ġà¶±à·Ĳà¶Ńà¶Ńà·Ĭ": 5110,
      "Ġà¶ĩà¶½à·Ļà¶ļà·Ĭà·ĥà·Ĭ": 5111,
      "Ġà·ĥà¶Ńà·Ĵà¶ºà·ļ": 5112,
      "Ġà¶īà¶½à·Ĭà¶½à·ı": 5113,
      "Ġà¶¶à·Ĵà·ĥà·Ĭ": 5114,
      "Ġà¶ļà¶»à¶ľà¶±à·Ĭà¶±à·Ģà·ı": 5115,
      "à·ħà·Ķà·Ģà¶§": 5116,
      "Ġà·ģà·Ŀ": 5117,
      "Ġà¶ļà·ĵà·Ģà·ļ": 5118,
      "Ġà·Ģà·Ĵà¶½à·Ĭ": 5119,
      "à¶½à·Ĭà¶§à¶»à·Ĭ": 5120,
      "Ġà¶¸à·Ĵà¶±à·ĵ": 5121,
      "à¶Ńà·Ĭà·Ģà¶ºà¶ļà·Ĭ": 5122,
      "Ġà·ĥà¶¯à·ı": 5123,
      "à¶½à¶±à·Ĭà¶±": 5124,
      "à¶½à¶ľà·ļ": 5125,
      "Ġà¶ľà¶³": 5126,
      "Ġà·Ģà·Ļà¶¯à·Ĭà¶¯à·Ĵ": 5127,
      "à¶¸à·Ĭà¶¶à·ı": 5128,
      "Ġà¶ħà¶Ńà·Ĭà¶¯à·Ĳ": 5129,
      "Ġà¶´à¶«à·Ĵà·Ģà·Ĵà¶©": 5130,
      "Ġà¶´à¶Ń": 5131,
      "âĢįà¶»à¶Ńà·Ĵà¶ļà·Ĭà·Ĥà·ļà¶´": 5132,
      "Ġà·Ħà·ĵà¶±à¶ºà¶ļà·Ĭ": 5133,
      "à·ĥà¶±": 5134,
      "à¶¯à·Ļà¶±à·ı": 5135,
      "Ġà¶¸à¶½à·Ĭà¶½": 5136,
      "Ġà¶»à¶ľ": 5137,
      "Ġà¶´à·Ļà¶±à·ĵ": 5138,
      "à·Ħà¶½à·Ĭ": 5139,
      "Ġà¶´à¶»à¶ļà·Ĭà¶ļà·Ķà¶ºà·Ĵ": 5140,
      "Ġà¶¸à¶Ĥà¶ļà·ľà¶½à·Ĭà¶½": 5141,
      "à¶¯à¶ļà·Ĭ": 5142,
      "Ġà¶Ńà·Ĵà¶ºà·ļà·Ģà·Ĵ": 5143,
      "Ġà¶ļà·Ķà·ħà·Ķ": 5144,
      "Ġà¶ļà·Ģà¶¯à·ıà·Ģà¶Ńà·Ĭà¶¸": 5145,
      "à¶ļà¶§à·Ĭà¶§à·Ĵà¶º": 5146,
      "Ġà·ĥà·Ĭà·Ģà¶ºà¶Ĥ": 5147,
      "Ġà¶±à·Ĵà¶ºà¶¸à·Ļà¶§": 5148,
      "Ġà¶¶à·ıà¶»à·Ĭ": 5149,
      "Ġà¶ļà·ľà¶½à·Ĭà¶½à·ľ": 5150,
      "à¶Ĥà¶¢à·Ĵ": 5151,
      "à¶°à¶±à¶º": 5152,
      "Ġthis": 5153,
      "Ġà·Ģà·ħ": 5154,
      "se": 5155,
      "Ġà¶ĳà¶±à¶ļà¶±à·Ĭ": 5156,
      "Ġà¶¸à·Ķà¶¯à·Ĭ": 5157,
      "à·Ĵà¶ºà·ı": 5158,
      "Ġà·Ħà·Ħà·Ĭ": 5159,
      "à¶¶à·Ĵà¶º": 5160,
      "Ġà¶¶à¶½à·Ĭà¶½à·ı": 5161,
      "Ġà·Ħà·Ķà¶»à·Ķ": 5162,
      "à¶ľà·Ķà·Ģà¶±à·Ĭ": 5163,
      "man": 5164,
      "âĢįà¶»à·ıà·Ħ": 5165,
      "Ġà¶¯à·Ĳà¶Ĥ": 5166,
      "à¶ļà·Ĵà¶§à·Ĭ": 5167,
      "***": 5168,
      "à¶¸à·Ļà·Ħà·Ĵ": 5169,
      "Ġà·Ħà¶¯à·Ģ": 5170,
      "à·Ģà·Ĵà¶łà·Ĭ": 5171,
      "Ġà¶»à·ĵ": 5172,
      "Ġà¶±à·Ĳà¶Ńà·Ĵà·Ģà·Ķà¶±à·ı": 5173,
      "Ġà·Ħà·Ĳà¶¸à¶¯à·ļ": 5174,
      "Ġà·Ħà·ıà¶±à·Ĵ": 5175,
      "Ġà¶¶à·Ħà·Ĵà¶±à·Ĭà¶±": 5176,
      "Ġà¶ĳà¶©à·Ĭ": 5177,
      "à¶Ńà·Ķà·Ģà¶ļà·Ĭà¶ļ": 5178,
      "à¶´à·ľà¶½à·ĵ": 5179,
      "Ġà¶ĳà¶ļà¶´à·ıà¶»": 5180,
      "Ġà¶ļà¶«à·Ĭà¶©à·ıà¶ºà¶¸à·Ĭ": 5181,
      "Ġà¶ħà¶±à·Ĭà¶°": 5182,
      "à¶ļà·ıà¶§à¶¯": 5183,
      "Ġà¶ħà¶Ńà·ĳ": 5184,
      "Ġà¶ļà·ĳà¶½à·Ĭà¶½": 5185,
      "à¶ļà¶½à·Ĵà¶±à·Ĭ": 5186,
      "Ġà¶¯à·Ĳà¶¸à·Ĭà¶¸à·ļ": 5187,
      "ye": 5188,
      "Ġà¶ļà¶±à·Ĭà¶¯": 5189,
      "Ġà¶ħà·Ģà¶¯à·ıà¶±": 5190,
      "Ġà¶´à·Ħà·ħà¶§": 5191,
      "Ġà¶´à·Ĵà·ĥà·Ĭà·ĥà·Ķà¶¯": 5192,
      "Ġà·ĥà·ĵà¶ºà·ı": 5193,
      "à·Ħà¶¯": 5194,
      "à·Ļà¶ļà·Ĭà¶¯": 5195,
      "Ġà¶ļà¶½à·Ļ": 5196,
      "Ġà·Ħà·Ĳà¶Ĥà¶ľ": 5197,
      "âĢįà¶ºà¶¸": 5198,
      "Ġà¶¯à·Ĳà¶±à·Ĭà¶¸à¶¸": 5199,
      "Ġà·Ģà¶§à·Ĵà¶±à·Ģà·ı": 5200,
      "à¶¯à·ľà·ĥà·Ĭà¶Ńà¶»": 5201,
      "à¶±à·Ĵà·ĥà·ı": 5202,
      "à¶´à·Ĵà·ĥà·Ĭà·ĥà·Ķ": 5203,
      "Ġà¶ĭà¶¯à·Ĭ": 5204,
      "à¶»à·Ĭà¶½à·ľà¶ļà·Ĭ": 5205,
      "Ġà¶ļà·Ĳà¶¸à¶»à·ıà·Ģ": 5206,
      "Ġà¶¯à¶ļà·Ķà¶«à¶§": 5207,
      "à¶±à·Ĵà¶¯": 5208,
      "Ġà·ĥà·Ĵà¶§à·Ĵà¶º": 5209,
      "à¶¹à·Ķà¶»à·Ķ": 5210,
      "âĢįà·Ĥà·Ĵà¶Ń": 5211,
      "à¶¸à·Ĵà¶Ńà·Ĭ": 5212,
      "Ġà¶Ķà¶»à¶½à·Ŀ": 5213,
      "Ġà·Ģà·Ĳà¶©à·Ĵà¶ºà·Ļà¶±à·Ĭ": 5214,
      "60": 5215,
      "Ġà¶Ķà¶ºà·ıà¶¸": 5216,
      "Ġà¶ľà¶½à·Ģà¶±à·Ĭà¶±": 5217,
      "end": 5218,
      "à¶»à·Ķà·Ģà·Ĵà¶Ń": 5219,
      "Ġà¶»à·Ĵà¶¯à·Ĭà¶¯": 5220,
      "rance": 5221,
      "Ġà·Ģà·Ļà¶±à·ĥ": 5222,
      "à¶ľà·Ĳà¶±à·ĵà¶¸à¶ļà·Ĭ": 5223,
      "Ġà¶¸à·ľà¶½à·ļ": 5224,
      "Ġà¶´à·Ĵà¶§à·Ĵà¶±à·Ĭ": 5225,
      "Ġà¶ľà·Ĵà·Ħà·Ĵà¶Ĥ": 5226,
      "à¶ºà·Ĭ": 5227,
      "..\"": 5228,
      "Ġà¶ļà¶¸à·Ĵ": 5229,
      "à·ħà¶¸à¶ºà·Ĵ": 5230,
      "Ġà¶ļà¶»à¶±à·Ķ": 5231,
      "à¶½à·Ĵà¶½à·ı": 5232,
      "Ġà·ĥà·Ĵà¶±": 5233,
      "à·Ħà·Ĵà¶½à·ı": 5234,
      "à¶»à·ıà·Ģà¶ļà·Ĭ": 5235,
      "à·Ł": 5236,
      "Ġà¶ľà¶¸à¶±à·Ĭà¶¸": 5237,
      "à·Ļà¶Ń": 5238,
      "Ġà¶¢à·Ļà¶±": 5239,
      "Ġà¶¯à·Ĵà·Ģà·Ĭ": 5240,
      "Ġà¶±à·Ĵà¶¯à·Ĵ": 5241,
      ").čĊ": 5242,
      "ĠAl": 5243,
      "Ġà¶īà¶¸à·Ķ": 5244,
      "Ġà¶¯à·Ķà¶»à¶§": 5245,
      "à¶¸à¶»à·Ĭ": 5246,
      "à¶ľà·ıà·Ģ": 5247,
      "à¶ĩà¶±à·Ĭ": 5248,
      "à·Ģà·Ĵà¶§à¶¸": 5249,
      "Ġà¶Ķà·ħà·Ķà·Ģ": 5250,
      "Ġà¶Ĩà¶ļà·Ĭ": 5251,
      "Ġà¶»à¶Ńà·Ĭà¶Ńà¶»": 5252,
      "az": 5253,
      "âĢįà¶»à¶ºà·ļ": 5254,
      "Ġà¶¯à·Ĳà¶±à·Ļà¶±": 5255,
      "Ġà¶Ńà·Ĵà¶ºà·Ļà¶ºà·Ĵ": 5256,
      "à¶ļà¶ºà·ľ": 5257,
      "à·Ĩà·Ļ": 5258,
      "Ġà¶ľà·Ĵà¶ºà·ıà¶¯": 5259,
      "à¶»à·Ĭà¶Ńà¶¸à·ļà¶±à·Ĭ": 5260,
      "à·ĳà¶±à·Ĭà¶©à·Ĭ": 5261,
      "à¶ĳà¶½à·Ĭ": 5262,
      "Ġà¶ĩà¶½à·Ĭ": 5263,
      "à¶´à¶½à·Ĭà¶½à·ı": 5264,
      "Ġà¶¯à·Ĵà·Ģà·Ĵ": 5265,
      "Ġà¶´à¶»à·ĵ": 5266,
      "à¶Ńà·Ķà·Ģà¶ļà·Ĭ": 5267,
      "Ġà¶½à·Ĵà¶ºà·ı": 5268,
      "à¶§à·Ĵà¶±à·Ģà·ı": 5269,
      "Ġà¶±à¶ľà¶»à·Ļ": 5270,
      "Ġà·Ģà·Ĳà¶§à·Ļà¶±à·Ģà·ı": 5271,
      "Ġà¶´à·ıà¶»à·Ģà¶½à·Ĭ": 5272,
      "à¶ºà¶±à·Ĭà¶§": 5273,
      "Ġà¶©à·ĵ": 5274,
      "à¶ľà·Ķà¶«": 5275,
      "Ġà¶¯à·Ķà¶»à¶ļà¶®à¶±à¶º": 5276,
      "Ġà·Ħà·Ĵà¶Ńà·Ļà¶±à·Ĭà¶±à·Ļ": 5277,
      "à·Ĥà·Ĵà¶§à·Ĭ": 5278,
      "Ġà·Ħà¶»à·Ĵà¶±à·ļ": 5279,
      "Ġà·Ħà·Ĳà¶Ĥà¶ľà·Ĵà¶½à·ı": 5280,
      "âĢįà¶»à·Ĵà¶Ńà·ıà¶±à·Ĭ": 5281,
      "Ġà¶¯à·Ħà·ĥà·Ĭ": 5282,
      "Ġà¶ħà·ĥà¶»": 5283,
      "Ġà·ĥà·Ĵà¶´": 5284,
      "ies": 5285,
      "Ġà¶īà¶§à·Ķ": 5286,
      "Ġà¶łà·ĸ": 5287,
      "Ġà¶ºà·ıà·ħà·Ķà·Ģà·Ŀ": 5288,
      "Ġà¶½à·Ĳà¶¶à·Ķà¶«": 5289,
      "à¶ļà¶½à¶¶à¶½": 5290,
      "Ġà¶ľà·Ķà¶»à·Ķà·Ģ": 5291,
      "Ġà¶¸à·ĸà¶½": 5292,
      "Ġà¶ĭà¶´à¶¯à·Ļà·ĥà·Ĭ": 5293,
      "âĢįà¶»à¶´à¶§": 5294,
      "Ġà¶±à·Ĵà·Ģà·Ĭà¶ºà·Ŀ": 5295,
      "Ġà·Ħà·Ĵà¶Ńà·Ķà¶±à·ı": 5296,
      "Ġà·Ģà¶Ĥà¶łà·ı": 5297,
      "eb": 5298,
      "Ġà¶´à·Ķà¶Ńà·ıà¶§": 5299,
      "Ġà¶ļà·Ĳà¶Ń": 5300,
      "à¶ļà¶»à¶ľà·Ļà¶±": 5301,
      "à¶Ĭà¶½à¶ľ": 5302,
      "Ġà·Ģà¶»à·Ĭà¶«": 5303,
      "Ġà¶¢à·ıà¶Ńà·Ĵà¶ļ": 5304,
      "à¶¯à·Ķà¶¸à¶ļà·Ĭ": 5305,
      "à¶ºà¶ļà·Ĵà¶±à·Ĭ": 5306,
      "Ġà¶¸à·ħ": 5307,
      "Ġà¶ĩà¶Łà·Ĵà¶½à·Ĵ": 5308,
      "Ġcom": 5309,
      "Ġà¶¸à·Ĵà¶Ńà·Ķà¶»": 5310,
      "Ġà¶īà¶³à¶ľà·Ļà¶±": 5311,
      "Ġà¶ĩà¶Ńà·Ĭà¶Ńà¶¯": 5312,
      "Ġà·ĥà·Ħà·Ŀà¶¯à¶»à·Ĵà¶º": 5313,
      "à·Ĵà¶ºà·Ķà¶ľà·Ŀ": 5314,
      "Ġà·ĥà¶ļà·ĥà¶±à·Ĭà¶±": 5315,
      "Ġà·Ģà·Ĵà¶¯à·Ķà¶½à·Ĵ": 5316,
      "à·ļà·ģ": 5317,
      "Ġà¶´à¶§à·Ĭà¶§": 5318,
      "est": 5319,
      "Ġà¶Ķà·Ħà·ļà¶ľà·ļ": 5320,
      "Ġà·Ħà¶©": 5321,
      "Ġà¶¢à¶»à·Ĭ": 5322,
      "à¶Ķà¶ºà·ıà¶§à¶Ńà·Ĭ": 5323,
      "âĢįà¶»à¶¸à·ıà¶«à·Ģà¶Ńà·Ĭ": 5324,
      "Ġà·ĥà¶¯à·Ħà¶§à¶¸": 5325,
      "Ġà¶©à·Ĳ": 5326,
      "Ġà·ĥà·Ĳà¶Ńà¶´à·Ķà¶¸à·Ĭ": 5327,
      "Ġà¶½à·ľà¶ļà·Ĭ": 5328,
      "Ġà¶¯à¶ºà¶ļà·Ŀ": 5329,
      "Ġà¶¯à·ļà·ģà¶´à·ıà¶½": 5330,
      "à¶¯à·ĳ": 5331,
      "itle": 5332,
      "Ġà¶ħà¶ºà¶ľà·ļ": 5333,
      "Ġà¶¯à·Ľà·Ģà¶º": 5334,
      "Ġà¶ļà·Ĳà¶©à·Ķ": 5335,
      "ype": 5336,
      "Ġà¶ħà¶½à·Ĭà¶½à¶ľà¶Ńà·Ĭà¶Ńà·ı": 5337,
      "Ġà¶ºà¶±à¶ļà·ľà¶§": 5338,
      "Ġà¶´à·ľà¶½à·ĵà·ĥà·Ĵà¶º": 5339,
      "à¶¸à·ıà¶¢à·Ĵà¶ļ": 5340,
      "Ġà¶Ńà¶¸à¶±à·Ĭà¶ľà·Ļ": 5341,
      "Ġà·Ħà·Ģà·ĥ": 5342,
      "Ġà¶ºà·ļ": 5343,
      "à¶´à·Ĳà¶Ńà·Ķà¶¸à·Ĭ": 5344,
      "Ġà¶ļà·Ķà¶¸à¶ļà·Ĭà¶¯": 5345,
      "Ġà¶¯à·Ķà·Ģà·Ģ": 5346,
      "Ġà¶±à·ıà·Ģà·Ĵà¶ļ": 5347,
      "Ġà·Ħà·ľà¶½à·Ĭ": 5348,
      "Ġà¶¯à·Ĳà¶©à·Ĵ": 5349,
      "Ġà¶ļà·Ķà¶«à·ı": 5350,
      "âĢįà¶»à¶Ĥà·ģ": 5351,
      "Ġà¶Ĩà¶»à¶Ĥà¶łà·Ĵ": 5352,
      "Ġà¶ļà·Ĵà¶ºà¶½à·Ģà¶Ńà·Ĭ": 5353,
      "Ġà¶Ńà¶»à·Ħà·ı": 5354,
      "Ġà¶´à·ľà¶©à·Ĭà¶©": 5355,
      "à¶¸à¶ľà·Ķà¶½": 5356,
      "Ġà¶ĳà·ĥà·ļ": 5357,
      "Ġà¶¶à¶½à¶´à¶Ńà·Ĭ": 5358,
      "à·ĥà·Ķà¶¯à·Ķ": 5359,
      "Ġà¶Ĩà·Ģà¶§": 5360,
      "Ġà¶Ńà·Ĵà¶ºà¶½": 5361,
      "Ġà¶¸à·Ĳà¶»à·Ķà¶±à·ı": 5362,
      "Ġà·ĥà¶»à¶½": 5363,
      "ok": 5364,
      "à·Ħà·Ļà¶±à¶Ĥ": 5365,
      "Ġà¶¸à¶ľà·Ķà¶½": 5366,
      "Ġà¶´à¶¸à¶±": 5367,
      "Ġà¶ļà·Ĭà¶½à·Ļ": 5368,
      "à·Ħà¶±à¶ļà·Ĭ": 5369,
      "Ġà¶±à·Ĵà¶¯à·Ħà·ĥ": 5370,
      "à·Ħà·Ĳà¶¸à¶¯à·Ļà¶ºà¶ļà·Ĭà¶¸": 5371,
      "Ġà¶ļà·Ĵà·Ģà·ļ": 5372,
      "Ġà¶±à·Ĵà·Ģà·ıà·ĥ": 5373,
      "Ġà¶´à·ľà¶½à·ĵà·ĥà·Ĵà¶ºà¶§": 5374,
      "Ġà¶ļà·Ĳà¶±à·Ĭ": 5375,
      "à·ģà¶¶à·Ĭà¶¯": 5376,
      "Ġà¶ļà·Ĳà¶½à·ļ": 5377,
      "Ġà¶¸à·Ļà¶±à·Ĭ": 5378,
      "Ġà¶ľà¶Ńà·Ĭ": 5379,
      "à¶´à·Ĵà¶»à·Ĵà¶Ńà·ı": 5380,
      "Ġà·Ģà·Ļà¶±à·Ĭà¶±à¶¸à·Ĭ": 5381,
      "âĢįà¶»à¶Ńà·Ĵà¶ļà·ıà¶»": 5382,
      "à¶ľà¶±à·Ĭà¶±à·Ļ": 5383,
      "Ġà¶Ńà·Ĵà¶¶à·Ķà¶«à·ļ": 5384,
      "Ġà·Ħà¶Ń": 5385,
      "Ġà·ĥà¶Ĥà¶ļà·ĵà¶»à·Ĭà¶«": 5386,
      "à¶ħà¶±à·Ķ": 5387,
      "à¶Ķà¶Ńà¶±": 5388,
      "Ġà¶¸à·ļà¶ļà·Ļ": 5389,
      "à·Ħà¶©": 5390,
      "à¶ļà·ľà·Ħà·Ļà¶±à·Ĭà¶¯": 5391,
      "Ġà¶¯à·Ĵà·Ģà·Ķà¶»": 5392,
      "à¶ºà·ĵ": 5393,
      "Ġà¶Ĩà·Ħà·Ĭ": 5394,
      "io": 5395,
      "Ġà¶¯à·ĵà¶½": 5396,
      "Ġà¶±à·ľà¶¸à·Ĳà¶Ńà·Ĵ": 5397,
      "Ġà¶»à·Ħà·ĥà¶ļà·Ĭ": 5398,
      "âĢįà¶»à·Ĵà¶ºà·ļ": 5399,
      "Ġà·Ħà·Ĳà¶¯à·Ĵà¶½à·ı": 5400,
      "Ġà¶Ĵà·Ģà¶§": 5401,
      "Ġà¶Ĩà·ģà·Ĭ": 5402,
      "Ġà¶¢à·ļà¶¸à·Ĭà·ĥà·Ĭ": 5403,
      "Ġà·Ģà¶±à·ļà¶±à·Ļ": 5404,
      "à¶ľà¶±à·Ĵà¶ºà·Ĵ": 5405,
      "Ġà¶ĩà¶½à·Ĭà¶½": 5406,
      "Ġà¶¢à·Ĳ": 5407,
      "à¶ºà¶Ńà·Ĭ": 5408,
      "Ġà¶±à·ıà¶ºà¶ļà¶ºà·ı": 5409,
      "à¶¸à·Ĵà·ĥà·Ĭ": 5410,
      "à¶¸à¶ł": 5411,
      "Ġà¶Ńà·Ĵà¶ºà¶±à·Ĭ": 5412,
      "Ġà¶ļà¶»à·Ķà¶«à·ıà¶ļà¶»à¶½": 5413,
      "Ġà·Ģà·Ĳà¶½": 5414,
      "Ġà¶Ķà·Ħà·Ļ": 5415,
      "Ġà¶±à·Ĳà¶Ńà·Ĵà·Ģà·Ļà¶ºà·Ĵ": 5416,
      "Ġà·ĥà·ľà¶½à·Ĭà¶¯à·ı": 5417,
      "Ġà¶ĩà¶¸à¶Ńà·Ĵ": 5418,
      "Ġà¶ºà·Ŀà¶¢à¶±à·ı": 5419,
      "Ġà¶łà¶±à·Ĭà¶¯à·Ĭ": 5420,
      "Ġà·ĥà·ıà¶°à·ıà¶»à¶«": 5421,
      "Ġà¶¶à·ĵà¶¸": 5422,
      "à¶´à·Ĵà¶Ńà·ıà¶±à·Ĭ": 5423,
      "Ġà¶´à·ıà¶»à¶§": 5424,
      "Ġà¶Ńà·Ķà¶¸à·ı": 5425,
      "Ġà¶ľà·Ĵà¶ºà·ıà¶§": 5426,
      "Ġà¶Ńà¶Ńà·Ĭà·Ģà·Ļ": 5427,
      "Ġà·Ģà¶§à·Ĭà¶§": 5428,
      "Ġà¶Ńà¶Ńà·Ĭà·Ģà¶ºà¶§": 5429,
      "ly": 5430,
      "à¶´à¶»à·ĵà¶ļà·Ĭà·Ĥ": 5431,
      "Ġà¶ľà¶±à·ĵà·Ģà·Ĵ": 5432,
      "Ġà¶¯à·Ļà¶±à·Ĭà¶±à¶§à¶¸": 5433,
      "à¶ļà·ıà¶¸": 5434,
      "Ġà¶¯à·Ĳà¶±à·Ķà¶±à·ı": 5435,
      "à¶Ĩà¶ºà·Ķà¶¶à·Ŀà·Ģà¶±à·Ĭ": 5436,
      "à¶±à·Ĭà¶»à·Ŀ": 5437,
      "Ġà¶¶à¶½à·ıà¶´à·ľà¶»à·ľà¶Ńà·Ĭà¶Ńà·Ķà·Ģ": 5438,
      "Ġà¶¯à·Ļà¶´à·ıà¶»à·Ĭà¶Ńà¶¸à·ļà¶±à·Ĭ": 5439,
      "Ġà·ĥà·Ĭà·Ģà¶·à·ıà·Ģ": 5440,
      "Ġà·Ļà¶±": 5441,
      "Ġà¶ĭà¶´à¶¯à·ļà·ģ": 5442,
      "à·Ķà·Ģà·ľà¶Ńà·Ĭ": 5443,
      "à¶§à·ļ": 5444,
      "Ġà¶ļà·Ļà¶±à·ıà¶§": 5445,
      "à¶»à·Ļà¶±à·Ĭ": 5446,
      "Ġà¶±à·Ĳà¶Ńà·Ĭà¶Ńà¶Ĥ": 5447,
      "à¶¯à·Ĵà¶±à·Ĭà¶±à·ļ": 5448,
      "Ġà·Ģà¶½à¶¯à·ĵ": 5449,
      "à¶ħà·Ģà·Ķà¶½à¶ļà·Ĭ": 5450,
      "Ġà¶±à·Ĵà¶ºà·Ŀà¶ľ": 5451,
      "Ġà·Ģà¶±à·Ĭà¶±à·ļ": 5452,
      "Ġà·Ģà·ıà¶»à·Ĭà¶®à·ı": 5453,
      "Ġà¶¸à·ļà¶ļà¶ºà·Ĵ": 5454,
      ",à¶ħà¶´à·Ĵ": 5455,
      "Ġà¶¯à¶±à·Ĭà¶±à·ı": 5456,
      "Ġà¶īà¶½à¶ļà·Ĭà¶ļà¶º": 5457,
      "Ġà¶´à·Ĭà¶»": 5458,
      "à¶´à·Ļà¶»": 5459,
      "à·ĵà·Ģà·Ĵ": 5460,
      "Ġà¶ĩà¶¯à·Ķà¶¸": 5461,
      "Ġà¶ľà¶Ł": 5462,
      "Ġà·Ĥà·Ŀ": 5463,
      "Ġà¶ħà¶ļà¶¸à·Ĳà¶Ńà·Ĵ": 5464,
      "à·Ķà·Ģà¶»à·Ĭ": 5465,
      "Ġà¶ļà·Ĵà¶ºà¶¸à·Ķ": 5466,
      "à·Ħà·ıà¶¸": 5467,
      "à¶ľà·Ļà¶±à·Ħà·Ĵà¶»": 5468,
      "Ġà¶ħà·Ģà¶°à·ıà¶±": 5469,
      "Ġà¶¯à·Ĵà¶ľà·ļ": 5470,
      "Ġà¶ľà·Ļà¶±à·ıà·Ģ": 5471,
      "Ġpro": 5472,
      "Ġà·Ĥà·Ļ": 5473,
      "à¶ļà¶¸à¶§": 5474,
      "à·Ĩà·Ĵà·ĥà·Ĭ": 5475,
      "Ġà·ĥà·Ĭà¶®à·Ĵ": 5476,
      "âĢįà¶»à¶Ńà·Ĵà¶´": 5477,
      "Ġà¶´à·ĺà¶®à·Ĵ": 5478,
      "Ġà¶ħà¶¯à·Ķà¶»": 5479,
      "à¶ĳà¶ļà·ļ": 5480,
      "Ġà·Ļà·Ģà¶±à·Ĭà¶±": 5481,
      "Ġà¶ĩà¶Ńà·Ķà·ħà·Ķ": 5482,
      "ive": 5483,
      "Ġà¶»à·ĥà·ı": 5484,
      "Ġà¶ħà¶±à·Ĭà¶Ńà¶»à·Ĭ": 5485,
      "âĢįà¶»à·ĵà¶©": 5486,
      "Ġà¶īà¶½à·Ĭà¶½à¶±à·Ģà·ı": 5487,
      "Ġà·Ħà·Ĳà¶¸à¶Ńà·Ĵà·ĥà·Ĭà·ĥà·Ļà¶¸": 5488,
      "Ġà¶¯à·Ļà·Ģà·Ĵà¶ºà¶±à·Ĭà¶§": 5489,
      "Ġà¶ĳà¶ļà¶ļà·Ĭà¶¯": 5490,
      "à¶ľà¶Ńà·Ĭà¶Ńà·Ķ": 5491,
      "Ġà¶´à·ľà¶¯à·Ķ": 5492,
      "Ġà¶¸à·ıà¶°à·Ĭ": 5493,
      "age": 5494,
      ".à¶¸à¶¸": 5495,
      "Ġà¶Ńà·Ŀà¶»à¶±à·Ĭà¶±": 5496,
      "à·Ķà¶±à·ļ": 5497,
      "Ġà·ģà·ıà¶½à·ı": 5498,
      "à·ıà¶¯": 5499,
      "à¶łà¶»à·Ĭ": 5500,
      "à¶½à¶±à·Ĭà¶©à·Ĭ": 5501,
      "ord": 5502,
      "à¶ļà¶»à·Ķà¶±à·ı": 5503,
      "Ġà¶¢à·ıà¶Ńà·Ĵà¶º": 5504,
      "Ġà·Ħà·Ĳà¶¸à·Ģà·Ļà¶½à·ıà·Ģà·Ļà¶¸": 5505,
      "à¶ļà¶¯": 5506,
      "Ġà¶Ńà·ļà¶»à·Ķà¶±à·ıà¶¯": 5507,
      "à¶Ńà¶¸à·Ķà·ĥà·Ļà¶§": 5508,
      "Ġà¶¶à¶±à·Ĵ": 5509,
      "à·Ħà·ĸ": 5510,
      "Ġà¶ĩà¶´": 5511,
      "Ġà¶ļà·Ķà¶½à·Ĵà¶ºà¶§": 5512,
      "Ġà¶ļà¶³à·Ģà·Ķà¶»": 5513,
      "à¶¯à·Ļà·Ĵ": 5514,
      "Ġà¶ļà·ĵà·Ģà·ı": 5515,
      "Ġà¶ĩà·Ħà·Ķà¶±à¶¯": 5516,
      "à¶±à¶Ńà·Ĭ": 5517,
      "Ġà·ĥà¶Ĥà¶¥à·ı": 5518,
      "Ġà¶¸à·Ŀà¶©à¶ºà·ı": 5519,
      "à¶ħà¶Ńà¶±": 5520,
      "bo": 5521,
      "Ġà¶¯à·Ļà¶±à·Ĭà¶±à¶¯": 5522,
      "Ġà¶»à·ĥà·Ĭà·ĥà·ıà·Ģà¶ļà·Ĭ": 5523,
      "âĢįà¶»à¶ºà¶±à·Ĭ": 5524,
      "Ġà¶¶à·ıà¶ľà¶ºà¶ļà·Ĭ": 5525,
      "à¶ľà·Ħà¶±à·Ĭà¶±": 5526,
      "Ġà·ĥà·Ĳà¶¸": 5527,
      "Ġà¶Ńà·Ĵà¶ºà·Ļ": 5528,
      "à¶¸à·Ķà·Ģà·ı": 5529,
      "Ġà¶¸à¶Ńà¶ļà¶º": 5530,
      "à·ĳà¶±à·Ĭà¶ľà·Ĭ": 5531,
      "Ġà¶ľà¶¸à·Ĭ": 5532,
      "à¶ľà·ľà¶±à·Ķà·Ģ": 5533,
      "Ġà¶īà·ĥà·Ĭà¶ļà·Ŀà¶½à·Ļ": 5534,
      "à¶ĩà·ĥà·Ĭ": 5535,
      "Ġà¶ľà·Ĳà¶±à¶Ńà·Ĭ": 5536,
      "à¶¢à·ļà¶±à·Ĭ": 5537,
      "ear": 5538,
      "Ġà¶·à¶º": 5539,
      "Ġà¶¸à·ĸà¶½à·Ĵà¶ļ": 5540,
      "Ġà·ĥà¶§à¶±": 5541,
      "Ġà¶Ńà¶¯à·Ĵà¶±à·Ĭ": 5542,
      "ipp": 5543,
      "à¶ºà·Ļà·ı": 5544,
      "Ġà¶ļà¶±à¶ľà·ı": 5545,
      "à·Ħà·Ĳà¶¸à·Ŀà¶§à¶¸": 5546,
      "Ġà¶´à·Ĵà¶±à·Ĭà¶Ńà·Ķà¶»": 5547,
      "à¶»à·Ĵà·Ĩà·Ĭ": 5548,
      "Ġà¶±à·ľà·Ģà·Ļà¶±à·Ĭà¶±": 5549,
      "à·Ģà¶ľà¶±à·Ĭà¶±": 5550,
      "à¶ħà¶·": 5551,
      "Ġà¶ĳà¶±à¶ļà·ľà¶§": 5552,
      "à¶½à·Ĵà¶ºà¶§à·Ĭ": 5553,
      "Ġà·Ħà·Ĵà¶Ńà·Ķà·Ģà¶¯": 5554,
      "Ġà¶±à·Ĵà¶»à·Ĭà¶·à·ĵà¶Ń": 5555,
      "à·Ģà·Ĳà¶©à·ļ": 5556,
      "à¶½à·Ĭà¶½à·Ļà¶±à·Ĭ": 5557,
      "à¶¶à·ľà¶»à·Ķ": 5558,
      "Ġà¶Ķà¶ºà·ıà¶¯": 5559,
      "à¶Ķà·Ħà·Ķà¶ľà·Ļ": 5560,
      "Ġà¶ĭà¶Ńà·Ĭà·ĥà·Ģ": 5561,
      "Ġà·ĥà·Ķà¶¯à·Ĭà¶¯": 5562,
      "à·Ģà¶§à·Ĭà¶§": 5563,
      "Ġà·Ħà·ļà¶Ńà·Ķ": 5564,
      "Ġà·Ħà·Ĳà¶ļà·Ĵà¶ºà·ıà·Ģà¶ļà·Ĭ": 5565,
      "à¶±à·Ĵà¶»à·Ĭ": 5566,
      "Ġà¶¸à·Ħà¶Ńà·ı": 5567,
      "indow": 5568,
      "Ġà¶ľà¶±à·Ĭà¶±à¶¯": 5569,
      "à¶½à·ĵà¶±": 5570,
      "Ġà¶ļà·Ĭà¶½": 5571,
      "Ġà¶ħà¶¸à·Ĭà¶¸à·Ģ": 5572,
      "Ġà·Ħà¶ºà·Ĵà¶ºà·Ļà¶±à·Ĭ": 5573,
      "à¶¸à·Ĵà¶½à·Ĵ": 5574,
      "Ġà¶łà·Ļà¶ļà·Ĭ": 5575,
      "Ġà¶ħà·Ģà¶¯à·Ĵ": 5576,
      "à·ıà·Ģà·Ĭ": 5577,
      "à¶´à·Ĳà·Ħà·Ĳà¶¯à·Ĵà¶½à·Ĵ": 5578,
      "Ġà¶¸à·ĺà¶¯à·Ķ": 5579,
      "Ġà·ĥà¶¸à·Ĭà¶´à·Ĭ": 5580,
      "à¶¶à·Ļà¶½à·Ĭ": 5581,
      "Ġà¶ľà·Ĵà¶±à·Ĭà¶±": 5582,
      "à·Ģà¶»à¶ºà·ı": 5583,
      "Ġà¶¸à·Ļà·Ħà·Ļà¶º": 5584,
      "Ġà¶¯à¶¬à·Ķà·Ģ": 5585,
      "Ġà¶īà·Ģ": 5586,
      "Ġà¶ļà¶±à·Ģà·ı": 5587,
      "Ġà·ĥà·ıà¶ļà·Ĭà¶ļ": 5588,
      "Ġà¶´à·Ĵà¶§à·Ĵà¶´à·ĥà·Ĭà·ĥà·Ļ": 5589,
      "Ġà¶¶à·ľà¶Ńà·Ĭà¶Ńà¶¸": 5590,
      "âĢįà¶Ńà·Ĵ": 5591,
      "Ġà¶ħà¶Ńà·Ħà·Ĳà¶»": 5592,
      "ho": 5593,
      "Ġà¶¶à·Ĵà·Ħà·Ĵ": 5594,
      "Ġà¶ĭà·ĥà·ıà·Ģ": 5595,
      "Ġà¶ºà¶ļà·Ĭà·Ĥ": 5596,
      "à¶ħà¶±à·Ĭà¶Ńà·Ĵà¶¸": 5597,
      "à¶ļà·Ĭà¶ļà·ıà¶»": 5598,
      "Ġà¶Ńà·ļà¶»à·Ķà¶¸à·Ĭà¶ľà¶±à·Ĭà¶±": 5599,
      "Ġà·Ħà¶¸à·Ķà·Ģà·ĵà¶¸": 5600,
      "Ġà¶»à·Ħà·ĥ": 5601,
      "Ġà¶ļà¶§à·Ķ": 5602,
      "Ġà¶¯à·Ķà·Ģà¶§": 5603,
      "Ġà¶±à·Ĵà·ĥà·Ĳà¶ļà·Ģà¶¸": 5604,
      "Ġyour": 5605,
      "Ġà¶ĳà¶ļà¶ļà·Ĭà¶¸": 5606,
      "Ġà¶Ĩà¶ļà·ıà¶»à¶º": 5607,
      "Ġà¶ļà¶±à·Ļ": 5608,
      "à·Ģà¶»à¶ºà·Ļà¶ļà·Ĭ": 5609,
      "âĢįà¶»à¶«à¶º": 5610,
      "à·ģà·ıà·Ģ": 5611,
      "Ġà¶ļà·Ĳà¶¸à¶Ńà·Ĵà¶¸": 5612,
      "à¶´à¶«à·Ĵà·Ģà·Ĵ": 5613,
      "Ġà¶¯à·ĳ": 5614,
      "Ġà¶ļà·Ĳà¶»à¶ļ": 5615,
      "à¶ºà¶ļà¶ºà·ı": 5616,
      "Ġà¶Ńà·Ĵà·ĥà·Ĭà·ĥà·Ļ": 5617,
      "Ġà¶¶à¶½à¶ºà¶ļà·Ĭ": 5618,
      "Ġà¶ĭà¶»": 5619,
      "Ġà·Ħà·ıà¶»": 5620,
      "à·Ģà·Ķà¶¸": 5621,
      "Ġà·Ģà·Ķà¶±à·Ķ": 5622,
      "Ġà¶´à·Ħà¶Ń": 5623,
      "ake": 5624,
      "à¶±à·Ķà¶ļà·ĸ": 5625,
      "Ġà¶¸à¶»à¶½": 5626,
      "à·ĥà·Ĵà¶ºà·ıà¶±à·Ķ": 5627,
      "à¶¸à·Ļà·Ħà·Ļà¶¸": 5628,
      "Ġà·Ģà·Ĵà¶¯à·Ĵà·Ħà¶§à¶¸": 5629,
      "Ġà¶īà¶©à¶¯à·Ļà¶±à·Ĭà¶±": 5630,
      "Ġà¶ļà·ľà·Ħà·Ļà¶Ńà·Ĭà¶¸": 5631,
      "Ġà¶ľà·Ļà¶±à·ıà·Ģà·ļ": 5632,
      "ass": 5633,
      "à¶±à·Ĵà¶¸à·Ĵ": 5634,
      "Ġà¶ĭà¶±à·Ĭà¶±à·ļ": 5635,
      "à¶ºà¶ļà·ļ": 5636,
      "à·ĥà¶ºà¶ļà·Ĭ": 5637,
      "Ġà¶ļà·Ĵà·ĥà·Ĵà¶¯à·Ļà¶ºà¶ļà·Ĭ": 5638,
      "Ġà¶ħà¶¸à·ıà¶»à·Ķà·Ģ": 5639,
      "à¶¯à·Ĳà¶Ĥ": 5640,
      ",à¶Ĵà¶ļ": 5641,
      "âĢįà¶±à·Ĵ": 5642,
      "à·Ļà¶ºà¶ļà·Ĭ": 5643,
      "Ġà·Ĩà·ļ": 5644,
      "Ġà·Ħà¶¸à·Ĭà¶¶à·Ļà¶±à·Ĭà¶±": 5645,
      "Ġà¶ļà·Ļà¶½à·Ĭà¶½à·Ģ": 5646,
      "Ġà¶Ńà·ıà¶Ńà·Ĭà¶Ńà·Ļ": 5647,
      "à¶Ńà·Ĳà¶±à·Ĭ": 5648,
      "âĢįà¶»à·Ĵà¶ļà·ıà·Ģ": 5649,
      "Ġà¶Ĩà¶Ńà·Ĭà¶¸à¶º": 5650,
      "Ġà¶ĭà¶½à·Ĭ": 5651,
      "à·Ħà¶»à·Ķ": 5652,
      "Ġà·Ħà·Ĵà¶»à·Ĵ": 5653,
      "à¶ĳà¶ļà·Ļà¶±à·Ĭ": 5654,
      "à¶Ķà·Ģà·Ķà¶±à·Ĭà¶ľà·ļ": 5655,
      "à¶ĳà¶±à·Ĭ": 5656,
      "Ġà¶¢à·ļà¶ļà·Ĭ": 5657,
      "à¶ĳà¶¸": 5658,
      "âĢĵ": 5659,
      "Ġà¶¯à·Ĵà¶±à·ı": 5660,
      "Ġà·ĥà·Ļà¶±à·Ĭ": 5661,
      "gin": 5662,
      "à¶Ńà·ļà¶»à·Ķ": 5663,
      "Ġà¶ļà¶½à·ıà¶§": 5664,
      "à·ĥà¶¸à·ıà·Ģ": 5665,
      "Ġà¶ľà·Ĵà¶ºà·Ļ": 5666,
      "Ġà¶ļà·ľà¶±à·Ĭà¶¯à·ļ": 5667,
      "Ġà¶¯à·Ĵà¶±à·Ķ": 5668,
      "à¶¶à·Ŀà¶°": 5669,
      "Ġà·Ħà·Ĵà·ĥ": 5670,
      "Ġà¶ļà·ıà¶§à·Ħà¶»à·Ĵ": 5671,
      "Ġà·Ģà·Ĵà¶·à·ı": 5672,
      "âĢįà¶»à·Ļà¶±à·Ĭ": 5673,
      "Ġà¶´à·Ĵà¶§à·Ĵà¶´à·ĥà·Ĭà·ĥà·Ļà¶±à·Ĭ": 5674,
      "Ġà¶¯à·Ĵà¶ľà·Ķ": 5675,
      "à¶ļà¶½à·ıà¶¶à¶»": 5676,
      "Ġà¶ĭà¶ľà¶±à·Ĭà¶±": 5677,
      "à·ģà·Ŀ": 5678,
      "tr": 5679,
      "âĢįà·Ħ": 5680,
      "à¶ļà¶ºà¶§": 5681,
      "Ġà·Ħà·Ļà¶±à·Ĭ": 5682,
      "à·Ħà·Ĵà¶Ńà¶±à·Ĭà¶±": 5683,
      "à¶§à·ĥà·Ĭ": 5684,
      "Ġà¶ľà¶±à·Ĭ": 5685,
      "à¶ļà·Ĭà·Ĥà·Ĵ": 5686,
      "Ġà¶łà·Ķ": 5687,
      "Ġà¶¸à·Ĳà·ĥà·Ĭà·ĥ": 5688,
      "Ġà¶±à¶»à¶ļà¶¸": 5689,
      "à¶½à¶±": 5690,
      "Ġà·Ģà¶»à·Ļ": 5691,
      "à¶¸à·Ĵà¶Ń": 5692,
      "à¶±à·ıà¶§": 5693,
      "Ġà¶¸à·ľà·ħ": 5694,
      "à¶ĳà·Ħà¶±à·Ļà¶¸à·Ĭ": 5695,
      "Ġà¶´à·Ģà·ĥ": 5696,
      "Ġà·ģà·Ĵà¶½à·Ĭ": 5697,
      "Ġà¶¯à·Ĳà¶ļà·Ĭà¶ļà·ľà¶Ńà·Ĭ": 5698,
      "Ġà¶±à¶´à·Ķà¶»à·Ķ": 5699,
      "Ġà¶ļà¶½à·Ŀ": 5700,
      "à¶ļà¶ºà·Ĵà¶±à·Ĭ": 5701,
      "Ġà¶ļà·Ĭà·Ĥ": 5702,
      "Ġà¶ľà·ľà¶½à·Ĭà¶½à·Ŀ": 5703,
      "Ġà¶¯à¶»à·Ĭà·ģà¶±à¶º": 5704,
      "Ġà¶Ńà·Ķà¶±à·Ĭà·Ģà·Ļà¶±à·Ĵ": 5705,
      "à¶ħà¶´à·Ĭ": 5706,
      "âĢįà¶ºà¶ļà·Ĭà·Ĥà¶ļ": 5707,
      "à¶Ī": 5708,
      "Ġà·ĥà·Ĳà¶ļà¶ºà¶ļà·Ĭ": 5709,
      "Ġà·Ħà¶¯à·Ĵà·ĥà·Ĭà·ĥ": 5710,
      "Ġà¶±à·ľà¶¸à·Ĳà¶Ń": 5711,
      "à¶»à·ĳà¶±à·Ĭà¶ļà·Ĭ": 5712,
      "Ġà¶´à·Ĵà¶Ĥ": 5713,
      "Ġà¶ļà·Ļà¶±à·Ļà¶ļà·Ĭà¶¯": 5714,
      "Ġà¶ħà·Ģà·ĥà·Ĭà¶Ńà·ıà·Ģà¶ļà·Ĭ": 5715,
      "Ġà¶¯à·Ļà·Ģà¶½à·Ĭ": 5716,
      "Ġà¶ļà¶´à¶½à·ı": 5717,
      "Ġà¶¸à·Ĳà¶ļà·Ĭ": 5718,
      "Ġà¶ļà·Ĳà¶©à·Ĵà¶½à·ı": 5719,
      "à¶±à·ıà¶´à¶Ńà·Ĵ": 5720,
      "Ġà¶±à·Ĳà·Ģà¶Ńà·Ĵ": 5721,
      "Ġà¶ļà¶»à·Ķà¶±à·ı": 5722,
      "Ġà¶½à·Ĳà¶¶à·Ļà¶±à·Ĭà¶±à·Ļ": 5723,
      "Ġà¶¶à¶»à·Ĭ": 5724,
      "à¶´à¶Ńà·ļ": 5725,
      "à¶¶à¶½à·Ĭ": 5726,
      "Ġà·Ģà·ıà·ĥà¶±à·ıà·Ģà¶±à·Ĭà¶Ńà¶ºà·Ĵ": 5727,
      "Ġà·Ħà¶¸à·Ķà·Ģà·Ļà¶¸à·Ķ": 5728,
      "à¶Ĵà¶ļà¶¯": 5729,
      "Ġà¶¯à·Ļà¶¸à·ı": 5730,
      "Ġà¶ļà·ĳà¶½à·Ĭà¶½à¶ļà·Ĭ": 5731,
      "Ġà·ĥà·ıà¶¸à·ıà¶¢à·Ĵà¶ļ": 5732,
      "Ġà¶¶à¶»à¶´à¶Ńà¶½": 5733,
      "à·Ĵà·Ģà·ļà¶¯": 5734,
      "Ġà¶´à·Ķà¶¯à·Ķà¶¸à¶ºà·Ĵ": 5735,
      "ove": 5736,
      "ans": 5737,
      "à·Ļà¶ļà·Ĭà·ĥà·Ĵ": 5738,
      "Ġà·ĥà¶±à·Ĭà¶°à·Ĭ": 5739,
      "âĢįà¶ľ": 5740,
      "Ġà·ģà·Ĵà·Ĥà·Ĭ": 5741,
      "à¶ļà·Ĵà¶»à·ĵà¶¸": 5742,
      "Ġà¶ĭà¶ľà¶±à·Ĭà·Ģà¶±à·Ĭà¶±": 5743,
      "Ġà¶¯à·Ĵà·Ħ": 5744,
      "Ġà¶¸à¶±à·Ĭà¶¯à·Ĵ": 5745,
      "Ġà¶ħà¶½": 5746,
      "Ġà·ĥà¶¸à·Ĭà¶·": 5747,
      "Ġà¶ļà·ĸà¶©": 5748,
      "Ġà¶´à·Ļà¶¸à·Ĭà·Ģà¶Ńà·ı": 5749,
      "Ġà¶»à¶³": 5750,
      "à¶ĩà¶ºà¶ľà·ļ": 5751,
      "à·Ģà·Ĳà·ĥà·Ĵà¶º": 5752,
      "Ġà¶¸à·ĸà¶±": 5753,
      "Ġà¶ľà¶«à¶±à¶ļà·Ĭ": 5754,
      "à¶´à·Ĳà¶±": 5755,
      "Ġà·Ĩà·Ŀ": 5756,
      "Ġà¶¶à¶§à·Ħà·Ĵà¶»": 5757,
      "à¶»à¶ºà¶±à·Ĭ": 5758,
      "âĢįà¶»à·ģà·Ĭà¶«à¶º": 5759,
      "300": 5760,
      "à·Ħà¶¬": 5761,
      "à¶»à·ıà¶¯à·ı": 5762,
      "Ġà·Ħà·ľà¶»à¶ļ": 5763,
      "Ġà¶¸à·ıà¶¸à·ļ": 5764,
      "à¶Ĩà·Ģà·Ĭ": 5765,
      "à¶´à¶¯à¶º": 5766,
      "Ġà¶ľà·Ĳà·Ħà·Ķà·Ģ": 5767,
      "ld": 5768,
      "à·ĥà¶Ĥà·ĥà·Ķà¶±à·Ĭ": 5769,
      "à¶ºà·ıà¶¸": 5770,
      "Ġà¶¶à·Ĵà¶ºà¶»à·Ĭ": 5771,
      "Ġà¶¸à·Ĳà¶¢à·Ĵà¶ļà·Ĭ": 5772,
      "Ġà¶ļà·Ģà·Ķà·ħà·Ķ": 5773,
      "à·Ģà·ıà¶¯à¶º": 5774,
      "Ġà¶ĳà¶ļà·Ĭà¶ļà·Ļà¶±à·ı": 5775,
      "Ġà·Ģà·Ĵà·ģà·Ĭà·Ģà·ıà·ĥà¶ºà¶ļà·Ĭ": 5776,
      "Ġà¶´à·Ĵà¶§à·Ķà·Ģ": 5777,
      "à¶´à·Ĭà¶´à·Ķà·Ģ": 5778,
      "Ġà·Ģà¶¸à·Ĭ": 5779,
      "Ġà¶¶à·Ĳà¶Ĥ": 5780,
      "Ġà¶¯à·Ĳà¶ļà·Ĭà¶ļà¶¸": 5781,
      "à·Ģà·Ļà¶¸à·Ķ": 5782,
      "Ġà·Ļà·ĥà·ı": 5783,
      "Ġà¶ħà¶·à·Ĵà¶ºà·Ŀ": 5784,
      "Ġà¶´à·Ħà·Ķà¶ľà·Ĵà¶º": 5785,
      "Ġà¶ĳà¶ļà¶ļà·Ĵà¶±à·Ĭ": 5786,
      "à·Ĵà¶½": 5787,
      "Ġà¶ħà¶ºà·ļ": 5788,
      "à¶»à·Ĭà¶¢à·Ĭ": 5789,
      "Ġà·Ĩà·ľà¶§à·Ŀ": 5790,
      "Ġà¶´à·ĳ": 5791,
      "Ġà¶±à·ĥà·ı": 5792,
      "à·Ģà·Ĳà¶»à¶¯à·Ĵà¶ºà·Ĵ": 5793,
      "à¶ļà·ıà¶»à¶ºà·ľ": 5794,
      "Ġà¶¶à·Ŀà¶¸à·Ĭà¶¶à¶ºà¶ļà·Ĭ": 5795,
      "à¶©à·ľà¶½à¶»à·Ĭ": 5796,
      "à¶ļà·ľà¶½à·Ĭà¶½à¶±à·ļ": 5797,
      "Ġà¶Ńà·Ĵà¶»": 5798,
      "Ġà·Ģà·Ļà¶±à·Ĭà¶±à¶¯": 5799,
      "à¶Ńà·ıà¶¸à¶Ńà·Ĭ": 5800,
      "Ġà¶´à·Ģà·Ķà¶½à·Ļ": 5801,
      "Ġà·Ģà¶±à·Ļà·Ģà·ı": 5802,
      "Ġà¶ħà¶Ńà·Ķ": 5803,
      "Ġà·Ĩà·Ĵà¶½à·Ĭà¶¸à·Ĭ": 5804,
      "Ġà¶¶à¶ºà·Ģà·Ļà¶½à·ı": 5805,
      "Ġà·ĥà¶½à¶ļ": 5806,
      "Ġà¶¸à·Ħà¶Ńà·Ĭ": 5807,
      "Ġà·Ħà·Ļà¶¸à·Ĵà¶±à·Ĭ": 5808,
      "iz": 5809,
      "à¶ĩà¶½à·Ļà¶ļà·Ĭà·ĥà·Ĭ": 5810,
      "Ġà¶¯à·Ŀà·Ĥ": 5811,
      "à¶Ĵà¶ļà¶Ńà·Ĭ": 5812,
      "Ġà¶´à·Ĳà·Ħà·Ĳà¶¯à·Ĵà¶½à·Ĵà¶ºà·Ĵ": 5813,
      "Ġà¶ļà¶»à¶±à¶ļà·ľà¶§": 5814,
      "Ġà·ĥà·Ĵà¶ºà¶¯à·Ĵà·Ģà·Ĵ": 5815,
      "à¶±à·Ĭà¶°à¶±": 5816,
      "à·Ģà·ıà¶©à·Ĵ": 5817,
      "à¶¸à·ĥà·Ĭ": 5818,
      "Ġà¶´à¶½à·Ĵ": 5819,
      "à¶½à·Ĭà¶½à¶§": 5820,
      "Ġà¶Ĩà¶»à·ıà¶°à¶±à·ı": 5821,
      "Ġà¶ĩà¶ľà·Ĵ": 5822,
      "Ġà¶ľà¶¸à¶±à¶ļà·Ĭ": 5823,
      "Ġà¶´à¶łà·Ĭà¶ł": 5824,
      "Ġà¶Ńà¶Ńà·Ĭà·Ģà¶ºà¶ļà·Ĭ": 5825,
      "âĢįà¶±à·ļ": 5826,
      "Ġà¶īà·ĥà·Ĭà¶´à·Ĵà¶»à·Ĵà¶Ńà·ı": 5827,
      "arl": 5828,
      "à¶ľà¶Ńà·Ĭà¶Ńà¶¯": 5829,
      "à¶ļà·Ĵà¶ºà¶½à·ı": 5830,
      "Ġà·Ģà·Ħà¶ľà·Ļà¶±": 5831,
      "ie": 5832,
      "Ġà¶ļà¶¶à·ı": 5833,
      "à¶ħà¶±à·Ĵà·Ģà·ıà¶»à·Ĭà¶ºà·Ļà¶±à·Ĭà¶¸": 5834,
      "Ġà¶´à·ıà·ĥà·Ĭ": 5835,
      "à¶¶à·Ĭà·ĥà·Ĭ": 5836,
      "Ġà¶ĩà¶Ńà·Ķà·ħà¶Ńà·Ĭ": 5837,
      "Ġà¶ľà·Ļà¶±à·Ĵ": 5838,
      "Ġà¶¸à·ľà·Ħà·ľà¶Ńà·ļ": 5839,
      "Ġà·Ħà·ľà¶»à·Ļà¶±à·Ĭ": 5840,
      "Ġà¶±à·Ĳà¶ľ": 5841,
      "Ġtitle": 5842,
      "Ġà¶ľà·ĺ": 5843,
      "Ġà·Ģà·Ļà¶¸à·Ĵà¶±à·Ĭ": 5844,
      "Ġà¶ľà·Ĵà·Ħà·Ĵà¶½à·Ĭà¶½": 5845,
      "Ġà·ĥà·Ĳà¶»à·ļ": 5846,
      "à¶ļà·ıà¶»à·Ĵà¶ºà¶ļà·Ĭ": 5847,
      "à·ĥà·Ĵà¶¸à·Ĭ": 5848,
      "Ġà·Ħà·Ļà¶ºà·Ĵ": 5849,
      "Ġà¶±à·Ĵà¶¸": 5850,
      "à·ĥà·Ĵà¶ºà¶½à·Ĭà¶½": 5851,
      "Ġà¶¢à·Ĵà¶±à·Ĭ": 5852,
      "à·Ģà·ĥà¶»": 5853,
      "à¶ĩà¶ľà·ļ": 5854,
      "Ġà¶Ĩà¶ºà·Ĵ": 5855,
      "Ġà¶¸à¶±à·Ķà·ĥà·Ĭà·ĥà¶ºà·Ŀ": 5856,
      "à¶±à·Ĵà¶ļà¶±à·Ĭ": 5857,
      "à¶¯à·Ļà·Ģà·Ĵà¶ºà¶±à·Ĭ": 5858,
      "Ġà¶Ńà·Ķà¶±à¶ºà·Ĵ": 5859,
      "Ġà¶¯à·Ĵà¶ļà·Ĭà¶ļ": 5860,
      "à¶¸à·Ĭà¶¸à·Ĭà¶¸à·Ĭ": 5861,
      "Ġà¶¢à·ĵà·Ģà·Ĵà¶Ńà¶ºà·ļ": 5862,
      "à¶ĭà¶±à·Ĭà¶§": 5863,
      "Ġà·Ħà¶Ńà·Ķà¶»": 5864,
      "Ġà¶łà·Ŀà¶¯à¶±à·ı": 5865,
      "Ġà·ĥà·Ħà¶ľà¶Ń": 5866,
      "à·ĥà·Ĭà¶§à¶±à·Ĭ": 5867,
      "Ġà¶¸à·Ĵà¶½à·Ĭ": 5868,
      "Ġà¶¢à·ıà¶±": 5869,
      "Ġà¶ļà·Ļà¶»": 5870,
      "à¶Ĥà¶ľà¶¸": 5871,
      "Ġà¶ħà¶±à·Ĵà·Ģà·ı": 5872,
      "à·Ĩà¶»à·Ĭ": 5873,
      "Ġà¶ħà¶»à¶¸à·Ķà¶«": 5874,
      "Ġà¶¢à·Ĵà¶¸à·Ĭ": 5875,
      "ĠX": 5876,
      "à¶·à·ĸà¶Ń": 5877,
      "Ġà¶Ńà·ļà¶»à·Ļà¶±à·Ģà¶¯": 5878,
      "Ġà¶ĩà¶±à·Ĭà¶¢": 5879,
      "Ġà¶ļà·ıà¶ľà·Ļ": 5880,
      "à¶ĭà¶¯à·ļ": 5881,
      "Ġà¶¶à·Ļà·Ĭ": 5882,
      "Ġà·ĥà·Ĵà¶Ń": 5883,
      "à·Ģà·Ļà¶±à·ĥà·Ĭ": 5884,
      "Ġà¶ºà·Ĳà·Ģà·Ĭà·Ģà·ı": 5885,
      "Ġà·Ģà¶ºà·ĥà¶ļ": 5886,
      "à¶¶à·Ħ": 5887,
      "à·Ģà·Ĵà·Ħà·Ĵ": 5888,
      "Ġtranslate": 5889,
      "Ġà¶´à·Ĵà·Ħà·Ĵà¶º": 5890,
      "Ġà·Ģà¶±à·Ķ": 5891,
      "à¶±à¶ľ": 5892,
      "à¶¶à·ĥà·Ĭ": 5893,
      "Ġà¶±à·ıà¶ļà·Ĵ": 5894,
      "à¶´à·Ĳà¶§à·Ĵà¶ºà·Ŀ": 5895,
      "Ġsh": 5896,
      "Ġà¶ļà·ıà¶»à¶«à·ıà·Ģ": 5897,
      "Ġà¶ļà·ıà¶±à·Ĭà¶Ńà·ıà·Ģà¶ļà·Ĭ": 5898,
      "âĢįà¶»à¶´à¶§à·Ĵ": 5899,
      "Ġà·Ģà¶»à¶ļà·Ĭ": 5900,
      "à·ĥà·Ĭà¶§à·Ŀ": 5901,
      "Ġà¶ĳà¶ļà·Ĵà¶±à·Ļà¶ļà·ı": 5902,
      "Ġà¶ļà·Ļà¶½à·Ĭà¶½à·Ŀ": 5903,
      "à·Ķà·Ģà¶±à·Ĭà¶§": 5904,
      "Ġà¶¸à·Ħà¶Ńà·Ĭà¶Ńà¶ºà·Ŀ": 5905,
      "à¶´à·Ħà¶»": 5906,
      "Ġà¶ĭà¶±à·Ĭà¶±à·ı": 5907,
      "Ġà¶ļà·ļà¶ļà·Ĭ": 5908,
      "Ġà¶¶à·Ħ": 5909,
      "Ġà¶¶à¶½à¶±à·Ĭà¶±à·Ļ": 5910,
      "Ġà¶¯à·Ļà¶ºà¶ļà·Ĭà¶¯": 5911,
      "Ġà¶ĩà¶Ńà·Ĭà¶Ńà¶ļà·Ĭ": 5912,
      "\"à¶¸à·ļ": 5913,
      "âĢį.čĊ": 5914,
      "Ġà¶ĩà¶¸à·Ļ": 5915,
      "Ġà¶¸à·Ŀà¶©à¶ºà·Ŀ": 5916,
      "Ġà¶ĭà·ĥà·Ĭà·ĥà¶±à·Ĭà¶±": 5917,
      "Ġà¶±à·Ĵà¶½à¶°à·ıà¶»à·Ĵà¶ºà·Ļà¶ļà·Ĭ": 5918,
      "à¶ļà¶½à·Ĭà¶´": 5919,
      "à¶ĳà¶ļà¶ºà·Ĵ": 5920,
      "Ġà¶´à¶§à·Ĵà¶ľà¶Ń": 5921,
      "à¶±à·Ģà¶Ńà·Ĵà¶±à·Ĭà¶±": 5922,
      "Ġà·ĥà¶ľ": 5923,
      "Ġà¶ľà·ıà¶«à¶ļà·Ĭ": 5924,
      "Ġà¶ºà·ıà¶½à·Ķà·Ģà·Ŀ": 5925,
      "à¶Ĥà¶ļà·ıà¶»": 5926,
      "Ġà¶ľà·ıà¶«": 5927,
      "à¶»à·ĵà¶¸à¶ļà·Ĭ": 5928,
      "à·Ģà·ļà¶¯à·ĵ": 5929,
      "Ġà¶½à·ĥà·Ĭà·ĥà¶±à¶§": 5930,
      "Ġà¶¸à¶±à·Ĭà¶¯à·ı": 5931,
      "à¶ľà¶Ńà·Ĭà¶¸": 5932,
      "à¶±à·Ģà¶§": 5933,
      "à·ĥà·Ĵà¶ľà¶Ń": 5934,
      "à¶¸à·Ĳà¶©à¶¸à·Ĭ": 5935,
      "à¶¸à¶½": 5936,
      "à·ĥà¶Ńà·Ĵ": 5937,
      "Ġà·Ħà·Ĵà¶Ńà¶§": 5938,
      "à¶ħà¶¸à¶Ńà¶ļ": 5939,
      "âĢįà¶»à·Ģà·ıà·Ħ": 5940,
      "Ġà¶´à¶©à·Ĵ": 5941,
      "Ġà·Ģà·Ĵà¶¯à·Ĵà¶ºà¶§à¶¸": 5942,
      "Ġà¶Ķà·Ħà·ļà·Ģ": 5943,
      "-à¶ħà¶´à·Ĵ": 5944,
      "Ġà¶¶à·Ĵà¶Ńà·Ĭà¶Ń": 5945,
      "à·Ĥà·Ĵà¶±à·Ĭ": 5946,
      "à·Ĵà¶ºà·Ķà¶½à¶º": 5947,
      "à¶±à·Ĭà¶©à·Ĭ": 5948,
      "Ġà·ĥà¶¯à·Ĭà¶¯à·ļ": 5949,
      "Ġà¶ľà¶±à·Ķà¶¯à·Ļà¶±à·Ķ": 5950,
      "Ġà·Ģà·Ħà¶±à·Ĭ": 5951,
      "Ġà¶¸à¶ľà·Ħà·Ĳ": 5952,
      "à·Ģà¶©à·ı": 5953,
      "à¶ļà¶¯à·Ĵ": 5954,
      "Ġà¶»à·Ģà¶§à·Ĭà¶§": 5955,
      "Ġà¶Ŀà·ıà¶Ńà¶±à¶º": 5956,
      "à·ļà¶łà¶»": 5957,
      "à¶łà¶©à·Ĭ": 5958,
      "Ġà·ĥà·Ĵà¶§à·Ĵà¶±à·Ĭà¶±": 5959,
      "Ġà·Ģà¶½à·Ĭ": 5960,
      "Ġà¶Ĩà·ĥà¶±à·Ĭà¶±": 5961,
      "star": 5962,
      "22": 5963,
      "Ġà¶ĳà¶»à·Ļà·Ħà·Ĵà·Ģ": 5964,
      "Ġà¶¢à¶±à¶´à¶¯": 5965,
      "Ġà¶¸à·Ķà¶½à·Ĭà¶¸": 5966,
      "âĢįà¶»à¶Ńà·Ĵà¶ļà·Ĭ": 5967,
      "Ġà·Ģà¶±à·Ĭà¶±": 5968,
      "Ġà¶ļà·Ĵà¶ºà¶±à·Ĭ": 5969,
      "Ġà¶´à·Ķà·ħà·Ķà·Ģà¶±à·Ĵ": 5970,
      "Ġà¶ĩà¶±à·ı": 5971,
      "à¶´à·Ķà·Ģà·ı": 5972,
      "Ġà·ĥà·ıà¶¸": 5973,
      "Ġà¶ħà¶ºà·Ĵà¶º": 5974,
      "à¶ļà¶«à¶ľà·ı": 5975,
      "à¶´à·Ĵà·ħà·Ĵ": 5976,
      "à¶¯à¶±à·Ĭà¶±à·ı": 5977,
      "sia": 5978,
      "à¶ľà·Ĵà¶ļ": 5979,
      "Ġà¶ħà¶±à¶Ńà·Ķà¶»à·ļ": 5980,
      "Ġà¶¯à·ĵà¶¸": 5981,
      "hat": 5982,
      "à¶»à¶ºà·ı": 5983,
      "Ġà·Ģà·Ĳà·ĥà·Ĭà·ĥ": 5984,
      "Ġà¶½à·Ļà·ı": 5985,
      "Ġà¶ħà¶Ńà¶»à·Ĵà¶±à·Ĭ": 5986,
      "Ġà¶ºà·Ķà¶¯à·Ĭà¶°à¶º": 5987,
      "og": 5988,
      "ith": 5989,
      "Ġà·Ģà·ĳà¶±à·Ĭ": 5990,
      "Ġà¶ļà·ħà·ľà¶Ńà·Ĭ": 5991,
      "Ġà¶´à·Ĵà¶§à·Ģà·Ļà¶±à·Ĭà¶±": 5992,
      "Ġà¶ħà·Ģà¶½à¶Ĥà¶ľà·Ķ": 5993,
      "Ġà·Ħà·ľà¶ºà·ıà¶ľà¶±à·Ĭà¶±à·Ģà·ı": 5994,
      "Ġà¶ĭà¶Ńà·Ķà¶»à·Ķ": 5995,
      "à¶»à·Ķà¶±à·Ĭ": 5996,
      "à¶»à·Ĵà¶ºà·ıà¶§à·Ĵ": 5997,
      "Ġà¶´à·Ļà¶¸à·Ĭà·Ģà¶Ńà·Ĵà¶º": 5998,
      "Ġà¶Ńà¶§à·Ĭà¶§à·Ķ": 5999,
      "Ġà¶Ĵà¶ļà¶¸": 6000,
      "The": 6001,
      "Ġà¶½à·Ĳà·Ħà·Ĳ": 6002,
      "à¶Ĥà¶¢à·Ĵà¶±à·ļ": 6003,
      "à·ģà·ĵà¶½à¶ļ": 6004,
      "Ġv": 6005,
      "Ġà¶¸à·Ĳà¶±": 6006,
      "à¶Ĵà¶ļà·Ĵ": 6007,
      "Ġà¶īà¶ļà·Ĭà¶¸à¶«à¶§": 6008,
      "à¶ħà¶ºà·Ĵà¶ºà·ı": 6009,
      "à·Ģà·Ĭà·ĥà·Ĭ": 6010,
      "à·ĥà·Ĭà¶ļà·Ĭ": 6011,
      "Ġà¶ļà¶½à·Ĵà¶±à·Ĭà¶¸": 6012,
      "à¶łà·ĵ": 6013,
      "à¶ħà¶±à·Ĭà¶Ńà·Ĵà¶¸à¶§": 6014,
      "Ġà¶±à·Ģà¶Ńà·Ĭà¶Ńà¶±à·Ģà·ı": 6015,
      "Ġà·ĥà·Ĵà¶¯à·Ĭà¶°à·Ĵà¶º": 6016,
      "orn": 6017,
      "Ġà¶ĳà¶ºà¶§": 6018,
      "Ġà¶ļà·ľà·Ħà·Ļà¶§à¶¯": 6019,
      "Ġà¶´à·Ķà¶łà·Ĭà¶ł": 6020,
      "à¶¢à¶±à·ı": 6021,
      "Ġà·ĥà·Ĵà·Ħà·Ĵà¶º": 6022,
      "à¶īà·Ģà¶»": 6023,
      "à¶½à·Ļà¶±à·Ĭà¶±": 6024,
      "Ġcan": 6025,
      "à¶ľà·Ĳà¶±à·ĵà¶¸à·Ĭ": 6026,
      "à¶ľà·ľà¶½à·Ĭà¶½à·ľ": 6027,
      "Ġà¶ħà·Ģà·ıà·ĥà¶±à·ıà·Ģ": 6028,
      "âĢįà¶»à·Ĵà¶ļà·ı": 6029,
      "Ġ]": 6030,
      "Ġà¶ĳà¶½à·Ĵ": 6031,
      "Ġà¶¯à¶©à·Ķà·Ģ": 6032,
      "Ġà¶ºà·Ķà¶ļà·Ĭ": 6033,
      "egion": 6034,
      "Ġà·ĥà·Ħà¶ºà·Ŀ": 6035,
      "Ġà·Ģà·Ĵà·Ħà·Ĵà¶½à·Ķà·Ģà¶ļà·Ĭ": 6036,
      "\\b": 6037,
      "à¶»à·Ĳà¶±à·Ĭ": 6038,
      "à¶¸à·ıà¶±à·Ĭà¶Ń": 6039,
      "à¶´à·Ĭà·ĥà·Ĭ": 6040,
      "Ġà¶´à·Ĵà¶§à¶´à¶Ńà·Ĭ": 6041,
      "Ġà¶ĳà¶ļà·Ļ": 6042,
      "Ġà¶¸à·Ĳà¶»à·Ĵà¶½": 6043,
      "!\"čĊ": 6044,
      "à¶ºà¶±à·ļ": 6045,
      "Ġà¶¸à·ĥà·Ĭà·ĥà·Ĵ": 6046,
      "à¶ľà·ļà¶¸": 6047,
      "Ġà·Ģà·Ļà¶½à·ļ": 6048,
      "Ġà¶¶à¶½à¶±à·Ĭà¶±à¶ļà·Ŀ": 6049,
      "Ġà·ģà¶¶à·Ĭà¶¯": 6050,
      "à¶»à·Ļà¶©à·Ĭ": 6051,
      "à¶¸à·Ķà·Ģ": 6052,
      "Ġà¶½à·ĸ": 6053,
      "à¶»à·Ĭà¶®à¶ļà¶ºà·Ĵ": 6054,
      "Ġà¶ĳà¶ºà·Ĵà¶±à·Ĭ": 6055,
      "à¶½à·ıà¶»à·Ĭà¶ļà·Ĭ": 6056,
      "à·Ģà¶±à·Ķ": 6057,
      "Ġà¶½à¶ºà·Ĵà¶§à·Ĭ": 6058,
      "Ġà¶´à·Ģà·Ķà¶½à·Ĭ": 6059,
      "à¶»à·ĵà¶±à·Ĭ": 6060,
      "Ġà¶¯à·Ļà·Ģà·Ĵà¶ºà¶±à·Ĭà¶ľà·ļ": 6061,
      "Ġà¶´à·Ĭà¶½à·ļà¶±à·Ĭ": 6062,
      "Ġà·ĥà·ŀ": 6063,
      "à¶½à¶ļà·ļà·ĥà·Ĭ": 6064,
      "Ġà¶¸à¶±à·Ĭà¶¯": 6065,
      "Ġà·Ħà·ľà¶ºà¶±à·Ĭà¶±à·Ļ": 6066,
      "à·Ģà·Ĵà·ģà·ıà¶½": 6067,
      "Ġà¶īà¶¯à·Ĵà¶»à·Ĵà¶º": 6068,
      "à¶ļà¶¯à·ĵ": 6069,
      "Ġà¶ħà¶±à·Ĭà¶¯": 6070,
      "à¶¸à·ļà·Ģ": 6071,
      "ĠNew": 6072,
      "âĢįà·Ĭ": 6073,
      ";čĊ": 6074,
      "à·Ģà·Ļà¶±à·Ģ": 6075,
      "Ġà¶ļà·Ĵà·Ħà·Ĵà¶´à¶ºà¶ļà¶§": 6076,
      "à¶´à·Ķà¶Ńà·ı": 6077,
      "Ġà¶±à·Ĳà¶ľà·Ĵà¶§": 6078,
      "Ġà·Ģà¶ľà¶ļà·ĵà¶¸": 6079,
      "Ġà¶ľà¶«à¶±": 6080,
      "Ġà¶½à·ľà¶ļà·Ķà¶ºà·Ĵ": 6081,
      "à¶¸à·Ĭà¶¸à·Ĵ": 6082,
      "Ġà¶½à·Ĳà¶¶à·ļà·Ģà·Ĵ": 6083,
      "Ġà¶¸à·Ļà¶ºà·ıà¶ľà·ļ": 6084,
      "fs": 6085,
      "âĢįà¶»à¶¯à·ı": 6086,
      "Ġà¶¯à·ĺ": 6087,
      "Ġà¶¶à·Ħà·Ķ": 6088,
      "Ġà¶¸à·Ĳà¶¯à·Ĭà¶¯": 6089,
      "à¶«à·ĵà¶º": 6090,
      "Ġà¶ļà·ıà¶»à¶ºà·Ŀ": 6091,
      "à¶ļà·Ģà·Ĭ": 6092,
      "à¶¢à¶±à·Ĭà¶Ń": 6093,
      "Ġà¶Ńà¶´à·Ĭà¶´": 6094,
      "Ġà¶¸à¶»à¶ºà·Ĵ": 6095,
      "ip": 6096,
      "Ġà¶ĳà¶½à·Ĭ": 6097,
      "Ġà¶°à·Ľ": 6098,
      "à·Ĥà·Ĭà¶§à·Ĵà¶ļ": 6099,
      "Ġà¶¢à¶½à¶º": 6100,
      "à¶¯à·Ļà¶ºà·Ĵ": 6101,
      "Ġà¶¸à·ĳà¶±à·Ĭ": 6102,
      "Ġà·ĥà·Ĵà¶§à·Ĵà¶ºà·ı": 6103,
      "à·ĥà¶ºà·Ĵà¶©à·Ĭ": 6104,
      "à¶¸à¶Łà·Ķ": 6105,
      "Ġà¶¯à¶ļà·Ĭà·Ģà¶±à·Ĭà¶±": 6106,
      "Ġà¶ºà¶ļà·ı": 6107,
      "à¶¸à¶±à·Ķ": 6108,
      "âĢįà¶»à¶Ńà·Ĵà¶µ": 6109,
      "ary": 6110,
      "Ġà¶±à¶©à·Ķà·Ģ": 6111,
      "à¶¸à·ļà¶ļà¶ºà·Ĵ": 6112,
      "Ġà¶¸à·ļà¶©": 6113,
      "Ġà·Ģà·Ĳà¶¯à·Ĵà¶½à·ı": 6114,
      "Ġà¶´à·Ļà¶±à·Ĭà·Ģà¶±à·Ĭà¶±à¶¸à·Ĭ": 6115,
      "Ġà¶ħà¶Ńà·ıà¶»à·Ĵ": 6116,
      "Ġà¶ħà·Ģà·ģà·Ĭà¶º": 6117,
      "à¶´à·Ĭà¶½": 6118,
      "Ġà¶¶à·Ļà¶½à·Ĭ": 6119,
      "reat": 6120,
      "à·ĥà·ıà·ĥà·Ĭ": 6121,
      "Ġà¶ħà¶Ńà·ĵà¶Ń": 6122,
      "Ġà¶ľà¶¶à¶©": 6123,
      "ase": 6124,
      "à·Ģà·Ĵà¶Ń": 6125,
      "Ġà¶Ńà·Ĵà¶ºà·Ļà¶±à·Ģà·ıà¶¯": 6126,
      "Ġà¶ħà¶±à·Ķà¶ľà¶¸à¶±à¶º": 6127,
      "Ġà¶ļà·ľà·Ħà·ľà¶¸à·Ħà¶»à·Ĵ": 6128,
      "Ġà¶ļà·ıà¶¸à¶»à·ļà¶§": 6129,
      "Ġà¶ĳà¶½à·Ĵà¶ºà·ļ": 6130,
      "Ġà·Ģà·Ĵà·Ģà·ıà·Ħà¶º": 6131,
      "Ġà¶ħà·Ħà·Ĵà¶Ĥà·ĥà¶ļ": 6132,
      "à¶´à·Ĭà¶Ń": 6133,
      "Ġà·ĥà¶¸à·ĸ": 6134,
      "Ġà¶ľà·ŀà¶»à·Ģà¶ºà¶ļà·Ĭ": 6135,
      "ussia": 6136,
      "âĢįà¶»à·Ħà¶«à¶º": 6137,
      "Ġà·Ħà·Ĵà¶¸à·Ĵ": 6138,
      "à·ĥà·Ĭà¶½à·ı": 6139,
      "à¶°à·Ķ": 6140,
      "Ġà¶ħà·Ħà¶±": 6141,
      "Ġà¶´à·ıà¶Ńà·Ĭ": 6142,
      "Ġà·ĥà¶ºà·Ĵà¶©à·Ĭ": 6143,
      "Ġà¶ľà·Ĵà¶«à·Ĵ": 6144,
      "Ġà¶©à·ļà·Ģà·Ĵ": 6145,
      "ery": 6146,
      "Ġ....": 6147,
      "Ġà¶»à¶§à·ļ": 6148,
      "Ġà¶¸à¶łà¶±à·Ĭ": 6149,
      "Ġà¶ħà¶»à·Ĵà¶±à·Ģà·ı": 6150,
      "Ġà¶¸à·Ĵà¶±à·Ĵà·ĥà·Ķà¶±à·Ĭà¶§": 6151,
      "à·Ģà·Ļà¶½à·Ĭ": 6152,
      "ener": 6153,
      "à·Ģà·Ĵà¶¸": 6154,
      "'t": 6155,
      "à¶±à·Ĭà¶©à¶»à·Ĭ": 6156,
      "à¶¢à·Ļà¶±à·ĵ": 6157,
      "à¶łà·Ĭà¶łà·ıà¶»": 6158,
      "Ġcl": 6159,
      "Ġà¶¶à¶³à·Ĵ": 6160,
      "Ġà·Ģà·Ĵà¶¯à·Ĵà¶ºà·ļ": 6161,
      "Ġà·Ģà·ıà¶ºà·Ķ": 6162,
      "Ġà¶ħà¶Ĥà¶ľ": 6163,
      "Ġà·ĥà¶±à·ĵà¶´": 6164,
      "Ġà¶¸à¶§à¶¸": 6165,
      "à·Ħà·ıà¶§à¶¯": 6166,
      "à¶ļà·ıà¶ľà·ıà¶»": 6167,
      "à·Ģà·Ĵà¶©à·Ĭ": 6168,
      "à·Ļà·Ģ": 6169,
      "Ġà¶´à·Ĳà·Ģà·Ĳ": 6170,
      "à·Ģà·Ĳà¶§": 6171,
      "âĢįà¶±à·ı": 6172,
      "à·Ģà·ĵà¶±à·Ĭ": 6173,
      "ock": 6174,
      "à¶»à·ıà¶Ńà·Ĭ": 6175,
      "Ġà¶»à·ļà¶©à·Ĵà¶ºà·Ŀ": 6176,
      "Ġà¶ļà·ľà¶«à·Ĭà¶©": 6177,
      "à¶ļà·Ķà¶Ńà·Ĭà¶¸": 6178,
      ",à·ĥà¶»à·Ĭ": 6179,
      "Ġà¶»à¶«": 6180,
      "à¶¶à·Ĵà¶±à·Ĭ": 6181,
      "ash": 6182,
      "à·ħà¶¸": 6183,
      "à¶ºà·Ķà¶°à¶¸à·Ĭ": 6184,
      "Ch": 6185,
      "Ġà¶±à¶»": 6186,
      "à¶ļà·Ĵà¶Ńà·Ĭ": 6187,
      "Ġà¶Ĩà¶łà·ıà¶»à·Ĭà¶º": 6188,
      "Ġà¶´à·Ĳà·Ħà·Ĳà¶¯à·Ĵà·ħà·Ĵ": 6189,
      "Ġà¶¸à¶ľà·Ķà¶½à·Ĭ": 6190,
      "à¶ĭà¶±à·ı": 6191,
      "\\fs": 6192,
      "à·Ĩà·ļ": 6193,
      "Ġà¶Ķà·Ģà·Ķ": 6194,
      "âĢįà¶»à·ıà¶«": 6195,
      "Ġà¶¯à·Ļà¶±à·Ĭà¶±à¶ºà·Ĵ": 6196,
      "tp": 6197,
      "Ġà¶ħà¶±à¶±à·Ĭ": 6198,
      "à·Ģà·Ĳà¶¯": 6199,
      "Ġà·ĥà¶Ńà·Ļà¶ļà·Ĭ": 6200,
      "à¶¢à·ļà·ĥà·Ķ": 6201,
      "Ġà¶±à¶ľà¶»à¶ºà¶§": 6202,
      "Ġà¶¸à·Ģ": 6203,
      "Ġà¶¯à·Ħà¶ºà¶ļà·Ĭ": 6204,
      "Ġà¶½à¶±à·Ĭà¶©à¶±à·Ĭ": 6205,
      "Ġà¶Ńà·ıà¶Ńà·Ĭà¶Ńà¶ºà·Ĵ": 6206,
      "à¶ļà·Ĭà·ĥà·Ĵà¶¢à¶±à·Ĭ": 6207,
      "Ġà¶Ķà·Ĩà·Ĵà·ĥà·Ĭ": 6208,
      "AN": 6209,
      "à¶´à·Ķà¶Ĥà¶łà·Ĵ": 6210,
      "à¶ļà·Ĵà¶»à·ĵà¶¸à·Ĭ": 6211,
      "Ġà¶ļà·ĵà¶ºà¶¯": 6212,
      "Ġà¶¸à·Ļà·Ħà·Ļà¶ºà·Ķà¶¸à·Ĭ": 6213,
      "\\an": 6214,
      "Ġà¶Ńà·ĳà¶ľà·Ĭà¶ľ": 6215,
      "à¶´à¶½à·Ĭà¶½": 6216,
      "à·Ģà·Ĵà¶±à·ıà¶©à·Ĵà¶ºà¶ļà·Ĭ": 6217,
      "Ġà·Ħà·ıà¶±à·Ĵà¶ºà¶ļà·Ĭ": 6218,
      "Ġà¶ħà¶ļà·Ĭà¶ļ": 6219,
      "ĠName": 6220,
      "Ġà·ĥà·Ļà¶½à·Ĭà¶½à¶¸à¶ļà·Ĭ": 6221,
      "Ġà¶ĩà¶ľ": 6222,
      "Ġà¶¸à·Ĵà·ĥà¶ºà·Ĵ": 6223,
      "à·ĥà·Ĭà¶Ńà·Ķ": 6224,
      "à¶»à·Ħà·Ĵà¶Ń": 6225,
      "à¶¶à¶§": 6226,
      "à·Ģà·Ĳà·ĥà·Ĵ": 6227,
      "ph": 6228,
      "Ġà¶¯à·ļà·Ģà·Ĵ": 6229,
      "à·Ģà·Ĵà¶ļà·ıà¶»": 6230,
      "à¶§à·ľ": 6231,
      "à¶±à·Ĵà·ĥà·Ĳà¶ļà·Ģà¶¸": 6232,
      "Ġà¶¯à·ıà¶ºà·Ĵ": 6233,
      "Ġà¶Ńà¶¸à·Ķà¶±à·Ĭà¶§": 6234,
      "à·ĥà·Ķà¶±": 6235,
      "Ġà¶±à¶¸à·Ĵà¶±à·Ĭ": 6236,
      "Ġà¶Ńà·Ķà¶±à¶ļà¶§": 6237,
      "Ġà¶ħà¶Ńà·Ķà¶»à·Ķà¶¯à¶±à·Ĭ": 6238,
      "Ġà¶»à·ıà·Ħà·Ķà¶½à·Ĭ": 6239,
      "Ġà¶ļà¶§à·Ĭà¶§à·Ĵà¶ºà¶ļà·Ĭ": 6240,
      "Ġà¶ºà¶±à·Ķ": 6241,
      "à·ľà¶¸à·ĵ": 6242,
      "à¶Ńà·Ĭà¶Ńà¶½à·Ĭ": 6243,
      "Ġà¶Ńà¶§à·Ĭà¶§à·Ķà·Ģà·ļ": 6244,
      "Ġà¶Ĩà¶½à·Ŀà¶ļà¶º": 6245,
      "Ġà¶ľà·Ĳà·Ħà·Ļà¶±à·Ĭà¶±": 6246,
      "Ġà¶Ĩà¶»à¶ļà·Ĭà·ģà·ı": 6247,
      "Ġà¶ĩà¶Ńà·Ĭà¶Ńà·Ļ": 6248,
      "Ġà¶īà¶Ńà·Ĵà·Ħà·ıà·ĥ": 6249,
      "Ġà¶ĭà¶±à·Ĭà¶ľà·ļ": 6250,
      "Ġà¶ħà¶©à·Ķà·Ģ": 6251,
      "Ġà¶½à·ıà¶±à·ı": 6252,
      "Ġà¶¸à¶±à·Ŀ": 6253,
      "Ġà¶ļà·ļà¶Ń": 6254,
      "à¶±à·Ĵà·ģà·Ĭà¶ł": 6255,
      "Ġà¶īà¶Ĥà¶¢à·Ĵà¶±à·ļ": 6256,
      "Ġà¶ļà¶´à¶±à·Ĭà¶±": 6257,
      "-à¶¸à·ļ": 6258,
      "AR": 6259,
      "à¶¢à¶±à¶ļ": 6260,
      "Ġà¶ħà¶½à·Ĭà¶½à¶½à·ı": 6261,
      "à¶´à·Ĵà¶ºà¶½à·Ĭ": 6262,
      "Ġà¶±à·Ļà·Ģà·Ļà¶ºà·Ĵà¶¯": 6263,
      "âĢįà·Ħà·Ļ": 6264,
      "à¶¸à¶±à·Ĭà¶Ńà·Ĭ": 6265,
      "Ġà¶ĩà¶¸à¶»à·Ĵà¶ļà·ıà¶±à·Ķ": 6266,
      "à¶»à·ıà¶¢à·Ķ": 6267,
      "à·Ģà·Ķà¶¸à¶ļà·Ĭ": 6268,
      "Ġà¶¸à·ľà¶±à·Ģà·ıà·Ħà¶»à·Ĵ": 6269,
      "âĢįà¶¯à·ı": 6270,
      "Ġà¶Ķà¶±à·Ļ": 6271,
      "à·Ħà·Ĳà¶»à·ĵ": 6272,
      "à·Ģà¶±à·Ĭà¶±à¶¸à·Ĭ": 6273,
      "Ġà¶ħà·Ģà·ļ": 6274,
      "Ġà¶ļà·ļà¶Ńà¶º": 6275,
      "Ġà¶´à·ıà¶½à¶ļ": 6276,
      "Ġà·ĥà·Ļà¶§à·Ĭ": 6277,
      "Ġà¶ħà¶Ńà¶»à¶¸à¶Ĥ": 6278,
      "Ġà¶ľà·ľà·Ģà·Ĵ": 6279,
      "à¶ĳà¶ºà·ıà¶½à·Ģ": 6280,
      "Ġà·Ħà·ıà·Ģ": 6281,
      "Ġà¶ļà·ıà·Ģà·Ģà¶Ńà·Ĭ": 6282,
      "Ġà¶ļà·Ĳà¶¸à·Ĳà¶Ńà·Ĭà¶Ńà·Ļà¶±à·Ĭ": 6283,
      "à¶ľà¶»à¶§à·Ĭ": 6284,
      "à·Ĵà¶Ńà¶ºà·Ĵ": 6285,
      "Ġmy": 6286,
      "âĢįà¶§à·Ĵ": 6287,
      "Ġà¶´à¶ºà·Ĵ": 6288,
      "Ġà¶ħà¶´à¶Ń": 6289,
      "Ġà¶¸à·ĵà¶§à¶»à·Ĭ": 6290,
      "à·Ģà¶±à·Ģà¶¯": 6291,
      "Ġà¶Ńà¶±": 6292,
      "Ġà·Ħà·Ļà¶±à·Ĭà¶»à·Ĵ": 6293,
      "ĠJohn": 6294,
      "âĢįà¶¯à·ĵ": 6295,
      "Ġà¶ļà·ħà·Ĵà¶±à·Ĭ": 6296,
      "à¶¸à¶Ńà¶ļà¶¯": 6297,
      "à¶ħà¶±à·Ĭà¶Ńà·Ĵà¶¸à·ļ": 6298,
      "à¶¢à·Ĭà¶¢à·ı": 6299,
      "Ġà¶ļà·ıà¶½à¶ºà·ļ": 6300,
      "Ġà¶ķà¶±à·ļà¶¯": 6301,
      "Ġà¶¯à¶»à·Ķà·Ģà·Ļà¶ļà·Ĭ": 6302,
      "Ġà¶¯à·Ķà¶»à·Ĵà¶±à·Ĭ": 6303,
      "Ġthat": 6304,
      "Ġà·ĥà¶Ĥà¶ļà·ļ": 6305,
      "Ġà¶¯à·ĵà¶´à·Ķ": 6306,
      "Ġà¶ºà¶ļà¶©": 6307,
      "Ġà·ĥà·ıà¶ļà¶łà·Ĭà¶¡": 6308,
      "Ġà¶¸à¶»à·Ķ": 6309,
      "Ġà¶ĳà·Ģà·Ķà¶±à·Ĭ": 6310,
      "à¶ĳà·ħà·Ĵà¶ºà¶§": 6311,
      "Ġà¶ļà¶»à¶¯à·Ĭà¶¯à·Ĵ": 6312,
      "Ġà¶´à·ľà¶Ńà¶ļà·Ĭ": 6313,
      "Ġ//": 6314,
      "Ġà·Ģà·Ĳà¶¯à·Ķà¶±à·ı": 6315,
      "à·ĥà¶¯à·Ĭà¶¯": 6316,
      "à¶ľà·Ĳà¶±à·Ĭà¶±": 6317,
      "Ġà·Ħà¶ºà¶ļà·Ĭ": 6318,
      "Ġà¶ĭà¶Ńà·Ķà¶»": 6319,
      "Ġà·Ģà·Ĳà·ħ": 6320,
      "à·ĥà·Ĵà¶ºà·ħà·Ķà¶¸": 6321,
      "Ġà¶ļà·ħà·ıà¶¯": 6322,
      ",à¶¸à·ļ": 6323,
      "à¶Ńà·Ķà¶»à·ı": 6324,
      "Ġà¶¯à·Ģà·ĥà¶§": 6325,
      "à¶¸à¶½à·Ĭ": 6326,
      "Ġà¶´à·ıà·Ħà¶»": 6327,
      "Ġà·Ģà·Ļà¶½à·ıà·Ģà¶ļà¶§": 6328,
      "ts": 6329,
      "Ġà¶´à·Ķà¶¯à·Ĭà¶ľà¶½à¶ºà·Ļà¶ļà·Ĭ": 6330,
      "à¶¶à¶©à·Ĵ": 6331,
      "Ġà¶ºà¶±à·Ĭ": 6332,
      "à¶ļà·Ĵà¶»à·Ĵ": 6333,
      "Ġà¶ľà·Ĳà¶±à·Ĭà·Ģà·ĵà¶¸": 6334,
      "Ġà·Ħà·Ĵà¶±à·ıà·Ģà·Ļà¶±à·Ĭà¶±": 6335,
      "à¶¯à·Ķà·Ģà·ı": 6336,
      "à¶¥à¶ºà·ı": 6337,
      "à¶Ńà·ļà¶»à·Ķà¶±à·ıà¶¯": 6338,
      "à·Ģà·Ķà¶±à·ľà¶Ńà·Ĭ": 6339,
      "Ġà¶¯à¶ļà·Ĵà¶±à·Ģà·ı": 6340,
      "Ġà¶ļà·Ļà¶±à·Ĭà¶§à·Ĭ": 6341,
      "Ġà¶ļà¶»à¶±à·Ĭà¶±à·ĳ": 6342,
      "Ġà¶ľà·Ĵà¶ºà¶´à·Ķ": 6343,
      "à¶»à·Ĵà¶ºà¶ļà·Ĭ": 6344,
      "à·Ħà·Ĵà·ĥà·Ĭ": 6345,
      "à·ĵà¶¸à·Ļà¶±à·Ĭ": 6346,
      "Ġà¶¯à¶»à·Ĭà·ģà¶±": 6347,
      "Ġà¶ļà·Ŀà¶§à·Ĵ": 6348,
      "Ġà¶ľà·Ĳà¶½à¶´à·Ļà¶±": 6349,
      "Ġà·Ģà·ıà¶¯à¶±à¶º": 6350,
      "à·ĥà·ıà¶»": 6351,
      "à¶½à·Ĭà¶½à·ľ": 6352,
      "Ġà¶Ńà¶¸à·Ķà·ĥà·Ļà¶ľà·Ļ": 6353,
      "à¶½à·Ģà·Ļà¶±à·Ĭà¶±": 6354,
      "Ġà¶ļà¶©à¶±à·Ĭà¶±": 6355,
      "Ġà¶´à·Ķà¶½à·ĸ": 6356,
      "à¶ļà¶»à¶«à¶ºà¶ļà·Ĭ": 6357,
      "Ġà¶ļà·Ĵà¶ºà¶±à·Ģà¶±à¶¸à·Ĭ": 6358,
      "Ġà·Ģà·Ļà¶Ńà¶§": 6359,
      "abel": 6360,
      "Ġà¶ħà¶½à·Ĭ": 6361,
      "à¶¯à·Ļà¶±à·Ĭ": 6362,
      "Ġà¶ħà¶©à·Ķà·Ģà·Ļà¶±à·Ĭ": 6363,
      "Ġà¶¸à·Ķà¶¯à·Ķ": 6364,
      "Ġà¶ĩà¶¸à¶»à·Ĵà¶ļà·ıà·Ģ": 6365,
      "Ġà¶´à¶®": 6366,
      "Ġà¶ħà¶±à·ıà·Ģ": 6367,
      "âĢįà¶»à·ıà¶»à·Ĭà¶®à¶±à·ı": 6368,
      "Ġà¶ļà¶Ńà·ıà¶ļà¶»à¶±à·Ĭà¶±à·ļ": 6369,
      "à·ģà·ĵà¶½à·ĵ": 6370,
      "Ġà¶ħà¶±à·Ķà¶ļà¶¸à·Ĭ": 6371,
      "à¶¸à·ľà¶ļà·Ŀ": 6372,
      "âĢįà¶»à¶¸à·ıà¶¯": 6373,
      "Ġà¶īà¶»à·ı": 6374,
      "Ġà¶ĭà¶¸": 6375,
      "Ġà¶Ńà·ĵà¶»à¶«": 6376,
      "Ġà¶¡à·ı": 6377,
      "âĢįà¶»à·ĵà¶©à·ı": 6378,
      "à¶¸à·Ĳà¶½à·Ĵ": 6379,
      "Ġnot": 6380,
      "Ġà¶ħà·Ģà¶¯à·ı": 6381,
      "à·ĥà·ıà·Ģ": 6382,
      "Âłà¶¸à¶¸": 6383,
      "Ġà¶ħà¶Ńà¶»à¶Ńà·Ķà¶»": 6384,
      "à·ĥà·ĳà¶¸": 6385,
      "à¶½à·Ĵà¶ºà¶¸à·Ĭ": 6386,
      "pl": 6387,
      "à·ĥà·Ļà¶±à·Ĭ": 6388,
      "Ġà·Ģà·Ĵà¶½": 6389,
      "à·Ģà·ıà¶ľà¶±à·Ĭà¶±": 6390,
      "Ġstate": 6391,
      "à¶ºà·ıà¶»à·ĸà¶´": 6392,
      "Ġà·Ħà·Ĵà¶Ńà¶´à·Ķ": 6393,
      "Ġà¶ħà¶´à·ľà¶ºà·Ĵ": 6394,
      "Ġà¶Ĩà¶ºà·Ļà¶¸à¶Ńà·Ĭ": 6395,
      "Ġà¶¯à¶±à·Ļà·Ĭ": 6396,
      "Ġà·Ģà·ļà¶ľà·Ļà¶±à·Ĭ": 6397,
      "erman": 6398,
      "à·ŀà¶¯à·Ĭ": 6399,
      "à¶¶à·ļà¶»": 6400,
      "âĢįà¶»à·ıà¶¸": 6401,
      "ĠKDE": 6402,
      "Ġà·Ģà·Ĵà¶ļà¶½à·Ĭà¶´à¶ºà¶ļà·Ĭ": 6403,
      "Ġà¶½à·Ĵà¶Ĥà¶ľà·Ĵà¶ļ": 6404,
      "à¶¸à¶ļ": 6405,
      "à¶ļà·ıà¶½": 6406,
      "Ġà¶±à·ľà·Ģà·ĵ": 6407,
      "Ġà·ĥà·Ĭà¶®à·ıà¶±à¶ºà¶§": 6408,
      "Ġà¶¶à·ĵà¶½à·ı": 6409,
      "Ġà¶ħà¶³à·Ķà¶±": 6410,
      "à¶ļà·Ģà¶¯à·Ĭà¶¯": 6411,
      "Ġà·Ħà·Ĵà¶§à·Ĵà¶ºà¶Ńà·Ĭ": 6412,
      "Ġà¶´à·Ķà¶Ńà·Ļà¶ļà·Ĭ": 6413,
      "Ġà¶ľà¶¶à¶©à·ı": 6414,
      "Ġà¶ļà·Ļà·Ģà·Ĵà¶±à·Ĭ": 6415,
      "à·ģà·Ĵà¶»à·Ĭ": 6416,
      "Ġle": 6417,
      "à¶ļà¶»à¶´à·Ķ": 6418,
      "Ġà·Ļà·Ħà·ıà¶¯": 6419,
      "Ġà¶ĳà·Ģà·Ĭà·Ģà·ı": 6420,
      "à¶ħà¶±à·Ĵà·Ģà·ı": 6421,
      "Ġà¶¸à·ıà¶»à·Ķà·Ģ": 6422,
      "Ġà·Ģà·Ĳà¶©à·Ĵà·Ħà·Ĵ": 6423,
      "Ġà¶ļà¶«à·Ĭà¶©à·ıà¶ºà¶¸à¶§": 6424,
      "à¶§à·Ķà·Ģà¶ļà·Ĭ": 6425,
      "à¶½à·ıà·ĥà·Ĭ": 6426,
      "Ġà¶ħà¶©à·Ķà¶ºà·Ĵ": 6427,
      "Ġà¶ļà·ıà¶¸à¶»à¶ºà·ļ": 6428,
      "à¶¸à·Ŀà¶©à¶ºà·ı": 6429,
      "Ġà·Ģà·ıà·Ħà¶±à¶º": 6430,
      "Ġà¶ľà¶¸à¶§": 6431,
      "Ġà¶ļà·ıà¶»à¶«à¶º": 6432,
      "Ġà¶ľà¶±à·Ĭà¶±à·Ģà¶¯": 6433,
      "Ġà¶¢à·ľà¶¶à·Ĭ": 6434,
      "Ġà·ĥà·ıà¶ļà·Ĭà·Ĥà·Ĵà¶ºà¶ļà·Ĭ": 6435,
      "Ġà¶¶à·Ļà·ı": 6436,
      "Ġà¶łà·Ĳà¶´à·ĵ": 6437,
      "à·ĥà¶Ĥà¶ľ": 6438,
      "à¶Ńà¶»à·ı": 6439,
      "à¶ļà·Ķà¶±à·Ķ": 6440,
      "Ġà·ĥà¶±à·Ĭà¶±à·Ĵà·Ģà·ļà¶¯": 6441,
      "Ġà¶»à·Ħà·ĥà·Ĵà¶ľà¶Ń": 6442,
      "Ġà¶¸à¶ľà·ļà¶¸": 6443,
      "23": 6444,
      "Ġà¶»à·ĥà·Ĭ": 6445,
      "à¶ļà·Ĭà·Ĥà¶«à·Ĵà¶ļ": 6446,
      "à¶ħà¶±à·Ĵà·Ģà·ıà¶»à·Ĭà¶ºà¶ºà·Ļà¶±à·Ĭà¶¸": 6447,
      "Ġà¶¸à¶§à·Ĭà¶§à¶¸à·ļ": 6448,
      "Ġà¶ļà·ıà¶ľà·ļ": 6449,
      "Ġà¶ħà¶»à¶ļ": 6450,
      "Ġà¶±à·ıà¶¯": 6451,
      "Ġà¶ľà·ľà¶±": 6452,
      "Ġan": 6453,
      "Ġà·Ģà·Ļà¶±à·Ĭà¶±à·ĳ": 6454,
      "à¶»à¶¢": 6455,
      "à¶¶à·Ĳà·Ħà·Ĳ": 6456,
      "à¶Ńà·ıà¶»": 6457,
      "Ġà¶¸à¶Ńà¶ļà¶ºà¶±à·Ĭ": 6458,
      "à·ĥà·ĳ": 6459,
      "Ġà¶¢à·ıà¶Ńà·Ĵà¶ºà·ļ": 6460,
      "à¶Ĵà¶ļà·ı": 6461,
      "Ġà¶ļà¶»à·Ĭà¶¸à·ıà¶±à·Ĭà¶Ń": 6462,
      "Ġà¶´à·Ĵà¶»à·Ĵà¶½à·ı": 6463,
      "à¶¶à·ľà·Ħà·Ŀ": 6464,
      "Ġà¶ĩà·Ħà·Ĳà¶»": 6465,
      "à¶Ńà¶¸à·Ĭ": 6466,
      "à¶ºà·Ĵà¶©à·Ĭ": 6467,
      "Ġà¶ľà·Ģà·ļà·ģ": 6468,
      "ĠCIA": 6469,
      "Ġà¶¸à¶»à¶«à¶ºà¶§": 6470,
      "à¶ļà·ħ": 6471,
      "ject": 6472,
      "HFFFF": 6473,
      "Ġà¶Ńà¶Ńà·Ĭà¶´à¶»à¶ºà¶ļà·Ĭ": 6474,
      "\"âĢį": 6475,
      "Ġà·Ħà·Ĳà¶¸à·Ŀà·Ģà¶¸": 6476,
      "Ġà¶¸à·ıà¶»à·Ĭà¶ľà¶ºà¶ļà·Ĭ": 6477,
      "Ġà·Ħà·Ļà¶½à·Ĵà¶ļà·ľ": 6478,
      "à¶¶à·Ļà¶±à·Ĭ": 6479,
      "Ġà·Ĥà·Ĵ": 6480,
      "à¶»à·Ķà¶¸à¶ļà·Ĭ": 6481,
      "Ġà¶´à¶¯à·Ĭà¶°à¶Ńà·Ĵ": 6482,
      "à·ĥà·Ĵà¶ºà·ıà·Ģ": 6483,
      "à¶¸à·ıà¶±à¶º": 6484,
      "Ġà¶»à·Ļà¶¯à·Ĭà¶¯": 6485,
      "Ġà¶¯à·Ļà¶ļà¶ļà·Ĵà¶±à·Ĭ": 6486,
      "Ġaction": 6487,
      "Ġà·ĥà·Ĵà¶Ńà·Ķà·Ģà·Ĵ": 6488,
      "Ġà¶ĭà·Ģ": 6489,
      "à·Ģà·Ķà¶½": 6490,
      "Ġà·Ģà·ģà¶ºà·Ļà¶±à·Ĭà¶¸": 6491,
      "Ġà¶Ķà¶ļà·Ĭà¶ļà·ľà¶§à¶¸": 6492,
      "à¶¸à·Ħà·ı": 6493,
      "Ġà¶¶à¶½à¶´à¶±à·Ĭ": 6494,
      "Ġà¶´à·Ĵà¶§à·ĥà¶ļà·Ĭ": 6495,
      "à·ĥà¶¸à·ı": 6496,
      "HFFFFFF": 6497,
      "à¶¢à¶±à·ıà¶°à·Ĵà¶´à¶Ńà·Ĵ": 6498,
      "à¶ľà·Ĭà·ĥà·Ĭ": 6499,
      "à¶ĳà·Ħà·Ļà¶¸à¶ºà·Ĵ": 6500,
      "à·Ļà¶ļà·Ĭà·Ģ": 6501,
      "Ġà¶ĳà¶ļà¶±à·ļ": 6502,
      "Ġà¶¸à¶±à¶¸à·ı": 6503,
      "Ġà¶Ńà·Ĵà·ĥà·Ĭà·ĥà·Ļà¶¸": 6504,
      "à¶ĭà¶Ńà·Ĭ": 6505,
      "Ġà¶ħà¶±à·Ģ": 6506,
      "up": 6507,
      "à·ľà¶´à·Ĭ": 6508,
      "à¶Ńà·Ķà·Ģà¶ļà·Ĭà¶ļà·Ķà·Ģ": 6509,
      "à·Ģà¶¸à·Ĭ": 6510,
      "Ġà¶½à·ĸà¶Ń": 6511,
      "à¶»à·ļà¶§": 6512,
      "Ġà¶½à·ĸà¶Ńà¶»à·Ĭ": 6513,
      "Ġà¶īà¶¯à·Ĵà¶»à·Ĵà¶ºà·ļ": 6514,
      "Ġà¶ľà¶Ńà·Ĭà¶Ńà·Ķ": 6515,
      "Ġà¶Ńà·Ĵà¶¶à·Ĭà¶¶à·ľà¶Ńà·Ĭ": 6516,
      "Ġà¶´à¶»à·Ĭà¶ºà·ļ": 6517,
      "Ġà¶Ńà·Ķà¶½à·Ĵà¶±à·Ĭ": 6518,
      "Ġà¶¶à·Ŀà¶Ń": 6519,
      "Ġà¶¸à·Ķà¶±à¶ľà·Ĳ": 6520,
      "à·ģà¶º": 6521,
      "Ġà¶©à·ı": 6522,
      "-à¶Ķà¶ºà·ıà¶§": 6523,
      "âĢįà¶»à·Ĵà¶ºà·ıà¶ļà·ıà¶»": 6524,
      "Ġà·Ģà·ıà¶»à·Ĭà¶®": 6525,
      "Ġà¶ļà¶»à·ıà¶§": 6526,
      "à¶½à¶±à·Ĭà¶Ń": 6527,
      "Ġà¶ħà¶Ńà·Ĭà·Ģà·Ĳ": 6528,
      "Ġà¶ķà¶±à·Ģà¶§": 6529,
      "Ġà¶Ńà·Ĵà¶ºà·ļà¶¯": 6530,
      "Ġà¶¸à·Ħà¶Ńà·Ĭà¶Ńà¶º": 6531,
      "ter": 6532,
      "Ġà¶ºà¶§à·Ĵà¶±à·Ĭ": 6533,
      "à¶ħà¶Ĥ": 6534,
      "Ġà¶ļà·Ķà·ĥà·Ĭà·ĥ": 6535,
      "Ġà¶±à¶»à¶ļà·Ĭ": 6536,
      "à¶´à·Ĭà¶§à·Ĵ": 6537,
      "à¶ĳà·Ħà·Ļà¶Ńà·Ĭ": 6538,
      "Ġà·ĥà·Ħà·ıà¶º": 6539,
      "Ġà¶Ľà·ıà¶±à·Ĭ": 6540,
      "âĢįà¶»à¶®": 6541,
      "âĢįà¶ºà·Ĥà·Ĭà¶§à·Ĵà¶ļ": 6542,
      "Ġà¶Ĩà¶¯à¶»à¶ºà·Ĵ": 6543,
      "Ġà·ĥà¶¸à·ĵà¶´": 6544,
      "Ġà¶»à·Ĳà¶±à·Ĭ": 6545,
      "à¶¯à·Ļà·Ģà·Ĵà¶ºà¶±à·Ĭà¶§": 6546,
      "Ġà¶½à¶¶à¶±": 6547,
      "Ġà¶ļà¶»à¶±à·Ģà·ıà¶¯": 6548,
      "Ġà·Ģà·Ĵà¶Ńà¶»à¶¯": 6549,
      "Ġà¶´à·ıà¶»à·Ĭ": 6550,
      "Ġà¶ºà¶¯à·Ĭà¶¯à·Ĵ": 6551,
      "Ġà¶Ĵà·Ģà¶ľà·ļ": 6552,
      "Ġà¶ºà¶Ĥ": 6553,
      "Ġà¶´à¶±à·Ĭà¶Ńà·Ĵà¶º": 6554,
      "Ġà¶Ķà¶ºà·ıà¶§à¶ºà·Ĵ": 6555,
      "à·ĥà·Ĭà¶Ńà·Ĵà¶¯": 6556,
      "à·ĥà·Ĵà¶ºà¶½à·Ķ": 6557,
      "à¶´à¶¯à·Ĵ": 6558,
      "à·Ħà¶¸à·Ķà·Ģ": 6559,
      "Ġà·Ģà¶ºà·Ĵà¶±à·Ĭ": 6560,
      "Ġà¶¯à¶»à·ı": 6561,
      "Ġà¶Ķà¶½à·Ķà·Ģà¶§": 6562,
      "à·Ģà·ıà¶±à·Ĭ": 6563,
      "à¶¸à·ıà·ĥà·Ĭà¶§à¶»à·Ĭ": 6564,
      "Ġà·ĥà¶Ĥà¶ľà·ĵà¶Ń": 6565,
      "Ġà¶ľà·ıà¶±à¶ļà¶§": 6566,
      "Ġà¶ļà¶¯à·Ķ": 6567,
      "à¶Ńà·Ĭà¶¸à¶ļà¶ºà·Ĵ": 6568,
      "Ġà·ĥà·Ĭà·Ģà·ıà¶¸à·Ĵ": 6569,
      "Ġà·Ħà·Ķà·Ģà¶¸à·ıà¶»à·Ķ": 6570,
      "âĢįà¶»à·ĵà¶±à·Ĭ": 6571,
      "Ġà¶¢à¶±à·ļ": 6572,
      "Ġà·ĥà·Ĳà¶´à¶ºà·Ķ": 6573,
      "Ġà¶ļà·Ħ": 6574,
      "Ġà·Ģà·Ĳà·ĥà·Ĵà¶º": 6575,
      "à¶±à·ıà·Ģà¶»à·Ķà¶±à·Ĵ": 6576,
      "Ġà¶¸à·Ĵà¶§": 6577,
      "Ġà¶´à·Ĳà·Ħà·Ĳà¶»à¶ľà·Ļà¶±": 6578,
      "à¶ħà¶ºà·Ĵà¶ºà·ļ": 6579,
      "Ġà¶´à·Ģà·Ķà¶½à¶§": 6580,
      "à¶ļà·ĵà¶¸à·Ĭ": 6581,
      "Ġà¶¶à·Ĵà·ĥà·Ĭà¶±à·ĥà·Ĭ": 6582,
      "à¶Ķà·Ħà·ļà¶§": 6583,
      "Ġà¶Ķà¶ºà·ıà¶ľà·Ŀ": 6584,
      "Ġmon": 6585,
      "Ġà¶´à·Ķà¶¯à·Ĭà¶ľà¶½à¶ºà·ı": 6586,
      "à¶ĳà·Ħà·ļ": 6587,
      "Ġà·ĥà·Ļà¶¶": 6588,
      "à¶¶à·Ķà¶±à·Ĭ": 6589,
      "Ġà¶¯à·Ļà¶´à·ıà¶»à¶ļà·Ĭ": 6590,
      "Ġà¶¯à·Ķà¶»à¶ļà·Ĭ": 6591,
      "Ġà¶Ńà·ļà¶»à·Ķà¶«à·ıà¶¯": 6592,
      "à¶§à·Ĳ": 6593,
      "Ġà·ĥà·ĺ": 6594,
      "Ġà¶¸à·ıà·Ģà¶Ńà·Ĭ": 6595,
      "à¶ħà·Ģà¶Ĥà¶ļ": 6596,
      "Ġà·Ģà·ĵà¶¸à¶ļà·Ĭ": 6597,
      "Ġà¶±à·ľà¶¯": 6598,
      "Ġà·Ģà·Ĳà·ĥà·Ĵ": 6599,
      "à·ĥà·ıà¶¯à¶»à¶ºà·Ļà¶±à·Ĭ": 6600,
      "Ġà¶ļà·Ļà¶½à·Ĵà¶±à·Ĭ": 6601,
      "Ġà¶ľà¶±à·Ĵà¶ºà·Ĵ": 6602,
      "Ġà¶Ńà·ıà·Ģ": 6603,
      "Ġà·Ģà·Ĵà¶¸à¶»à·Ĭà·ģ": 6604,
      "à¶¸à·Ķà¶±à·Ĭ": 6605,
      "Ġà·Ģà·Ĳà¶»à¶¯à·Ĵà¶ºà¶§": 6606,
      "à¶Ĩà¶ºà·ļ": 6607,
      "à·Ģà·Ķà¶«": 6608,
      "Ġà¶ħà·ĥà¶»à¶«": 6609,
      "Ġà¶Ķà·Ħà·Ķà¶Ńà·Ĭ": 6610,
      "ick": 6611,
      "à¶´à·ĵà¶§à¶»à·Ĭ": 6612,
      "Ġà·Ģà·Ĵà¶ļà·Ķà¶«à¶±à·Ĭà¶±": 6613,
      "à·Ģà·Ĵà¶ºà·ļ": 6614,
      "Ġà·ĥà·Ĵà¶»à·Ķà¶»": 6615,
      "Ġà¶ļà·ľà¶ļ": 6616,
      "à·ĥà·Ĭà·ĥà·ı": 6617,
      "à¶½à·Ĵà¶¸à¶Ńà·Ĭ": 6618,
      "Ġà·ĥà¶½à¶ļà·Ķà¶«à¶ļà·Ĭ": 6619,
      "à·Ħà·ıà·ĥà¶º": 6620,
      "à¶±à·Ļà¶Ńà·Ĭ": 6621,
      "Ġà¶Ńà·ļà¶»à·Ķà¶±à·ļ": 6622,
      "à¶´à·Ĵà¶ºà·Ŀ": 6623,
      "Ġà¶īà¶¯à¶ľà¶±à·Ĭà¶±": 6624,
      "Ġà¶±à·ıà¶±": 6625,
      "à¶¸à·ıà¶ļà·ıà¶»": 6626,
      "à¶»à·Ĵà¶Ńà·Ĭ": 6627,
      "Ġà¶ºà¶¸à·Ķà¶¯": 6628,
      "à·Ĳà¶±à·ĵ": 6629,
      "âĢįà¶»à·Ĵà¶ļà·Ĭ": 6630,
      "Ġà·ĥà¶Ĥà·ĥà·Ĭ": 6631,
      "Ġà¶¸à¶»à¶«à·Ģà·ı": 6632,
      "âĢįà¶ºà·Ļ": 6633,
      "Ġà¶¸à·ıà¶§à·Ĵà¶±à·Ĭ": 6634,
      "Ġà·ħà¶ľ": 6635,
      "Ġà·Ģà¶±à·Ĭ": 6636,
      "Ġà·Ħà·Ŀà¶¸à·Ĭà·ĥà·Ĭ": 6637,
      "nu": 6638,
      "à¶»à·Ķà¶ºà·Ĵ": 6639,
      "Ġà¶´à¶»à·Ĵà¶¯à·Ĵ": 6640,
      "à¶Ķà¶ºà·ıà¶¸": 6641,
      "à¶Ķà¶¶à¶½à·ı": 6642,
      "Ġà¶ľà·Ĳà·Ħà·Ĳà¶±": 6643,
      "Ġà¶ľà·Ħà¶±à·Ĭà¶±à·ļ": 6644,
      "à¶ľà·Ŀà¶¸": 6645,
      "Ġà¶ĩà¶¶à·Ĭ": 6646,
      "Ġà¶´à·Ļà¶±à·Ļà¶±": 6647,
      "Ġà¶ħà·Ģà·Ķà¶»à·Ķà¶¯à·Ĭà¶¯à·ļ": 6648,
      "Ġà¶½à·ļà·ĥà·Ĵà¶ºà·Ĵ": 6649,
      "à·ĥà¶Ńà·Ĭà¶Ńà¶ļà·Ĵà¶±à·Ĭà¶¸": 6650,
      "Ġà¶Ńà·ıà¶Ńà·Ĭà¶Ńà¶ľà·Ļ": 6651,
      "Ġà¶ļà·Ĭà¶½à·Ĵà¶ļà·Ĭ": 6652,
      "Ġà¶´à·ľà¶»à·ľà¶±à·Ĭà¶¯à·Ķà·Ģ": 6653,
      "Ġà·ħà¶¸à¶ºà·Ĵà¶±à·Ĭà¶§": 6654,
      "à·ĺà¶¯": 6655,
      "Ġà¶Ńà·Ĳà¶¶": 6656,
      "Ġà·Ħà·Ĵà¶¸à·Ĵà¶ļ": 6657,
      "Ġà¶ļà·Ļà¶±à·Ļà¶ļà·Ĭà¶¸": 6658,
      "Ġà¶ºà·ıà·ħà·Ķà·Ģà¶±à·Ĭ": 6659,
      "Ġà¶©à·Ĵà¶»à·Ļà¶ļà·Ĭà¶§à¶»à·Ĵà¶º": 6660,
      "Ġà·Ģà·Ļà¶±à¶ļà¶½à·Ĭ": 6661,
      "Ġà·Ħà·Ĳà¶¯à·Ĵ": 6662,
      "Ġà¶±à·Ļà·Ģà·Ĵ": 6663,
      "Ġà¶¯à·ĸà¶´à¶Ń": 6664,
      "Ġà¶¯à·ıà¶±à·Ĭà¶±à·ļ": 6665,
      "ant": 6666,
      "Ġà¶»à·Ļà¶©à·Ĭ": 6667,
      "à¶¸à·ľà¶©": 6668,
      "à·Ĥà·Ĭà¶§à¶ºà·Ĵ": 6669,
      "own": 6670,
      "Ġà¶ľà·Ĳà·Ħà·Ķà·Ģà·ļ": 6671,
      "à¶´à·Ĵà¶½à·Ĵ": 6672,
      "Ġà¶´à·ıà¶»à·Ļ": 6673,
      "Ġwill": 6674,
      "Ġà¶ļà¶´à·ı": 6675,
      "Ġà·Ħà·Ĳà·ĥà·Ĵ": 6676,
      "à¶ľà·ıà¶±": 6677,
      "Ġà¶´à¶»à·ĵà¶ļà·Ĭà·Ĥà¶«à¶ºà¶ļà·Ĭ": 6678,
      "à¶¯à·ĵà¶¸à¶ļà·Ĭ": 6679,
      "à·Ķà¶Ńà·Ĭà¶¸": 6680,
      "Ġà¶ĩà¶³à¶ľà·Ļà¶±": 6681,
      "à·Ķà¶±": 6682,
      "Ġà¶´à¶Ĥ": 6683,
      "Ġà¶īà¶ľà·Ĳà¶±à·Ĭà¶±": 6684,
      "à·Ĳà¶±à¶§à·Ĭ": 6685,
      "Ġà¶īà¶Ńà·ıà¶¸à¶Ńà·Ĭ": 6686,
      "Ġà·Ħà·Ĳà¶¸à¶¯à·ı": 6687,
      "Ġà¶ļà¶§à·Ģà·Ħ": 6688,
      "à¶¢à·ļà¶ļà·Ĭ": 6689,
      "Ġà·ĥà¶ļà·ĥà·Ĭ": 6690,
      "Ġcount": 6691,
      "Ġà·Ħà¶»à·Ĭà¶½à·Ĵ": 6692,
      "Ġà·ĥà·ĵà¶Ńà¶½": 6693,
      "à¶±à·Ĵà¶±à·Ĭ": 6694,
      "Ġà¶¸à·ľà¶±à·Ĭà¶»à·Ŀ": 6695,
      "âĢįà¶ºà·ļ": 6696,
      "Ġà·Ħà·ĥà·Ķ": 6697,
      "à¶ĳà·Ħà·Ĵ": 6698,
      "Ġà¶±à·ıà¶§à·Ĭ": 6699,
      "Ġà¶ĳà¶ļà¶ļà·Ĭà·Ģà¶Ńà·Ĭ": 6700,
      "à¶ļà¶»à¶¯à¶»": 6701,
      "à·Ģà·Ĭà·Ģà·ľà¶Ńà·Ĭ": 6702,
      "à¶Ńà·Ĭà·Ģà¶ºà¶§": 6703,
      "Ġà¶ĩà¶³à·Ķà¶¸à¶ļà·Ĭ": 6704,
      "Ġà·Ģà·Ĵà·Ģà·ļà¶ļà¶ºà¶ļà·Ĭ": 6705,
      "Ġà¶ľà¶«à·Ķà¶¯à·Ļà¶±à·Ķ": 6706,
      "Ġà¶¶à·ľà¶»à·Ķà·Ģà¶§": 6707,
      "Ġà¶īà·Ģà¶Ń": 6708,
      "à¶ħà¶¸à·Ĭà¶¸": 6709,
      "Ġà·Ģà·Ķà·Ģà¶¸à¶±à·ı": 6710,
      "Ġà·Ģà·ĵà¶¸à·ļ": 6711,
      "à¶īà¶³": 6712,
      "à¶Ńà·ıà¶Ńà·Ĭà¶Ńà·Ļ": 6713,
      "à·Ĳà¶±à·ı": 6714,
      "à·Ģà·Ĵà¶½à·Ĭà¶½": 6715,
      "mb": 6716,
      "Ġà¶ħà¶ºà¶ľà·Ļà¶±à·Ĭ": 6717,
      "Ġà¶ºà¶±à¶ļà¶¸à·Ĭ": 6718,
      "ave": 6719,
      "Ġà¶¯à·ĵà¶´à¶±à·Ĭ": 6720,
      "Ġà¶´à·Ĳà¶±à·Ĭà¶±": 6721,
      "Ġà¶Ĵà¶ļà¶±à¶¸à·Ĭ": 6722,
      "Ġà¶´à·ıà¶½à¶ļà¶º": 6723,
      "à¶½à·Ĵà·Ģà¶»à·Ĭ": 6724,
      "à¶ºà¶±à·Ĭà¶ľà·ļ": 6725,
      "Ġà¶ļà·Ĳà¶¸à·Ĳà¶Ńà·Ĭà¶Ńà¶ļà·Ĭ": 6726,
      "Ġà¶±à·Ĳà¶±à·ļ": 6727,
      "à¶±à·Ĭà·Ģà·ı": 6728,
      "à¶¯à·Ĭà¶¯à·ı": 6729,
      "Ġà·Ħà¶»à·Ĵà¶ºà¶ºà·Ĵ": 6730,
      "Ġwor": 6731,
      "(à¶»à·Ĭ": 6732,
      "Ġà¶¥": 6733,
      "Ġà¶¶à·Ĵà¶¸à·Ĭ": 6734,
      "Ġà¶ħà¶½à·Ĭà¶½à¶±à·Ĭ": 6735,
      "Ġà·Ģà·Ĵà¶»à·Ŀà¶°": 6736,
      "à¶»à·ıà¶½à·Ĭ": 6737,
      "à·ĥà·Ĳà¶½": 6738,
      "'%": 6739,
      "Ġà¶ļà·Ĳà¶©": 6740,
      "à·Ĵà¶¸": 6741,
      "à·Ģà¶ł": 6742,
      "âĢįà¶»à¶ºà·Ŀà¶¢à¶±à·Ģà¶Ńà·Ĭ": 6743,
      "âĢįà¶¸à·ļ": 6744,
      "Ġà¶½à·Ĵà¶ºà·Ķà¶¸à·Ĭ": 6745,
      "à·ıà·Ģà¶±à·Ĭ": 6746,
      "Ġà·Ģà·Ļà·ĥà·Ĭ": 6747,
      "Ġà¶´à·Ĵà·Ħ": 6748,
      "Ġà¶ļà¶©à·Ķà·Ģ": 6749,
      "Ġà¶ļà¶»à¶Ńà·Ĭ": 6750,
      "Ġà¶¸à·ıà·ĥà·Ĭà¶§à¶»à·Ĭ": 6751,
      "à·ĥà¶¸à·Ĭà¶¶": 6752,
      "Ġà¶¯à·Ĳà¶±à·Ļà¶±à·Ĭà¶±": 6753,
      "à¶¶à·ıà¶°": 6754,
      "Ġà¶¯à·ľà¶»à·Ģà¶½à·Ĭ": 6755,
      "Ġà¶¶à·Ĳà¶½à·Ķà·Ģà·ļ": 6756,
      "à·Ħà¶Ńà¶»": 6757,
      "Ġà¶»à·Ķà¶°à·Ĵ": 6758,
      "Ġà·ĥà·Ĳà·ħ": 6759,
      "Ġà¶©à·ļà·Ģà·Ĵà¶©à·Ĭ": 6760,
      "à·ĥà·Ķà¶±à·Ĭà·Ģ": 6761,
      "Ġà¶ħà¶°à·Ĵà¶ļ": 6762,
      "Ġà¶¶à·Ŀà¶½": 6763,
      "Ġà¶´à·Ķà·Ħà·Ķà¶«à·Ķà·Ģ": 6764,
      "Ġà·ĥà¶Ńà·ı": 6765,
      "Ġà·Ģà¶½à·Ĵ": 6766,
      "Ġà¶ħà¶½à·Ĭà¶½à·ıà¶ľà·Ļà¶±": 6767,
      "à·Ħà·ľà¶»": 6768,
      "Ġà¶ľà¶±à·Ĭà¶±à¶ºà·Ĵ": 6769,
      "à¶ħà¶±à·Ĭ": 6770,
      "Ġà¶±à·Ĳà¶ľà·Ļà¶±à·Ħà·Ĵà¶»": 6771,
      "Ġà·Ģà·Ĳà¶§à·Ļà¶±": 6772,
      "\"à¶¸à¶ľà·ļ": 6773,
      "à¶·à·ĸ": 6774,
      "à¶Ńà·Ĵà¶ºà¶±à·Ĭà¶±": 6775,
      "Ġà¶«à¶ºà¶ºà·Ĵ": 6776,
      "Ġà·Ħà·Ĳà¶Ĥà¶ľà·Ļà¶±à·Ĭà¶±": 6777,
      "Ġà¶´à¶¯à¶ļà·Ĭà¶ļ": 6778,
      "Ġà¶ļà·ħà¶¸": 6779,
      "Ġà¶¸à·Ĵà¶½à¶¯à·ĵ": 6780,
      "Ġà¶±à·Ĳà·Ģà¶Ńà·Ĵà¶½à·ı": 6781,
      "Ġà¶¶à·Ĳà¶Ĥà¶ļà·Ķ": 6782,
      "Ġà·Ģà·Ļà¶¶à·Ĭ": 6783,
      "à¶ļà¶»à¶ºà·Ĵ": 6784,
      "ines": 6785,
      "à·Ħà·ľà¶³à¶§": 6786,
      "âĢįà¶ľà¶º": 6787,
      "Ġà·Ģà·ļà¶¯à·Ĵ": 6788,
      "à·Ħà·ľà¶¯à¶§": 6789,
      "Ġà¶´à·Ĵà¶»à·Ĵà·ĥà¶ļà·Ĭ": 6790,
      "à·Ķà¶Ńà·Ķ": 6791,
      "Ġà¶±à·Ĵà·ħà¶°à·ıà¶»": 6792,
      "Ġà·Ģà¶±à·ļà¶±à·ļ": 6793,
      "à¶ºà·Ļà¶ļà·Ķ": 6794,
      "Ġà¶»à¶¢à¶º": 6795,
      "Ġà¶±à·Ĵà¶ºà·Ŀà¶¢à·Ĵà¶Ńà¶ºà·Ļà¶ļà·Ĭ": 6796,
      "Ġà¶»à·ļà·ĥà·Ĭ": 6797,
      "âĢįà¶´": 6798,
      "à¶½à·Ĭà·Ģà·Ĵà¶½à·Ĭ": 6799,
      "Ġà¶±à·ľà·Ħà·Ĳà¶ļà·Ĵà¶ºà·Ĵ": 6800,
      "Ġà¶ħà·Ģà·ĥà·Ĭà¶Ńà·ıà·Ģ": 6801,
      "Ġà¶Ĩà¶ºà·Ķà¶°à¶ºà¶ļà·Ĭ": 6802,
      "à¶½à·Ģà·Ĭ": 6803,
      "Ġlabel": 6804,
      "Ġà·Ħà·Ŀà·Ģà·Ĭ": 6805,
      "à¶´à¶Ńà¶ļà·Ĭ": 6806,
      "Ġà¶±à·Ĵà¶ļà·Ķà¶Ńà·Ĭ": 6807,
      "Ġpl": 6808,
      "à¶¯à·ıà¶ľà¶±à·Ĭà¶±": 6809,
      "Ġà¶ķà¶±à¶±à¶¸à·Ĭ": 6810,
      "à¶¸à·Ļà·Ħà·Ļà¶±à·Ĭ": 6811,
      "à·Ģà·Ľà¶¯à·Ĭ": 6812,
      "à¶¸à·Ĵà¶ºà·Ļà¶ļà·Ĭ": 6813,
      "à¶łà·ıà¶»à·Ĭà¶½à·Ĵ": 6814,
      "à·ĥà¶±à·Ĭà¶§": 6815,
      "à¶ĩà¶±à·ı": 6816,
      "Ġà·Ģà·Ħà·ıà¶¸": 6817,
      "Ġà¶ħà·Ģà·ĥà·Ĭà¶®à·ı": 6818,
      "Ġà¶´à·ıà¶§à¶ºà·Ĵ": 6819,
      "à¶½à¶±à·Ģà·ı": 6820,
      "à¶īà¶Ńà·ı": 6821,
      "à¶½à¶ºà·Ĵà¶§à·Ĭ": 6822,
      "Ġà¶±à·Ĳà¶Łà·Ĵ": 6823,
      "Ġà·ĥà¶Ĥà¶Ľà·Ĭ": 6824,
      "Ġà¶¶à·Ŀà¶¸à·Ĭà¶¶à¶º": 6825,
      "Ġà·ĥà·Ĵà¶¯": 6826,
      "Ġà¶ľà¶Ńà·Ĭà¶Ńà¶§": 6827,
      "Ġà¶»à¶«à·Ĭà¶©à·Ķ": 6828,
      "Ġà¶¥à·ı": 6829,
      "âĢįà¶ºà·ıà¶¢": 6830,
      "Ġà·Ģà·Ĵà·ģà·ı": 6831,
      "à·Ģà·Ĵà·ĥà·Ĭ": 6832,
      "Ġà¶±à·Ĵà·Ģà·Ĳà¶»à¶¯à·Ĵà¶ºà·Ĵ": 6833,
      "à¶Ĩà¶»à·Ĭ": 6834,
      "Ġà¶±à·Ĵà·Ĥà·Ĭà¶´à·ıà¶¯": 6835,
      "Ġà¶ºà·ıà¶Ńà·Ĭ": 6836,
      "Ġà·Ģà·Ĳà¶§à·Ķà¶±": 6837,
      "Ġà¶¶à·Ĳà¶Ĥà¶ļà·Ķà·Ģ": 6838,
      "ĠâĪĻâĪĻâĪĻčĊ": 6839,
      "Ġà¶ĳà¶ļà·Ĭà¶ļà·Ļà¶±": 6840,
      "Ġà¶Ĵà¶Ńà·Ĭà¶Ńà·Ķ": 6841,
      "à¶»à¶«à¶¸": 6842,
      "Ġà¶īà¶±à·Ĭà¶°à¶±": 6843,
      "à·Ģà·Ļà¶½à·ıà·Ģà¶§": 6844,
      "à¶ĳà¶ºà·ıà¶½à¶ľà·ļ": 6845,
      "Ġà¶ħà¶Ńà·ĵà¶Ńà¶º": 6846,
      "Ġà·ĥà¶Ńà·Ĵà¶ºà¶ļà·Ĭ": 6847,
      "Ġà¶¯à¶»à·ıà¶ľà¶±à·Ĭà¶±": 6848,
      "à¶´à¶¸à¶«": 6849,
      "Ġà·Ħà·Ĵà¶§à·Ĵà¶ºà¶±à¶¸à·Ĭ": 6850,
      "Ġà·Ģà·ĵà¶»à¶ºà·ı": 6851,
      "Ġà¶ĭà¶±à·Ĭà¶±à·Ļ": 6852,
      "à·Ģà·ıà¶¯à·Ĵà¶ºà·Ļà¶ļà·Ĭ": 6853,
      "Ġà¶¸à·ľà¶ļà·Ģà¶Ńà·Ĭ": 6854,
      "Ġà¶ļà·Ķà¶¸à¶ļà·Ĭ": 6855,
      "ck": 6856,
      "Ġà·Ħà¶»à·Ĵà¶±à·Ĭà¶±": 6857,
      "Ġà¶ħà¶»à¶ľà¶Ńà·Ĭà¶Ńà·ı": 6858,
      "à¶¯à·Ĵà¶ºà·ıà·Ģ": 6859,
      "à¶ļà¶»à·Ķà·Ģà·ı": 6860,
      "Ġà¶ħà·Ģà¶¶à·Ŀà¶°": 6861,
      "Âłà¶ķà¶±": 6862,
      "à·Ģà·ĵà¶»à·Ĭ": 6863,
      "à¶ĭà¶©à¶§": 6864,
      "à·ĥà·Ĭà¶ľà·ļ": 6865,
      "Ġà·Ģà·Ĵà·Ģà¶»": 6866,
      "Ġà¶ħà¶½à·Ĭà¶½à¶±à·Ģà·ı": 6867,
      "Ġà¶±à·ĵà¶Ńà·ĵ": 6868,
      "Ġà·Ģà·Ĵà¶¯à·Ķà¶½à·Ĵà¶º": 6869,
      "Ġà¶´à·Ĵà·ħà·Ĵà¶¶à¶³à·Ģ": 6870,
      "Ġà¶ļà·Ĵà¶ºà¶½à¶Ńà·Ĭ": 6871,
      "Ġà¶ĩà¶Ńà·Ĭ": 6872,
      "Ġsub": 6873,
      "Ġà¶ļà·ļà¶§à·Ĭ": 6874,
      "à¶ļà¶¸à·Ŀà¶±à·Ĭ": 6875,
      "à¶ħà¶±à·Ĵà¶ļà·Ĭ": 6876,
      "à·Ļà·ı": 6877,
      "à¶´à·Ĵà¶Ń": 6878,
      "Ġà¶©à¶ºà·Ĵ": 6879,
      "Ġà¶±à·ľà¶¯à·Ĳà¶±": 6880,
      "à¶ĳà¶ºà¶Ńà·Ĭ": 6881,
      "à¶ľà·ŀ": 6882,
      "Ġà¶ĭà·Ģà¶¸à¶±": 6883,
      "à¶»à·Ħ": 6884,
      "Ġà¶ĭà¶«à·ı": 6885,
      "à¶Ńà·Ķà·Ģà·ı": 6886,
      "à¶ºà¶±à·Ģ": 6887,
      "à·ĥà·Ĭà¶Ńà·ı": 6888,
      "Ġà¶Ĩà¶ºà¶Ńà¶±à¶º": 6889,
      "-a": 6890,
      "à·Ħà¶±à·ļ": 6891,
      "à¶©à·Ĭà·ĥà·Ĭ": 6892,
      "à¶©à·ıà¶ºà¶¸": 6893,
      "Ġbut": 6894,
      "Ġà¶ķà·Ģà·ı": 6895,
      "à·Ħà·Ŀà¶¸": 6896,
      "Ġà¶´à¶»à·Ĵà¶´": 6897,
      "Ġà¶ļà¶»à¶ľà¶Ńà·Ĭà¶Ń": 6898,
      "Ġà¶¸à·Ķà¶ļà·Ķà¶Ńà·Ĭà¶¸": 6899,
      "Ġà·Ģà·Ĳà¶¯à¶ľà¶Ńà·Ĭà¶¸": 6900,
      "à¶´à·ľà¶½à·Ĵà·ĥà·Ĵà¶º": 6901,
      "Ġà¶¶à·ľà¶¶à·Ĭ": 6902,
      "Ġà¶¸à·Ĵà¶±à·Ĵà·Ħà¶ļà·ļ": 6903,
      "Ġà¶´à¶»à·Ĵà·ĥà·Ĭà·ĥà¶¸à·Ĵà¶±à·Ĭ": 6904,
      "Ġà·Ħà·Ĵà¶Ńà¶±à·Ĭà¶±à·ĳ": 6905,
      "Ġà¶ľà¶«à·Ķà¶¯à·Ļà¶±à·Ķà·Ģà¶ļà·Ĭ": 6906,
      "Ġà¶´à·Ĳà¶»à¶«à·Ĵ": 6907,
      "à¶½à·Ķà¶±à·Ĭ": 6908,
      "Ġà¶»à·ĳà¶¸": 6909,
      "à¶īà¶½à¶ļà·Ĭà¶ļ": 6910,
      "à¶´à¶ºà¶ļà·Ĵà¶±à·Ĭ": 6911,
      "à·ħà¶ľ": 6912,
      "Ġà·Ģà·Ĵà¶°à·Ĵà¶ºà¶§": 6913,
      "Ġà·Ħà¶¯à¶½": 6914,
      "Ġà¶¶à¶©à¶ľà·Ĵà¶±à·Ĵ": 6915,
      "à¶Ńà·ļà¶»": 6916,
      "à·Ģà·Ļà·Ĭ": 6917,
      "à·Ģà¶±à·Ĵ": 6918,
      "à¶»à·Ķà¶Ńà·Ĭ": 6919,
      "à¶Ķà¶ºà·ıà¶½à¶ľà·Ļ": 6920,
      "Ġà·Ħà·Ĳà¶Łà·ĵà¶¸à·Ĭ": 6921,
      "Ġà¶¸à·Ĳà¶ļà·Ĭà·ĥà·Ĭ": 6922,
      "à·Ģà¶½à¶¸à·Ĭ": 6923,
      "à¶¶à·Ŀà¶¸à·Ĭà¶¶": 6924,
      "à¶ļà·ıà·ģà¶º": 6925,
      "à¶·à·ıà¶´à¶Ńà·Ĵ": 6926,
      "à¶ĩà¶½": 6927,
      "Ġà·ĥà¶¸à·ıà¶ľà¶¸à·ļ": 6928,
      "ico": 6929,
      "à¶§à·Ĵà¶ºà¶±à·Ĭ": 6930,
      "Ġà¶ļà·Ķà¶¸à·ıà¶»": 6931,
      "Ġà¶´à·Ĵà·Ħà·Ĵà¶§": 6932,
      "KDE": 6933,
      "Ġà¶īà¶±à·Ĭà¶±à¶ºà·Ĵ": 6934,
      "à¶»à¶Ńà·Ķ": 6935,
      "à¶ľà¶¸à·Ĭ": 6936,
      "à¶»à·Ĭà¶¸": 6937,
      "Ġà¶ļà·Ļà¶½à·Ĭà¶½à¶§": 6938,
      "Ġà¶ĩà¶¸à¶Ńà·Ķà¶¸": 6939,
      "Ġà·Ħà·Ĳà¶Łà·ĵà¶¸à¶ļà·Ĭ": 6940,
      "Ġà¶ĭà¶¸à¶Ĥ": 6941,
      "Ġà¶Īà¶Ń": 6942,
      "Ġà·Ģà·Ĵà¶½à·ı": 6943,
      "Ġà·Ģà¶½à¶ļà·Ĭ": 6944,
      "Ġà¶ħà¶´à¶»à·ıà¶°à¶ºà¶ļà·Ĭ": 6945,
      "à·Ļà¶±à·ļ": 6946,
      "à·ľà¶ºà·Ĵà¶©à·Ĭ": 6947,
      "Ġà¶ĩà¶Ńà·Ķà¶½à¶Ńà·Ĭ": 6948,
      "à¶´à·Ķà¶¯à·Ķà¶¸": 6949,
      "tur": 6950,
      "Ġà¶¸à·Ĭà¶¸à·Ĭ": 6951,
      "Ġà¶ĳà·Ļ": 6952,
      "à¶ļà·ıà¶±à·Ĭà¶Ńà·Ĭ": 6953,
      "à·ĥà·Ĭà·ĥà·Ķà·Ģà·ı": 6954,
      "Ġstat": 6955,
      "à¶Ĩà¶¯à¶»à¶º": 6956,
      "Ġà¶¶à¶ºà·Ĵà¶ļà·Ĭ": 6957,
      "Ġà¶ļà¶±à·Ĭà¶±à·ļ": 6958,
      "à·Ħà·ıà¶±à·Ĭ": 6959,
      "Ġà·ĥà·ľà·Ħà·ľ": 6960,
      "à·Ĩà·ĵà¶½à·Ĭà¶©à·Ĭ": 6961,
      "à¶§à¶¸à¶Ńà·Ĭ": 6962,
      "à¶Ńà¶±à·Ĵ": 6963,
      "Ġà¶ľà·Ĵà¶ºà¶Ńà·Ĭ": 6964,
      "Ġà¶ĩà·Ħà·Ķà·Ģà·Ļ": 6965,
      "Ġà·Ģà·Ļà·ħà¶³": 6966,
      "Ġà¶¶à¶©à¶ľà·Ĵ": 6967,
      "à¶Ńà·Ĭà¶Ńà·Ķà·Ģà·Ļà¶±à·Ĭ": 6968,
      "à·ĥà·Ķà¶»à·Ķ": 6969,
      "Ġà¶´à·ĥà·Ķà¶´à·ĥ": 6970,
      "âĢįà¶©": 6971,
      "Ġà·Ģà·Ĵà·ģà·Ĵà·Ĥà·Ĭà¶§": 6972,
      "à¶¢à¶½à·ĵ": 6973,
      "à¶Ńà·Ĭà¶Ńà·Ķà·Ģà·ļ": 6974,
      "Ġà¶ħà¶»à·Ĭà¶®": 6975,
      "Ġà¶ļà·Ģà¶¯à·ıà·Ħà¶»à·Ĵ": 6976,
      "Ġà¶±à¶©": 6977,
      "âĢįà¶»à·Ĵà¶ļ": 6978,
      "Ġà¶±à·ıà¶¸": 6979,
      "Ġà¶ħà¶¸à¶Ńà¶±à·Ĭà¶±": 6980,
      "Ġà·ĥà¶·": 6981,
      "à·ħà¶ľà¶§": 6982,
      "Ġà¶¯à·ļà¶´à¶½": 6983,
      "à·ļà¶Ńà·Ĭ": 6984,
      "à¶ļà·ıà¶¸à·ĵ": 6985,
      "à·Ĩà·Ĭà¶§à·Ĭ": 6986,
      "Region": 6987,
      "Ġà¶ĳà¶ļà·Ŀ": 6988,
      "à¶ĩà¶¸à¶»à·Ĵà¶ļà·ıà·Ģ": 6989,
      "à·ľà¶Ńà·Ĵà¶±à·Ĭ": 6990,
      "à¶´à¶»à¶«": 6991,
      "à·Ģà·ıà·Ħà·Ĵ": 6992,
      "Ġà¶ļà·ľà¶½à·ļ": 6993,
      "à¶¸à·Ĵà¶§": 6994,
      "Ġà¶ĳà·ħà·Ĵà¶º": 6995,
      "AT": 6996,
      "âĢįà¶ºà·ıà¶ľà·ıà¶»": 6997,
      "Ġà¶ľà¶«à¶±à¶º": 6998,
      "to": 6999,
      "à¶ĩà¶½à·Ĭ": 7000,
      "Ġà¶´à¶»à·Ĵà¶ļà·Ĭà·Ĥ": 7001,
      "Ġà¶īà¶¯à¶ľà·Ļà¶±": 7002,
      "Ġà·ĥà¶¸à·Ĭà¶¶à¶±à·Ĭà¶°à¶º": 7003,
      "à¶Ĭà¶§à¶´à·ĥà·Ĭà·ĥà·ļ": 7004,
      "Ġà¶±à·Ĵà¶¯à·ıà¶ľà·Ļà¶±": 7005,
      "90": 7006,
      "à·ĥà·Ĭà¶§à·ĵà·Ģà·Ĭ": 7007,
      "Ġà¶¡à¶±à·Ĭà¶¯": 7008,
      "Ġà·Ģà·Ļà¶½": 7009,
      "Ġà·Ħà¶³": 7010,
      "à·Ģà·ĥà·Ĭà¶Ńà·Ķà·Ģà·ļ": 7011,
      "Ġà¶¶à·Ĵà¶Ńà·Ĭà¶Ńà·Ĵà¶º": 7012,
      "Ġà¶ļà·Ĵà¶½à·Ŀ": 7013,
      "Ġà¶¯à·Ķà¶±à·Ĭà¶±à¶¯": 7014,
      "RL": 7015,
      "Ġà·ĥà·Ĳà¶±": 7016,
      "Ġà¶¸à·ľà¶±à·Ģà¶ľà·ļ": 7017,
      "à¶¯à¶ľà¶±à·Ĭà¶±": 7018,
      "Ġà¶´à¶»à·ĵà¶ļà·Ĭà·Ĥà¶«à¶º": 7019,
      "Ġwith": 7020,
      "Ġà¶»à¶¢à¶ºà·ļ": 7021,
      "à¶´à·Ĵà¶§à·Ĵ": 7022,
      "ik": 7023,
      "Ġà·ĥà·Ĭà¶ļà·ľà¶§à·Ĭ": 7024,
      "Ġà·Ģà·Ħà¶½": 7025,
      "lease": 7026,
      "Ġà¶ļà¶Ńà·ıà¶ļà¶»à¶±à·Ĭà¶±à·Ļ": 7027,
      "à·Ħà·Ģ": 7028,
      "Ġà¶Ĩà¶łà·ıà¶»": 7029,
      "à¶©à·Ķà·Ģà·ı": 7030,
      "Ġà¶½à¶¯": 7031,
      "Ġà¶´à·Ĵà¶±à·Ĭà¶Ńà·ĸà¶»à¶ºà¶ļà·Ĭ": 7032,
      "à¶½à·ĳà·Ĥà·Ĭ": 7033,
      "Ġà·Ħà¶±à·Ĭà¶§à·Ĭ": 7034,
      "Ġà¶ĭà¶Ńà·Ĭà¶Ńà¶»à¶ºà¶ļà·Ĭ": 7035,
      "Ġà¶´à·Ĭà¶½à¶ľà·Ĵà¶±": 7036,
      "ich": 7037,
      "âĢįà¶ºà·Ŀ": 7038,
      "à·Ģà·ļà¶ľ": 7039,
      "Ġà·Ħà¶¸à·Ĭà¶¶à·Ģà·Ķà¶±à·ı": 7040,
      "à¶½à·Ĵà¶ºà·ļ": 7041,
      "Ġà·Ħà·Ĳà¶»à·Ĵ": 7042,
      "Ġà¶ļà·Ļà¶½à·Ĭà¶½à·ľ": 7043,
      "à¶Ńà·Ĵà¶±à¶±à·Ĭ": 7044,
      "Ġà·Ħà·Ĵà¶»à·Ķ": 7045,
      "à¶ļà¶ºà¶ļà·ļ": 7046,
      "à¶ļà·Ģà¶¯à·ı": 7047,
      "à·Ģà·Ķà¶±à¶Ńà·Ĭ": 7048,
      "Ġà¶īà¶¯à¶½": 7049,
      "Ġà¶±à·Ĵà·Ģà·Ĭà¶ºà·Ŀà¶ļà·Ĭ": 7050,
      "Ġà¶ļà·Ķà¶¸à·ı": 7051,
      "à¶´à¶¯à·Ĭà¶°": 7052,
      "Ġà¶Ķà¶ºà·ıà¶§à¶¸": 7053,
      "Ġà¶ĳà¶ļà·Ĭà¶ļà¶ľà¶±à·Ļ": 7054,
      "Ġà¶ĩà·Ģà·Ĵà¶¯à¶ľà·Ļà¶±": 7055,
      "Ġà¶±à¶ľà·Ĵ": 7056,
      "Ġà¶´à¶Ńà·Ĭà¶Ń": 7057,
      "à·Ģà·Ļà¶łà·Ĭà¶ł": 7058,
      "Ġà¶ħà¶ºà·Ĵà¶Ńà·Ĵà¶ºà¶ļà·Ĭ": 7059,
      "à¶¯à·Ĵà¶¯": 7060,
      "à¶½à·Ĵà¶Ĥà¶ľà·Ĵà¶ļ": 7061,
      "à¶ºà¶§à¶¯": 7062,
      "âĢįà¶»à¶¸à·ıà¶«à¶ºà¶ļà·Ĭ": 7063,
      "à·ĥà·Ħà·Ŀà¶¯à¶»à¶ºà·ı": 7064,
      "à¶¸à¶ļà¶§": 7065,
      "Ġà¶ĳà¶½à·Ģà¶±à·Ĭà¶±": 7066,
      "à¶±à·Ģà¶Ńà·Ĭà·Ģà¶±à·Ĭà¶±": 7067,
      "âĢįà·ĥ": 7068,
      "Ġà¶Ńà·Ĵà¶¶à·Ķà¶«à·Ļ": 7069,
      "uk": 7070,
      "à·Ģà¶Ńà·ĵ": 7071,
      "à¶§à·Ķà¶´": 7072,
      "à¶Ķà¶¶à·Ģ": 7073,
      "âĢįà¶»à¶¸à¶«à¶º": 7074,
      "à¶¸à·Ħà¶Ńà·Ĭà·Ģ": 7075,
      "à¶½à¶ľà·Ļ": 7076,
      "Ġà¶ļà·ĳà¶¸à¶ļà·Ĭ": 7077,
      "Ġà¶ºà·ıà¶±à¶ºà·ļ": 7078,
      "Ġà¶ħà¶±à·Ĵà·Ģà·ıà¶»à·Ĭà¶ºà¶ºà·Ļà¶±à·Ĭà¶¸": 7079,
      "à·Ħà·ļà¶Ńà·Ķà·Ģ": 7080,
      "à·Ģà¶±à·ļà¶±": 7081,
      "Ġà·Ĩà·Ĳ": 7082,
[...]
