{
  "version": "1.0",
  "truncation": null,
  "padding": null,
  "added_tokens": [
    {
      "id": 0,
      "content": "[PAD]",
      "single_word": false,
      "lstrip": false,
      "rstrip": false,
      "normalized": false,
      "special": true
    },
    {
      "id": 1,
      "content": "[UNK]",
      "single_word": false,
      "lstrip": false,
      "rstrip": false,
      "normalized": false,
      "special": true
    },
    {
      "id": 2,
      "content": "[BOS]",
      "single_word": false,
      "lstrip": false,
      "rstrip": false,
      "normalized": false,
      "special": true
    },
    {
      "id": 3,
      "content": "[EOS]",
      "single_word": false,
      "lstrip": false,
      "rstrip": false,
      "normalized": false,
      "special": true
    }
  ],
  "normalizer": null,
  "pre_tokenizer": {
    "type": "ByteLevel",
    "add_prefix_space": true,
    "trim_offsets": true,
    "use_regex": true
  },
  "post_processor": null,
  "decoder": {
    "type": "ByteLevel",
    "add_prefix_space": true,
    "trim_offsets": true,
    "use_regex": true
  },
  "model": {
    "type": "BPE",
    "dropout": null,
    "unk_token": "[UNK]",
    "continuing_subword_prefix": null,
    "end_of_word_suffix": null,
    "fuse_unk": false,
    "byte_fallback": false,
    "ignore_merges": false,
    "vocab": {
      "[PAD]": 0,
      "[UNK]": 1,
      "[BOS]": 2,
      "[EOS]": 3,
      "!": 4,
      "\"": 5,
      "#": 6,
      "$": 7,
      "%": 8,
      "&": 9,
      "'": 10,
      "(": 11,
      ")": 12,
      "*": 13,
      "+": 14,
      ",": 15,
      "-": 16,
      ".": 17,
      "/": 18,
      "0": 19,
      "1": 20,
      "2": 21,
      "3": 22,
      "4": 23,
      "5": 24,
      "6": 25,
      "7": 26,
      "8": 27,
      "9": 28,
      ":": 29,
      ";": 30,
      "<": 31,
      "=": 32,
      ">": 33,
      "?": 34,
      "@": 35,
      "A": 36,
      "B": 37,
      "C": 38,
      "D": 39,
      "E": 40,
      "F": 41,
      "G": 42,
      "H": 43,
      "I": 44,
      "J": 45,
      "K": 46,
      "L": 47,
      "M": 48,
      "N": 49,
      "O": 50,
      "P": 51,
      "Q": 52,
      "R": 53,
      "S": 54,
      "T": 55,
      "U": 56,
      "V": 57,
      "W": 58,
      "X": 59,
      "Y": 60,
      "Z": 61,
      "[": 62,
      "\\": 63,
      "]": 64,
      "^": 65,
      "_": 66,
      "`": 67,
      "a": 68,
      "b": 69,
      "c": 70,
      "d": 71,
      "e": 72,
      "f": 73,
      "g": 74,
      "h": 75,
      "i": 76,
      "j": 77,
      "k": 78,
      "l": 79,
      "m": 80,
      "n": 81,
      "o": 82,
      "p": 83,
      "q": 84,
      "r": 85,
      "s": 86,
      "t": 87,
      "u": 88,
      "v": 89,
      "w": 90,
      "x": 91,
      "y": 92,
      "z": 93,
      "{": 94,
      "}": 95,
      "~": 96,
      "¡": 97,
      "¢": 98,
      "£": 99,
      "¤": 100,
      "¥": 101,
      "¦": 102,
      "§": 103,
      "¨": 104,
      "©": 105,
      "ª": 106,
      "«": 107,
      "¬": 108,
      "®": 109,
      "¯": 110,
      "°": 111,
      "±": 112,
      "²": 113,
      "³": 114,
      "´": 115,
      "µ": 116,
      "¶": 117,
      "·": 118,
      "¸": 119,
      "¹": 120,
      "º": 121,
      "»": 122,
      "¼": 123,
      "½": 124,
      "¾": 125,
      "¿": 126,
      "Â": 127,
      "Ã": 128,
      "Ì": 129,
      "Î": 130,
      "à": 131,
      "â": 132,
      "ï": 133,
      "Ġ": 134,
      "Ģ": 135,
      "ģ": 136,
      "Ĥ": 137,
      "ĥ": 138,
      "Ħ": 139,
      "ħ": 140,
      "Ĩ": 141,
      "ĩ": 142,
      "Ī": 143,
      "ī": 144,
      "Ĭ": 145,
      "ĭ": 146,
      "Į": 147,
      "į": 148,
      "İ": 149,
      "ı": 150,
      "Ĳ": 151,
      "ĳ": 152,
      "Ĵ": 153,
      "ĵ": 154,
      "Ķ": 155,
      "ķ": 156,
      "ĸ": 157,
      "Ĺ": 158,
      "ĺ": 159,
      "Ļ": 160,
      "ļ": 161,
      "Ľ": 162,
      "ľ": 163,
      "Ŀ": 164,
      "ŀ": 165,
      "Ł": 166,
      "ł": 167,
      "Ń": 168,
      "à®": 169,
      "à¯": 170,
      "à¯į": 171,
      "Ġà®": 172,
      "à®ķ": 173,
      "à¯ģ": 174,
      "à®¿": 175,
      "à®¾": 176,
      "à®¤": 177,
      "à®°": 178,
      "à®©": 179,
      "à®®": 180,
      "à®µ": 181,
      "à®Ł": 182,
      "à®³": 183,
      "à¯Ī": 184,
      "à®²": 185,
      "à®¯": 186,
      "à®ª": 187,
      "à®±": 188,
      "à®ķà®³": 189,
      "Ġà®ħ": 190,
      "à¯ĩ": 191,
      "à¯Ĩ": 192,
      "Ġà®¨": 193,
      "Ġà®ķ": 194,
      "Ġà®ª": 195,
      "Ġà®µ": 196,
      "Ġà®®": 197,
      "à®Ļ": 198,
      "à®µà®°": 199,
      "Ġà®ĩ": 200,
      "à®ļ": 201,
      "à®¨": 202,
      "Ġà®ļ": 203,
      "à®£": 204,
      "à¯Ģ": 205,
      "Ġ(": 206,
      "Ġà®¤": 207,
      "Ġà®İ": 208,
      "Ġà®ī": 209,
      "à¯Ĩà®¾": 210,
      "à¯ĩà®¾": 211,
      "à¯į.": 212,
      "Ġà®ħà®µà®°": 213,
      "à¯Ĥ": 214,
      "à¯į,": 215,
      "à®µà®©": 216,
      "à®´": 217,
      "Ġà®İà®©": 218,
      "à®ªà®Ł": 219,
      "à¯į)": 220,
      "à¯į;": 221,
      "à®¹": 222,
      "Ġà®ĩà®°": 223,
      "Ġà®ħà®²": 224,
      "à®¯à®®": 225,
      "Ġà®Ĩ": 226,
      "à®ķà®µ": 227,
      "Ġà®ħà®¤": 228,
      "Ġà®īà®Ļ": 229,
      "Ġà®Ĵ": 230,
      "à®ħ": 231,
      "Ġ\"": 232,
      "à®ļà®¯à®®": 233,
      "à®Łà®®": 234,
      "Ġà®ħà®µà®©": 235,
      "à¯ĭ": 236,
      "Ġ-": 237,
      "à®ªà®¤": 238,
      "Ġà®ĩà®±": 239,
      "Ġà®Ĵà®°": 240,
      "à¯ģ.": 241,
      "à®¤à®©": 242,
      "à®µà®¤": 243,
      "à®¸": 244,
      "à®ĩ": 245,
      "à¯ģ)": 246,
      "à®ķà®ª": 247,
      "Ġà®ĩà®©": 248,
      "à®©à®°": 249,
      "à®Łà®¤": 250,
      "à¯ĩ!": 251,
      "à¯ģ,": 252,
      "à®ķà®¤": 253,
      "à®µà®±": 254,
      "à®İ": 255,
      "à¯Ĭ": 256,
      "Ġà®ħà®©": 257,
      "Ġà®ı": 258,
      "à®¤à®¤": 259,
      "à®¤à®°": 260,
      "à®ķà®®": 261,
      "Ġà®ħà®±": 262,
      "à¯į\"": 263,
      "Ġà®µà®°": 264,
      "à®±à®¤": 265,
      "à®Łà®©": 266,
      "Ġà®ĩà®¤": 267,
      "Ġà®®à®©": 268,
      "Ġà®īà®£": 269,
      "Ġà®īà®®": 270,
      "Ġà®®à®±": 271,
      "Ġà®ªà®Ł": 272,
      "à®¾?": 273,
      "à®¯à®¤": 274,
      "à®ķà®°": 275,
      "Ġà®¨à®®": 276,
      "Ġà®µà®´": 277,
      "à®ĥ": 278,
      "Ġà®ĩà®²": 279,
      "à¯Ī.": 280,
      "me": 281,
      "à®²à®¤": 282,
      "Ġà®¯": 283,
      "à®¯à®©": 284,
      "on": 285,
      "Ġà®ķà®Ł": 286,
      "à®¯à®²": 287,
      "..": 288,
      "à¯Ī)": 289,
      "Ġà®īà®³": 290,
      "Ġà®¨à®©": 291,
      "Ġà®ħà®Ł": 292,
      "à®İà®©": 293,
      "Ġn": 294,
      "Ġà®İà®µà®°": 295,
      "Ġà®ħà®´": 296,
      "ti": 297,
      "à®°à®®": 298,
      "Ġà®ħà®¨": 299,
      "à®¤à®®": 300,
      "Ġà®ħà®µ": 301,
      "à®ªà®µà®°": 302,
      "Ġà®Ĩà®©": 303,
      "Ġà®ļà®®": 304,
      "à®¨à®ª": 305,
      "à¯į;.": 306,
      "à®¤à®²": 307,
      "à®¯à®°": 308,
      "à¯ĩ!)": 309,
      "à®ī": 310,
      "ame": 311,
      "à¯ĩ,": 312,
      "à®¤à®µ": 313,
      "Ġà®İà®¤": 314,
      "Ġt": 315,
      "Ġà®Ĩà®ķ": 316,
      "Ġà®ķà®£": 317,
      "Ġà®µà®¨": 318,
      "Ġà®ĩà®µà®°": 319,
      "Ġà®¤à®Ļ": 320,
      "an": 321,
      "Ġà®İà®Ļ": 322,
      "tion": 323,
      "à®²à®ķ": 324,
      "Ġà®ªà®±": 325,
      "Ġà®ħà®°": 326,
      "à®°à®£": 327,
      "Ġ1": 328,
      "Ġà®ĩà®¨": 329,
      "à®©à®¤": 330,
      "Ġà®ªà®ķ": 331,
      "à®ªà®µà®©": 332,
      "à®¯à®µ": 333,
      "Ġà®īà®°": 334,
      "Ġà®Ī": 335,
      "Ġà®ħà®®": 336,
      "Ġà®¤à®©": 337,
      "in": 338,
      "Ġà®ĵ": 339,
      "à®ļà®®": 340,
      "à®¯à®ª": 341,
      "à¯į?": 342,
      "Ġà®ıà®±": 343,
      "Ġà®¤à®µ": 344,
      "Ġà®Ĩà®ķà®µ": 345,
      "Ġà®ĩà®µ": 346,
      "à®¤à®µà®°": 347,
      "à®³à®µ": 348,
      "à®ķà®ķ": 349,
      "à¯ĩà®¾,": 350,
      "à®·": 351,
      "à®©à®Ļ": 352,
      "à®ĥà®ª": 353,
      "à®ħà®µà®°": 354,
      "à®Ĩ": 355,
      "à®¿)": 356,
      "es": 357,
      "à®³à®¤": 358,
      "à®ŀ": 359,
      "à®¯à®µà®°": 360,
      "à®ħà®¤": 361,
      "à®©à®®": 362,
      "Ġà®ħà®¤à®©": 363,
      "Ġà®¤à®®": 364,
      "à®¤à®ª": 365,
      "à®¤à®ķ": 366,
      "Ġà®İà®©à®ķ": 367,
      "Ġà®Īà®®": 368,
      "à®Łà®ª": 369,
      "it": 370,
      "à®²à®®": 371,
      "à®¿,": 372,
      "Ġà®İà®´": 373,
      "à®®à®¤": 374,
      "er": 375,
      "Ġa": 376,
      "Ġà®ħà®ª": 377,
      "à®¯à®Ļ": 378,
      "à®ĩà®¤": 379,
      "Ġk": 380,
      "à¯į).": 381,
      "à®ħà®²": 382,
      "al": 383,
      "Ġà®®à®ķ": 384,
      "à®®à®²": 385,
      "la": 386,
      "Ġà®İà®©à®µ": 387,
      "Ġà®¸": 388,
      "à®ľ": 389,
      "à®µà®¤à®±": 390,
      "à®³à®°": 391,
      "à®±à®ķ": 392,
      "Ġà®¨à®²": 393,
      "Ġà®µà®Ł": 394,
      "Ġà®İà®²": 395,
      "Ġà®īà®±": 396,
      "à®Łà®µà®°": 397,
      "Ġà®ľ": 398,
      "ed": 399,
      "à®¯à®ķ": 400,
      "Ġà®¨à®Ł": 401,
      "Ġp": 402,
      "à¯Ī,": 403,
      "or": 404,
      "à®²à®°": 405,
      "Ġd": 406,
      "Ġà®ħà®ļ": 407,
      "Ġà®ļà®°": 408,
      "à®¤à®µà®©": 409,
      "à®µà®´": 410,
      "à®ªà®±": 411,
      "Ġà®µà®£": 412,
      "à®±à®©à®°": 413,
      "Ġà®ªà®°": 414,
      "à®ĥà®®": 415,
      "à®ªà®®": 416,
      "à®ķà®²": 417,
      "Ġà®ªà®¯à®©": 418,
      "Ġà®¤à®°": 419,
      "gm": 420,
      "Ġà®µà®ļ": 421,
      "Name": 422,
      "Ġ&": 423,
      "Ġkgm": 424,
      "ro": 425,
      "à®ļà®°": 426,
      "Ġà®İà®Ł": 427,
      "Ġà®°": 428,
      "Ġà®ħà®µà®±": 429,
      "Ġà®ļà®¨": 430,
      "à®ķà®ļ": 431,
      "Ġà®ªà®¤": 432,
      "à®ħà®µ": 433,
      "à®Łà®°": 434,
      "Ġà®ĩà®±à®ķ": 435,
      "Ġà®¤à®Ł": 436,
      "Ġà®Ł": 437,
      "Ġà®īà®¤à®µ": 438,
      "à®¯à®µà®©": 439,
      "ran": 440,
      "op": 441,
      "Ġà®İà®¨": 442,
      "Ġà®İà®£": 443,
      "Ġà®ĩà®£": 444,
      "Ġà®ķà®°": 445,
      "Ġname": 446,
      "à¯į!": 447,
      "à®ķà®±": 448,
      "ot": 449,
      "à¯į:": 450,
      "à®°à®¤": 451,
      "Ġà®ªà®²": 452,
      "à®±à®ª": 453,
      "à®ķà®Ł": 454,
      "Ġà®ļà®¤": 455,
      "Ġà®īà®©": 456,
      "ity": 457,
      "Ġs": 458,
      "Ġà®¹": 459,
      "à®Łà®µ": 460,
      "rans": 461,
      "City": 462,
      "ransla": 463,
      "Ġ'": 464,
      "Ġà®ļà®ķ": 465,
      "Ġà®ħà®¤à®±": 466,
      "Ġà®ĩà®ª": 467,
      "à®±à®©": 468,
      "Ġtransla": 469,
      "à®īà®Ļ": 470,
      "option": 471,
      "Ġà®ıà®©": 472,
      "Ġà®Ĵà®©": 473,
      "ly": 474,
      "à®±à®®": 475,
      "à®°à®£à®®": 476,
      "Ġà®īà®®à®ķ": 477,
      "optional": 478,
      "Ġà®ħà®³": 479,
      "à®ĩà®µ": 480,
      "à®µà®®": 481,
      "Ġà®Ĵà®µ": 482,
      "Ġpro": 483,
      "ba": 484,
      "à®µà®Ļ": 485,
      "en": 486,
      "à®£à®®": 487,
      "Ġ2": 488,
      "...": 489,
      "à®ĩà®±": 490,
      "Ġne": 491,
      "à®Łà®³": 492,
      "Ġà®ĩà®Ł": 493,
      "Ġnot": 494,
      "ĠC": 495,
      "Ġà®īà®¯": 496,
      "Ġà®¨à®°": 497,
      "Ġdo": 498,
      "à®°à®°": 499,
      "Ġc": 500,
      "à®°à®Ļ": 501,
      "à®²à®µ": 502,
      "à®ļà®¤": 503,
      "Ġà®ŀ": 504,
      "Ġà®ħà®ŀ": 505,
      "Ġneed": 506,
      "Ġtranslation": 507,
      "Ġ%": 508,
      "bab": 509,
      "re": 510,
      "Ġà®²": 511,
      "Ġin": 512,
      "he": 513,
      "Ġà®¤à®²": 514,
      "Ġdoes": 515,
      "à®ªà®¤à®±": 516,
      "Ġà®µà®ļà®©à®Ļ": 517,
      "Ġà®ĵà®°": 518,
      "Ġprobab": 519,
      "Ġprobably": 520,
      "à®ªà®µ": 521,
      "à¯į(": 522,
      "Ġà®ªà®¯à®ª": 523,
      "Ġà®ħà®³à®µ": 524,
      "Ġà®İà®ª": 525,
      "à®ħà®µà®©": 526,
      "à®®à®±": 527,
      "Ġà®Ĩà®£": 528,
      "à®¯à®±": 529,
      "à®Łà®ķ": 530,
      "Ġ.": 531,
      "à¯į.\"": 532,
      "à¯ĩ)": 533,
      "Ġà®ħà®ķ": 534,
      "Ġà®¨à®±": 535,
      "Ġà®µà®£à®Ļ": 536,
      "nt": 537,
      "à®Ĩà®©": 538,
      "à®Ĵ": 539,
      "à®ķà®£": 540,
      "Ġà®Ĳ": 541,
      "à®±à®µ": 542,
      "Ġà®ĩà®´": 543,
      "ar": 544,
      "om": 545,
      "Ġà®İà®ļ": 546,
      "à®ªà®ª": 547,
      "at": 548,
      "Ġà®ªà®£": 549,
      "ou": 550,
      "à®±à®µà®°": 551,
      "à®Łà®Ļ": 552,
      "à®Łà®²": 553,
      "à®ªà®°": 554,
      "à®ķà®´": 555,
      "à®³à®®": 556,
      "à®ķà®Ļ": 557,
      "Ġà®Ĭ": 558,
      "Ġà®Ĩà®µ": 559,
      "à®İà®Ļ": 560,
      "Ġà®ħà®´à®ķ": 561,
      "ic": 562,
      "à®¨à®®": 563,
      "is": 564,
      "Ġà®·": 565,
      "Ġà®ĥ": 566,
      "le": 567,
      "Ġà®µà®ķ": 568,
      "à¯ģ?": 569,
      "à®µà®²": 570,
      "Ġà®ĥà®ª": 571,
      "Ġà®ĩà®Ļ": 572,
      "Ġà®®à®¤": 573,
      "ĠS": 574,
      "à®¾?\"": 575,
      "à®¯à®Ł": 576,
      "Ġà®¤à®µà®±": 577,
      "à®©à®µà®©": 578,
      "à¯ģ:": 579,
      "Ġà®īà®Ł": 580,
      "Ġb": 581,
      "Ġà®Ĩà®¤": 582,
      "Ġà®ħà®µà®³": 583,
      "à¯Ī(": 584,
      "Ġà®¨à®ª": 585,
      "Ġà®İà®µ": 586,
      "à¯į...": 587,
      "Ġà®¨à®ķà®°": 588,
      "à®©à®µà®°": 589,
      "à®¤à®Ļ": 590,
      "à®³à®©": 591,
      "Ġà®ıà®¤": 592,
      "Ġà®µà®²": 593,
      "à®µà®ķ": 594,
      "à¯ģ(": 595,
      "à®©à®µ": 596,
      "Ġà®ħà®Ļ": 597,
      "Ġà®ĩà®Łà®¤": 598,
      "à®ħà®¤à®±": 599,
      "Ġf": 600,
      "Ġà®ĩà®¯à®²": 601,
      "ment": 602,
      "Ġà®ĩà®°à®µ": 603,
      "à®ħà®ª": 604,
      "il": 605,
      "Ġà®ħà®£": 606,
      "Ġà®®à®Ł": 607,
      "Ġà®®à®°": 608,
      "Ġà®¤à®£": 609,
      "Ġthe": 610,
      "Ġw": 611,
      "ĠK": 612,
      "Ġà®ĩà®¤à®©": 613,
      "à®Ĵà®°": 614,
      "à®ļà®²": 615,
      "00": 616,
      "ĠM": 617,
      "Ġà®ķà®±": 618,
      "Ġà®ªà®¯": 619,
      "Ġà®ĩà®°à®£": 620,
      "Ġà®¤à®¨": 621,
      "à®¤à®µà®±": 622,
      "Ġà®İà®µà®©": 623,
      "à®®à®ķ": 624,
      "à®³à®ķ": 625,
      "Ġà®īà®£à®µ": 626,
      "ol": 627,
      "Ġà®īà®¤": 628,
      "à®ªà®Łà®µ": 629,
      "à®³à®ª": 630,
      "Ġà®ķà®µà®©": 631,
      "Ġà®ĵà®Ł": 632,
      "à®±à®²": 633,
      "Ġà®ªà®¯à®ªà®ķ": 634,
      "Ġ\"(": 635,
      "à®ı": 636,
      "à®ªà®²": 637,
      "à®°à®ķ": 638,
      "à®¿.": 639,
      "à®ĩà®°": 640,
      "Ġà®Ĩà®¯": 641,
      "à®¤à®©à®°": 642,
      "Ġà®ĩà®¤à®±": 643,
      "à®®à®©": 644,
      "omment": 645,
      "à®ķà®µà®²": 646,
      "Ġà®¨à®Łà®¨": 647,
      "ĠA": 648,
      "à®°à®²": 649,
      "Ġ(_": 650,
      "à®ªà®ķ": 651,
      "ĠT": 652,
      "Ġà®Ĩà®Ł": 653,
      "à®¿(": 654,
      "à®ªà®©": 655,
      "Ġà®µà®°à®®": 656,
      "Ġà®Ĩà®±": 657,
      "ĠD": 658,
      "Ġà®®à®²à®ķ": 659,
      "Ġà®ķà®²": 660,
      "Ġ...": 661,
      "ing": 662,
      "à®±à®¨": 663,
      "Ġà®µà®´à®Ļ": 664,
      "à®Łà®©à®°": 665,
      "à¯ģ;": 666,
      "Ġà®īà®¯à®°": 667,
      "à¯ģ...": 668,
      "à®ħà®¨": 669,
      "à®³à®µà®°": 670,
      "Ġà®ķà®£à®ķ": 671,
      "Comment": 672,
      "à®ķà®µà®°": 673,
      "Ġà®¤à®ķ": 674,
      "Ġà®¤à®ķà®µà®²": 675,
      "à®°à®£à®¤": 676,
      "à®´à®¨": 677,
      "à®ļà®©": 678,
      "Ġ3": 679,
      "à¯ĭ,": 680,
      "à®ĩà®©": 681,
      "ia": 682,
      "Ġà®®à®£": 683,
      "Ġà®ĩà®¸": 684,
      "à®±à®Ļ": 685,
      "st": 686,
      "à®¾)": 687,
      "Ġm": 688,
      "à®³à®Ļ": 689,
      "à®ªà®µà®±": 690,
      "à®£à®¤": 691,
      "Ġà®ĩà®¯à®ķ": 692,
      "Ġ,": 693,
      "Ġà®ĩà®±à®¨": 694,
      "à®µà®Ł": 695,
      "à¯į.)": 696,
      "à®¾,": 697,
      "à®°à®©": 698,
      "Ġà®®à®²": 699,
      "à®¾.": 700,
      "à¯į-": 701,
      "ĠI": 702,
      "à®ħà®©": 703,
      "Ġà®ªà®´": 704,
      "Ġà®ĵà®¤": 705,
      "et": 706,
      "ĠP": 707,
      "Ġà®īà®Łà®©": 708,
      "Ġto": 709,
      "à®®à®Ļ": 710,
      "à®¨à®²": 711,
      "Ġx": 712,
      "ck": 713,
      "Ġà®®à®ķà®¤": 714,
      "Ġà®¨à®·": 715,
      "!\"": 716,
      "Ġà®İà®±": 717,
      "Ġà®°à®¹": 718,
      "à¯Ī:": 719,
      "Ġh": 720,
      "à®°à®µ": 721,
      "à®İà®²": 722,
      "\\\\": 723,
      "Ġà®¤à®±": 724,
      "à¯ģ\"": 725,
      "à®¤à®°à®°": 726,
      "ĠF": 727,
      "Ġà®Ĩà®ļ": 728,
      "à®ķà®µà®©": 729,
      "à®²à®ª": 730,
      "Ġà®¨à®Łà®ª": 731,
      "à¯Ī\"": 732,
      "us": 733,
      "à®²à®©": 734,
      "Ġà®Ĵà®ª": 735,
      "à®ħà®¤à®©": 736,
      "à®´à®ª": 737,
      "ec": 738,
      "à®īà®®": 739,
      "ĠB": 740,
      "Ġà®ķà®©": 741,
      "à®£à®Ļ": 742,
      "ra": 743,
      "à®¾!": 744,
      "Ġà®¨à®°à®ķà®¤": 745,
      "à®·à®¯à®¤": 746,
      "à®ĩà®ª": 747,
      "Ġà®Ĩà®®": 748,
      "Ġ..": 749,
      "à®¤à®±": 750,
      "Ġ\"%": 751,
      "Ġà®Ĵà®³": 752,
      "Ġà®īà®£à®°": 753,
      "el": 754,
      "à¯į'": 755,
      "Ġ0": 756,
      "Ġà®ıà®´": 757,
      "Ġà®ĩà®Łà®®": 758,
      "Ġà®ļà®ª": 759,
      "Ġà®Ĵà®Ł": 760,
      "Ġo": 761,
      "Ġà®Ĵà®²": 762,
      "à®Ĳ": 763,
      "à¯į?\"": 764,
      "à®²à®Ļ": 765,
      "à¯į;)": 766,
      "Ġà®ļà®®à®®": 767,
      "à®©à®ķ": 768,
      "Ġà®ªà®ķà®²": 769,
      "à¯ģ!": 770,
      "ag": 771,
      "à¯ĩ.": 772,
      "à®ĩà®¨": 773,
      "à®ªà®³": 774,
      "Ġà®¤à®°à®µ": 775,
      "à®µà®©à®ªà®¤": 776,
      "Ġ_": 777,
      "ut": 778,
      "à®®à®£": 779,
      "Ġà®¤à®¯à®µ": 780,
      "à®ĩà®µà®°": 781,
      "Ġà®ªà®²à®©": 782,
      "Ġà®¨à®Łà®ķ": 783,
      "ad": 784,
      "à®³à®µà®±": 785,
      "à®¤à®¯à®Ļ": 786,
      "Ġ@": 787,
      "ur": 788,
      "Ġà®ĩà®ļ": 789,
      "Ġà®Ĭà®°": 790,
      "à®°à®Ł": 791,
      "Ġà®īà®²": 792,
      "à®¨à®©": 793,
      "Ġà®Ĵà®¤": 794,
      "Ġà®¨à®°à®ķ": 795,
      "à¯į);": 796,
      "ĠO": 797,
      "à®¤à®Ł": 798,
      "Ġà®¨à®£": 799,
      "Ġà®ĩà®¤à®¯à®Ļ": 800,
      "à®°à®ª": 801,
      "à®¯à®µà®±": 802,
      "Ġà®µà®¹": 803,
      "ĠN": 804,
      "ĠG": 805,
      "ĠL": 806,
      "à®£à®°": 807,
      "Ġà®ıà®µ": 808,
      "à®´à®²": 809,
      "Ġ/": 810,
      "ĠR": 811,
      "Ġl": 812,
      "Ġof": 813,
      "à®İà®¤": 814,
      "à®²à®Ł": 815,
      "ld": 816,
      "and": 817,
      "Ġà®ķà®³": 818,
      "Ġà®īà®©à®ķ": 819,
      "à®®à®Ł": 820,
      "Ġà®¤à®µà®£": 821,
      "Ġg": 822,
      "AN": 823,
      "à®ªà®Łà®®": 824,
      "Ġà®ĩà®µà®±": 825,
      "enc": 826,
      "à®©à®µà®±": 827,
      "à®ªà®¨": 828,
      "Ġ5": 829,
      "à®¤à®°à®µ": 830,
      "Ġst": 831,
      "à®®à®°": 832,
      "à®±à®µà®©": 833,
      "Ġà®¨à®ķà®²": 834,
      "à¯Ī!": 835,
      "à®ªà®Ļ": 836,
      "Ġ4": 837,
      "à®¨à®°à®ķ": 838,
      "Ġà®ħà®®à®²": 839,
      "à®¯à®ļ": 840,
      "ĠU": 841,
      "à®ĩà®¤à®©": 842,
      "Ġà®īà®ªà®¤": 843,
      "olor": 844,
      "Ġà®ķà®Łà®²": 845,
      "Ġà®¨à®®à®ķ": 846,
      "un": 847,
      "Ġà®ķà®´": 848,
      "à®µà®ļ": 849,
      "Ġà®ķà®Łà®µ": 850,
      "à®¨à®±": 851,
      "ow": 852,
      "Ġà®®à®ķà®©": 853,
      "à®µà®¨": 854,
      "à®£à®µ": 855,
      "Ġinf": 856,
      "Ġà®ĩà®°à®ķà®ļ": 857,
      "ri": 858,
      "Ġth": 859,
      "Ġà®ķà®ª": 860,
      "à®µà®³à®µ": 861,
      "¿½": 862,
      "ï¿½": 863,
      "Ġï¿½": 864,
      "ĠH": 865,
      "à®ªà®ļ": 866,
      "à®¨à®°": 867,
      "Ġà®Ĵà®´": 868,
      "Ġà®®à®±à®¨": 869,
      "em": 870,
      "à¯ģ-": 871,
      "à®ħà®µà®±": 872,
      "age": 873,
      "Ġà®ķà®¤": 874,
      "Ġà®İà®¤à®©": 875,
      "Ġà®ĩà®±à®Ļ": 876,
      "Ġï¿½\\": 877,
      "Ġà®İà®³": 878,
      "Ġre": 879,
      "à¯į!\"": 880,
      "ils": 881,
      "Ġà®ħà®®à®°": 882,
      "ce": 883,
      "Ġà®Ĩà®²": 884,
      "à®İà®©à®ķ": 885,
      "à¯į),": 886,
      "Ġinfo": 887,
      "Ġà®ĩà®®": 888,
      "Ġ[": 889,
      "th": 890,
      "ĠX": 891,
      "à®ķà®©": 892,
      "Ġà®ļà®Ł": 893,
      "à®¿:": 894,
      "Ġà®ªà®Ļ": 895,
      "Ġà®Īà®Ł": 896,
      "à®ĩà®¤à®±": 897,
      "as": 898,
      "tenc": 899,
      "à®°à®¹": 900,
      "à®ħà®°": 901,
      "Ġà®¨à®°à®ķà®®": 902,
      "à¯Ī;": 903,
      "tencils": 904,
      "à®°à®¯": 905,
      "à®ªà®£": 906,
      "Ġà®®à®´": 907,
      "à®īà®£": 908,
      "Ġtranslat": 909,
      "color": 910,
      "à®ļà®Ļ": 911,
      "Ġà®µà®°à®µ": 912,
      "Ġà®¤à®®à®ķ": 913,
      "Ġà®µà®ļà®¤": 914,
      "à®´à®ķ": 915,
      "Ġy": 916,
      "Ġà®ķà®Łà®®": 917,
      "Ġà®īà®²à®ķ": 918,
      "DE": 919,
      "Ġà®ªà®¯à®©à®°": 920,
      "Ġ6": 921,
      "ver": 922,
      "Ġit": 923,
      "Ġà®ķà®µà®²": 924,
      "ch": 925,
      "à®³à®µà®©": 926,
      "à®ķà®°à®®": 927,
      "Ġbe": 928,
      "ts": 929,
      "Ġà®Ĩà®°": 930,
      "pp": 931,
      "à®ļà®ķ": 932,
      "à®³à®°à®¤": 933,
      "?\"": 934,
      "de": 935,
      "à®°à®ļ": 936,
      "Ġà®ĩà®°à®Ł": 937,
      "ess": 938,
      "ss": 939,
      "à®µà®²à®©": 940,
      "à®¿;": 941,
      "Ġà®īà®±à®µ": 942,
      ").": 943,
      "ĠE": 944,
      "à¯ģ'": 945,
      "Ġà®¤à®ª": 946,
      "à®İà®µà®°": 947,
      "à®Łà®ļ": 948,
      "Ġà®ªà®³": 949,
      "ter": 950,
      "ex": 951,
      "Ġà®ªà®¯à®¨": 952,
      "Ġà®Ĩà®¤à®²": 953,
      "à®¨à®Ł": 954,
      "à®°à®®à®ķ": 955,
      "Ġà®¤à®¸": 956,
      "IN": 957,
      "uck": 958,
      "Ġà®µà®²à®¤": 959,
      "Ġà®®à®°à®£à®®": 960,
      "ate": 961,
      "à®µà®²à®°": 962,
      "Ġà®µà®£à®ķ": 963,
      "ĠW": 964,
      "Ġ~": 965,
      "ion": 966,
      "à®£à®ķ": 967,
      "Stencils": 968,
      "am": 969,
      "à¯ģ).": 970,
      "Ġ8": 971,
      "à®Łà®µà®©": 972,
      "Ġor": 973,
      "à®Ĩà®ķ": 974,
      "à¯į%": 975,
      "Ġà®ıà®°": 976,
      "à®ħà®®": 977,
      "Ġà®ĩà®¯à®²à®µ": 978,
      "à®ħà®´": 979,
      "Ġà®ľà®ķ": 980,
      "Ġ7": 981,
      "à¯ģ%": 982,
      "Ġà®īà®ª": 983,
      "Ġà®Ĩà®°à®®": 984,
      "Ġà®Ĩà®¤à®°à®µ": 985,
      "ada": 986,
      "à¯ĩ!\"": 987,
      "anada": 988,
      "ist": 989,
      "à®ıà®©": 990,
      "Ġà®¤à®©à®ķ": 991,
      "à®Ĩà®ķà®µ": 992,
      "à®´à®®": 993,
      "ation": 994,
      "ay": 995,
      "à®®à®¨": 996,
      "Ġà®ªà®ļ": 997,
      "Ġà®ĩà®Łà®Ļ": 998,
      "Ġis": 999,
      "Ġà®¹à®°": 1000,
      "Ġ?": 1001,
      "à®Łà®µà®£": 1002,
      "Ġà®ħà®²à®Ļ": 1003,
      "à®ĩà®²": 1004,
      "Ġà®µà®°à®²": 1005,
      "Ġà®ªà®²à®¹": 1006,
      "ĠName": 1007,
      "Ġà®¤à®¯": 1008,
      "à®¸à®²": 1009,
      "ĠY": 1010,
      "Ġ>": 1011,
      "à®ħà®±": 1012,
      "wor": 1013,
      "ĠCanada": 1014,
      "Ġà®īà®£à®µà®³": 1015,
      "à®¸à®°": 1016,
      "ener": 1017,
      "Ġme": 1018,
      "à¯ĩ\"": 1019,
      "à®Ī": 1020,
      "yp": 1021,
      "à®ķà®©à®µ": 1022,
      "Ġ(%": 1023,
      "Ġà®µà®´à®ķ": 1024,
      "ig": 1025,
      "Ġà®ħà®µà®ķ": 1026,
      "Ġà®µà®°à®ª": 1027,
      "ul": 1028,
      "Ġà®¤à®³": 1029,
      "à®¤à®£": 1030,
      "à®¾/": 1031,
      "Ġà®ķà®Łà®¨": 1032,
      "à®¤à®´": 1033,
      "à¯į;,": 1034,
      "Ġà®¨à®Łà®¤": 1035,
      "Ġ200": 1036,
      "à®®à®®": 1037,
      "Ġâ": 1038,
      "à®·à®¯à®®": 1039,
      "ort": 1040,
      "à®īà®©": 1041,
      "um": 1042,
      "à¯į,)": 1043,
      "à®ĥà®ķ": 1044,
      "à®ĩà®£": 1045,
      "à®Ĩà®°": 1046,
      "ain": 1047,
      "tle": 1048,
      "Ġà®ħà®µà®ļà®°": 1049,
      "ey": 1050,
      "ve": 1051,
      "à®³à®Łà®ķ": 1052,
      "à®ļà®ª": 1053,
      "à®²à®²": 1054,
      "à®²à®µà®±": 1055,
      "Ġti": 1056,
      "à®¿?": 1057,
      "Ġà®īà®®à®¤": 1058,
      "à®ħà®Ļ": 1059,
      "Ġà®ħà®µà®°à®¤": 1060,
      "if": 1061,
      "à®¤à®°à®Ļ": 1062,
      "à®ħà®ķ": 1063,
      "Ġcom": 1064,
      "ĠKDE": 1065,
      "eg": 1066,
      "Ġà®ļà®Ļ": 1067,
      "à®©à®²": 1068,
      "AR": 1069,
      "à¯į/": 1070,
      "à®©à®£": 1071,
      "Ġà®®à®¸": 1072,
      "Ġac": 1073,
      "qu": 1074,
      "Ġfor": 1075,
      "im": 1076,
      "à¯Ī?": 1077,
      "à®¤à®©à®®": 1078,
      "Ġà®ıà®®": 1079,
      "Ġyou": 1080,
      "Ġon": 1081,
      "Ġà®ıà®¯": 1082,
      "Ġ'%": 1083,
      "à®²à®ķà®¤": 1084,
      "Ġà®ķà®Łà®©": 1085,
      "à®¯à®³": 1086,
      "à®ķà®ªà®Ł": 1087,
      "à®´à®±": 1088,
      "ang": 1089,
      "Ġr": 1090,
      "à®¯à®µà®ŀ": 1091,
      "eneric": 1092,
      "ount": 1093,
      "Ġà®ªà®²à®ķ": 1094,
      "Ġà®İà®°": 1095,
      "Ġà®µà®ļà®ª": 1096,
      "Ġla": 1097,
      "Ġwh": 1098,
      "à®ĵ": 1099,
      "Ġ12": 1100,
      "Ļª": 1101,
      "Ġsh": 1102,
      "OR": 1103,
      "se": 1104,
      "à®µà®ª": 1105,
      "à®İà®©à®µ": 1106,
      "à®³à®°à®®": 1107,
      "à®·à®¯à®Ļ": 1108,
      "ME": 1109,
      "Ġà®ªà®©": 1110,
      "Ġà®Īà®¸": 1111,
      "à®¤à®ªà®Ł": 1112,
      "à®¤à®¤à®±": 1113,
      "Ġ(\"": 1114,
      "Ġ()": 1115,
      "à®±à®°": 1116,
      ":%": 1117,
      "nu": 1118,
      "Ġand": 1119,
      "à®£à®ª": 1120,
      "ent": 1121,
      "à®ĩà®®": 1122,
      "Ġà®Ĳà®¨": 1123,
      "AT": 1124,
      "vi": 1125,
      "à®©à®ª": 1126,
      "Ġà®ªà®¯à®®": 1127,
      "SL": 1128,
      "à¯ĩà®¾)": 1129,
      "Ġà®ıà®Ł": 1130,
      "Ġcon": 1131,
      "Ġà®ĩà®´à®¨": 1132,
      "à®¤à®¨": 1133,
      "Ġà®µà®¯": 1134,
      "à®Ĩà®£": 1135,
      "Ġà®¸à®²": 1136,
      "Ġbut": 1137,
      "enericName": 1138,
      "Ġà®ĩà®¯à®Ļ": 1139,
      "ĠV": 1140,
      "Ġà®ĩà®ķ": 1141,
      "ub": 1142,
      "art": 1143,
      "à®ļà®ķà®°": 1144,
      "à®¾?)": 1145,
      "oo": 1146,
      "Ġà®ķà®©à®µ": 1147,
      "GenericName": 1148,
      "à®³à®²": 1149,
      "ucking": 1150,
      "à®¤à®°à®®": 1151,
      "Ġus": 1152,
      "à¯Ī...": 1153,
      "à®ħà®Ł": 1154,
      "Ġà®¨à®®à®¤": 1155,
      "à®µà®°à®ª": 1156,
      "ile": 1157,
      "à®°à®®à®®": 1158,
      "à®µà®°à®®": 1159,
      "Ġà®ļà®©": 1160,
      "Ġà®ħà®µà®ļà®°à®ª": 1161,
      "Ġ9": 1162,
      "à®©à®ŀ": 1163,
      "Ġà®®à®°à®Ļ": 1164,
      "ers": 1165,
      "Ġun": 1166,
      "à®Ĩà®¤": 1167,
      "tt": 1168,
      "Ġà®ķà®·": 1169,
      "ind": 1170,
      "ĠQ": 1171,
      "à®ıà®±": 1172,
      "ph": 1173,
      "à®³à®¨": 1174,
      "Ġà®®à®°à®£à®¤": 1175,
      "Ġà®¤à®¤": 1176,
      "à®īà®¯": 1177,
      "Ġ10": 1178,
      "à®¯à®¨": 1179,
      "Ġà®Ĩà®µà®£à®¤": 1180,
      "jec": 1181,
      "tin": 1182,
      "à®¿...": 1183,
      "à®¤à®ļ": 1184,
      "à®ªà®¯à®©": 1185,
      "Ġà®µà®²à®ķ": 1186,
      "à®³à®ļ": 1187,
      "Ġà®ªà®±à®µ": 1188,
      "oun": 1189,
      "id": 1190,
      "Ġse": 1191,
      "ould": 1192,
      "up": 1193,
      "à®Łà®®à®Ł": 1194,
      "Ġà®µà®²à®ª": 1195,
      "ML": 1196,
      "ĠâĻª": 1197,
      "ct": 1198,
      "Ġde": 1199,
      "à®¨à®°à®ķà®¤": 1200,
      "Ġà®ĩà®²à®ķ": 1201,
      "Ġà®īà®²à®ķà®¤": 1202,
      "Ġà®ªà®¨": 1203,
      "Ġà®µà®³à®°": 1204,
      "à¯ĩ?": 1205,
      "Ġà®®à®©à®¤": 1206,
      "Ġtitle": 1207,
      "Ġà®¤à®Łà®®": 1208,
      "Ġà®°à®¸": 1209,
      "Ġtranslate": 1210,
      "his": 1211,
      "Ġà®¨à®°à®ķà®µ": 1212,
      "à®īà®°": 1213,
      "ir": 1214,
      "bel": 1215,
      "Ġà®µà®¯à®¤": 1216,
      "tur": 1217,
      "à®®à®£à®®": 1218,
      "Ġà®Ĩà®ª": 1219,
      "og": 1220,
      "à®µà®£à®ķ": 1221,
      "Ġà®īà®ªà®¯": 1222,
      "!)": 1223,
      "Ġ=": 1224,
      "Ġà®ªà®²à®®": 1225,
      "à®īà®±": 1226,
      "à®¤à®©à®¤": 1227,
      "à®¹à®°": 1228,
      "rance": 1229,
      "à®°à®¨": 1230,
      "à®ĩà®µà®±": 1231,
      "Ġà®¨à®¯à®µà®ŀ": 1232,
      "Ġthis": 1233,
      "Ġà®ªà®°à®µ": 1234,
      "rip": 1235,
      "Ġà®ħà®ķà®±": 1236,
      "Ġà®®à®°à®¤": 1237,
      "Ġà®İà®¸": 1238,
      "à®¿-": 1239,
      "à®¤à®ķà®®": 1240,
      "à®²à®ªà®®": 1241,
      "à®µà®°à®Ļ": 1242,
      "),": 1243,
      "ue": 1244,
      "Ġe": 1245,
      "à®Ĩà®Ł": 1246,
      "à®ŀà®°": 1247,
      "à¯ģ:%": 1248,
      "Ġà®ªà®£à®®": 1249,
      "Ġà®®à®°à®£": 1250,
      "Ġà®İà®ķ": 1251,
      "Ġà®ħà®Łà®ķ": 1252,
      "Ġà®µà®±": 1253,
      "RL": 1254,
      "ric": 1255,
      "à®²à®³": 1256,
      "ĠxA": 1257,
      "à®īà®³": 1258,
      "di": 1259,
      "ry": 1260,
      "Ġà®īà®¯à®°à®®": 1261,
      "à®¤à®³": 1262,
      "à¯Ī%": 1263,
      "ith": 1264,
      "à®ªà®Łà®¤": 1265,
      "ext": 1266,
      "ab": 1267,
      "à®Łà®ķà®®": 1268,
      "Ġ--": 1269,
      "Ġ//": 1270,
      "Ġitem": 1271,
      "angu": 1272,
      "crip": 1273,
      "lic": 1274,
      "Ġà®¤à®©à®¤": 1275,
      "à®±à®©à®µ": 1276,
      "world": 1277,
      "ber": 1278,
      "rit": 1279,
      "à®İà®¨": 1280,
      "Ġ*": 1281,
      "ew": 1282,
      "Ġà®®à®¯à®ķ": 1283,
      "ĠThe": 1284,
      "Ġlabel": 1285,
      "à®ªà®²à®ķ": 1286,
      "à®Ĩà®®": 1287,
      "bo": 1288,
      "Ġ!": 1289,
      "Ġ<": 1290,
      "à®Łà®µà®±": 1291,
      "Ġà®ļà®µ": 1292,
      "est": 1293,
      "à®µà®®à®©": 1294,
      "anguage": 1295,
      "Ġaction": 1296,
      "ail": 1297,
      "Ġà®¸à®®": 1298,
      "Ġà®ªà®°à®ª": 1299,
      "out": 1300,
      "Ġà®ľà®©": 1301,
      "Ġà®ıà®µà®ª": 1302,
      "ac": 1303,
      "à®¤à®°à®©": 1304,
      "à®īà®²à®ķ": 1305,
      "à®ļà®®à®¯": 1306,
      "oc": 1307,
      "Ġà®¯à®ĥà®ķ": 1308,
      "à¯į:%": 1309,
      "à¯ģ?\"": 1310,
      "Ġà®ħà®ķà®²à®®": 1311,
      "Ġà®Ĳà®¯": 1312,
      "Ġà®µà®³": 1313,
      "à®İà®´": 1314,
      "à®ļà®Ł": 1315,
      "à®ļà®¨": 1316,
      "Ġà®ħà®°à®ª": 1317,
      "int": 1318,
      "à®¤à®ķà®¤": 1319,
      "Ġare": 1320,
      "ill": 1321,
      "ER": 1322,
      "Ġ#": 1323,
      "Ġà®ķà®²à®¨": 1324,
      "Ġà®®à®±à®ķ": 1325,
      "à®²à®µà®°": 1326,
      "à¯ĩà®¾!": 1327,
      "à®¹à®®": 1328,
      "à®´à®°": 1329,
      "ĠCO": 1330,
      "Ġà®ªà®¤à®µ": 1331,
      "Ġà®ħà®µà®©à®¤": 1332,
      "Ġà®¤à®Łà®µ": 1333,
      "ING": 1334,
      "her": 1335,
      "ĠJ": 1336,
      "Ġà®ĩà®°à®ķ": 1337,
      "à®¤à®¤à®©": 1338,
      "à¯Ī.\"": 1339,
      "ties": 1340,
      "erver": 1341,
      "à®ķà®Łà®²": 1342,
      "ap": 1343,
      "sia": 1344,
      "à¯į)\"": 1345,
      "à®İà®¸": 1346,
      "Ġà®Ĩà®¤à®®": 1347,
      "à®ªà®²à®©": 1348,
      "Ġà®Ĩà®´": 1349,
      "à®ĩà®ķ": 1350,
      "ttp": 1351,
      "Ġà®İà®®": 1352,
      "Ġà®ĩà®°à®¤": 1353,
      "ine": 1354,
      "Ġà®¹à®²": 1355,
      "à®¾(": 1356,
      "Ġà®ĩà®´à®ª": 1357,
      "TS": 1358,
      "à®³à®Ł": 1359,
      "à®İà®ª": 1360,
      "ĠTR": 1361,
      "Ġà®ªà®Łà®Ļ": 1362,
      "ll": 1363,
      "à®®à®ª": 1364,
      "ton": 1365,
      "od": 1366,
      "Ġà®Ĩà®µà®£à®®": 1367,
      "Ġà®ķà®£à®µà®°": 1368,
      "Ġmon": 1369,
      "Ġhttp": 1370,
      "bia": 1371,
      "sh": 1372,
      "ug": 1373,
      "Ġv": 1374,
      "à®µà®³": 1375,
      "à®µà®ķà®©": 1376,
      "Ġtranslated": 1377,
      "à®³à®©à®®": 1378,
      "Ġà®ļà®®à®¯à®¤": 1379,
      "Ġà®ħà®°à®ļ": 1380,
      "Ġà®Ĭà®±": 1381,
      "star": 1382,
      "ussia": 1383,
      "à®ªà®¯à®ª": 1384,
      "Ġà®Ĵà®±": 1385,
      "à¯Ī:%": 1386,
      "Ġà®ªà®Łà®¤": 1387,
      "Ġà®ĩà®Łà®ª": 1388,
      "ĠURL": 1389,
      "ĠÃ": 1390,
      "à¯į@": 1391,
      "à®°à®±": 1392,
      "à®£à®±": 1393,
      "Ġà®Ĭà®¤": 1394,
      "ATOR": 1395,
      "escrip": 1396,
      "ĠSh": 1397,
      "ĠxE": 1398,
      "à®¯à®ķà®¤": 1399,
      "à®°à®£à®Ļ": 1400,
      "Ġà®ªà®²à®µ": 1401,
      "Ġstat": 1402,
      "egion": 1403,
      "IS": 1404,
      "ome": 1405,
      "à®Ĳà®ª": 1406,
      "à®ĩà®Ļ": 1407,
      "à®°à®®à®¤": 1408,
      "à®´à®µ": 1409,
      "Ġ19": 1410,
      "à®Łà®Ł": 1411,
      "end": 1412,
      "ype": 1413,
      "RO": 1414,
      "ĠÂ": 1415,
      "à®®à®´": 1416,
      "ting": 1417,
      "à®µà®¤à®©": 1418,
      "à®£à®²": 1419,
      "ĠCD": 1420,
      "à®ķà®°à®Ļ": 1421,
      "reat": 1422,
      "ANSL": 1423,
      "ĠHT": 1424,
      "Ġshould": 1425,
      "ĠTRANSL": 1426,
      "ATORS": 1427,
      "ĠTRANSLATORS": 1428,
      "VD": 1429,
      "à®Ĭ": 1430,
      "ĠOF": 1431,
      "Ġorg": 1432,
      "vin": 1433,
      "ĠZ": 1434,
      "à®Łà®¨": 1435,
      "Ġkde": 1436,
      "à®ķà®³à®¤": 1437,
      "escription": 1438,
      "à¯ģ@": 1439,
      "à®ľà®®": 1440,
      "Ġsp": 1441,
      "à®¤à®³à®¤": 1442,
      "à®Łà®±": 1443,
      "à®ļà®µ": 1444,
      "Ġsy": 1445,
      "AME": 1446,
      "lo": 1447,
      "Ġà®®à®©à®®": 1448,
      "rom": 1449,
      "à®±à®µà®±": 1450,
      "60": 1451,
      "uer": 1452,
      "à¯Ģ)": 1453,
      "Ġà®ªà®Łà®µ": 1454,
      "Ġà®ķà®£à®µà®©": 1455,
      "Ġ_:": 1456,
      "Ġ{": 1457,
      "à®®à®¸": 1458,
      "à®ħà®³à®µ": 1459,
      "Ġcoun": 1460,
      "ase": 1461,
      "à¯į]": 1462,
      "ong": 1463,
      "lass": 1464,
      "ountry": 1465,
      "LE": 1466,
      "à®¿!": 1467,
      "Ġà®ķà®®": 1468,
      "Ġà®°à®ª": 1469,
      "à®µà®ļà®¤": 1470,
      "à®ķà®³à®²": 1471,
      "Ġà®¨à®²à®®": 1472,
      "Ġà®Ĩà®³": 1473,
      "à®Ĩà®¤à®®": 1474,
      "Ġfucking": 1475,
      "à®ıà®´": 1476,
      "Ġcounties": 1477,
      "ire": 1478,
      "ard": 1479,
      "Ġstate": 1480,
      "Ġunit": 1481,
      "50": 1482,
      "à®²à®±": 1483,
      "à®£à®¯": 1484,
      "Ġwor": 1485,
      "Ġwill": 1486,
      "Ġmonth": 1487,
      "Ġà®Ĩà®¯à®¤": 1488,
      "02": 1489,
      "ob": 1490,
      "Ġà®ªà®Łà®®": 1491,
      "ines": 1492,
      "we": 1493,
      "Ġà®ªà®µ": 1494,
      "Ġà®¹à®ľ": 1495,
      "PI": 1496,
      "Ġà®ħà®²à®Ł": 1497,
      "Ġà®ħà®Łà®°": 1498,
      "Ġan": 1499,
      "à®©à®©": 1500,
      "à¯ģ/": 1501,
      "Ġà®ĩà®©à®¤": 1502,
      "ice": 1503,
      "Ġle": 1504,
      "à®´à®©": 1505,
      "Ġdist": 1506,
      "ari": 1507,
      "Ġfile": 1508,
      "ipp": 1509,
      "ont": 1510,
      "à®¿),": 1511,
      "Ġcont": 1512,
      "Ġà®®à®£à®®": 1513,
      "tic": 1514,
      "Ġch": 1515,
      "ritain": 1516,
      "Ġex": 1517,
      "Ġà®īà®ªà®ķ": 1518,
      "Ġà®İà®©à®¤": 1519,
      "à®¤à®©à®ķ": 1520,
      "Ġà®ļà®®à®¯à®®": 1521,
      "Ġà®ªà®¯à®©à®³": 1522,
      "Ġbritain": 1523,
      "Ġhow": 1524,
      "CK": 1525,
      "ik": 1526,
      "Ġà®ĩà®µà®©": 1527,
      "Ġph": 1528,
      "Ġà®ħà®ļà®¤": 1529,
      "Ġà®°à®¤": 1530,
      "Ġcan": 1531,
      "000": 1532,
      "ĠThis": 1533,
      "Country": 1534,
      "Ġclass": 1535,
      "ĠAl": 1536,
      "à®Īà®®": 1537,
      "Ġhe": 1538,
      "Ġà®±": 1539,
      "Ġà®ļà®£": 1540,
      "Ġkey": 1541,
      "Ġà®Ĭà®¤à®ª": 1542,
      "Ġwith": 1543,
      "Ġbutton": 1544,
      "Ġu": 1545,
      "Ġà®īà®Łà®²": 1546,
      "à¯ĩà®¾.": 1547,
      "à®ĩà®¸": 1548,
      "à®Ĵà®µ": 1549,
      "Ġà®ķà®µà®©à®®": 1550,
      "ject": 1551,
      "à®īà®Łà®©": 1552,
      "Ġsub": 1553,
      "Ġà®ªà®¯à®¤": 1554,
      "à®¯à®¤à®±": 1555,
      "à®¨à®ķà®°": 1556,
      "ult": 1557,
      "OP": 1558,
      "Ġà®¨à®ķà®±": 1559,
      "à®ĩà®±à®¨": 1560,
      "Ġthat": 1561,
      "ions": 1562,
      "Region": 1563,
      "Ġà®Ĩà®¤à®°": 1564,
      "IG": 1565,
      "Ġj": 1566,
      "Ġà®¨à®Łà®®": 1567,
      "Ġà®ļà®²": 1568,
      "à®ħà®ļ": 1569,
      "ary": 1570,
      "ost": 1571,
      "à®¤à®¸": 1572,
      "ere": 1573,
      "Ġà®ħà®µà®¤": 1574,
      "à¯į..": 1575,
      "ania": 1576,
      "os": 1577,
      "à®¯à®ķà®®": 1578,
      "à®±à®ļ": 1579,
      "Ġà®®à®ŀ": 1580,
      "à®İà®ķ": 1581,
      "à®īà®¤à®µ": 1582,
      "ilipp": 1583,
      "ĠIS": 1584,
      "Ġà®ªà®²à®©à®³": 1585,
      "ilippines": 1586,
      "ds": 1587,
      "à®ķà®¯": 1588,
      "à®¾'": 1589,
      "Ġà®ħà®³à®ª": 1590,
      "indow": 1591,
      ")!": 1592,
      "20": 1593,
      "AS": 1594,
      "ak": 1595,
      "à®®à®²à®ķ": 1596,
      "à®Łà®´": 1597,
      "Ġas": 1598,
      ");": 1599,
      "MM": 1600,
      "Ġra": 1601,
      "à¯Į": 1602,
      "Ġà®µà®¸": 1603,
      "Ġà®īà®´": 1604,
      "Ġà®ĵà®¯": 1605,
      "Ġà®Ĩà®µà®£à®Ļ": 1606,
      "per": 1607,
      "à®īà®®à®ķ": 1608,
      "ĠServer": 1609,
      "land": 1610,
      "mage": 1611,
      "Ġoption": 1612,
      "à®ªà®¯": 1613,
      "Ġà®ĩà®¯à®±": 1614,
      "Ġà®¤à®Łà®¤": 1615,
      "à®®à®°à®£à®¤": 1616,
      "Ġà®ĩà®´à®ķ": 1617,
      "ress": 1618,
      "tor": 1619,
      "à¯į;\"": 1620,
      "our": 1621,
      "Ġby": 1622,
      "ĠDPI": 1623,
      "à®ªà®¯à®ªà®ķ": 1624,
      "pi": 1625,
      "à®ªà®ķà®®": 1626,
      "à®İà®®": 1627,
      ",%": 1628,
      "ep": 1629,
      "Ġà®ļà®±": 1630,
      "Ġà®¤à®°à®®": 1631,
      "ico": 1632,
      "ĠxAE": 1633,
      "Ġstatus": 1634,
      "ĠHTML": 1635,
      "IL": 1636,
      "Ġ00": 1637,
      "Ġà®®à®ķà®³": 1638,
      "ĠComment": 1639,
      "UN": 1640,
      "ces": 1641,
      "ns": 1642,
      "à®¯à®¸": 1643,
      "à®īà®©à®ķ": 1644,
      "ments": 1645,
      "box": 1646,
      "à®ªà®´": 1647,
      "Ġà®®à®Łà®Ļ": 1648,
      "Ġà®ªà®¯à®£à®®": 1649,
      "Ġmess": 1650,
      "ust": 1651,
      "à¯Ī-": 1652,
      "à®¨à®®à®ķ": 1653,
      "à®¿\"": 1654,
      "Ġà®ķà®¤à®µ": 1655,
      "Ġà®ĩà®³": 1656,
      "à®ªà®¤à®©": 1657,
      "Ġtype": 1658,
      "ore": 1659,
      "Ġ20": 1660,
      "ella": 1661,
      "Ġmenu": 1662,
      "iB": 1663,
      "à®³à®©à®°": 1664,
      "orm": 1665,
      "Ġà®Ĩà®£à®µà®®": 1666,
      "à®¤à®¯à®¤": 1667,
      "à®¨à®ķà®²": 1668,
      "Ġà®ļà®µà®©à®ªà®¤": 1669,
      "Ġà®ħà®µà®©à®©": 1670,
      "à®¤à®®à®ķ": 1671,
      "Ġà®ħà®µà®ļ": 1672,
      "min": 1673,
      "Ġà®®à®¹à®°": 1674,
      "à®ļà®³": 1675,
      "Ġà®īà®µà®®": 1676,
      "Ġà®ħà®°à®ļà®°": 1677,
      "à®ļà®®à®¯à®®": 1678,
      ";)": 1679,
      "AP": 1680,
      "ror": 1681,
      "zer": 1682,
      "Ġà®ħà®²à®ķ": 1683,
      "heck": 1684,
      "Ġà®¨à®ķà®°à®¤": 1685,
      "Ġà®ķà®¯": 1686,
      "Ġà®¤à®²à®¤": 1687,
      "Ġà®İà®ľà®®": 1688,
      "à®ªà®Łà®Ļ": 1689,
      "à®ĩà®ļ": 1690,
      "à®ļà®®à®±": 1691,
      "à¯į?)": 1692,
      "Ġpre": 1693,
      "Ġà®ªà®²à®ª": 1694,
      "lease": 1695,
      "ĠIM": 1696,
      "ure": 1697,
      "Ġà®Ĩà®Ļ": 1698,
      "Ġà®Ĩà®ķà®®": 1699,
      "à®³à®°à®Ļ": 1700,
      "ets": 1701,
      "jects": 1702,
      "ON": 1703,
      "ml": 1704,
      "à®ķà®¨": 1705,
      "Ġà®ķà®µ": 1706,
      "à¯ģ,)": 1707,
      "à®·à®®": 1708,
      "Ġà®¤à®Łà®Ļ": 1709,
      "Ġsome": 1710,
      "Ġà®Ĩà®µà®£": 1711,
      "ĠSt": 1712,
      "DVD": 1713,
      "Ġà®ªà®ŀ": 1714,
      "Ġà®ıà®¸": 1715,
      "onst": 1716,
      "Ġfil": 1717,
      "Language": 1718,
      "à®°à®³": 1719,
      "à®²à®¸": 1720,
      "Ġà®Ĩà®´à®®": 1721,
      "Ġreg": 1722,
      ".)": 1723,
      "france": 1724,
      "port": 1725,
      "Ġba": 1726,
      "à®®à®¤à®®": 1727,
      "à®µà®°à®¤": 1728,
      "Ġà®µà®Łà®ķ": 1729,
      "à®ħà®µà®³": 1730,
      "Ġà®Łà®ķ": 1731,
      "ellation": 1732,
      "à®±à®Ł": 1733,
      "onstellation": 1734,
      "sp": 1735,
      "à®ķà®Łà®®": 1736,
      "Ġà®ĩà®¯à®¨": 1737,
      "Ġ11": 1738,
      "other": 1739,
      "Ġà®ķà®²à®ª": 1740,
      "Ġà®ªà®´à®Ļ": 1741,
      "der": 1742,
      "Ġab": 1743,
      "isc": 1744,
      "ricts": 1745,
      "Ġ*.": 1746,
      "Ġ)": 1747,
      "Ġà®©": 1748,
      "à®¸à®©": 1749,
      "menu": 1750,
      "Ġtext": 1751,
      "ĠMAN": 1752,
      "à®ıà®¤": 1753,
      "Ġdistricts": 1754,
      ".\"": 1755,
      "are": 1756,
      "ff": 1757,
      "à®Łà®¤à®©": 1758,
      "à¯Ī'": 1759,
      "à®īà®²à®ķà®¤": 1760,
      "Ġprovin": 1761,
      "ĠMB": 1762,
      "ĠYou": 1763,
      "Ġyour": 1764,
      "Ġprovinces": 1765,
      "ree": 1766,
      "key": 1767,
      "Ġà®®à®¹": 1768,
      "Ġ(#": 1769,
      "à®İà®Ł": 1770,
      "Ġinmenu": 1771,
      "lect": 1772,
      "Ġwindow": 1773,
      "Ġà®®à®£à®¨": 1774,
      "ĠIn": 1775,
      "Ġsubjects": 1776,
      "ht": 1777,
      "iz": 1778,
      "à¯ģ);": 1779,
      "Ġà®µà®°à®ķ": 1780,
      "\\\\\\\\": 1781,
      "CT": 1782,
      "cess": 1783,
      "à®¤à®¯à®®": 1784,
      "à®°à®ķà®Ļ": 1785,
      "à¯Ģ;": 1786,
      "Ġà®ħà®±à®ª": 1787,
      "Ġà®¸à®ľ": 1788,
      "roup": 1789,
      "\";": 1790,
      "à®µà®©à®ļ": 1791,
      "Ġà®ıà®³à®©à®®": 1792,
      "à®ķà®°à®±": 1793,
      "ite": 1794,
      "Ġà®ħà®³à®µà®±": 1795,
      "Ad": 1796,
      "BAR": 1797,
      "Ġà®ļà®ķà®²": 1798,
      "Ġà®®à®°à®£à®®à®Ł": 1799,
      "Ġunits": 1800,
      "ring": 1801,
      "à¯ģ!\"": 1802,
      "Ġà®®à®Ļ": 1803,
      "all": 1804,
      "ory": 1805,
      "ah": 1806,
      "Ġvi": 1807,
      "av": 1808,
      "ft": 1809,
      "li": 1810,
      "à®µà®ķà®®": 1811,
      "Ġà®ħà®ķà®°": 1812,
      "à®ħà®£": 1813,
      "à®¸à®®": 1814,
      "ant": 1815,
      "arch": 1816,
      "à®Īà®¸": 1817,
      "umber": 1818,
      "Ġwhat": 1819,
      "11": 1820,
      "Ġ:": 1821,
      "Ġà®®à®°à®ķ": 1822,
      "Ġworld": 1823,
      "mb": 1824,
      "à®ħà®ŀ": 1825,
      "à¯Ī).": 1826,
      "à®Ĵà®©": 1827,
      "ata": 1828,
      "Ġà®Ĭà®Ł": 1829,
      "object": 1830,
      "à®²à®¹": 1831,
      "à®ªà®Łà®ķ": 1832,
      "Ġà®Ĩà®ªà®¤": 1833,
      "amero": 1834,
      "aters": 1835,
      "ameroon": 1836,
      "NAME": 1837,
      "TP": 1838,
      "Ġà®Ĩà®¸": 1839,
      "Ġcheck": 1840,
      "ages": 1841,
      "\")": 1842,
      "Constellation": 1843,
      "ty": 1844,
      "Ġet": 1845,
      "à®¿%": 1846,
      "Ġà®ªà®£à®¤": 1847,
      "ook": 1848,
      "Ġregions": 1849,
      "part": 1850,
      "Ġà®ªà®²à®¤": 1851,
      "Ġà®īà®ļ": 1852,
      "à¯ģ),": 1853,
      "Ġà®ĩà®²à®µà®ļ": 1854,
      "olum": 1855,
      "ublic": 1856,
      "IGH": 1857,
      "à®µà®°à®ķ": 1858,
      "à¯ģ.\"": 1859,
      "Ġà®ĩà®¤à®¯à®¤": 1860,
      "Ġ14": 1861,
      "Ġà®ªà®¯à®©à®±": 1862,
      "ick": 1863,
      "rack": 1864,
      "philippines": 1865,
      "ound": 1866,
      "Ġetc": 1867,
      "CD": 1868,
      "Ġz": 1869,
      "Ġed": 1870,
      "à®¯à®ªà®Ł": 1871,
      "à®¨à®¯à®µà®ŀ": 1872,
      "Ġà®¤à®³à®¤": 1873,
      "à®ķà®®à®©": 1874,
      "ink": 1875,
      "à®Ĩà®¯": 1876,
      "à®ķà®£à®ķ": 1877,
      "Ġà®¨à®ķà®°à®®": 1878,
      "AND": 1879,
      "ters": 1880,
      "ĠâĢ": 1881,
      "Ġrare": 1882,
      "ib": 1883,
      "à®¤à®ķà®ķ": 1884,
      "Ġà®Ĩà®Łà®µà®°": 1885,
      "à®·à®Ļ": 1886,
      "arn": 1887,
      "sthis": 1888,
      "ĠFucking": 1889,
      "Ġlist": 1890,
      "à®¿;)": 1891,
      "ROAN": 1892,
      "Ġwhatsthis": 1893,
      "ud": 1894,
      "Ġif": 1895,
      "Ġà®ħà®¯": 1896,
      "Ġà®ħà®¸": 1897,
      "Ġà®¤à®³à®µ": 1898,
      "Ġà®¤à®³à®®": 1899,
      "à®¤à®µà®£": 1900,
      "Ġneeds": 1901,
      "ĠImage": 1902,
      "able": 1903,
      "Ġrarely": 1904,
      "oss": 1905,
      "à®¿/": 1906,
      "à®¾...": 1907,
      "à®ªà®ķà®¤": 1908,
      "à®°à®£à®Ł": 1909,
      "Ġ100": 1910,
      "Ġà®ĵà®¤à®ª": 1911,
      "Ġar": 1912,
      "Ġapp": 1913,
      "ĠCog": 1914,
      "ĠMiB": 1915,
      "Ġà®®à®²à®Ł": 1916,
      "ĠCogl": 1917,
      "ack": 1918,
      "fa": 1919,
      "Ġim": 1920,
      "à¯Ī?\"": 1921,
      "Ġà®ķà®µà®°": 1922,
      "Ġà®īà®²à®°": 1923,
      "à®ĥà®®à®¤": 1924,
      "Ġà®ħà®°à®ļà®©": 1925,
      "uery": 1926,
      "CH": 1927,
      "ive": 1928,
      "nam": 1929,
      "ich": 1930,
      "PS": 1931,
      "à®°à®¸": 1932,
      "Ġà®¨à®¤": 1933,
      "Ġer": 1934,
      "à¯ģ]": 1935,
      "à®¾\"": 1936,
      "à®µà®¹": 1937,
      "Ġ25": 1938,
      "Ġà®īà®¤à®¯à®®": 1939,
      "ĠDo": 1940,
      "Ġabout": 1941,
      "=\\\\\\\\": 1942,
      "AL": 1943,
      "ix": 1944,
      "à®ĩà®´": 1945,
      "Ġam": 1946,
      "Ġà®Ĳà®°": 1947,
      "Ġ360": 1948,
      "ov": 1949,
      "Ġen": 1950,
      "Ġà®ħà®ķà®²": 1951,
      "à®µà®©à®¤": 1952,
      "Ġà®ħà®µà®Ļ": 1953,
      "Ġnew": 1954,
      "iff": 1955,
      "ction": 1956,
      "à®¤à®³à®®": 1957,
      "à®µà®£": 1958,
      "Ġà®ķà®²à®ķ": 1959,
      "à®µà®°à®£": 1960,
      "onia": 1961,
      "ĠCo": 1962,
      "Ġfrom": 1963,
      "ĠLong": 1964,
      "Ġdepart": 1965,
      "ĠShort": 1966,
      "Ġdepartments": 1967,
      "Description": 1968,
      "pla": 1969,
      "à®¨à®®à®¤": 1970,
      "ital": 1971,
      "Ġ30": 1972,
      "etnam": 1973,
      "ĠOnt": 1974,
      "ĠUS": 1975,
      "ario": 1976,
      "Ġerror": 1977,
      "12": 1978,
      "ron": 1979,
      "à®ķà®³à®©": 1980,
      "Ġad": 1981,
      "à®ľà®©": 1982,
      "Ġà®Ĭà®Łà®ķ": 1983,
      "Ġstring": 1984,
      "idg": 1985,
      "LES": 1986,
      "ĠOntario": 1987,
      "ID": 1988,
      "MB": 1989,
      "ave": 1990,
      "pen": 1991,
      "à®°à®¯à®®": 1992,
      "à®¯à®¯": 1993,
      "à®ļà®±": 1994,
      "Ġ\"-": 1995,
      "à®ķà®®à®¤": 1996,
      "à®·à®©": 1997,
      "à®ľà®°": 1998,
      "ĠStencils": 1999,
      "Ġpref": 2000,
      "@}": 2001,
      "EX": 2002,
      "GROAN": 2003,
      "à®²à®ķà®®": 2004,
      "Ġà®¨à®°à®®": 2005,
      "Ġà®ķà®³à®¤": 2006,
      "à®µà®©à®®": 2007,
      "à®´à®Ł": 2008,
      "à®ķà®°à®¤": 2009,
      "Ġà®¨à®Łà®µà®Ł": 2010,
      "Ġà®ķà®°à®Ļ": 2011,
      "à®ªà®°à®ª": 2012,
      "Ġthere": 2013,
      "Ġuse": 2014,
      "Ġ{@}": 2015,
      "Query": 2016,
      "ock": 2017,
      "à®®à®°à®¤": 2018,
      "à®¯à®³à®µ": 2019,
      "à®ĥà®ľ": 2020,
      "ans": 2021,
      "Ġà®ªà®±à®ķ": 2022,
      "Ġà®Īà®°": 2023,
      "oper": 2024,
      "arac": 2025,
      "à®µà®ļà®©à®Ļ": 2026,
      "80": 2027,
      "ial": 2028,
      "ode": 2029,
      "Ġ$": 2030,
      "à®¿'": 2031,
      "à®¯à®£": 2032,
      "à®´à®ļ": 2033,
      "à®¸à®©à®¤": 2034,
      "Ġà®ĩà®¤à®¯à®®": 2035,
      "lar": 2036,
      "Ġà®ĩà®£à®Ļ": 2037,
      "Ġgroup": 2038,
      "à®¨à®°à®ķà®®": 2039,
      "UCK": 2040,
      "à®®à®µà®°": 2041,
      "Ġà®ĩà®¯": 2042,
      "Ġà®ļà®°à®£à®Ł": 2043,
      "Ġnumber": 2044,
      "Ġ15": 2045,
      "Ġpla": 2046,
      "Ġà®ªà®²à®ļ": 2047,
      "Ġset": 2048,
      "Ġà®ħà®³à®¨": 2049,
      "Ġbet": 2050,
      "ĠPlease": 2051,
      "urr": 2052,
      "PP": 2053,
      "à®ķà®ĥ": 2054,
      "Ġà®ĩà®¹": 2055,
      "à®ªà®Łà®ļ": 2056,
      "à®ĩà®Ł": 2057,
      "à®İà®µà®©": 2058,
      "Ġà®®à®©à®Ļ": 2059,
      "Ġphp": 2060,
      "val": 2061,
      "à®Łà®ķà®¤": 2062,
      "à¯Ģ.": 2063,
      "à®¤à®©à®Ļ": 2064,
      "Ġà®Īà®©": 2065,
      "Ġà®ħà®ªà®¯à®®": 2066,
      "Ġper": 2067,
      "Ġproper": 2068,
      "Ġà®Ĭà®®": 2069,
      "Ġwe": 2070,
      "Ġgreat": 2071,
      "Ġà®ķà®´à®±": 2072,
      "Ġtime": 2073,
      "ween": 2074,
      "PG": 2075,
      "hà®ª": 2076,
      "ple": 2077,
      "Ġi": 2078,
      "Ġà®¤à®³à®°": 2079,
      "à®ĩà®°à®£": 2080,
      "Ġ16": 2081,
      "à®Ĩà®²": 2082,
      "Ġal": 2083,
      "Ġdescription": 2084,
      "Ġ720": 2085,
      "Ġbetween": 2086,
      "ek": 2087,
      "à¯ĩ?\"": 2088,
      "Ġ(-": 2089,
      "Ġà®İà®¤à®±": 2090,
      "Ġ13": 2091,
      "esk": 2092,
      "Ġfol": 2093,
      "mbol": 2094,
      "ĠâĢĶ": 2095,
      "OM": 2096,
      "lp": 2097,
      "tr": 2098,
      "Ġà®Ļ": 2099,
      "à®Łà®ªà®Ł": 2100,
      "Ġà®ĩà®¯à®©": 2101,
      "ĠMur": 2102,
      "ĠOpen": 2103,
      "Ġretur": 2104,
      "Ġsee": 2105,
      "Ġselect": 2106,
      "fault": 2107,
      "40": 2108,
      "AY": 2109,
      "SIGH": 2110,
      "great": 2111,
      "ho": 2112,
      "ij": 2113,
      "public": 2114,
      "à¯ĩ-": 2115,
      "Ġà®µà®©": 2116,
      "ones": 2117,
      "otherf": 2118,
      "ĠMurph": 2119,
      "EE": 2120,
      "OS": 2121,
      "lot": 2122,
      "nn": 2123,
      "te": 2124,
      "à®©à®¤à®²": 2125,
      "à®ªà®£à®®": 2126,
      "ote": 2127,
      "ques": 2128,
      "Ġsymbol": 2129,
      "Ġà®ħà®µà®ļà®°à®®": 2130,
      "DI": 2131,
      "OT": 2132,
      "sw": 2133,
      "Ġà®ķà®²à®µ": 2134,
      "ord": 2135,
      "à®ĩà®°à®µ": 2136,
      "word": 2137,
      "Ġval": 2138,
      "Ġreturns": 2139,
      "af": 2140,
      "fig": 2141,
      "ge": 2142,
      "ian": 2143,
      "Ġà®ĩà®Łà®µ": 2144,
      "à¯Ģ,": 2145,
      "à®İà®¤à®©": 2146,
      "à®Ĵà®´": 2147,
      "ĠGL": 2148,
      "ĠXML": 2149,
      "RI": 2150,
      "ast": 2151,
      "ip": 2152,
      "ted": 2153,
      "Ġà®ªà®²à®°": 2154,
      "Ġ-(": 2155,
      "à¯ģ..": 2156,
      "Ġà®ļà®°à®¤": 2157,
      "rol": 2158,
      "baij": 2159,
      "à®Ĵà®³": 2160,
      "ĠRussia": 2161,
      "Ġ60": 2162,
      "uertor": 2163,
      "Ġhead": 2164,
      "zerbaij": 2165,
      "uertorico": 2166,
      "zerbaijan": 2167,
      "Disc": 2168,
      "TD": 2169,
      "gra": 2170,
      "ta": 2171,
      "à®ļà®©à®®": 2172,
      "à®ħà®´à®ķ": 2173,
      "à¯ģ.)": 2174,
      "Ġà®µà®°à®Ł": 2175,
      "à®ķà®²à®Ļ": 2176,
      "ueb": 2177,
      "gre": 2178,
      "ser": 2179,
      "top": 2180,
      "à®¾:": 2181,
      "à®Łà®Łà®¤": 2182,
      "Ġà®®à®°à®®": 2183,
      "Ġà®ļà®°à®®": 2184,
      "Ġà®İà®©à®ª": 2185,
      "à®ħà®®à®°": 2186,
      "Ġà®ıà®ķà®©": 2187,
      "Ġà®ķà®Łà®ķ": 2188,
      "à®·à®ļ": 2189,
      "Ġsc": 2190,
      "atal": 2191,
      "Ġà®īà®Łà®©à®Ł": 2192,
      "Ġht": 2193,
      "Ġloc": 2194,
      "eger": 2195,
      "lication": 2196,
      "ev": 2197,
      "ww": 2198,
      "Ġver": 2199,
      "à®©à®¤à®®": 2200,
      "à®®à®°à®£": 2201,
      "à®¯à®ŀ": 2202,
      "Ġà®®à®¯à®Ļ": 2203,
      "Ġà®¤à®´": 2204,
      "à®ªà®µà®©à®²": 2205,
      "à®·à®®à®®": 2206,
      "Ġà®ªà®°à®ķ": 2207,
      "à®Łà®°à®ª": 2208,
      "read": 2209,
      "Ġà®Ĩà®±à®ķà®³": 2210,
      "ĠDC": 2211,
      "usa": 2212,
      "ĠLanguage": 2213,
      "à®¿:%": 2214,
      "Ġ2002": 2215,
      "Ġres": 2216,
      "Ġcharac": 2217,
      "AM": 2218,
      "ĠCity": 2219,
      "à®ªà®ķà®²": 2220,
      "à¯ĩ...": 2221,
      "Ġà®İà®µà®±": 2222,
      "Ġà®ħà®©à®¨": 2223,
      "à®®à®ķà®©": 2224,
      "à®ļà®©à®ª": 2225,
      "stem": 2226,
      "ĠNew": 2227,
      "Ġà®Ĩà®²à®¯à®¤": 2228,
      "ign": 2229,
      "ules": 2230,
      "Ġ2001": 2231,
      "à®ĵà®°": 2232,
      "à®Ĭà®°": 2233,
      "ĠISO": 2234,
      "esktop": 2235,
      "SIGHS": 2236,
      "Poss": 2237,
      "SS": 2238,
      "day": 2239,
      "Ġ+": 2240,
      "Ġem": 2241,
      "à®ļà®©à®¤": 2242,
      "à¯ĩà®¾?\"": 2243,
      "à®¹à®¤": 2244,
      "Ġ17": 2245,
      "à®·à®®à®Ļ": 2246,
      "Ġà®ľà®ķà®°": 2247,
      "NamePoss": 2248,
      "arques": 2249,
      "Ġà®¤à®µà®±à®ļ": 2250,
      "Ġwww": 2251,
      "ĠKP": 2252,
      "à®ıà®³à®©à®®": 2253,
      "à®¾!)": 2254,
      "Ġ50": 2255,
      "essive": 2256,
      "Ġcomarques": 2257,
      "ĠxAF": 2258,
      "Ġà®Ĩà®ķà®®à®Ļ": 2259,
      "Ġedu": 2260,
      "trl": 2261,
      "atalonia": 2262,
      "NamePossessive": 2263,
      "10": 2264,
      "200": 2265,
      "les": 2266,
      "lut": 2267,
      "ma": 2268,
      "rint": 2269,
      "russia": 2270,
      "âĻª": 2271,
      "med": 2272,
      "Ġà®¯à®¹": 2273,
      "Ġnnn": 2274,
      "Ġall": 2275,
      "babwe": 2276,
      "Ġtool": 2277,
      "ĠFI": 2278,
      "à®¤à®±à®Ł": 2279,
      "à¯į;).": 2280,
      "ask": 2281,
      "Ġtranslator": 2282,
      "ARS": 2283,
      "imbabwe": 2284,
      "Ġused": 2285,
      "ĠQueb": 2286,
      "Ġsearch": 2287,
      "Ġà®¤à®Łà®®à®±": 2288,
      "Ġlearn": 2289,
      "ike": 2290,
      "ĠQuebec": 2291,
      "CR": 2292,
      "In": 2293,
      "kra": 2294,
      "ven": 2295,
      "Ġà®ļà®ķà®®": 2296,
      "Ġà®ļà®¤à®µ": 2297,
      "à®ªà®Łà®²": 2298,
      "à®¤à®°à®¤": 2299,
      "à®¿,)": 2300,
      "Ġsu": 2301,
      "Ġà®¹à®µ": 2302,
      "Ġbug": 2303,
      "Ġbrack": 2304,
      "à®°à®ļà®µ": 2305,
      "tures": 2306,
      "ĠCooper": 2307,
      "Ġproperly": 2308,
      "kraine": 2309,
      "Ġbrackets": 2310,
      "%%": 2311,
      "GR": 2312,
      "ger": 2313,
      "mm": 2314,
      "pg": 2315,
      "put": 2316,
      "Ġqu": 2317,
      "à®°à®ķà®¤": 2318,
      "Ġà®®à®¨": 2319,
      "Ġà®Ĩà®ĥà®ª": 2320,
      "Ġktur": 2321,
      "ĠEn": 2322,
      "Ġ2000": 2323,
      "Ġrules": 2324,
      "Ġuser": 2325,
      "Ġkturtle": 2326,
      "ST": 2327,
      "ach": 2328,
      "iew": 2329,
      "ware": 2330,
      "waters": 2331,
      "à®©à®Ł": 2332,
      "Ġà®®à®²à®®": 2333,
      "ator": 2334,
      "à®ĩà®°à®ķà®ļ": 2335,
      "Ġ300": 2336,
      "ece": 2337,
      "own": 2338,
      "istan": 2339,
      "Admin": 2340,
      "greece": 2341,
      "IME": 2342,
      "ai": 2343,
      "Â¢": 2344,
      "à®©à®¸": 2345,
      "à®²à®µà®´": 2346,
      "Ġà®īà®ķ": 2347,
      "à¯į,\"": 2348,
      "Ġà®ĵà®µ": 2349,
      "ĠKD": 2350,
      "ĠMan": 2351,
      "Ġmotherf": 2352,
      "ĠIf": 2353,
      "Ġ600": 2354,
      "à®Īà®Ł": 2355,
      "Ġwhich": 2356,
      "IST": 2357,
      "romania": 2358,
      "ĠServerName": 2359,
      "ize": 2360,
      "UR": 2361,
      "à®Ĩà®±": 2362,
      "Ġà®¤à®°à®ķ": 2363,
      "à®Łà®°à®µ": 2364,
      "Ġà®ĩà®£à®ķ": 2365,
      "...)": 2366,
      "Ġhave": 2367,
      "ĠNe": 2368,
      "ambia": 2369,
      "ational": 2370,
      "quest": 2371,
      "integer": 2372,
      "ĠCOMM": 2373,
      "iceName": 2374,
      "Ġkeyword": 2375,
      "ĠServerAdmin": 2376,
      "UNTS": 2377,
      "Ġmessages": 2378,
      "CHUCK": 2379,
      "urrent": 2380,
      "ĠCOMMAND": 2381,
      "RE": 2382,
      "yle": 2383,
      "zil": 2384,
      "à®£à®Ł": 2385,
      "à®İà®£": 2386,
      "Ġat": 2387,
      "row": 2388,
      "ĠSSL": 2389,
      "Ġfrance": 2390,
      "ĠTARS": 2391,
      "Ġhas": 2392,
      "ĠGo": 2393,
      "\"),": 2394,
      "name": 2395,
      "to": 2396,
      "ution": 2397,
      "à®²à®£": 2398,
      "Ġà®ķà®ļ": 2399,
      "Ġà®ĩà®±à®ª": 2400,
      "à®ķà®¤à®µ": 2401,
      "Ġno": 2402,
      "à®ļà®®à®®": 2403,
      "ĠCtrl": 2404,
      "ray": 2405,
      "Ġdev": 2406,
      "way": 2407,
      "à¯į_": 2408,
      "Ġà®³": 2409,
      "à®ķà®²à®¤": 2410,
      "à®ķà®²à®©": 2411,
      "Ġ24": 2412,
      "à®Ĵà®²": 2413,
      "aru": 2414,
      "work": 2415,
      "Ġ199": 2416,
      "Ġmessage": 2417,
      "Ġvalue": 2418,
      "):": 2419,
      "HA": 2420,
      "ms": 2421,
      "ove": 2422,
      "oiceName": 2423,
      "par": 2424,
      "Â¡": 2425,
      "Â¨": 2426,
      "à®ķà®²à®®": 2427,
      "à®®à®³": 2428,
      "à®³à®±": 2429,
      "à¯Ī@": 2430,
      "Ġ('": 2431,
      "à®ªà®Łà®ª": 2432,
      "Ġà®µà®°à®ļ": 2433,
      "tival": 2434,
      "à®ļà®®à®Ł": 2435,
      "à®ħà®µà®°à®¤": 2436,
      "estival": 2437,
      "rank": 2438,
      "optic": 2439,
      "Ġà®Ĳà®¸": 2440,
      "ath": 2441,
      "ĠSaru": 2442,
      "ĠKM": 2443,
      "ĠNational": 2444,
      "rice": 2445,
      "dian": 2446,
      "ontrol": 2447,
      "GRUNTS": 2448,
      "AIL": 2449,
      "VoiceName": 2450,
      "ati": 2451,
      "eb": 2452,
      "lu": 2453,
      "à®ķà®·": 2454,
      "à®Łà®£à®¤": 2455,
      "à®¯à®©à®°": 2456,
      "Ġà®ķà®©à®®": 2457,
      "à¯Ī.)": 2458,
      "anc": 2459,
      "Ġdis": 2460,
      "Ġà®ªà®²à®ķà®¤": 2461,
      "Ġserver": 2462,
      "ĠFrance": 2463,
      "Ġcontain": 2464,
      "Ġfiles": 2465,
      "estivalVoiceName": 2466,
      "\".": 2467,
      ".%": 2468,
      "à®¿@": 2469,
      "à®®à®¤à®ª": 2470,
      "à®µà®£à®Ļ": 2471,
      "à®ħà®³": 2472,
      "à®Łà®¤à®±": 2473,
      "à®ķà®Łà®µ": 2474,
      "Ġcolor": 2475,
      "ated": 2476,
      "dition": 2477,
      "berta": 2478,
      "ĠAlberta": 2479,
      "Ġapplication": 2480,
      "Ġamount": 2481,
      "!'": 2482,
      "AD": 2483,
      "GL": 2484,
      "ble": 2485,
      "ime": 2486,
      "à¯Ī!\"": 2487,
      "Ġà®ķà®©à®¤": 2488,
      "Ġà®ķà®ŀ": 2489,
      "à®¸à®ķà®°": 2490,
      "à®ĩà®¯à®¨": 2491,
      "Ġà®¯à®©": 2492,
      "tip": 2493,
      "à®°à®®à®Ļ": 2494,
      "à®īà®£à®µ": 2495,
      "Ġdpi": 2496,
      "Ġdiff": 2497,
      "à®Łà®°à®ļ": 2498,
      "rand": 2499,
      "ĠClut": 2500,
      "reen": 2501,
      "Ġà®¤à®²à®Ļ": 2502,
      "Ġà®Ĩà®£à®µà®Ļ": 2503,
      "outh": 2504,
      "iss": 2505,
      "à®©à®µà®ª": 2506,
      "Ġfuck": 2507,
      "ĠIN": 2508,
      "ĠBan": 2509,
      "Ġwhen": 2510,
      "Ġdefault": 2511,
      "Ġvietnam": 2512,
      "ĠClutter": 2513,
      "OW": 2514,
      "ide": 2515,
      "zambia": 2516,
      "Ġup": 2517,
      "à®²à®¨": 2518,
      "à®ªà®²à®°": 2519,
      "à®ķà®³à®®": 2520,
      "à¯ĩ;": 2521,
      "Ġà®ħà®µà®°à®µà®°": 2522,
      "à¯Ĥ(": 2523,
      "à¯ģ)?": 2524,
      "Ġà®ıà®£": 2525,
      "à®¯à®¤à®²": 2526,
      "Ġà®ħà®Łà®Ł": 2527,
      "Ġà®ħà®´à®ķà®²à®Ļ": 2528,
      "Ġpar": 2529,
      "Ġà®ļà®°à®Ļ": 2530,
      "Ġà®°à®©": 2531,
      "ombia": 2532,
      "Ġà®ĥà®ªà®ľ": 2533,
      "olombia": 2534,
      "ĠDVD": 2535,
      "à¯ģ;)": 2536,
      "ight": 2537,
      "Ġ2003": 2538,
      "ASE": 2539,
      "ĠBanir": 2540,
      "UT": 2541,
      "dpi": 2542,
      "ox": 2543,
      "à¯Ī/": 2544,
      "à¯ĩ:": 2545,
      "Ġà®¨à®ªà®°": 2546,
      "Ġà®ªà®ļà®ķ": 2547,
      "Ġà®®à®Łà®®": 2548,
      "Ġà®ĩà®¤à®°": 2549,
      "à®ļà®µà®¤": 2550,
      "à¯ĩà®¾?": 2551,
      "à¯į)-": 2552,
      "tif": 2553,
      "à®īà®¯à®°": 2554,
      "Ġdate": 2555,
      "Ġdire": 2556,
      "Ġ22": 2557,
      "Ġ28": 2558,
      "ĠColum": 2559,
      "iction": 2560,
      "ĠKW": 2561,
      "Ġhint": 2562,
      "ectures": 2563,
      "yper": 2564,
      "igh": 2565,
      "Ġshort": 2566,
      "à®°à®³à®¯à®¤": 2567,
      "Ġprefectures": 2568,
      "à®ķà®ĥà®ªà®¤": 2569,
      "onesia": 2570,
      "RW": 2571,
      "jay": 2572,
      "à®°à®¯à®¤": 2573,
      "Ġà®¨à®ķ": 2574,
      "Ġà®ªà®¸": 2575,
      "à®¹à®ľ": 2576,
      "ally": 2577,
      "Ġà®ªà®°à®ķà®ļ": 2578,
      "Ġcurrent": 2579,
      "Ġ%.": 2580,
      "à®µà®²à®ķà®¤": 2581,
      "ĠDE": 2582,
      "ĠIt": 2583,
      "ĠBri": 2584,
      "à®Ĩà®£à®µà®Ļ": 2585,
      "Ġ90": 2586,
      "ource": 2587,
      "ormation": 2588,
      "ialog": 2589,
      "CHUCKLES": 2590,
      "ax": 2591,
      "fer": 2592,
      "gory": 2593,
      "iop": 2594,
      "à®©à®ļ": 2595,
      "à®ªà®µà®®": 2596,
      "à®ļà®¯": 2597,
      "Ġ(*": 2598,
      "à¯į)?\"": 2599,
      "à¯ģ....": 2600,
      "tish": 2601,
      "Ġà®ħà®°à®Ł": 2602,
      "Ġ18": 2603,
      "à®Ĩà®¤à®²": 2604,
      "ĠCASE": 2605,
      "Ġà®Ĭà®´": 2606,
      "Ġà®ĥà®ªà®ķ": 2607,
      "ilot": 2608,
      "Ġwidg": 2609,
      "ell": 2610,
      "thiop": 2611,
      "chess": 2612,
      "ategory": 2613,
      "should": 2614,
      "Ġweek": 2615,
      "ĠBritish": 2616,
      "thiopian": 2617,
      "\",": 2618,
      "CE": 2619,
      "Res": 2620,
      "che": 2621,
      "ear": 2622,
      "oft": 2623,
      "à®¯à®ĥà®ķ": 2624,
      "à®±à®±": 2625,
      "à®µà®°à®µ": 2626,
      "Ġà®ļà®®à®°": 2627,
      "Ġà®ľà®ª": 2628,
      "rovin": 2629,
      "ĠSe": 2630,
      "ĠMD": 2631,
      "ĠDTD": 2632,
      "raw": 2633,
      "ĠGN": 2634,
      "Ġlike": 2635,
      "ung": 2636,
      "rig": 2637,
      "amount": 2638,
      "yprovin": 2639,
      "ull": 2640,
      "Ġcomm": 2641,
      "Ġrussia": 2642,
      "Ġà®¤à®³à®µà®®": 2643,
      "play": 2644,
      "Ġplain": 2645,
      "ĠColumbia": 2646,
      "yprovince": 2647,
      "'d": 2648,
      "::": 2649,
      "Ethiopian": 2650,
      "UM": 2651,
      "UPS": 2652,
      "cameroon": 2653,
      "à®ķà®¸": 2654,
      "à®®à®©à®¤": 2655,
      "à¯ĭ-": 2656,
      "à®İà®µ": 2657,
      "one": 2658,
      "Ġà®ļà®®à®¨": 2659,
      "à®īà®²": 2660,
      "Ġà®¤à®°à®ª": 2661,
      "Ġcameroon": 2662,
      "atch": 2663,
      "ĠxB": 2664,
      "ĠBrice": 2665,
      "ĠURI": 2666,
      "rib": 2667,
      "ĠWh": 2668,
      "ĠCOOP": 2669,
      "here": 2670,
      "italyprovince": 2671,
      "Ġlocal": 2672,
      "Ġdirect": 2673,
      "ictionary": 2674,
      "cent": 2675,
      "rc": 2676,
      "zimbabwe": 2677,
      "Ġop": 2678,
      "à®µà®ķà®¤": 2679,
      "à®ªà®µà®¤": 2680,
      "Ġà®ķà®³à®Ļ": 2681,
      "Ġà®ķà®Łà®±": 2682,
      "any": 2683,
      "Ġdata": 2684,
      "Ġprogra": 2685,
      "Ġmail": 2686,
      "ĠNAME": 2687,
      "ence": 2688,
      "INT": 2689,
      "ape": 2690,
      "Ġtooltip": 2691,
      "ĠCOOPER": 2692,
      "Coptic": 2693,
      "DAP": 2694,
      "mo": 2695,
      "puertorico": 2696,
      "à®´à®Ļ": 2697,
      "Ġà®ªà®±à®¨": 2698,
      "Ġà®ªà®°à®¨": 2699,
      "ican": 2700,
      "ĠLDAP": 2701,
      "Ġrepublic": 2702,
      "Ġstates": 2703,
      "Ġsystem": 2704,
      "Ġselected": 2705,
      "AB": 2706,
      "MY": 2707,
      "SE": 2708,
      "VS": 2709,
      "dress": 2710,
      "à®³à®³à®µ": 2711,
      "à®²à®µà®©": 2712,
      "à®ªà®²à®®": 2713,
      "Ġà®¨à®´": 2714,
      "Ġà®İà®ŀ": 2715,
      "à®īà®¤": 2716,
      "à®īà®Łà®²": 2717,
      "à®Ĩà®ª": 2718,
      "à®¿).": 2719,
      "Ġass": 2720,
      "à®ļà®°à®µ": 2721,
      "ĠCUPS": 2722,
      "Ġcategory": 2723,
      "Ġmust": 2724,
      "ĠPC": 2725,
      "ection": 2726,
      "ecif": 2727,
      "Ġ02": 2728,
      "utron": 2729,
      "board": 2730,
      "ĠIMAP": 2731,
      "ĠNeutron": 2732,
      "ĠNeutrons": 2733,
      "EM": 2734,
      "LY": 2735,
      "OL": 2736,
      "TH": 2737,
      "azerbaijan": 2738,
      "gr": 2739,
      "list": 2740,
      "Ġenc": 2741,
      "à®ķà®Łà®©": 2742,
      "Ġà®ķà®Łà®¤": 2743,
      "Ġà®İà®¯": 2744,
      "à¯ĩà®¾-": 2745,
      "Ġ-%": 2746,
      "à®¯à®°à®°": 2747,
      "lat": 2748,
      "help": 2749,
      "à®Łà®ķà®Ļ": 2750,
      "ĠKT": 2751,
      "Ġà®ªà®¯à®£à®¤": 2752,
      "ĠAn": 2753,
      "ech": 2754,
      "Ġ40": 2755,
      "à®Īà®°": 2756,
      "rica": 2757,
      "ahoo": 2758,
      "Ġhtml": 2759,
      "'s": 2760,
      "act": 2761,
      "card": 2762,
      "gh": 2763,
      "pl": 2764,
      "xico": 2765,
      "à®®à®Łà®Ļ": 2766,
      "à®¯à®´": 2767,
      "Ġà®ķà®³à®®": 2768,
      "Ġà®ªà®¹": 2769,
      "Ġà®ªà®¯à®Ļ": 2770,
      "à¯į)?": 2771,
      "à®¹à®©": 2772,
      "Ġnon": 2773,
      "à®°à®®à®±": 2774,
      "à®īà®±à®µ": 2775,
      "Ġdesktop": 2776,
      "ĠCH": 2777,
      "Ġcolum": 2778,
      "reg": 2779,
      "ark": 2780,
      "Ġmay": 2781,
      "ass": 2782,
      "Ġform": 2783,
      "Ġonly": 2784,
      "orea": 2785,
      "Ġback": 2786,
      "GROANS": 2787,
      "Indian": 2788,
      "Ġ(*.": 2789,
      "Ġweekday": 2790,
      ")-": 2791,
      "Key": 2792,
      "ace": 2793,
      "link": 2794,
      "sion": 2795,
      "wan": 2796,
      "yn": 2797,
      "Â¸": 2798,
      "Ġà®ħà®ľ": 2799,
      "à®¹à®µ": 2800,
      "à®ĩà®Łà®®": 2801,
      "à®±à®¤à®±": 2802,
      "à®ĥà®¤": 2803,
      "Ġà®ĩà®²à®Ļ": 2804,
      "Ġà®¨à®²à®©": 2805,
      "à¯į!)": 2806,
      "à®Łà®µà®³": 2807,
      "Ġà®Ĭà®ļà®²": 2808,
      "icen": 2809,
      "ĠTo": 2810,
      "Ġ31": 2811,
      "Ġà®®à®£à®²": 2812,
      "à®ķà®µà®©à®®": 2813,
      "ĠRem": 2814,
      "Ġà®ķà®³à®ŀ": 2815,
      "river": 2816,
      "Ġrequest": 2817,
      "Ġyahoo": 2818,
      "vijay": 2819,
      "cript": 2820,
      "rite": 2821,
      "ĠHTTP": 2822,
      "ika": 2823,
      "Ġjvijay": 2824,
      "Ġfilter": 2825,
      "Ġcharacters": 2826,
      "ungary": 2827,
      "',": 2828,
      "49": 2829,
      "OG": 2830,
      "den": 2831,
      "sc": 2832,
      "à®ķà®ĥà®ª": 2833,
      "Ġà®µà®®": 2834,
      "Ġà®®à®±à®¤": 2835,
      "à®ļà®ļ": 2836,
      "Ġà®ıà®µà®²": 2837,
      "Ġà®®à®±à®ª": 2838,
      "tive": 2839,
      "Ġtur": 2840,
      "à®²à®®à®²": 2841,
      "orth": 2842,
      "Ġnet": 2843,
      "ouse": 2844,
      "ĠSc": 2845,
      "ĠMIME": 2846,
      "à®®à®©à®¨": 2847,
      "ĠAt": 2848,
      "à¯ĩ.\"": 2849,
      "Ġconfig": 2850,
      "ake": 2851,
      "spain": 2852,
      "ĠKPilot": 2853,
      "Ġprogram": 2854,
      "88": 2855,
      "IM": 2856,
      "LI": 2857,
      "OV": 2858,
      "QL": 2859,
      "à®°à®µà®²à®©": 2860,
      "à®³à®¯": 2861,
      "Ġà®ħà®ķà®ª": 2862,
      "à¯ĩ(": 2863,
      "Ġà®ķà®ļà®ª": 2864,
      "Ġà®ļà®ļ": 2865,
      "à®ªà®Łà®Łà®¤": 2866,
      "à®ķà®®à®Ł": 2867,
      "Ġà®µà®°à®µà®´": 2868,
      "à®±à®¤à®²": 2869,
      "Ġà®Ĩà®ķà®²": 2870,
      "à®Ĩà®°à®®": 2871,
      "Ġà®ªà®°à®¤": 2872,
      "Ġà®Łà®¯à®°": 2873,
      "ĠCon": 2874,
      "omp": 2875,
      "à®ķà®´à®©": 2876,
      "Ġà®ķà®µà®©à®¤": 2877,
      "econ": 2878,
      "Ġà®ħà®µà®ļà®°à®ķ": 2879,
      "immed": 2880,
      "ATH": 2881,
      "ĠVika": 2882,
      "Ġspac": 2883,
      "Ġexam": 2884,
      "reely": 2885,
      "Ġà®ħà®ķà®°à®µà®°": 2886,
      "Ġfolder": 2887,
      "hole": 2888,
      "anced": 2889,
      "Ġcolumn": 2890,
      "DB": 2891,
      "Sh": 2892,
      "fin": 2893,
      "ià®µ": 2894,
      "iel": 2895,
      "res": 2896,
      "via": 2897,
      "à®¿+": 2898,
      "à®¤à®·": 2899,
      "à®©à®¤à®°": 2900,
      "à®®à®³à®µ": 2901,
      "à®²à®ļ": 2902,
      "à®²à®ķà®ª": 2903,
      "à®ªà®ŀ": 2904,
      "à®ªà®µà®Ļ": 2905,
      "Ġà®ķà®Ļ": 2906,
      "Ġà®ªà®ķà®°à®®": 2907,
      "à®ļà®ķà®¤": 2908,
      "à®ļà®µà®Ł": 2909,
      "à¯Ģ!": 2910,
      "Ġà®īà®ķà®¨": 2911,
      "à¯į.;": 2912,
      "à®ħà®ľ": 2913,
      "à¯ĭ.": 2914,
      "à®¸à®©à®®": 2915,
      "à®İà®¤à®±": 2916,
      "à®Łà®©à®µ": 2917,
      "Ġà®ĩà®²à®¨": 2918,
      "à®īà®®à®¤": 2919,
      "Ġà®ĵà®°à®Ļ": 2920,
      "à®ļà®®à®³": 2921,
      "à®ħà®µà®°à®µà®°": 2922,
      "à®Ĩà®´": 2923,
      "Ġaut": 2924,
      "à¯į).\"": 2925,
      "org": 2926,
      "Ġà®µà®ļà®©à®¤": 2927,
      "roll": 2928,
      "Ġà®°à®ļ": 2929,
      "à®ħà®µà®ļ": 2930,
      "eng": 2931,
      "ĠControl": 2932,
      "real": 2933,
      "Ġà®ħà®ķà®²à®¤": 2934,
      "atche": 2935,
      "à®ķà®´à®ª": 2936,
      "à¯ģ?)": 2937,
      "ĠSask": 2938,
      "ĠMM": 2939,
      "ĠMor": 2940,
      "à®¤à®µà®±à®ļ": 2941,
      "Ġà®ĵà®Łà®ļ": 2942,
      "Ġà®°à®¹à®®à®¤": 2943,
      "à®¨à®°à®ķà®µ": 2944,
      "Ġ80": 2945,
      "Ġ75": 2946,
      "ATE": 2947,
      "Ġphilippines": 2948,
      "EMAIL": 2949,
      "atchewan": 2950,
      "ĠSaskatchewan": 2951,
      "Hyper": 2952,
      "St": 2953,
      "ao": 2954,
      "cu": 2955,
      "found": 2956,
      "hà®ķ": 2957,
      "kHyper": 2958,
      "rin": 2959,
      "Ġic": 2960,
      "à®©à®³à®µ": 2961,
      "à®®à®°à®ķ": 2962,
      "à®®à®¹à®°": 2963,
      "Ġà®¨à®¯": 2964,
      "Ġà®®à®ĥà®ľ": 2965,
      "à®µà®©à®µ": 2966,
      "à®¯à®®à®Ł": 2967,
      "Ġà®īà®£à®µà®°": 2968,
      "Ġà®ķà®Łà®ķà®Ļ": 2969,
      "à®ªà®µà®°à®²": 2970,
      "Ġà®ĵà®¨": 2971,
      "Ġà®ĵà®¤à®ķ": 2972,
      "Ġà®ľà®¹à®©": 2973,
      "à®µà®´à®Ļ": 2974,
      "Ġ23": 2975,
      "Ġà®Ĭà®ķ": 2976,
      "ĠMed": 2977,
      "Ġà®ªà®¯à®£": 2978,
      "ĠDr": 2979,
      "ĠIP": 2980,
      "Ġà®Ĩà®ļà®©à®Ļ": 2981,
      "razil": 2982,
      "Ġ/%": 2983,
      "Ġstyle": 2984,
      "ows": 2985,
      "ations": 2986,
      "Ġ2004": 2987,
      "turkey": 2988,
      "ĠURLs": 2989,
      "à®¨à®ķà®°à®¤": 2990,
      "ffice": 2991,
      "tific": 2992,
      "icense": 2993,
      "ĠAtkHyper": 2994,
      "25": 2995,
      "CL": 2996,
      "Image": 2997,
      "net": 2998,
      "vanced": 2999,
      "à®µà®µ": 3000,
      "Ġà®µà®²à®®": 3001,
      "Ġà®¤à®ļ": 3002,
      "Ġà®Ĩà®µà®¤à®±": 3003,
      "à®İà®±": 3004,
      "à¯į\".": 3005,
      "Ġà®ħà®Łà®Ļ": 3006,
      "ana": 3007,
      "Ġaf": 3008,
      "Ġà®¸à®ª": 3009,
      "Ġà®ªà®°à®µà®ļ": 3010,
      "Ġà®²à®¤": 3011,
      "Ġinlist": 3012,
      "ous": 3013,
      "Ġà®ªà®´à®ķ": 3014,
      "ĠPATH": 3015,
      "ĠOCR": 3016,
      "ĠRegion": 3017,
      "Ġlog": 3018,
      "ĠEx": 3019,
      "ama": 3020,
      "à®ĵà®Ł": 3021,
      "ĠJO": 3022,
      "ĠZod": 3023,
      "oftware": 3024,
      "KS": 3025,
      "\\.": 3026,
      "bs": 3027,
      "dr": 3028,
      "ola": 3029,
      "pro": 3030,
      "Ġout": 3031,
      "Ġà®¨à®ļ": 3032,
      "Ġà®µà®Ļ": 3033,
      "men": 3034,
      "à®īà®Ł": 3035,
      "à®²à®ķà®Ļ": 3036,
      "à®·à®°": 3037,
      "ert": 3038,
      "erv": 3039,
      "Ġwas": 3040,
      "ĠTh": 3041,
      "Ġmm": 3042,
      "Ġmove": 3043,
      "Ġà®īà®²à®ķà®®": 3044,
      "ĠGreely": 3045,
      "ucker": 3046,
      "indonesia": 3047,
      "Ġele": 3048,
      "Ġà®Ĩà®´à®¤": 3049,
      "tings": 3050,
      "Ġspecif": 3051,
      "Ġukraine": 3052,
      "Ġ\"--": 3053,
      "GROANING": 3054,
      "Ġinlistbox": 3055,
      "Ch": 3056,
      "DIST": 3057,
      "NT": 3058,
      "OME": 3059,
      "OCK": 3060,
      "aus": 3061,
      "catalonia": 3062,
      "mp": 3063,
      "not": 3064,
      "ura": 3065,
      "Ġro": 3066,
      "à®°à®ķà®®": 3067,
      "Ġà®ļà®ŀ": 3068,
      "Ġà®®à®©à®¨": 3069,
      "à®¯à®°à®ļ": 3070,
      "Ġatt": 3071,
      "ĠColor": 3072,
      "Ġà®Ĭà®ļ": 3073,
      "ists": 3074,
      "ĠSIG": 3075,
      "Ġwaters": 3076,
      "url": 3077,
      "ĠOH": 3078,
      "Ġ500": 3079,
      "Ġinformation": 3080,
      "ĠcomEMAIL": 3081,
      "Ġlatin": 3082,
      "ups": 3083,
      "lock": 3084,
      "à®ªà®´à®Ļ": 3085,
      "lient": 3086,
      "Ġà®ħà®ªà®¯à®®à®³": 3087,
      "Result": 3088,
      "85": 3089,
      "DTS": 3090,
      "MAN": 3091,
      "WM": 3092,
      "__": 3093,
      "ie": 3094,
      "ied": 3095,
      "wn": 3096,
      "Ġou": 3097,
      "à®ķà®±à®¤": 3098,
      "à®¯à®Łà®ķ": 3099,
      "Ġà®īà®Łà®®": 3100,
      "à¯Ī.%": 3101,
      "ĠCRL": 3102,
      "à®Ĵà®¤": 3103,
      "ĠAd": 3104,
      "Ġà®īà®¯à®°à®¤": 3105,
      "Ġhungary": 3106,
      "ĠBrand": 3107,
      "Ġwhite": 3108,
      "Ġwidgets": 3109,
      "Ġturkey": 3110,
      "Ġspaces": 3111,
      "ĠJOE": 3112,
      "Day": 3113,
      "be": 3114,
      "bsp": 3115,
      "so": 3116,
      "za": 3117,
      "à®ªà®ªà®Ł": 3118,
      "à®ªà®¸": 3119,
      "à®ļà®£": 3120,
      "à®İà®°": 3121,
      "Ġà®ķà®£à®®": 3122,
      "Ġà®ĵà®ªà®©": 3123,
      "Ġinto": 3124,
      "ict": 3125,
      "ĠData": 3126,
      "ĠFL": 3127,
      "ute": 3128,
      "ĠUN": 3129,
      "ppp": 3130,
      "ift": 3131,
      "Ġ1200": 3132,
      "irst": 3133,
      "Ġdistrib": 3134,
      "ĠAlt": 3135,
      "ĠDCOP": 3136,
      "Ġsupp": 3137,
      "ĠRemote": 3138,
      "DayName": 3139,
      "16": 3140,
      "UE": 3141,
      "View": 3142,
      "ryp": 3143,
      "à®¤à®¯": 3144,
      "à®°à®¯à®Ł": 3145,
      "à®Łà®£": 3146,
      "Ġà®ªà®Łà®ª": 3147,
      "Ġkppp": 3148,
      "Ġà®°à®ķà®ļ": 3149,
      "Ġsign": 3150,
      "Ġinc": 3151,
      "lection": 3152,
      "ĠKG": 3153,
      "ĠMMM": 3154,
      "olia": 3155,
      "olution": 3156,
      "Ġmod": 3157,
      "Ġmore": 3158,
      "ĠPh": 3159,
      "ĠFor": 3160,
      "ĠFile": 3161,
      "ĠFlo": 3162,
      "Ġstart": 3163,
      "und": 3164,
      "nuPG": 3165,
      "ugal": 3166,
      "Ġ1440": 3167,
      "Ġaddress": 3168,
      "Ġversion": 3169,
      "Ġdisplay": 3170,
      "Ġformat": 3171,
      "ĠMedia": 3172,
      "360": 3173,
      "Sty": 3174,
      "ru": 3175,
      "ral": 3176,
      "xt": 3177,
      "Ġq": 3178,
      "Ġromania": 3179,
      "à¯Ī]": 3180,
      "à®±à®´": 3181,
      "Ġà®®à®²à®°": 3182,
      "à®ķà®µà®±": 3183,
      "à®ĩà®±à®ķ": 3184,
      "à®°à®®à®ª": 3185,
      "Ġdet": 3186,
      "à®Ĵà®ª": 3187,
      "à®µà®²à®ª": 3188,
      "ĠAT": 3189,
      "ĠAb": 3190,
      "Ġà®ķà®²à®Ļ": 3191,
      "ĠID": 3192,
      "à®Ĳà®ļ": 3193,
      "ceania": 3194,
      "words": 3195,
      "Ġaccess": 3196,
      "ood": 3197,
      "ireland": 3198,
      "ĠLongNamePossessive": 3199,
      "2006": 3200,
      "Ġopen": 3201,
      "Keywords": 3202,
      "zaire": 3203,
      "Style": 3204,
      "\":": 3205,
      "'.": 3206,
      "30": 3207,
      "GB": 3208,
      "ies": 3209,
      "led": 3210,
      "pt": 3211,
      "rror": 3212,
      "toc": 3213,
      "vel": 3214,
      "Â¾": 3215,
      "Ġend": 3216,
      "à®ķà®ĩà®°": 3217,
      "à®¤à®ķà®°": 3218,
      "à®©à®¨": 3219,
      "Ġà®µà®³à®®": 3220,
      "à¯į\",": 3221,
      "Ġà®ªà®Łà®ķ": 3222,
      "à®¾?.": 3223,
      "Ġà®ħà®µà®®": 3224,
      "Ġà®¤à®©à®®": 3225,
      "erm": 3226,
      "à®ľà®ª": 3227,
      "orway": 3228,
      "ĠCVS": 3229,
      "Ġco": 3230,
      "Ġcode": 3231,
      "ish": 3232,
      "lete": 3233,
      "ĠKà®ª": 3234,
      "ĠRE": 3235,
      "ĠUn": 3236,
      "ĠEX": 3237,
      "ĠEd": 3238,
      "Ġcomp": 3239,
      "Ġone": 3240,
      "ĠVI": 3241,
      "ĠShortNamePossessive": 3242,
      "Ġheaders": 3243,
      "ĠNewfound": 3244,
      "ditional": 3245,
      "ighs": 3246,
      "right": 3247,
      "Ġelement": 3248,
      "ĠNewfoundland": 3249,
      "600": 3250,
      ";%": 3251,
      "aw": 3252,
      "cm": 3253,
      "gle": 3254,
      "of": 3255,
      "slot": 3256,
      "ten": 3257,
      "à®¤à®³à®µ": 3258,
      "à®²à®ķà®µ": 3259,
      "Ġà®¨à®³": 3260,
      "Ġà®µà®¤": 3261,
      "à®Ļà®ķà®³": 3262,
      "Ġà®ĩà®³à®®": 3263,
      "Ġà®İà®©à®±": 3264,
      "Ġ\".": 3265,
      "Ġà®ĩà®©à®®": 3266,
      "Ġà®ĵà®°à®®": 3267,
      "à®Ĩà®µ": 3268,
      "à®¯à®ķà®©": 3269,
      "Ġà®¤à®°à®¤": 3270,
      "Ġà®Łà®°": 3271,
      "Ġà®ªà®²à®µà®±": 3272,
      "Ġ21": 3273,
      "Ġcolombia": 3274,
      "Ġinst": 3275,
      "Ġà®ĵà®°à®³à®µ": 3276,
      "Ġà®Ĳà®®": 3277,
      "ĠMA": 3278,
      "Ġ32": 3279,
      "ĠPro": 3280,
      "Ġline": 3281,
      "thod": 3282,
      "Ġmethod": 3283,
      "Ġcontroll": 3284,
      "Advanced": 3285,
      "ĠLongName": 3286,
      "idget": 3287,
      "ĠKMail": 3288,
      "Ġcommand": 3289,
      "tocol": 3290,
      "77": 3291,
      "EL": 3292,
      "ET": 3293,
      "UI": 3294,
      "bur": 3295,
      "cc": 3296,
      "ders": 3297,
      "driver": 3298,
      "form": 3299,
      "ition": 3300,
      "mall": 3301,
      "oba": 3302,
      "sl": 3303,
      "ux": 3304,
      "à®¾-": 3305,
      "à®°à®ªà®Ł": 3306,
      "à®µà®¯à®¤": 3307,
      "à®¨à®¤": 3308,
      "Ġà®ļà®®à®µ": 3309,
      "aning": 3310,
      "à®¯à®µà®³": 3311,
      "Ġà®ĵà®°à®¤": 3312,
      "à®¤à®ķà®Ł": 3313,
      "als": 3314,
      "alend": 3315,
      "Ġà®µà®ļà®¨": 3316,
      "roans": 3317,
      "Ġsecon": 3318,
      "Ġdomin": 3319,
      "ĠST": 3320,
      "ĠSy": 3321,
      "Ġfr": 3322,
      "Ġfirst": 3323,
      "ĠThere": 3324,
      "rash": 3325,
      "Ġlt": 3326,
      "Ġlanguage": 3327,
      "ower": 3328,
      "Ġà®īà®²à®ķà®Ļ": 3329,
      "Ġbeen": 3330,
      "eneral": 3331,
      "quer": 3332,
      "vietnam": 3333,
      "tta": 3334,
      "lick": 3335,
      "Ġview": 3336,
      "ĠOpenGL": 3337,
      "Ġfuckin": 3338,
      "Ġexample": 3339,
      "ield": 3340,
      "Ġoutta": 3341,
      "alendar": 3342,
      "Ġdominican": 3343,
      ".,": 3344,
      "VI": 3345,
      "con": 3346,
      "dao": 3347,
      "main": 3348,
      "ps": 3349,
      "udi": 3350,
      "Ġireland": 3351,
      "Ġà®ĩà®·": 3352,
      "Ġà®ĩà®³à®¨": 3353,
      "Ġà®īà®±à®ķ": 3354,
      "Ġà®Ĵà®ķ": 3355,
      "à®ķà®®à®²": 3356,
      "mexico": 3357,
      "Ġprin": 3358,
      "Ġà®ªà®²à®ķà®®": 3359,
      "Ġà®¹à®ķ": 3360,
      "Ġ26": 3361,
      "ĠCMY": 3362,
      "Ġà®Ĩà®£à®µà®¤": 3363,
      "Ġà®Ĳà®©": 3364,
      "Ġbox": 3365,
      "Ġfull": 3366,
      "ĠKS": 3367,
      "à®ļà®²à®ª": 3368,
      "ĠMin": 3369,
      "Ġà®īà®¤à®Ł": 3370,
      "ĠOn": 3371,
      "ĠRe": 3372,
      "Ġlists": 3373,
      "Ġgeneric": 3374,
      "à®µà®ļà®ª": 3375,
      "estb": 3376,
      "à®Ĭà®ļà®²": 3377,
      "ticle": 3378,
      "Ġchang": 3379,
      "Ġbas": 3380,
      "Ġimport": 3381,
      "mmc": 3382,
      "ĠAtkHyperlink": 3383,
      "Ġafter": 3384,
      "drdao": 3385,
      "Ġcontroller": 3386,
      ")...": 3387,
      "OC": 3388,
      "Print": 3389,
      "SIN": 3390,
      "TI": 3391,
      "Web": 3392,
      "ails": 3393,
      "bject": 3394,
      "mail": 3395,
      "à®ķà®©à®Ļ": 3396,
      "à®¤à®³à®Ļ": 3397,
      "à®®à®°à®®": 3398,
      "à®¯à®¤à®©": 3399,
      "à®¯à®ķà®°": 3400,
      "à®ªà®°à®®": 3401,
      "à®ļà®ķà®®": 3402,
      "à®¨à®£": 3403,
      "à¯į....": 3404,
      "à®ķà®µà®³": 3405,
      "à®ħà®²à®ķ": 3406,
      "à¯ģ)\"": 3407,
      "Ġà®µà®°à®£": 3408,
      "Ġà®®à®©à®ª": 3409,
      "à¯Ī),": 3410,
      "à®İà®©à®ª": 3411,
      "ann": 3412,
      "à®ķà®ķà®£": 3413,
      "itch": 3414,
      "Ġà®ħà®ªà®¯à®ķ": 3415,
      "lace": 3416,
      "Ġpl": 3417,
      "à®µà®´à®ķ": 3418,
      "Ġà®°à®ľà®ª": 3419,
      "à¯į:)": 3420,
      "à®±à®®à®Ł": 3421,
      "ĠCol": 3422,
      "Ġcatalonia": 3423,
      "ictor": 3424,
      "Ġà®¨à®ķà®°à®Ļ": 3425,
      "Ġwant": 3426,
      "ĠKB": 3427,
      "à®ıà®°": 3428,
      "Ġ36": 3429,
      "à®¾,\"": 3430,
      "ĠInt": 3431,
      "ĠFestivalVoiceName": 3432,
      "raser": 3433,
      "Ġ01": 3434,
      "Ġover": 3435,
      "ĠGnuPG": 3436,
      "Ġlib": 3437,
      "ĠUA": 3438,
      "ĠVictor": 3439,
      "Ġusing": 3440,
      "Ġword": 3441,
      "portugal": 3442,
      "ible": 3443,
      "ĠShortName": 3444,
      "larm": 3445,
      "PGP": 3446,
      "AYL": 3447,
      "Ġemail": 3448,
      "Ġdirectory": 3449,
      "ĠKTTS": 3450,
      "engal": 3451,
      "icture": 3452,
      "estbengal": 3453,
      "rasero": 3454,
      "ĠVictoria": 3455,
      "**": 3456,
      ",;": 3457,
      "24": 3458,
      "LAR": 3459,
      "OU": 3460,
      "PU": 3461,
      "Script": 3462,
      "VER": 3463,
      "XX": 3464,
      "du": 3465,
      "mark": 3466,
      "Ãµ": 3467,
      "à®µà®ŀ": 3468,
      "à®²à®©à®®": 3469,
      "à®ªà®²à®µ": 3470,
      "à®ķà®³à®Ļ": 3471,
      "Ġà®¨à®¸": 3472,
      "Ġà®ªà®°à®®": 3473,
      "à®ļà®µà®°": 3474,
      "Ġà®¤à®¯à®ķ": 3475,
      "à¯į.%": 3476,
      "Ġà®īà®Ļà®ķà®³": 3477,
      "à®ĩà®¤à®°": 3478,
      "à®Łà®©à®©": 3479,
      "Ġtab": 3480,
      "lack": 3481,
      "Ġpo": 3482,
      "options": 3483,
      "Ġprotocol": 3484,
      "ĠCh": 3485,
      "Ġcould": 3486,
      "Ġind": 3487,
      "à¯ģ:)": 3488,
      "Ġà®®à®°à®µ": 3489,
      "ĠTet": 3490,
      "ĠDe": 3491,
      "stan": 3492,
      "à®¾),": 3493,
      "Ġmin": 3494,
      "ĠIC": 3495,
      "ĠRAM": 3496,
      "Ġgt": 3497,
      "Ġrun": 3498,
      "ĠView": 3499,
      "oogle": 3500,
      "Ġ<\\": 3501,
      "Ġ#%": 3502,
      "Ġà®ªà®µà®³à®®": 3503,
      "Ġany": 3504,
      "Ġexec": 3505,
      "Ġhelp": 3506,
      "Ġlistbox": 3507,
      "udan": 3508,
      ")%": 3509,
      ",)": 3510,
      "74": 3511,
      "Dialog": 3512,
      "File": 3513,
      "FestivalVoiceName": 3514,
      "IR": 3515,
      "Nà®ķ": 3516,
      "Nà®´": 3517,
      "Office": 3518,
      "PE": 3519,
      "hà®ķà®³": 3520,
      "hà®µà®±": 3521,
      "ià®³": 3522,
      "kn": 3523,
      "mon": 3524,
      "red": 3525,
      "ua": 3526,
      "wh": 3527,
      "Ġà®£": 3528,
      "à®¤à®¹": 3529,
      "à®°à®¯à®ª": 3530,
      "à®Łà®¯à®®": 3531,
      "à®Łà®Łà®®": 3532,
      "à®Łà®ķà®ķ": 3533,
      "à®Łà®£à®Ļ": 3534,
      "à®Łà®£à®µ": 3535,
      "à®¯à®ļà®®": 3536,
      "à®ªà®³à®Ļ": 3537,
      "Ġà®ªà®ļà®®": 3538,
      "à®ļà®²à®¤": 3539,
      "à®¨à®·": 3540,
      "Ġà®¤à®ŀ": 3541,
      "Ġà®īà®¹à®¤": 3542,
      "à®µà®©à®²": 3543,
      "à®µà®©à®Ļ": 3544,
      "Ġà®ĩà®°à®ª": 3545,
      "Ġà®ħà®²à®²": 3546,
      "Ġà®Ĩà®ľà®°": 3547,
      "à®ħà®¹": 3548,
      "à®ħà®¸": 3549,
      "à¯ģ.%": 3550,
      "Ġà®®à®©ià®µ": 3551,
      "Ġà®ªà®Łà®°à®µ": 3552,
      "onquer": 3553,
      "à®°à®®à®³": 3554,
      "à®¤à®²à®Ļ": 3555,
      "anistan": 3556,
      "Ġà®Īà®¯": 3557,
      "Ġà®Īà®ļ": 3558,
      "à®ļà®®à®¯à®¤": 3559,
      "à®³à®µà®³": 3560,
      "à®¿);": 3561,
      "ese": 3562,
      "Ġag": 3563,
      "à®ħà®²à®Ł": 3564,
      "à®ľà®ķà®°": 3565,
      "Ġpart": 3566,
      "Ġsize": 3567,
      "à®±à®®à®³": 3568,
      "Ġprovi": 3569,
      "ents": 3570,
      "Ġà®¨à®°à®ķà®ķ": 3571,
      "à®°à®°à®ļà®©": 3572,
      "revi": 3573,
      "republic": 3574,
      "hell": 3575,
      "à¯ĩ).": 3576,
      "à®ķà®£à®µà®©": 3577,
      "arg": 3578,
      "atur": 3579,
      "Ġà®·à®ĥà®ª": 3580,
      "Ġà®ĥà®ķ": 3581,
      "Ġà®ĥà®ªà®¸": 3582,
      "ĠSM": 3583,
      "Ġfun": 3584,
      "ĠKà®ħà®ŀ": 3585,
      "à®®à®©à®ª": 3586,
      "Ġhost": 3587,
      "à®®à®£à®ķ": 3588,
      "Ġà®ªà®²à®©à®Ł": 3589,
      "urs": 3590,
      "ĠNo": 3591,
      "ĠLOG": 3592,
      "thail": 3593,
      "Ġyear": 3594,
      "ulti": 3595,
      "à®ĵà®¤": 3596,
      "à®ĵà®¯": 3597,
      "Ġà®Ĩà®ªà®°à®£à®®": 3598,
      "Ġà®Ĩà®ªà®°à®£à®Ļ": 3599,
      "ailed": 3600,
      "Ġvari": 3601,
      "à®Ĭà®¤": 3602,
      "Ġspace": 3603,
      "Ġlevel": 3604,
      "Ġjob": 3605,
      "Ġarticle": 3606,
      "africa": 3607,
      "geria": 3608,
      "ghanistan": 3609,
      "Ġauth": 3610,
      "onqueror": 3611,
      "Ġfunction": 3612,
      "thailand": 3613,
      "720": 3614,
      "ED": 3615,
      "IT": 3616,
      "NG": 3617,
      "Rep": 3618,
      "ccess": 3619,
      "iv": 3620,
      "Ã¬": 3621,
      "Ġright": 3622,
      "à®°à®ŀ": 3623,
      "à®Łà®Łà®Ļ": 3624,
      "à®ķà®³à®ª": 3625,
      "Ġà®®à®µ": 3626,
      "Ġà®®à®ķà®µ": 3627,
      "à®ļà®ķà®³": 3628,
      "à¯ĩà®¾(": 3629,
      "à¯į;;": 3630,
      "Ġà®Ĩà®²à®®": 3631,
      "à¯ĭ)": 3632,
      "à®ªà®¤à®®": 3633,
      "à®¸à®ª": 3634,
      "à®Łà®¤à®²": 3635,
      "à®İà®ļ": 3636,
      "Ġà®ıà®¤à®®": 3637,
      "à®ķà®®à®±": 3638,
      "à¯į\")": 3639,
      "à®¾?'": 3640,
      "Ġà®¯à®ĥà®ľ": 3641,
      "Ġà®īà®³à®µ": 3642,
      "Ġà®Ĩà®©à®¨": 3643,
      "à®īà®¹à®¤": 3644,
      "à®·à®¯": 3645,
      "à®¤à®ķà®Ļ": 3646,
      "itoba": 3647,
      "Ġkorea": 3648,
      "Ġà®¸à®¤à®ķ": 3649,
      "à®¯à®ķà®Ļ": 3650,
      "Ġà®°à®·": 3651,
      "Ġà®Łà®µ": 3652,
      "Ġà®Łà®µà®°": 3653,
      "oth": 3654,
      "Ġsim": 3655,
      "Ġcups": 3656,
      "Ġà®Ĳà®¯à®ª": 3657,
      "Ġà®ªà®£à®ª": 3658,
      "à®ıà®®": 3659,
      "ĠText": 3660,
      "ĠDN": 3661,
      "à¯ģ;...)": 3662,
      "ĠPla": 3663,
      "à®®à®£à®¨": 3664,
      "ĠLicense": 3665,
      "unic": 3666,
      "ĠHP": 3667,
      "ĠError": 3668,
      "Ġmeans": 3669,
      "angola": 3670,
      "Ġwhile": 3671,
      "Ġconn": 3672,
      "irc": 3673,
      "ache": 3674,
      "à®ªà®²à®©à®±": 3675,
      "ĠShape": 3676,
      "nsert": 3677,
      "Ġimp": 3678,
      "à®ķà®ĥà®¤": 3679,
      "afghanistan": 3680,
      "ĠManitoba": 3681,
      "known": 3682,
      "HT": 3683,
      "UP": 3684,
      "az": 3685,
      "fs": 3686,
      "gt": 3687,
      "ki": 3688,
      "ks": 3689,
      "rg": 3690,
      "ye": 3691,
      "Ġ`": 3692,
      "à®¿..": 3693,
      "à®Łà®²à®®": 3694,
      "à®ļà®¸": 3695,
      "Ġà®īà®¸": 3696,
      "à®ħà®ķà®ª": 3697,
      "à®ħà®®à®²": 3698,
      "Ġ\"#": 3699,
      "à®ĩà®µà®©": 3700,
      "Ġà®ıà®ª": 3701,
      "Ġà®ķà®Łà®Łà®³": 3702,
      "Ġnbsp": 3703,
      "Ġà®ķà®£à®µ": 3704,
      "Ġav": 3705,
      "Ġazerbaijan": 3706,
      "Ġkbs": 3707,
      "lable": 3708,
      "Ġà®¸à®ķà®°": 3709,
      "Ġday": 3710,
      "Ġà®ħà®ļà®²": 3711,
      "Ġà®¹à®¤": 3712,
      "Ġinter": 3713,
      "à®ªà®°à®ļ": 3714,
      "Ġà®İà®µà®³": 3715,
      "oland": 3716,
      "Ġà®ķà®²à®ķà®¤": 3717,
      "Ġà®®à®£à®ª": 3718,
      "à®°à®µà®²à®°": 3719,
      "ĠFound": 3720,
      "thing": 3721,
      "Ġits": 3722,
      "exp": 3723,
      "ypt": 3724,
      "Ġà®¤à®³à®ªà®¤": 3725,
      "Ġaccent": 3726,
      "ĠVAR": 3727,
      "pha": 3728,
      "à®Ĭà®´": 3729,
      "ontact": 3730,
      "Ġcontext": 3731,
      "Ġà®ĩà®²à®µà®ļà®ķà®³à®®": 3732,
      "Ġedit": 3733,
      "Ġmotherfucker": 3734,
      "ĠGNU": 3735,
      "Ġsupport": 3736,
      "ĠCMYK": 3737,
      "!.": 3738,
      "GP": 3739,
      "Insert": 3740,
      "KDE": 3741,
      "MP": 3742,
      "SV": 3743,
      "Type": 3744,
      "Un": 3745,
      "aem": 3746,
      "ding": 3747,
      "eh": 3748,
      "ities": 3749,
      "low": 3750,
      "oad": 3751,
      "pread": 3752,
      "ula": 3753,
      "à®¿]": 3754,
      "à®±à®ªà®Ł": 3755,
      "Ġà®¨à®µ": 3756,
      "Ġà®¤à®³à®Ļ": 3757,
      "à®ĩà®¯à®²": 3758,
      "à®Łà®©à®®": 3759,
      "Ġà®ĩà®¤à®´": 3760,
      "Ġà®µà®´à®®": 3761,
      "Ġ180": 3762,
      "Ġkf": 3763,
      "Ġà®ľà®®": 3764,
      "Ġdig": 3765,
      "Ġdictionary": 3766,
      "Ġà®¹à®Ļ": 3767,
      "à®Łà®µà®Ł": 3768,
      "Ġ27": 3769,
      "Ġcre": 3770,
      "reet": 3771,
      "Ġinput": 3772,
      "à®ķà®´à®µ": 3773,
      "lex": 3774,
      "ĠSp": 3775,
      "ĠSoftware": 3776,
      "ĠKà®µ": 3777,
      "ĠMS": 3778,
      "ĠMar": 3779,
      "ĠMess": 3780,
      "ĠApp": 3781,
      "ĠAll": 3782,
      "ĠTO": 3783,
      "ĠTime": 3784,
      "Ġ...\"": 3785,
      "Ġhour": 3786,
      "ĠNOR": 3787,
      "ĠNote": 3788,
      "ĠGeneral": 3789,
      "Ġ45": 3790,
      "emp": 3791,
      "Ġ[%": 3792,
      "DEV": 3793,
      "à®¨à®Łà®¨": 3794,
      "Ġ>%": 3795,
      "Ġconf": 3796,
      "Ġ---": 3797,
      "ĠShift": 3798,
      "ĠÂ«": 3799,
      "load": 3800,
      "Ġexp": 3801,
      "UND": 3802,
      "Ġcharacter": 3803,
      "ailable": 3804,
      "ĠMann": 3805,
      "ync": 3806,
      "ĠMinho": 3807,
      "ĠFoundation": 3808,
      "aemon": 3809,
      "95": 3810,
      "96": 3811,
      "DG": 3812,
      "Dev": 3813,
      "EAR": 3814,
      "PD": 3815,
      "Sighs": 3816,
      "bg": 3817,
      "cut": 3818,
      "des": 3819,
      "file": 3820,
      "iran": 3821,
      "sudan": 3822,
      "Ġid": 3823,
      "Ġother": 3824,
      "à®®à®µ": 3825,
      "Ġà®ªà®³à®ª": 3826,
      "à¯Ĥ-": 3827,
      "à®¯à®²à®±": 3828,
      "Ġnick": 3829,
      "ina": 3830,
      "Ġà®ĵà®ļ": 3831,
      "ertific": 3832,
      "Ġpri": 3833,
      "Ġpuertorico": 3834,
      "Ġso": 3835,
      "ename": 3836,
      "ĠCap": 3837,
      "Ġdown": 3838,
      "Ġdomain": 3839,
      "Ġà®ªà®£à®ķ": 3840,
      "ĠAR": 3841,
      "ĠIR": 3842,
      "à®Ĳà®Ł": 3843,
      "Ġgra": 3844,
      "Ġreport": 3845,
      "very": 3846,
      "uckin": 3847,
      "Ġrich": 3848,
      "Ġlat": 3849,
      "à®ĵà®ļ": 3850,
      "Ġheh": 3851,
      "ONTH": 3852,
      "ĠInf": 3853,
      "ĠOpenPGP": 3854,
      "Ġmotherfucking": 3855,
      "ĠGNOME": 3856,
      "finland": 3857,
      "ĠMorel": 3858,
      "amaic": 3859,
      "OCKS": 3860,
      "Ġattach": 3861,
      "ĠFLINT": 3862,
      "Ġdistribution": 3863,
      "HTML": 3864,
      "17": 3865,
      "DN": 3866,
      "IB": 3867,
      "Rest": 3868,
      "US": 3869,
      "Xml": 3870,
      "canada": 3871,
      "eal": 3872,
      "ead": 3873,
      "ful": 3874,
      "golia": 3875,
      "lin": 3876,
      "ling": 3877,
      "ne": 3878,
      "sa": 3879,
      "text": 3880,
      "uk": 3881,
      "uy": 3882,
      "uania": 3883,
      "vent": 3884,
      "ÃĤ": 3885,
      "Ġent": 3886,
      "à®°à®µà®©": 3887,
      "Ġà®®à®Łà®ķ": 3888,
      "à®¨à®Łà®µà®Ł": 3889,
      "à®µà®©à®µà®±": 3890,
      "à¯ĭ!": 3891,
      "Ġà®ıà®²": 3892,
      "à®ĥà®°": 3893,
      "à®ĥà®İà®ª": 3894,
      "à®¤à®®à®°": 3895,
      "à®¤à®®à®Ł": 3896,
      "à®īà®£à®°": 3897,
      "Ġtrack": 3898,
      "Ġki": 3899,
      "Ġplease": 3900,
      "ority": 3901,
      "Ġdialog": 3902,
      "opy": 3903,
      "Ġsend": 3904,
      "à®±à®µà®³à®°": 3905,
      "ates": 3906,
      "à®Łà®²à®Ļ": 3907,
      "à®µà®²à®ķà®®": 3908,
      "Ġà®¤à®µà®±à®µ": 3909,
      "ĠKey": 3910,
      "ĠDAY": 3911,
      "ĠFOV": 3912,
      "eland": 3913,
      "ĠOut": 3914,
      "ĠGiB": 3915,
      "ĠLE": 3916,
      "ĠRO": 3917,
      "Ġli": 3918,
      "Ġget": 3919,
      "Ġstd": 3920,
      "ĠUse": 3921,
      "ries": 3922,
      "ĠHST": 3923,
      "ĠWCK": 3924,
      "ĠYe": 3925,
      "ARG": 3926,
      "oose": 3927,
      "ithuania": 3928,
      "ritten": 3929,
      "Ġ<\\\\": 3930,
      "apan": 3931,
      "Ġmongolia": 3932,
      "ossible": 3933,
      "ocket": 3934,
      "ĠFITS": 3935,
      "Ġnetwork": 3936,
      "process": 3937,
      "Ġroot": 3938,
      "Ġmodif": 3939,
      "Replace": 3940,
      "ĠWCKD": 3941,
      "14": 3942,
      "FF": 3943,
      "IX": 3944,
      "PH": 3945,
      "SQL": 3946,
      "VE": 3947,
      "colombia": 3948,
      "dictionary": 3949,
      "ein": 3950,
      "gi": 3951,
      "host": 3952,
      "sName": 3953,
      "uch": 3954,
      "vs": 3955,
      "Ã»": 3956,
      "Ġ^": 3957,
      "à¯įâĻª": 3958,
      "à®ķà®©à®®": 3959,
      "à®µà®²à®®": 3960,
      "à®³à®¸": 3961,
      "Ġà®ĩà®Łà®°": 3962,
      "à®ļà®°à®®": 3963,
      "à®ħà®Łà®°": 3964,
      "à®ĩà®¯à®±": 3965,
      "à®ĥà®²": 3966,
      "Ġà®ļà®®à®©": 3967,
      "Ġtag": 3968,
      "Ġtyp": 3969,
      "à®ĥà®ªà®°": 3970,
      "Ġalarm": 3971,
      "nts": 3972,
      "à®Ĵà®Ł": 3973,
      "ĠSet": 3974,
      "ĠSmall": 3975,
      "ĠSOCKS": 3976,
      "Ġbin": 3977,
      "iles": 3978,
      "ollection": 3979,
      "à®ıà®ĵ": 3980,
      "Ġ38": 3981,
      "Ġman": 3982,
      "Ġmode": 3983,
      "etwork": 3984,
      "ĠBrasero": 3985,
      "utes": 3986,
      "Ġ48": 3987,
      "ĠUm": 3988,
      "ĠUID": 3989,
      "unit": 3990,
      "Ġthan": 3991,
      "ĠHeh": 3992,
      "ther": 3993,
      "Ġ64": 3994,
      "china": 3995,
      "ĠWindow": 3996,
      "egypt": 3997,
      "Ġ1024": 3998,
      "berts": 3999,
      "110": 4000,
      "Ġà®ħà®ķà®²à®µ": 4001,
      "ĠUSB": 4002,
      "ference": 4003,
      "ĠSelect": 4004,
      "ause": 4005,
      "ĠAbdi": 4006,
      "ĠColts": 4007,
      "AYLOR": 4008,
      "Restart": 4009,
      "900": 4010,
      "AG": 4011,
      "DL": 4012,
      "El": 4013,
      "NE": 4014,
      "RING": 4015,
      "YY": 4016,
      "ating": 4017,
      "disc": 4018,
      "for": 4019,
      "fore": 4020,
      "gn": 4021,
      "lan": 4022,
      "md": 4023,
      "miss": 4024,
      "no": 4025,
      "oot": 4026,
      "pos": 4027,
      "the": 4028,
      "westbengal": 4029,
      "à®ķà®Łà®¤": 4030,
      "Ġà®ļà®¯": 4031,
      "à¯į):": 4032,
      "à®¯à®®à®£": 4033,
      "à®ĩà®¯à®ķ": 4034,
      "onon": 4035,
      "à®īà®ª": 4036,
      "Ġ1000": 4037,
      "Ġà®īà®°à®¤": 4038,
      "à®Ĩà®ļ": 4039,
      "Ġkcm": 4040,
      "à®ľà®ķ": 4041,
      "Ġà®ªà®°à®µà®²": 4042,
      "Ġà®Łà®ª": 4043,
      "Ġà®Łà®¯à®®à®£": 4044,
      "oto": 4045,
      "à®®à®±à®¨": 4046,
      "omuk": 4047,
      "Ġbrazil": 4048,
      "Ġfre": 4049,
      "illy": 4050,
      "ĠKAB": 4051,
      "old": 4052,
      "ĠAC": 4053,
      "ĠAut": 4054,
      "Ġ33": 4055,
      "ias": 4056,
      "ete": 4057,
      "ĠPH": 4058,
      "ĠPRO": 4059,
      "ĠFree": 4060,
      "rap": 4061,
      "utton": 4062,
      "ĠNep": 4063,
      "Ġ51": 4064,
      "Ġrec": 4065,
      "Ġà®Ĩà®°à®ŀ": 4066,
      "dex": 4067,
      "Ġwhere": 4068,
      "Ġ125": 4069,
      "Ġ(\"%": 4070,
      "ĠQu": 4071,
      "aper": 4072,
      "ĠÃĢ": 4073,
      "ILLY": 4074,
      "CTOR": 4075,
      "ĠUSA": 4076,
      "Ġperi": 4077,
      "Ġemp": 4078,
      "Ġdevice": 4079,
      "Ġ1999": 4080,
      "HALES": 4081,
      "Ġencod": 4082,
      "regator": 4083,
      "uration": 4084,
      "ursor": 4085,
      "Ġvariant": 4086,
      "ĠNepomuk": 4087,
      "66": 4088,
      "89": 4089,
      "EP": 4090,
      "Groans": 4091,
      "The": 4092,
      "TER": 4093,
      "UV": 4094,
      "ez": 4095,
      "eep": 4096,
      "ford": 4097,
      "japan": 4098,
      "lish": 4099,
      "mc": 4100,
      "ning": 4101,
      "picture": 4102,
      "sity": 4103,
      "uz": 4104,
      "ward": 4105,
      "ÃĢ": 4106,
      "ÃĹ": 4107,
      "à¯ģ_": 4108,
      "à®ªà®³à®°": 4109,
      "Ġà®®à®ľ": 4110,
      "Ġà®ļà®Łà®Ļ": 4111,
      "Ġà®¤à®µà®°": 4112,
      "Ġà®İà®©à®ļ": 4113,
      "Ġà®Ĵà®£": 4114,
      "time": 4115,
      "à®īà®ļ": 4116,
      "à®²à®ķà®²": 4117,
      "à®Ĩà®ªà®¤": 4118,
      "itzer": 4119,
      "ale": 4120,
      "algeria": 4121,
      "Ġpage": 4122,
      "Ġppp": 4123,
      "Ġà®Łà®©": 4124,
      "Ġsa": 4125,
      "base": 4126,
      "Ġ250": 4127,
      "Ġdocu": 4128,
      "Ġclick": 4129,
      "Ġcdrdao": 4130,
      "Ġà®Ĳà®²": 4131,
      "omin": 4132,
      "ĠSUM": 4133,
      "ĠSpl": 4134,
      "Ġà®¨à®ķà®°à®µ": 4135,
      "Ġfield": 4136,
      "ĠKontact": 4137,
      "ĠMb": 4138,
      "ĠMDI": 4139,
      "ĠAS": 4140,
      "ĠAs": 4141,
      "ĠDate": 4142,
      "Ġ35": 4143,
      "ĠPublic": 4144,
      "ect": 4145,
      "ĠBy": 4146,
      "à¯į'.": 4147,
      "Ġ05": 4148,
      "ĠGame": 4149,
      "Ġ/.": 4150,
      "ĠRep": 4151,
      "ĠROM": 4152,
      "ĠHow": 4153,
      "Ġrem": 4154,
      "ĠWor": 4155,
      "Ġ800": 4156,
      "Ġcomple": 4157,
      "artr": 4158,
      "Ġunder": 4159,
      "india": 4160,
      "ĠQt": 4161,
      "Ġequ": 4162,
      "abled": 4163,
      "estonia": 4164,
      "ĠShow": 4165,
      "Ġwithout": 4166,
      "à®ªà®¯à®©à®°": 4167,
      "Ġsomething": 4168,
      "ĠInc": 4169,
      "ava": 4170,
      "arning": 4171,
      "EXT": 4172,
      "switzer": 4173,
      "ipal": 4174,
      "rowse": 4175,
      "ĠDEC": 4176,
      "Ġasshole": 4177,
      "Ġrequested": 4178,
      "orgia": 4179,
      "256": 4180,
      "ĠUNH": 4181,
      "ĠVICTOR": 4182,
      "burma": 4183,
      "Ġseconds": 4184,
      "Ġavailable": 4185,
      "switzerland": 4186,
      "64": 4187,
      "Back": 4188,
      "CI": 4189,
      "Ex": 4190,
      "GA": 4191,
      "GH": 4192,
      "LING": 4193,
      "Re": 4194,
      "SA": 4195,
      "Widget": 4196,
      "brazil": 4197,
      "hstan": 4198,
      "lithuania": 4199,
      "ng": 4200,
      "nic": 4201,
      "wide": 4202,
      "à¯į}": 4203,
      "à®®à®£à®¤": 4204,
      "à®Łà®¸": 4205,
      "à®ªà®¯à®¨": 4206,
      "Ġà®ħà®Łà®®": 4207,
      "Ġà®ķà®²à®¤": 4208,
      "Ġà®¤à®ļà®®": 4209,
      "à®¯à®®à®±": 4210,
      "à®ķà®µà®®": 4211,
      "à®İà®ĥà®ª": 4212,
      "tinu": 4213,
      "à®¤à®µà®´": 4214,
      "Ġtry": 4215,
      "Ġ150": 4216,
      "Ġà®Īà®µ": 4217,
      "Ġà®ĵà®ķ": 4218,
      "Ġpath": 4219,
      "Ġà®ªà®²à®µà®¨": 4220,
      "Ġ'.": 4221,
      "bar": 4222,
      "ĠCom": 4223,
      "ĠCPU": 4224,
      "Ġà®Ĳà®ª": 4225,
      "aria": 4226,
      "arag": 4227,
      "Ġà®Ĭà®ķà®®": 4228,
      "ĠSS": 4229,
      "Ġà®īà®Łà®±": 4230,
      "à®ĩà®°à®Ł": 4231,
      "ĠDM": 4232,
      "Ġmunic": 4233,
      "ĠPOP": 4234,
      "ĠPGP": 4235,
      "ĠFTP": 4236,
      "ĠFrank": 4237,
      "rase": 4238,
      "Ġà®īà®²à®ķà®³": 4239,
      "ĠNov": 4240,
      "ĠNOT": 4241,
      "ĠGUI": 4242,
      "Ġoff": 4243,
      "ĠHo": 4244,
      "ĠHel": 4245,
      "Ġread": 4246,
      "ĠXSL": 4247,
      "ash": 4248,
      "à®ħà®°à®ļ": 4249,
      "DEO": 4250,
      "Ġbefore": 4251,
      "Ġ2005": 4252,
      "MELI": 4253,
      "Ġsepar": 4254,
      "ĠxAA": 4255,
      "ither": 4256,
      "ĠCDDB": 4257,
      "Ġleft": 4258,
      "osition": 4259,
      "akhstan": 4260,
      "ONE": 4261,
      "Ġbase": 4262,
      "IGHT": 4263,
      "oving": 4264,
      "Ġeng": 4265,
      "Ġenter": 4266,
      "ĠLongDayName": 4267,
      "Ġprefix": 4268,
      "Ġalso": 4269,
      "Ġheader": 4270,
      "Ġresource": 4271,
      "ĠEnv": 4272,
      "Ġicon": 4273,
      "ĠKGpg": 4274,
      "azakhstan": 4275,
      "Ġà®ªà®³à®ªà®³à®ª": 4276,
      "ertificate": 4277,
      "uyana": 4278,
      "ĠYeah": 4279,
      "ipalities": 4280,
      "aragua": 4281,
      "Ġmunicipalities": 4282,
      "ĠFranklin": 4283,
      "--": 4284,
      "130": 4285,
      "70": 4286,
      "FS": 4287,
      "Go": 4288,
      "Id": 4289,
      "RT": 4290,
      "XDG": 4291,
      "db": 4292,
      "fess": 4293,
      "gro": 4294,
      "gam": 4295,
      "hut": 4296,
      "ier": 4297,
      "ky": 4298,
      "king": 4299,
      "korea": 4300,
      "ner": 4301,
      "sld": 4302,
      "src": 4303,
      "uff": 4304,
      "yy": 4305,
      "zech": 4306,
      "âĢ": 4307,
      "Ġurl": 4308,
      "à®°à®¸à®©": 4309,
      "à®µà®³à®®": 4310,
      "à®Łà®²à®¤": 4311,
      "à®²à®ªà®Ł": 4312,
      "à®¯Name": 4313,
      "à®¯à®ķà®°à®®": 4314,
      "à®ªà®°à®¤": 4315,
      "Ġà®ķà®¸": 4316,
      "Ġà®ķà®ĥà®ª": 4317,
      "à®¨à®Łà®ķ": 4318,
      "Ġà®īà®ªà®°": 4319,
      "Ġà®Ĵà®¯": 4320,
      "à®ĩà®Łà®¤": 4321,
      "tia": 4322,
      "à®īà®²à®ķà®®": 4323,
      "à®ŀà®©": 4324,
      "Ġkà®ļ": 4325,
      "lave": 4326,
      "à®ľà®¨": 4327,
      "à®³à®°à®ķ": 4328,
      "Ġà®ľà®©à®µà®°": 4329,
      "Ġà®ªà®¤à®±": 4330,
      "ope": 4331,
      "à®ķà®Łà®¨": 4332,
      "Ġsource": 4333,
      "à®Łà®µà®ļà®®": 4334,
      "Ġ29": 4335,
      "ĠCAME": 4336,
      "ĠCSS": 4337,
      "ĠCartr": 4338,
      "Ġcount": 4339,
      "Ġcreat": 4340,
      "Ġà®Ĳà®Ł": 4341,
      "ared": 4342,
      "ature": 4343,
      "ĠSU": 4344,
      "Ġbel": 4345,
      "Ġfailed": 4346,
      "Ġthem": 4347,
      "Ġthey": 4348,
      "ĠKC": 4349,
      "ĠKà®ļ": 4350,
      "ĠKonqueror": 4351,
      "ĠMIN": 4352,
      "ĠTAYLOR": 4353,
      "Ġmatch": 4354,
      "ĠPar": 4355,
      "ĠBost": 4356,
      "ĠBlack": 4357,
      "ager": 4358,
      "ĠRGB": 4359,
      "Ġlink": 4360,
      "ldwide": 4361,
      "Ġstar": 4362,
      "ason": 4363,
      "dev": 4364,
      "ĠWEE": 4365,
      "Ġ885": 4366,
      "Ġshow": 4367,
      "erson": 4368,
      "Ġevery": 4369,
      "RON": 4370,
      "Ġsys": 4371,
      "Ġtextbox": 4372,
      "Ġwindows": 4373,
      "udding": 4374,
      "Ġpermiss": 4375,
      "Ġfolders": 4376,
      "EEP": 4377,
      "Ġheading": 4378,
      "aiti": 4379,
      "ĠKDM": 4380,
      "ĠKDat": 4381,
      "outhkorea": 4382,
      "axford": 4383,
      "Ġencryp": 4384,
      "latters": 4385,
      "Ġspecified": 4386,
      "Ġprinter": 4387,
      "ĠInter": 4388,
      "7477": 4389,
      "Ġagain": 4390,
      "ĠSMTP": 4391,
      "ĠSettings": 4392,
      "Ġempty": 4393,
      "mclient": 4394,
      "Ġpppd": 4395,
      "ĠSplit": 4396,
      "fessor": 4397,
      "gammon": 4398,
      "hutan": 4399,
      "sldbg": 4400,
      "ĠCAMERON": 4401,
      "ĠBoston": 4402,
      "Ġ8859": 4403,
      "++": 4404,
      "36": 4405,
      "55": 4406,
      "Al": 4407,
      "BS": 4408,
      "De": 4409,
      "Not": 4410,
      "Path": 4411,
      "SI": 4412,
      "bbe": 4413,
      "cel": 4414,
      "cari": 4415,
      "collection": 4416,
      "kregator": 4417,
      "lue": 4418,
      "new": 4419,
      "pe": 4420,
      "pre": 4421,
      "tu": 4422,
      "tain": 4423,
      "wml": 4424,
      "Âº": 4425,
      "Ġes": 4426,
      "Ġrand": 4427,
      "à®ķà®Łà®ª": 4428,
      "à®©à®±": 4429,
      "à®®à®°à®£à®®": 4430,
      "à®µà®ļà®®": 4431,
      "à®µà®ļà®©": 4432,
      "à®Łà®ķà®³": 4433,
      "à®²à®¨à®Ł": 4434,
      "à®±à®³à®µ": 4435,
      "Ġà®ĩà®³à®µà®°": 4436,
      "à®ļà®ŀ": 4437,
      "à®£à®¯à®®": 4438,
      "Ġà®īà®©à®¤": 4439,
      "à¯į,.": 4440,
      "Ġà®Ĩà®·": 4441,
      "Ġ\"\"": 4442,
      "à®ĩà®³à®®": 4443,
      "Ġà®ĩà®©à®Ļ": 4444,
      "Ġà®īà®£à®°à®ķ": 4445,
      "tiv": 4446,
      "à®¤à®µà®ķ": 4447,
      "à®®à®²à®°": 4448,
      "Ġport": 4449,
      "Ġpossible": 4450,
      "Ġà®ªà®°à®ªà®°à®ª": 4451,
      "Ġà®µà®ļà®©à®®": 4452,
      "opete": 4453,
      "Ġsame": 4454,
      "ĠCheck": 4455,
      "ĠCSV": 4456,
      "ĠCursor": 4457,
      "Ġcred": 4458,
      "Ġà®²à®ķ": 4459,
      "Ġint": 4460,
      "à®ķà®£à®µ": 4461,
      "à®ķà®£à®ª": 4462,
      "ĠSHA": 4463,
      "ĠSouth": 4464,
      "ĠSQL": 4465,
      "Ġbur": 4466,
      "Ġway": 4467,
      "ĠKCh": 4468,
      "ĠMat": 4469,
      "ĠAMELI": 4470,
      "ĠAkregator": 4471,
      "ĠDad": 4472,
      "inging": 4473,
      "Ġmake": 4474,
      "ĠIPP": 4475,
      "ĠFif": 4476,
      "ected": 4477,
      "elf": 4478,
      "Ġ08": 4479,
      "Ġoceania": 4480,
      "Ġobject": 4481,
      "à®Ĳà®¨": 4482,
      "ĠRes": 4483,
      "ĠRet": 4484,
      "Ġlock": 4485,
      "Ġge": 4486,
      "Ġgener": 4487,
      "ences": 4488,
      "Ġreason": 4489,
      "Ġ63": 4490,
      "ession": 4491,
      "ĠWith": 4492,
      "ĠYUV": 4493,
      "ĠKDED": 4494,
      "imit": 4495,
      "Ġred": 4496,
      "ĠVGA": 4497,
      "Ġusr": 4498,
      "Ġuk": 4499,
      "Ġuamount": 4500,
      "ormal": 4501,
      "ĠStreet": 4502,
      "udo": 4503,
      "Ġscav": 4504,
      "Ġresolution": 4505,
      "Ġ1997": 4506,
      "lude": 4507,
      "OWER": 4508,
      "Ġ02110": 4509,
      "grind": 4510,
      "KSpread": 4511,
      "WMComment": 4512,
      "ĠFloor": 4513,
      "Ġconnection": 4514,
      "Ġkfmclient": 4515,
      "ĠCapital": 4516,
      "Ġstdout": 4517,
      "Ġequals": 4518,
      "1301": 4519,
      "bbean": 4520,
      "caribbean": 4521,
      "Ġrandom": 4522,
      "Ġcredit": 4523,
      "ĠAMELIA": 4524,
      "ĠFifth": 4525,
      "37": 4526,
      "68": 4527,
      "81": 4528,
      "AIM": 4529,
      "CP": 4530,
      "COU": 4531,
      "GAS": 4532,
      "KD": 4533,
      "LS": 4534,
      "OAN": 4535,
      "OCT": 4536,
      "QXml": 4537,
      "com": 4538,
      "date": 4539,
      "domin": 4540,
      "earch": 4541,
      "fp": 4542,
      "garia": 4543,
      "iber": 4544,
      "jamaic": 4545,
      "mi": 4546,
      "many": 4547,
      "ool": 4548,
      "oceania": 4549,
      "otia": 4550,
      "run": 4551,
      "upp": 4552,
      "ukraine": 4553,
      "Ãĩ": 4554,
      "Ãİ": 4555,
      "Ġext": 4556,
      "Ġoper": 4557,
      "à®ķà®ªà®Łà®µ": 4558,
      "à®°à®µà®°": 4559,
      "à®®à®¤à®¤": 4560,
      "à®ªà®¯à®Ļ": 4561,
      "Ġà®ħà®¯à®°": 4562,
      "Ġà®¨à®Łà®©à®®": 4563,
      "à®£à®©": 4564,
      "Ġà®İà®©à®ªà®¤": 4565,
      "Ġà®Ĩà®µà®¤": 4566,
      "à®Łà®®à®³": 4567,
      "à®µà®¤à®²": 4568,
      "à®ĩà®³": 4569,
      "Ġà®ħà®©à®²": 4570,
      "Ġà®ĩà®²à®Ł": 4571,
      "Ġnorway": 4572,
      "Ġà®Ĩà®©à®¤": 4573,
      "à®¯à®°à®±": 4574,
      "Ġtxt": 4575,
      "ints": 4576,
      "à®ķà®ķà®Ļ": 4577,
      "à®ĩà®¤à®¯à®Ļ": 4578,
      "Ġpoland": 4579,
      "Ġdec": 4580,
      "Ġà®¤à®°à®ķà®°": 4581,
      "ĠConstellation": 4582,
      "rect": 4583,
      "ĠSection": 4584,
      "Ġbit": 4585,
      "Ġbec": 4586,
      "ilo": 4587,
      "Ġà®®à®°à®ª": 4588,
      "Ġwrite": 4589,
      "ĠMill": 4590,
      "ĠMONTH": 4591,
      "Ġà®ªà®¯à®£à®ķ": 4592,
      "older": 4593,
      "Ġà®īà®¤à®¯à®¤": 4594,
      "ĠAas": 4595,
      "ĠTom": 4596,
      "ĠDis": 4597,
      "à®¾).": 4598,
      "Ġmy": 4599,
      "Ġmouse": 4600,
      "à®¾.\"": 4601,
      "Ġhome": 4602,
      "Ġhere": 4603,
      "ĠFA": 4604,
      "ĠFS": 4605,
      "ĠFr": 4606,
      "ĠBaxford": 4607,
      "raditional": 4608,
      "elph": 4609,
      "ĠNO": 4610,
      "ĠRA": 4611,
      "ĠRAND": 4612,
      "Ġgoogle": 4613,
      "Ġ400": 4614,
      "unch": 4615,
      "Ġthen": 4616,
      "empla": 4617,
      "ĠWH": 4618,
      "amp": 4619,
      "ulgaria": 4620,
      "umb": 4621,
      "Ġactive": 4622,
      "Ġwho": 4623,
      "artan": 4624,
      "Ġ96": 4625,
      "Ġunknown": 4626,
      "Ġeach": 4627,
      "Ġeither": 4628,
      "à®īà®³à®±": 4629,
      "ĠÂ¯": 4630,
      "ĠISN": 4631,
      "à®ªà®¯à®£à®®": 4632,
      "ĠStart": 4633,
      "Ġzeal": 4634,
      "ĠShortDayName": 4635,
      "Ġsettings": 4636,
      "germany": 4637,
      "Ġapplications": 4638,
      "Ġshortcut": 4639,
      "ĠScotia": 4640,
      "CLAIM": 4641,
      "runts": 4642,
      "Ġpoint": 4643,
      "Ġminutes": 4644,
      "ĠDNS": 4645,
      "ĠPlas": 4646,
      "ĠPHP": 4647,
      "GHS": 4648,
      "ĠNova": 4649,
      "EEPING": 4650,
      "ĠKChart": 4651,
      "COUGHS": 4652,
      "GASPS": 4653,
      "dominican": 4654,
      "iberia": 4655,
      "jamaica": 4656,
      "ĠMiller": 4657,
      "ĠAasim": 4658,
      "elphine": 4659,
      "Ġzealand": 4660,
      "CLAIMS": 4661,
      "19": 4662,
      "22": 4663,
      "44": 4664,
      "67": 4665,
      "?'": 4666,
      "BIN": 4667,
      "DU": 4668,
      "Mouse": 4669,
      "NC": 4670,
      "PL": 4671,
      "TY": 4672,
      "Th": 4673,
      "TEXT": 4674,
      "Wh": 4675,
      "bug": 4676,
      "bulgaria": 4677,
      "cam": 4678,
      "gress": 4679,
      "line": 4680,
      "mal": 4681,
      "nc": 4682,
      "norway": 4683,
      "pf": 4684,
      "rue": 4685,
      "ui": 4686,
      "xy": 4687,
      "Ãħ": 4688,
      "Ġ000": 4689,
      "à®ķà®ķà®¤": 4690,
      "à®¤à®³à®°": 4691,
      "à®¤à®ķà®µà®²": 4692,
      "à®©à®µà®²": 4693,
      "à®®à®¯à®ķ": 4694,
      "à®³à®ªà®Ł": 4695,
      "à®ªà®°à®Ļ": 4696,
      "Ġà®ħà®¹": 4697,
      "Ġà®ķà®¹": 4698,
      "Ġà®ªà®®": 4699,
      "Ġà®ªà®ĥà®ªà®°": 4700,
      "à®µà®°à®ļ": 4701,
      "à®¨à®²à®®": 4702,
      "Ġà®¤à®ķà®ª": 4703,
      "Ġà®¤à®ķà®°": 4704,
      "Ġà®īà®ľ": 4705,
      "à¯ĩà®¾\"": 4706,
      "à®´à®¤": 4707,
      "Ġà®Ĩà®Łà®®": 4708,
      "à®ħà®ķà®¤": 4709,
      "à®ħà®ķà®±": 4710,
      "à®ħà®Łà®ķ": 4711,
      "à®İà®³": 4712,
      "Ġà®ıà®¨": 4713,
      "à®¤à®¤à®²": 4714,
      "Ġà®ĩà®²à®µà®ļà®®": 4715,
      "à¯Ī..": 4716,
      "Ġnorth": 4717,
      "til": 4718,
      "à®°à®®à®²": 4719,
      "à®°à®£à®ķ": 4720,
      "Ġà®īà®°à®ķ": 4721,
      "iname": 4722,
      "à®Ĩà®Łà®®": 4723,
      "eries": 4724,
      "Ġkm": 4725,
      "ald": 4726,
      "Ġpop": 4727,
      "orn": 4728,
      "Ġdaemon": 4729,
      "Ġà®ļà®°à®¸": 4730,
      "Ġà®¤à®°à®²": 4731,
      "à®ħà®µà®®": 4732,
      "à®Łà®°à®Ł": 4733,
      "range": 4734,
      "otS": 4735,
      "otsw": 4736,
      "Ġsure": 4737,
      "enu": 4738,
      "à®ĩà®±à®µ": 4739,
      "à®¯à®±à®ļ": 4740,
      "atter": 4741,
      "ise": 4742,
      "let": 4743,
      "Ġfree": 4744,
      "Ġwarning": 4745,
      "ĠKopete": 4746,
      "ĠMo": 4747,
      "ĠMac": 4748,
      "ĠAr": 4749,
      "ĠTab": 4750,
      "ĠDoc": 4751,
      "Ġmost": 4752,
      "ĠPD": 4753,
      "ĠPF": 4754,
      "ĠPI": 4755,
      "ĠPPP": 4756,
      "ĠPne": 4757,
      "ecial": 4758,
      "ĠBO": 4759,
      "ĠBack": 4760,
      "uted": 4761,
      "uriname": 4762,
      "ĠNP": 4763,
      "ĠGO": 4764,
      "ĠRo": 4765,
      "ĠRom": 4766,
      "ĠRIGHT": 4767,
      "Ġgo": 4768,
      "Ġstand": 4769,
      "rix": 4770,
      "riev": 4771,
      "ĠHey": 4772,
      "thias": 4773,
      "ĠWord": 4774,
      "Ġiso": 4775,
      "quir": 4776,
      "ĠQIB": 4777,
      "ird": 4778,
      "uela": 4779,
      "Ġeven": 4780,
      "ĠCOMP": 4781,
      "ugin": 4782,
      "ĠÂ¦": 4783,
      "à®Ĭà®ķ": 4784,
      "Ġlet": 4785,
      "ĠAlpha": 4786,
      "Ġradi": 4787,
      "lands": 4788,
      "ression": 4789,
      "keyboard": 4790,
      "Ġimage": 4791,
      "EXHALES": 4792,
      "Ġscreen": 4793,
      "venez": 4794,
      "Ġquot": 4795,
      "zilla": 4796,
      "ĠINT": 4797,
      "ĠINDI": 4798,
      "Ġparame": 4799,
      "Ġcurrently": 4800,
      "ĠMDN": 4801,
      "ĠWhoo": 4802,
      "density": 4803,
      "Show": 4804,
      "Ġiceland": 4805,
      "owski": 4806,
      "ĠExp": 4807,
      "____": 4808,
      "Ġdetails": 4809,
      "Webcam": 4810,
      "itches": 4811,
      "ĠUADescription": 4812,
      "LARING": 4813,
      "white": 4814,
      "yemen": 4815,
      "Ġnickname": 4816,
      "Ġlatvia": 4817,
      "Ġattachments": 4818,
      "ĠWindows": 4819,
      "ĠWorldwide": 4820,
      "Ġcreated": 4821,
      "Ġbelow": 4822,
      "ĠMatthias": 4823,
      "DUCT": 4824,
      "otswana": 4825,
      "ĠPneum": 4826,
      "rieving": 4827,
      "ĠQIBase": 4828,
      "venezuela": 4829,
      "34": 4830,
      ";}": 4831,
      "All": 4832,
      "BEEPING": 4833,
      "ECT": 4834,
      "Free": 4835,
      "Grunts": 4836,
      "Link": 4837,
      "NONE": 4838,
      "PA": 4839,
      "Page": 4840,
      "Previ": 4841,
      "Socket": 4842,
      "VAL": 4843,
      "app": 4844,
      "atic": 4845,
      "bhutan": 4846,
      "iti": 4847,
      "kes": 4848,
      "ler": 4849,
      "mun": 4850,
      "pr": 4851,
      "sB": 4852,
      "sing": 4853,
      "tp": 4854,
      "ule": 4855,
      "Ã¸": 4856,
      "ÃĬ": 4857,
      "Ġestonia": 4858,
      "Ġrange": 4859,
      "à®ķà®ķà®³": 4860,
      "à®ķà®ŀ": 4861,
      "à®ķName": 4862,
      "à¯ģâĻª": 4863,
      "à®¤à®ķà®ª": 4864,
      "à®¤à®²à®¤": 4865,
      "à®¤à®´à®²": 4866,
      "à®©à®³": 4867,
      "à®®à®ķà®³": 4868,
      "à®®à®¯à®®": 4869,
      "à®®à®©à®®": 4870,
      "à®µà®¸": 4871,
      "à®µà®ķà®Ļ": 4872,
      "à®Łà®£à®®": 4873,
      "à¯Ĩ!": 4874,
      "Ġà®ķà®µà®ļ": 4875,
      "Ġà®µà®¯à®²": 4876,
      "Ġà®ĩà®ĥà®¤": 4877,
      "à®ļà®©à®Ļ": 4878,
      "à®ļà®ķà®©": 4879,
      "à¯Ģ\"": 4880,
      "Ġà®¤à®¯à®Ļ": 4881,
      "Ġà®İà®ĥà®ª": 4882,
      "à¯į.'": 4883,
      "à¯Ĥ)": 4884,
      "à¯į))": 4885,
      "à®¹à®ķ": 4886,
      "à®µà®¤à®®": 4887,
      "à¯ģ,\"": 4888,
      "à®ķà®®à®°": 4889,
      "Ġà®ªà®Łà®²à®®": 4890,
      "à®ķà®°à®Ł": 4891,
      "à¯Ī);": 4892,
      "à®¤à®®à®²": 4893,
      "à®¤à®²à®®": 4894,
      "à®¤à®²à®Ł": 4895,
      "amela": 4896,
      "Ġtw": 4897,
      "eslot": 4898,
      "Ġà®ħà®¤à®©à®¤à®©": 4899,
      "its": 4900,
      "ering": 4901,
      "alf": 4902,
      "alm": 4903,
      "à®ľà®¤": 4904,
      "à®³à®°à®ª": 4905,
      "Ġà®ľà®¤": 4906,
      "Ġà®¨à®Łà®µ": 4907,
      "Ġpack": 4908,
      "ors": 4909,
      "oriz": 4910,
      "à®ªà®®à®Ł": 4911,
      "Ġà®ªà®¯à®©à®³à®µ": 4912,
      "Ġà®¤à®°à®Ļ": 4913,
      "rop": 4914,
      "Ġà®ķà®°à®Ł": 4915,
      "Ġnames": 4916,
      "ots": 4917,
      "Ġà®ªà®²à®µà®ķ": 4918,
      "Ġsoftware": 4919,
      "à®±à®®à®±": 4920,
      "à®ĩà®µà®³": 4921,
      "Ġprocess": 4922,
      "Ġà®ĩà®Łà®ķ": 4923,
      "Ġcap": 4924,
      "hether": 4925,
      "Ġà®Ĳà®ķ": 4926,
      "à®±à®µà®²": 4927,
      "Ġà®Ĩà®µà®²": 4928,
      "Ġà®Ĩà®µà®£à®ª": 4929,
      "ĠSort": 4930,
      "Ġbook": 4931,
      "Ġwrap": 4932,
      "ĠKlue": 4933,
      "ĠALI": 4934,
      "ĠDes": 4935,
      "ĠDec": 4936,
      "Ġmo": 4937,
      "Ġmmm": 4938,
      "eta": 4939,
      "ĠPer": 4940,
      "ĠPamela": 4941,
      "ĠBE": 4942,
      "ĠBrun": 4943,
      "Ġà®īà®£à®°à®ª": 4944,
      "elzer": 4945,
      "à®Ĳà®°": 4946,
      "à®®à®£à®²": 4947,
      "ĠOff": 4948,
      "ĠNorth": 4949,
      "ĠGA": 4950,
      "ĠGT": 4951,
      "ĠGpg": 4952,
      "ĠLS": 4953,
      "ĠLa": 4954,
      "ĠRuch": 4955,
      "Ġlook": 4956,
      "Ġload": 4957,
      "emb": 4958,
      "Ġrece": 4959,
      "DEC": 4960,
      "à¯ģ',": 4961,
      "Ġ72": 4962,
      "Ġmexico": 4963,
      "ump": 4964,
      "Ġshit": 4965,
      "seudo": 4966,
      "Ġevent": 4967,
      "ugh": 4968,
      "Ġudensity": 4969,
      "OPTI": 4970,
      "Ġasp": 4971,
      "Ġà®Ĭà®Łà®ķà®¤": 4972,
      "Ġ256": 4973,
      "ĠCoop": 4974,
      "Ġà®Ĭà®Łà®ķà®Ļ": 4975,
      "swick": 4976,
      "Ġà®ĩà®Łà®µà®²": 4977,
      "Ġlocation": 4978,
      "ĠDCC": 4979,
      "Ġbugs": 4980,
      "REN": 4981,
      "msg": 4982,
      "Ġfucked": 4983,
      "Ġwidget": 4984,
      "latvia": 4985,
      "plug": 4986,
      "ĠThread": 4987,
      "ĠPhonon": 4988,
      "Ġdisplayed": 4989,
      "Ġqt": 4990,
      "Ġinstall": 4991,
      "ĠKTTSD": 4992,
      "Ġindonesia": 4993,
      "Ġprovide": 4994,
      "ĠInformation": 4995,
      "ĠROUND": 4996,
      "Ġencoding": 4997,
      "Backend": 4998,
      "tinuation": 4999,
      "ĠHoelzer": 5000,
      "Ġsysfs": 5001,
      "emplate": 5002,
      "pfel": 5003,
      "ĠRoberts": 5004,
      "ĠKluepfel": 5005,
      "ĠALIAS": 5006,
      "ĠBrunswick": 5007,
      "ĠRuchowski": 5008,
      "Ġreceiv": 5009,
      "OPTION": 5010,
      "!).": 5011,
      ")'": 5012,
      "-)": 5013,
      ".;": 5014,
      "98": 5015,
      "=%": 5016,
      "BD": 5017,
      "CC": 5018,
      "DD": 5019,
      "ES": 5020,
      "Ent": 5021,
      "For": 5022,
      "IP": 5023,
      "KOffice": 5024,
      "Pro": 5025,
      "Time": 5026,
      "UL": 5027,
      "bin": 5028,
      "creen": 5029,
      "ever": 5030,
      "hà®©": 5031,
      "hà®¯à®Ļ": 5032,
      "ià®°": 5033,
      "ià®Ł": 5034,
      "ià®¯": 5035,
      "mand": 5036,
      "pà®¯": 5037,
      "pà®¯à®²": 5038,
      "print": 5039,
      "rust": 5040,
      "ular": 5041,
      "volution": 5042,
      "Ã°": 5043,
      "Ã²": 5044,
      "à®ķà®¯à®®": 5045,
      "à®¿!\"": 5046,
      "à®¤à®ŀ": 5047,
      "à®°à®Łà®°": 5048,
      "à®°à®ªà®°": 5049,
      "à®©à®ķà®³": 5050,
      "à®©à®µà®´": 5051,
      "à®©à®±à®©à®°": 5052,
      "à®©à®ļà®°": 5053,
      "à®©à®ķà®ļ": 5054,
      "à®®à®°à®°": 5055,
      "à®µà®¯à®²": 5056,
      "à®µà®ķà®°à®®": 5057,
      "à®Łà®¯": 5058,
      "à®Łà®ķà®ļ": 5059,
      "à®Łà®¯à®µà®©": 5060,
      "à®Łà®Īà®Ł": 5061,
      "à®Łà®Łà®©à®µ": 5062,
      "à®Łià®³": 5063,
      "à®³à®¤à®²": 5064,
      "à®³à®ªà®µà®©": 5065,
      "à®²à®ªà®¤": 5066,
      "à®²à®£à®°": 5067,
      "à®¯N": 5068,
      "à®¯à®¹": 5069,
      "à®¯à®ĥà®ľ": 5070,
      "à®ªà®ªà®¤": 5071,
      "à®±à®¯à®¤": 5072,
      "à®±à®®à®²": 5073,
      "à®ķà®³à®ļ": 5074,
      "Ġà®ħà®Łà®©": 5075,
      "Ġà®ħà®¯à®²": 5076,
      "Ġà®ħà®ľà®®": 5077,
      "à¯ĩ'": 5078,
      "à¯Ĩ;": 5079,
      "Ġà®¨à®ķà®¤": 5080,
      "Ġà®¨à®²à®¤": 5081,
      "Ġà®ķà®ĥ": 5082,
      "Ġà®ķà®¤à®ª": 5083,
      "Ġà®ķà®¤à®±": 5084,
      "Ġà®ķà®ªà®Łà®Ļ": 5085,
      "Ġà®ªà®¤à®°": 5086,
      "Ġà®µà®Łà®®": 5087,
      "Ġà®µà®¯à®°": 5088,
      "Ġà®µà®ŀ": 5089,
      "Ġà®®à®ĥà®°": 5090,
      "Ġà®ĩà®ĥà®ª": 5091,
      "Ġà®ĩà®³à®ķ": 5092,
      "Ġà®ĩà®ķà®´à®ª": 5093,
      "à®ļà®ªà®µà®°": 5094,
      "à®ļà®ķà®²": 5095,
      "à®ļà®Łà®°": 5096,
      "à®ļà®µà®©à®ªà®¤": 5097,
      "Ġà®ļà®³": 5098,
      "Ġà®ļà®¤à®®": 5099,
      "Ġà®ļà®Łà®ª": 5100,
      "Ġà®ļà®ķà®®à®©": 5101,
      "à®£à®Łà®µà®°": 5102,
      "à®£à®Łà®Ł": 5103,
      "à¯Ģ'": 5104,
      "à¯Ģ...": 5105,
      "Ġà®¤à®µà®©": 5106,
      "Ġà®¤à®¹à®ľ": 5107,
      "Ġà®İà®®à®ķ": 5108,
      "Ġà®īà®µà®°": 5109,
      "Ġà®īà®¨": 5110,
      "Ġà®īà®ĥà®ª": 5111,
      "Ġà®īà®µà®¨": 5112,
      "Ġà®īà®µà®ª": 5113,
      "à¯ĩà®¾!)": 5114,
      "à®µà®©à®³à®µ": 5115,
      "à®ªà®Łà®Łà®µà®°": 5116,
      "Ġà®ħà®²à®²à®¤": 5117,
      "à®¯à®®à®®": 5118,
      "Ġà®Ĩà®³à®ķ": 5119,
      "Ġà®Ĩà®±à®¤à®²": 5120,
      "Ġà®ħà®¤à®²": 5121,
      "Ġà®īà®Ļà®ķ": 5122,
      "à®ħà®µà®¤": 5123,
      "à®ħà®ķà®ķ": 5124,
      "à®ħà®±à®ª": 5125,
      "à®ħà®ļà®¤": 5126,
      "à®ħà®°à®ª": 5127,
      "à®ħà®¸à®°": 5128,
      "Ġà®ħà®µà®©à®³": 5129,
      "Ġà®ħà®µà®©à®²": 5130,
      "à®ªà®¤à®µ": 5131,
      "à®¸à®¤à®µà®°": 5132,
      "à®¸à®ľ": 5133,
      "à®ĩà®£à®Ļ": 5134,
      "à®ĩà®Łà®¨": 5135,
      "à¯ģ))": 5136,
      "à®¤à®°à®ļ": 5137,
      "à®ķà®®à®³": 5138,
      "à¯į\"'": 5139,
      "Ġà®µà®°à®µà®¤à®±": 5140,
      "Ġà®ĩà®¤à®®": 5141,
      "Ġà®īà®®à®®": 5142,
      "Ġà®®à®±à®µ": 5143,
      "à®¯à®¤à®µà®°": 5144,
      "à®ĥà®©à®¤": 5145,
      "Ġà®ĩà®²à®°": 5146,
      "Ġà®¯à®ķ": 5147,
      "Ġà®¯à®Ĭà®ķ": 5148,
      "à®¯à®©à®µ": 5149,
      "à®¯à®²à®µ": 5150,
      "à¯Ī)\"": 5151,
      "à®İà®©à®ļ": 5152,
      "Ġà®ħà®´à®µ": 5153,
      "Ġà®ħà®´à®Ł": 5154,
      "Ġà®ħà®´à®ļ": 5155,
      "Ġà®ħà®¨à®¨": 5156,
      "Ġà®ļà®®à®¤": 5157,
      "Ġà®ļà®®à®ª": 5158,
      "Ġà®ļà®®à®®à®²": 5159,
      "à®īà®²à®°": 5160,
      "à®īà®µà®®": 5161,
      "à®¤à®µà®ļà®©à®Ļ": 5162,
      "Ġtrans": 5163,
      "Ġà®İà®Ļà®ķà®³": 5164,
      "Ġà®ħà®°à®±": 5165,
      "Ġà®ħà®°à®µà®£": 5166,
      "à®¯à®µà®ķà®³": 5167,
      "Ġà®Īà®¯à®¤": 5168,
      "inux": 5169,
      "Ġà®ĵà®Łà®²": 5170,
      "à®ļà®®à®°à®Ļ": 5171,
      "à¯į?'": 5172,
      "à¯į?-": 5173,
      "Ġà®ıà®±à®µ": 5174,
      "à®¤à®µà®°à®²": 5175,
      "à®·à®¹": 5176,
      "à®·à®®à®¤": 5177,
      "à®Ĩà®µà®¤": 5178,
      "à®Ĩà®ķà®ª": 5179,
      "à®Ĩà®¤à®°": 5180,
      "à®Ĩà®Łà®µà®°": 5181,
      "à®Ĩà®´à®®": 5182,
      "à®³à®¤à®±": 5183,
      "à®©à®®à®Ł": 5184,
      "à®²à®®à®ķ": 5185,
      "Ġkd": 5186,
      "à®®à®²à®Ł": 5187,
      "Ġà®¸à®Ļ": 5188,
      "Ġà®¸à®¹à®°": 5189,
      "à®ľà®²à®®": 5190,
      "à®Łà®µà®°à®ª": 5191,
      "Ġà®ľà®²à®®": 5192,
      "Ġà®¨à®Łà®Ļ": 5193,
      "Ġposition": 5194,
      "Ġà®ħà®ļà®µà®°à®ª": 5195,
      "à®¤à®µà®©à®²": 5196,
      "à®µà®´à®ª": 5197,
      "à®ªà®±à®±": 5198,
      "Ġà®ªà®°à®ķà®¤": 5199,
      "à®ªà®®à®©": 5200,
      "à®ªà®®à®³": 5201,
      "à®ªà®®à®¯à®®": 5202,
      "à®ķà®²à®ķà®®": 5203,
      "à®ļà®°à®ª": 5204,
      "Ġà®°à®®à®³": 5205,
      "à®ħà®µà®ļà®°à®ª": 5206,
      "Ġà®Łà®ļ": 5207,
      "Ġsit": 5208,
      "Ġshell": 5209,
      "Ġsouthkorea": 5210,
      "Ġà®ħà®³à®ķ": 5211,
      "à®µà®®à®³": 5212,
      "à®µà®®à®¯à®®": 5213,
      "ens": 5214,
      "eny": 5215,
      "ĠCT": 5216,
      "ĠCro": 5217,
      "ĠCent": 5218,
      "Ġcall": 5219,
      "Ġcrash": 5220,
      "Ġcirc": 5221,
      "Ġcopy": 5222,
      "Ġcertificate": 5223,
      "Ġà®ħà®ŀà®ļ": 5224,
      "Ġà®²à®Ł": 5225,
      "Ġà®²à®ĥà®©à®¤": 5226,
      "Ġindex": 5227,
      "à®ªà®µà®³": 5228,
      "à®ªà®µà®³à®²": 5229,
      "à®ªà®µià®³": 5230,
      "à®ħà®µà®©à®°": 5231,
      "à®ħà®µà®©à®©": 5232,
      "à®ħà®µà®©à®¨": 5233,
      "nth": 5234,
      "à®±à®µà®³": 5235,
      "aten": 5236,
      "ather": 5237,
      "à®ªà®°à®ķ": 5238,
      "à®ķà®´à®ķ": 5239,
      "Ġà®Ĭà®Łà®ķà®®": 5240,
      "Ġà®Ĭhà®ķà®³": 5241,
      "isia": 5242,
      "ĠSH": 5243,
      "ĠSiberia": 5244,
      "Ġà®¤à®µà®±à®®": 5245,
      "Ġfe": 5246,
      "Ġfoo": 5247,
      "Ġfind": 5248,
      "Ġà®ĩà®¯à®²à®®": 5249,
      "Ġà®®à®°à®©à®®": 5250,
      "ĠKFile": 5251,
      "ĠMoving": 5252,
      "olic": 5253,
      "Ġà®ķà®µà®©à®©à®ķ": 5254,
      "Ġà®ĵà®Łà®µà®¤": 5255,
      "à®ıà®ķ": 5256,
      "à®ıà®¤à®®": 5257,
      "à®ıà®³à®©": 5258,
      "à®ªà®²à®ļ": 5259,
      "à®ªà®²à®¹": 5260,
      "ĠAN": 5261,
      "ĠAccess": 5262,
      "Ġà®Ĩà®Łà®µà®©": 5263,
      "Ġà®ķà®²à®ķà®®": 5264,
      "Ġà®®à®£à®µ": 5265,
      "stein": 5266,
      "à®¾)\"": 5267,
      "à®¾);": 5268,
      "à®¾)?": 5269,
      "Ġmulti": 5270,
      "à¯į.)\"": 5271,
      "Ġà®®à®²à®ľà®²à®®": 5272,
      "à¯į-\"": 5273,
      "ĠPER": 5274,
      "!\")": 5275,
      "Ġhalf": 5276,
      "à®°à®µà®£à®ķ": 5277,
      "ĠFUE": 5278,
      "à®ķà®µà®©à®®à®±": 5279,
      "à®ħà®¤à®©à®¤à®©": 5280,
      "ecur": 5281,
      "à®īà®®à®®": 5282,
      "ĠBR": 5283,
      "ĠBIN": 5284,
      "à¯ģ!)": 5285,
      "à®ĩà®µà®°à®¤": 5286,
      "Ġà®¨à®°à®ķà®¨": 5287,
      "ĠLAN": 5288,
      "à®´à®²à®³": 5289,
      "Ġlong": 5290,
      "Ġlicense": 5291,
      "Ġ59": 5292,
      "à®±à®µà®©à®²": 5293,
      "à¯Ī!)": 5294,
      "Ġ44": 5295,
      "Ġ49": 5296,
      "ĠUI": 5297,
      "à®¨à®°à®ķà®ª": 5298,
      "Ġà®İà®¤à®©ià®¯": 5299,
      "Ġà®ħà®®à®°à®ļ": 5300,
      "Ġà®Ĩà®²à®¯à®Ļ": 5301,
      "Ġà®ļà®Łà®²à®¤": 5302,
      "à®¿:)": 5303,
      "à®ħà®°à®±": 5304,
      "à®ħà®°à®ļà®°": 5305,
      "à®°à®¯à®ŀ": 5306,
      "vers": 5307,
      "ĠEast": 5308,
      "ĠEpos": 5309,
      "Ġà®¤à®¸à®ª": 5310,
      "aysia": 5311,
      "à®ĩà®²à®ŀ": 5312,
      "à¯ĩ\"!": 5313,
      "à®Īà®°à®ķ": 5314,
      "tlement": 5315,
      "à®ĵà®¤à®µ": 5316,
      "à¯ĩà®¾),": 5317,
      "à®īà®¯à®°à®®": 5318,
      "à®¯à®¨à®²à®®": 5319,
      "à¯ĩ?)": 5320,
      "Ġà®Ĩà®ªà®°à®£à®¤": 5321,
      "!)\"": 5322,
      "!);": 5323,
      "Ġà®ªà®°à®µà®µ": 5324,
      "Ġà®ªà®°à®µà®ļà®®": 5325,
      "à®¿-(": 5326,
      "Ġà®®à®°à®£à®ļ": 5327,
      "dium": 5328,
      "Ġ**": 5329,
      "à®³à®Łà®Ł": 5330,
      "ĠÃ¾": 5331,
      "ISH": 5332,
      "ISHA": 5333,
      "ĠÂ£": 5334,
      "à®®à®¸à®¹": 5335,
      "Ġà®ªà®µà®³à®¤": 5336,
      "Ġanother": 5337,
      "Ġcontrol": 5338,
      "tical": 5339,
      "Ġchoose": 5340,
      "Ġà®ĩà®µà®©à®¤": 5341,
      "ionset": 5342,
      "à®¾'(": 5343,
      "à®¾')": 5344,
      "Ġà®īà®´à®µà®Ł": 5345,
      "icode": 5346,
      "à®¯à®¸à®µ": 5347,
      "ustral": 5348,
      "ĠIMS": 5349,
      "à®·à®®à®ŀ": 5350,
      "à®°à®³à®¯à®®": 5351,
      "Ġà®ļà®ķà®²à®µ": 5352,
      "lies": 5353,
      "à®²à®¹à®ª": 5354,
      "à®¾\".": 5355,
      "Ġà®ķà®²à®ķà®ķ": 5356,
      "Ġplay": 5357,
      "Ġsettlement": 5358,
      "PPP": 5359,
      "Ġ(-\"": 5360,
      "Ġsche": 5361,
      "evel": 5362,
      "2002": 5363,
      "Â¢Â¨": 5364,
      "Ġ1998": 5365,
      "à®īà®£à®µà®³": 5366,
      "ĠClutterPath": 5367,
      "Ġà®Ĭà®´à®¯à®¤": 5368,
      "THO": 5369,
      "regionset": 5370,
      "à®ĥà®¤à®ĥà®ª": 5371,
      "à®Ĩà®´à®¤": 5372,
      "ĠAdditional": 5373,
      "ĠUNIX": 5374,
      "ĠPhoto": 5375,
      "ĠSTDEV": 5376,
      "ĠSystem": 5377,
      "à®ªà®²à®µà®ķ": 5378,
      "à®ħà®¹à®®à®¤": 5379,
      "hello": 5380,
      "à¯į;;.": 5381,
      "achegrind": 5382,
      "ĠMessage": 5383,
      "Ġhours": 5384,
      "ĠIRC": 5385,
      "AGE": 5386,
      "Ġdocument": 5387,
      "malaysia": 5388,
      "Ġradio": 5389,
      "Preview": 5390,
      "Ġtwo": 5391,
      "ĠGTK": 5392,
      "Ġà®ķà®ĥà®ªà®¤": 5393,
      "ĠFUEISHA": 5394,
      "ustralia": 5395,
      "\"}": 5396,
      "(#": 5397,
      ",.": 5398,
      "//": 5399,
      "18": 5400,
      "32": 5401,
      "72": 5402,
      "AC": 5403,
      "Box": 5404,
      "FI": 5405,
      "GI": 5406,
      "IV": 5407,
      "MOS": 5408,
      "Out": 5409,
      "OOR": 5410,
      "PC": 5411,
      "Reg": 5412,
      "SM": 5413,
      "bania": 5414,
      "book": 5415,
      "bek": 5416,
      "cape": 5417,
      "ga": 5418,
      "get": 5419,
      "ke": 5420,
      "ked": 5421,
      "light": 5422,
      "mong": 5423,
      "ose": 5424,
      "pend": 5425,
      "type": 5426,
      "ume": 5427,
      "uil": 5428,
      "uay": 5429,
      "yc": 5430,
      "yth": 5431,
      "Ġà¯Ĩ": 5432,
      "à®ķà®ķà®®": 5433,
      "à®ķà®©à®ķ": 5434,
      "à®ķà®ĩà®²": 5435,
      "à®ķà®īà®³": 5436,
      "à®¾%": 5437,
      "à®°à®©à®¤": 5438,
      "à®°à®±à®µà®°": 5439,
      "à®©à®ķà®µ": 5440,
      "à®®à®µà®©": 5441,
      "à®®à®©à®Ļ": 5442,
      "à®®à®¯à®Ļ": 5443,
      "à®Łà®³à®µ": 5444,
      "à®³à®¨à®Ł": 5445,
      "à®²à®¯à®¤": 5446,
      "à®²à®²à®µ": 5447,
      "à®¯à®Łà®Ļ": 5448,
      "à®¯à®¯à®Ł": 5449,
      "à®ªà®¯à®¤": 5450,
      "à®ªà®ī": 5451,
      "à®ķà®³à®µ": 5452,
      "à®ķà®³à®Ł": 5453,
      "Ġà®ħà®ķà®¤": 5454,
      "Ġà®ħà®ĥà®²": 5455,
      "Ġà®¨à®ķà®®": 5456,
      "Ġà®ķà®³à®°": 5457,
      "Ġà®ªà®ª": 5458,
      "Ġà®ªà®µà®©": 5459,
      "Ġà®®à®®à®¤": 5460,
      "Ġà®®à®ĥà®®": 5461,
      "Ġà®®à®Łà®²": 5462,
      "à®ļà®µà®¤à®±": 5463,
      "à®ļà®°à®£à®Ł": 5464,
      "à®¨à®ķà®°à®Ļ": 5465,
      "Ġà®¤à®Ĩà®²": 5466,
      "Ġà®īà®´à®²": 5467,
      "à¯į,...)": 5468,
      "à®ªà®Łà®¤à®ķ": 5469,
      "Ġà®Ĩà®µà®°": 5470,
      "Ġà®Ĩà®ķà®ª": 5471,
      "à®ļà®¯à®®à®ķ": 5472,
      "Ġ-...": 5473,
      "à®ĩà®¹": 5474,
      "à®ĩà®ĥà®¤": 5475,
      "à®ķà®ªà®²à®©": 5476,
      "Ġà®ĩà®©à®©": 5477,
      "à¯ģ,%": 5478,
      "à¯į\";": 5479,
      "Ġà®®à®©à®®à®ķ": 5480,
      "à®ķà®°à®®à®ķ": 5481,
      "à®²à®¤à®±": 5482,
      "à®¤à®®à®±": 5483,
      "Ġà®ħà®µà®®à®¤": 5484,
      "à®ªà®µà®°à®ķ": 5485,
      "à¯ĩ!)\"": 5486,
      "Ġtar": 5487,
      "ane": 5488,
      "Ġà®ħà®°à®£": 5489,
      "Ġà®ħà®°à®ļà®¤": 5490,
      "Ġà®Īà®ļà®²": 5491,
      "Ġà®ħà®®à®°à®°": 5492,
      "inal": 5493,
      "Ġà®ĵà®ª": 5494,
      "Ġà®ĵà®¯à®µ": 5495,
      "à®ļà®®à®¨": 5496,
      "à®ħà®µà®°à®´à®ķ": 5497,
      "ery": 5498,
      "Ġapt": 5499,
      "Ġkn": 5500,
      "alcu": 5501,
      "Ġà®¸à®µ": 5502,
      "Ġà®ľà®©à®Ļ": 5503,
      "Ġpress": 5504,
      "Ġdue": 5505,
      "Ġà®ªà®°à®ŀ": 5506,
      "à®ķà®²à®µ": 5507,
      "rough": 5508,
      "Ġà®Łà®¤": 5509,
      "à¯į:\\": 5510,
      "Ġsing": 5511,
      "ranslator": 5512,
      "Ġprogress": 5513,
      "back": 5514,
      "entic": 5515,
      "Ġdoc": 5516,
      "Ġà®²à®£": 5517,
      "à¯ĩ)\"": 5518,
      "à¯ĩ);": 5519,
      "à®ķà®£à®Ļ": 5520,
      "omatic": 5521,
      "atus": 5522,
      "lec": 5523,
      "ĠSDL": 5524,
      "à®©à®µà®©à®²": 5525,
      "Ġbl": 5526,
      "Ġwhether": 5527,
      "ĠME": 5528,
      "Ġà®İà®µà®©à®¤": 5529,
      "à®ıà®£": 5530,
      "à®ıà®µà®²": 5531,
      "ĠAf": 5532,
      "à®°à®²à®ķà®®": 5533,
      "ĠDesktop": 5534,
      "inger": 5535,
      "à®¾)!\"": 5536,
      "Ġms": 5537,
      "à¯į.).": 5538,
      "Ġà®ªà®´à®®": 5539,
      "Ġà®ªà®´à®µà®ķ": 5540,
      "Ġà®ĵà®¤à®µà®¤à®±": 5541,
      "ĠPost": 5542,
      "ĠPNG": 5543,
      "Ġxà®©": 5544,
      "Ġher": 5545,
      "ĠFV": 5546,
      "ĠFar": 5547,
      "ĠFire": 5548,
      "ĠFiles": 5549,
      "use": 5550,
      "Ġocc": 5551,
      "ade": 5552,
      "ador": 5553,
      "ĠOi": 5554,
      "ĠNetwork": 5555,
      "ĠGE": 5556,
      "Ġ52": 5557,
      "Ġ55": 5558,
      "ĠUT": 5559,
      "Ġthrough": 5560,
      "ĠHotS": 5561,
      "Ġrelease": 5562,
      "Ġrepla": 5563,
      "ĠXXX": 5564,
      "exi": 5565,
      "ĠWidget": 5566,
      "ĠWritten": 5567,
      "Ġ>:": 5568,
      "Ġ2007": 5569,
      "Ġà®ħà®µà®ļà®°à®¤": 5570,
      "que": 5571,
      "Ġlater": 5572,
      "Ġ120": 5573,
      "Ġshare": 5574,
      "nupg": 5575,
      "view": 5576,
      "Ġ900": 5577,
      "Ġ***": 5578,
      "oclient": 5579,
      "ĠCOVER": 5580,
      "herlands": 5581,
      "ĠJava": 5582,
      "TSC": 5583,
      "Ġvs": 5584,
      "ĠÂ¨": 5585,
      "ĠZartan": 5586,
      "Ġspe": 5587,
      "lose": 5588,
      "Ġphrase": 5589,
      "Ġcancel": 5590,
      "à®¨à®ķà®°à®µ": 5591,
      "Ġà®ļà®²à®ļà®²à®ª": 5592,
      "à®¯à®¸à®ī": 5593,
      "à¯į?)\"": 5594,
      "Ġfilename": 5595,
      "Ġbar": 5596,
      "Ġzones": 5597,
      "Ġzimbabwe": 5598,
      "Ġarb": 5599,
      "Ġ${": 5600,
      "ĠGLSL": 5601,
      "à®ļà®©à®®à®Ł": 5602,
      "puter": 5603,
      "Ġdiffer": 5604,
      "ĠxBF": 5605,
      "ĠWhy": 5606,
      "à®Ĩà®ªà®°à®£": 5607,
      "Ġassoc": 5608,
      "denmark": 5609,
      "screen": 5610,
      "Short": 5611,
      "netherlands": 5612,
      "notation": 5613,
      "ĠDatabase": 5614,
      "ĠEdmun": 5615,
      "PrintPreview": 5616,
      "Ġ365": 5617,
      "9660": 5618,
      "Ġpriority": 5619,
      "Ġkioclient": 5620,
      "Ġtags": 5621,
      "Ġperiph": 5622,
      "uzbek": 5623,
      "CII": 5624,
      "Ġengine": 5625,
      "Alt": 5626,
      "KDAY": 5627,
      "ĠQIBaseResult": 5628,
      "Ġà®ķà®µà®ļà®Ļ": 5629,
      "ĠCroati": 5630,
      "ĠCentral": 5631,
      "ĠKFileReplace": 5632,
      "Ġscheme": 5633,
      "alcula": 5634,
      "ranslators": 5635,
      "entication": 5636,
      "ĠHotSync": 5637,
      "ĠEdmunds": 5638,
      "PrintPreviewDialog": 5639,
      "uzbekistan": 5640,
      ")\"": 5641,
      "15": 5642,
      "300": 5643,
      "86": 5644,
      "99": 5645,
      "Button": 5646,
      "Con": 5647,
      "CON": 5648,
      "Group": 5649,
      "HINT": 5650,
      "LF": 5651,
      "LO": 5652,
      "NN": 5653,
      "OH": 5654,
      "Org": 5655,
      "PM": 5656,
      "QRT": 5657,
      "Sal": 5658,
      "TA": 5659,
      "Text": 5660,
      "TIME": 5661,
      "YEAR": 5662,
      "avi": 5663,
      "air": 5664,
      "botswana": 5665,
      "count": 5666,
      "dy": 5667,
      "full": 5668,
      "ily": 5669,
      "izer": 5670,
      "look": 5671,
      "lud": 5672,
      "like": 5673,
      "man": 5674,
      "mit": 5675,
      "slo": 5676,
      "ument": 5677,
      "ys": 5678,
      "Â½": 5679,
      "Ġrow": 5680,
      "à®ķà®ħà®ª": 5681,
      "à®¾;": 5682,
      "à®®à®·": 5683,
      "à¯ĩ%": 5684,
      "Ġà®ħà®²à®ª": 5685,
      "Ġà®ĩà®¤à®¯": 5686,
      "title": 5687,
      "à®īà®ªà®¤": 5688,
      "Ġter": 5689,
      "Ġtask": 5690,
      "Ġtraditional": 5691,
      "Ġtemplate": 5692,
      "tions": 5693,
      "Ġà®ħà®°à®ĥà®ª": 5694,
      "Ġà®Īà®ķ": 5695,
      "itor": 5696,
      "Ġara": 5697,
      "albania": 5698,
      "Ġprint": 5699,
      "Ġpower": 5700,
      "Ġpaper": 5701,
      "Ġpng": 5702,
      "à®²à®°à®°": 5703,
      "Ġdraw": 5704,
      "à®Łà®°à®²": 5705,
      "Ġà®Łà®¯à®²": 5706,
      "Ġsqu": 5707,
      "Ġserv": 5708,
      "Ġ'-": 5709,
      "à®£à®®à®Ł": 5710,
      "Ġnext": 5711,
      "Ġà®ĩà®Łà®ŀ": 5712,
      "Ġà®ĩà®Łà®ħà®®": 5713,
      "ĠCUR": 5714,
      "ĠComp": 5715,
      "ĠCalendar": 5716,
      "Ġcor": 5717,
      "Ġche": 5718,
      "Ġcvs": 5719,
      "heet": 5720,
      "Ġà®Ĳà®¤": 5721,
      "arin": 5722,
      "ough": 5723,
      "Ġà®Ĭà®¤à®²": 5724,
      "isting": 5725,
      "ĠSE": 5726,
      "ĠSO": 5727,
      "Ġà®®à®°à®ªà®£": 5728,
      "ĠKI": 5729,
      "ĠMP": 5730,
      "ĠMulti": 5731,
      "ĠAH": 5732,
      "ĠAss": 5733,
      "ĠApr": 5734,
      "ĠTH": 5735,
      "Ġà®Ĩà®Łà®ļ": 5736,
      "ĠDB": 5737,
      "ĠDiff": 5738,
      "ĠDOM": 5739,
      "à¯ģ...)": 5740,
      "iac": 5741,
      "Ġmatur": 5742,
      "ĠII": 5743,
      "ĠPS": 5744,
      "Ġhol": 5745,
      "ĠFont": 5746,
      "ĠFOL": 5747,
      "echt": 5748,
      "raph": 5749,
      "Ġ06": 5750,
      "à®Ĳà®ı": 5751,
      "ĠOS": 5752,
      "ĠOver": 5753,
      "ĠNumber": 5754,
      "ĠGR": 5755,
      "ĠGROAN": 5756,
      "ĠLine": 5757,
      "ĠRSS": 5758,
      "Ġlilo": 5759,
      "Ġ56": 5760,
      "ĠXX": 5761,
      "Ġorig": 5762,
      "Ġ750": 5763,
      "Ġmeaning": 5764,
      "ife": 5765,
      "Ġcomputer": 5766,
      "Ġrate": 5767,
      "Ġà®ªà®²à®ķà®Ļ": 5768,
      "Ġ95": 5769,
      "Ġuns": 5770,
      "à®ªà®¯à®©à®³": 5771,
      "berg": 5772,
      "ĠJor": 5773,
      "ĠJIS": 5774,
      "short": 5775,
      "ĠÂº": 5776,
      "Ġwords": 5777,
      "Ġkeys": 5778,
      "Ġkeyboard": 5779,
      "oslave": 5780,
      "Ġoptions": 5781,
      "ustom": 5782,
      "ĠIMSIN": 5783,
      "ĠIndian": 5784,
      "aved": 5785,
      "Ġarc": 5786,
      "Ġ252": 5787,
      "ovray": 5788,
      "Ġprefer": 5789,
      "aracter": 5790,
      "Ġfollow": 5791,
      "OSE": 5792,
      "georgia": 5793,
      "Ġquery": 5794,
      "ways": 5795,
      "ative": 5796,
      "Ġcolors": 5797,
      "ADIST": 5798,
      "ĠKWin": 5799,
      "ĠKWord": 5800,
      "ĠDEVI": 5801,
      "Ġlikely": 5802,
      "ĠWhen": 5803,
      "ĠTool": 5804,
      "scale": 5805,
      "Ġconfiguration": 5806,
      "tification": 5807,
      "sole": 5808,
      "Ġdistributed": 5809,
      "ĠATAN": 5810,
      "Ġchange": 5811,
      "Ġbased": 5812,
      "WebPage": 5813,
      "ĠUAà®µ": 5814,
      "DialogButton": 5815,
      "ĠVARA": 5816,
      "Ġcreate": 5817,
      "ĠMSN": 5818,
      "ĠNORM": 5819,
      "Ġentry": 5820,
      "ĠKeyboard": 5821,
      "ĠOutlook": 5822,
      "Ġseparator": 5823,
      "ĠWEEKDAY": 5824,
      "Ġencryption": 5825,
      "Ġburn": 5826,
      "ĠArch": 5827,
      "quired": 5828,
      "itial": 5829,
      "ĠGpgSM": 5830,
      "olicy": 5831,
      "mongolia": 5832,
      "Ġoccurr": 5833,
      "Ġperipheries": 5834,
      "ĠCroatia": 5835,
      "Ġarabia": 5836,
      "Ġmaturity": 5837,
      "ĠDEVICE": 5838,
      "DialogButtonBox": 5839,
      ",...": 5840,
      "92": 5841,
      "Ed": 5842,
      "GO": 5843,
      "Head": 5844,
      "IC": 5845,
      "MDN": 5846,
      "MOAN": 5847,
      "Part": 5848,
      "PAL": 5849,
      "SSL": 5850,
      "Singing": 5851,
      "TEP": 5852,
      "WH": 5853,
      "You": 5854,
      "YPE": 5855,
      "bet": 5856,
      "billy": 5857,
      "cue": 5858,
      "eam": 5859,
      "iven": 5860,
      "kay": 5861,
      "kazakhstan": 5862,
      "nd": 5863,
      "nep": 5864,
      "north": 5865,
      "oin": 5866,
      "over": 5867,
      "peg": 5868,
      "pass": 5869,
      "suriname": 5870,
      "ues": 5871,
      "with": 5872,
      "zip": 5873,
      "Ã´": 5874,
      "ÃĨ": 5875,
      "ÃĴ": 5876,
      "Ġ\\": 5877,
      "Ġà¯į": 5878,
      "à®ķà®£à®®": 5879,
      "à®¤à®Ĵà®°": 5880,
      "à®Łà®ķà®°": 5881,
      "à®Łà®¯à®°": 5882,
      "à¯Ī_": 5883,
      "à¯ĪâĻª": 5884,
      "à®²à®¯": 5885,
      "à®ªà®ķà®ª": 5886,
      "Ġà®µà®³à®¤": 5887,
      "à®ļà®¯à®Ļ": 5888,
      "à®£à®µà®°": 5889,
      "à¯Ģ?": 5890,
      "Ġà®İà®®à®¤": 5891,
      "à®ħà®ķà®²à®µ": 5892,
      "à®ĩà®²à®µ": 5893,
      "à®ĩà®´à®¨": 5894,
      "Ġà®ıà®ľ": 5895,
      "mer": 5896,
      "Ġnow": 5897,
      "Ġà®ļà®®à®ļ": 5898,
      "à®¤à®µà®Ļ": 5899,
      "Ġtear": 5900,
      "à®ĥà®ªà®ĥà®ª": 5901,
      "Ġabo": 5902,
      "Ġkc": 5903,
      "Ġpub": 5904,
      "Ġpseudo": 5905,
      "Ġdes": 5906,
      "Ġdat": 5907,
      "Ġdisc": 5908,
      "à®ķà®²à®ª": 5909,
      "rog": 5910,
      "Ġà®Łà®®": 5911,
      "Ġ''": 5912,
      "Ġproble": 5913,
      "Ġprofessor": 5914,
      "enter": 5915,
      "enstein": 5916,
      "ĠCL": 5917,
      "ĠCR": 5918,
      "ĠCan": 5919,
      "ĠCar": 5920,
      "Ġcase": 5921,
      "request": 5922,
      "à®Łà®ķà®©": 5923,
      "armen": 5924,
      "ical": 5925,
      "ision": 5926,
      "ĠSw": 5927,
      "ĠKAD": 5928,
      "ĠMal": 5929,
      "ĠMID": 5930,
      "à®ıà®¯": 5931,
      "ĠTLS": 5932,
      "ĠDO": 5933,
      "ĠDown": 5934,
      "Ġà®ķà®²à®©": 5935,
      "Ġmate": 5936,
      "Ġmain": 5937,
      "Ġmany": 5938,
      "ĠIm": 5939,
      "ĠPE": 5940,
      "ĠPV": 5941,
      "ĠPress": 5942,
      "ĠPSE": 5943,
      "ĠPlan": 5944,
      "ĠPalm": 5945,
      "Ġxml": 5946,
      "Ġxmi": 5947,
      "Ġhaiti": 5948,
      "ĠBILLY": 5949,
      "ĠBLARING": 5950,
      "Ġ04": 5951,
      "ĠOAS": 5952,
      "ĠOCT": 5953,
      "ĠNFS": 5954,
      "ĠGenericName": 5955,
      "ĠLon": 5956,
      "ĠLIL": 5957,
      "ĠRec": 5958,
      "ĠRay": 5959,
      "Ġll": 5960,
      "lde": 5961,
      "Ġguyana": 5962,
      "à¯Ī!'": 5963,
      "Ġ42": 5964,
      "unc": 5965,
      "ĠHa": 5966,
      "ĠHoo": 5967,
      "ĠHEX": 5968,
      "Ġrep": 5969,
      "asps": 5970,
      "ĠEl": 5971,
      "INV": 5972,
      "uckers": 5973,
      "ĠWeb": 5974,
      "à¯ģ).\"": 5975,
      "Ġ82": 5976,
      "Ġ78": 5977,
      "ayout": 5978,
      "quot": 5979,
      "ORN": 5980,
      "Ġusers": 5981,
      "ĠQDialogButtonBox": 5982,
      "Ġdefin": 5983,
      "licit": 5984,
      "illbilly": 5985,
      "tons": 5986,
      "odiac": 5987,
      "Ġvar": 5988,
      "ĠÃģ": 5989,
      "RODUCT": 5990,
      "Ġcantons": 5991,
      "ourg": 5992,
      "Ġà®ķà®µà®ļà®®": 5993,
      "space": 5994,
      "Ġzodiac": 5995,
      "ĠCoglO": 5996,
      "face": 5997,
      "1200": 5998,
      "Ġadd": 5999,
      "Ġadds": 6000,
      "EXCLAIMS": 6001,
      "Ġpercent": 6002,
      "Ġalong": 6003,
      "Ġà®ĩà®Łà®µà®²à®®": 6004,
      "igner": 6005,
      "rayscale": 6006,
      "AILING": 6007,
      "Ġdiffà®©": 6008,
      "UTF": 6009,
      "Ġbackgammon": 6010,
      "Ġspecific": 6011,
      "ĠSIGN": 6012,
      "ermany": 6013,
      "ĠEXP": 6014,
      "ĠEdit": 6015,
      "Ġsecond": 6016,
      "udio": 6017,
      "Ġbasis": 6018,
      "Ġindic": 6019,
      "IRRING": 6020,
      "Ġauthentication": 6021,
      "Ġdownload": 6022,
      "ĠARB": 6023,
      "Ġtypes": 6024,
      "gnome": 6025,
      "ĠAuto": 6026,
      "ĠASCII": 6027,
      "ground": 6028,
      "aredy": 6029,
      "ĠSUB": 6030,
      "ersonal": 6031,
      "Ġpermissions": 6032,
      "ĠInternet": 6033,
      "Delete": 6034,
      "Ġbecause": 6035,
      "ĠDisplay": 6036,
      "Thudding": 6037,
      "Ġpopup": 6038,
      "ĠPDF": 6039,
      "Ġparameter": 6040,
      "Ġmoon": 6041,
      "ĠGAMM": 6042,
      "embourg": 6043,
      "ython": 6044,
      "Ġsingle": 6045,
      "Ġarbfp": 6046,
      "Ġassoci": 6047,
      "echtenstein": 6048,
      "nepal": 6049,
      "Ġabove": 6050,
      "armenia": 6051,
      "ĠKADMOS": 6052,
      "ĠOASIS": 6053,
      "ĠLILO": 6054,
      "!!": 6055,
      "35": 6056,
      "://": 6057,
      "=\"": 6058,
      "AV": 6059,
      "Ab": 6060,
      "Browse": 6061,
      "CAM": 6062,
      "Calendar": 6063,
      "Cdrdao": 6064,
      "FT": 6065,
      "GC": 6066,
      "KE": 6067,
      "MU": 6068,
      "Menu": 6069,
      "NTSC": 6070,
      "OIS": 6071,
      "OUR": 6072,
      "Ph": 6073,
      "SP": 6074,
      "Search": 6075,
      "VCD": 6076,
      "XID": 6077,
      "]...": 6078,
      "clude": 6079,
      "dir": 6080,
      "fix": 6081,
      "ii": 6082,
      "jet": 6083,
      "jong": 6084,
      "lang": 6085,
      "lugin": 6086,
      "mount": 6087,
      "nbsp": 6088,
      "pm": 6089,
      "pon": 6090,
      "ples": 6091,
      "rong": 6092,
      "san": 6093,
      "self": 6094,
      "tran": 6095,
      "tà®ĩà®²": 6096,
      "ually": 6097,
      "vak": 6098,
      "yd": 6099,
      "Ãĥ": 6100,
      "Ġ]": 6101,
      "à¯į\\\\": 6102,
      "à®ķComment": 6103,
      "à®ķrequest": 6104,
      "à¯ģ}": 6105,
      "à®µà®²à®ķ": 6106,
      "à®ŁName": 6107,
      "à®ªà®©à®®": 6108,
      "à®Ļà®µ": 6109,
      "à®¨à®Łà®ª": 6110,
      "Ġà®ļà®²à®µ": 6111,
      "à¯į,%": 6112,
      "à®¯à®®à®°": 6113,
      "Ġ\"...": 6114,
      "à®ĩà®²à®ķ": 6115,
      "à®¾?%": 6116,
      "à®ĥà®Ł": 6117,
      "medium": 6118,
      "à®¤à®²à®©": 6119,
      "Ġtech": 6120,
      "Ġtrash": 6121,
      "Ġà®Ĩà®ķà®ļ": 6122,
      "Ġà®ĵà®¹": 6123,
      "esis": 6124,
      "estures": 6125,
      "erb": 6126,
      "erve": 6127,
      "Ġkw": 6128,
      "Ġkig": 6129,
      "ality": 6130,
      "Ġpam": 6131,
      "Ġpass": 6132,
      "Ġpatter": 6133,
      "Ġdots": 6134,
      "à®ªà®±à®µ": 6135,
      "Ġsal": 6136,
      "Ġsent": 6137,
      "entin": 6138,
      "Ġdol": 6139,
      "Ġcd": 6140,
      "Ġczech": 6141,
      "Ġcalcula": 6142,
      "Ġà®Ĳà®İà®¸": 6143,
      "ars": 6144,
      "Ġà®ĥà®ªà®¯à®°": 6145,
      "ĠSTD": 6146,
      "Ġfd": 6147,
      "Ġfont": 6148,
      "Ġfound": 6149,
      "Ġwin": 6150,
      "ĠKal": 6151,
      "ĠKUR": 6152,
      "ĠKPPP": 6153,
      "ĠMon": 6154,
      "ĠMay": 6155,
      "ĠMAL": 6156,
      "Ġà®ªà®¯à®ªà®Ł": 6157,
      "oli": 6158,
      "à®ıà®Ĵ": 6159,
      "ĠTre": 6160,
      "ĠDig": 6161,
      "ĠDir": 6162,
      "Ġmbox": 6163,
      "Ġmarin": 6164,
      "ĠIML": 6165,
      "ĠPL": 6166,
      "ĠPrint": 6167,
      "ĠPOV": 6168,
      "ĠPOWER": 6169,
      "ĠFAL": 6170,
      "ĠFISH": 6171,
      "els": 6172,
      "utf": 6173,
      "ĠOct": 6174,
      "ĠLayout": 6175,
      "ĠROCK": 6176,
      "Ġlines": 6177,
      "Ġgame": 6178,
      "Ġgiven": 6179,
      "Ġgestures": 6180,
      "ency": 6181,
      "ĠUkraine": 6182,
      "ĠHere": 6183,
      "asc": 6184,
      "Ġ650": 6185,
      "ched": 6186,
      "deo": 6187,
      "INCT": 6188,
      "ĠWin": 6189,
      "ĠWorm": 6190,
      "ĠWOM": 6191,
      "ĠWatch": 6192,
      "à®ĵà®İà®®": 6193,
      "Ġshows": 6194,
      "Ġcontin": 6195,
      "ĠVal": 6196,
      "ĠVol": 6197,
      "ĠVCD": 6198,
      "Ġà®ķà®©à®µà®Ł": 6199,
      "Ġ950": 6200,
      "Ġuni": 6201,
      "ĠQuery": 6202,
      "ĠQPrintPreviewDialog": 6203,
      "ĠQWebPage": 6204,
      "Ġà®İà®¸à®Ļà®µ": 6205,
      "Ġitems": 6206,
      "ĠCOUP": 6207,
      "ĠTRUE": 6208,
      "escriptive": 6209,
      "ROM": 6210,
      "ĠÂ¿": 6211,
      "ĠCDs": 6212,
      "Ġspin": 6213,
      "Ġsync": 6214,
      "PID": 6215,
      "pera": 6216,
      "peru": 6217,
      "Ġable": 6218,
      "ahjong": 6219,
      "fted": 6220,
      "lied": 6221,
      "liechtenstein": 6222,
      "ĠImagepicture": 6223,
      "Ġuseful": 6224,
      "Ġperform": 6225,
      "grafted": 6226,
      "ĠFILE": 6227,
      "Ġsuch": 6228,
      "STRING": 6229,
      "RET": 6230,
      "parts": 6231,
      "Ġcontains": 6232,
      "ditions": 6233,
      "Ġdiffic": 6234,
      "ĠDVDs": 6235,
      "ĠKWrite": 6236,
      "mooth": 6237,
      "SECAM": 6238,
      "ĠCHAR": 6239,
      "ĠCHUCK": 6240,
      "ĠConditions": 6241,
      "ompare": 6242,
      "Ġexamples": 6243,
      "ĠAtkHypertà®ĩà®²": 6244,
      "DISTINCT": 6245,
      "Ġinclud": 6246,
      "ĠFloyd": 6247,
      "ĠVIDEO": 6248,
      "ĠMAX": 6249,
      "Ġfront": 6250,
      "PEG": 6251,
      "Ġ``": 6252,
      "InsertInsert": 6253,
      "ĠMarti": 6254,
      "Ġiden": 6255,
      "Ġmodifier": 6256,
      "Replacewith": 6257,
      "VEN": 6258,
      "lished": 6259,
      "Ġsaver": 6260,
      "Exp": 6261,
      "nicaragua": 6262,
      "Ġentered": 6263,
      "ĠFrame": 6264,
      "Ġ9660": 6265,
      "Ġkmix": 6266,
      "ĠRomilly": 6267,
      "Ġpackage": 6268,
      "ĠDesigner": 6269,
      "Entry": 6270,
      "RegExp": 6271,
      "ĠPostScript": 6272,
      "Ġdifferent": 6273,
      "Ġoriginal": 6274,
      "ĠJorEl": 6275,
      "Ġoccurred": 6276,
      "Header": 6277,
      "Ġassociated": 6278,
      "Ġmarino": 6279,
      "ĠIMLN": 6280,
      "ĠFALSE": 6281,
      "ĠWormhole": 6282,
      "ĠWOMAN": 6283,
      "Ġcontinents": 6284,
      "ahjongg": 6285,
      "DISTINCTLY": 6286,
      "01": 6287,
      "90": 6288,
      ":\"": 6289,
      ";,": 6290,
      "=?": 6291,
      "Book": 6292,
      "Control": 6293,
      "Delphine": 6294,
      "ELE": 6295,
      "HEX": 6296,
      "JIS": 6297,
      "LM": 6298,
      "Man": 6299,
      "New": 6300,
      "Network": 6301,
      "Pen": 6302,
      "PER": 6303,
      "Root": 6304,
      "Screen": 6305,
      "TAB": 6306,
      "Up": 6307,
      "VATOR": 6308,
      "bjects": 6309,
      "ced": 6310,
      "dig": 6311,
      "dest": 6312,
      "flex": 6313,
      "fuckin": 6314,
      "http": 6315,
      "kplug": 6316,
      "none": 6317,
      "po": 6318,
      "poland": 6319,
      "rary": 6320,
      "ses": 6321,
      "sà®Ĳ": 6322,
      "south": 6323,
      "session": 6324,
      "trip": 6325,
      "uds": 6326,
      "uador": 6327,
      "yz": 6328,
      "Â£": 6329,
      "Ãģ": 6330,
      "ÃĦ": 6331,
      "Ãī": 6332,
      "ÃĮ": 6333,
      "Ãļ": 6334,
      "à¯įà¯į": 6335,
      "à®°à®ķà®ļ": 6336,
      "à®°à®²à®ķà®Ļ": 6337,
      "à®°à®¤à®®à®°": 6338,
      "à®©à®ĩà®°": 6339,
      "à®Łà®°à®®": 6340,
      "à¯ĢÂ¨": 6341,
      "Ġ(.": 6342,
      "Ġà®İà®ĥà®ķ": 6343,
      "à¯Ĥ.": 6344,
      "Ġà®ħà®²à®®": 6345,
      "Ġà®ħà®²à®ļà®ª": 6346,
      "Ġà®Ĵà®¸": 6347,
      "Ġà®ªà®Łà®ļ": 6348,
      "à¯Ī.,": 6349,
      "ons": 6350,
      "onts": 6351,
      "onder": 6352,
      "....": 6353,
      "Ġnic": 6354,
      "à®¨à®ªà®°": 6355,
      "Ġtest": 6356,
      "Ġà®Ĩà®ķà®¸": 6357,
      "Ġà®ĵà®²": 6358,
      "Ġà®ĵà®µà®°": 6359,
      "itab": 6360,
      "erik": 6361,
      "allet": 6362,
      "edron": 6363,
      "orati": 6364,
      "Ġdd": 6365,
      "Ġnamed": 6366,
      "Ġsave": 6367,
      "Ġsmall": 6368,
      "Ġ240": 6369,
      "ĠCE": 6370,
      "ĠChe": 6371,
      "ĠCAR": 6372,
      "ĠCountry": 6373,
      "ĠCLY": 6374,
      "Ġcgi": 6375,
      "rep": 6376,
      "reak": 6377,
      "Ġà®²à®©": 6378,
      "Ġà®²à®µ": 6379,
      "Ġink": 6380,
      "Ġinv": 6381,
      "Ġà®Ĳà®ļ": 6382,
      "arth": 6383,
      "ĠSim": 6384,
      "ĠSpar": 6385,
      "Ġbrow": 6386,
      "Ġfonts": 6387,
      "ility": 6388,
      "Ġtheme": 6389,
      "Ġwide": 6390,
      "ĠKH": 6391,
      "ĠKà®ķ": 6392,
      "ĠKà®¤": 6393,
      "ĠKon": 6394,
      "ĠKompare": 6395,
      "ĠMO": 6396,
      "ĠMod": 6397,
      "ĠMode": 6398,
      "ĠMotherf": 6399,
      "ĠMUR": 6400,
      "à®¿.)": 6401,
      "ĠAU": 6402,
      "ĠASIN": 6403,
      "ĠTB": 6404,
      "ĠType": 6405,
      "ĠTable": 6406,
      "ĠDL": 6407,
      "ĠDAN": 6408,
      "ĠDesk": 6409,
      "ĠDev": 6410,
      "ĠDIV": 6411,
      "ĠDTEP": 6412,
      "Ġ350": 6413,
      "stamp": 6414,
      "Ġmip": 6415,
      "à¯į--": 6416,
      "ĠPovray": 6417,
      "ĠPython": 6418,
      "Ġhillbilly": 6419,
      "ĠFue": 6420,
      "usic": 6421,
      "ecuador": 6422,
      "ĠBrowse": 6423,
      "ĠBCC": 6424,
      "raction": 6425,
      "Ġ03": 6426,
      "Ġoc": 6427,
      "Ġown": 6428,
      "ured": 6429,
      "ĠOW": 6430,
      "ĠOkay": 6431,
      "à®°à®ªà®²à®®": 6432,
      "ĠNIS": 6433,
      "ĠNormal": 6434,
      "ĠNNN": 6435,
      "ĠGad": 6436,
      "ĠGroup": 6437,
      "ĠGoogle": 6438,
      "ĠLook": 6439,
      "ĠLDI": 6440,
      "Ġgpg": 6441,
      "Ġgood": 6442,
      "Ġ54": 6443,
      "Ġ550": 6444,
      "Ġ450": 6445,
      "ĠUp": 6446,
      "ĠUML": 6447,
      "ride": 6448,
      "Ġthese": 6449,
      "emo": 6450,
      "agement": 6451,
      "Ġreference": 6452,
      "ĠXOR": 6453,
      "Ġ640": 6454,
      "chick": 6455,
      "pping": 6456,
      "ĠEnt": 6457,
      "ĠEPS": 6458,
      "ĠEvolution": 6459,
      "ĠELF": 6460,
      "INE": 6461,
      "ĠWhere": 6462,
      "ĠWAILING": 6463,
      "Ġ84": 6464,
      "Ġ850": 6465,
      "Ġ700": 6466,
      "istory": 6467,
      "ĠYYY": 6468,
      "Ġ2006": 6469,
      "Ġ2008": 6470,
      "umflex": 6471,
      "Ġaccount": 6472,
      "ORM": 6473,
      "vio": 6474,
      "video": 6475,
      "Ġcondition": 6476,
      "Ġunread": 6477,
      "ĠQRegExp": 6478,
      "phin": 6479,
      "Ġ=%": 6480,
      "Ġà®ªà®°à®µà®³": 6481,
      "oca": 6482,
      "ĠJu": 6483,
      "ĠÃĹ": 6484,
      "ĠÂ©": 6485,
      "ĠÂ¾": 6486,
      "LED": 6487,
      "arie": 6488,
      "Ġphase": 6489,
      "Ġcannot": 6490,
      "Ġsubmit": 6491,
      "Ġjust": 6492,
      "oser": 6493,
      "ĠISP": 6494,
      "MMS": 6495,
      "ressed": 6496,
      "ILL": 6497,
      "minist": 6498,
      "area": 6499,
      "ffect": 6500,
      "ized": 6501,
      "avs": 6502,
      "Ġappear": 6503,
      "Ġiriver": 6504,
      "OTO": 6505,
      "ordy": 6506,
      "aster": 6507,
      "ipe": 6508,
      "Ġvery": 6509,
      "ĠDCPD": 6510,
      "Ġbugzilla": 6511,
      "ĠEnc": 6512,
      "ĠKDiff": 6513,
      "CHUCKLING": 6514,
      "Ġdisk": 6515,
      "Ġdisabled": 6516,
      "issions": 6517,
      "Reset": 6518,
      "Ġlocale": 6519,
      "Ġlocalhost": 6520,
      "ĠAnd": 6521,
      "ĠCHAP": 6522,
      "yne": 6523,
      "ĠScavs": 6524,
      "Ġconfigured": 6525,
      "ĠMorse": 6526,
      "Ġ8080": 6527,
      "Character": 6528,
      "Ġcokes": 6529,
      "burg": 6530,
      "VIDEO": 6531,
      "config": 6532,
      "ĠChoose": 6533,
      "ĠDefault": 6534,
      "IRC": 6535,
      "Ġprovides": 6536,
      "Unicode": 6537,
      "Devhelp": 6538,
      "saudi": 6539,
      "FFLED": 6540,
      "PHOTO": 6541,
      "ĠMbui": 6542,
      "ĠSSH": 6543,
      "ĠDMZ": 6544,
      "ĠMINUT": 6545,
      "Ġintable": 6546,
      "Ġoperation": 6547,
      "ĠFACT": 6548,
      "ĠPlasma": 6549,
      "ĠBOB": 6550,
      "Ġreceived": 6551,
      "Ã°ÃĬ": 6552,
      "Ġcircumflex": 6553,
      "ĠJavaScript": 6554,
      "Salary": 6555,
      "à®ĩà®²à®µà®ļ": 6556,
      "rogden": 6557,
      "ĠTremo": 6558,
      "ĠVolga": 6559,
      "Ġdifficult": 6560,
      "ControlCharacter": 6561,
      "ELEVATOR": 6562,
      "tripura": 6563,
      "Ġnicaragua": 6564,
      "itabine": 6565,
      "ĠCheese": 6566,
      "ĠCLYDE": 6567,
      "ĠSparkplug": 6568,
      "ĠDANIL": 6569,
      "ĠLDIF": 6570,
      "UnicodeControlCharacter": 6571,
      "UnicodeControlCharacterMenu": 6572,
      "))": 6573,
      "100": 6574,
      "180": 6575,
      "45": 6576,
      "59": 6577,
      "65": 6578,
      "84": 6579,
      ";.": 6580,
      "BM": 6581,
      "CM": 6582,
      "CU": 6583,
      "Color": 6584,
      "Class": 6585,
      "CSS": 6586,
      "Do": 6587,
      "DATE": 6588,
      "FO": 6589,
      "Game": 6590,
      "HOW": 6591,
      "HEL": 6592,
      "IE": 6593,
      "IF": 6594,
      "Jet": 6595,
      "Job": 6596,
      "Mess": 6597,
      "Recur": 6598,
      "Size": 6599,
      "TAN": 6600,
      "URL": 6601,
      "VAR": 6602,
      "au": 6603,
      "aur": 6604,
      "bon": 6605,
      "cos": 6606,
      "do": 6607,
      "ef": 6608,
      "eel": 6609,
      "fo": 6610,
      "fou": 6611,
      "gu": 6612,
      "guyana": 6613,
      "hint": 6614,
      "kar": 6615,
      "less": 6616,
      "lite": 6617,
      "map": 6618,
      "mgr": 6619,
      "nal": 6620,
      "ness": 6621,
      "ply": 6622,
      "rus": 6623,
      "rator": 6624,
      "su": 6625,
      "sed": 6626,
      "script": 6627,
      "tes": 6628,
      "trieving": 6629,
      "vant": 6630,
      "Ã©": 6631,
      "ÃĪ": 6632,
      "ÃĲ": 6633,
      "ÃŃ": 6634,
      "Ġul": 6635,
      "ĥÂ¡": 6636,
      "ľ%": 6637,
      "à¯į*": 6638,
      "à¯ģ=": 6639,
      "à¯ģ\\": 6640,
      "à®©à®µà®Ļ": 6641,
      "à®®à®°à®ª": 6642,
      "à®µà®µà®°": 6643,
      "à®Łphilippines": 6644,
      "à®Łcanada": 6645,
      "à®ķà®³à®ŀ": 6646,
      "Ġà®ħà®ĥà®ª": 6647,
      "Ġà®ªà®ļà®Ļ": 6648,
      "Ġà®µà®³à®Ļ": 6649,
      "à®ļà®£à®¤": 6650,
      "Ġ(/": 6651,
      "Ġ(\\\\": 6652,
      "Ġà®īà®ķà®ª": 6653,
      "Ġà®īà®ªà®µ": 6654,
      "à®µà®©à®°": 6655,
      "Ġà®Ĩà®¯à®®": 6656,
      "Ġà®Ĩà®ªà®°": 6657,
      "Ġà®Ĩà®ĥà®²": 6658,
      "Ġ\"$": 6659,
      "à¯ĭ...": 6660,
      "Ġ-)": 6661,
      "Ġ-]": 6662,
      "à®¸à®¸": 6663,
      "à®ĩà®¯": 6664,
      "à¯į\"?": 6665,
      "Ġtop": 6666,
      "anizer": 6667,
      "Ġà®ħà®°à®ķ": 6668,
      "à®°à®£à®°": 6669,
      "ins": 6670,
      "inch": 6671,
      "esName": 6672,
      "erName": 6673,
      "eresis": 6674,
      "Ġkeep": 6675,
      "Ġkazakhstan": 6676,
      "alse": 6677,
      "lash": 6678,
      "edComment": 6679,
      "Ġpi": 6680,
      "Ġpost": 6681,
      "Ġplut": 6682,
      "Ġpicture": 6683,
      "orts": 6684,
      "Ġdia": 6685,
      "Ġà®ļà®°à®ķ": 6686,
      "Ġsw": 6687,
      "Ġsound": 6688,
      "Ġside": 6689,
      "Ġà®¹à®©": 6690,
      "Ġà®¹à®ª": 6691,
      "Ġ'[": 6692,
      "Ġproxy": 6693,
      "enig": 6694,
      "ĠCC": 6695,
      "ĠCoptic": 6696,
      "ĠCGI": 6697,
      "Ġcustom": 6698,
      "reate": 6699,
      "Ġinit": 6700,
      "Ġà®ħà®ķà®¨": 6701,
      "array": 6702,
      "Ġà®ªà®£à®¯à®®": 6703,
      "à®Łà®²à®Ł": 6704,
      "à®ªà®°à®µà®³": 6705,
      "lear": 6706,
      "ĠSA": 6707,
      "ĠSo": 6708,
      "ĠSIN": 6709,
      "ĠSend": 6710,
      "Ġbitches": 6711,
      "Ġftp": 6712,
      "ild": 6713,
      "Ġà®ħà®£à®ķà®²": 6714,
      "Ġwestbengal": 6715,
      "ĠKN": 6716,
      "ĠKo": 6717,
      "ĠKà®®": 6718,
      "ĠKOffice": 6719,
      "ĠMr": 6720,
      "ĠAP": 6721,
      "ĠTun": 6722,
      "ĠTrue": 6723,
      "ĠTYPE": 6724,
      "ĠDD": 6725,
      "ĠDell": 6726,
      "ĠDaemon": 6727,
      "ĠDunc": 6728,
      "ĠPAP": 6729,
      "ĠPOL": 6730,
      "ĠPaper": 6731,
      "ĠPersonal": 6732,
      "ĠPlugin": 6733,
      "Ġtoo": 6734,
      "Ġhh": 6735,
      "Ġhand": 6736,
      "Ġhard": 6737,
      "Ġhyper": 6738,
      "Ġhope": 6739,
      "Ġhints": 6740,
      "ĠFRO": 6741,
      "ĠBas": 6742,
      "Ġ050": 6743,
      "à®Ĳà®¸": 6744,
      "ural": 6745,
      "ĠOh": 6746,
      "ĠOffice": 6747,
      "ĠNot": 6748,
      "ĠNAS": 6749,
      "ĠGu": 6750,
      "ĠLZ": 6751,
      "ĠLe": 6752,
      "ĠList": 6753,
      "ĠLock": 6754,
      "Ġ/\\\\\\\\": 6755,
      "Ġgen": 6756,
      "Ġgermany": 6757,
      "Ġstru": 6758,
      "rive": 6759,
      "Ġthree": 6760,
      "ĠHald": 6761,
      "ems": 6762,
      "Ġref": 6763,
      "Ġrela": 6764,
      "Ġrequired": 6765,
      "Ġretrieving": 6766,
      "Ġà®Ĩà®²à®ĥà®ª": 6767,
      "ĠXF": 6768,
      "chile": 6769,
      "default": 6770,
      "INOM": 6771,
      "ĠWM": 6772,
      "ĠWe": 6773,
      "Ġà®Ĩà®¤à®°à®µà®³": 6774,
      "ulian": 6775,
      "Ġcombo": 6776,
      "ĠKDEPrint": 6777,
      "ARTI": 6778,
      "imum": 6779,
      "Ġ1280": 6780,
      "Ġcontinuation": 6781,
      "ĠVNC": 6782,
      "ĠQMY": 6783,
      "ĠQNetwork": 6784,
      "ĠQUnicodeControlCharacterMenu": 6785,
      "cture": 6786,
      "Ġdef": 6787,
      "licable": 6788,
      "Ġ*!": 6789,
      "ocus": 6790,
      "ĠJUN": 6791,
      "ĠJans": 6792,
      "ISC": 6793,
      "Ġ192": 6794,
      "ĠÂĥÂ¡": 6795,
      "Ġann": 6796,
      "Ġcontent": 6797,
      "Ġexport": 6798,
      "Ġuid": 6799,
      "ASS": 6800,
      "ASTER": 6801,
      "akes": 6802,
      "ources": 6803,
      "ellas": 6804,
      "ormat": 6805,
      "ĠStein": 6806,
      "Ġregexp": 6807,
      "ĠMANN": 6808,
      "ahedron": 6809,
      "ahfou": 6810,
      "Ġvijay": 6811,
      "aving": 6812,
      "antua": 6813,
      "Ġchecked": 6814,
      "icker": 6815,
      "Ġarch": 6816,
      "Ġarray": 6817,
      "ĠDoyle": 6818,
      "Ġenable": 6819,
      "Ġplace": 6820,
      "Ġsetting": 6821,
      "valid": 6822,
      "Ġweb": 6823,
      "Ġtimestamp": 6824,
      "Ġioslave": 6825,
      "Ġ166": 6826,
      "DIR": 6827,
      "OTTEXT": 6828,
      "RICE": 6829,
      "Ġ172": 6830,
      "mapping": 6831,
      "CRINT": 6832,
      "venia": 6833,
      "ĠEndu": 6834,
      "Ġnotification": 6835,
      "ĠKMahjongg": 6836,
      "ĠClutterà®µ": 6837,
      "ĠClutterBackend": 6838,
      "OWN": 6839,
      "Ġ2880": 6840,
      "Ġhintfull": 6841,
      "Ġhintmedium": 6842,
      "ferences": 6843,
      "Ġ185": 6844,
      "ĠSee": 6845,
      "ribute": 6846,
      "Ġdirectrix": 6847,
      "ĠPCI": 6848,
      "ĠAng": 6849,
      "links": 6850,
      "8888": 6851,
      "ĠConfig": 6852,
      "econds": 6853,
      "Ġautomatic": 6854,
      "ĠMMF": 6855,
      "ĠstyleName": 6856,
      "Ġafrica": 6857,
      "KSHOW": 6858,
      "Ġkpppà®¯": 6859,
      "Ġmodule": 6860,
      "Ġinstead": 6861,
      "Ġcommands": 6862,
      "ĠRela": 6863,
      "Ġchanges": 6864,
      "Ġplural": 6865,
      "VERAGE": 6866,
      "ĠICQ": 6867,
      "Ġrunning": 6868,
      "argentin": 6869,
      "argantua": 6870,
      "EDS": 6871,
      "Ã¬ÃĮ": 6872,
      "Ġsimply": 6873,
      "rgyz": 6874,
      "Ġsupported": 6875,
      "ĠApplication": 6876,
      "ĠApplicable": 6877,
      "Ġexpression": 6878,
      "Ġgrave": 6879,
      "Ġgradi": 6880,
      "ĠInfo": 6881,
      "fully": 6882,
      "Ġmodify": 6883,
      "SQLite": 6884,
      "SQLResult": 6885,
      "ĠAbdikar": 6886,
      "NESS": 6887,
      "gnore": 6888,
      "ĠACCRINT": 6889,
      "Ġperiod": 6890,
      "Ġclicking": 6891,
      "ĠROMILLY": 6892,
      "nical": 6893,
      "Ġtrying": 6894,
      "ĠHelge": 6895,
      "ĠXSLT": 6896,
      "tual": 6897,
      "Ġgeorgia": 6898,
      "upper": 6899,
      "ÃİÃµ": 6900,
      "ĠISNOTTEXT": 6901,
      "Ġletters": 6902,
      "ĠOffscreen": 6903,
      "ĠCTCP": 6904,
      "Ġmultiple": 6905,
      "ĠBRAND": 6906,
      "evelop": 6907,
      "ĠUTF": 6908,
      "Ġreplace": 6909,
      "Config": 6910,
      "slovenia": 6911,
      "ĠApril": 6912,
      "ĠFontconfig": 6913,
      "ĠGROANING": 6914,
      "Ġpublished": 6915,
      "About": 6916,
      "vakia": 6917,
      "olivia": 6918,
      "ĠFISHER": 6919,
      "chedul": 6920,
      "ĠValue": 6921,
      "Ġincluding": 6922,
      "Manager": 6923,
      "ĠCEIL": 6924,
      "ĠMURPH": 6925,
      "Ġmipmapping": 6926,
      "Ġdifficulty": 6927,
      "hintnone": 6928,
      "Ġà®īà®ªà®µà®ķ": 6929,
      "Ġdiaeresis": 6930,
      "ĠTunisia": 6931,
      "ĠDeller": 6932,
      "ĠDuncan": 6933,
      "Ġhintslight": 6934,
      "ĠFRONT": 6935,
      "ĠNASA": 6936,
      "Ġstructure": 6937,
      "ĠHaldane": 6938,
      "ĠQMYSQLResult": 6939,
      "ĠJUNKSHOW": 6940,
      "ĠSteinberg": 6941,
      "ahfouf": 6942,
      "ĠEndurance": 6943,
      "argentina": 6944,
      "rgyzstan": 6945,
      "ĠAbdikarim": 6946,
      "%\"": 6947,
      "%)": 6948,
      "->": 6949,
      "13": 6950,
      "33": 6951,
      "75": 6952,
      "768": 6953,
      "94": 6954,
      ";'": 6955,
      ";...)": 6956,
      "Aut": 6957,
      "Access": 6958,
      "Bl": 6959,
      "BRET": 6960,
      "COS": 6961,
      "Ctrl": 6962,
      "Clatters": 6963,
      "Fact": 6964,
      "It": 6965,
      "KA": 6966,
      "LUM": 6967,
      "Mn": 6968,
      "Mod": 6969,
      "Net": 6970,
      "NORM": 6971,
      "PRODUCT": 6972,
      "Rts": 6973,
      "Sy": 6974,
      "Server": 6975,
      "SON": 6976,
      "Translators": 6977,
      "UF": 6978,
      "VG": 6979,
      "XP": 6980,
      "XML": 6981,
      "australia": 6982,
      "bpp": 6983,
      "ball": 6984,
      "co": 6985,
      "comp": 6986,
      "da": 6987,
      "dot": 6988,
      "dic": 6989,
      "dia": 6990,
      "doc": 6991,
      "fly": 6992,
      "files": 6993,
      "ging": 6994,
      "gdb": 6995,
      "haiti": 6996,
      "ius": 6997,
      "iov": 6998,
      "jik": 6999,
      "lines": 7000,
      "mod": 7001,
      "ny": 7002,
      "ole": 7003,
      "pak": 7004,
      "pack": 7005,
      "pell": 7006,
      "sst": 7007,
      "squ": 7008,
      "sres": 7009,
      "sighs": 7010,
      "vg": 7011,
      "wood": 7012,
      "yi": 7013,
      "ym": 7014,
      "®Ã": 7015,
      "Ã³": 7016,
      "Ã¼": 7017,
      "Ġangola": 7018,
      "Ġold": 7019,
      "Ġutf": 7020,
      "à®ķà®İà®©": 7021,
      "à¯ģâĢ": 7022,
      "à®¤à®¯à®µ": 7023,
      "à®¤à®ħà®´à®ķ": 7024,
      "à®°à®¤à®®": 7025,
      "à®°à®©à®®": 7026,
      "à®°à®µà®®": 7027,
      "à®©à®īà®©": 7028,
      "à®µà®³à®¤": 7029,
      "à®µà®²à®ķà®Ļ": 7030,
      "à¯Ī[": 7031,
      "à®²à®ķà®°": 7032,
      "à®ªà®³à®®": 7033,
      "à®ªà®ħà®´": 7034,
      "Ġà®¨à®µà®®": 7035,
      "Ġà®ķà®©à®°": 7036,
      "Ġà®µà®¤à®¨": 7037,
      "Ġà®ĩà®ŀ": 7038,
      "à®ļà®¯à®¤": 7039,
      "à®ļà®ļà®©": 7040,
      "Ġà®¤à®ķà®µ": 7041,
      "à®¹à®²": 7042,
      "Ġà®Ĵà®¹": 7043,
      "à¯ĭ_": 7044,
      "à¯ģ)/": 7045,
      "à®ķà®°à®µ": 7046,
      "Ġnum": 7047,
      "Ġnormal": 7048,
      "timed": 7049,
      "à®°à®®à®ķà®³": 7050,
      "Ġà®ħà®µà®²": 7051,
      "Ġà®ļà®®à®¯à®Ļ": 7052,
      "à®¤à®²à®°": 7053,
      "amer": 7054,
      "Ġtg": 7055,
      "Ġtrig": 7056,
      "Ġtake": 7057,
      "anj": 7058,
      "inated": 7059,
      "include": 7060,
      "Ġà®ĩà®µà®³": 7061,
      "à®·à®¤": 7062,
      "iter": 7063,
      "erc": 7064,
      "ern": 7065,
      "ĠaRts": 7066,
      "Ġkonqueror": 7067,
      "ales": 7068,
      "à®ľà®©à®®": 7069,
      "eden": 7070,
      "Ġpiss": 7071,
      "ora": 7072,
      "orbet": 7073,
      "Ġdel": 7074,
      "Ġdeg": 7075,
      "ros": 7076,
      "roaning": 7077,
      "roberts": 7078,
      "à®Łà®°à®¸": 7079,
      "otal": 7080,
      "Ġsen": 7081,
      "Ġsus": 7082,
      "Ġsir": 7083,
      "Ġsite": 7084,
      "Ġslot": 7085,
      "Ġssl": 7086,
      "Ġà®¹à®ļ": 7087,
      "Ġ',": 7088,
      "Ġ'/": 7089,
      "bases": 7090,
      "enburg": 7091,
      "Ġnote": 7092,
      "ĠCA": 7093,
      "ĠCCD": 7094,
      "ĠClick": 7095,
      "ĠClose": 7096,
      "Ġcame": 7097,
      "Ġcol": 7098,
      "Ġcomment": 7099,
      "Ġcountry": 7100,
      "Ġcard": 7101,
      "Ġclock": 7102,
      "Ġclatters": 7103,
      "rees": 7104,
      "reference": 7105,
      "reamer": 7106,
      "Ġins": 7107,
      "heast": 7108,
      "Ġ.\"": 7109,
      "omo": 7110,
      "oman": 7111,
      "ics": 7112,
      "ĠSC": 7113,
      "ĠSF": 7114,
      "ĠSL": 7115,
      "ĠServ": 7116,
      "à¯ģ:\\": 7117,
      "à¯ģ:~": 7118,
      "Ġblu": 7119,
      "Ġbmp": 7120,
      "Ġbrasero": 7121,
      "Ġblack": 7122,
      "Ġfl": 7123,
      "Ġfav": 7124,
      "Ġtheir": 7125,
      "Ġwar": 7126,
      "Ġwatch": 7127,
      "Ġwritten": 7128,
      "ĠKi": 7129,
      "ĠKà®¨": 7130,
      "ĠKNot": 7131,
      "ĠKerik": 7132,
      "0025": 7133,
      "ĠMiss": 7134,
      "ĠMark": 7135,
      "ĠMake": 7136,
      "ĠMUL": 7137,
      "à®ıà®µà®©": 7138,
      "à®ıà®ŀ": 7139,
      "à®°à®ķà®£à®®": 7140,
      "ĠAI": 7141,
      "ĠAc": 7142,
      "ĠAcard": 7143,
      "ĠAlarm": 7144,
      "ĠAVE": 7145,
      "ĠAKA": 7146,
      "à®°à®²à®ķà®¤": 7147,
      "ĠTrans": 7148,
      "ĠTupper": 7149,
      "ĠDescription": 7150,
      "ĠDATE": 7151,
      "ĠDelphine": 7152,
      "ings": 7153,
      "Ġ34": 7154,
      "stable": 7155,
      "Ġmol": 7156,
      "Ġmight": 7157,
      "Ġmax": 7158,
      "ĠIs": 7159,
      "ĠIce": 7160,
      "ĠIulian": 7161,
      "ĠPA": 7162,
      "ĠPM": 7163,
      "ĠPower": 7164,
      "ĠPolicy": 7165,
      "Ġxsldbg": 7166,
      "Ġhon": 7167,
      "Ġhook": 7168,
      "Ġhoriz": 7169,
      "à¯ģ\".": 7170,
      "ĠFX": 7171,
      "ĠFrom": 7172,
      "ĠFuckin": 7173,
      "ĠFolder": 7174,
      "ĠBS": 7175,
      "ĠBin": 7176,
      "ĠBur": 7177,
      "ĠBook": 7178,
      "ĠBEE": 7179,
      "ĠBrogden": 7180,
      "Ġà®ķà®©à®Ł": 7181,
      "rain": 7182,
      "urtle": 7183,
      "ĠOR": 7184,
      "ĠOp": 7185,
      "ĠGe": 7186,
      "ĠGlock": 7187,
      "ĠGood": 7188,
      "ĠGasps": 7189,
      "ĠGIF": 7190,
      "ĠGiov": 7191,
      "ĠLog": 7192,
      "ĠLoc": 7193,
      "ĠLink": 7194,
      "ĠLPD": 7195,
      "ĠLinux": 7196,
      "Ġ/?": 7197,
      "ĠRiz": 7198,
      "ĠROW": 7199,
      "Ġlimit": 7200,
      "Ġstor": 7201,
      "Ġ43": 7202,
      "ĠUser": 7203,
      "Ġrev": 7204,
      "cept": 7205,
      "thudding": 7206,
      "ĠXHTML": 7207,
      "ĠXMMS": 7208,
      "DER": 7209,
      "Ġ65": 7210,
      "Ġ68": 7211,
      "ĠEffect": 7212,
      "existing": 7213,
      "INDISTINCTLY": 7214,
      "uckles": 7215,
      "amu": 7216,
      "amba": 7217,
      "amily": 7218,
      "Ġorder": 7219,
      "Ġ70": 7220,
      "Ġ764": 7221,
      "Ġà®īà®ªà®ķà®°": 7222,
      "Ġisn": 7223,
      "ĠYorbet": 7224,
      "orted": 7225,
      "eyonder": 7226,
      "ified": 7227,
      "ego": 7228,
      "Ġacute": 7229,
      "Ġactiv": 7230,
      "angin": 7231,
      "Ġlast": 7232,
      "à®ĵà®µ": 7233,
      "Ġshown": 7234,
      "METHO": 7235,
      "entry": 7236,
      "Ġcons": 7237,
      "ube": 7238,
      "ubic": 7239,
      "ĠQSQLite": 7240,
      "Ġdelete": 7241,
      "ogn": 7242,
      "ithm": 7243,
      "abc": 7244,
      "estro": 7245,
      "ĠCON": 7246,
      "ĠCOLUM": 7247,
      "ĠJcard": 7248,
      "apt": 7249,
      "Ġvia": 7250,
      "ĠÃĤ": 7251,
      "ĠShamu": 7252,
      "ISa": 7253,
      "ended": 7254,
      "Ġspool": 7255,
      "lob": 7256,
      "Ġwork": 7257,
      "obtain": 7258,
      "web": 7259,
      "Ġleast": 7260,
      "ipped": 7261,
      "Ġhowever": 7262,
      "ĠAlgeria": 7263,
      "Ġunt": 7264,
      "ours": 7265,
      "pipe": 7266,
      "Ġmessag": 7267,
      "ĠIMCOS": 7268,
      "ĠStyle": 7269,
      "DVDCSS": 7270,
      "Ġ110": 7271,
      "Ġyourself": 7272,
      "Address": 7273,
      "anta": 7274,
      "Ġimages": 7275,
      "Ġenabled": 7276,
      "iffles": 7277,
      "italy": 7278,
      "128": 7279,
      "1234": 7280,
      "ockslot": 7281,
      "larus": 7282,
      "ĠOpenSSL": 7283,
      "SIGHING": 7284,
      "swast": 7285,
      "Ġvalues": 7286,
      "à®·à®ļworld": 7287,
      "Ġrespon": 7288,
      "Ġ+\\\\\\\\": 7289,
      "ĠFIBS": 7290,
      "%%%%": 7291,
      "Ġque": 7292,
      "aitin": 7293,
      "Ġmotherfuckers": 7294,
      "ĠNever": 7295,
      "REF": 7296,
      "Ġ2400": 7297,
      "ĠKMouth": 7298,
      "luc": 7299,
      "CENT": 7300,
      "rigi": 7301,
      "Ġcommunic": 7302,
      "moon": 7303,
      "moid": 7304,
      "ĠKTurtle": 7305,
      "regexp": 7306,
      "Â¸Â¨": 7307,
      "Ġconfigure": 7308,
      "ĠConn": 7309,
      "Shift": 7310,
      "resh": 7311,
      "ength": 7312,
      "foundations": 7313,
      "Ġlogin": 7314,
      "\\.\\.": 7315,
      "erveslot": 7316,
      "auslot": 7317,
      "mplicit": 7318,
      "Ġsignature": 7319,
      "Ġinclude": 7320,
      "ĠKGet": 7321,
      "ĠATM": 7322,
      "ermissions": 7323,
      "ished": 7324,
      "ĠREVS": 7325,
      "ĠUnknown": 7326,
      "ĠProfessor": 7327,
      "slt": 7328,
      "conf": 7329,
      "ĠKSpread": 7330,
      "Ġchanged": 7331,
      "Ġbasic": 7332,
      "anna": 7333,
      "ĠInteger": 7334,
      "Ġwordreference": 7335,
      "AYLIST": 7336,
      "ĠDelete": 7337,
      "Ġhostname": 7338,
      "Ġimplies": 7339,
      "Ġdays": 7340,
      "Ġinterface": 7341,
      "Ġeditor": 7342,
      "KDEDIR": 7343,
      "ĠSpecial": 7344,
      "ĠNORAD": 7345,
      "empor": 7346,
      "Device": 7347,
      "Ġreported": 7348,
      "amaicans": 7349,
      "textentry": 7350,
      "ĠDAYS": 7351,
      "ĠLEBRET": 7352,
      "gium": 7353,
      "Ã»Ãĩ": 7354,
      "Ġkcmk": 7355,
      "Ġfreed": 7356,
      "ĠKABà®¯": 7357,
      "uzz": 7358,
      "Ġsaid": 7359,
      "groaning": 7360,
      "uffled": 7361,
      "âĢĿ": 7362,
      "ĠMINA": 7363,
      "ĠParser": 7364,
      "Ġpermission": 7365,
      "SIREN": 7366,
      "prefix": 7367,
      "preferences": 7368,
      "Ġescape": 7369,
      "ĠRetrieving": 7370,
      "ĠFSà®ķ": 7371,
      "Ġstandard": 7372,
      "ĠExpress": 7373,
      "ĠNorthcom": 7374,
      "Ġinstalled": 7375,
      "Ġtransfer": 7376,
      "Ġsitu": 7377,
      "ĠPERCENT": 7378,
      "Ġhalfop": 7379,
      "Ġknow": 7380,
      "Ġblood": 7381,
      "ĠFirefly": 7382,
      "Ġcanceled": 7383,
      "Ġterms": 7384,
      "Ġdrawing": 7385,
      "ĠKIO": 7386,
      "ĠAsshole": 7387,
      "ĠImport": 7388,
      "ĠPEOC": 7389,
      "Ġdefined": 7390,
      "ĠGAMMADIST": 7391,
      "MUFFLED": 7392,
      "Ġtechnical": 7393,
      "Ġpamroberts": 7394,
      "Ġpattern": 7395,
      "Ġdolphin": 7396,
      "ĠMayday": 7397,
      "ĠDirMn": 7398,
      "ĠPLAYLIST": 7399,
      "ĠMAXA": 7400,
      "ĠDeskJet": 7401,
      "ministrator": 7402,
      "Ġ808080": 7403,
      "HELLO": 7404,
      "Message": 7405,
      "cheduler": 7406,
      "jikistan": 7407,
      "pakistan": 7408,
      "sstockslot": 7409,
      "sreserveslot": 7410,
      "®Ãį": 7411,
      "à¯ģâĢľ%": 7412,
      "timedata": 7413,
      "Ġpissed": 7414,
      "Ġblueyonder": 7415,
      "ĠKNotes": 7416,
      "ĠAVEDEV": 7417,
      "ĠTupperware": 7418,
      "stableauslot": 7419,
      "Ġhookers": 7420,
      "ĠBEECH": 7421,
      "ĠGiovanna": 7422,
      "ĠYorbetal": 7423,
      "METHOD": 7424,
      "ĠCOLUMN": 7425,
      "swasteslot": 7426,
      "%%%%%\"": 7427,
      "foundationslot": 7428,
      "ĠLEBRETON": 7429,
      "ĠDirMngr": 7430,
      "':": 7431,
      "').": 7432,
      ".\\": 7433,
      ".\\\\": 7434,
      "102": 7435,
      "23": 7436,
      "2000": 7437,
      "480": 7438,
      "73": 7439,
      "=/": 7440,
      "Bann": 7441,
      "CSP": 7442,
      "DC": 7443,
      "Date": 7444,
      "DOOR": 7445,
      "GN": 7446,
      "Hel": 7447,
      "IDE": 7448,
      "ITHO": 7449,
      "JK": 7450,
      "JECT": 7451,
      "MS": 7452,
      "Map": 7453,
      "Max": 7454,
      "Per": 7455,
      "Pri": 7456,
      "Pix": 7457,
      "POSE": 7458,
      "RAN": 7459,
      "RGB": 7460,
      "SEX": 7461,
      "Satur": 7462,
      "This": 7463,
      "TNESS": 7464,
      "VT": 7465,
      "XSL": 7466,
      "by": 7467,
      "bye": 7468,
      "cap": 7469,
      "down": 7470,
      "fil": 7471,
      "folder": 7472,
      "ged": 7473,
      "gative": 7474,
      "hol": 7475,
      "hungary": 7476,
      "ipi": 7477,
      "jcc": 7478,
      "kg": 7479,
      "lia": 7480,
      "ming": 7481,
      "mart": 7482,
      "mary": 7483,
      "nia": 7484,
      "num": 7485,
      "number": 7486,
      "oe": 7487,
      "oy": 7488,
      "oom": 7489,
      "ois": 7490,
      "pan": 7491,
      "page": 7492,
      "pid": 7493,
      "set": 7494,
      "sub": 7495,
      "saw": 7496,
      "seconds": 7497,
      "tom": 7498,
      "tts": 7499,
      "ual": 7500,
      "uro": 7501,
      "uments": 7502,
      "ved": 7503,
      "wise": 7504,
      "yer": 7505,
      "}\"": 7506,
      "Â§": 7507,
      "Â¼": 7508,
      "Ġ;": 7509,
      "Ġel": 7510,
      "à¯į[": 7511,
      "à¯į\\": 7512,
      "Ġà®Ķ": 7513,
      "à®¤Name": 7514,
      "à®µà®¯": 7515,
      "à®µà®ķà®ª": 7516,
      "à®µà®²à®¤": 7517,
      "à®Łportugal": 7518,
      "à®¯à®°à®®": 7519,
      "à®ªà®³à®µ": 7520,
      "à®±à®¯": 7521,
      "Ġà®ħà®ķà®®": 7522,
      "Ġà®¨à®Łà®©": 7523,
      "Ġà®ķà®³à®ª": 7524,
      "Ġà®ªà®¤à®¤": 7525,
      "Ġà®ªà®¯à®°": 7526,
      "à®¨à®Łà®¤": 7527,
      "Ġà®ļà®ªà®¤à®®": 7528,
      "Ġà®¤à®ķà®Ł": 7529,
      "Ġà®¤à®ķà®µà®±": 7530,
      "Ġà®¤à®ķà®µà®®": 7531,
      "à¯į;%": 7532,
      "Ġà®Ĩà®ľ": 7533,
      "Ġà®Ĵà®®": 7534,
      "à¯ĭ?": 7535,
      "Ġ-,": 7536,
      "à¯ģ.,": 7537,
      "à®ĩà®¯à®Ļ": 7538,
      "à®İà®²à®ķ": 7539,
      "Ġà®īà®£à®°à®µ": 7540,
      "Ġà®¯à®²": 7541,
      "Ġà®¯à®Ļ": 7542,
      "only": 7543,
      "onsole": 7544,
      "..%": 7545,
      "Ġà®ħà®Łà®ļ": 7546,
      "Ġnjcc": 7547,
      "tity": 7548,
      "à®¯à®°à®¤": 7549,
      "Ġtray": 7550,
      "Ġtrue": 7551,
      "Ġtaten": 7552,
      "Ġtotal": 7553,
      "ance": 7554,
      "anks": 7555,
      "init": 7556,
      "Ġà®ĵà®Ĩà®°": 7557,
      "Ġkind": 7558,
      "lades": 7559,
      "Ġà®ľà®¨": 7560,
      "à®²à®°à®¤": 7561,
      "Ġdy": 7562,
      "Ġdid": 7563,
      "Ġdir": 7564,
      "Ġà®ħà®ļà®°": 7565,
      "Ġà®°à®µ": 7566,
      "Ġà®Łà®²": 7567,
      "ranty": 7568,
      "ottom": 7569,
      "Ġss": 7570,
      "Ġson": 7571,
      "Ġsec": 7572,
      "Ġssh": 7573,
      "Ġslow": 7574,
      "Ġslave": 7575,
      "Ġsbin": 7576,
      "Ġsmooth": 7577,
      "Ġsvg": 7578,
      "Ġà®¹à®®": 7579,
      "Ġà®¹à®£": 7580,
      "eni": 7581,
      "Ġ210": 7582,
      "Ġnegative": 7583,
      "ĠCont": 7584,
      "ĠCopy": 7585,
      "Ġcost": 7586,
      "Ġcaus": 7587,
      "Ġcalendar": 7588,
      "à®²à®µà®³à®µ": 7589,
      "Ġindi": 7590,
      "Ġinitial": 7591,
      "Ġà®Ĭà®ŀ": 7592,
      "ices": 7593,
      "ism": 7594,
      "ĠSID": 7595,
      "ĠSMB": 7596,
      "ĠSEAR": 7597,
      "ĠSQRT": 7598,
      "ĠSEDS": 7599,
      "ĠSVG": 7600,
      "ĠSIDE": 7601,
      "Ġbm": 7602,
      "Ġbus": 7603,
      "Ġfall": 7604,
      "Ġfamily": 7605,
      "ilter": 7606,
      "Ġà®®à®°à®ªà®Ł": 7607,
      "ĠKF": 7608,
      "ĠKà®Ł": 7609,
      "ĠKà®ħà®²": 7610,
      "ĠKol": 7611,
      "ĠKur": 7612,
      "ĠKate": 7613,
      "ĠKig": 7614,
      "ĠKHTML": 7615,
      "ĠKAddress": 7616,
      "ĠMc": 7617,
      "ĠMe": 7618,
      "ĠMOR": 7619,
      "ĠMER": 7620,
      "ĠMeta": 7621,
      "olid": 7622,
      "ĠAD": 7623,
      "ĠAL": 7624,
      "ĠAtt": 7625,
      "ĠAnn": 7626,
      "ĠArc": 7627,
      "ĠAVERAGE": 7628,
      "ĠTAN": 7629,
      "ĠTOM": 7630,
      "ĠTIME": 7631,
      "ĠDet": 7632,
      "ĠDra": 7633,
      "ĠDST": 7634,
      "ĠDOL": 7635,
      "ĠDavi": 7636,
      "Ġ37": 7637,
      "Ġmid": 7638,
      "Ġmass": 7639,
      "ĠISL": 7640,
      "ĠIcos": 7641,
      "ĠPre": 7642,
      "ĠPUR": 7643,
      "ĠPrin": 7644,
      "ĠPTY": 7645,
      "ĠPARTI": 7646,
      "Ġhts": 7647,
      "Ġhigh": 7648,
      "Ġhistory": 7649,
      "ĠFa": 7650,
      "ĠFOR": 7651,
      "ĠFind": 7652,
      "ĠBe": 7653,
      "ĠBar": 7654,
      "ĠBut": 7655,
      "ĠBao": 7656,
      "rad": 7657,
      "ras": 7658,
      "ration": 7659,
      "rael": 7660,
      "aguay": 7661,
      "uri": 7662,
      "urug": 7663,
      "ĠOE": 7664,
      "ĠOK": 7665,
      "ĠOpera": 7666,
      "ĠOCSP": 7667,
      "ĠNE": 7668,
      "ĠNT": 7669,
      "ĠNone": 7670,
      "ĠGCD": 7671,
      "ĠGID": 7672,
      "ĠGSt": 7673,
      "ĠGET": 7674,
      "ĠGPU": 7675,
      "ĠGargantua": 7676,
      "ĠLCD": 7677,
      "Ġ/'": 7678,
      "ĠRad": 7679,
      "ĠRight": 7680,
      "Ġlo": 7681,
      "Ġless": 7682,
      "Ġgl": 7683,
      "Ġgag": 7684,
      "Ġgnupg": 7685,
      "ANTAB": 7686,
      "unner": 7687,
      "Ġà®ķà®´à®ķà®®": 7688,
      "rid": 7689,
      "ĠHi": 7690,
      "ĠHz": 7691,
      "ĠHind": 7692,
      "ĠHOUR": 7693,
      "email": 7694,
      "empt": 7695,
      "Ġ['": 7696,
      "though": 7697,
      "ĠXIM": 7698,
      "assw": 7699,
      "Ġ61": 7700,
      "Ġ66": 7701,
      "Ġ655": 7702,
      "veral": 7703,
      "verse": 7704,
      "ssà®ļ": 7705,
      "ĠEFF": 7706,
      "ĠWAR": 7707,
      "ĠWest": 7708,
      "ĠWITHO": 7709,
      "Ġ85": 7710,
      "istribute": 7711,
      "yprus": 7712,
      "igg": 7713,
      "igsaw": 7714,
      "Ġtiming": 7715,
      "ĠKDEà®¯": 7716,
      "Ġforward": 7717,
      "anglades": 7718,
      "Ġrest": 7719,
      "Ġ128": 7720,
      "ORE": 7721,
      "ATTER": 7722,
      "viron": 7723,
      "Ġconver": 7724,
      "ĠVer": 7725,
      "Ġusage": 7726,
      "ĠQchess": 7727,
      "ĠQOC": 7728,
      "ĠQXml": 7729,
      "phab": 7730,
      "tination": 7731,
      "idth": 7732,
      "Ġseveral": 7733,
      "uper": 7734,
      "Ġdele": 7735,
      "irm": 7736,
      "ogy": 7737,
      "ĠeV": 7738,
      "direct": 7739,
      "action": 7740,
      "ĠCOS": 7741,
      "ĠCODE": 7742,
      "ĠJack": 7743,
      "ĠJPEG": 7744,
      "aps": 7745,
      "bias": 7746,
      "ĠURLà®²": 7747,
      "ĠÃ·": 7748,
      "ĠÃħ": 7749,
      "ĠÃĩ": 7750,
      "ĠÃ®Ãį": 7751,
      "ISO": 7752,
      "ender": 7753,
      "ĠÂ§": 7754,
      "ĠÂ¸": 7755,
      "Ġspecial": 7756,
      "Ġà®Ĩà®³à®±": 7757,
      "Ġannot": 7758,
      "Ġcontents": 7759,
      "à®īà®Łà®©à®Ł": 7760,
      "Ġasked": 7761,
      "ILIT": 7762,
      "ĠStrigi": 7763,
      "spread": 7764,
      "ĠInput": 7765,
      "Ġapps": 7766,
      "CHANTAB": 7767,
      "Ġ255": 7768,
      "value": 7769,
      "Ġproperty": 7770,
      "Ġie": 7771,
      "DIAN": 7772,
      "sweden": 7773,
      "Ġvalid": 7774,
      "Ġà®ĩà®Łà®µà®®": 7775,
      "ipur": 7776,
      "TDATE": 7777,
      "Ġhtdig": 7778,
      "Ġverb": 7779,
      "Ġresult": 7780,
      "Ġallow": 7781,
      "Ġtools": 7782,
      "ĠFITNESS": 7783,
      "Ġquick": 7784,
      "works": 7785,
      "paraguay": 7786,
      "lux": 7787,
      "ĠINV": 7788,
      "Ġupdate": 7789,
      "ĠDEL": 7790,
      "elling": 7791,
      "Ġà®ļà®®à®°à®ļà®®": 7792,
      "ĠSearch": 7793,
      "ĠSelection": 7794,
      "Ġbackground": 7795,
      "ĠTobias": 7796,
      "ĠHTTPS": 7797,
      "ĠConf": 7798,
      "Status": 7799,
      "Ġspecify": 7800,
      "Ġattempt": 7801,
      "ĠFLOOR": 7802,
      "Ġsignal": 7803,
      "Ġopened": 7804,
      "slog": 7805,
      "ĠSys": 7806,
      "continuation": 7807,
      "Ġprinting": 7808,
      "Ġimported": 7809,
      "Ġvarious": 7810,
      "Ġsimple": 7811,
      "Ġconnected": 7812,
      "Ġimplied": 7813,
      "ĠMessages": 7814,
      "Ġattachment": 7815,
      "Ġentries": 7816,
      "Ġkio": 7817,
      "ĠROOT": 7818,
      "Ġmanagement": 7819,
      "ĠAuth": 7820,
      "Ġ333": 7821,
      "ĠPROJECT": 7822,
      "Ġrecipi": 7823,
      "Ġdocuments": 7824,
      "ĠSUMX": 7825,
      "ĠAsk": 7826,
      "Ġcompleted": 7827,
      "ĠDECSEX": 7828,
      "à¯į}/": 7829,
      "Ġenglish": 7830,
      "kyrgyzstan": 7831,
      "Ġcounter": 7832,
      "ĠKCachegrind": 7833,
      "ĠParth": 7834,
      "ĠWEEKS": 7835,
      "Ġagainst": 7836,
      "tude": 7837,
      "Ġà®ĩà®³à®µà®°à®ļà®°": 7838,
      "Ġà®ĩà®³à®µà®°à®ļà®©": 7839,
      "Ġgenerated": 7840,
      "Ġ631": 7841,
      "imiter": 7842,
      "Ġredistribute": 7843,
      "Ġscavs": 7844,
      "Ġextra": 7845,
      "ĠStartup": 7846,
      "ĠMacOS": 7847,
      "ĠBOOL": 7848,
      "________": 7849,
      "VALUE": 7850,
      "Ġbookmark": 7851,
      "ĠBESS": 7852,
      "RENTDATE": 7853,
      "ULL": 7854,
      "Ã²ÃĲ": 7855,
      "ĠANY": 7856,
      "ĠAccessX": 7857,
      "ycoca": 7858,
      "Ġpressing": 7859,
      "ĠCOVERDisc": 7860,
      "Ġspeech": 7861,
      "Ġphrasebook": 7862,
      "COND": 7863,
      "manipur": 7864,
      "Ġservice": 7865,
      "Ġ'-'": 7866,
      "Ġcorrect": 7867,
      "ĠSECOND": 7868,
      "Ġfollowing": 7869,
      "ĠTools": 7870,
      "Ġdestination": 7871,
      "ĠCarbon": 7872,
      "ĠDownload": 7873,
      "OISSON": 7874,
      "Phonon": 7875,
      "Ġsalv": 7876,
      "ĠKalEl": 7877,
      "ĠKURT": 7878,
      "ĠCOUPON": 7879,
      "Ġspinbox": 7880,
      "PERING": 7881,
      "Ġinkjet": 7882,
      "arthy": 7883,
      "ĠKHot": 7884,
      "ĠYYYY": 7885,
      "ĠJuK": 7886,
      "Ã°ÃĬÃ¬": 7887,
      "CULAR": 7888,
      "vantGo": 7889,
      "Ġpluto": 7890,
      "ĠSASL": 7891,
      "ĠKNode": 7892,
      "ĠKoenig": 7893,
      "ĠTrueType": 7894,
      "ĠBasic": 7895,
      "ĠQNetworkAccess": 7896,
      "ĠJanson": 7897,
      "Ġarchive": 7898,
      "Ġautomatically": 7899,
      "Ġgradient": 7900,
      "Factory": 7901,
      "Model": 7902,
      "Ġtgz": 7903,
      "Ġdegrees": 7904,
      "ĠSFTP": 7905,
      "Ġwarranty": 7906,
      "ĠBSD": 7907,
      "ĠEffectFactory": 7908,
      "Banner": 7909,
      "RANTY": 7910,
      "Ġtateneni": 7911,
      "ĠSEARCH": 7912,
      "ĠSIDES": 7913,
      "ĠKurt": 7914,
      "ĠKAddressBook": 7915,
      "ĠMOREL": 7916,
      "ĠMERCHANTAB": 7917,
      "ĠDOLLAR": 7918,
      "ĠDavid": 7919,
      "ĠIcosahedron": 7920,
      "ĠPURPOSE": 7921,
      "ĠPARTICULAR": 7922,
      "Ġhtsearch": 7923,
      "ĠBaobab": 7924,
      "uruguay": 7925,
      "ĠGStreamer": 7926,
      "ĠHindenburg": 7927,
      "asswd": 7928,
      "ĠEFFECT": 7929,
      "ĠWARRANTY": 7930,
      "ĠWITHOUT": 7931,
      "angladesh": 7932,
      "ILITY": 7933,
      "ĠMERCHANTABILITY": 7934,
      "\"?": 7935,
      "'t": 7936,
      "):%": 7937,
      "05": 7938,
      "09": 7939,
      "1000": 7940,
      "216": 7941,
      "52": 7942,
      "78": 7943,
      "700": 7944,
      "83": 7945,
      ":\\": 7946,
      "==": 7947,
      "AO": 7948,
      "App": 7949,
      "Action": 7950,
      "BC": 7951,
      "BO": 7952,
      "BR": 7953,
      "DOC": 7954,
      "Error": 7955,
      "EVEN": 7956,
      "Fucking": 7957,
      "GML": 7958,
      "GnuPG": 7959,
      "Groaning": 7960,
      "Host": 7961,
      "HOME": 7962,
      "HORN": 7963,
      "IZ": 7964,
      "ION": 7965,
      "IResult": 7966,
      "Jack": 7967,
      "Lordy": 7968,
      "Ms": 7969,
      "MUT": 7970,
      "Mgr": 7971,
      "MASTER": 7972,
      "NCE": 7973,
      "NUM": 7974,
      "NATE": 7975,
      "OX": 7976,
      "Oi": 7977,
      "OOG": 7978,
      "ODB": 7979,
      "Sn": 7980,
      "Sp": 7981,
      "Sq": 7982,
      "SUM": 7983,
      "TOT": 7984,
      "UB": 7985,
      "UMB": 7986,
      "User": 7987,
      "USS": 7988,
      "VR": 7989,
      "WP": 7990,
      "Wor": 7991,
      "WEE": 7992,
      "Word": 7993,
      "XY": 7994,
      "YD": 7995,
      "_'": 7996,
      "brevi": 7997,
      "bitches": 7998,
      "bangladesh": 7999,
      "cp": 8000,
      "cal": 8001,
      "come": 8002,
      "cont": 8003,
      "czech": 8004,
      "cubic": 8005,
      "dos": 8006,
      "dtime": 8007,
      "eX": 8008,
      "foo": 8009,
      "gun": 8010,
      "gers": 8011,
      "groans": 8012,
      "gnupg": 8013,
      "hh": 8014,
      "hing": 8015,
      "horn": 8016,
      "hales": 8017,
      "iStencils": 8018,
      "ient": 8019,
      "ilar": 8020,
      "jones": 8021,
      "ka": 8022,
      "ken": 8023,
      "kim": 8024,
      "mor": 8025,
      "mos": 8026,
      "nder": 8027,
      "off": 8028,
      "pot": 8029,
      "path": 8030,
      "rs": 8031,
      "rt": 8032,
      "rist": 8033,
      "sf": 8034,
      "sers": 8035,
      "sik": 8036,
      "sions": 8037,
      "smb": 8038,
      "snia": 8039,
      "tles": 8040,
      "uld": 8041,
      "unts": 8042,
      "util": 8043,
      "ves": 8044,
      "ving": 8045,
      "where": 8046,
      "wfully": 8047,
      "xis": 8048,
      "zego": 8049,
      "Â¦": 8050,
      "Ġill": 8051,
      "Ġoth": 8052,
      "à¯į=": 8053,
      "à®ķCoptic": 8054,
      "à¯ģ`": 8055,
      "à®¿à¯į": 8056,
      "à®°à®´": 8057,
      "à®µà®ªà®Ł": 8058,
      "à®¯chick": 8059,
      "à®ªà®¯à®®": 8060,
      "à®±à®µà®Ļ": 8061,
      "Ġà®ħà®ķà®ļ": 8062,
      "à¯Ĩ,": 8063,
      "Ġà®¨à®Ļ": 8064,
      "Ġà®ķà®²à®®": 8065,
      "Ġà®ªà®¤à®©": 8066,
      "Ġà®µà®¯à®ļ": 8067,
      "Ġà®®à®¯": 8068,
      "Ġà®®à®ļ": 8069,
      "à®µà®°à®£à®®": 8070,
      "à®£à®µà®©": 8071,
      "à®£à®±à®²": 8072,
      "Ġ($": 8073,
      "Ġà®īà®ªà®ļ": 8074,
      "à¯ĩà®¾...": 8075,
      "à¯į.,": 8076,
      "à¯į,...": 8077,
      "à¯į)/": 8078,
      "à¯į;...)": 8079,
      "Ġà®Ĩà®¹": 8080,
      "Ġà®Ĩà®¯à®Ļ": 8081,
      "Ġ\",": 8082,
      "Ġ-?": 8083,
      "à®ĩName": 8084,
      "à®ĩà®´à®ķ": 8085,
      "Ġà®ĩà®©à®ª": 8086,
      "Ġà®ıà®Ļ": 8087,
      "Ġà®ıà®²à®¤": 8088,
      "Ġà®ıà®ŀ": 8089,
      "Ġà®ıobject": 8090,
      "à¯į\"%": 8091,
      "Ġà®®à®©à®ļ": 8092,
      "Ġà®ĩà®²à®¤": 8093,
      "melia": 8094,
      "à®²à®¤à®²": 8095,
      "Ġà®¯à®µ": 8096,
      "ond": 8097,
      "Ġnode": 8098,
      "Ġnluc": 8099,
      "tist": 8100,
      "tick": 8101,
      "titude": 8102,
      "Ġà®ļà®®à®¤à®³à®®": 8103,
      "à®īà®ķà®ª": 8104,
      "Ġte": 8105,
      "Ġtty": 8106,
      "Ġterm": 8107,
      "Ġteam": 8108,
      "Ġà®Ĩà®ķà®ķ": 8109,
      "anz": 8110,
      "Ġà®ªà®ķà®Ł": 8111,
      "Ġà®Īà®©à®®": 8112,
      "à®·à®²": 8113,
      "à®ĥà®ªà®£": 8114,
      "esult": 8115,
      "eserve": 8116,
      "à®¤à®ķà®©à®µ": 8117,
      "ited": 8118,
      "ittin": 8119,
      "era": 8120,
      "Ġawfully": 8121,
      "Ġaxis": 8122,
      "Ġkb": 8123,
      "lay": 8124,
      "Ġpg": 8125,
      "Ġpim": 8126,
      "Ġpray": 8127,
      "Ġpres": 8128,
      "Ġperson": 8129,
      "Ġden": 8130,
      "Ġdem": 8131,
      "Ġdone": 8132,
      "Ġdict": 8133,
      "Ġdash": 8134,
      "Ġà®ªà®°à®¸": 8135,
      "Ġà®¤à®°à®µà®°": 8136,
      "roft": 8137,
      "round": 8138,
      "ranber": 8139,
      "à®±à®ªà®ķ": 8140,
      "Ġsin": 8141,
      "Ġsmb": 8142,
      "Ġsock": 8143,
      "Ġsrc": 8144,
      "Ġprojec": 8145,
      "Ġpropos": 8146,
      "enger": 8147,
      "Ġneil": 8148,
      "ĠCor": 8149,
      "ĠCurrent": 8150,
      "ĠCranber": 8151,
      "Ġcod": 8152,
      "Ġclo": 8153,
      "Ġcos": 8154,
      "Ġcause": 8155,
      "Ġclose": 8156,
      "ref": 8157,
      "reuse": 8158,
      "Ġinser": 8159,
      "Ġintext": 8160,
      "held": 8161,
      "Ġdoesn": 8162,
      "Ġà®Ĳà®Ĩà®°": 8163,
      "arithm": 8164,
      "atts": 8165,
      "Ġà®ªà®£à®¯à®ķ": 8166,
      "iceland": 8167,
      "icros": 8168,
      "ison": 8169,
      "isible": 8170,
      "israel": 8171,
      "Ġà®ĥà®ªà®µ": 8172,
      "ĠSN": 8173,
      "ĠSR": 8174,
      "ĠSW": 8175,
      "ĠSom": 8176,
      "ĠSub": 8177,
      "ĠSep": 8178,
      "ĠSync": 8179,
      "ĠSheet": 8180,
      "ĠSKE": 8181,
      "ĠSerb": 8182,
      "ĠSanj": 8183,
      "ĠSamba": 8184,
      "Ġbz": 8185,
      "Ġbpp": 8186,
      "Ġblock": 8187,
      "Ġboth": 8188,
      "à¯į...\"": 8189,
      "à®³à®©à®µ": 8190,
      "Ġfin": 8191,
      "Ġfro": 8192,
      "Ġfire": 8193,
      "Ġwell": 8194,
      "ĠKJ": 8195,
      "ĠKR": 8196,
      "ĠKeep": 8197,
      "ĠKback": 8198,
      "ĠKexi": 8199,
      "ĠMouse": 8200,
      "ĠMOAN": 8201,
      "olved": 8202,
      "ology": 8203,
      "ĠAre": 8204,
      "ĠACL": 8205,
      "ĠAvantGo": 8206,
      "ĠAmelia": 8207,
      "ĠTiB": 8208,
      "ĠTCP": 8209,
      "ĠTranslators": 8210,
      "ĠDan": 8211,
      "ĠDel": 8212,
      "ĠDraw": 8213,
      "ĠDash": 8214,
      "ĠDISC": 8215,
      "ĠDestro": 8216,
      "Ġà®īà®¯à®°à®ļ": 8217,
      "Ġ39": 8218,
      "std": 8219,
      "stall": 8220,
      "stant": 8221,
      "Ġmount": 8222,
      "Ġmark": 8223,
      "Ġmuch": 8224,
      "Ġmade": 8225,
      "Ġmjones": 8226,
      "ĠIT": 8227,
      "ĠPIN": 8228,
      "ĠPUT": 8229,
      "ĠPass": 8230,
      "ĠPIM": 8231,
      "ĠPET": 8232,
      "ĠPermissions": 8233,
      "Ġxà®¯": 8234,
      "Ġxslt": 8235,
      "ĠFormat": 8236,
      "used": 8237,
      "ĠBon": 8238,
      "ĠBEL": 8239,
      "ĠButton": 8240,
      "ract": 8241,
      "elcome": 8242,
      "à¯į';": 8243,
      "Ġ09": 8244,
      "à®Ĳà®ķ": 8245,
      "Ġà®¤à®°à®µà®ķà®¤": 8246,
      "ado": 8247,
      "Ġ@%": 8248,
      "urn": 8249,
      "uring": 8250,
      "à®°à®ªà®ŀ": 8251,
      "ĠNig": 8252,
      "ĠNUM": 8253,
      "ĠNGC": 8254,
      "ĠGreen": 8255,
      "ĠGhost": 8256,
      "ĠGPL": 8257,
      "ĠGrayscale": 8258,
      "ĠLA": 8259,
      "ĠLLM": 8260,
      "ĠLCM": 8261,
      "ĠLISa": 8262,
      "ĠLois": 8263,
      "ĠRDN": 8264,
      "Ġlow": 8265,
      "Ġlangu": 8266,
      "Ġlux": 8267,
      "Ġlower": 8268,
      "Ġoften": 8269,
      "anda": 8270,
      "ander": 8271,
      "anding": 8272,
      "Ġgnu": 8273,
      "Ġgroans": 8274,
      "Ġgrayscale": 8275,
      "Ġ570": 8276,
      "Ġstrong": 8277,
      "Ġ47": 8278,
      "undi": 8279,
      "Ġthread": 8280,
      "Ġthumb": 8281,
      "Ġthird": 8282,
      "ĠHorati": 8283,
      "ember": 8284,
      "Ġreques": 8285,
      "Ġreally": 8286,
      "Ġrevs": 8287,
      "ĠXM": 8288,
      "ĠXP": 8289,
      "ĠXDG": 8290,
      "ĠXsldbg": 8291,
      "asa": 8292,
      "tence": 8293,
      "pper": 8294,
      "ĠEM": 8295,
      "ĠEV": 8296,
      "ĠEg": 8297,
      "ĠEma": 8298,
      "ĠEmail": 8299,
      "ĠEJK": 8300,
      "tering": 8301,
      "INU": 8302,
      "ĠWrite": 8303,
      "ĠWatts": 8304,
      "amma": 8305,
      "Ġ88": 8306,
      "ĠYour": 8307,
      "Ġmean": 8308,
      "umps": 8309,
      "uminated": 8310,
      "aint": 8311,
      "ify": 8312,
      "egal": 8313,
      "ARE": 8314,
      "imal": 8315,
      "image": 8316,
      "ange": 8317,
      "Ġlam": 8318,
      "Ġ123": 8319,
      "MENT": 8320,
      "ATTAN": 8321,
      "ATRICE": 8322,
      "ATION": 8323,
      "vious": 8324,
      "Ġcondu": 8325,
      "à®¤à®¨à®£": 8326,
      "ĠVand": 8327,
      "artreuse": 8328,
      "Ġ92": 8329,
      "Ġ98": 8330,
      "Ġ99": 8331,
      "Ġuntil": 8332,
      "inder": 8333,
      "ĠQODB": 8334,
      "ounds": 8335,
      "ides": 8336,
      "ider": 8337,
      "Ġselection": 8338,
      "uplex": 8339,
      "belgium": 8340,
      "),%": 8341,
      "Ġ*)": 8342,
      "ĠTheme": 8343,
      "bosnia": 8344,
      "acs": 8345,
      "illin": 8346,
      "ĠCOUN": 8347,
      "ĠCONC": 8348,
      "ĠJamaicans": 8349,
      "ĠJigsaw": 8350,
      "inea": 8351,
      "Ġmonitor": 8352,
      "show": 8353,
      "Ġvj": 8354,
      "ĠÃ²": 8355,
      "ĠÃ´": 8356,
      "Ġ1989": 8357,
      "endSt": 8358,
      "ĠÂ±": 8359,
      "Ġshoulda": 8360,
      "vina": 8361,
      "Ġsynth": 8362,
      "Ġsyslog": 8363,
      "Ġleave": 8364,
      "ontal": 8365,
      "Ġexe": 8366,
      "ĠAlways": 8367,
      "Ġwithin": 8368,
      "Ġbuttons": 8369,
      "Ġjs": 8370,
      "Ġjoin": 8371,
      "ĠISDN": 8372,
      "ĠISTIME": 8373,
      "ĠISEVEN": 8374,
      "eping": 8375,
      "UNDER": 8376,
      "Ġpreview": 8377,
      "Ġprevious": 8378,
      "ĠIMAGE": 8379,
      "urePix": 8380,
      "ĠStanc": 8381,
      "Ġabc": 8382,
      "ffix": 8383,
      "html": 8384,
      "izing": 8385,
      "ftp": 8386,
      "111": 8387,
      "Ġcheckbox": 8388,
      "Ġzipped": 8389,
      "ibs": 8390,
      "ĠCoglText": 8391,
      "ĠCoglBl": 8392,
      "acked": 8393,
      "Ġà®ħà®ķà®²à®ļ": 8394,
      "Ġadministrator": 8395,
      "Ġstrings": 8396,
      "Ġsetup": 8397,
      "ĠiCalendar": 8398,
      "Ġalphab": 8399,
      "Ġà®ĩà®Łà®µà®²à®¤": 8400,
      "aste": 8401,
      "tajikistan": 8402,
      "Ġscaredy": 8403,
      "AMP": 8404,
      "105": 8405,
      "max": 8406,
      "ĠFIX": 8407,
      "ĠFIFO": 8408,
      "CResult": 8409,
      "Ġsuite": 8410,
      "Ġsuffix": 8411,
      "Ġquality": 8412,
      "ĠKDevelop": 8413,
      "Ġmotherfuckin": 8414,
      "parison": 8415,
      "atilde": 8416,
      "ADME": 8417,
      "GLSL": 8418,
      "Ġparsing": 8419,
      "Ġ224": 8420,
      "ĠKWallet": 8421,
      "cheering": 8422,
      "ungover": 8423,
      "ĠxBE": 8424,
      "Ġdatabases": 8425,
      "ecify": 8426,
      "THUNDER": 8427,
      "grunts": 8428,
      "ĠCHATTAN": 8429,
      "Ġbackup": 8430,
      "Ġbackend": 8431,
      "Keys": 8432,
      "ĠScreen": 8433,
      "ĠScaredy": 8434,
      "ATENATE": 8435,
      "Stay": 8436,
      "proc": 8437,
      "Ġoutput": 8438,
      "ertain": 8439,
      "ervisia": 8440,
      "Chuckles": 8441,
      "locks": 8442,
      "ĠCRLs": 8443,
      "ĠAdvanced": 8444,
      "Ġsupports": 8445,
      "ryption": 8446,
      "Ġsigning": 8447,
      "ĠFloat": 8448,
      "Ġstarted": 8449,
      "Ġdetailed": 8450,
      "Ġaccessing": 8451,
      "à®©à®¨à®Łà®ķ": 8452,
      "ĠREADME": 8453,
      "ĠEXHALES": 8454,
      "ĠEXCLAIMS": 8455,
      "format": 8456,
      "ĠSTAN": 8457,
      "Ġfrump": 8458,
      "ĠRead": 8459,
      "annel": 8460,
      "Ġplugin": 8461,
      "Ġexecute": 8462,
      "atures": 8463,
      "ĠSMS": 8464,
      "ĠLOGNORM": 8465,
      "Ġauthority": 8466,
      "Ġitself": 8467,
      "Ġà®¨à®µà®ľ": 8468,
      "Ġcreation": 8469,
      "ĠSpecify": 8470,
      "ĠMarwood": 8471,
      "emption": 8472,
      "USH": 8473,
      "ĠDAYSIN": 8474,
      "ĠOutput": 8475,
      "ĠLEFT": 8476,
      "Ġmanager": 8477,
      "forge": 8478,
      "Ġfrequ": 8479,
      "Ġfreeserve": 8480,
      "ĠACOS": 8481,
      "Ġencoder": 8482,
      "Ġremote": 8483,
      "Request": 8484,
      "Reference": 8485,
      "ĠCommand": 8486,
      "ĠHello": 8487,
      "Ġprefixed": 8488,
      "Ġsourceforge": 8489,
      "ĠCSSà®¯": 8490,
      "ĠSUSE": 8491,
      "Ġportugal": 8492,
      "Ġburma": 8493,
      "ĠResource": 8494,
      "Ġredemption": 8495,
      "upported": 8496,
      "ĠWHIRRING": 8497,
      "ĠISNUMB": 8498,
      "ĠPlasmoid": 8499,
      "When": 8500,
      "ĠNPOT": 8501,
      "Ġstands": 8502,
      "ĠWordReference": 8503,
      "Allow": 8504,
      "ropy": 8505,
      "Ġcapable": 8506,
      "ĠPerform": 8507,
      "ĠBEATRICE": 8508,
      "ĠLauri": 8509,
      "Ġloading": 8510,
      "Ġshitty": 8511,
      "Process": 8512,
      "mander": 8513,
      "rustling": 8514,
      "ĠPERMUT": 8515,
      "ĠIMSQRT": 8516,
      "Ġplayer": 8517,
      "uilt": 8518,
      "lecting": 8519,
      "ĠAfter": 8520,
      "ĠAfrica": 8521,
      "ingerprint": 8522,
      "Ġherzego": 8523,
      "Shortcut": 8524,
      "Groupware": 8525,
      "Organizer": 8526,
      "Ġsquare": 8527,
      "ĠCURRENTDATE": 8528,
      "ĠMultitran": 8529,
      "ĠOverpass": 8530,
      "ĠXXà®ª": 8531,
      "Ġarcmin": 8532,
      "Ġpreferences": 8533,
      "MOANS": 8534,
      "MOANING": 8535,
      "WHIRRING": 8536,
      "zips": 8537,
      "Ã´ÃĴ": 8538,
      "Ġkcms": 8539,
      "Ġproblem": 8540,
      "Ġproblems": 8541,
      "ĠCLASS": 8542,
      "ĠMIDI": 8543,
      "ĠllT": 8544,
      "Ġrepres": 8545,
      "ĠCoglObject": 8546,
      "ĠCoglObjects": 8547,
      "Ġindicate": 8548,
      "ĠARBfp": 8549,
      "ĠSUBTOT": 8550,
      "langs": 8551,
      "Ġcdrom": 8552,
      "ĠDigital": 8553,
      "ĠCHUCKLING": 8554,
      "Ġidentity": 8555,
      "Ġbrowser": 8556,
      "ĠMotherfucker": 8557,
      "ĠASINH": 8558,
      "Ġocrad": 8559,
      "Ġowner": 8560,
      "Ġgpgconf": 8561,
      "emoyne": 8562,
      "ĠISPà®¯": 8563,
      "Ġappears": 8564,
      "ĠMINUTES": 8565,
      "Jobs": 8566,
      "aurus": 8567,
      "efan": 8568,
      "Ġ\"${": 8569,
      "ĠGuinea": 8570,
      "ĠAngola": 8571,
      "ĠFISHERINV": 8572,
      "square": 8573,
      "Ġà®ķà®©à®°à®ķ": 8574,
      "Ġtrigger": 8575,
      "Ġsuspend": 8576,
      "Ġinside": 8577,
      "ĠKivio": 8578,
      "ĠIceWM": 8579,
      "Ġhonks": 8580,
      "Ġhorizon": 8581,
      "ĠBurundi": 8582,
      "Ġrevision": 8583,
      "Ġà®īà®ªà®ķà®°à®£à®Ļ": 8584,
      "ĠQSQLiteResult": 8585,
      "ĠConnection": 8586,
      "uzzes": 8587,
      "Ġsituation": 8588,
      "Ġbloodlines": 8589,
      "1024": 8590,
      "panama": 8591,
      "subject": 8592,
      "Ġsonnet": 8593,
      "Ġbmk": 8594,
      "ĠFaora": 8595,
      "Ġglsl": 8596,
      "ĠQOCIResult": 8597,
      "irmation": 8598,
      "Ġannotations": 8599,
      "luxembourg": 8600,
      "Ġrecipient": 8601,
      "ĠKHotKeys": 8602,
      "OOGA": 8603,
      "Sniffles": 8604,
      "sikkim": 8605,
      "Ġilluminated": 8606,
      "Ġothers": 8607,
      "Ġnlucock": 8608,
      "Ġprayin": 8609,
      "Ġproposal": 8610,
      "ĠCranberries": 8611,
      "Ġinserted": 8612,
      "icrosoft": 8613,
      "ĠSerban": 8614,
      "ĠSanjar": 8615,
      "ĠKbackgammon": 8616,
      "ĠBELLE": 8617,
      "ĠNiger": 8618,
      "Ġlanguages": 8619,
      "Ġluxembourg": 8620,
      "Ġ5707": 8621,
      "ĠHoratius": 8622,
      "ĠEmails": 8623,
      "ĠQODBCResult": 8624,
      "ĠCONCATENATE": 8625,
      "endString": 8626,
      "urePixmap": 8627,
      "ĠStancroft": 8628,
      "ĠCoglTexturePixmap": 8629,
      "ĠCoglBlendString": 8630,
      "ĠCHATTANOOGA": 8631,
      "ĠLOGNORMDIST": 8632,
      "ĠISNUMBER": 8633,
      "Ġherzegovina": 8634,
      "ĠSUBTOTAL": 8635,
      "$]": 8636,
      "%.": 8637,
      "']": 8638,
      "*'": 8639,
      "03": 8640,
      "26": 8641,
      "48": 8642,
      "567": 8643,
      "79": 8644,
      "850": 8645,
      ":\\\\": 8646,
      "=...": 8647,
      "Ar": 8648,
      "ACK": 8649,
      "ACE": 8650,
      "Arc": 8651,
      "ACL": 8652,
      "BLARING": 8653,
      "Break": 8654,
      "CAR": 8655,
      "COM": 8656,
      "Don": 8657,
      "Down": 8658,
      "Deny": 8659,
      "DOWN": 8660,
      "EARS": 8661,
      "FA": 8662,
      "FOV": 8663,
      "GD": 8664,
      "GLE": 8665,
      "GATE": 8666,
      "HH": 8667,
      "Hz": 8668,
      "IAL": 8669,
      "IFF": 8670,
      "JU": 8671,
      "LAN": 8672,
      "Log": 8673,
      "NM": 8674,
      "Next": 8675,
      "Number": 8676,
      "Nick": 8677,
      "OF": 8678,
      "OUN": 8679,
      "Open": 8680,
      "Object": 8681,
      "PT": 8682,
      "Post": 8683,
      "Plot": 8684,
      "Pipe": 8685,
      "QShortcut": 8686,
      "RF": 8687,
      "RS": 8688,
      "SC": 8689,
      "Set": 8690,
      "Sky": 8691,
      "TV": 8692,
      "TTS": 8693,
      "UMENT": 8694,
      "Window": 8695,
      "_\"": 8696,
      "ait": 8697,
      "aik": 8698,
      "aust": 8699,
      "azil": 8700,
      "bor": 8701,
      "ben": 8702,
      "bum": 8703,
      "bolivia": 8704,
      "ca": 8705,
      "cop": 8706,
      "crib": 8707,
      "cyprus": 8708,
      "ded": 8709,
      "dle": 8710,
      "desktop": 8711,
      "dash": 8712,
      "gg": 8713,
      "gy": 8714,
      "gal": 8715,
      "gen": 8716,
      "how": 8717,
      "hond": 8718,
      "io": 8719,
      "ira": 8720,
      "iting": 8721,
      "ivers": 8722,
      "ique": 8723,
      "just": 8724,
      "joy": 8725,
      "kb": 8726,
      "kde": 8727,
      "kmen": 8728,
      "lb": 8729,
      "lt": 8730,
      "mPlot": 8731,
      "nm": 8732,
      "oh": 8733,
      "oid": 8734,
      "office": 8735,
      "pa": 8736,
      "pkg": 8737,
      "rd": 8738,
      "rr": 8739,
      "rz": 8740,
      "ria": 8741,
      "rtual": 8742,
      "sec": 8743,
      "site": 8744,
      "southkorea": 8745,
      "tab": 8746,
      "vol": 8747,
      "xx": 8748,
      "yes": 8749,
      "yms": 8750,
      "zz": 8751,
      "Ã±": 8752,
      "Ã·": 8753,
      "Ã½": 8754,
      "ÃĶ": 8755,
      "Ãķ": 8756,
      "Ġà¯": 8757,
      "Ġà¯Ī": 8758,
      "Ġà¯ĩ": 8759,
      "Ġang": 8760,
      "à¯į+": 8761,
      "à¯į`": 8762,
      "à¯įà¯ģ": 8763,
      "à®ķEthiopian": 8764,
      "à®ķà®Ĵà®Ł": 8765,
      "à®¾_": 8766,
      "à®¤à®Łà®®": 8767,
      "à®¤à®ļà®®": 8768,
      "à®¤City": 8769,
      "à®¤à®Łà®Ļ": 8770,
      "à®¤à®³à®ª": 8771,
      "à®°à®¤à®°": 8772,
      "à®°à®¯à®©": 8773,
      "à®©Name": 8774,
      "à®Łà®Ĵà®°": 8775,
      "à®Łnorth": 8776,
      "à®³à®ķà®¤": 8777,
      "à®²à®·": 8778,
      "à®ªà®¯à®²": 8779,
      "à®ªà®ķà®ķ": 8780,
      "à®ªà®ĥà®ª": 8781,
      "à®±à®ķà®®": 8782,
      "Ġà®ħà®ªà®¤": 8783,
      "à¯Ĩ.": 8784,
      "Ġà®ķà®³à®©": 8785,
      "Ġà®ĩà®¯à®°": 8786,
      "Ġà®ĩà®¯à®µ": 8787,
      "Ġ(=": 8788,
      "Ġà®¤à®Łà®ª": 8789,
      "Ġà®īà®·": 8790,
      "à¯į.\\": 8791,
      "Ġà®Ĩà®°à®ķ": 8792,
      "Ġà®Ĵà®ļ": 8793,
      "à®ħà®Łà®®": 8794,
      "à®ħà®ķà®°": 8795,
      "Ġ\"/": 8796,
      "Ġ\"=": 8797,
      "à¯ĭ/": 8798,
      "à¯ĭ;": 8799,
      "Ġ-.": 8800,
      "à¯ģ..\"": 8801,
      "à®ĩà®Łà®Ļ": 8802,
      "Ġà®ĩà®©à®¨": 8803,
      "à¯ģ,.": 8804,
      "Ġà®ıà®³": 8805,
      "Ġà®ıà®Ĳ": 8806,
      "à®¤à®°à®ª": 8807,
      "à®ķà®®à®®": 8808,
      "Ġà®®à®©à®ķ": 8809,
      "Ġà®ªà®Łà®ªà®Łà®µ": 8810,
      "à¯Ī....": 8811,
      "onath": 8812,
      "onyms": 8813,
      "Ġnst": 8814,
      "Ġnos": 8815,
      "Ġnight": 8816,
      "Ġntp": 8817,
      "tire": 8818,
      "à®īà®±à®ķ": 8819,
      "america": 8820,
      "Ġtm": 8821,
      "Ġtri": 8822,
      "Ġtrust": 8823,
      "Ġà®ķà®£à®¤": 8824,
      "anel": 8825,
      "anbe": 8826,
      "Ġ160": 8827,
      "à®©à®®à®±": 8828,
      "à®²à®®à®©": 8829,
      "ermin": 8830,
      "Ġah": 8831,
      "Ġast": 8832,
      "Ġalar": 8833,
      "Ġaustralia": 8834,
      "Ġaudio": 8835,
      "Ġà®ħà®ªà®°": 8836,
      "Ġkmail": 8837,
      "Ġkexi": 8838,
      "Ġkicker": 8839,
      "Ġktts": 8840,
      "Ġkonsole": 8841,
      "ala": 8842,
      "alia": 8843,
      "à®ľà®¯à®®": 8844,
      "Ġà®īà®±à®Ļ": 8845,
      "Ġà®ľà®¸": 8846,
      "Ġpm": 8847,
      "Ġpid": 8848,
      "Ġpos": 8849,
      "Ġpov": 8850,
      "Ġpolicy": 8851,
      "orf": 8852,
      "orge": 8853,
      "ĠdD": 8854,
      "Ġdw": 8855,
      "Ġdeny": 8856,
      "Ġdrive": 8857,
      "gman": 8858,
      "à®ļà®°à®¤": 8859,
      "Ġà®ªà®¤à®Ł": 8860,
      "à®Łà®°à®°": 8861,
      "open": 8862,
      "Ġsl": 8863,
      "Ġsch": 8864,
      "Ġsection": 8865,
      "Ġsocket": 8866,
      "Ġsession": 8867,
      "Ġsuriname": 8868,
      "Ġsaved": 8869,
      "Ġ'!": 8870,
      "Ġ';'": 8871,
      "Ġ'*'": 8872,
      "à®±à®®à®ķ": 8873,
      "Ġprofile": 8874,
      "ene": 8875,
      "ening": 8876,
      "Ġà®ĩà®Łà®²": 8877,
      "ĠCal": 8878,
      "ĠCDE": 8879,
      "ĠCount": 8880,
      "ĠCOR": 8881,
      "ĠCould": 8882,
      "ĠCong": 8883,
      "ĠClass": 8884,
      "ĠCall": 8885,
      "ĠCID": 8886,
      "ĠCategory": 8887,
      "ĠCities": 8888,
      "Ġcl": 8889,
      "Ġcisc": 8890,
      "Ġclient": 8891,
      "Ġcollection": 8892,
      "Ġcmd": 8893,
      "Ġcertain": 8894,
      "rev": 8895,
      "rew": 8896,
      "Ġinvalid": 8897,
      "à®ķà®£à®¤": 8898,
      "arm": 8899,
      "ares": 8900,
      "arse": 8901,
      "omical": 8902,
      "atem": 8903,
      "oule": 8904,
      "ouch": 8905,
      "Ġà®Ĩà®µà®£à®ķ": 8906,
      "istin": 8907,
      "lean": 8908,
      "ĠSch": 8909,
      "ĠSome": 8910,
      "ĠStor": 8911,
      "ĠSudan": 8912,
      "ĠSier": 8913,
      "ĠSinger": 8914,
      "ĠSuper": 8915,
      "ĠSGML": 8916,
      "Ġbr": 8917,
      "Ġbol": 8918,
      "Ġbreak": 8919,
      "à®©à®µà®³": 8920,
      "Ġfla": 8921,
      "Ġfur": 8922,
      "Ġfail": 8923,
      "Ġfast": 8924,
      "Ġfraction": 8925,
      "Ġfalse": 8926,
      "Ġwould": 8927,
      "Ġwml": 8928,
      "Ġwrong": 8929,
      "Ġwidth": 8930,
      "ĠKL": 8931,
      "ĠKe": 8932,
      "ĠKà®¤à®Ļ": 8933,
      "ĠKSt": 8934,
      "ĠKola": 8935,
      "ĠKXSL": 8936,
      "ĠKOrganizer": 8937,
      "ĠMW": 8938,
      "ĠMm": 8939,
      "ĠMy": 8940,
      "ĠMad": 8941,
      "ĠMain": 8942,
      "ĠMail": 8943,
      "ĠMix": 8944,
      "ĠMove": 8945,
      "ĠMax": 8946,
      "ĠMenu": 8947,
      "ĠMicrosoft": 8948,
      "olute": 8949,
      "à®ıà®µ": 8950,
      "ĠAE": 8951,
      "ĠAM": 8952,
      "ĠTransla": 8953,
      "ĠTest": 8954,
      "ĠTOG": 8955,
      "ĠTEXT": 8956,
      "ĠTeam": 8957,
      "ĠTanz": 8958,
      "ĠTIFF": 8959,
      "ĠDot": 8960,
      "ĠDOS": 8961,
      "ĠDUR": 8962,
      "ĠDescriptive": 8963,
      "Ġ3000": 8964,
      "style": 8965,
      "standing": 8966,
      "Ġmu": 8967,
      "Ġmag": 8968,
      "Ġmath": 8969,
      "Ġmahfouf": 8970,
      "ĠIF": 8971,
      "ĠIl": 8972,
      "ĠIME": 8973,
      "ĠIEE": 8974,
      "ĠIgnore": 8975,
      "eth": 8976,
      "ĠPa": 8977,
      "ĠPri": 8978,
      "ĠPage": 8979,
      "ĠPAM": 8980,
      "ĠPrevi": 8981,
      "ĠPosition": 8982,
      "Ġxpm": 8983,
      "à¯Ī:\\": 8984,
      "Ġha": 8985,
      "Ġhot": 8986,
      "Ġhun": 8987,
      "à¯ģ\"%": 8988,
      "ĠFin": 8989,
      "ĠFull": 8990,
      "ĠFDIST": 8991,
      "ĠFirst": 8992,
      "ĠFeel": 8993,
      "à¯Ī\",": 8994,
      "ects": 8995,
      "ecting": 8996,
      "ĠBM": 8997,
      "ĠBus": 8998,
      "ĠBET": 8999,
      "ĠBuilt": 9000,
      "Ġà®ķà®©à®ļà®¤": 9001,
      "rab": 9002,
      "rac": 9003,
      "raName": 9004,
      "rast": 9005,
      "rating": 9006,
      "eload": 9007,
      "Ġ098": 9008,
      "agraph": 9009,
      "agasc": 9010,
      "Ġ_:%": 9011,
      "adds": 9012,
      "ury": 9013,
      "urgy": 9014,
      "ĠODD": 9015,
      "ĠOGC": 9016,
      "ĠOVR": 9017,
      "ĠNa": 9018,
      "ĠNets": 9019,
      "ĠGB": 9020,
      "ĠLF": 9021,
      "ĠLt": 9022,
      "ĠLy": 9023,
      "ĠLib": 9024,
      "ĠLaz": 9025,
      "ĠLGP": 9026,
      "ĠLoad": 9027,
      "ĠRID": 9028,
      "ĠROT": 9029,
      "ĠReload": 9030,
      "Ġlp": 9031,
      "Ġlang": 9032,
      "Ġlength": 9033,
      "Ġlnder": 9034,
      "andbox": 9035,
      "Ġgu": 9036,
      "Ġgray": 9037,
      "Ġgeneral": 9038,
      "Ġgui": 9039,
      "Ġgrep": 9040,
      "Ġgrid": 9041,
      "Ġstop": 9042,
      "Ġ480": 9043,
      "Ġthose": 9044,
      "ĠHE": 9045,
      "ĠHard": 9046,
      "ĠHyper": 9047,
      "emir": 9048,
      "emarie": 9049,
      "à¯ģ--": 9050,
      "Ġrefer": 9051,
      "ĠXIn": 9052,
      "ĠXOrg": 9053,
      "Ġye": 9054,
      "Ġà®īà®²à®ķà®²": 9055,
      "DENCE": 9056,
      "Ġ67": 9057,
      "Ġ69": 9058,
      "Ġ666": 9059,
      "ching": 9060,
      "Ġbeh": 9061,
      "Ġbelarus": 9062,
      "delete": 9063,
      "ĠEvery": 9064,
      "ĠEVEN": 9065,
      "ĠWol": 9066,
      "ĠWrap": 9067,
      "amb": 9068,
      "Ġ81": 9069,
      "Ġ88888": 9070,
      "Ġ76": 9071,
      "ays": 9072,
      "ayIt": 9073,
      "ĠYes": 9074,
      "ĠYEARS": 9075,
      "Ġ>.": 9076,
      "Ġmedia": 9077,
      "igation": 9078,
      "ĠKDEà®ķ": 9079,
      "imals": 9080,
      "Ġru": 9081,
      "Ġrà®ªà®£": 9082,
      "Ġrename": 9083,
      "Ġlaunch": 9084,
      "Ġ1234": 9085,
      "vidu": 9086,
      "ĠVT": 9087,
      "uby": 9088,
      "Ġuses": 9089,
      "Ġ94": 9090,
      "Ġunlike": 9091,
      "ĠQB": 9092,
      "Ġ109": 9093,
      "Ġdepend": 9094,
      "bell": 9095,
      "Ġevolution": 9096,
      "ĠeGroupware": 9097,
      "ablo": 9098,
      "bose": 9099,
      "estment": 9100,
      "active": 9101,
      "occo": 9102,
      "ERE": 9103,
      "ĠCOMB": 9104,
      "ĠCONT": 9105,
      "ĠCOVAR": 9106,
      "ĠJonath": 9107,
      "Ġà®Ĩà®µà®£à®®à®¯à®®": 9108,
      "Ġvà®ħà®Ł": 9109,
      "ĠÃ°": 9110,
      "ĠÃ¸": 9111,
      "ĠÃ½": 9112,
      "endering": 9113,
      "ĠZimbabwe": 9114,
      "ĠZIP": 9115,
      "Ġsyn": 9116,
      "lovakia": 9117,
      "tically": 9118,
      "Ġchoo": 9119,
      "Ġchannel": 9120,
      "Ġclasses": 9121,
      "Ġupper": 9122,
      "Ġsubject": 9123,
      "ulture": 9124,
      "IGN": 9125,
      "Ġjpg": 9126,
      "Ġjava": 9127,
      "Ġjpeg": 9128,
      "oster": 9129,
      "ĠISDATE": 9130,
      "ĠISpell": 9131,
      "akin": 9132,
      "Ġask": 9133,
      "Ġray": 9134,
      "perties": 9135,
      "ILLE": 9136,
      "ĠIMARG": 9137,
      "ĠIMCON": 9138,
      "etsComment": 9139,
      "Ġsomeone": 9140,
      "ĠStap": 9141,
      "ĠStaik": 9142,
      "ĠInit": 9143,
      "ĠIndex": 9144,
      "ĠIndic": 9145,
      "Ġvirtual": 9146,
      "avigation": 9147,
      "lip": 9148,
      "lix": 9149,
      "live": 9150,
      "archive": 9151,
      "partner": 9152,
      "Ġzurgy": 9153,
      "namic": 9154,
      "Ġamong": 9155,
      "oves": 9156,
      "Ġentire": 9157,
      "ronym": 9158,
      "ronomical": 9159,
      "Ġgroups": 9160,
[...]
