{
  "version": "1.0",
  "truncation": null,
  "padding": null,
  "added_tokens": [
    {
      "id": 0,
      "content": "[PAD]",
      "single_word": false,
      "lstrip": false,
      "rstrip": false,
      "normalized": false,
      "special": true
    },
    {
      "id": 1,
      "content": "[UNK]",
      "single_word": false,
      "lstrip": false,
      "rstrip": false,
      "normalized": false,
      "special": true
    },
    {
      "id": 2,
      "content": "[BOS]",
      "single_word": false,
      "lstrip": false,
      "rstrip": false,
      "normalized": false,
      "special": true
    },
    {
      "id": 3,
      "content": "[EOS]",
      "single_word": false,
      "lstrip": false,
      "rstrip": false,
      "normalized": false,
      "special": true
    }
  ],
  "normalizer": null,
  "pre_tokenizer": {
    "type": "ByteLevel",
    "add_prefix_space": true,
    "trim_offsets": true,
    "use_regex": true
  },
  "post_processor": null,
  "decoder": {
    "type": "ByteLevel",
    "add_prefix_space": true,
    "trim_offsets": true,
    "use_regex": true
  },
  "model": {
    "type": "BPE",
    "dropout": null,
    "unk_token": "[UNK]",
    "continuing_subword_prefix": null,
    "end_of_word_suffix": null,
    "fuse_unk": false,
    "byte_fallback": false,
    "ignore_merges": false,
    "vocab": {
      "[PAD]": 0,
      "[UNK]": 1,
      "[BOS]": 2,
      "[EOS]": 3,
      "!": 4,
      "\"": 5,
      "#": 6,
      "$": 7,
      "%": 8,
      "&": 9,
      "'": 10,
      "(": 11,
      ")": 12,
      "*": 13,
      "+": 14,
      ",": 15,
      "-": 16,
      ".": 17,
      "/": 18,
      "0": 19,
      "1": 20,
      "2": 21,
      "3": 22,
      "4": 23,
      "5": 24,
      "6": 25,
      "7": 26,
      "8": 27,
      "9": 28,
      ":": 29,
      ";": 30,
      "<": 31,
      "=": 32,
      ">": 33,
      "?": 34,
      "@": 35,
      "A": 36,
      "B": 37,
      "C": 38,
      "D": 39,
      "E": 40,
      "F": 41,
      "G": 42,
      "H": 43,
      "I": 44,
      "J": 45,
      "K": 46,
      "L": 47,
      "M": 48,
      "N": 49,
      "O": 50,
      "P": 51,
      "Q": 52,
      "R": 53,
      "S": 54,
      "T": 55,
      "U": 56,
      "V": 57,
      "W": 58,
      "X": 59,
      "Y": 60,
      "Z": 61,
      "[": 62,
      "\\": 63,
      "]": 64,
      "^": 65,
      "_": 66,
      "`": 67,
      "a": 68,
      "b": 69,
      "c": 70,
      "d": 71,
      "e": 72,
      "f": 73,
      "g": 74,
      "h": 75,
      "i": 76,
      "j": 77,
      "k": 78,
      "l": 79,
      "m": 80,
      "n": 81,
      "o": 82,
      "p": 83,
      "q": 84,
      "r": 85,
      "s": 86,
      "t": 87,
      "u": 88,
      "v": 89,
      "w": 90,
      "x": 91,
      "y": 92,
      "z": 93,
      "{": 94,
      "}": 95,
      "~": 96,
      "¡": 97,
      "¢": 98,
      "£": 99,
      "¤": 100,
      "¥": 101,
      "¦": 102,
      "§": 103,
      "¨": 104,
      "©": 105,
      "ª": 106,
      "«": 107,
      "¬": 108,
      "®": 109,
      "¯": 110,
      "°": 111,
      "±": 112,
      "²": 113,
      "³": 114,
      "´": 115,
      "µ": 116,
      "¶": 117,
      "·": 118,
      "¸": 119,
      "¹": 120,
      "º": 121,
      "»": 122,
      "¼": 123,
      "½": 124,
      "¿": 125,
      "Â": 126,
      "Ã": 127,
      "Ä": 128,
      "Å": 129,
      "Ë": 130,
      "Î": 131,
      "Ò": 132,
      "Û": 133,
      "à": 134,
      "â": 135,
      "ï": 136,
      "Ġ": 137,
      "Ģ": 138,
      "ģ": 139,
      "Ĥ": 140,
      "ĥ": 141,
      "Ħ": 142,
      "ħ": 143,
      "Ĩ": 144,
      "ĩ": 145,
      "Ī": 146,
      "ī": 147,
      "Ĭ": 148,
      "ĭ": 149,
      "Į": 150,
      "į": 151,
      "İ": 152,
      "ı": 153,
      "Ĳ": 154,
      "ĳ": 155,
      "Ĵ": 156,
      "ĵ": 157,
      "Ķ": 158,
      "ķ": 159,
      "ĸ": 160,
      "Ĺ": 161,
      "ĺ": 162,
      "Ļ": 163,
      "ļ": 164,
      "Ľ": 165,
      "ľ": 166,
      "Ŀ": 167,
      "ŀ": 168,
      "Ł": 169,
      "ł": 170,
      "Ń": 171,
      "à¶": 172,
      "à·": 173,
      "Ġà¶": 174,
      "à·Ĭ": 175,
      "à¶±": 176,
      "à·Ĵ": 177,
      "à·Ģ": 178,
      "à·ı": 179,
      "à¶º": 180,
      "à¶ļ": 181,
      "à·Ļ": 182,
      "à¶¸": 183,
      "à¶»": 184,
      "à¶Ń": 185,
      "à·Ķ": 186,
      "à·ļ": 187,
      "Ġà¶¸": 188,
      "à·Ħ": 189,
      "à¶½": 190,
      "à¶§": 191,
      "Ġà¶ļ": 192,
      "à·ĥ": 193,
      "à¶¯": 194,
      "à·Ĳ": 195,
      "Ġà·Ģ": 196,
      "à·ľ": 197,
      "à¶ľ": 198,
      "Ġà¶Ķ": 199,
      "Ġà¶ĳ": 200,
      "Ġà¶ħ": 201,
      "Ġà¶±": 202,
      "Ġà·Ħ": 203,
      "Ġà¶¯": 204,
      "Ġà¶´": 205,
      "à¶´": 206,
      "Ġà¶Ķà¶º": 207,
      "Ġà¶Ń": 208,
      "Ġà·ĥ": 209,
      "..": 210,
      "à¶±à·Ģ": 211,
      "Ġà¶ľ": 212,
      "Ġà¶Ĵ": 213,
      "Ġà¶ļà¶»": 214,
      "âĢ": 215,
      "âĢį": 216,
      "Ġà¶¶": 217,
      "à¶©": 218,
      "Ġà¶¸à¶¸": 219,
      "à·ĵ": 220,
      "à·ı.": 221,
      "Ġ-": 222,
      "à·Ŀ": 223,
      "Ġà¶ī": 224,
      "à¶¶": 225,
      "Ġà¶ĩ": 226,
      "à·ĳ": 227,
      "Ġà¶ĳà¶ļ": 228,
      "à·ĬâĢį": 229,
      "Ġà¶º": 230,
      "Ġà¶ħà¶´": 231,
      "à¶«": 232,
      "à·Ĭ.": 233,
      "à¶ºà¶ļ": 234,
      "Ġà¶¸à¶§": 235,
      "Ġà¶ĳà¶º": 236,
      "Ġà¶ļà¶»à¶±": 237,
      "Ġà¶Ĵà¶ļ": 238,
      "Ġà¶ĭ": 239,
      "...": 240,
      "à·Ĵ.": 241,
      "à¶ºà¶±": 242,
      "à·ħ": 243,
      "à¶Ĥ": 244,
      "à¶ºà¶½": 245,
      "Ġà¶½": 246,
      "à·Ģà¶±": 247,
      "Ġà¶Ĩ": 248,
      "à·Ĭ,": 249,
      "à·ģ": 250,
      "Ġà¶ķ": 251,
      "âĪ": 252,
      "âĪĻ": 253,
      "Ġà¶īà¶±": 254,
      "Ġà¶ķà¶±": 255,
      "Ġà¶»": 256,
      "à¶ł": 257,
      "Ġà¶¸à¶ľ": 258,
      "Ġà·Ħà¶»": 259,
      "à·Ģà¶Ń": 260,
      "à¶ľà¶±": 261,
      "à·ļ.": 262,
      "à¶³": 263,
      "à¶±à¶¸": 264,
      "Ġà¶ºà¶±": 265,
      "à¶ºà¶§": 266,
      "à¶Ńà¶±": 267,
      "Ġà¶ĩà¶Ń": 268,
      "à¶»à¶º": 269,
      "à¶¸à¶º": 270,
      "à·Ĥ": 271,
      "Ġà¶¢": 272,
      "Ġà¶¶à¶½": 273,
      "à·Ĵ,": 274,
      "Ġà¶Ķà·Ħ": 275,
      "à¶°": 276,
      "à·ı,": 277,
      "Ġà¶¯à¶±": 278,
      "à·ĸ": 279,
      "Ġà·Ģà¶ľ": 280,
      "à·Ģà¶ļ": 281,
      "à¶»à¶ļ": 282,
      "Ġà·ĥà¶¸": 283,
      "à·ļ?": 284,
      "à·ĳ.": 285,
      "Ġà¶ļà¶½": 286,
      "Ġà¶±à¶¸": 287,
      "Ġà¶ĳà·Ħ": 288,
      "à¶±à·Ģà¶¯": 289,
      "à¶ļà¶ļ": 290,
      "Ġà¶ľà¶±": 291,
      "Ġà¶Ķà·Ģ": 292,
      "à¶¢": 293,
      "Ġà¶ħà·Ģ": 294,
      "Ġà¶ħà¶±": 295,
      "Ġà¶ĩà¶º": 296,
      "à¶±à¶º": 297,
      "à¶¸à¶Ń": 298,
      "Ġà¶ļà·Ģ": 299,
      "Ġà¶ĳà¶±": 300,
      "à¶ļà¶¯": 301,
      "Ġà¶Ķà¶¶": 302,
      "Ġ?": 303,
      "à¶ļà¶»": 304,
      "Ġà¶§": 305,
      "à¶½à¶§": 306,
      "à¶¸à¶ļ": 307,
      "Ġ.": 308,
      "à¶§à¶¸": 309,
      "à¶¸à¶±": 310,
      "Ġà¶ħà¶»": 311,
      "à¶±à¶ļ": 312,
      "à¶¸à¶¯": 313,
      "à¶©à¶ļ": 314,
      "Ġà¶ĭà¶±": 315,
      "Ġà¶ĳà¶´": 316,
      "à·Ģà¶½": 317,
      "Ġà¶ħà¶Ń": 318,
      "à·ļ,": 319,
      "à¶ľà¶Ń": 320,
      "à¶Ł": 321,
      "Ġà¶ļà¶Ń": 322,
      "Ġà¶Ĵà¶Ń": 323,
      "à¶¯à¶»": 324,
      "à¶¹": 325,
      "ĠâĢį": 326,
      "à·Ħà¶»": 327,
      "Ġà¶ħà¶º": 328,
      "Ġà¶Ńà¶¸à¶º": 329,
      "Ġà¶¶à¶½à¶±": 330,
      "Ġà¶ħà·Ħ": 331,
      "Ġ...": 332,
      "à¶»à¶¸": 333,
      "à·Ģà¶§": 334,
      "à¶Ńà¶ļ": 335,
      "Ġ\"": 336,
      "Ġ,": 337,
      "Ġà¶ļà¶»à¶±à·Ģ": 338,
      "à¶½à¶ļ": 339,
      "Ġà·ĥà·Ħ": 340,
      "à·Ĭ!": 341,
      "Ġà¶īà¶Ń": 342,
      "Ġà¶ĳà¶ļà¶ļ": 343,
      "à·Ĳ.": 344,
      "à·ı!": 345,
      "à·Ĩ": 346,
      "Ġà¶´à·ĥ": 347,
      "à·Ĭ?": 348,
      "à¶®": 349,
      "à·ĥà¶±": 350,
      "Ġà¶ħà¶¸": 351,
      "Ġà¶ĭà¶¯": 352,
      "Ġà·Ģà¶½": 353,
      "à·Ĭ...": 354,
      "Ġà¶´à¶»": 355,
      "Ġà¶ħà¶¯": 356,
      "à¶¸à¶§": 357,
      "Ġà¶©": 358,
      "à·Ģà¶»": 359,
      "Ġà·Ħà¶¯": 360,
      "à¶ļà¶º": 361,
      "à¶ºà¶±à·Ģ": 362,
      "Ġà¶ĭà¶¹": 363,
      "à¶Ńà¶º": 364,
      "à¶«à¶º": 365,
      "âĪĻâĪĻ": 366,
      "à¶ļà¶§": 367,
      "Ġ!": 368,
      "à¶Ńà¶»": 369,
      "à·Ģà¶º": 370,
      "Ġà¶ľà¶Ń": 371,
      "Ġà¶Ĩà·Ģ": 372,
      "à¶ºà¶¸": 373,
      "à·Ļ.": 374,
      "Ġà¶Ńà¶¸": 375,
      "Ġà¶ł": 376,
      "à·Ļ?": 377,
      "Ġà·Ħà¶¸": 378,
      "Ġà¶ħà¶½": 379,
      "à·ĳ,": 380,
      "Ġà¶ļà¶»à¶½": 381,
      "Ġà·ĥà¶Ń": 382,
      "à·Ħà·ĥ": 383,
      "à¶§à¶±": 384,
      "Ġà¶¸à·Ħ": 385,
      "Ġà¶Ńà·Ģ": 386,
      "à·ı?": 387,
      "Ġà·ĥà¶»": 388,
      "à·Ģà·ĥ": 389,
      "à¶½à¶º": 390,
      "in": 391,
      "Ġà·ģ": 392,
      "Ġà¶¸à¶»": 393,
      "à·ı...": 394,
      "Ġà¶Ĵà·Ģ": 395,
      "à·Ķ.": 396,
      "à¶·": 397,
      "Ġ1": 398,
      "Ġà¶ļà·ħ": 399,
      "à¶±à¶¯": 400,
      "Ġà¶ºà¶±à·Ģ": 401,
      "à¶³à¶º": 402,
      "à¶¯à¶º": 403,
      "à¶½à¶±": 404,
      "Ġà¶ĭà¶¯à·Ģ": 405,
      "Ġà¶Ĭ": 406,
      "à·Ħà¶±": 407,
      "à¶ļà¶¸": 408,
      "à¶´à¶Ń": 409,
      "à¶Ķ": 410,
      "à¶»à¶¯": 411,
      "Ġà¶Ĩà¶´": 412,
      "à¶ºà¶º": 413,
      "à¶§à¶»": 414,
      "à¶±à·ĥ": 415,
      "à·ıâĪĻ": 416,
      "Ġ..": 417,
      "à·Ĵ!": 418,
      "à¶ħ": 419,
      "Ġà·Ĩ": 420,
      "à¶±à¶Ń": 421,
      "à¶Ńà¶§à¶¸": 422,
      "Ġà¶īà¶¯": 423,
      "à¶ļà¶½": 424,
      "Ġà¶ĭà¶Ń": 425,
      "ĠC": 426,
      "à¶»à·ģ": 427,
      "Ġà¶ļà¶§": 428,
      "à¶łà¶»": 429,
      "Ġà¶¯à¶ļ": 430,
      "à·ĺ": 431,
      "Ġà¶ĳà¶½": 432,
      "à¶Ńà¶»à¶º": 433,
      "à¶´à¶±": 434,
      "Ġà¶±à·Ģà¶Ń": 435,
      "à·Ĵà¶Ĥ": 436,
      "Ġà¶ļà·Ģà¶¯": 437,
      "Ġà·Ģà¶½à¶§": 438,
      "Ġà¶¯à·Ģà·ĥ": 439,
      "à·ĥà¶º": 440,
      "à¶±à¶ºà¶ļ": 441,
      "Ġà¶Ĩà¶º": 442,
      "Ġà¶Ĩà¶»à¶ļ": 443,
      "Ġà¶īà¶ļ": 444,
      "à¶½à¶ľ": 445,
      "Ġà¶·": 446,
      "an": 447,
      "er": 448,
      "Ġà·ħ": 449,
      "Ġà¶ĩà·Ģ": 450,
      "à¶½à·Ģ": 451,
      "à¶»à¶Ń": 452,
      "à·ĥà¶»": 453,
      "Ġà¶ĳà¶ļà¶§": 454,
      "à¶±à¶§": 455,
      "it": 456,
      "on": 457,
      "Ġà¶ĩà·Ħ": 458,
      "Ġà·Ģà¶©": 459,
      "Ġà¶ħà·Ħà¶±": 460,
      "Ġà¶Ĵà¶ļà¶§": 461,
      "Ġà¶Ĩà¶´à·Ħ": 462,
      "Ġà¶Ķà¶ļ": 463,
      "Ġà¶ºà¶¸": 464,
      "à¶¸à¶»": 465,
      "à¶ĳ": 466,
      "Ġ(": 467,
      "Ġà¶ĳà¶±à·Ģ": 468,
      "à·Ĭ..": 469,
      "à¶§à¶Ń": 470,
      "à¶»à·Ģ": 471,
      "à·ı..": 472,
      "à¶ļà¶±": 473,
      "à·Ŀ.": 474,
      "Ġà¶Ńà¶»": 475,
      "à¶»à¶±": 476,
      "Ġà¶¸à·Ħà¶Ń": 477,
      "Ġà·ĥà¶¸à·Ħà¶»": 478,
      "à¶Ńà¶¸": 479,
      "Ġà·Ģà¶Ń": 480,
      "Ġà¶´à·Ħ": 481,
      "Ġà¶ħà¶©": 482,
      "à·Ĵ...": 483,
      "à¶¶à¶±": 484,
      "à·Ħà¶§": 485,
      "me": 486,
      "Ġt": 487,
      "00": 488,
      "à¶ļà¶»à¶±": 489,
      "Ġà¶Ķà¶¶à¶§": 490,
      "à·Ģà¶¸": 491,
      "Ġ2": 492,
      "à¶±à¶±": 493,
      "à·ļ...": 494,
      "à¶ľà¶º": 495,
      "à·ĬâĪĻ": 496,
      "Ġà·Ħà¶¯à¶±": 497,
      "à·ļ!": 498,
      "à·Ĳ,": 499,
      "Ġà·ĥà¶½": 500,
      "à¶±à¶ľà¶±": 501,
      "à·ĵ.": 502,
      "Ġà¶¸à¶Ńà¶ļ": 503,
      "Ġà·Ļ": 504,
      "Ġà·Ģà¶±": 505,
      "Ġà¶ħà·Ģà·ĥ": 506,
      "à¶¯à¶»à¶º": 507,
      "Ġà¶¸à¶±": 508,
      "Ġà¶ĭà¶´": 509,
      "âĪĻâĪĻâĪĻ": 510,
      "à·Ļ,": 511,
      "Ġà¶ĳà¶Ńà¶ļ": 512,
      "Ġà¶Ĩà¶¯à¶»": 513,
      "Ġin": 514,
      "or": 515,
      "à¶ļà¶»à¶½": 516,
      "Ġà¶ļà¶«": 517,
      "à¶¸à¶¸": 518,
      "Ġà¶ļà¶»à¶ľà¶±": 519,
      "Âł": 520,
      "à¶»à¶ºà¶ļ": 521,
      "à·Ĵ?": 522,
      "Ġà¶īà·ĥ": 523,
      "Ġà¶¶à¶º": 524,
      "à¶¯à¶±": 525,
      "à¶Ĵ": 526,
      "à¶Ńà¶§": 527,
      "âĻ": 528,
      "Ġà·Ģà¶»": 529,
      "à¶Ķà¶º": 530,
      "Ġà¶ĭà¶¶": 531,
      "Ġà¶Į": 532,
      "Ġà¶īà¶³": 533,
      "à¶½à¶¸": 534,
      "ar": 535,
      "at": 536,
      "ĠâĻ": 537,
      "à·ĴâĪĻ": 538,
      "à·Ŀ,": 539,
      "Ġà¶¯à¶»": 540,
      "à·Ħà¶½": 541,
      "Ġà¶ļà¶±": 542,
      "Ġà¶Ńà¶»à¶¸": 543,
      "à¶ºà¶¸à¶º": 544,
      "à¶»à¶½": 545,
      "à·ĬâĢįâĢį": 546,
      "Ġà¶´à·Ģ": 547,
      "Ġà¶ĳà¶Ńà¶±": 548,
      "Ġà¶´à¶§à¶±": 549,
      "Ġà¶ľà¶¸à¶±": 550,
      "Ġà¶ĳà¶Ń": 551,
      "Ġà¶ļà¶»à¶´": 552,
      "Ġà¶ħà·Ģà·ģ": 553,
      "Ġà¶´à¶Ń": 554,
      "à·Ģà¶¯": 555,
      "Ġs": 556,
      "à·Ĵ..": 557,
      "Ġ'": 558,
      "Ġà¶ħà¶¯à·Ħà·ĥ": 559,
      "Ġà¶ĳà¶ļà¶¸": 560,
      "à·Ģà¶»à¶º": 561,
      "Ġà¶¸à¶Ń": 562,
      "Ġà¶±à¶ľ": 563,
      "Ġà·Ģà¶§": 564,
      "à¶«à¶ºà¶ļ": 565,
      "Ġà·ħà¶¸à¶º": 566,
      "Ġà¶ħà·ĥ": 567,
      "à¶Ńà¶±à·Ģ": 568,
      "Ġà¶Ńà¶Ń": 569,
      "à·Ļà·Ĭ": 570,
      "Ġà¶ĭà¶©": 571,
      "Ġà¶ĳà·ħ": 572,
      "à¶©à¶º": 573,
      "Ġà¶±à¶»à¶ļ": 574,
      "à¶´à·ĥ": 575,
      "ĠâĻª": 576,
      "Ġk": 577,
      "à¶ºà·Ģ": 578,
      "à·ĥà¶ļ": 579,
      "Ġà¶ħà¶»à¶ľ": 580,
      "Ġà¶½à¶¶": 581,
      "à¶±à¶½": 582,
      "Ġà¶ĳà¶ļà¶Ń": 583,
      "ity": 584,
      "à·ļ..": 585,
      "à¶½à¶ºà¶ļ": 586,
      "à·ĥà¶§": 587,
      "ĠM": 588,
      "he": 589,
      "à¶»à·ĥ": 590,
      "Ġà¶ħà¶»à¶±": 591,
      "Ġà¶Ĭà¶§": 592,
      "Ġà·Ĥ": 593,
      "Ġà¶¶à·Ģ": 594,
      "Ġà¶Ĵà¶º": 595,
      "ou": 596,
      "Ġà·Ģà¶º": 597,
      "Ġà·ĥà¶±": 598,
      "ĠCity": 599,
      "Ġà¶ļà¶©": 600,
      "à¶±à·Ģà¶±": 601,
      "à·ĴâĢį": 602,
      "Ġc": 603,
      "Ġà¶½à·ĥ": 604,
      "es": 605,
      "Ġà¶ķà¶ļ": 606,
      "à¶¯à¶ļ": 607,
      "ame": 608,
      "Ġ3": 609,
      "à¶§à¶º": 610,
      "à·Ľ": 611,
      "à·Ķ,": 612,
      "Ġà¶Ķà¶±": 613,
      "à·ģà¶º": 614,
      "Ġà¶¸à¶»à¶±": 615,
      "Ġà¶ħà¶¸à¶Ń": 616,
      "Ġà¶ĩà¶¯": 617,
      "ĠS": 618,
      "Ġà¶¸à¶º": 619,
      "à·ŀ": 620,
      "Ġà¶Ńà¶±": 621,
      "à·ĥà¶¸": 622,
      "Ġà¶īà·Ģà¶»": 623,
      "Ġà¶Ńà·Ģà¶Ń": 624,
      "à¶´à¶»": 625,
      "à¶»à¶§": 626,
      "à·ĵ,": 627,
      "Ġà·ĥà¶¸à·Ħà¶»à·Ģ": 628,
      "en": 629,
      "à¶ºà¶ļà¶§": 630,
      "Ġà¶īà¶©": 631,
      "Ġà¶ĩà¶ºà¶§": 632,
      "à¶Ńà¶½": 633,
      "Ġà¶īà¶½": 634,
      "Ġw": 635,
      "à·Ģà¶±à·Ģ": 636,
      "Ġà¶»à·ĥ": 637,
      "Ġà¶´à¶½": 638,
      "Ġà¶ļà¶»à¶¸": 639,
      "à¶ľà¶¸": 640,
      "à¶¸à¶±à¶§": 641,
      "à·ļâĪĻ": 642,
      "Ġà¶´à¶«": 643,
      "à¶ĩ": 644,
      "gm": 645,
      "à¶»à¶«": 646,
      "Ġkgm": 647,
      "Ġà¶ĩà¶½": 648,
      "Ġà¶´à¶±": 649,
      "Ġà¶ļà¶¸à¶ļ": 650,
      "à¶±à¶ľ": 651,
      "à¶ºà¶½à¶¯": 652,
      "à¶ºà¶¯": 653,
      "à¶¢à¶±": 654,
      "Ġà¶½à¶ľ": 655,
      "à¶Ńà¶»à¶ļ": 656,
      "Ġà¶ĳà¶ł": 657,
      "Ġà¶ħà¶Ńà¶»": 658,
      "is": 659,
      "à·Ĳà¶Ĥ": 660,
      "à¶»à¶ľà¶±": 661,
      "à¶¥": 662,
      "à¶ľà¶½": 663,
      "Ġà¶ĩà¶±": 664,
      "à¶½à¶»": 665,
      "à¶ºà¶´": 666,
      "Ġà¶ľà¶«": 667,
      "Ġ5": 668,
      "Ġà¶ļà¶¸": 669,
      "à¶ºà¶§à¶¸": 670,
      "Ġà¶ĩà·ĥ": 671,
      "Ġà¶ĭà·ĥ": 672,
      "à¶¸à·Ģ": 673,
      "à·ĳ!": 674,
      "à¶ºà¶Ń": 675,
      "Ġà¶īà·Ģà¶»à¶º": 676,
      "Ġà¶ħà¶±à¶Ń": 677,
      "à¶¶à¶½": 678,
      "à¶ºà¶»": 679,
      "Ġà·ĥà¶¯": 680,
      "Ġà¶Ĵà·Ģà¶ľ": 681,
      "Ġ4": 682,
      "Ġà¶ħà¶¸à¶Ńà¶ļ": 683,
      "à·ĥà·Ħ": 684,
      "ĠA": 685,
      "à¶§à¶¯": 686,
      "Ġà¶´à¶¯": 687,
      "Ġà¶ĩà¶ºà·Ģ": 688,
      "à¶ħà¶´": 689,
      "Ġà¶ĩà¶³": 690,
      "al": 691,
      "Ġà¶ľà·Ħ": 692,
      "à¶¶à¶»": 693,
      "à¶´à¶½": 694,
      "à¶»à¶«à¶º": 695,
      "à¶±à·Ģà¶Ń": 696,
      "Ġà·ĥà¶³": 697,
      "Name": 698,
      "Ġà¶ħà¶ļ": 699,
      "Ġà¶ĭà¶¹à¶§": 700,
      "à·Ĥà¶ļ": 701,
      "à¶»à·Ħ": 702,
      "as": 703,
      "à¶¯à¶§": 704,
      "à¶¸à¶ľ": 705,
      "à·ıâĢį": 706,
      "Ġà¶´à·ħ": 707,
      "à¶¯à·Ģ": 708,
      "ion": 709,
      "Ġà·Ģà·Ħ": 710,
      "à¶«à¶ļ": 711,
      "Ġà¶Ķà¶ºà¶Ń": 712,
      "Ġà¶Ĩà¶»": 713,
      "Ġà¶¸à¶½": 714,
      "Ġà¶¶à¶©": 715,
      "à·Ĥà¶º": 716,
      "ĠD": 717,
      "à¶¶à·Ģ": 718,
      "Ġà¶ļà¶»à¶¯à¶»": 719,
      "à¶§à¶½": 720,
      "Ġà¶½à¶ļ": 721,
      "à¶§à·ĥ": 722,
      "ĠU": 723,
      "Ġà¶Ĩà¶¯à¶»à¶º": 724,
      "Ġà¶ĳà·Ģ": 725,
      "à¶¯à¶ľà¶Ń": 726,
      "à·Ħà¶¯": 727,
      "à¶ľà¶ºà¶ļ": 728,
      "Ġà¶ĩà¶ľ": 729,
      "à¶½à·ĥ": 730,
      "--": 731,
      "à¶§à¶ļ": 732,
      "à·Ħà¶¸": 733,
      "Ġà¶ĩà¶»": 734,
      "le": 735,
      "Ġà¶»à¶¢": 736,
      "Ġà¶»à·Ħà·ĥ": 737,
      "Ġà·Ħà¶º": 738,
      "à¶´à¶º": 739,
      "ic": 740,
      "à¶ļà·ĥ": 741,
      "Ġà¶½à¶Ł": 742,
      "à¶´à¶ºà¶ļ": 743,
      "à¶©à¶±": 744,
      "Ġà¶¶à¶±": 745,
      "à¶¯à·Ħà·ĥ": 746,
      "à¶½à¶±à¶º": 747,
      "Ġà¶ļà¶»à¶º": 748,
      "à¶°à¶º": 749,
      "Ġà¶ħà¶°": 750,
      "Ġà¶ľà·Ħà¶±": 751,
      "à·ĳâĪĻ": 752,
      "Ġà¶°": 753,
      "Ġà·ħà¶Ł": 754,
      "Ġf": 755,
      "Ġà¶¯à·Ģà·ĥà¶ļ": 756,
      "ĠT": 757,
      "om": 758,
      "à¶Ľ": 759,
      "à¶½à¶Ń": 760,
      "à·Ļà·ı": 761,
      "ĠâĪĻâĪĻâĪĻ": 762,
      "Ġb": 763,
      "à¶§à·Ģà¶Ń": 764,
      "à·ĶâĢį": 765,
      "Ġà¶¸à¶Ł": 766,
      "à¶ļà¶§à¶¯": 767,
      "Ġà·ĥà¶³à·Ħ": 768,
      "Ġà¶īà¶¯à¶±": 769,
      "Ġà·Ģà¶ł": 770,
      "à¶©à¶¸": 771,
      "à¶±à¶ľà¶Ń": 772,
      "ĠI": 773,
      "Ġà¶¢à¶±": 774,
      "à¶ī": 775,
      "Ġà·ĥà¶§à¶±": 776,
      "à·Ħà¶ļ": 777,
      "Ġà¶Ķà¶½": 778,
      "à¶ĭ": 779,
      "re": 780,
      "à¶ºà¶ľ": 781,
      "Ġà¶ĭà¶«": 782,
      "Ġà¶ºà¶ļ": 783,
      "à·ĥà¶½": 784,
      "Ġà·Ģà¶¯": 785,
      "à¶§à¶´": 786,
      "à¶ľà¶§à¶¸": 787,
      "Ġp": 788,
      "Ġà¶´à·Ħà¶»": 789,
      "à·Ŀ!": 790,
      "Ġà¶¸à¶¸à¶º": 791,
      "à¶³à¶§": 792,
      "Ġà¶īà¶ľ": 793,
      "à¶Ńà·Ģ": 794,
      "à·Ĥà¶«": 795,
      "ia": 796,
      "Ġa": 797,
      "à¶ļà·Ģ": 798,
      "à¶°à¶Ń": 799,
      "Ġà¶´à¶§": 800,
      "à¶½à¶ľà¶±": 801,
      "à¶ļà¶ºà¶ļ": 802,
      "Ġà·Ģà·ĥ": 803,
      "ĠF": 804,
      "Ġà¶ļà¶»à¶±à·Ģà¶¯": 805,
      "Ġà·ģà¶ļ": 806,
      "Ġà¶ļà¶»à¶ľ": 807,
      "à¶»à¶ļà¶¸": 808,
      "ĠâĪĻ": 809,
      "Ġà¶¶à¶»": 810,
      "ĠB": 811,
      "Ġ10": 812,
      "Ġ(_": 813,
      "à¶¯à¶½": 814,
      "à·Ĭà·Ļ": 815,
      "Ġà¶Ńà¶¸à¶±": 816,
      "ĠK": 817,
      "à¶§à·Ģ": 818,
      "Ġà·ĥà¶½à¶ļ": 819,
      "Ġà¶¶à¶¶": 820,
      "à·Ķà¶Ĥ": 821,
      "Ġà¶īà·Ģà¶Ń": 822,
      "à·ĳ...": 823,
      "à¶½à¶¯": 824,
      "nt": 825,
      "Ġà¶¸à¶ł": 826,
      "ĠP": 827,
      "Ġà¶»à¶Ń": 828,
      "ĠN": 829,
      "Ġà¶¸à¶¸à¶Ń": 830,
      "à¶»à¶°": 831,
      "Ġà¶ħà¶·": 832,
      "à¶ºà¶±à·Ģà¶¯": 833,
      "à·Ķ!": 834,
      "Ġd": 835,
      "Ġthe": 836,
      "Ġà¶Ī": 837,
      "Ġà¶ľà¶½": 838,
      "Ġà¶¢à¶»": 839,
      "à·Ļà·Ĵ": 840,
      "à¶´à¶¯": 841,
      "Ġà¶ļà¶«à¶ľ": 842,
      "à¶±à¶ļà¶¸": 843,
      "à·Ŀ?": 844,
      "Ġà¶¸à¶§à¶Ń": 845,
      "Ġà¶ľà¶¸": 846,
      "à¶ĳà¶º": 847,
      "ing": 848,
      "à·Ħà¶º": 849,
      "à¶Ńà¶¯": 850,
      "ĠR": 851,
      "Ġl": 852,
      "Ġ6": 853,
      "Ġà¶ħà¶¯à·Ħà·ĥà¶ļ": 854,
      "ol": 855,
      "el": 856,
      "à¶¸à¶«": 857,
      "à¶ľà¶ļ": 858,
      "Ġà¶īà¶³à¶±": 859,
      "à¶Ĵà¶ļ": 860,
      "à¶Ĩ": 861,
      "à¶Ĥ.": 862,
      "à·ĥà¶¯": 863,
      "Ġà¶ļà·ĥ": 864,
      "Ġn": 865,
      "à·Ģà¶ľ": 866,
      "à¶ºà·Ģà¶±": 867,
      "à¶¯à¶¸": 868,
      "Ġà¶ħà¶´à¶»": 869,
      "à·Ģà¶ºà¶ļ": 870,
      "il": 871,
      "Ġm": 872,
      "Ġà·ĥà¶¸à¶ľ": 873,
      "SA": 874,
      "à¶ļà¶Ń": 875,
      "à·ıà¶Ĥ": 876,
      "her": 877,
      "Ġà¶ºà·Ģà¶±": 878,
      "Ġà¶ĳà¶¸": 879,
      "à·Ħà·Ģ": 880,
      "ad": 881,
      "à¶»à¶´": 882,
      "à¶Ńà¶»à¶¸": 883,
      "Ġà¶ħà¶»à¶ľà¶±": 884,
      "à¶©à¶»": 885,
      "ĠG": 886,
      "Ġà·Ħà¶¯à·Ģà¶Ń": 887,
      "Ġà¶·à¶º": 888,
      "Ġà¶ħà¶ľ": 889,
      "Ġà¶»à¶§": 890,
      "ow": 891,
      "à·ĻâĢį": 892,
      "Ġà¶ºà¶§": 893,
      "Ġà¶Ĭà¶º": 894,
      "Ġà¶Ĩà·Ħ": 895,
      "Ġà¶ķà¶±à¶¯": 896,
      "à¶±à¶§à¶¸à¶Ń": 897,
      "Ġà¶ļà¶´": 898,
      "à¶¬": 899,
      "à¶ºà¶ļà¶º": 900,
      "à·Ĭ\"": 901,
      "à·Ģà¶ļà¶§": 902,
      "Ġà¶ļà¶®": 903,
      "ĠUSA": 904,
      "à¶Ńà¶ºà¶ļ": 905,
      "à¶Ńà¶±à¶§": 906,
      "Ġà¶¶à¶½à¶¸": 907,
      "Ġà¶ĭà¶±à¶Ń": 908,
      "Ġh": 909,
      "FF": 910,
      "à¶³à¶¸": 911,
      "Ġà¶Ĵà¶ļà¶º": 912,
      "à·Ģà¶½à¶§": 913,
      "Ġà¶ħà¶´à¶§": 914,
      "Ġà¶¸à¶»à¶½": 915,
      "Ġà¶ħà¶ºà¶§": 916,
      "Ġo": 917,
      "Ġà¶ħà·ħ": 918,
      "à¶³à·Ģ": 919,
      "Ġà¶Ķà¶¶à·Ģ": 920,
      "à¶¯à¶ºà¶ļ": 921,
      "Ġà¶ºà¶Ń": 922,
      "ĠH": 923,
      "Ġà¶ħà¶³": 924,
      "Ġà·Ħà¶½": 925,
      "us": 926,
      "à·ĳ..": 927,
      ".\"": 928,
      "Ġà¶ļà¶ļ": 929,
      "à·ĥà¶±à¶º": 930,
      "Ġà¶īà¶³à¶½": 931,
      "Ġà¶ĳà¶ļà¶º": 932,
      "Ġà¶ķà·Ħ": 933,
      "Ġà¶±à¶Ńà¶»": 934,
      "Ġà¶±à¶ľà¶»à¶º": 935,
      "à·Ĥà¶«à¶º": 936,
      "à¶Łà¶ļ": 937,
      "ĠL": 938,
      "Ġà¶ĳà¶¯": 939,
      "à¶°à¶ºà¶ļ": 940,
      "Ġà¶Ĩà¶ļ": 941,
      "à¶±à¶ļà¶§": 942,
      "Ġà¶Ńà·Ģà¶¸à¶Ń": 943,
      "à¶±à¶ºà¶§": 944,
      "à¶»à¶ľ": 945,
      "et": 946,
      "Ġà¶¶à·Ħ": 947,
      "ĠW": 948,
      "à¶½à¶´": 949,
      "à¶Ķà·Ģ": 950,
      "Ġà¶īà¶»": 951,
      "Ġà¶Ĩà¶ł": 952,
      "à¶»à¶ľà¶Ń": 953,
      "Ġà¶´à¶»à¶«": 954,
      "Ġy": 955,
      "Ġto": 956,
      "Ġà·ĥà¶º": 957,
      "Ġà¶īà¶¯à¶½": 958,
      "Ġà¶±à·Ģ": 959,
      "Ġ%": 960,
      "Ġà¶Ńà¶§": 961,
      "Ġà¶¶à¶¯": 962,
      "ct": 963,
      "ed": 964,
      "ĠE": 965,
      "Ġà¶´à¶»à¶ļ": 966,
      "Ġà¶ĩà¶¸à¶Ń": 967,
      "à·ĲâĢį": 968,
      "Ġà¶¶à¶½à¶º": 969,
      "à¶°à·Ģ": 970,
      "à¶ºà·ĥ": 971,
      "à¶Ńà¶±à¶º": 972,
      "000": 973,
      "ĠO": 974,
      "Ġà·Ģà¶»à¶¯": 975,
      "Ġà¶´à·Ģà¶Ń": 976,
      "à¶«à¶ľ": 977,
      "Ġà¶ħà·Ģà¶°": 978,
      "Ġà¶¸à¶»à¶«": 979,
      "Ġà¶±à¶ľà¶»": 980,
      "à¶¨": 981,
      "à·Ĭ-": 982,
      "à·Ļ...": 983,
      "à¶ĳà¶ļ": 984,
      "à¶»à¶§à¶Ń": 985,
      "Ġà¶ĩà¶¸à¶»": 986,
      "à¶±à¶»": 987,
      "Ġà¶ĩà¶Ł": 988,
      "à¶¸à·ĥ": 989,
      "ay": 990,
      "Ġ7": 991,
      "à¶ķ": 992,
      "à·ħà¶§": 993,
      "and": 994,
      "Ġà¶Ķà¶ºà¶º": 995,
      "Ġà¶ºà¶º": 996,
      "**": 997,
      "à¶¢à¶ļ": 998,
      "Ġà¶Ńà·Ģà¶¸": 999,
      "Ġyou": 1000,
      "à¶§à·ĥà¶ļ": 1001,
      "à¶«à¶Ń": 1002,
      "à¶Ńà¶Ń": 1003,
      "Ġà¶½à¶¸à¶º": 1004,
      "Ġà¶¸à¶Ńà¶ļà¶º": 1005,
      "am": 1006,
      "Ġà¶ĭà¶©à¶§": 1007,
      "Ġà·ĥà¶ļ": 1008,
      "Ġà¶ħà·Ģà·ĥà¶±": 1009,
      "à¶ºà·ħ": 1010,
      "à·ľâĢį": 1011,
      "à·ĲâĪĻ": 1012,
      "Ġg": 1013,
      "Ġà¶Ĩà¶»à¶¸": 1014,
      "Ġà¶Ķà¶¶à¶ľ": 1015,
      "Ġà¶¶à¶½à¶±à·Ģ": 1016,
      "ot": 1017,
      "à¶½à¶°": 1018,
      "à·ģà¶ļ": 1019,
      "à¶«à¶±": 1020,
      "Ġà¶´à¶¸": 1021,
      "Ġà¶ºà¶¸à¶ļ": 1022,
      "Ġà¶īà¶½à¶ļ": 1023,
      "à·ĥà¶»à·Ħ": 1024,
      "à¶¸à¶ºà¶ļ": 1025,
      "à¶łà¶»à¶º": 1026,
      "Ġ20": 1027,
      "Ġà¶¯à¶Ń": 1028,
      "Ġà¶ĭà¶ľ": 1029,
      "à¶©à¶ºà¶ļ": 1030,
      "à·Ĳ!": 1031,
      "Ġà·ĥà¶§": 1032,
      "Ġà¶ĩà¶ºà¶ľ": 1033,
      "Ġ9": 1034,
      "à¶Ńà¶±à·Ģà¶¯": 1035,
      "à·Ĥà¶ļà¶º": 1036,
      "Ġà¶Ķà¶§": 1037,
      "à¶¯à¶»à¶§": 1038,
      "à¶¸à¶½": 1039,
      "Ġ8": 1040,
      "Ġà¶Ĩà·ĥ": 1041,
      "Ġà¶½à¶º": 1042,
      "à¶ļà·Ģà¶¸": 1043,
      "Ġà¶ļà¶»à¶ľà¶Ń": 1044,
      "Ġà¶¶à·Ģà¶§": 1045,
      "à¶Ķà·Ħ": 1046,
      "Ġà¶Ńà¶¯": 1047,
      "ĠJ": 1048,
      "à·Ķ...": 1049,
      "Ġà·Ģà¶łà¶±": 1050,
      "à¶¶à¶©": 1051,
      "Ġà¶Ķà¶´": 1052,
      "à¶ļà¶»à¶±à·Ģ": 1053,
      "à¶Ĵà¶Ń": 1054,
      "à·ĵ!": 1055,
      "à¶»à·Ģà¶½": 1056,
      "Ġà¶ĭà¶´à¶¯": 1057,
      "Ġà¶Ńà¶»à·Ħ": 1058,
      "Ġà·ĥà¶¸à¶Ł": 1059,
      "à·Ĭ:": 1060,
      "à·ı\"": 1061,
      "Ġà¶¸à·ĥ": 1062,
      "Ġà¶īà·Ħ": 1063,
      "à¶±à·Ģà¶§": 1064,
      "ment": 1065,
      "Ġst": 1066,
      "à·Ļà·Ļ": 1067,
      "à·ľ.": 1068,
      "Ġà¶Ĭà·ħ": 1069,
      "Ġà¶¸à¶°": 1070,
      "Ġà·Ģà·Ħà¶½": 1071,
      "Ġ12": 1072,
      "Ġà¶ħà·Ħà¶½": 1073,
      "Ġà·Ħà¶»à·Ħ": 1074,
      "à¶»à¶ºà¶±": 1075,
      "à¶ºà¶¸à¶ļ": 1076,
      "Ġà¶Ķà¶Ńà¶±": 1077,
      "Ġà·Ħà¶¯à¶±à·Ģ": 1078,
      "Ġà¶±à¶©": 1079,
      "Ġà¶Ĩà¶Ń": 1080,
      "Ġ....": 1081,
      "ro": 1082,
      "Ġà¶Ńà¶½": 1083,
      "Ġà¶¶à·ĥ": 1084,
      "à·Ĭ)": 1085,
      "à·Ģà¶ºà¶§": 1086,
      "à¶Ńà¶ļà¶§": 1087,
      "Ġà¶Ŀ": 1088,
      "à¶»à¶ºà¶§": 1089,
      "Ġà¶ľà¶«à¶±": 1090,
      "à¶ļà¶»à¶«": 1091,
      "à·Ģà¶¸à¶±": 1092,
      "à¶»à¶ļà¶®": 1093,
      "ab": 1094,
      "Ġà¶ĩà¶¸": 1095,
      "Ġà¶ħà·Ģà·ĥà¶»": 1096,
      "Ġà¶¸à¶»à¶«à¶º": 1097,
      "à·Ĵà·Ļ": 1098,
      "ve": 1099,
      "Ġà¶ĭà¶¶à¶§": 1100,
      "Ġà·Ħà¶¯à¶½": 1101,
      "à·ĥà¶Ń": 1102,
      "Ġà¶ħà·Ģà¶¯": 1103,
      "Ġà¶´à·Ħà¶Ń": 1104,
      "Ġà¶Īà¶Ń": 1105,
      "Ġà¶¸à¶¯": 1106,
      "à·ĥà¶ºà¶ļ": 1107,
      "ĠMr": 1108,
      "Ġof": 1109,
      "Ġà¶ºà¶§à¶Ń": 1110,
      "Ġà·Ħà¶³": 1111,
      "à·ĵ?": 1112,
      "à¶±à¶ļà¶±": 1113,
      "Ġ15": 1114,
      "ac": 1115,
      "Ġfor": 1116,
      "th": 1117,
      "Ġà·ĥà·Ħà¶Ń": 1118,
      "à·Ļ!": 1119,
      "Ġà¶¸à·Ģ": 1120,
      "Ġà¶ķà¶±à¶¸": 1121,
      "Ġà¶Ńà·Ģà¶¯": 1122,
      "Ġà¶ĭà¶´à¶±": 1123,
      "à¶¥à¶º": 1124,
      "à¶«à¶§": 1125,
      "à¶¸à¶ļà¶§": 1126,
      "à¶±à·Ģà¶±à¶¸": 1127,
      "ran": 1128,
      "Ġà¶Ĩà·Ģà¶»": 1129,
      "ur": 1130,
      "à·Ŀ...": 1131,
      "à¶¯à¶±à¶º": 1132,
      "à¶±à·Ģà·Ħà¶»": 1133,
      "à¶°à¶±": 1134,
      "Ġà·Ģà¶ľà¶ļ": 1135,
      "eat": 1136,
      "ĠâĻ«": 1137,
      "Ġà¶¸à¶Ńà¶ļà¶¯": 1138,
      "à·ĥà¶±à¶ļ": 1139,
      "Ġà¶Ķà¶Ń": 1140,
      "à¶´à¶±à¶º": 1141,
      "un": 1142,
      "Ġà¶ħà¶Ńà¶±": 1143,
      "Ġà·Ģà¶ºà·ĥ": 1144,
      "à¶ľà¶Ńà¶º": 1145,
      "Ġà·Ħà¶Ń": 1146,
      "Ġà¶¯à¶©": 1147,
      "à¶³à¶§à¶¸": 1148,
      "Ġà¶ļà¶½à¶¶à¶½": 1149,
      "à¶Ķà¶¶": 1150,
      "Ġà¶ĭà¶¹à¶½": 1151,
      "Ġà¶¶à¶ºà·Ģ": 1152,
      "Ġà¶Įà·Ģ": 1153,
      "Ġà¶«": 1154,
      "Ġà·Ģà¶ľà¶ºà¶ļ": 1155,
      "ec": 1156,
      "à¶¸à¶»à¶º": 1157,
      "à¶ļà¶»à¶«à¶º": 1158,
      "Ġà¶ľà·ĥ": 1159,
      "à¶©à·ĥà¶§": 1160,
      "Ġà·Ģà·ģà¶º": 1161,
      "Ġà·Ģà¶½à¶¯": 1162,
      "à¶½à¶±à·Ģ": 1163,
      "à·ħà¶ļ": 1164,
      "Ġà¶´à·ħà¶¸": 1165,
      "Ġà·Ħà¶Ńà¶»": 1166,
      "Ġà¶ĳà¶»": 1167,
      "à¶½à¶Ł": 1168,
      "Ġà¶ĳà·Ģà¶±": 1169,
      "ut": 1170,
      "Ġ30": 1171,
      "à¶Ńà¶´": 1172,
      "à·ļâĢį": 1173,
      "Ġà¶¯à·Ħ": 1174,
      "à¶½à¶ºà¶§": 1175,
      "Ġà¶±à¶º": 1176,
      "à¶¢à¶º": 1177,
      "à¶»à¶´à¶§": 1178,
      "Ġà¶´à¶½à·Ģ": 1179,
      "Ġà¶ħà¶«": 1180,
      "à·ģà¶±": 1181,
      "à¶¢à¶±à¶º": 1182,
      "ri": 1183,
      "à¶¶à¶º": 1184,
      "à·Ķ?": 1185,
      "Ġà¶ľà¶»": 1186,
      "à¶»à¶«à¶ºà¶ļ": 1187,
      "Ġà¶¢à¶º": 1188,
      "Ġà¶ĳà¶ºà¶Ń": 1189,
      "Ġà¶ļà¶»à¶¯à¶»à¶ºà¶ļ": 1190,
      "Ġà¶ĳà¶©": 1191,
      "Ġà¶Ĩà¶½": 1192,
      "Ġà¶Ĭà¶½à¶ľ": 1193,
      "à·ı.\"": 1194,
      "ĠâĢ": 1195,
      "Ġà¶¶à¶½à¶´": 1196,
      "eather": 1197,
      "à·ģà¶±à¶º": 1198,
      "à·Ģà·Ģ": 1199,
      "à¶ľà¶»": 1200,
      "à¶ļà¶¸à¶ļ": 1201,
      "Ġth": 1202,
      "à·²": 1203,
      "à¶ļà¶ľ": 1204,
      "Ġà¶½à¶ľà¶§": 1205,
      "cH": 1206,
      "à¶Ĥ,": 1207,
      "à¶»à¶±à·Ģ": 1208,
      "à·Ĳ..": 1209,
      "à¶ļà¶ļà¶§": 1210,
      "à¶Ńà¶ºà¶§": 1211,
      "à·Ħà¶Ń": 1212,
      "à¶±à¶§à¶¸": 1213,
      "à¶»à·Ģà¶±": 1214,
      "Ġà¶¸à·Ħà¶±": 1215,
      "à¶Ńà¶ľ": 1216,
      "Ġà¶´à¶º": 1217,
      "Ġà¶´à·Ħà¶½à¶§": 1218,
      "Ġà·ĥà¶¯à·Ħ": 1219,
      "Ġà¶Ĩà¶´à·ĥ": 1220,
      "Ġà¶Ĩà·ģ": 1221,
      "Ġ19": 1222,
      "Ġà¶´à·Ħà¶½": 1223,
      "Ġà·Ģà·Ħà¶±": 1224,
      "Ġà¶ĳà¶ļà¶Ł": 1225,
      "Ġà¶ĭà¶¹à·Ģ": 1226,
      "Ġà·Ħà¶±": 1227,
      "Ġà¶Ķà·ħ": 1228,
      "ate": 1229,
      "à·Ĳ...": 1230,
      "Ġà¶ĭà¶ľà¶±": 1231,
      "Ġà¶´à·Ħà¶ļ": 1232,
      "Ġà¶ºà¶±à·Ģà¶¯": 1233,
      "Ġ@": 1234,
      "Ġà¶¶à¶§": 1235,
      "Ġà¶ĳà¶Ńà¶±à¶§": 1236,
      "Ġà¶ħà·ģ": 1237,
      "Ġ[": 1238,
      "à¶°à¶ļ": 1239,
      "Ġà¶±à¶¸à¶ļ": 1240,
      "Ġà¶ĳà·ĥ": 1241,
      "Ġà¶¸à¶»à¶±à·Ģ": 1242,
      "Ġà·Ģà·ĥà¶»": 1243,
      "à¶¶à¶³": 1244,
      "Ġà¶īà¶¸": 1245,
      "Ġà¶§à¶º": 1246,
      "Ġà¶īà·Ģà¶»à¶ºà¶ļ": 1247,
      "os": 1248,
      "à¶ľà¶½à¶º": 1249,
      "Ġà¶ħà¶Ńà¶§": 1250,
      "à¶¶à¶¯": 1251,
      "Ġ100": 1252,
      "Ġà¶ħà¶»à¶ļ": 1253,
      "Ġà¶Ńà¶»à¶Ł": 1254,
      "à¶©à¶ļà¶§": 1255,
      "à¶ļà¶´": 1256,
      "à¶»à·Ģà¶º": 1257,
      "à¶½à¶½": 1258,
      "ĠCan": 1259,
      "Ġà¶Ĵà¶ľ": 1260,
      "Ġà¶ļà¶»à·Ģà¶±": 1261,
      "Ġà¶Ńà·Ħà·Ģ": 1262,
      "Ġà¶ħà¶ľà¶º": 1263,
      "Ġà¶¯à¶¸": 1264,
      "ada": 1265,
      "à¶½à¶ľà¶Ń": 1266,
      "à·Ĵ.\"": 1267,
      "à¶¢à¶»": 1268,
      "Ġà¶Ĭà¶½à¶Ł": 1269,
      "Ġà¶¸à¶±à·ĥ": 1270,
      "à·Ģà¶§à¶¸": 1271,
      "Ġà¶Ĭà·ħà¶Ł": 1272,
      "Ġà¶Ĵà¶ļà¶Ń": 1273,
      "Ġme": 1274,
      "ey": 1275,
      "Ġ{": 1276,
      "à¶±à·Ħ": 1277,
      "Ġà¶´à·Ħà·ĥ": 1278,
      "ce": 1279,
      "à¶Ŀ": 1280,
      "à·ĥà¶³": 1281,
      "Ġà¶¶à¶½à¶½": 1282,
      "omment": 1283,
      "Ġà¶īà¶´à¶¯": 1284,
      "à¶¢à¶½": 1285,
      "à¶»à¶¸à¶ºà¶ļ": 1286,
      "Ġà¶´à·ħà·Ģ": 1287,
      "Ġà¶Ķà¶¶à¶½": 1288,
      "Ġà¶ħà¶Ł": 1289,
      "à·ĻâĪĻ": 1290,
      "Ġà¶¶à¶³": 1291,
      "ain": 1292,
      "à¶ľà¶§": 1293,
      "à¶¯à¶§à¶¸": 1294,
      "à¶¯à·Ħà¶±": 1295,
      "Ġà¶ĳà¶±à¶ļà¶¸": 1296,
      "Ġà¶ħà¶»à¶¸": 1297,
      "Ġà¶ĭà¶´à¶»": 1298,
      "Ġit": 1299,
      "Ġà¶ħà¶ºà¶ľ": 1300,
      "à·Ĵà¶Ĥ,": 1301,
      "à¶ľà·ĥ": 1302,
      "à·Ģà¶Ńà¶Ń": 1303,
      "Ġà·ģà¶»": 1304,
      "Ġà¶īà·Ģ": 1305,
      "à·Ĵ\"": 1306,
      "Ġweather": 1307,
      "Ġà¶ĩà¶»à¶½": 1308,
      "à¶®à¶ļ": 1309,
      "ir": 1310,
      "à¶±à¶ļà¶º": 1311,
      "à·ĬâĪĻâĪĻâĪĻ": 1312,
      "Ġname": 1313,
      "à¶©à·ĥà¶§à·Ħà¶±": 1314,
      "Comment": 1315,
      "Ġà¶Ĭà¶§à¶´à·ĥ": 1316,
      "à¶ĩà¶º": 1317,
      "ag": 1318,
      "à·Ħà¶ľ": 1319,
      "à¶ħà¶±": 1320,
      "Ġà·Ħà·Ģ": 1321,
      "à·Ĭ.\"": 1322,
      "à¶©à¶§": 1323,
      "Ġà¶łà¶±": 1324,
      "ast": 1325,
      "Ġà¶ħà¶ºà·Ģ": 1326,
      "à¶ħà¶©": 1327,
      "Ġ200": 1328,
      "à·Ļ..": 1329,
      "Ġà¶Ķà·ĥ": 1330,
      "à·ĵ...": 1331,
      "Ġ50": 1332,
      "Ġà¶ĳà¶±à·Ģà¶¯": 1333,
      "Ġà¶ĭà·ĥà·ĥ": 1334,
      "ĠCanada": 1335,
      "Ġà·Ģà·Ħà¶ľà¶±": 1336,
      "Ġà·ĥà¶§à·Ħà¶±": 1337,
      "Ġà¶ľà¶¶à¶©": 1338,
      "Ġà·ĥà·Ħà¶º": 1339,
      "Ġà·ĥà¶´à¶Ń": 1340,
      "Ġà¶ºà·Ħ": 1341,
      "Ġis": 1342,
      "Ġà¶ĩà¶¯à¶½": 1343,
      "Ġà¶ľà·Ħà¶±à·Ģ": 1344,
      "Ġà¶ľà·Ħà¶½": 1345,
      "Ġà¶±à¶»": 1346,
      "Ġà¶Ķà¶ºà¶ľ": 1347,
      "à¶®à¶º": 1348,
      "Ġà¶ħà·Ħà¶±à·Ģ": 1349,
      "Ġà¶Ľ": 1350,
      "id": 1351,
      "à¶ºà·Ģà¶»": 1352,
      "Ġà¶ļà¶§à¶º": 1353,
      "à·Ļà·Ķ": 1354,
      "Ġà¶»à¶¢à¶º": 1355,
      "Ġà¶¡": 1356,
      "à·ĥà¶»à·Ħà¶§": 1357,
      "Ġà¶ĭà·Ģà¶¸à¶±": 1358,
      "Ġà¶Įà¶§": 1359,
      "Ġà¶Ĩà¶©à¶¸": 1360,
      "à·ģà¶ºà¶ļ": 1361,
      "à¶ĳà·Ħ": 1362,
      "à·ģà¶´": 1363,
      "Ġà¶ļà¶³": 1364,
      "à¶ļà¶»à¶ľà¶±": 1365,
      "à¶īà¶±": 1366,
      "Ġr": 1367,
      "à¶łà¶½": 1368,
      "à·ıà·Ļ": 1369,
      "à¶±à·ĥà¶ļ": 1370,
      "Ġà¶µ": 1371,
      "em": 1372,
      "st": 1373,
      "od": 1374,
      "ĠY": 1375,
      "à¶¯à¶ľ": 1376,
      "Ġà¶ħà·Ħà¶ļà¶§": 1377,
      "à·ıâĪĻâĪĻâĪĻ": 1378,
      "ĠCh": 1379,
      "um": 1380,
      "à¶ºà¶½à¶º": 1381,
      "Ġà¶ļà¶»à¶¯": 1382,
      "à·Ĥà¶«à¶ºà¶ļ": 1383,
      "à¶»à¶¸à¶º": 1384,
      "à¶©à¶ļà¶»à¶±": 1385,
      "Ġà¶ĩà¶§": 1386,
      "ew": 1387,
      "Ġ/": 1388,
      "Ġà¶»à¶«": 1389,
      "à¶ļà¶©": 1390,
      "Ġà¶¶à¶©à¶ľ": 1391,
      "à¶´à·Ģ": 1392,
      "pp": 1393,
      "ent": 1394,
      "à¶ºà¶´à¶±": 1395,
      "à·Ķ..": 1396,
      "Ġà·Ħà·Ħ": 1397,
      "à¶´à¶»à¶ºà¶ļ": 1398,
      "à¶¶à¶§": 1399,
      "Ġà¶Ķà¶ł": 1400,
      "à¶½à¶ļà¶º": 1401,
      "ction": 1402,
      "Ġà·Ģà¶¸": 1403,
      "Ġà¶¶à¶ºà¶º": 1404,
      "à¶ļà¶ºà¶±": 1405,
      "Ġà¶Ńà¶¶": 1406,
      "Ġà¶ĳà¶ļà¶´": 1407,
      "Ġà¶´à¶«à¶´": 1408,
      "Ġà¶±à¶§à¶±": 1409,
      "Ġà¶Ĵà¶ļà¶±à¶¸": 1410,
      "Ġcon": 1411,
      "BI": 1412,
      "ak": 1413,
      "ist": 1414,
      "if": 1415,
      "Ġà¶ľà·Ģ": 1416,
      "oc": 1417,
      "Ġà¶Ĩà¶¯": 1418,
      "Ġà¶»à¶º": 1419,
      "ĠV": 1420,
      "Ġà¶īà·Ħà¶½": 1421,
      "à·Ĥà¶±": 1422,
      "Ġà¶łà¶»": 1423,
      "à¶¯à·Ģà¶±": 1424,
      "Ġà¶½à¶±": 1425,
      "Ġà·ĥà·Ģ": 1426,
      "à¶ĩà¶Ń": 1427,
      "ig": 1428,
      "ll": 1429,
      "à¶§à¶ľ": 1430,
      "Ġà¶´à¶ļ": 1431,
      "à¶¶à·Ħ": 1432,
      "Ġà¶ħà·Ħà¶ľà¶±": 1433,
      "ill": 1434,
      "Ġon": 1435,
      "Ġà¶½à·Ģ": 1436,
      "à¶ĭà¶±": 1437,
      "Ġà¶»à¶ļ": 1438,
      "Ġà¶Ķà¶¶à¶Ń": 1439,
      "à¶¡": 1440,
      "Ġà¶Ĩà·Ģà¶»à¶«à¶º": 1441,
      "Ġà·Ħà¶Ńà¶»à¶ļ": 1442,
      "à¶±à¶±à·Ģ": 1443,
      "à·Ķà·Ļ": 1444,
      "op": 1445,
      "Ġ-âĢį": 1446,
      "à¶ļà·Ģà¶Ń": 1447,
      "ess": 1448,
      "Ġà·Ħà¶¯à¶´": 1449,
      "à¶Ńà¶»à¶ºà¶ļ": 1450,
      "Ġ)": 1451,
      "Ġà¶ļà¶¯": 1452,
      "Ġà¶ĳà¶ļà¶¯": 1453,
      "à·Ģà¶ļà¶º": 1454,
      "Ġà·Ģà¶łà¶±à¶ºà¶ļ": 1455,
      "à·Ħà¶±à¶º": 1456,
      "à¶¯à¶¯": 1457,
      "Ġà¶ľà¶±à¶±": 1458,
      "Ġà¶Ĩà·ĥà¶±": 1459,
      "ers": 1460,
      "Ġà¶Ķà¶»à¶½": 1461,
      "Ġà¶īà¶§": 1462,
      "Ġ{\\": 1463,
      "à·Ģà·Ħ": 1464,
      "Ġà¶½à¶Łà¶§": 1465,
      "ĠFBI": 1466,
      "Ġà¶¢à¶ºà¶ľ": 1467,
      "Ġà¶ĭà¶´à¶ļà¶»à¶«": 1468,
      "qu": 1469,
      "à¶ļà¶ºà¶§": 1470,
      "Ġà¶ĭà¶´à·ĥ": 1471,
      "Ġà¶ķà·Ģ": 1472,
      "à·ģà¶ļà¶º": 1473,
      "art": 1474,
      "Ġà·Ģà¶»à¶¯à¶ļ": 1475,
      "ch": 1476,
      "nd": 1477,
      "Ġà¶ĭà¶»": 1478,
      "Ġ11": 1479,
      "à¶ļà·ħ": 1480,
      "Ġà¶ºà¶¯": 1481,
      "à¶¸à¶ºà¶§": 1482,
      "à¶¸à·Ħà¶»": 1483,
      "Ġà¶±à¶¸à¶º": 1484,
      "Ġà¶¯à¶©à¶ºà¶¸": 1485,
      "dit": 1486,
      "à¶ĳà¶±": 1487,
      "ex": 1488,
      "Ġà¶ļà¶©à¶±": 1489,
      "Ġà¶´à·Ħà¶»à¶¯": 1490,
      "ee": 1491,
      "Ġ0": 1492,
      "Ġà¶ħà¶§": 1493,
      "Ġà·Ħà·ĥ": 1494,
      "à·ĵâĢį": 1495,
      "à·Ŀ..": 1496,
      "Ġà¶¸à¶ļ": 1497,
      "Ġà·ĥà¶·": 1498,
      "ĠâĢĶ": 1499,
      "sl": 1500,
      "à¶»à¶ļà¶º": 1501,
      "à¶¸à¶±à¶§à¶¸": 1502,
      "Ġà¶ħà·ĥà¶±": 1503,
      "Ġà¶ĳà¶ļà¶ļà¶§": 1504,
      "Ġà¶´à¶½à¶ºà¶±": 1505,
      "à¶´à¶ºà¶ļà¶§": 1506,
      "à·Ħà¶±à¶¸": 1507,
      "im": 1508,
      "Ġà¶ħà¶´à·Ħà·ĥ": 1509,
      "Ġà¶īà¶©à¶¯": 1510,
      "Ġà¶¯à¶¸à¶±": 1511,
      "all": 1512,
      "à¶®à¶±": 1513,
      "ev": 1514,
      "à·ĳ?": 1515,
      "à·ħà¶º": 1516,
      "Ġà·Ģà·Ħà¶±à·Ģ": 1517,
      "Ġà¶¸à·ħ": 1518,
      "ĠKD": 1519,
      "Ġà¶ħà¶ļà¶¸": 1520,
      "Ġ13": 1521,
      "ount": 1522,
      "Ġv": 1523,
      "Ġà·ĥà¶ļà·ĥ": 1524,
      "Ġà¶Ĵà¶ļà¶±": 1525,
      "à·ľ,": 1526,
      "à·Ģà¶±à¶¸": 1527,
      "):": 1528,
      "Ġar": 1529,
      "à¶§à¶´à¶Ń": 1530,
      "cHFF": 1531,
      "Ġà·ģà¶¶": 1532,
      "Ġà¶ļà¶³à·Ģ": 1533,
      "Ġà¶¶à¶»à¶´à¶Ń": 1534,
      "av": 1535,
      "à¶»à¶®": 1536,
      "Ġà¶ħà¶¸à¶±": 1537,
      "Ġà¶´à¶´": 1538,
      "pe": 1539,
      "ub": 1540,
      "à¶ºà¶¯à¶¸": 1541,
      "à¶»à¶ļà¶§": 1542,
      "Ġà¶¯à·Ģà¶½": 1543,
      "à¶Ĥ!": 1544,
      "Ġ25": 1545,
      "à¶½à¶ļà¶§": 1546,
      "Ġà¶±à¶»à¶ļà¶º": 1547,
      "à¶§à¶§": 1548,
      "Ġà¶ĭà¶½": 1549,
      "à¶łà¶º": 1550,
      "Ġà¶´à¶¸à¶«à¶ļ": 1551,
      "Ġà¶Ĩà·ĥà¶º": 1552,
      "à¶¶à¶ºà¶ļ": 1553,
      "Ġre": 1554,
      "Ġ40": 1555,
      "Ġà¶¢à¶±à¶Ń": 1556,
      "ind": 1557,
      "ard": 1558,
      "Ġà¶´à¶¸à¶«à¶º": 1559,
      "Ġà¶´à¶©": 1560,
      "Ġà¶ħà·Ħà·ĥ": 1561,
      "à¶»à¶ļà¶®à¶±à¶º": 1562,
      "ation": 1563,
      "à¶ļà¶ľà¶±": 1564,
      "à¶«à·Ģà¶Ń": 1565,
      "'s": 1566,
      "Ġà¶Ķà·Ĩ": 1567,
      "à·Ĵ-": 1568,
      "à¶§à·Ħà¶»": 1569,
      "à¶»à¶§à¶¸": 1570,
      "à¶ľà·Ģà¶Ń": 1571,
      "à·ħà¶Ń": 1572,
      "Ġà¶¯à¶ºà¶ļ": 1573,
      "Ġà·ĥà¶´": 1574,
      "Ġand": 1575,
      "à¶ľà¶¸à¶±": 1576,
      "à¶łà¶±": 1577,
      "ome": 1578,
      "ry": 1579,
      "Ġà¶¢à¶±à¶´": 1580,
      "à¶»à·Ħà·ĥ": 1581,
      "à¶ºà¶¸à¶±": 1582,
      "Ġà¶¸à¶«": 1583,
      "à¶§à·ħ": 1584,
      "Ġà¶Ĵà¶ļà¶¯": 1585,
      "ĠKDE": 1586,
      "ha": 1587,
      "à¶±à¶ºà¶±": 1588,
      "à·Ĵ)": 1589,
      "Ġà·Ĥà¶»": 1590,
      "Ġà¶½à¶¶à¶±": 1591,
      "à¶ļà¶§à¶¸": 1592,
      "Ġà¶ħà·ĥà¶»": 1593,
      "Ġà¶¯à·Ħà·ĥ": 1594,
      "à·ħà¶³": 1595,
      "Ġà¶´à¶»à¶¯": 1596,
      "à¶¤": 1597,
      "Ġ16": 1598,
      "à¶ľà¶´": 1599,
      "Ġà¶±à¶´": 1600,
      "Ġà·Ħà·Ģà·ĥ": 1601,
      "Ġforec": 1602,
      "Ġforecast": 1603,
      "à¶Ńà¶½à¶º": 1604,
      "à·ħà·Ģ": 1605,
      "à·ħà¶°": 1606,
      "à·Ļà·ļ": 1607,
      "Ġà¶ļà¶´à¶±": 1608,
      "Ġà¶Ĩà·Ģà¶¸": 1609,
      "Ġà¶»à·Ģ": 1610,
      "ort": 1611,
      "\\\\": 1612,
      "Ġà¶Ĩà·Ģà¶¯": 1613,
      "Ġtran": 1614,
      "Ġà¶±à¶±": 1615,
      "Ġà¶Ĩà¶°": 1616,
      "Ġ24": 1617,
      "Ġinf": 1618,
      "ff": 1619,
      "à·Ģà¶´": 1620,
      "Ġà¶ļà¶»à¶´à¶±": 1621,
      "Ġà¶»à¶¸": 1622,
      "ep": 1623,
      "ton": 1624,
      "à¶ºà¶ºà¶±": 1625,
      "à¶ļà¶ł": 1626,
      "à·Ħà¶©": 1627,
      "à¶½à¶¶": 1628,
      "Ġà¶¶à·Ģà¶ļ": 1629,
      "Ġà¶¸à¶ľà·Ħ": 1630,
      "Ġ14": 1631,
      "Ġà·Ģà¶¯à·Ģ": 1632,
      "dition": 1633,
      "Ġà¶ĩà¶¶": 1634,
      "ĠX": 1635,
      "à·ı:": 1636,
      "Ġà·Ħà¶©": 1637,
      "à¶¹à¶±": 1638,
      "Ġà¶ĩà¶¯à¶ľ": 1639,
      "Ġbe": 1640,
      "Ġà¶ļà¶´à¶½": 1641,
      "à·ĬâĢį,": 1642,
      "Ġà¶´à·Ħà·ħ": 1643,
      "ul": 1644,
      "à¶©à¶¶": 1645,
      "Ġà¶ħà¶ºà¶Ń": 1646,
      "ĠAl": 1647,
      "à¶´à¶ļ": 1648,
      "Ġà·Ħà¶»à·Ģà¶±": 1649,
      "ong": 1650,
      "ĠJo": 1651,
      "Ġà¶ĭà¶¸": 1652,
      "à¶ļà¶»à¶´": 1653,
      "à·ĥà·Ģ": 1654,
      "à·Ĭ--": 1655,
      "à¶»à¶ļà¶®à¶±": 1656,
      "à¶±à¶´": 1657,
      "à¶·à¶º": 1658,
      "Ġà¶Ńà¶ļ": 1659,
      "Ġà¶¶à¶½à·Ģà¶Ń": 1660,
      "Ġà·Ģà·ĥà¶±": 1661,
      "à¶ľà·Ģ": 1662,
      "Ġà¶īà·Ħà·ħ": 1663,
      "à¶Ńà¶±à¶¸": 1664,
      "Ġà¶»à¶Ł": 1665,
      "à·ĶâĪĻ": 1666,
      "à¶Ńà¶±à¶¯": 1667,
      "Ġcondition": 1668,
      "Ġà¶»à¶®": 1669,
      "Ġà¶ħà¶»à¶ľà¶Ń": 1670,
      "à·Ĥà¶ºà¶ļ": 1671,
      "à¶±à¶±à¶¸": 1672,
      "Ġà¶½à¶¯": 1673,
      "Ġà¶ħà¶Ńà¶»à¶¸": 1674,
      "Ġà¶¸à¶§à¶º": 1675,
      "à¶Ĥ...": 1676,
      "Ġà·ħà¶Łà¶§": 1677,
      "à¶īà¶Ń": 1678,
      "pt": 1679,
      "à¶±à·Ģà¶½": 1680,
      "Ġà¶ĳà¶±à¶ļ": 1681,
      "Ġtransl": 1682,
      "à¶³à¶ļ": 1683,
      "à¶»à¶ļà¶»": 1684,
      "Ġ18": 1685,
      "ert": 1686,
      "Ġà¶Ńà¶»à¶ľ": 1687,
      "ea": 1688,
      "ob": 1689,
      "à¶Ĭ": 1690,
      "à¶ļà¶»à¶¸": 1691,
      "Ġà¶ĭà¶±à¶±": 1692,
      "Ġà¶ĭà¶´à¶ļ": 1693,
      "à¶½à¶¸à¶ļ": 1694,
      "Ġà¶ļà¶¶": 1695,
      "ack": 1696,
      "à¶ºà¶¸à¶§": 1697,
      "Ġà¶¸à¶©": 1698,
      "Ġà¶ļà¶»à¶Ń": 1699,
      "à¶°à¶±à¶º": 1700,
      "Ġ**": 1701,
      "à¶±à¶¸à¶º": 1702,
      "Ġà¶ħà¶Ńà·Ħ": 1703,
      "Ġhe": 1704,
      "Ġà¶Ńà·Ħà¶±à¶¸": 1705,
      "à¶¢à¶±à¶ºà¶ļ": 1706,
      "à¶¸à¶«à¶§": 1707,
      "à¶ħà¶¸": 1708,
      "à¶ķà¶±": 1709,
      "Ġà¶±à¶½": 1710,
      "Ġà·ĥà¶½à¶ļà¶±": 1711,
      "Ġà·ĥà¶ļà·ĥà¶±": 1712,
      "Ġinfo": 1713,
      "Ġà¶ħà¶¶": 1714,
      "Ġà¶ľà¶½à·Ģà¶±": 1715,
      "Ġà¶īà¶³à¶ľà¶±": 1716,
      "à¶ºà¶ºà¶ļ": 1717,
      "Ġà·Ģà¶»à¶ļ": 1718,
      "Ġà¶īà¶¯à¶ľà¶±": 1719,
      "Ġare": 1720,
      "Ġà·Ħà¶´": 1721,
      "Ġà¶´à¶»à¶¸": 1722,
      "Ġà¶ħà·Ģà¶¸": 1723,
      "Ġor": 1724,
      "Ġà·Ħà¶§": 1725,
      "à¶ºà¶±à¶¸": 1726,
      "Ġà·Ģà¶łà¶±à¶º": 1727,
      "Ġà¶¶à¶§à·Ħ": 1728,
      "Ġ00": 1729,
      "Ġà·ĥà¶¶": 1730,
      "Ġà¶¶à¶½à¶´à¶Ń": 1731,
      "à¶¸à¶»à¶ºà¶§": 1732,
      "Ġà¶ħà·ĥà¶¸à¶Ń": 1733,
      "Ġà¶±à¶»à¶ļà¶¸": 1734,
      "rit": 1735,
      "à¶µ": 1736,
      "Ġà¶ľà¶½à·Ģ": 1737,
      "Ġà¶¸à¶»à¶´": 1738,
      "hn": 1739,
      "Ġà¶ħà¶¬": 1740,
      "à¶´à¶Ńà¶§": 1741,
      "Ġà¶Ĵà¶¢à¶±": 1742,
      "à·ĵ..": 1743,
      "Ġà¶¶à¶½à¶ļ": 1744,
      "Ġà¶ļà¶±à·Ģ": 1745,
      "Ġà¶ħà¶±à¶±": 1746,
      "Ġà¶ħà·Ħà¶ľ": 1747,
      "eg": 1748,
      "Ġà¶īà·Ģà·ĥ": 1749,
      "Ġà¶ļà¶±à¶ľ": 1750,
      "à·ħà¶¯": 1751,
      "à¶±à¶ļà¶½": 1752,
      "à¶ħà¶»": 1753,
      "à¶ļà¶¸à¶§": 1754,
      "à¶ľà¶¸à¶±à¶º": 1755,
      "à·Ģà¶·": 1756,
      "Ġà¶¶à¶½à¶´à¶±": 1757,
      "à·Ĩà¶»": 1758,
      "Ġà·Ĩà¶º": 1759,
      "Ġà¶¯à·Ħà¶ºà¶ļ": 1760,
      "Ġà¶ĳà·Ħà¶±": 1761,
      "Ġà¶´à·Ħà·ħà¶§": 1762,
      "Ġ'%": 1763,
      "ai": 1764,
      "ian": 1765,
      "Ġà·Ħà¶¬": 1766,
      "à·ģà¶¶": 1767,
      "à·ģà¶ºà¶§": 1768,
      "Ġà¶¢à·ĥ": 1769,
      "à¶ļà¶»à¶ľ": 1770,
      "à¶§à¶»à¶º": 1771,
      "à¶©à¶½": 1772,
      "Ġà¶ħà·ĥà¶½": 1773,
      "Ġà¶±à¶§": 1774,
      "Ġà¶Ńà¶´": 1775,
      "ang": 1776,
      "à·Ģà·Ħà¶¸": 1777,
      "Ġà¶´à¶½à¶¸": 1778,
      "Ġà¶ľà¶Ł": 1779,
      "âĪĻâĪĻâĪĻâĪĻ": 1780,
      "Qu": 1781,
      "Ġà¶ļà¶º": 1782,
      "Ġà·ĥà¶¯à·Ħà¶§à¶¸": 1783,
      "Ġà¶Ĵà¶ļà¶¸": 1784,
      "Ġà¶Ńà¶»à¶¸à¶§": 1785,
      "Ġà¶Ķà¶»": 1786,
      "Ġà·Ħà¶ºà¶ļ": 1787,
      "Ġ17": 1788,
      "à·ĥà¶½à¶ļ": 1789,
      "Ġà¶»à·Ģà¶§": 1790,
      "à¶¯à¶Ń": 1791,
      "à¶¶à·ĥ": 1792,
      "à¶³à¶½": 1793,
      "Ġà¶ľà·Ħà¶ľ": 1794,
      "IA": 1795,
      "Ġà¶Įà¶»": 1796,
      "à·Ģà·Ģà¶Ń": 1797,
      "Ġà¶¯à¶º": 1798,
      "Ġà¶Ĵà·Ģà¶§": 1799,
      "à¶½à·Ģà¶±": 1800,
      "à¶©à¶±à¶º": 1801,
      "out": 1802,
      "à·Ħà¶»à¶º": 1803,
      "à¶±à·Ģà¶ľ": 1804,
      "Ġà¶¢à¶½à¶º": 1805,
      "ell": 1806,
      "Ġà¶¯à¶¬": 1807,
      "Ġà¶¸à¶ļà¶»": 1808,
      "à·Ħà¶ļà¶º": 1809,
      "Ġà¶ĩà¶ļ": 1810,
      "Ġà¶ĳà¶ºà¶§": 1811,
      "Ġcom": 1812,
      "Ġà¶Ĩà·Ģà¶§": 1813,
      "Ġà¶ľà¶«à¶±à¶ļ": 1814,
      "à¶¸à¶±à¶¸": 1815,
      "à·ĥà·ĥ": 1816,
      "Ġà·Ģà¶ļ": 1817,
      "Ġà¶±à¶Ń": 1818,
      "à¶´à¶§": 1819,
      "Ġà¶ºà¶±à¶ļ": 1820,
      "à¶Ńà¶ļà¶º": 1821,
      "ect": 1822,
      "à¶ļà¶±à¶¸": 1823,
      "à·ĥà¶ľ": 1824,
      "Ġà¶Ĩà¶ļà¶»": 1825,
      "Ġà·Ģà¶ºà·ĥà¶ļ": 1826,
      "here": 1827,
      "Ġthis": 1828,
      "à¶±à¶¸à¶ļ": 1829,
      "Ġà¶ĳà¶±à¶ļà¶±": 1830,
      "Ġà¶ħà¶¸à¶Ńà¶±": 1831,
      "à·´": 1832,
      "Ġà¶ĳà¶ļà¶±": 1833,
      "ĠSt": 1834,
      "à¶ļà¶»à¶º": 1835,
      "Ġà¶´à¶ł": 1836,
      "Ġà¶¶à¶½à¶ºà¶ļ": 1837,
      "Ġà¶»à·Ħà·ĥà¶ļ": 1838,
      "?\"": 1839,
      "à·Ħà¶§à¶¸": 1840,
      "à·Ħà¶±à¶ļ": 1841,
      "à¶ĳà¶½": 1842,
      "Ġ500": 1843,
      "Ġà¶¸à¶łà¶±": 1844,
      "NA": 1845,
      "à·Ĵ:": 1846,
      "à¶»à¶·": 1847,
      "Ġà¶ħà·Ģà¶±": 1848,
      "Ġà¶»à¶¢à¶Ń": 1849,
      "à¶§à¶½à¶º": 1850,
      "Ġà¶ħà¶»à¶º": 1851,
      "Ġà¶«à¶º": 1852,
      "ĠJohn": 1853,
      "man": 1854,
      "à·ļ\"": 1855,
      "à·Ĵà¶Ĥ.": 1856,
      "ht": 1857,
      "à¶Ńà¶¸à¶º": 1858,
      "Ġà¶ļà¶¯à·Ģ": 1859,
      "Ġà¶Ĩà¶±": 1860,
      "à¶»à·Ģà¶ºà¶ļ": 1861,
      "à¶ºà·Ĥ": 1862,
      "à¶ľà¶¯": 1863,
      "Ġà¶»à¶±": 1864,
      "Ġà¶īà¶³à¶ľ": 1865,
      "eb": 1866,
      "à·Ģà¶³": 1867,
      "Ġà¶ļà·Ħ": 1868,
      "à¶ľà¶«à¶ļ": 1869,
      "Ġà¶ħà·Ģà¶½": 1870,
      "end": 1871,
      "Ġpro": 1872,
      "rance": 1873,
      "à¶ºà·Ģà¶½": 1874,
      "à¶ľà·Ħà¶±": 1875,
      "Ġà¶ĳà¶½à·Ģà¶±": 1876,
      "ĠYou": 1877,
      "à·Ł": 1878,
      "à·ĸ.": 1879,
      "Ġà·ĥà¶»à¶½": 1880,
      "est": 1881,
      "Ġà¶ºà¶ļà¶©": 1882,
      "tt": 1883,
      "Ġà¶ħà¶¸à¶Ńà¶»": 1884,
      "à¶ħà¶º": 1885,
      "Ġà¶¶à·Ħà¶½": 1886,
      "Ġà¶©à¶º": 1887,
      "ap": 1888,
      "Ġ]": 1889,
      "à·ı-": 1890,
      "à·ı--": 1891,
      "à¶ºà¶½à·Ģà¶Ń": 1892,
      "Ġà¶»à·Ħ": 1893,
      "à·ĥà¶±à¶§": 1894,
      "ear": 1895,
      "ies": 1896,
      "à¶§à¶´à¶±": 1897,
      "à·Ĳ?": 1898,
      "Ġà¶ĩà¶´à¶½": 1899,
      "à¶°à¶¸": 1900,
      "à¶»à¶Ńà¶½": 1901,
      "itle": 1902,
      "ype": 1903,
      "à¶©à¶½à¶º": 1904,
      "à¶ĭà¶¹": 1905,
      "Ġph": 1906,
      "à·Ĭ'": 1907,
      "ĠCIA": 1908,
      "Ġà¶»à¶Łà¶´": 1909,
      "Ġà¶¸à¶±à¶¸": 1910,
      "à¶Łà·Ģ": 1911,
      "à·Ģà¶©": 1912,
      "à¶Ńà¶ľà¶±": 1913,
      "Ġà¶ĩà¶©": 1914,
      "à·ģà¶«": 1915,
      "Ġà¶ļà·Ģà¶¯à¶¯": 1916,
      "ĠTh": 1917,
      "à·Ģà¶ľà¶±": 1918,
      "Ġà¶±à·ĥ": 1919,
      "io": 1920,
      "à¶»à¶ł": 1921,
      "à·Ĥà¶Ń": 1922,
      "ly": 1923,
      "à·Ģà¶ºà¶±": 1924,
      "à¶Ńà¶ºà¶±": 1925,
      "à·ĥà¶ļà¶º": 1926,
      "à·Ģà¶½à¶¸": 1927,
      "Ġcan": 1928,
      "ĠThe": 1929,
      "à·ħà¶´": 1930,
      "Ġà¶»à¶ľà¶´": 1931,
      "Ġsh": 1932,
      "Ġà¶´à¶¯à·Ģà¶±": 1933,
      "Ġà¶Ĭà¶½à¶Łà¶§": 1934,
      "Ġà¶¡à¶±": 1935,
      "Ġà¶ļà¶»à¶±à¶ļ": 1936,
      "bo": 1937,
      "ive": 1938,
      "à·Ĥà¶»": 1939,
      "Ġà¶ļà¶§à·Ģà·Ħ": 1940,
      "age": 1941,
      "Ġà¶¶à¶»à¶´à¶Ńà¶½": 1942,
      "à¶»à¶¢": 1943,
      "Ġà·ĥà·ħà¶ļ": 1944,
      "à¶«à¶¯": 1945,
      "ord": 1946,
      "Ġwh": 1947,
      "ipp": 1948,
      "à¶ľà¶ºà¶§": 1949,
      "Ġà¶Ĩà¶¯à¶»à¶«": 1950,
      "Ġà¶ĭà¶¶à¶½": 1951,
      "ĠSh": 1952,
      "Ġà¶ħà¶´à·Ħ": 1953,
      "Ġà¶ħà¶´à¶ľ": 1954,
      "Ġà¶ľà¶¸à¶±à¶ļ": 1955,
      "oo": 1956,
      "ye": 1957,
      "à·ģà¶«à¶º": 1958,
      "indow": 1959,
      ":%": 1960,
      "Ġà¶´à¶¸à¶«": 1961,
      "Ġà¶Ĭà·ĥ": 1962,
      "Ġyour": 1963,
      "à·Ģà¶±à¶º": 1964,
      "à¶ºà·Ģà¶±à·Ģ": 1965,
      "à¶ºà¶±à·Ģà¶±à¶¸": 1966,
      "Ġà¶ħà¶´à¶Ńà¶º": 1967,
      "Ġà¶¸à¶§à¶¸": 1968,
      "Ġà¶Ĩà¶¸": 1969,
      "ass": 1970,
      "ake": 1971,
      "à·Ħà¶ºà¶ļ": 1972,
      "Ġà¶´à¶¸à¶±": 1973,
      "Ġstar": 1974,
      "à¶±à¶»à¶½": 1975,
      "à·ľ!": 1976,
      "Ġà¶±à¶Ł": 1977,
      "Ġà¶¸à¶»à¶«à·Ģ": 1978,
      "gin": 1979,
      "à·Ħà¶ļà¶§": 1980,
      "à·ĥà¶±à·Ģ": 1981,
      "Ġà¶ĭà·Ħ": 1982,
      "Ġà¶ħà¶ºà¶¯": 1983,
      "Ġà¶½à¶Łà¶¯": 1984,
      "Ġà¶±à·Ģà¶º": 1985,
      "Ġà¶§à·Ģ": 1986,
      "ĠâĢĵ": 1987,
      "à¶°à¶ļà¶º": 1988,
      "Ġà¶ļà¶½à¶ļ": 1989,
      "Ġà¶ĩà¶ºà¶Ń": 1990,
      "à·Ģà¶½à¶º": 1991,
      "ie": 1992,
      "à¶»à·ħ": 1993,
      "à¶»à·Ħà¶½": 1994,
      "11": 1995,
      "se": 1996,
      "Ġà·Ģà¶¸à¶§": 1997,
      "à·ĿâĢį": 1998,
      "ans": 1999,
      "ove": 2000,
      "à¶ľà¶½à¶±": 2001,
      "à¶®à¶ļà¶º": 2002,
      "ld": 2003,
      "Ġà·Ģà¶½à¶ļ": 2004,
      "à·Ĥà¶±à¶º": 2005,
      "à¶¸à¶»à¶ºà¶ļ": 2006,
      "iz": 2007,
      "Ġà¶¯à·ĥ": 2008,
      "à¶łà¶»à¶ļ": 2009,
      "à¶Ńà¶»à¶±": 2010,
      "Ġà·Ģà·Ħà¶ľ": 2011,
      "à¶»à¶±à¶º": 2012,
      "à¶ħà¶Ń": 2013,
      "Ġtitle": 2014,
      "ĠNew": 2015,
      "à¶±à·Ħà¶¸": 2016,
      "à·Ħà¶½à¶§": 2017,
      "à¶«à·Ģ": 2018,
      "arl": 2019,
      "à¶¸à·Ģà¶±": 2020,
      "Ġà·Ģà¶³": 2021,
      "Ġà¶ħà¶±à·Ģ": 2022,
      "à¶¶à¶»à¶º": 2023,
      "\".": 2024,
      "Ġà·ĥà¶¢": 2025,
      "Ġà¶ĭà¶ºà¶±": 2026,
      "à·ģà¶±à¶ºà¶ļ": 2027,
      "à¶ºà¶§à¶¯": 2028,
      "à¶Ńà¶»à¶¯": 2029,
      "à¶ħà·Ģ": 2030,
      "à¶ºà·Ģà¶»à¶º": 2031,
      "Ġà·Ģà¶±à·Ģ": 2032,
      "Ġtranslate": 2033,
      "à¶ľà¶«": 2034,
      "Ġà¶ļà¶½à¶¶": 2035,
      "à¶¢à¶ļà¶º": 2036,
      "à·ļâĪĻâĪĻâĪĻ": 2037,
      "Ġà¶¸à¶»à¶º": 2038,
      "Ġà¶ļà¶¶à¶©": 2039,
      "Ġà¶ķà¶±à·Ģ": 2040,
      "à¶łà¶©": 2041,
      "à·Ģà¶»à¶«à¶º": 2042,
      "Ġà¶¸à¶Ńà¶ļà¶ºà¶±": 2043,
      "sia": 2044,
      "Ġà¶±à·ħ": 2045,
      "Ġà¶ĩà¶´": 2046,
      "à·ļ.\"": 2047,
      "Ġà¶ħà¶Ńà·Ħà¶»": 2048,
      "à¶¯à¶»à¶¯": 2049,
      "Ġà¶ĩà¶½à¶©": 2050,
      "à¶¨à¶º": 2051,
      "tr": 2052,
      "à¶ºà¶¶à·Ħ": 2053,
      "à¶¢à¶°": 2054,
      "ith": 2055,
      "à¶¯à¶ºà¶§": 2056,
      "Ġà¶¯à·Ħà¶º": 2057,
      "ĠReg": 2058,
      "Ġà¶īà¶©à¶ļ": 2059,
      "Ġà¶¢à¶½": 2060,
      "à¶¢à¶±à·Ģà¶Ń": 2061,
      "Ġà¶ħà¶±à¶ļ": 2062,
      "à¶ļà¶»à¶«à¶ºà¶ļ": 2063,
      "orn": 2064,
      "Ġà¶Ĭà¶½à¶ľà¶§": 2065,
      "ption": 2066,
      "Ġ_": 2067,
      "à¶´à·Ģà¶Ń": 2068,
      "à¶©à¶Ńà¶½": 2069,
      "à·ħà¶Ł": 2070,
      "Ġà¶±à¶ľà¶»à¶ºà¶§": 2071,
      "ĠRegion": 2072,
      "à¶ļà¶ļà¶»": 2073,
      "Ġ--": 2074,
      "Ġà·Ħà¶»à¶ļ": 2075,
      "Ġà¶¯à·Ģà·ĥà¶§": 2076,
      "Ġà¶ľà·Ħà¶´": 2077,
      "fs": 2078,
      "ĠName": 2079,
      "Ġà·ĥà·Ģà¶±": 2080,
      "Ġ\"%": 2081,
      "à¶»à·Ħà¶«à¶º": 2082,
      "à·ĴâĪĻâĪĻâĪĻ": 2083,
      "à¶ľà¶»à¶§": 2084,
      "âĢįâĢį": 2085,
      "à¶³à¶¯": 2086,
      "Ġà¶ĭà¶¹à¶½à¶§": 2087,
      "15": 2088,
      "ip": 2089,
      "ary": 2090,
      "Ġcl": 2091,
      "ase": 2092,
      "reat": 2093,
      "ussia": 2094,
      "Ġà¶¸à¶»à¶«à¶ºà¶§": 2095,
      "Ġà¶Ńà¶»à¶Łà¶º": 2096,
      "'t": 2097,
      "à¶łà¶»à¶¯": 2098,
      "ery": 2099,
      "ener": 2100,
      "à·Ħà¶¬": 2101,
      "Ġà¶īà¶©à¶¸": 2102,
      "ock": 2103,
      "à·ı)": 2104,
      "Ġà¶ħà¶¢": 2105,
      "Ġà¶ĳà¶ºà¶º": 2106,
      "à·Ĥà¶´": 2107,
      "à¶¸à¶ļà¶º": 2108,
      "Ġà¶Ńà¶»à¶ľà¶º": 2109,
      "ash": 2110,
      "Ġle": 2111,
      "Ġà¶ºà·Ģà¶±à·Ģ": 2112,
      "Ġà¶ħà·Ģà¶¶": 2113,
      "Ġà¶ħà·Ħà¶¸": 2114,
      "Ġà¶Ĩà¶ºà¶Ńà¶±à¶º": 2115,
      "Ġà¶ħà¶©à¶±": 2116,
      "Ġ22": 2117,
      "Ġà¶īà·Ģà¶»à·Ģ": 2118,
      "ts": 2119,
      "à·ĥà·Ģà¶º": 2120,
      "Ġà¶īà¶¶": 2121,
      "Ġà¶¸à·Ħà¶½": 2122,
      "Ġpl": 2123,
      "Ġà¶§à¶»": 2124,
      "Ġ.\"": 2125,
      "Ġà¶ħà·Ħà¶´": 2126,
      "à·Ģà·ĥà¶¸": 2127,
      "Ġmy": 2128,
      "AN": 2129,
      "Ġà¶¯à¶«": 2130,
      "Ġ60": 2131,
      "Ġthat": 2132,
      "à¶¸à·Ħ": 2133,
      "Ġà·Ģà·ħ": 2134,
      "à¶±à¶ºà¶ļà¶§": 2135,
      "à¶ĳà¶´": 2136,
      "Ġnot": 2137,
      "à¶¶à¶³à·Ģ": 2138,
      "Ġà·ĥà¶¸à¶Ń": 2139,
      "Ġà¶Ĭà¶§à¶Ń": 2140,
      "à·Ħà¶±à¶ºà¶ļ": 2141,
      "Ġà¶īà·Ģà·ĥà¶±": 2142,
      "Ġà¶ħà·ĥà¶»à¶«": 2143,
      "Ġ=": 2144,
      "à¶´à¶Ńà¶ļ": 2145,
      "à¶¢à¶±à¶ļ": 2146,
      "à¶½à¶§à¶¸": 2147,
      "Ġ//": 2148,
      "ah": 2149,
      "ĠâĪĻâĪĻ": 2150,
      "Ġà¶»à¶ºà¶±": 2151,
      "à·ĸ,": 2152,
      "Ġà¶ħà¶Ńà¶»à¶Ń": 2153,
      "Ġà¶©à¶ľ": 2154,
      "Ġà¶Ĩà¶ºà¶Ńà¶±": 2155,
      "Ġà·ĥà¶½à·ĥ": 2156,
      "à·ĥà¶»à¶º": 2157,
      "Ġà¶ĳà¶¶": 2158,
      "Ġà¶ļà¶»à·Ģà¶±à·Ģ": 2159,
      "Ġà¶īà¶»à¶«": 2160,
      "à¶ºà¶±à¶ļ": 2161,
      "Ġà·ħà¶¸": 2162,
      "ĠDNA": 2163,
      "abel": 2164,
      "AR": 2165,
      "Ġà¶ĳà¶ļà¶ľ": 2166,
      "Ġà¶ķà¶±à¶½": 2167,
      "Ġà¶Ńà¶»à¶¸à¶ļ": 2168,
      "Ġhtt": 2169,
      "Ġstate": 2170,
      "Ġhttp": 2171,
      "..\"": 2172,
      "à¶¶à¶½à¶±": 2173,
      "à·Ģà¶ļà¶¸": 2174,
      "erman": 2175,
      "Ġan": 2176,
      "à¶¯à¶´": 2177,
      "à·Ģà¶§à¶Ń": 2178,
      "à¶Ńà·Ģà¶Ń": 2179,
      "à¶¯à¶ļà¶§": 2180,
      "Ġà¶ľà¶¸à¶§": 2181,
      "Ġà¶Ķà¶¶à¶±": 2182,
      "Ġà¶ĭà¶´à¶ļà¶»à¶«à¶º": 2183,
      "ject": 2184,
      "à·Ģà·Ħà¶±": 2185,
      "à¶ºà·Ģà¶ļ": 2186,
      "à¶Łà¶±": 2187,
      "Ġ\"âĢį": 2188,
      "Ġà¶Ĩà¶¯à¶»à¶ºà¶ļ": 2189,
      "Ġà¶ĭà¶¶à·Ģ": 2190,
      "Ġà¶°à¶»": 2191,
      "Ġaction": 2192,
      "cHFFFF": 2193,
      "Ġà¶¥": 2194,
      "à¶·à¶±": 2195,
      "Ġà¶´à¶¯à¶±à¶¸": 2196,
      "Ġà¶ºà·Ħà¶´à¶Ń": 2197,
      "cHFFFFFF": 2198,
      "50": 2199,
      "à·ĸâĢį": 2200,
      "Ġà¶ļà·ħà¶¸à¶«": 2201,
      "Ġà·ĥà¶§à¶±à¶ļ": 2202,
      "à¶±à¶©": 2203,
      "Ġà¶ķà¶±à¶±à¶¸": 2204,
      "Ġmon": 2205,
      "à¶»à¶¸à¶½": 2206,
      "Ġà·ĥà·Ħà¶ºà¶ļà¶º": 2207,
      "Ġà¶±à¶ľà¶»à¶ºà¶ļ": 2208,
      "Ġà¶ľà¶«à¶±à¶º": 2209,
      "Ġ:": 2210,
      "à·ĬâĢį.": 2211,
      "Ġà¶ħà¶Ńà¶ļ": 2212,
      "Ġbut": 2213,
      "nu": 2214,
      "Ġu": 2215,
      "à¶ľà·Ħ": 2216,
      "à¶ºà¶½à¶Ń": 2217,
      "Ġà¶Ĭà·Ģ": 2218,
      "Ġà¶ħà¶©à·Ģ": 2219,
      "Ġcount": 2220,
      "ick": 2221,
      "Ġà¶´à¶¯à¶ļ": 2222,
      "Ġwill": 2223,
      "ĠAr": 2224,
      "az": 2225,
      "Ġà¶Ńà¶¶à¶±": 2226,
      "Ġà¶¸à¶¸à¶¸": 2227,
      "Ġà·ħà¶ľ": 2228,
      "Ġà¶ļà¶©à¶½": 2229,
      "own": 2230,
      "à¶ºà¶ļà¶Ń": 2231,
      "à·ģà¶¸": 2232,
      "Ġà¶»à¶¯": 2233,
      "à¶¸à¶§à¶Ń": 2234,
      "ant": 2235,
      "Ġ300": 2236,
      "Ġà¶ĩà¶³à¶ľ": 2237,
      "Ġà¶ľà·Ħà¶ľà¶±": 2238,
      "ave": 2239,
      "mb": 2240,
      "og": 2241,
      "ter": 2242,
      "à¶§à·Ħ": 2243,
      "Ġà·Ģà¶»à¶º": 2244,
      "Ġà¶ºà¶±à¶ļà¶¸": 2245,
      "Ġà¶¯à·Ģà·ĥà¶¸": 2246,
      "Ġà¶Ĵà¶ļà¶ļ": 2247,
      "Ġwor": 2248,
      "à¶ľà¶©": 2249,
      "à¶ļà¶»à¶ľà¶Ń": 2250,
      "à¶§à¶»à¶ºà¶ļ": 2251,
      "Ġ.....": 2252,
      "Ġà¶«à¶ºà¶º": 2253,
      "à¶ļà¶±à¶º": 2254,
      "Ġà¶ħà¶´à·Ģ": 2255,
      "ines": 2256,
      "Ġà¶Įà¶±": 2257,
      "Ġsub": 2258,
      "Ġ$": 2259,
      "Ġà¶ħà¶»à·Ħ": 2260,
      "à¶ĳà¶Ńà¶ļ": 2261,
      "Ġà¶°à¶±": 2262,
      "Ġlabel": 2263,
      "Ġvi": 2264,
      "à·Ģà·ĥà¶§": 2265,
      "Ġà¶Ĩà¶¯à¶»à·Ģà¶±": 2266,
      "ck": 2267,
      "Ġà¶ľà¶³": 2268,
      "Ġà¶īà¶¯à¶ľ": 2269,
      "Ġcol": 2270,
      "Ġwith": 2271,
      "à·ľ?": 2272,
      "Ġà¶ħà¶ľà¶±": 2273,
      "Ġà¶Ĵà¶ļà¶ļà¶º": 2274,
      "à·ħà¶¹": 2275,
      "Ġà¶ĭà¶¹à¶ľ": 2276,
      "Ġdo": 2277,
      "à¶ľà¶«à¶ļà¶º": 2278,
      "à¶«à¶ºà¶§": 2279,
      "Ġà¶Ĩà¶«": 2280,
      "Ġà¶ķà¶ļà¶§": 2281,
      "Ġà¶ĳà¶Ńà¶±à¶¯": 2282,
      "ĠDr": 2283,
      "Ġà¶ºà·Ħà·ħ": 2284,
      "ik": 2285,
      "Ġà¶Ķà¶ºà¶§": 2286,
      "Ġà·ģà¶º": 2287,
      "ĠCount": 2288,
      "our": 2289,
      "ico": 2290,
      "Ġgreat": 2291,
      "à¶¯à¶»à¶ļ": 2292,
      "à¶©à¶Ń": 2293,
      "Ġà¶ļà¶½à¶Ń": 2294,
      "Ġà¶´à¶»à¶±": 2295,
      "Ġà¶ľà·Ħà¶´à¶±": 2296,
      "Ġstat": 2297,
      "Ġ......": 2298,
      "Ġà¶īà¶»à¶«à¶¸": 2299,
      "Ġà¶ħà·Ģà¶ļ": 2300,
      "Ġà¶ħà·Ģà¶§": 2301,
      "ich": 2302,
      "RL": 2303,
      "Ġà¶Ńà¶©": 2304,
      "Ġà¶¶à·Ģà¶º": 2305,
      "à¶ºà¶±à¶º": 2306,
      "à¶ºà¶±à¶¯": 2307,
      "à¶·à¶´": 2308,
      "Ġà¶Ĭà¶Ńà¶±": 2309,
      "Ġwindow": 2310,
      "lease": 2311,
      "Ġà¶ľà¶½à·Ģà¶½": 2312,
      "Ġà¶¢à¶±à¶´à¶¯à¶º": 2313,
      "pl": 2314,
      "à·Ĭ(": 2315,
      "à¶»à¶¸à¶«à¶º": 2316,
      "Ġà¶ļà·ħà¶¸à¶±": 2317,
      "ero": 2318,
      "ĠZ": 2319,
      "à¶»à¶¯à¶»": 2320,
      "...\"": 2321,
      "à¶łà¶»à¶¸": 2322,
      "Ġà·ĥà¶³à·Ħà¶±": 2323,
      "ĠIt": 2324,
      "à¶¯à¶±à·Ģ": 2325,
      "Ġà¶¸à¶§à¶±à¶¸": 2326,
      "à¶ĳà¶ļà¶ļ": 2327,
      "Ġ23": 2328,
      "Ġà¶Īà¶Ńà¶§": 2329,
      "ermany": 2330,
      "iv": 2331,
      "à¶»à¶©": 2332,
      "à¶¶à·ħ": 2333,
      "à¶±à¶Ńà¶»à¶¸": 2334,
      "à¶½à¶ºà¶ļà¶§": 2335,
      "isc": 2336,
      "Ġà¶īà·Ħà¶½à¶§": 2337,
      "ĠCharl": 2338,
      "ext": 2339,
      "per": 2340,
      "Ġz": 2341,
      "à¶ľà¶¸à¶ļ": 2342,
      "à·ħà¶ºà¶ļ": 2343,
      "à·ĸ!": 2344,
      "Ġà¶ħà·Ģà·Ģ": 2345,
      "Ġhow": 2346,
      "Ġgr": 2347,
      "ĠCountry": 2348,
      "Ġà¶¶à¶ºà¶ļ": 2349,
      "Ġà¶ķà¶±à·Ģà¶§": 2350,
      "Ġà·Ģà¶§à¶´": 2351,
      "Ġà¶ĩà¶»à¶¹": 2352,
      "à¶Ľà¶º": 2353,
      "à¶´à·Ħ": 2354,
      "Ġà¶ĭà¶¸à¶ľ": 2355,
      "ark": 2356,
      "à¶Ľà¶±": 2357,
      "Ġbrit": 2358,
      "Ġitem": 2359,
      "Ġcounties": 2360,
      "Ġbritain": 2361,
      "AT": 2362,
      "à¶ºà¶«": 2363,
      "Ġfrance": 2364,
      "Ġà¶ļà¶´à¶§": 2365,
      "Ġà·ĥà¶´à¶ºà¶±": 2366,
      "action": 2367,
      "Ġus": 2368,
      "à¶ºà¶ľà¶±": 2369,
      "à·ľà¶Ĥ": 2370,
      "Ġà¶ĳà·Ģà¶½": 2371,
      "Ġà¶ħà·Ģà·Ħ": 2372,
      "ine": 2373,
      "Ġà·Ģà¶ºà¶»": 2374,
      "\"?": 2375,
      "bia": 2376,
      "de": 2377,
      "à¶§à¶ľà¶±": 2378,
      "à·ĥà¶ºà¶§": 2379,
      "Ġà¶»à·ĥà¶ļ": 2380,
      "à¶¹à¶§": 2381,
      "Ġà¶¯à·Ģà·ĥà¶ļà¶§": 2382,
      "ilipp": 2383,
      "Ġà¶Ĭà·ħà¶Łà¶§": 2384,
      "à·Ķ-": 2385,
      "Ġà¶±à·Ħà¶º": 2386,
      "Ġà¶Ĵà¶±": 2387,
      "ĠCal": 2388,
      "Ġch": 2389,
      "ix": 2390,
      "Ġà·ĥà·Ħà¶·": 2391,
      "Ġà¶ľà¶Ńà·Ģ": 2392,
      "à¶»à¶®à¶¸": 2393,
      "ime": 2394,
      "land": 2395,
      "à¶»à¶ļà¶Ńà¶±": 2396,
      "ank": 2397,
      "ania": 2398,
      "Ġà·ħà¶¸à¶ºà¶ļ": 2399,
      "Ġà¶ĩà¶¯à¶ľà¶±": 2400,
      "Ġ***": 2401,
      "Ġà¶ħà¶ł": 2402,
      "Ġà¶ºà·Ģà¶½": 2403,
      "Ġà¶ĭà·Ĥ": 2404,
      "à¶½à¶ļà¶±": 2405,
      "à¶·à¶ļ": 2406,
      "Ġà¶¢à¶±à¶´à¶¯": 2407,
      "Ġmonth": 2408,
      "à¶©à·ĥ": 2409,
      "Ġà¶ĭà¶»à·Ħ": 2410,
      "à¶ºà¶½à¶±": 2411,
      "Ġà¶»à¶®à¶º": 2412,
      "à¶½à¶±à¶ºà¶ļ": 2413,
      "à¶§à¶Ńà¶§": 2414,
      "Ġ21": 2415,
      "Ġà¶ħà·ĥà¶¸": 2416,
      "ett": 2417,
      "ĠOh": 2418,
      "Ġgo": 2419,
      "à·Ģà·Ħà¶½": 2420,
      "à¶ļà¶¶": 2421,
      "Ġà¶´à·Ģà¶»": 2422,
      "Ġà¶¶à¶¸": 2423,
      "Ġà·ģà¶½": 2424,
      "old": 2425,
      "ilippines": 2426,
      "ure": 2427,
      "Ġ*": 2428,
      "Ġà·Ħà¶´à¶±": 2429,
      "Ġà¶»à¶§à¶ļ": 2430,
      "à¶¸à¶§à¶º": 2431,
      "one": 2432,
      "ask": 2433,
      "Ġ#": 2434,
      "à·ı'": 2435,
      "à·ļà·Ļ": 2436,
      "à¶¶à¶ļ": 2437,
      "à¶·à¶ºà¶ļ": 2438,
      "Ġà¶´à·Ģà·ĥà¶±": 2439,
      "à·ĥà¶¸à·Ħà¶»": 2440,
      "Ġà¶¸à¶Łà·Ħ": 2441,
      "ung": 2442,
      "ail": 2443,
      "Ġe": 2444,
      "à·Ĵ]": 2445,
      "Ġà¶¸à¶ļà¶±": 2446,
      "Ġà¶ļà¶½à¶º": 2447,
      "à¶¹à¶½": 2448,
      "à·Ĩà¶±": 2449,
      "ound": 2450,
      "eneric": 2451,
      "à¶±à·Ģà¶¸": 2452,
      "à·ĿâĪĻ": 2453,
      "à·Ħà¶»à¶«à¶ºà¶ļ": 2454,
      "Ġà¶ĭà¶´à¶ļà¶»à¶«à¶ºà¶ļ": 2455,
      "Ġà¶»à·ĥà·Ģà¶Ń": 2456,
      "Ġphilippines": 2457,
      "ire": 2458,
      "Ġà¶ļà¶Ńà¶±": 2459,
      "Ġà¶¶à¶ºà¶ľ": 2460,
      "ight": 2461,
      "enericName": 2462,
      "ile": 2463,
      "à¶¯à¶±à¶ºà¶ļ": 2464,
      "Ġà¶Ķà¶©": 2465,
      "à¶Ķà¶ļ": 2466,
      "Ġà¶ħà·Ģà·ĥà¶»à¶º": 2467,
      "ĠWh": 2468,
      "Ġà¶Ĭà·ħà¶ľà¶§": 2469,
      "GenericName": 2470,
      "à¶ļà¶½à¶§": 2471,
      "à¶ľà¶ºà¶±": 2472,
      "Ġà¶ĳà·Ģà¶»": 2473,
      "à¶´à¶«": 2474,
      "Ġsome": 2475,
      "----": 2476,
      "ME": 2477,
      "à¶ºà·Ħ": 2478,
      "à¶»à·ĥà¶º": 2479,
      "Ġà¶ºà·ģ": 2480,
      "à¶ºà¶ļà¶»": 2481,
      "Ġsy": 2482,
      "ust": 2483,
      "Ġà¶ħà¶¬à¶±": 2484,
      "à·ĬâĪĻâĪĻ": 2485,
      "à·ĢName": 2486,
      "à¶¸à¶ľà¶±": 2487,
      "à·ĥà¶´": 2488,
      "Ġà¶ħà·Ģà¶Ń": 2489,
      "Ġà·ĥà¶¸à¶»à¶±": 2490,
      "ib": 2491,
      "à¶»à·ĥà¶±": 2492,
      "à·ĥà¶¶": 2493,
      "Ġà¶¯à·Ģ": 2494,
      "à¶©à·Ģ": 2495,
      "Ġà¶ĭà¶¹à¶Ń": 2496,
      "Ġà·Ģà¶§à·Ħ": 2497,
      "à¶µà¶½": 2498,
      "ug": 2499,
      "Ġà¶ľà¶¢": 2500,
      "Ġà¶ľà¶½à¶ļ": 2501,
      "Ġà¶ļà·Ģà¶»": 2502,
      "Ġà¶ľà·Ħà¶ļ": 2503,
      "à·Ĥà¶«à¶ºà¶§": 2504,
      "Ġbutton": 2505,
      "cri": 2506,
      "Ġà·ĥà·Ħà¶ļ": 2507,
      "à¶ļà¶ºà¶¸": 2508,
      "Ġà¶ļà¶©à·Ģà·ĥà¶¸": 2509,
      "Ġà¶ĩà¶Łà·Ģ": 2510,
      "ode": 2511,
      "Ġà·ĥà¶ľà¶º": 2512,
      "à¶ºà¶§à¶º": 2513,
      "à·Ģà¶ļà¶¯": 2514,
      "à¶¢à·ĥ": 2515,
      "à¶ħà·Ħ": 2516,
      "à¶ħà¶¯": 2517,
      "orm": 2518,
      "ish": 2519,
      "à¶īà¶ļ": 2520,
      "Ġ90": 2521,
      "à·ĥà¶³à¶±": 2522,
      "10": 2523,
      "che": 2524,
      "ov": 2525,
      "ss": 2526,
      "à¶±à·Ħà¶»": 2527,
      "Ġà¶¯à¶½": 2528,
      "Ġà¶¯à¶Ł": 2529,
      "Ġà¶Ńà¶¯à¶º": 2530,
      "Ġà¶īà¶Ł": 2531,
      "Ġà¶ĩà¶½à¶±": 2532,
      "à¶«à¶¸": 2533,
      "Ġà¶ķà¶º": 2534,
      "à·Ĥà¶¸": 2535,
      "Ġà·ĥà·Ħà¶ºà¶ļ": 2536,
      "ĠGermany": 2537,
      "mbol": 2538,
      "ne": 2539,
      "à¶ļà·Ģà¶½": 2540,
      "Ġà¶ĩà¶»à¶±": 2541,
      "à¶»à¶ļà¶»à¶±": 2542,
      "à¶»à¶ºà¶ļà¶§": 2543,
      "à¶ºà·Ģà¶»à¶ļ": 2544,
      "Ġwat": 2545,
      "Ġ42": 2546,
      "12": 2547,
      "ĠQu": 2548,
      "à¶¸à·Ģà¶Ń": 2549,
      "Ġà¶īà¶ľà¶±": 2550,
      "Ġà·Ģà¶½à¶§à¶Ń": 2551,
      "Ġà¶Ńà¶»à¶ľà¶ºà¶ļ": 2552,
      "ory": 2553,
      "Ġà¶ĳà¶ļà¶Łà¶Ń": 2554,
      "Ġà·´": 2555,
      "à¶¯à·Ģà¶½": 2556,
      "Ġà¶´à·Ħà¶±": 2557,
      "à¶´à¶ºà¶§": 2558,
      "à¶©à¶¸à¶ļ": 2559,
      "Ġà·ĥà¶¸à¶½": 2560,
      "Ġà¶©à¶±": 2561,
      "Ġà¶ĭà¶¹à¶½à¶ľ": 2562,
      "à¶Ńà¶§à¶¸à¶¯": 2563,
      "orea": 2564,
      "ĠURL": 2565,
      "30": 2566,
      "à¶ºà¶ºà¶§": 2567,
      "Ġà·Ģà·Ģ": 2568,
      "à¶©à¶»à¶½": 2569,
      "à·Ŀà¶Ĥ": 2570,
      "Ġà·ĥà¶¸à¶±": 2571,
      "Ġà¶ļà¶»à¶±à·Ģà¶§": 2572,
      "Ġà·ĥà·Ħà¶ľà¶Ń": 2573,
      "à¶©à·ĥà¶§à·Ħà¶±à¶ļ": 2574,
      "box": 2575,
      "à·Ļà·Ł": 2576,
      "Ġà¶ĳà¶ļà¶±à¶¸": 2577,
      "à¶ºà¶±à·Ģà¶±": 2578,
      "Ġà¶łà¶ļ": 2579,
      "Ġà¶´à¶Ńà¶±à·Ģ": 2580,
      "Ġà¶½à¶ľà¶¯": 2581,
      "ments": 2582,
      "oss": 2583,
      "Ġà¶ħà¶Łà·Ħà¶»": 2584,
      "Ġall": 2585,
      "à·Ģà¶ºà¶ļà¶§": 2586,
      "Ġà¶ĳà·Ģà¶±à·Ģ": 2587,
      "à¶´à¶ľà¶±": 2588,
      "Ġà¶Ĵà¶¸": 2589,
      "à¶ºà¶±à¶ºà¶ļ": 2590,
      "ina": 2591,
      "ator": 2592,
      "Ġà¶īà·Ģà¶»à¶¯": 2593,
      "Ġà¶»à¶«à·ģ": 2594,
      "Ġà¶ħà¶±à·Ģà·ģ": 2595,
      ").": 2596,
      "way": 2597,
      "Ġex": 2598,
      "à¶¯à¶ļà¶º": 2599,
      "Ġà¶ħà¶§à¶ļ": 2600,
      "Ġà¶ĭà¶ļ": 2601,
      "Ġà¶Ĩà¶ľà¶±": 2602,
      "Ġà¶Ĩà¶Ńà¶½": 2603,
      "à·Ĥà¶ļà¶ºà¶±": 2604,
      "Ġ199": 2605,
      "quer": 2606,
      "Ġorg": 2607,
      "nam": 2608,
      "à·ıâĪĻâĪĻ": 2609,
      "à¶§à·Ģà¶±": 2610,
      "Ġà¶¸à¶¸à¶¯": 2611,
      "à·Ģà¶½à¶¯": 2612,
      "à¶´à¶±à¶ºà¶ļ": 2613,
      "iforn": 2614,
      "Ġà¶ļà¶§à·Ģà·Ħà¶ľà¶±": 2615,
      "ifornia": 2616,
      "à·Ģà¶´à¶±": 2617,
      "à·Ħà¶»à¶ļ": 2618,
      "Ġà¶ĭà¶´à¶Ń": 2619,
      "à·ħà¶ľ": 2620,
      "âĪŀ": 2621,
      "Ġà·Ģà¶½à·ĥ": 2622,
      "Ġà·ĥà¶»à¶½à¶º": 2623,
      "Ġà¶Ĭà¶¢": 2624,
      "ĠCon": 2625,
      "onquer": 2626,
      "ĠTV": 2627,
      "à¶Ľà¶±à¶º": 2628,
      "Ġà¶ħà¶«à¶¯": 2629,
      "ĠCharles": 2630,
      "onqueror": 2631,
      "à·Ĵ'": 2632,
      "à¶¸à¶ºà¶±": 2633,
      "Ġà¶Ĩà·Ģà¶Ń": 2634,
      "Ġà¶»à¶³": 2635,
      "Ġà¶Ķà¶¶à¶º": 2636,
      "Ġà·Ĩà¶»": 2637,
      "ario": 2638,
      "Ġ45": 2639,
      "able": 2640,
      "Ġà¶ĳà¶ļà¶Łà¶º": 2641,
      "key": 2642,
      "à·Ĵ--": 2643,
      "à¶Ńà·Ģà¶»": 2644,
      "à¶±à·Ģà¶§à¶¯": 2645,
      "Ġà¶½à¶Ń": 2646,
      "à¶ºà¶ºà¶º": 2647,
      "à·Ĵà¶Ĥ...": 2648,
      "Ġà¶ĭà¶´à¶º": 2649,
      "Ġà¶ĳà·ħà·Ģà¶±": 2650,
      "Ġà¶ļà¶©à¶¯": 2651,
      "à¶Ĭà¶§": 2652,
      "Ġworld": 2653,
      "Ġsubject": 2654,
      "Ġà¶¸à¶½à¶ļ": 2655,
      "Ġà·ĥà¶Ł": 2656,
      "à¶©à¶ļà¶»à¶±à·Ģ": 2657,
      "Ġà¶ºà¶¸à¶±": 2658,
      "à¶Ĥ..": 2659,
      "Ġà¶»à·ĥà¶º": 2660,
      "Ġthere": 2661,
      "ĠCalifornia": 2662,
      "à¶±Name": 2663,
      "à·Ĳà·Ļ": 2664,
      "Ġà·ĥà¶¸à¶º": 2665,
      "à¶©à¶¯": 2666,
      "à·Ķ.\"": 2667,
      "ver": 2668,
      "Ġj": 2669,
      "Ġun": 2670,
      "Ġà¶ĳà¶ļà¶§à¶¸": 2671,
      "à¶ºà¶ļà¶¸": 2672,
      "Ġà¶ļà·Ģà¶¯à·Ħà¶»": 2673,
      "Ġà¶´à·Ħà¶º": 2674,
      "Ġà¶´à·Ħà¶»à¶ļ": 2675,
      "Ġà¶ĳà·ħà¶¯": 2676,
      "ĠMar": 2677,
      "à¶»à·Ħà¶º": 2678,
      "Ġab": 2679,
      "à·Ģà¶±à·Ģà¶¯": 2680,
      "Ġà¶¸à¶Ńà¶º": 2681,
      "à·ĥà·Ģà¶±": 2682,
      "à¶¯à¶ľà¶±": 2683,
      "Ġà¶ĳà¶ľ": 2684,
      "ond": 2685,
      "onia": 2686,
      "Ġà¶Ĩà·Ģà¶»à¶«à¶ºà¶ļ": 2687,
      "ook": 2688,
      "à·Ģà·ģ": 2689,
      "à¶Ńà·Ħà¶¸": 2690,
      "à¶¯à¶½à¶ļ": 2691,
      "Ġà¶ĭà¶Ķ": 2692,
      "à·Ĥà¶¥à¶º": 2693,
      "à·Ģà¶½à¶Ń": 2694,
      "Ġà·Ģà¶½à¶½": 2695,
      "à¶ļà¶§à¶º": 2696,
      "à¶ħà¶½": 2697,
      "OL": 2698,
      "sh": 2699,
      "à·ĥà¶¸à¶§": 2700,
      "Ġà¶¶à¶½à¶¯": 2701,
      "à·ĸ...": 2702,
      "à¶¢à¶¸": 2703,
      "à¶½à¶§à¶Ń": 2704,
      "Ġ\"...": 2705,
      "Ġà·Ģà¶½à·Ħ": 2706,
      "Ġà¶©à·ĥ": 2707,
      "à¶ļà¶§à¶Ń": 2708,
      "ĠBr": 2709,
      "ĠOk": 2710,
      "ĠOnt": 2711,
      "aw": 2712,
      "ric": 2713,
      "à·Ķ\"": 2714,
      "à·ĥà¶¯à¶±": 2715,
      "à¶´à¶¸à¶«": 2716,
      "Ġà¶ļà¶»à¶±à·Ģà¶±à¶¸": 2717,
      "à·Ĭ..\"": 2718,
      "ĠSp": 2719,
      "earch": 2720,
      "ĠOntario": 2721,
      "Ġas": 2722,
      "Ġà·Ģà¶±à¶º": 2723,
      "Ġà¶Ńà¶±à¶Ń": 2724,
      "à·ģà·Ģ": 2725,
      "à¶ľà¶±à¶º": 2726,
      "Ġà¶¶à¶½à¶ºà¶±": 2727,
      "Ġ1000": 2728,
      "à¶ĳà¶Ń": 2729,
      "Ġà·Ģà·Ħà¶´à¶±": 2730,
      "ĠUn": 2731,
      "ach": 2732,
      "à·Ģà¶«": 2733,
      "à·Ħà¶ºà¶§": 2734,
      "Ġà·Ħà¶Ńà¶ļ": 2735,
      "à¶ľà¶Ńà¶ºà¶ļ": 2736,
      "Ġà·ħà¶¸à¶ºà·Ģ": 2737,
      "ions": 2738,
      "ĠKonqueror": 2739,
      "Ġà·Ħà¶¯à·Ģà¶Ńà¶§": 2740,
      "tle": 2741,
      "we": 2742,
      "à¶»à¶¶": 2743,
      "à¶Ńà¶´à¶±": 2744,
      "à·Ķ**": 2745,
      "Ġà¶Ĩà¶ľà¶¸": 2746,
      "Ġà¶ķà·Ĩ": 2747,
      "à¶³à¶ľ": 2748,
      "Ġà¶©à¶ºà¶±": 2749,
      "Ġà¶ĩà¶³à¶§": 2750,
      "Ġby": 2751,
      "Ġ120": 2752,
      "Ġrussia": 2753,
      "type": 2754,
      "Ġà¶ĩà¶¯à¶±": 2755,
      "Ġà¶ĭà·ĥà¶º": 2756,
      "à¶ļà¶»à·Ģà¶±": 2757,
      "Ġtype": 2758,
      "Ġà·Ģà¶ºà·ĥà¶§": 2759,
      "ĠPlease": 2760,
      "Ġlove": 2761,
      "Ġro": 2762,
      "Ġà·Ģà·ģ": 2763,
      "à¶¶à¶Ń": 2764,
      "Ġà¶ĳà¶Ńà¶»à¶¸": 2765,
      "PD": 2766,
      "à¶ºà·Ģà·ĥ": 2767,
      "Ġà¶¯à¶©à¶ºà¶ļ": 2768,
      "à¶ºà¶ļà¶§à¶¸": 2769,
      "à¶Ĥ?": 2770,
      "à¶ĤâĢįâĢį": 2771,
      "à¶¯à¶»à¶Ń": 2772,
      "à·Ģà¶§à¶º": 2773,
      "à·Ģà¶§à¶¯": 2774,
      "à·Ĩà¶½": 2775,
      "à¶Ńà¶ºà¶º": 2776,
      "erb": 2777,
      "à¶Ĩà¶º": 2778,
      "Ġà¶»à¶§à¶§": 2779,
      "Ġà¶ºà¶§à¶§": 2780,
      "à¶»à¶łà¶«": 2781,
      "Ġstatus": 2782,
      "\",": 2783,
      "à·Ģà·ħ": 2784,
      "à·ıà·ı": 2785,
      "à¶½à¶´à¶Ń": 2786,
      "à¶´à·ħ": 2787,
      "Ġà¶Ĵà·Ģà¶º": 2788,
      "Ġà¶ħà·Ħà¶´à¶±": 2789,
      "Ġà·ħà¶¸à¶ºà¶§": 2790,
      "menu": 2791,
      "Ġà¶¸à¶Ńà¶ļà¶ºà¶ļ": 2792,
      "Ġà¶½à¶¶à¶±à·Ģ": 2793,
      "à¶Ķà¶¶à¶§": 2794,
      "20": 2795,
      "ber": 2796,
      "rain": 2797,
      "à¶¸à¶¸à¶º": 2798,
      "Ġà¶´à¶§à¶½": 2799,
      "Ġà¶ļà¶»à·Ģ": 2800,
      "Ġà¶¸à¶ľà·Ħà¶»": 2801,
      "à¶¢à¶±à¶ºà¶§": 2802,
      "ace": 2803,
      "ma": 2804,
      "Ġà¶¸à¶¸à¶±à¶¸": 2805,
      "Ġà¶ķà·ĥ": 2806,
      "Ġà¶¶à¶½à¶±à·Ģà¶¯": 2807,
      "à¶¯à¶»à·Ģ": 2808,
      "à¶¹à¶º": 2809,
      "à·Ģà¶»à¶§": 2810,
      "Ġà·ģà·ģ": 2811,
      "ĠCol": 2812,
      "Ġà¶ļà¶§à·Ħà¶©": 2813,
      "haw": 2814,
      "Ġsubjects": 2815,
      "Ġabout": 2816,
      "BAR": 2817,
      "Ġal": 2818,
      "à¶ºà·Ħà¶¸": 2819,
      "à¶¸à·Ħà¶Ń": 2820,
      "Ġà¶´à¶»à¶º": 2821,
      "Ġà¶´à¶®à¶º": 2822,
      "Ġà·ĥà¶¶à¶³": 2823,
      "Ġà¶ľà¶¯": 2824,
      "Ġà¶ĭà¶¸à¶Ń": 2825,
      "à¶ºà¶§à·Ģà¶Ń": 2826,
      "Ġà¶¶à¶½à¶±à¶ļ": 2827,
      "Ġà¶ľà¶Ńà¶ļà¶»à¶±": 2828,
      "Ġà¶Ĭà¶»": 2829,
      "Ġà¶ĭà¶´à¶ļà¶½": 2830,
      "Ġinmenu": 2831,
      "à¶Ĵà·Ģ": 2832,
      "Ġà¶Ĭà·ħà¶ľ": 2833,
      "Ġclass": 2834,
      "do": 2835,
      "Ġà¶´à¶Ńà¶±": 2836,
      "à¶´à¶«à¶º": 2837,
      "âĢįà·ĬâĢį": 2838,
      "à¶ºà¶¸à¶¸": 2839,
      "à¶Ĵà¶ļà¶§": 2840,
      "Ġsee": 2841,
      "Ġfr": 2842,
      "Ġà¶ļà¶»à·Ħà¶±": 2843,
      "âĻª": 2844,
      "Ġà¶Įà¶ľ": 2845,
      "à¶ĭà¶Ń": 2846,
      "Ġhave": 2847,
      "à·Ħà¶½à¶ļ": 2848,
      "à·ĥà¶±à¶¸": 2849,
      "à¶©à¶ºà¶§": 2850,
      "Ġà¶ºà¶®": 2851,
      "à¶ºà¶§à¶Ń": 2852,
      "à·Ĥà¶½": 2853,
      "à·Ģà·ĥà¶ļ": 2854,
      "Ġà·ģà¶±": 2855,
      "Ġà¶Ńà¶»à·Ħà¶ļ": 2856,
      "uk": 2857,
      "à·ļ-": 2858,
      "à¶§à¶ºà¶ļ": 2859,
      "à¶´à¶½à¶§": 2860,
      "Ġà¶ħà·Ģà¶½à¶¸": 2861,
      "à¶©à¶ļà¶º": 2862,
      "à¶®à¶ºà¶ļ": 2863,
      "ink": 2864,
      "Ġ26": 2865,
      "Ġ2000": 2866,
      "Ġcam": 2867,
      "Ġdep": 2868,
      "ize": 2869,
      "Ġwaters": 2870,
      "Ġà·Ĳ": 2871,
      "à¶±à¶ļà¶¯": 2872,
      "à¶Ńà·ģ": 2873,
      "à·Ķ:": 2874,
      "à¶§à¶±à·Ģ": 2875,
      "Ġà·Ħà¶Ńà¶»à¶º": 2876,
      "à¶¶à¶´": 2877,
      "Ġà¶ºà¶½": 2878,
      "à¶®à¶±à¶º": 2879,
      "à¶·à·Ģ": 2880,
      "ana": 2881,
      "hen": 2882,
      "Ġ32": 2883,
      "iss": 2884,
      "Ġ70": 2885,
      "à·Ĭ).": 2886,
      "\\\\\\\\": 2887,
      "RS": 2888,
      "ge": 2889,
      "lic": 2890,
      "à¶Ńà¶½à¶ºà¶ļ": 2891,
      "à¶½à¶©": 2892,
      "à¶´à¶½à¶ļ": 2893,
      "Ġà¶»à¶³à·Ģ": 2894,
      "Ġà·Ħà¶»à·ĥ": 2895,
      "escri": 2896,
      "Ġwant": 2897,
      "Ġà·Ħà¶¯à·Ģà¶Ńà¶ļ": 2898,
      "ner": 2899,
      "now": 2900,
      "à¶½à¶ļà¶»": 2901,
      "Ġà¶Ĩà¶¶": 2902,
      "à¶¸à¶Ńà¶»à¶¸": 2903,
      "Ġà¶§à¶ºà¶»": 2904,
      "Ġà¶·à¶§à¶º": 2905,
      "Ġ(%": 2906,
      "Ġà¶ĩà¶»à¶½à·Ģà¶±": 2907,
      "ele": 2908,
      "Ġà¶īà¶Ńà¶±": 2909,
      "Ġà¶Ĩà·ĥà¶¸": 2910,
      "Ġà¶ĳà·Ħà¶¸à¶º": 2911,
      "Ġà¶ļà¶»à¶±à·Ģà¶±": 2912,
      "Ġà¶Ĩà·Ģà·Ħà¶¸": 2913,
      "Ġtur": 2914,
      "Ġkde": 2915,
      "Ġà·ĥà¶§à·Ħà¶±à¶ļ": 2916,
      "Ġà¶¯à·Ħà¶ºà¶º": 2917,
      "weather": 2918,
      "Ġat": 2919,
      "à¶±à·Ģà¶º": 2920,
      "Ġà¶Ĩà¶Ńà¶Ń": 2921,
      "Ġà¶ħà¶ºà¶»": 2922,
      "Ġà¶ºà¶±à·Ģà¶½": 2923,
      "Ġà¶ļà¶§à·Ħà¶¬": 2924,
      "ones": 2925,
      "à¶»à·Ģà¶±à·Ģ": 2926,
      "Ġà¶Ńà¶»à¶¸à¶§à¶¸": 2927,
      "Ġà¶ħà¶ľà·Ģà¶±": 2928,
      "Ġ80": 2929,
      "à¶ºà·Ħà¶±": 2930,
      "à¶¸à¶§à¶¸": 2931,
      "à¶ľà¶ľ": 2932,
      "Ġà¶Ĩà¶·": 2933,
      "Ġà¶ħà¶Ńà¶»à¶§": 2934,
      "Ġà·ĥà·Ħà¶¢": 2935,
      "à¶»à·Ģà¶¸": 2936,
      "à¶Ĵà·Ģà¶ľ": 2937,
      "Ġso": 2938,
      "à¶ĩà¶»": 2939,
      "Ġà¶´à¶±à¶´": 2940,
      "ĠAnd": 2941,
      "ĠNor": 2942,
      "Ġà¶Ķà¶Ńà¶±à¶¸": 2943,
      "rig": 2944,
      "Ġsymbol": 2945,
      "à¶½à·Ģà¶½": 2946,
      "Ġà¶¶à¶§à¶»": 2947,
      "à·Ŀ\"": 2948,
      "Ġà¶ºà·ħ": 2949,
      "à¶łà¶ºà¶ļ": 2950,
      "à¶°à¶ºà¶§": 2951,
      "ani": 2952,
      "à¶ĳà·ĥ": 2953,
      "Ġche": 2954,
      "Ġà¶Īà¶±": 2955,
      "obb": 2956,
      "eroon": 2957,
      "à·Ļà¶Ĥ": 2958,
      "à¶½à¶³": 2959,
      "à¶«à¶½": 2960,
      "Ġà¶ķà·Ģà¶»": 2961,
      "Ġà¶¶à¶½à¶°": 2962,
      "à¶°à¶ļà¶¸": 2963,
      "à¶»à¶ļà¶Ńà¶±à¶º": 2964,
      "Ġà¶±à¶¸à¶§": 2965,
      "à¶¸à¶ļà·Ģ": 2966,
      "outh": 2967,
      "enp": 2968,
      "à¶ĩà¶±": 2969,
      "Ġ48": 2970,
      "Ġ197": 2971,
      "Ġdepart": 2972,
      "!\"": 2973,
      "to": 2974,
      "à¶½à·Ħ": 2975,
      "à·ĥà¶½à¶§": 2976,
      "à¶ľà¶¸à¶§": 2977,
      "à¶©à¶ļà¶»": 2978,
      "Ġà¶ķà¶±à¶±": 2979,
      "Ġà·ħà¶ľà¶§": 2980,
      "Ġà·Ģà·Ħà¶´": 2981,
      "Ġà·ħà¶Łà¶¯": 2982,
      "ĠFrance": 2983,
      "Ġà¶ļà¶´à¶±à·Ģ": 2984,
      "Ġà¶ĩà¶§à¶ļà¶§": 2985,
      "âĪŀâĪŀ": 2986,
      "SL": 2987,
      "ud": 2988,
      "ue": 2989,
      "âĹ": 2990,
      "à¶½à¶¸à¶§": 2991,
      "à¶½à¶·": 2992,
      "à¶§à¶¸à¶ļ": 2993,
      "Ġà¶±à¶Ńà¶»à¶ļ": 2994,
      "à¶»à¶ļà¶¸à¶ļ": 2995,
      "Ġà¶´à·Ħà¶ļà¶§": 2996,
      "Ġone": 2997,
      "Ġup": 2998,
      "Ġà·ĥà¶¶à¶³à¶Ń": 2999,
      "Ġcameroon": 3000,
      "escription": 3001,
      "Ġdepartments": 3002,
      "'m": 3003,
      "OM": 3004,
      "à·Ļà·Ĵ.": 3005,
      "à¶¸à¶Ł": 3006,
      "à¶¶à¶½à¶º": 3007,
      "Ġà¶ļà¶»à¶±à¶ļà¶¸": 3008,
      "à¶łà¶±à¶º": 3009,
      "Ġà¶īà·ĥà¶¶": 3010,
      "à¶§à¶´à¶Ńà¶ļ": 3011,
      "Ġà¶īà·Ģà¶Ńà¶§": 3012,
      "Ġoption": 3013,
      "opt": 3014,
      "EA": 3015,
      "ra": 3016,
      "à·Ģà¶»à¶ļ": 3017,
      "à·ĥà¶¸à¶ļ": 3018,
      "Ġà¶ħà¶ľà¶¸": 3019,
      "à¶±à·Ģà¶ļ": 3020,
      "Ġà¶ķà¶ľ": 3021,
      "à¶³à¶±": 3022,
      "à¶¢à¶ºà¶§": 3023,
      "Ġà¶ĳà¶±à¶ļà¶½": 3024,
      "à¶©à¶ļà¶½": 3025,
      "à¶ħà·Ħà¶±": 3026,
      "à·Ĵà¶Ĥ?": 3027,
      "Ġdist": 3028,
      "PS": 3029,
      "à·Ģà·Ħà¶»": 3030,
      "Ġà·Ģà¶¸à¶±": 3031,
      "Ġà¶¯à¶»à¶±": 3032,
      "à¶©à·Ģà¶½": 3033,
      "à¶¢à¶±à¶ļà¶º": 3034,
      "à¶±à¶ºà¶º": 3035,
      "Ġà¶ħà¶»à¶½": 3036,
      "à¶Ńà¶ļà¶¸": 3037,
      "Ġ35": 3038,
      "ĠShaw": 3039,
      "Ġ911": 3040,
      "=\\\\\\\\": 3041,
      "PI": 3042,
      "ood": 3043,
      "Ġà¶į": 3044,
      "à¶½à¶¹": 3045,
      "à¶©à¶ľ": 3046,
      "à·Ĥà¶ºà¶±": 3047,
      "Ġà¶ħà·Ģà¶¢": 3048,
      "Ġà¶ħà·Ħà¶ļ": 3049,
      "Ġà¶łà¶Ń": 3050,
      "Ġà¶ĳà·Ģà¶´": 3051,
      "owll": 3052,
      "etnam": 3053,
      "cHowll": 3054,
      "Ġà¶»à¶®à¶ºà¶ļ": 3055,
      "cHowllye": 3056,
      "à¶»à·Ģà¶»": 3057,
      "à¶»à¶¶à¶½": 3058,
      "Ġà¶ļà¶¹": 3059,
      "Ġà¶´à¶½à¶º": 3060,
      "Ġà¶ĩà¶«": 3061,
      "Ġà¶ºà·ĥ": 3062,
      "à·ħà¶±": 3063,
      "Ġà¶ħà¶¸à¶±à¶º": 3064,
      "Ġà·ĥà¶»à¶½à·Ģ": 3065,
      "à¶łà¶»à¶§à¶¸": 3066,
      "Ġà¶ĭà¶©à¶¯": 3067,
      "Ġà¶ĩà¶³à¶½": 3068,
      "ĠLong": 3069,
      "à·Ģà¶¸à¶ļ": 3070,
      "à·Ļà·Ĭ?": 3071,
      "à¶»à·Ĥ": 3072,
      "à¶¯à·Ģà¶±à·Ģ": 3073,
      "Ġà·Ģà¶°": 3074,
      "Ġà¶Ĵà·Ģà¶Ń": 3075,
      "à¶¶à¶ľ": 3076,
      "Ġà¶ĩà·Ģà¶§": 3077,
      "Ġà¶ĩà¶»à¶Ń": 3078,
      "Ġà¶Ĩà¶Łà¶±": 3079,
      "Ġà·ĥà¶¸à·Ħà¶»à¶ļ": 3080,
      "err": 3081,
      "Ġind": 3082,
      "ĠMan": 3083,
      "Ġ400": 3084,
      "Ġà¶´à·ħà¶½": 3085,
      "Ġad": 3086,
      "Ġà¶ĳà¶¸à¶½": 3087,
      "à·Ĭ\".": 3088,
      "Ġà¶±à¶Ńà¶»à·Ģ": 3089,
      "Ġà¶¸à¶ļà¶¶": 3090,
      "à¶ºà¶¸à¶±à¶ļ": 3091,
      "ĠThis": 3092,
      "Ġvietnam": 3093,
      "à·ĥà¶¸à·Ħà¶»à·Ģ": 3094,
      "enpai": 3095,
      "Ġen": 3096,
      "à·ļ--": 3097,
      "à¶´à¶¸": 3098,
      "Ġà¶ļà¶»à¶ļ": 3099,
      "à¶©à¶´": 3100,
      "Ġà¶ĭà¶ł": 3101,
      "Ġà·ĥà¶¸à¶»": 3102,
      "à¶¯à¶»à¶¸": 3103,
      "arn": 3104,
      "oup": 3105,
      "ĠAn": 3106,
      "Ġbl": 3107,
      "ĠBe": 3108,
      "Ġ64": 3109,
      "Ġwhat": 3110,
      "ischer": 3111,
      "à¶Į": 3112,
      "à·ĥà¶ļà¶»à¶±": 3113,
      "à¶¯à¶¸à¶±": 3114,
      "Ġà·Ħà¶ºà¶ļà¶§": 3115,
      "à¶ĤâĢį": 3116,
      "à·Ĥà¶¶": 3117,
      "Ġà·Ģà¶ľà¶º": 3118,
      "Ġà¶ħà¶±à¶»": 3119,
      "à¶ļà¶»à¶±à¶º": 3120,
      "Ġà¶ħà·Ħà¶¹": 3121,
      "Ġ\"'": 3122,
      "itt": 3123,
      "ont": 3124,
      "ath": 3125,
      "Ġà¶ļà¶©à¶±à·Ģ": 3126,
      "ost": 3127,
      "Ġà¶¯à¶¸à¶±à·Ģ": 3128,
      "ĠShort": 3129,
      "Ġà¶ĸ": 3130,
      "à·ĬâĢ": 3131,
      "à¶ļà·Ģà¶¯": 3132,
      "à¶½à¶ºà¶±": 3133,
      "à·ĥà¶½à¶»": 3134,
      "Ġà¶¯à·Ĥ": 3135,
      "Ġà¶īà¶»à¶½": 3136,
      "à¶«à¶ºà¶±": 3137,
      "Ġà¶¸à¶ľà¶±": 3138,
      "à¶»à¶ºà¶º": 3139,
      "à¶°à¶ļà¶»": 3140,
      "Ġà·ĥà·Ħà¶ľà¶Ńà¶º": 3141,
      "Ġà¶īà¶¯à¶´à¶±": 3142,
      "à¶±à¶§à¶Ń": 3143,
      "Ġtext": 3144,
      "Ġ27": 3145,
      "Ġsp": 3146,
      "ĠMI": 3147,
      "à¶Ľà¶Ń": 3148,
      "Ġbr": 3149,
      "ĠFischer": 3150,
      "***": 3151,
      "Ġà¶Ńà¶»à¶Łà¶ºà¶ļ": 3152,
      "Query": 3153,
      "Ġà¶ħà·Ģà¶±à¶Ń": 3154,
      "@}": 3155,
      "Ġev": 3156,
      "à·Ĭ/": 3157,
      "à¶½à·Ģà¶»": 3158,
      "à¶ľà·Ħà¶ľ": 3159,
      "Ġà·ĥà¶§à¶»": 3160,
      "à¶°à¶ļà¶ºà¶ļ": 3161,
      "ĠâĢįâĢį": 3162,
      "à¶®à¶ļà¶Ń": 3163,
      "Ġà·ģà¶Ńà·Ģà¶»": 3164,
      "ons": 3165,
      "Ġà¶±à¶»à¶ļà¶¯": 3166,
      "Ġcat": 3167,
      "à¶»à·Ħà¶±à¶º": 3168,
      "Ġà¶½à¶Łà¶º": 3169,
      "ĠRussia": 3170,
      "thi": 3171,
      "ose": 3172,
      "Ġ{@}": 3173,
      "Ġà¶Ľà¶«": 3174,
      "ebec": 3175,
      "krain": 3176,
      "Ġà¶¸à¶ļà¶½": 3177,
      "à·ĥà·Ģà¶ºà¶ļ": 3178,
      "Ġà¶Ĵà·Ħ": 3179,
      "Ġà¶ĩà¶´à¶ļ": 3180,
      "à·ĸ-": 3181,
      "Ġà¶ĳà·Ħà¶±à¶¸": 3182,
      "Ġà·Ħà¶¯à¶¸": 3183,
      "à¶ĳà¶¸": 3184,
      "Ġà¶ĩà·Ģà¶§à¶»": 3185,
      "day": 3186,
      "ress": 3187,
      "uert": 3188,
      "yl": 3189,
      "ĠQ": 3190,
      "Ġed": 3191,
      "à¶ļà¶¸à¶º": 3192,
      "à·Ļà·Ĭ,": 3193,
      "à¶ľà¶±à·Ģ": 3194,
      "Ġà¶ľà¶½à¶±": 3195,
      "à¶¹à¶±à·Ģ": 3196,
      "inc": 3197,
      "ann": 3198,
      "Ġà¶´à¶½à¶Ń": 3199,
      "aly": 3200,
      "ĠKorea": 3201,
      "ĠPro": 3202,
      "à¶»à¶´à¶¯à¶º": 3203,
      "Ġtool": 3204,
      "ote": 3205,
      "Ġà¶īà·Ħà·ħà¶§": 3206,
      "rik": 3207,
      "Ġ==": 3208,
      "kraine": 3209,
      "ef": 3210,
      "ugin": 3211,
      "Ġà¶¸à¶¢": 3212,
      "Ġà·Ģà·ħà¶ļ": 3213,
      "Ġà¶¯à¶¸à¶½": 3214,
      "Ġà¶Ńà¶«à¶ļ": 3215,
      "Ġà·ĥà·ħ": 3216,
      "Ġà¶ķà¶§": 3217,
      "à¶»à¶ºà¶Ń": 3218,
      "à¶¢à¶ºà¶ļ": 3219,
      "Ġà¶ħà¶Ńà¶ħà¶»": 3220,
      "à¶Ńà¶»à¶¸à¶º": 3221,
      "à¶½à¶ºà¶Ń": 3222,
      "Ġà·Ģà¶½à¶§à¶º": 3223,
      "Ġà¶»à¶¢à¶ºà¶§": 3224,
      "ice": 3225,
      "Ġà¶°à·Ģà¶½": 3226,
      "Ġà·Ģà¶¯à¶ºà¶ļ": 3227,
      "Ġam": 3228,
      "ĠPh": 3229,
      "ĠNo": 3230,
      "Ġà¶ħà¶ºà¶§à¶Ń": 3231,
      "ĠQuebec": 3232,
      "40": 3233,
      "49": 3234,
      "Ġ~": 3235,
      "Ġqu": 3236,
      "à¶±à¶Ńà¶±": 3237,
      "à·Ģà¶»à¶¸": 3238,
      "à¶ºà¶Ńà¶¸": 3239,
      "à·ĻâĪĻâĪĻâĪĻ": 3240,
      "à¶¸à·Ħà¶½": 3241,
      "à¶Ńà¶ļà¶¯": 3242,
      "à·ĥà·Ģà¶ºà¶§": 3243,
      "à·ľ...": 3244,
      "Ġà¶īà·Ĥ": 3245,
      "à¶¶à¶»à·Ģ": 3246,
      "Ġà¶ĩà¶«à·Ģ": 3247,
      "à¶³à¶¸à¶º": 3248,
      "Ġà¶ºà¶±à·Ģà¶±à¶¸": 3249,
      "à¶ºà¶ºà¶¯": 3250,
      "ĠSa": 3251,
      "enn": 3252,
      "Ġà·ĥà¶§à¶±à¶§": 3253,
      "ree": 3254,
      "à¶»à¶´à¶§à¶º": 3255,
      "Ġà¶ļà¶»à¶¯à¶»à¶ļ": 3256,
      "Ġrep": 3257,
      "ĠItaly": 3258,
      "tur": 3259,
      "à¶½à·Ģà¶Ń": 3260,
      "à¶½à·Ģà¶º": 3261,
      "à¶¶à¶¸": 3262,
      "à¶ºà¶±à¶ļà¶¸": 3263,
      "à¶»à¶ºà·Ģ": 3264,
      "à¶»à¶ļà¶ºà¶ļ": 3265,
      "Ġà¶ħà¶»à·Ģ": 3266,
      "à¶¸à¶§à·Ģà¶Ń": 3267,
      "Ġà·Ħà¶¯à¶±à·Ģà¶¯": 3268,
      "à¶Ńà¶ºà¶¸": 3269,
      "Ġà¶ļà¶»à¶½à¶¯": 3270,
      "Ġ28": 3271,
      "ĠMic": 3272,
      "ouse": 3273,
      "ould": 3274,
      "Ġà¶ĩà¶»à¶´à¶±": 3275,
      "Ġpre": 3276,
      "ĠNY": 3277,
      "Ġà¶ħà¶Łà·Ģà¶±": 3278,
      "ĠSpain": 3279,
      "son": 3280,
      "à¶¸à¶´": 3281,
      "à¶»à¶¸à¶ļ": 3282,
      "Ġà¶±à¶¸à¶Ń": 3283,
      "ara": 3284,
      "Ġà¶±à¶»à¶ļà¶ļ": 3285,
      "Ġà¶ļà¶©à¶ºà¶ļ": 3286,
      "Ġwe": 3287,
      "ĠAd": 3288,
      "Ġà¶ĩà¶ľà¶§": 3289,
      "à¶¯à·Ħà·ĥà¶ļ": 3290,
      "ĠTR": 3291,
      "à¶īà·ĥ": 3292,
      "ĠNA": 3293,
      "Ġà¶ħà¶ľà¶ºà¶±": 3294,
      "ĠWill": 3295,
      "amp": 3296,
      "Ġ150": 3297,
      "Ġà¶Ĩà·Ģà¶»à¶«": 3298,
      "ndian": 3299,
      "Ġturkey": 3300,
      "Ġi": 3301,
      "à¶ºà¶¸à¶Ń": 3302,
      "à·ħà¶¸": 3303,
      "à¶°à¶»": 3304,
      "à¶ļà¶ļà¶§à¶¯": 3305,
      "à¶¹à¶»": 3306,
      "à¶®à¶¸": 3307,
      "à·ĥà¶»à¶ºà¶ļ": 3308,
      "Ġà¶īà¶³à¶½à¶¸": 3309,
      "Ġsearch": 3310,
      "Ġà¶¶à¶©à·Ģ": 3311,
      "ĠDom": 3312,
      "ĠBl": 3313,
      "à¶Ĩà¶»à¶ļ": 3314,
      "Ġhim": 3315,
      "Ġà¶Ŀà¶§": 3316,
      "unit": 3317,
      "Ġmess": 3318,
      "Ġà¶ħà¶Łà¶½": 3319,
      "Ġà¶Ķà·ĥà·Ģà¶±": 3320,
      "Ġà¶Ľà¶±": 3321,
      "Ġà·Ħà¶Ńà¶»à¶ļà¶§": 3322,
      "ques": 3323,
      "Ġphp": 3324,
      "AND": 3325,
      "ike": 3326,
      "à¶»à¶»": 3327,
      "à¶Ńà¶¥": 3328,
      "Ġà·Ħà¶Ńà¶½": 3329,
      "Ġà¶¶à¶³à·Ģ": 3330,
      "à¶©à¶±à¶ºà¶ļ": 3331,
      "Ġà¶Ĵà¶ļà¶¸à¶º": 3332,
      "Ġà¶»à·ħ": 3333,
      "Ġà·ĥà·Ħà¶ļà¶»": 3334,
      "itz": 3335,
      "Ġà·Ģà¶ºà·ĥà¶º": 3336,
      "ĠFro": 3337,
      "Ġplugin": 3338,
      "Ġview": 3339,
      "ML": 3340,
      "bab": 3341,
      "à¶ļà¶¶à¶½": 3342,
      "à·Ļà·Ŀ": 3343,
      "à¶¸à·Ģà¶½": 3344,
      "Ġà¶ħà¶ľà¶ºà¶ļ": 3345,
      "Ġà¶Ńà·Ħà¶©": 3346,
      "Ġà¶ľà¶º": 3347,
      "à·ĳâĪĻâĪĻâĪĻ": 3348,
      "à¶ºà¶ļà¶ºà¶±": 3349,
      "à¶łà¶ļ": 3350,
      "Ġà¶ºà¶±à¶ļà¶±": 3351,
      "Ġà¶¢à¶´": 3352,
      "Ġà¶ľà¶±à¶±à¶ļ": 3353,
      "Ġà¶´à¶»à¶«à¶º": 3354,
      "à¶´à¶±à¶ºà¶§": 3355,
      "ore": 3356,
      "ĠMy": 3357,
      "à¶Ńà·Ģà·ģà¶º": 3358,
      "ĠKing": 3359,
      "à¶«à¶ľà·Ħ": 3360,
      "Ġà¶µà¶½à¶ļà¶º": 3361,
      "à¶ľà·Ħà¶±à·Ģ": 3362,
      "ATO": 3363,
      "Ġ1206": 3364,
      "jan": 3365,
      "à¶§à¶½à¶ºà¶ļ": 3366,
      "Ġà·Ħà¶ļ": 3367,
      "à¶´à¶Ńà¶±": 3368,
      "Ġà¶ļà¶»à¶ľà¶¸": 3369,
      "Ġà¶ħà¶´à¶Ń": 3370,
      "à¶ºà¶ļà¶¯": 3371,
      "à·ħà¶½": 3372,
      "à·ħà¶¸à¶º": 3373,
      "à¶»à¶¸à¶«": 3374,
      "Ġà·Ģà¶½à¶Ń": 3375,
      "à·Ģà¶»à¶±": 3376,
      "int": 3377,
      "Ġà¶ļà¶§à¶§": 3378,
      "à·ĥà¶§à·Ħà¶±": 3379,
      "ĠMa": 3380,
      "Ġcard": 3381,
      "à¶ĩà¶«": 3382,
      "Ġà·ĥà¶¯à·Ħà¶±": 3383,
      "à¶ĭà¶¯": 3384,
      "Ġ815": 3385,
      "à·Ļà·Ļà·ĬâĢį": 3386,
      "ux": 3387,
      "Ġ&": 3388,
      "à·Ĭ]": 3389,
      "à¶Ńà¶¸à¶¯": 3390,
      "à·ĥà¶¸à¶º": 3391,
      "Ġà¶ĳà¶±à¶¸": 3392,
      "à¶©à·Ģà¶½à¶§": 3393,
      "à¶©à¶Ńà¶½à¶º": 3394,
      "à·ħà·Ģà¶»": 3395,
      "Ġà¶»à¶ľ": 3396,
      "Ġà¶ļà¶½à¶±": 3397,
      "Ġà¶¸à¶»à¶«à¶ºà¶ļ": 3398,
      "Ġà¶ļà¶§à¶ļà¶Ń": 3399,
      "hell": 3400,
      "à¶ĩà¶½": 3401,
      "Ġaz": 3402,
      "Ġà¶Ŀà¶±": 3403,
      "Ġà¶«à¶ºà¶§": 3404,
      "ever": 3405,
      "Ġà¶±à¶§à¶±à·Ģ": 3406,
      "ango": 3407,
      "Ġà·Ģà·ħà¶½": 3408,
      "mark": 3409,
      "ox": 3410,
      "ther": 3411,
      "Ġ>": 3412,
      "à¶´à¶ºà¶±": 3413,
      "à¶´à¶ļà¶º": 3414,
      "Ġà¶¸à¶ľà¶´": 3415,
      "à¶±à¶ºà¶¸": 3416,
      "Ġà¶ĳà¶±à¶ľà¶¸à¶±": 3417,
      "Ġà·ĥà·Ħà¶±à¶ºà¶ļ": 3418,
      "à·Ĳ.\"": 3419,
      "Ġà¶ħà¶¯à·Ħà¶±": 3420,
      "à¶ºà¶±à·Ģà¶§": 3421,
      "à¶½à¶ºà¶º": 3422,
      "Ġà¶ļà·ħà¶Ń": 3423,
      "ĠCar": 3424,
      "Ġà¶±à·Ģà¶Ńà¶¸": 3425,
      "à¶ĳà¶ļà¶§": 3426,
      "Ġtime": 3427,
      "orico": 3428,
      "à¶Ńà¶§à¶¯": 3429,
      "à¶ºà·Ģà·ģ": 3430,
      "à¶»à¶«à¶ºà¶§": 3431,
      "à¶¯à·Ħà·ĥà¶§": 3432,
      "Ġpuert": 3433,
      "Ġ2008": 3434,
      "istbox": 3435,
      "aijan": 3436,
      "erbaijan": 3437,
      "Ġazerbaijan": 3438,
      "Ġpuertorico": 3439,
      "RI": 3440,
      "à¶±à·Ħà·Ģ": 3441,
      "à¶½à¶ºà¶¸": 3442,
      "Ġà¶ľà¶Ńà¶ļ": 3443,
      "Ġà¶Ĵà¶ļà¶ļà¶ºà¶ļ": 3444,
      "Ġà¶½à¶ľà¶¸": 3445,
      "Ġà¶¢à¶´à¶±": 3446,
      "à·Ģà¶ļà¶ºà¶±": 3447,
      "à·ĳ.\"": 3448,
      "ĠCD": 3449,
      "à·Ħà¶§à¶º": 3450,
      "à¶¥à¶ºà¶±": 3451,
      "Ġ5000": 3452,
      "ĠBrit": 3453,
      "Ġdis": 3454,
      "ĠEl": 3455,
      "Ġà¶ĩà¶Łà¶§": 3456,
      "Ġà·Ħà¶Ńà¶»à·Ģ": 3457,
      "à¶´à¶»à¶ºà¶ļà¶§": 3458,
      "ult": 3459,
      "Ġà¶»à¶§à¶ļà¶¢": 3460,
      "à·ĬâĢĮ": 3461,
      "IP": 3462,
      "iew": 3463,
      "Ġà¶´à¶ľ": 3464,
      "Ġà·ĥà¶ł": 3465,
      "Ġà¶¶à·Ģà¶Ń": 3466,
      "Ġà¶¶à¶»à¶ļ": 3467,
      "à·Ŀ-": 3468,
      "à·ħà·ĥ": 3469,
      "Ġà¶½à¶¸": 3470,
      "Ġà¶¢à¶±à¶ľ": 3471,
      "Ġà¶ĭà¶¹à¶º": 3472,
      "Ġà¶ļà¶»à¶½à¶º": 3473,
      "ern": 3474,
      "ito": 3475,
      "ork": 3476,
      "arques": 3477,
      "à¶ľà¶½à¶ºà¶±": 3478,
      "ĠID": 3479,
      "Ġnor": 3480,
      "ady": 3481,
      "ĠErik": 3482,
      "ĠOF": 3483,
      "à·ĥà¶³à¶ľà¶±": 3484,
      "ide": 3485,
      "Ġreg": 3486,
      "ĠNYPD": 3487,
      "'.": 3488,
      "ON": 3489,
      "à¶±à¶±à·Ģà¶¯": 3490,
      "à¶ļà¶ľà¶Ń": 3491,
      "à¶Ńà¶½à¶§": 3492,
      "à¶ľà¶ºà¶º": 3493,
      "Ġà¶Ĵà¶»à¶±": 3494,
      "à¶©à¶±à¶ľ": 3495,
      "à¶¶à¶¯à·Ģ": 3496,
      "Ġà¶ĭà¶½à·Ģ": 3497,
      "Ġà¶½à¶ľà¶º": 3498,
      "Ġà¶Ĩà¶Ńà¶»": 3499,
      "Ġà¶ķà¶¸": 3500,
      "Ġà¶»à¶´": 3501,
      "Ġà¶»à¶©": 3502,
      "à·Ģà¶Ńà¶ļ": 3503,
      "à¶¯à¶»à¶ºà¶±": 3504,
      "à¶¯à¶»à¶ºà¶§": 3505,
      "à¶¹à·Ģ": 3506,
      "Ġà¶ħà¶¸à¶»": 3507,
      "Ġà¶ħà¶¯à¶§": 3508,
      "à·Ģà¶»à¶ºà¶ļ": 3509,
      "Ġà¶ĳà¶ļà¶§à¶¯": 3510,
      "Ġà¶ĩà¶¯à·Ħ": 3511,
      "ĠSouth": 3512,
      "à¶ĩà¶»à¶½": 3513,
      "Ġ49": 3514,
      "alonia": 3515,
      "à¶¸à¶«à¶§à¶¸": 3516,
      "ĠEOL": 3517,
      "Ġ75": 3518,
      "ĠMrs": 3519,
      "Ġà¶«à¶ºà¶ľ": 3520,
      "imbab": 3521,
      "hael": 3522,
      "ĠAlb": 3523,
      "Ġcomarques": 3524,
      "ĠUnit": 3525,
      "Ġcheck": 3526,
      "Ġcatalonia": 3527,
      "imbabwe": 3528,
      "han": 3529,
      "mp": 3530,
      "à¶¸à¶±à¶º": 3531,
      "Ġà¶±à¶¯": 3532,
      "à¶´à¶½à¶ºà¶ļ": 3533,
      "Ġà¶ļà¶»à·Ģà¶½": 3534,
      "Ġà¶¶à¶ļ": 3535,
      "à·ģà¶ļà¶ºà¶ļ": 3536,
      "Ġà·Ħà¶»à·Ģà¶½": 3537,
      "Ġà¶¢à¶¸": 3538,
      "à¶»à¶ļà¶½": 3539,
      "à¶§à¶¸à¶§": 3540,
      "à¶Ńà¶»à¶½": 3541,
      "à·Ĵ..\"": 3542,
      "Ġà·Ģà¶§à¶º": 3543,
      "Ġcur": 3544,
      "Ġ36": 3545,
      "Ġà¶ħà¶¸à¶Ńà¶»à·Ģ": 3546,
      "Ġà¶´à¶«à¶ľà¶±": 3547,
      "icia": 3548,
      "Ġà¶Īà·ĥ": 3549,
      "ĠHey": 3550,
      "Ġà¶«à¶ºà¶ļ": 3551,
      "ules": 3552,
      "Ġproper": 3553,
      "Ġgroup": 3554,
      "ĠFrodo": 3555,
      "ĠAlbert": 3556,
      "Poss": 3557,
      "ient": 3558,
      "up": 3559,
      "à¶ºà·ģ": 3560,
      "à¶ºà·Ģà¶Ń": 3561,
      "à¶Ńà·Ħ": 3562,
      "à·Ħà¶½à¶ļà¶§": 3563,
      "à·ĥà¶ľà¶±": 3564,
      "Ġà¶Ķà¶±à¶¯": 3565,
      "Ġà¶Ĵà¶´": 3566,
      "à¶³à·Ģà¶±": 3567,
      "à¶»à¶ļà¶±": 3568,
      "Ġà¶§à¶ļ": 3569,
      "à¶»à¶¸à¶ºà¶§": 3570,
      "à¶Ńà¶ºà¶Ń": 3571,
      "Ġà¶ļà¶§à¶ļ": 3572,
      "org": 3573,
      "NamePoss": 3574,
      "ict": 3575,
      "Ġà¶½à¶Łà¶¸": 3576,
      "à¶Ĩà¶»": 3577,
      "Ġno": 3578,
      "Ġà¶ħà·Ģà·ĥà¶»à¶ºà¶ļ": 3579,
      "à¶Ķà¶¶à¶ľ": 3580,
      "Ġrom": 3581,
      "essive": 3582,
      "ational": 3583,
      "à¶©à¶Ńà¶½à¶ºà¶§": 3584,
      "ANSL": 3585,
      "aska": 3586,
      "Ġfrom": 3587,
      "Ġdistric": 3588,
      "ĠTRANSL": 3589,
      "ATORS": 3590,
      "NamePossessive": 3591,
      "ĠTRANSLATORS": 3592,
      "mode": 3593,
      "Ġâ": 3594,
      "à¶¸à¶©": 3595,
      "à¶§à¶±à¶¸": 3596,
      "à¶§à¶±à¶º": 3597,
      "à¶§à·ĥà¶§": 3598,
      "Ġà¶ļà¶±à¶§": 3599,
      "à¶ľà¶¸à¶º": 3600,
      "à¶ľà¶½à¶ºà¶ļ": 3601,
      "Ġà¶ħà¶Ńà¶±à¶§": 3602,
      "Ġà¶±à·Ħ": 3603,
      "Ġà·Ħà¶¹": 3604,
      "Ġà·Ħà¶Ńà¶º": 3605,
      "Ġà¶ĳà¶ļà¶ľà¶Ń": 3606,
      "à¶«à¶±à·Ģ": 3607,
      "Ġà¶½à¶«": 3608,
      "Ġà¶½à·Ĩ": 3609,
      "à¶½à¶ļà¶«": 3610,
      "à¶®à·Ģ": 3611,
      "ĠCP": 3612,
      "Ġà¶¯à·Ģà·ĥà¶ļà¶¸": 3613,
      "Ġà·Ģà¶»à¶½": 3614,
      "Ġkey": 3615,
      "ĠDen": 3616,
      "ings": 3617,
      "Ġ61": 3618,
      "à·Ģà¶ľà¶»": 3619,
      "Ġhas": 3620,
      "Ġà¶±à¶©à¶Ń": 3621,
      "Ġà¶Ĩà¶·à¶»à¶«": 3622,
      "Ġedu": 3623,
      "ĠAlberta": 3624,
      "Ġdistricts": 3625,
      "CA": 3626,
      "ok": 3627,
      "à·ĲâĪĻâĪĻâĪĻ": 3628,
      "à·ľ..": 3629,
      "Ġà¶´à·Ģà·ĥ": 3630,
      "à¶´à¶ľà¶Ń": 3631,
      "....": 3632,
      "à·ģà¶«à¶ºà¶ļ": 3633,
      "à¶Ńà¶±à¶ºà¶ļ": 3634,
      "à¶Ńà¶ºà¶ľ": 3635,
      "Ġà¶ļà¶§à·Ģ": 3636,
      "Ġtr": 3637,
      "à¶´à·ĥà¶§": 3638,
      "oug": 3639,
      "Ġ43": 3640,
      "Ġà¶ĩà¶³à¶±": 3641,
      "ĠBye": 3642,
      "Ġà¶»à¶§à·Ģà¶½": 3643,
      "ĠWe": 3644,
      "Ġà·Ģà¶»à¶¯à·Ģ": 3645,
      "Ġrules": 3646,
      "Ġtranslator": 3647,
      "Ġheart": 3648,
      "ĠColum": 3649,
      "ĠMichael": 3650,
      "Ġproperly": 3651,
      "'ll": 3652,
      "Ġif": 3653,
      "à·Ģà¶¸à¶º": 3654,
      "à·ļ:": 3655,
      "Ġà¶¸à¶Ńà¶§": 3656,
      "Ġà·Ħà¶ºà¶º": 3657,
      "Ġà¶ĩà¶±à·Ģ": 3658,
      "Ġà¶¸à¶§à¶¯": 3659,
      "Ġà¶Ĩà·Ģà¶±à¶¸": 3660,
      "à·Ĥà¶±à¶ºà¶ļ": 3661,
      "à¶ħà·Ģà·ĥ": 3662,
      "Ġà¶·à¶§": 3663,
      "à·ı..\"": 3664,
      "Ġà¶Ńà¶»à¶«à¶º": 3665,
      "Ġà¶ĳà¶Ńà¶ļà¶±": 3666,
      "Ġktur": 3667,
      "Ġwas": 3668,
      "Ġwhen": 3669,
      "ĠDEA": 3670,
      "ĠIn": 3671,
      "ĠNash": 3672,
      "Ġlike": 3673,
      "oll": 3674,
      "à¶Ĩà¶´à·Ħ": 3675,
      "Ġman": 3676,
      "Ġlearn": 3677,
      "Ġzimbabwe": 3678,
      "onesia": 3679,
      "Ġkturtle": 3680,
      "19": 3681,
      "app": 3682,
      "der": 3683,
      "Ġà¶ļà·ĥà¶½": 3684,
      "Ġà¶ĳà¶¸à¶ľ": 3685,
      "Ġà¶´à·ģ": 3686,
      "à¶»à¶ļà¶»à¶½": 3687,
      "Ġà¶ħà¶Ńà¶Ń": 3688,
      "à·ĥà¶±à¶¯": 3689,
      "ĠCl": 3690,
      "à·Ħà¶§à¶¯": 3691,
      "à¶Ĵà¶º": 3692,
      "Ġà¶ħà¶¸à¶Ńà¶±à·Ģ": 3693,
      "ĠUS": 3694,
      "Ġnew": 3695,
      "eth": 3696,
      "ets": 3697,
      "Ġà¶īà·Ģà¶»à¶ļà¶»à¶±": 3698,
      "Ġà·Ħà·Ģà·ĥà¶§": 3699,
      "ffff": 3700,
      "Ġà¶ľà¶½à·Ģà¶±à·Ģ": 3701,
      "Ġprov": 3702,
      "right": 3703,
      "16": 3704,
      "CK": 3705,
      "ole": 3706,
      "à¶ļà¶«": 3707,
      "à·Ħà·Ħ": 3708,
      "à¶¯à¶ļà¶¸": 3709,
      "à¶ľà¶ºà¶ļà¶§": 3710,
      "à·ĳ\"": 3711,
      "à¶«à¶ļà¶§": 3712,
      "Ġà¶»à·Ħà¶ļ": 3713,
      "Ġà¶±à¶¸à·Ģà¶Ń": 3714,
      "à¶¢à¶ļà¶ºà¶ļ": 3715,
      "Ġà¶¸à·Ħà¶¢à¶±": 3716,
      "ĠCobb": 3717,
      "Ġà¶ķà¶ļà·Ģ": 3718,
      "ĠDo": 3719,
      "Ġapp": 3720,
      "Ġmenu": 3721,
      "ife": 3722,
      "à¶ºà¶ºà¶±à¶º": 3723,
      "à¶µà¶½à¶º": 3724,
      "ĠZam": 3725,
      "ĠBritish": 3726,
      "Ġromania": 3727,
      "uf": 3728,
      "Ġà¶±à·Ħà¶»": 3729,
      "Ġà¶ľà¶¸à¶ļ": 3730,
      "Ġà¶¶à¶»à¶º": 3731,
      "Ġà¶ĩà·Ĩ": 3732,
      "Ġà¶Ĵà¶ļà·Ģ": 3733,
      "à¶°à¶ºà¶ļà¶§": 3734,
      "Ġà·ĥà¶¸à¶»à¶¸": 3735,
      "Ġà·ĥà¶¸à¶ľà¶¸": 3736,
      "à·ļ?\"": 3737,
      "à·Ĩà¶©": 3738,
      "Ġà¶ļà·ħà¶¶à¶½": 3739,
      "à¶½à¶±à¶ºà¶§": 3740,
      "ĠCOM": 3741,
      "à¶Ńà¶§à¶º": 3742,
      "Ġà¶ĩà¶ľà·Ģ": 3743,
      "Ġà¶īà·Ħà¶½à¶¸": 3744,
      "Ġhead": 3745,
      "Ġà¶ľà¶Łà¶§": 3746,
      "error": 3747,
      "MAND": 3748,
      "ial": 3749,
      "res": 3750,
      "uck": 3751,
      "à¶Ńà¶¸à¶ļ": 3752,
      "à¶Ńà¶½à¶ļ": 3753,
      "à¶½à¶Ńà¶¸": 3754,
      "Ġà¶¯à¶©à¶º": 3755,
      "Ġà¶ľà¶³à¶º": 3756,
      "Ġà¶Ĩà·Ģà¶±": 3757,
      "Ġà¶Ĩà¶¥": 3758,
      "Ġà¶ħà¶¸à¶»à¶«": 3759,
      "Ġà¶ħà¶¯à¶¸": 3760,
      "Ġà¶¸à·Ħà·ħ": 3761,
      "Ġà¶Ĭà·ģ": 3762,
      "à¶Ķà¶±": 3763,
      "Ġà¶īà¶¯à¶½à¶¸": 3764,
      "à·ĥà¶»à·Ģ": 3765,
      "Ġà¶¶à¶ºà¶¯": 3766,
      "Ġà¶ĩà¶»à¶ľ": 3767,
      "ĠGr": 3768,
      "ĠHe": 3769,
      "à¶±à¶»à¶ºà¶±": 3770,
      "à¶»à¶ļà¶®à¶±à¶ºà¶ļ": 3771,
      "Ġ198": 3772,
      "umber": 3773,
      "--------": 3774,
      "ĠBeans": 3775,
      "ĠColumbia": 3776,
      "ĠCOMMAND": 3777,
      "'ve": 3778,
      "via": 3779,
      "ĠÂ": 3780,
      "à¶¸à¶¸à¶Ń": 3781,
      "à¶Ńà¶©": 3782,
      "à¶§à¶©": 3783,
      "à¶¯à¶¢à¶±à¶ļ": 3784,
      "Ġà¶ħà¶«à¶Ń": 3785,
      "à¶´à¶´": 3786,
      "Ġà·Ħà¶»à·Ģ": 3787,
      "à·ĸ?": 3788,
      "Ġà·Ģà¶ľà¶¸": 3789,
      "à¶ļà¶ļà¶¯": 3790,
      "à¶ļà¶»à¶±à·Ģà¶¯": 3791,
      "Ġà¶ħà¶ºà¶º": 3792,
      "Ġà¶´à¶»à¶´": 3793,
      "à¶Ńà¶ºà·Ģ": 3794,
      "Ġà¶ļà¶»à¶½à¶Ń": 3795,
      "ous": 3796,
      "ĠSc": 3797,
      "à¶ĩà·ĥ": 3798,
      "à¶ĭà¶¯à·Ģ": 3799,
      "reen": 3800,
      "ĠLJ": 3801,
      "ĠWindow": 3802,
      "Ġà¶¸à¶±à·ĥà¶ļ": 3803,
      "ĠThank": 3804,
      "Ġà¶¯à¶Łà¶½à¶±": 3805,
      "Ġà¶ĸà·Ĥ": 3806,
      "Ġmessage": 3807,
      "13": 3808,
      "ER": 3809,
      "fe": 3810,
      "senpai": 3811,
      "van": 3812,
      "à¶ĥ": 3813,
      "à·ļâĪĻâĪĻ": 3814,
      "à¶ľà¶ľà¶Ń": 3815,
      "Ġà¶ħà¶ºà¶±": 3816,
      "Ġà¶´à¶®": 3817,
      "Ġà¶½à¶©": 3818,
      "Ġà¶Ĩà¶ļà¶½": 3819,
      "Ġà¶¶à¶½à¶ĩà¶«": 3820,
      "Ġ\"\"": 3821,
      "Ġà¶Ĭà¶¸": 3822,
      "erm": 3823,
      "are": 3824,
      "Ġsu": 3825,
      "ĠSol": 3826,
      "Ġà¶ļà¶¸à¶ļà¶§": 3827,
      "ale": 3828,
      "ĠFl": 3829,
      "Ġthey": 3830,
      "thur": 3831,
      "Ġà¶¸à¶±à·ĥà¶§": 3832,
      "ĠVir": 3833,
      "gr": 3834,
      "¿½": 3835,
      "ï¿½": 3836,
      "Ġem": 3837,
      "Ġï¿½": 3838,
      "à·ĴâĪĻâĪĻ": 3839,
      "à¶ºà¶¸à¶¯": 3840,
      "à¶»à¶±à¶ºà¶ļ": 3841,
      "à¶Ńà¶¸à¶±": 3842,
      "Ġà¶ļà¶¸à¶§": 3843,
      "à·ĥà¶ļà¶»à¶«à¶º": 3844,
      "Ġà¶ħà¶¯à¶»": 3845,
      "Ġà¶Ńà¶¯à¶§": 3846,
      "Ġà¶¢à¶ľ": 3847,
      "à¶¸à¶±à¶ļ": 3848,
      "à¶½à¶ļà¶ºà¶±": 3849,
      "inic": 3850,
      "Ġà¶Ĩà¶´à¶¯": 3851,
      "à¶ħà¶ļ": 3852,
      "à¶½à·Ģà¶ľà¶±": 3853,
      "à¶¸à¶»à¶±": 3854,
      "Ġ''": 3855,
      "à¶´à·ĥà¶Ń": 3856,
      "ĠSam": 3857,
      "à¶ĩà¶Ł": 3858,
      "Ġà¶ĳà·Ģà¶ľ": 3859,
      "Ġà¶¸à¶Łà·Ħà¶»": 3860,
      "ĠGPS": 3861,
      "Ġ99": 3862,
      "ĠChitt": 3863,
      "Ġcont": 3864,
      "ublic": 3865,
      "Ġbeen": 3866,
      "Ġà¶±à¶Łà¶»à¶º": 3867,
      "Ġà¶Ĩà¶ºà¶Ńà¶±à¶ºà¶ļ": 3868,
      "elect": 3869,
      "à¶±à¶ĳà¶ļ": 3870,
      "à·ı;": 3871,
      "à¶§à¶¸à¶º": 3872,
      "à¶´à¶ºà¶»": 3873,
      "Ġà¶ĩà¶±à¶±": 3874,
      "Ġà¶ĳà¶ºà¶½": 3875,
      "à·ģà¶´à¶Ń": 3876,
      "Ġà¶ķà¶©à¶»": 3877,
      "Ġà¶¶à¶½à·Ħà¶±": 3878,
      "à¶¢à¶ļà¶Ń": 3879,
      "à¶®à¶ļà·Ģ": 3880,
      "à¶¯à¶ºà¶º": 3881,
      "à¶ħà¶°": 3882,
      "Ġà¶ĳà¶ļà¶§à¶º": 3883,
      "Ġà¶ĳà¶ļà¶§à¶Ń": 3884,
      "ite": 3885,
      "à¶ĳà¶±à·Ģ": 3886,
      "Ġ29": 3887,
      "à¶ºà·Ģà¶±à·Ģà¶¯": 3888,
      "ence": 3889,
      "Ġà¶ĩà¶³à¶ľà¶±": 3890,
      "ĠDV": 3891,
      "ĠNational": 3892,
      "ĠRango": 3893,
      "ustr": 3894,
      "Ġà·Ħà¶Ńà¶»à¶¯": 3895,
      "ateg": 3896,
      "ĠWhat": 3897,
      "optic": 3898,
      "ĠDenmark": 3899,
      "ĠZamani": 3900,
      "ĠChitti": 3901,
      "),": 3902,
      "MS": 3903,
      "SI": 3904,
      "fer": 3905,
      "ww": 3906,
      "Ġhere": 3907,
      "à¶Ī": 3908,
      "à¶»à¶´à¶±": 3909,
      "Ġà¶ļà¶±à·Ģà¶¯": 3910,
      "Ġà·ĥà¶ľ": 3911,
      "Ġà¶ºà·Ģà¶¸": 3912,
      "à¶¢à¶±à¶Ń": 3913,
      "Ġà¶ĩà¶ºà¶º": 3914,
      "Ġà¶ħà¶»à¶¹à¶±": 3915,
      "Ġà¶©à·Ģ": 3916,
      "Ġà¶©à¶¸": 3917,
      "à¶»à·Ģà¶«": 3918,
      "Ġsc": 3919,
      "Ġà¶»à·ĥà·Ģ": 3920,
      "à·ĥà·Ħà¶ľà¶Ń": 3921,
      "ombia": 3922,
      "Ġà¶½à¶¸à¶ºà·Ģ": 3923,
      "Ġà¶Ńà¶¯à¶¶": 3924,
      "à·ı\".": 3925,
      "eyes": 3926,
      "umn": 3927,
      "Ġà¶Ńà¶¶à¶±à·Ģ": 3928,
      "Ġ01": 3929,
      "Ġà¶ļà¶½à¶¶à¶½à¶ºà¶ļ": 3930,
      "cc": 3931,
      "à·ĬâĪĻâĪĻâĪĻâĪĻ": 3932,
      "Ġà¶Ķà¶Ńà¶±à¶§": 3933,
      "à¶©à¶±à¶ľà¶±": 3934,
      "à·ĵâĪĻ": 3935,
      "à·ģà¶±à¶ºà¶§": 3936,
      "Ġà¶ķà·Ģà¶±": 3937,
      "Ġà¶ħà·Ħà·Ģà¶½": 3938,
      "Ġà¶ħà·Ħà·ĥà¶§": 3939,
      "inton": 3940,
      "à¶ĳà¶ł": 3941,
      "Ġà¶ĭà¶¶à¶½à¶§": 3942,
      "Ġà¶ĭà¶´à¶¯à·Ģà¶±": 3943,
      "ĠAlicia": 3944,
      "à¶µà¶½à¶ºà¶ļ": 3945,
      "Quinton": 3946,
      "Ġcomp": 3947,
      "ender": 3948,
      "Ġcolumn": 3949,
      "ĠCPU": 3950,
      "ĠVirgin": 3951,
      "Ġï¿½\\": 3952,
      "14": 3953,
      "The": 3954,
      "lp": 3955,
      "oy": 3956,
      "à¶ļà¶©à¶º": 3957,
      "à¶ļà·Ħà¶¸": 3958,
      "à¶¯à·Ħ": 3959,
      "Ġà·Ģà¶ºà¶½": 3960,
      "Ġà¶Ķà¶¸": 3961,
      "Ġà¶±à·Ģà¶ļ": 3962,
      "Ġà¶¯à·ħ": 3963,
      "à¶©à·Ģà¶±": 3964,
      "Ġ-\"": 3965,
      "Ġà¶¢à¶ºà·Ģ": 3966,
      "à¶°à¶±à¶ºà¶ļ": 3967,
      "Ġà¶ĭà¶±à·Ħà¶¸": 3968,
      "Ġà·ĥà¶Ńà¶ºà¶ļ": 3969,
      "Ġà¶¸à¶Ńà¶ļà¶±": 3970,
      "alia": 3971,
      "Ġà¶ľà·Ħà¶º": 3972,
      "ĠTr": 3973,
      "Ġà¶ľà¶½à¶±à·Ģ": 3974,
      "ington": 3975,
      "à¶Ĩà¶¯à¶»": 3976,
      "ĠEn": 3977,
      "Ġà¶ħà¶Łà·Ģà¶±à·Ģ": 3978,
      "eah": 3979,
      "Ġcolombia": 3980,
      "Ġà¶ĳà·Ģà¶»à·ĥ": 3981,
      "Ġà¶ļà¶§à·Ģà·Ħà¶ľ": 3982,
      "ĠWindows": 3983,
      "ategory": 3984,
      "ca": 3985,
      "top": 3986,
      "Ġx": 3987,
      "Ġim": 3988,
      "à¶½à¶´à¶±": 3989,
      "Ġà¶ļà·Ģà¶±": 3990,
      "Ġà¶´à·Ģà¶ļ": 3991,
      "Ġà¶Ńà¶½à¶º": 3992,
      "Ġà¶ħà¶Ńà¶ĩà¶»à¶½": 3993,
      "à¶½à¶ļà¶ºà¶ļ": 3994,
      "à¶½à¶ļà¶§à¶¯": 3995,
      "à·Ĭ...\"": 3996,
      "Ġà¶ĭà¶¶à¶Ń": 3997,
      "Ġselect": 3998,
      "Ġknow": 3999,
      "Ġà¶ľà·Ħà¶±à·Ģà¶¯": 4000,
      "Ġà·ĥà¶½à¶ļà¶±à·Ģ": 4001,
      "ĠPl": 4002,
      "ĠNep": 4003,
      "Ġdon": 4004,
      "Ġà¶ĭà¶´à¶¯à·ĥ": 4005,
      "utog": 4006,
      "Ġà¶µà¶½à¶¯": 4007,
      "Ġ250": 4008,
      "trol": 4009,
      "Ġukraine": 4010,
      "ĠArthur": 4011,
      "azil": 4012,
      "ource": 4013,
      "ĠOkay": 4014,
      "Ġindonesia": 4015,
      "thiop": 4016,
      "utogen": 4017,
      "col": 4018,
      "eal": 4019,
      "form": 4020,
      "ney": 4021,
      "te": 4022,
      "à·Ĭ;": 4023,
      "à¶ļà¶±à·Ģ": 4024,
      "à¶»à·Ģà¶Ń": 4025,
      "à·Ħà¶ºà¶±": 4026,
      "à¶¯à¶¸à¶ļ": 4027,
      "à¶¯à¶ļà¶½": 4028,
      "Ġà¶ħà¶¹": 4029,
      "à·ĵ\"": 4030,
      "à¶¶à¶¶": 4031,
      "Ġà¶ºà·Ģ": 4032,
      "Ġà¶ļà·Ģà¶¸à¶¯": 4033,
      "Ġà·Ģà¶½à¶º": 4034,
      "Ġà¶ħà¶¯à¶Ń": 4035,
      "à¶Ńà¶»à¶ºà¶§": 4036,
      "Ġà¶¸à¶»à¶±à¶º": 4037,
      "à¶ħà·ĥ": 4038,
      "ĠCA": 4039,
      "Ġtab": 4040,
      "atche": 4041,
      "Ġwww": 4042,
      "à¶ĩà·Ħ": 4043,
      "Ġ47": 4044,
      "Ġà¶ľà·Ħà¶¸": 4045,
      "à·Ĥà¶ļà¶Ń": 4046,
      "à¶§à¶½à¶ºà¶§": 4047,
      "Ġlp": 4048,
      "Ġnumber": 4049,
      "ade": 4050,
      "ĠLe": 4051,
      "à¶ļà¶»à¶«à¶ºà¶§": 4052,
      "Ġoff": 4053,
      "Ġà¶¯à·Ħà¶ºà¶ļà¶§": 4054,
      "à¶©à·ĥà¶§à·Ħà¶±à¶§": 4055,
      "Ġà¶¶à¶»à¶´à¶Ńà¶½à¶º": 4056,
      "ĠVirginia": 4057,
      "ĠNepom": 4058,
      "Indian": 4059,
      "ced": 4060,
      "eorg": 4061,
      "les": 4062,
      "rent": 4063,
      "sel": 4064,
      "Ġà·ı": 4065,
      "Ġ000": 4066,
      "à¶±à¶´à¶Ń": 4067,
      "à¶±Comment": 4068,
      "à·Ļà·ļâĪĻ": 4069,
      "à·ļ)": 4070,
      "Ġà¶ļà¶±à¶ļ": 4071,
      "à¶ľà¶»à¶º": 4072,
      "à·ĵ-": 4073,
      "Ġà¶ĭà¶ľà¶Ń": 4074,
      "à·ģà¶ºà¶±": 4075,
      "Ġà¶ºà¶±à¶ļà¶½": 4076,
      "Ġà¶¢à¶±à¶º": 4077,
      "Ġà¶¶à¶½à·ģà¶ļ": 4078,
      "ino": 4079,
      "Ġà¶Ĭà¶Ńà¶½": 4080,
      "Ġà¶ĳà¶½à·Ģà¶½": 4081,
      "Ġà¶·à¶ļ": 4082,
      "Ġà¶ĭà¶¶à¶½à¶ľ": 4083,
      "Ġà¶´à¶Ńà¶½": 4084,
      "Ġà·ħà¶¸à¶ºà¶ľ": 4085,
      "Ġà¶ĭà¶©à¶§à¶¸": 4086,
      "esk": 4087,
      "eng": 4088,
      "à¶»à¶«à·ģ": 4089,
      "lex": 4090,
      "Ġà¶´à¶§à·Ģà¶±": 4091,
      "à·Ĭ),": 4092,
      "Ġà¶µà¶ļ": 4093,
      "à·Ħà¶©à·Ģ": 4094,
      "ello": 4095,
      "Ġany": 4096,
      "Ġadd": 4097,
      "Ġà¶ľà¶Ńà¶ļà¶½": 4098,
      "thiopian": 4099,
      "ĠNepomuk": 4100,
      "Ethiopian": 4101,
      "ft": 4102,
      "tip": 4103,
      "Ġout": 4104,
      "à¶ľà¶½à·Ģ": 4105,
      "Ġà¶´à¶¯à¶º": 4106,
      "Ġà¶Ńà¶±à¶±": 4107,
      "Ġà¶īà¶¹": 4108,
      "Ġà¶ĩà¶»à¶ľà¶±": 4109,
      "Ġà¶ĩà¶¬": 4110,
      "Ġà¶ºà·Ģà¶´": 4111,
      "Ġà¶ķà¶½": 4112,
      "Ġà·ĥà¶¸à·ĥ": 4113,
      "Ġà¶łà¶½à¶±à¶º": 4114,
      "à¶§à¶»à¶§": 4115,
      "Ġà¶ĳà¶½à·Ģ": 4116,
      "à·ĥà¶»à·Ħà¶¸": 4117,
      "à¶Ĵà¶ļà¶º": 4118,
      "Ġà¶ħà·ĥà¶·": 4119,
      "à¶Ńà¶±à·Ģà¶§": 4120,
      "ens": 4121,
      "à¶ĩà·Ģ": 4122,
      "Ġà¶´à¶¯à·Ģ": 4123,
      "ominic": 4124,
      "Ġà¶ĭà¶«à¶Ń": 4125,
      "Ġnow": 4126,
      "iles": 4127,
      "Ġmo": 4128,
      "à·Ĭ\"?": 4129,
      "Ġok": 4130,
      "ctor": 4131,
      "Ġ196": 4132,
      "irl": 4133,
      "Ġcomm": 4134,
      "Ġà¶ĩà¶´à¶ļà¶»": 4135,
      "trl": 4136,
      "ough": 4137,
      "45": 4138,
      "Coptic": 4139,
      "Description": 4140,
      "âĺ": 4141,
      "à¶±à¶ľà¶¸": 4142,
      "à·Ģà¶°à¶»": 4143,
      "à¶¯à·ĥ": 4144,
      "à¶¯à¶ºà¶±": 4145,
      "Ġà¶īà¶ºà¶±": 4146,
      "Ġà¶ħà¶´à¶ļ": 4147,
      "à·Ģà¶±à¶ļ": 4148,
      "Ġà¶Ĩà¶ľ": 4149,
      "Ġà¶Ĩà·ĥà¶±à¶º": 4150,
      "à·ģà¶ľ": 4151,
      "Ġà¶ķà¶»": 4152,
      "Ġà¶¸à¶ľà¶ļ": 4153,
      "à·Ģà¶ļà¶ºà¶ļ": 4154,
      "Ġà¶ħà·Ģà¶¸à¶±": 4155,
      "Ġà¶ħà¶Ńà¶ļà¶§": 4156,
      "à¶¯à¶»à¶ºà¶ļ": 4157,
      "Ġà¶ħà¶¯à·Ħ": 4158,
      "Ġà¶ºà¶±à·Ģà¶§": 4159,
      "Ġà·Ĩà¶±": 4160,
      "à·ĥà¶ºà·Ģ": 4161,
      "Ġà·Ģà¶§à¶ºà¶ļ": 4162,
      "ĠMat": 4163,
      "Ġpol": 4164,
      "ĠHans": 4165,
      "ĠHank": 4166,
      "à¶ķà¶ļ": 4167,
      "ama": 4168,
      "Ġgu": 4169,
      "thing": 4170,
      "ister": 4171,
      "eek": 4172,
      "ĠNora": 4173,
      "Ġà¶±à¶Ńà¶»à¶ļà¶»à¶±": 4174,
      "inces": 4175,
      "Ġprovinces": 4176,
      ",%": 4177,
      "MP": 4178,
      "card": 4179,
      "fess": 4180,
      "ray": 4181,
      "wan": 4182,
      "Ġerror": 4183,
      "à·ĥà¶ļà¶§": 4184,
      "à¶¯à·Ħà¶¸": 4185,
      "Ġà¶±à¶ļà¶¸": 4186,
      "à¶´à¶½à¶º": 4187,
      "à¶´à¶ºà¶º": 4188,
      "à¶©à¶½à¶ºà¶§": 4189,
      "Ġà¶īà¶½à¶ľ": 4190,
      "Ġà¶ĩà¶±à¶½": 4191,
      "à·ĬâĢį...": 4192,
      "Ġà¶ļà¶»à¶±à¶ļà¶±": 4193,
      "à¶Ńà¶±à¶ºà¶§": 4194,
      "Ġà¶¶à¶½à¶ºà¶§": 4195,
      "à¶ľà¶Ńà·Ģ": 4196,
      "à¶ľà¶Ńà¶ºà¶§": 4197,
      "Ġà¶łà¶¸": 4198,
      "à¶ĳà¶Ńà¶±": 4199,
      "Ġà¶´à·Ħà¶Ńà¶§": 4200,
      "Ġà¶½à¶¶à¶½": 4201,
      "ĠAll": 4202,
      "ĠDav": 4203,
      "Ġfold": 4204,
      "ower": 4205,
      "ĠWing": 4206,
      "Ġ72": 4207,
      "Ġà¶ĳà¶ļà¶Łà·Ģ": 4208,
      "Ġ2009": 4209,
      "à·ħà¶³à¶ľ": 4210,
      "Ġà¶ľà¶½à·Ģà¶ľà¶±": 4211,
      "Ġà¶ļà¶½à¶¶à¶½à·Ģ": 4212,
      "ocking": 4213,
      "Ġstates": 4214,
      "ungary": 4215,
      "Ġregions": 4216,
      "esktop": 4217,
      "',": 4218,
      "Bl": 4219,
      "cher": 4220,
      "sy": 4221,
      "Ġher": 4222,
      "à·Ļà·ľ": 4223,
      "à¶¸à·Ģà¶º": 4224,
      "à·ļà¶Ĥ": 4225,
      "Ġà¶±à·Ģà¶ºà¶ļ": 4226,
      "Ġà·ĥà¶¥": 4227,
      "Ġà¶īà¶½à·Ģ": 4228,
      "à¶¶à¶»à¶ºà¶ļ": 4229,
      "Ġà¶ĳà¶ļà·Ģà¶Ń": 4230,
      "à¶łà¶ļà¶º": 4231,
      "Ġà¶¢à¶Ń": 4232,
      "Ġà¶¶à¶½à¶ľà¶Ń": 4233,
      "Ġ?\"": 4234,
      "à¶½à¶§à¶¯": 4235,
      "à·Ħà¶»à¶«": 4236,
      "Ġà¶ħà·Ħà¶º": 4237,
      "à·Ĩà¶º": 4238,
      "à·Ĩà·ĥ": 4239,
      "Ġà·Ģà¶½à¶¸": 4240,
      "Ġà¶ĭà¶¹à¶½à·Ģ": 4241,
      "à·Ĵ!\"": 4242,
      "Ġà¶īà¶¯à¶½à¶¯": 4243,
      "ĠCC": 4244,
      "Ġà¶ħà¶©à¶±à·Ģ": 4245,
      "Ġà¶Įà·Ħ": 4246,
      "Ġà¶ĳà¶Ńà¶±à¶¸": 4247,
      "Ġset": 4248,
      "Ġà¶ħà·ĥà¶Ń": 4249,
      "ĠMac": 4250,
      "Ġ31": 4251,
      "Ġà¶ĩà¶¯à¶ľà¶Ń": 4252,
      "ĠSask": 4253,
      "à¶ĩà¶¯": 4254,
      "Ġà¶ĩà¶»à¶´": 4255,
      "ĠIs": 4256,
      "Ġdominic": 4257,
      "Ġlat": 4258,
      "ĠGl": 4259,
      "ĠHaw": 4260,
      "Ġà·Ģà¶»à¶¯à¶ļà¶»": 4261,
      "Ġà¶´à¶¸à¶±à¶º": 4262,
      "Ġà¶īà·Ħà¶Ń": 4263,
      "ida": 4264,
      "ava": 4265,
      "Ġà¶ħà·ĥà¶»à¶«à¶º": 4266,
      "Ġà¶ħà¶»à¶ºà·Ģ": 4267,
      "Ġuser": 4268,
      "Ġà·ĥà¶Łà¶»": 4269,
      "Ġrepublic": 4270,
      "ustralia": 4271,
      "atchewan": 4272,
      "eorgia": 4273,
      "fessor": 4274,
      "ĠSaskatchewan": 4275,
      "Ġdominican": 4276,
      "eed": 4277,
      "jay": 4278,
      "ni": 4279,
      "à¶±à·ģ": 4280,
      "à¶±à¶»à¶º": 4281,
      "à·Ģà·Ģà¶±": 4282,
      "à¶ļà¶¸à¶Ń": 4283,
      "Ġà¶¯à·ģ": 4284,
      "à¶´à¶¯à¶º": 4285,
      "Ġà¶ľà¶©": 4286,
      "Ġà¶ľà¶¸à¶¸": 4287,
      "Ġà¶Ĵà¶©": 4288,
      "à¶©à¶ºà¶±": 4289,
      "à¶©à¶´à¶Ń": 4290,
      "à¶©à¶´à·Ģà¶Ń": 4291,
      "Ġà¶ĩà¶±à¶ļ": 4292,
      "Ġà¶½à¶¢": 4293,
      "à¶³à¶´": 4294,
      "à·Ĥà·Ģ": 4295,
      "Ġà¶¶à¶½à·Ģ": 4296,
      "à¶»à¶ļà¶»à¶±à·Ģ": 4297,
      "Ġà¶ĳà¶±à¶Ń": 4298,
      "à¶¹à¶ľ": 4299,
      "Ġà¶©à¶½à·ĥ": 4300,
      "à·Ģà¶»à¶¯": 4301,
      "Ġà¶ļà·ħà·Ħ": 4302,
      "Ġà¶ĳà¶±à·Ģà¶½": 4303,
      "Ġà¶ĭà¶´à·Ħ": 4304,
      "Ġà¶Ĩà¶¯à¶»à¶ºà¶§": 4305,
      "Ġà¶Įà¶Ń": 4306,
      "Ġ33": 4307,
      "Ġ37": 4308,
      "Ġword": 4309,
      "ĠAT": 4310,
      "alk": 4311,
      "Ġà·ħà¶Łà¶º": 4312,
      "ĠRob": 4313,
      "elp": 4314,
      "ĠEle": 4315,
      "irst": 4316,
      "Ġrich": 4317,
      "stem": 4318,
      "Ġà·ĥà¶ļà·ĥà¶±à¶º": 4319,
      "à¶»à·Ħà·ĥà¶ļ": 4320,
      "Ġ****": 4321,
      "Ġà¶ħà¶¬à¶±à·Ģ": 4322,
      "ĠProfessor": 4323,
      "#$": 4324,
      "80": 4325,
      "OC": 4326,
      "ger": 4327,
      "get": 4328,
      "ier": 4329,
      "xico": 4330,
      "Û©": 4331,
      "Ġend": 4332,
      "Ġright": 4333,
      "à¶¸à¶ļà¶¯": 4334,
      "à¶¸à·ĥà¶±": 4335,
      "à¶¸Name": 4336,
      "à¶»à¶±à·Ģà¶¯": 4337,
      "à¶»à·Ħà¶±": 4338,
      "à·ĥà¶ºà¶±": 4339,
      "à¶ľà·ĥà¶º": 4340,
      "Ġà¶±à¶§à¶¸": 4341,
      "Ġà·Ħà¶¶": 4342,
      "Ġà·ĥà¶ľà¶»": 4343,
      "à¶©à¶»à¶º": 4344,
      "Ġà¶¸à¶¸à¶±": 4345,
      "à¶ºà¶½à¶±à¶¸": 4346,
      "à¶»à¶ºà¶ľ": 4347,
      "Ġà¶¢à¶±à¶ļ": 4348,
      "Ġà·Ģà¶ľà¶¶à¶½": 4349,
      "Ġà¶ļà¶½à·Ħ": 4350,
      "Ġà¶ĳà·Ħà¶¯": 4351,
      "à¶ļà¶ļà¶¸": 4352,
      "à¶¢à¶¯": 4353,
      "Ġà¶łà¶¸à¶Ń": 4354,
      "0000": 4355,
      "à¶Ńà¶§à¶¸à¶º": 4356,
      "ĠâĻªâĢį": 4357,
      "Ġà¶ħà¶Ńà¶»à¶¸à¶±": 4358,
      "à·ĥà·Ħà¶ºà¶ļ": 4359,
      "à·Ĥà¶ļà¶ºà¶ļ": 4360,
      "à·Ħà¶¯à·Ģà¶Ń": 4361,
      "ĠTor": 4362,
      "ĠTung": 4363,
      "ĠIM": 4364,
      "ĠBett": 4365,
      "ĠKn": 4366,
      "ĠKee": 4367,
      "Ġday": 4368,
      "à¶´à¶¯à·Ģà¶±": 4369,
      "à¶Ĩà¶½": 4370,
      "ĠWil": 4371,
      "ands": 4372,
      "ota": 4373,
      "à¶ºà¶¸à¶ļà¶§": 4374,
      "aby": 4375,
      "Ġ[%": 4376,
      "Ġmexico": 4377,
      "Ġres": 4378,
      "ĠChun": 4379,
      "ign": 4380,
      "à·ħà¶³à¶ľà¶±": 4381,
      "ĠAlaska": 4382,
      "Ġà¶ļà·Ħà¶´": 4383,
      "Ġchang": 4384,
      "ĠUnited": 4385,
      "color": 4386,
      ",\"": 4387,
      "25": 4388,
      "act": 4389,
      "mer": 4390,
      "mat": 4391,
      "ull": 4392,
      "à¶ºà¶¢à¶±à¶ļ": 4393,
      "à¶»à¶¢à¶º": 4394,
      "à·Ħà¶¸à¶º": 4395,
      "à¶½à¶¸à¶±": 4396,
      "à·ľà·Ļ": 4397,
      "Ġà¶Ķà·Ĥ": 4398,
      "Ġà¶ħà¶§à¶º": 4399,
      "Ġà¶ħà¶§à·Ģ": 4400,
      "Ġà¶ĩà¶©à¶¸": 4401,
      "Ġà¶ĳà¶ļà¶ľà¶º": 4402,
      "Ġà¶¶à¶½à¶ľ": 4403,
      "à·ĸ..": 4404,
      "Ġà¶ļà¶½à·Ģà¶¸": 4405,
      "à¶±à¶ºà¶Ń": 4406,
      "à¶©à¶ļà¶¸": 4407,
      "Ġà¶Ĵà¶Ńà¶»à¶¸": 4408,
      "Ġà·Ħà¶¯à¶º": 4409,
      "à¶ºà¶±à·Ģà¶½": 4410,
      "Ġà¶łà¶º": 4411,
      "Ġà¶ºà¶±à·Ģà¶±": 4412,
      "ĠChe": 4413,
      "Ġà¶ļà¶§à·Ģà·Ħà¶±": 4414,
      "à¶½à¶ľà¶¸": 4415,
      "Ġà¶ĳà¶±à·Ģà¶±": 4416,
      "Ġà¶´à·Ħà¶§": 4417,
      "men": 4418,
      "Ġtake": 4419,
      "ars": 4420,
      "à¶»à·ĥà¶ºà¶ļ": 4421,
      "ĠSo": 4422,
      "ĠSub": 4423,
      "à¶¥à¶ºà¶ļ": 4424,
      "à·ĥà·Ħà¶ľà¶Ńà¶º": 4425,
      "Ġà¶°à¶¸à¶±": 4426,
      "Ġà¶°à¶±à·Ģà¶Ń": 4427,
      "Ġfile": 4428,
      "Ġà·ĥà¶½à¶ļà¶½": 4429,
      "à¶Ĩà·Ģ": 4430,
      "à¶Ĩà·Ħ": 4431,
      "ĠHow": 4432,
      "Ġ.......": 4433,
      "ute": 4434,
      "NAME": 4435,
      "play": 4436,
      "CKD": 4437,
      "'re": 4438,
      ",.": 4439,
      "60": 4440,
      "Oh": 4441,
      "buf": 4442,
      "ml": 4443,
      "wo": 4444,
      "à¶ŀ": 4445,
      "à¶¸Comment": 4446,
      "à·Ķ)": 4447,
      "à·Ħà¶½à¶º": 4448,
      "à·ľâĪĻ": 4449,
      "à¶ľà·ģ": 4450,
      "Ġà¶ĳà·Ģà¶º": 4451,
      "Ġà¶ħà¶«à¶ļ": 4452,
      "à¶´à¶ļà¶»": 4453,
      "à¶±à·Ģà¶½à¶§": 4454,
      "Ġà¶ĩà¶ľà¶º": 4455,
      "à·ħà·Ģà¶½": 4456,
      "à·Ĥà¶ºà¶§": 4457,
      "Ġà¶ĳà·Ħà¶¸": 4458,
      "à¶¸à¶Ńà¶º": 4459,
      "à¶¸à¶¯à¶ºà¶ļ": 4460,
      "à·Ģà¶½à¶ļ": 4461,
      "Ġà¶ħà·Ħà·Ģà¶»à¶º": 4462,
      "Ġà¶´à¶»à¶Ńà¶»à¶º": 4463,
      "à¶Ńà¶»à¶§": 4464,
      "ance": 4465,
      "itor": 4466,
      "à¶Ńà¶±à·Ģà¶±à¶¸": 4467,
      "ĠMocking": 4468,
      "Ġà¶ĩà¶¯à¶§": 4469,
      "alf": 4470,
      "à¶»à·Ħà¶ºà¶ļ": 4471,
      "Ġà¶´à·ħà¶Ń": 4472,
      "Ġà·ħà¶Łà¶§à¶¸": 4473,
      "Ġback": 4474,
      "Ġà¶¢à¶±à¶´à¶Ń": 4475,
      "ĠFran": 4476,
      "ĠPix": 4477,
      "ola": 4478,
      "ĠWCKD": 4479,
      "à·ħà¶³à¶´": 4480,
      "Ġà¶ĩà¶ļà¶©à¶¸": 4481,
      "Ġà¶ļà¶§à·Ģà·Ħà¶±à·Ģ": 4482,
      "itzie": 4483,
      "Ġcurrent": 4484,
      "%%": 4485,
      "DF": 4486,
      "Make": 4487,
      "aus": 4488,
      "à·Ħà¶«": 4489,
      "Ġà¶ļà¶±à¶Ń": 4490,
      "à·ĥà·Ģà¶½": 4491,
      "Ġà¶Ķà·Ģà¶±": 4492,
      "Ġà¶¯à¶ľà¶½à¶±": 4493,
      "à¶´à¶ł": 4494,
      "Ġà¶Ńà¶ļà¶±": 4495,
      "Ġà¶ľà¶ľà¶±": 4496,
      "Ġà¶Ĵà·Ģà¶½": 4497,
      "Ġà¶ĩà¶¸à¶ļ": 4498,
      "Ġà¶Ĩà·ĥà¶¯": 4499,
      "Ġà¶ħà¶½à·Ģà¶±": 4500,
      "Ġà¶¸à·Ħà¶´": 4501,
      "Ġà¶ļà¶§à·Ģà¶½": 4502,
      "Ġà¶Ĩà¶ºà¶Ń": 4503,
      "à·ĵ.\"": 4504,
      "à¶¯à¶»à¶ºà·Ģ": 4505,
      "Ġinl": 4506,
      "ames": 4507,
      "Ġà¶ħà¶¸à¶Ńà¶ļà¶¯": 4508,
      "ĠSS": 4509,
      "Ġà¶´à¶½à¶ºà¶½": 4510,
      "à¶ĩà¶ºà¶§": 4511,
      "à¶±à¶ľà·Ħ": 4512,
      "à¶ħà¶´à¶§": 4513,
      "à¶´à¶½à¶Ń": 4514,
      "Ġbel": 4515,
      "à¶ĭà¶¶": 4516,
      "ĠGN": 4517,
      "Ġhis": 4518,
      "Ġhungary": 4519,
      "ĠEx": 4520,
      "à·ı\"?": 4521,
      "aven": 4522,
      "à¶¤à¶º": 4523,
      "Ġà¶»à¶®à¶ºà¶ļà¶§": 4524,
      "Ġà¶ķà¶±à·Ģà¶§à¶Ń": 4525,
      "ki": 4526,
      "kin": 4527,
      "ms": 4528,
      "Ġà¶ĵ": 4529,
      "à¶»à¶¶à¶±": 4530,
      "à¶Ńà·Ģà¶½": 4531,
      "à¶§à·Ģà¶½": 4532,
      "Ġà¶±à¶»à·ĥ": 4533,
      "Ġà¶Ńà¶«": 4534,
      "Ġà¶Ńà¶¹": 4535,
      "Ġà¶ĩà¶§à¶º": 4536,
      "Ġà¶ĳà¶ºà¶ľ": 4537,
      "à¶ºà¶±à¶´à¶Ń": 4538,
      "Ġà¶¸à¶ľà¶Ń": 4539,
      "Ġà·ĥà¶¸à¶ľà¶º": 4540,
      "Ġà¶ħà¶»à¶ºà¶§": 4541,
      "Ġ...\"": 4542,
      "Ġà¶ļà¶»à¶½à¶¸": 4543,
      "à¶¯à¶ºà·Ģ": 4544,
      "à·Ħà¶±à¶ºà¶§": 4545,
      "à¶ļà¶½à·ĥ": 4546,
      "ĠCL": 4547,
      "ĠCtrl": 4548,
      "à·ļ..\"": 4549,
      "Ġcome": 4550,
      "ĠSe": 4551,
      "ĠShe": 4552,
      "ĠSana": 4553,
      "à¶¢à¶±à¶±à¶º": 4554,
      "à¶īà¶¯": 4555,
      "à¶ĭà¶«": 4556,
      "Ġmake": 4557,
      "Ġà¶ºà¶§à¶´à¶Ń": 4558,
      "Ġother": 4559,
      "ĠWat": 4560,
      "amb": 4561,
      "Ġget": 4562,
      "à·ĥà¶³à¶½": 4563,
      "Ġshort": 4564,
      "Ġà¶´à¶¸à¶±à¶ļ": 4565,
      "Ġà¶ļà¶½à¶¶à¶½à¶º": 4566,
      "à·ħà¶¹à·Ģ": 4567,
      "ettings": 4568,
      "Ġgood": 4569,
      "Ġà·´\"": 4570,
      "ĠBettina": 4571,
      "ĠMockingjay": 4572,
      "Ġinlistbox": 4573,
      "BM": 4574,
      "TP": 4575,
      "cess": 4576,
      "dom": 4577,
      "oom": 4578,
      "ph": 4579,
      "ta": 4580,
      "view": 4581,
      "à¶±à¶Ńà¶ļ": 4582,
      "à¶ļà·Ħ": 4583,
      "à·Ļà·ĵ": 4584,
      "à¶¸à¶ł": 4585,
      "à·ļ'": 4586,
      "à¶½à¶ļà¶¯": 4587,
      "à·ĥà¶ºà¶ļà¶§": 4588,
      "à·Ĳ\"": 4589,
      "Ġà¶±à¶ľà¶±": 4590,
      "Ġà·Ħà¶ºà·Ģ": 4591,
      "Ġà¶Ķà¶ºà¶½": 4592,
      "Ġà·ĥà¶¶à¶±": 4593,
      "Ġà¶ľà¶ľ": 4594,
      "Ġà¶ľà¶ºà¶±": 4595,
      "Ġà¶¶à¶¢": 4596,
      "Ġà¶¶à¶§à¶±": 4597,
      "Ġà¶īà¶º": 4598,
      "Ġà¶ºà¶§à·Ģ": 4599,
      "à¶³à¶ľà¶±": 4600,
      "à¶±à¶¸à¶§": 4601,
      "à¶ºà¶§à¶±à¶¸": 4602,
      "Ġà¶¶à¶½à·Ħà¶Ń": 4603,
      "Ġà¶§à¶±": 4604,
      "Ġà¶ħà·Ħà·Ģà¶»": 4605,
      "à¶Ńà¶»à·Ģ": 4606,
      "à·Ģà¶ºà¶Ń": 4607,
      "à·ĥà¶»à·Ħà¶¯": 4608,
      "Ġà¶Ĵà¶ļà¶§à¶º": 4609,
      "à·Ħà¶§à¶±à¶¸": 4610,
      "Ġà¶ĭà¶¶à¶ľ": 4611,
      "à·Ħà¶½à¶ºà¶ļ": 4612,
      "Ġà¶ļà¶»à¶´à¶½": 4613,
      "ĠMc": 4614,
      "Ġà¶Ĭà¶§à·Ģà¶©": 4615,
      "Ġà¶ĩà¶½à¶¶": 4616,
      "ĠNot": 4617,
      "ĠGil": 4618,
      "ĠEst": 4619,
      "Ġà·ĥà¶¸à¶Łà¶º": 4620,
      "ution": 4621,
      "ocus": 4622,
      "acks": 4623,
      "board": 4624,
      "Ġwindows": 4625,
      "Ġà·ĥà¶Łà·Ģà¶±": 4626,
      "ĠPixbuf": 4627,
      "47": 4628,
      "gle": 4629,
      "pen": 4630,
      "Ġic": 4631,
      "Ġà¶¹": 4632,
      "à¶±à¶´à¶±": 4633,
      "à·ĢComment": 4634,
      "à·ı(": 4635,
      "à·ıâĪĻâĪĻâĪĻâĪĻ": 4636,
      "à¶»à¶´à¶¯": 4637,
      "Ġà¶´à¶±à·ĥ": 4638,
      "Ġà¶Ńà¶ļà¶Ń": 4639,
      "Ġà¶ľà¶¶": 4640,
      "à¶¶à¶±à¶¸": 4641,
      "à¶¶à¶ĭà¶±": 4642,
      "à·ĳ-": 4643,
      "Ġà¶ĳà¶ļà·Ħà¶¸": 4644,
      "Ġà¶¶à¶½à¶Ńà¶½": 4645,
      "à¶»à¶ļà¶ºà¶±": 4646,
      "Ġà¶´à¶»à·Ģ": 4647,
      "à·Ģà¶»à¶±à¶º": 4648,
      "Ġà·Ħà¶¯à¶±à¶ļ": 4649,
      "à¶ļà¶§à·Ģà¶Ń": 4650,
      "ĠCom": 4651,
      "ĠCome": 4652,
      "Ġà¶ĳà¶½à·Ģà¶±à·Ģ": 4653,
      "Ġinto": 4654,
      "Ġà·Ģà¶»à¶´": 4655,
      "Ġsay": 4656,
      "à¶«à¶ºà¶ļà¶§": 4657,
      "hes": 4658,
      "à·ĴâĢįà·ĬâĢį": 4659,
      "Ġcall": 4660,
      "Ġweek": 4661,
      "à¶ĩà¶ºà¶ľ": 4662,
      "ĠAlex": 4663,
      "Ġà¶Ķà¶ºà¶Ńà¶»à¶¸": 4664,
      "ĠDev": 4665,
      "ĠTa": 4666,
      "Ġplease": 4667,
      "ĠRe": 4668,
      "ĠGI": 4669,
      "ĠHello": 4670,
      "Ġà¶±à¶ľà¶»à¶ºà¶¸": 4671,
      "ĠWest": 4672,
      "ody": 4673,
      "Ġyours": 4674,
      "Ġà¶Ĩà¶ºà¶Ńà¶±à¶ºà¶§": 4675,
      "Ġ........": 4676,
      "Ġà¶ĭà¶¸à¶ľà¶ļ": 4677,
      "ĠControl": 4678,
      "Ġbrazil": 4679,
      "ĠKingdom": 4680,
      "Ġà¶ĸà·Ĥà¶°": 4681,
      "ĠIMF": 4682,
      "ĠKeefe": 4683,
      ",?": 4684,
      "AL": 4685,
      "Day": 4686,
      "ait": 4687,
      "off": 4688,
      "sw": 4689,
      "à·Ĭ@": 4690,
      "à·Ļà·Ĭ.": 4691,
      "à·Ļà·Ĵ,": 4692,
      "à·Ħà·Ģà¶Ń": 4693,
      "à¶½à¶¸à¶º": 4694,
      "Ġ-...": 4695,
      "Ġà¶ĩà¶¹à¶»": 4696,
      "à·ĳâĢį": 4697,
      "Ġà¶½à¶´": 4698,
      "à·ģà¶»": 4699,
      "Ġà¶»à·ģ": 4700,
      "à¶łà¶¸": 4701,
      "Ġà¶¸à¶ľà¶¯": 4702,
      "à¶¢à¶»à¶º": 4703,
      "Ġà¶ħà¶Ńà¶´à·ĥ": 4704,
      "à·Ħà¶»à¶ºà¶ļ": 4705,
      "Ġà¶ħà·Ħà¶±à·Ģà¶¯": 4706,
      "à¶Ķà·ĥ": 4707,
      "à¶ħà¶ľ": 4708,
      "ane": 4709,
      "Ġà¶ĳà¶±à·Ģà¶±à¶¸": 4710,
      "Ġà¶Ńà¶»à·Ħà·Ģ": 4711,
      "à¶±à¶½à¶¯": 4712,
      "Ġà¶ĩà¶½à·ĥ": 4713,
      "à·ĥà·Ħà¶º": 4714,
      "ĠInd": 4715,
      "ĠFor": 4716,
      "ĠBut": 4717,
      "ĠPI": 4718,
      "Ġde": 4719,
      "Ġloc": 4720,
      "Ġ600": 4721,
      "Ġoce": 4722,
      "ĠHT": 4723,
      "Ġà·ĥà¶§à¶±à¶ļà¶§": 4724,
      "Ġà¶ħà·Ģà·ĥà¶»à¶´à¶Ń": 4725,
      "Ġà·ĥà¶´à¶ºà¶±à·Ģ": 4726,
      "aii": 4727,
      "Ġà¶ļà¶§à·Ģà·Ħà¶´à¶±": 4728,
      "Ġwho": 4729,
      "ĠNASA": 4730,
      "à¶´à¶´à·Ħà·ĥ": 4731,
      "ĠDVD": 4732,
      "ĠHawaii": 4733,
      "99": 4734,
      "OME": 4735,
      "put": 4736,
      "word": 4737,
      "à·Ģà¶³à¶ļ": 4738,
      "à·Ļà·ĬâĢį": 4739,
      "à¶Ńà¶ļà¶»": 4740,
      "à¶¯à¶«": 4741,
      "à¶ľà¶¶à¶½": 4742,
      "Ġà¶ħà¶ľà¶½": 4743,
      "Ġà·Ħà¶©à¶ļ": 4744,
      "à¶´à¶¯à·Ģ": 4745,
      "Ġà¶¶à¶«": 4746,
      "Ġ-âĪĻâĪĻâĪĻ": 4747,
      "à¶¶à·Ħà¶ļ": 4748,
      "Ġà¶ĳà¶ļà·Ģ": 4749,
      "Ġà¶ħà¶´à¶¯": 4750,
      "à¶ºà¶±à¶ļà¶±": 4751,
      "à¶Ĥ-": 4752,
      "à¶ºà¶½à¶¸": 4753,
      "Ġà¶Ĩà¶»à¶±": 4754,
      "à·ģà¶Ń": 4755,
      "Ġà¶ºà¶±à¶ľà¶¸à¶±": 4756,
      "à·Ĥà¶¸à¶Ń": 4757,
      "à¶°à¶ºà¶±": 4758,
      "à·Ģà¶ļà¶§à¶¸": 4759,
      "à¶¸à¶Ńà¶ļ": 4760,
      "à¶½à¶§à¶º": 4761,
      "Ġà¶ĳà¶ļà¶ļà¶¸": 4762,
      "à¶¸à¶§à¶¯": 4763,
      "à·Ģà¶ºà¶º": 4764,
      "à·Ļ.\"": 4765,
      "à¶ļà¶½à¶Ń": 4766,
      "Ġà¶ºà¶¸à¶½": 4767,
      "ated": 4768,
      "ĠMo": 4769,
      "Ġcategory": 4770,
      "ĠSch": 4771,
      "enc": 4772,
      "Ġ55": 4773,
      "Ġ46": 4774,
      "oman": 4775,
      "ĠII": 4776,
      "Ġact": 4777,
      "Ġdescription": 4778,
      "Ġthem": 4779,
      "à·ĥà¶¯à¶ľà¶±": 4780,
      "ĠHer": 4781,
      "ĠLab": 4782,
      "Ġà·Ģà¶»à¶¯à¶§": 4783,
      "unner": 4784,
      "ech": 4785,
      "à·².": 4786,
      "ift": 4787,
      "Ġà¶¶à¶ºà¶ļà¶»à¶±": 4788,
      "athy": 4789,
      "Ġà¶¢à¶±à¶ľà·Ħà¶±à¶º": 4790,
      "vanced": 4791,
      "âĺħ": 4792,
      "ĠEstonia": 4793,
      "Ġoceania": 4794,
      "cm": 4795,
      "ih": 4796,
      "ler": 4797,
      "lot": 4798,
      "ya": 4799,
      "à¶ºà·Ģà¶¸": 4800,
      "à·Ļ--": 4801,
      "à¶Ńà¶¸à¶§": 4802,
      "Ġà¶¸à·Ģà¶ľ": 4803,
      "à¶½à¶ºà¶§à¶¸": 4804,
      "à¶½à·ĥà¶§à·Ħà¶±": 4805,
      "à¶§à·Ħà¶±": 4806,
      "à¶¯à¶¸à¶º": 4807,
      "à¶´à¶»à¶º": 4808,
      "à¶´à¶®": 4809,
      "âĢĶ": 4810,
      "Ġà¶¶à¶ºà¶§": 4811,
      "à·Ŀ'": 4812,
      "à¶¶à¶ļà¶»": 4813,
      "à¶ºà¶ļà¶ľ": 4814,
      "Ġà¶ļà¶»à¶±à¶±": 4815,
      "à¶ºà¶±à¶ºà¶§": 4816,
      "à¶±à¶¸à¶±": 4817,
      "Ġà·ĥà¶¸à¶Ńà¶½": 4818,
      "à¶Ńà¶ļà¶ºà¶ļ": 4819,
      "Ġà¶ħà¶¯à¶ļ": 4820,
      "Ġà¶©à¶¶à¶½": 4821,
      "à·Ģà¶»à¶«": 4822,
      "à¶ļà¶ºà¶Ń": 4823,
      "inn": 4824,
      "à·ĥà¶»à¶±": 4825,
      "à¶¸à¶»à¶«à¶º": 4826,
      "à·Ŀ.\"": 4827,
      "Ġà¶¸à¶Ńà¶ļà¶Ń": 4828,
      "Ġà·Ģà¶±à¶ł": 4829,
      "Ġà¶ľà¶¸à¶±à¶§": 4830,
      "Ġshe": 4831,
      "Ġà·Ĥà¶±": 4832,
      "Ġ34": 4833,
      "ĠSing": 4834,
      "Ġà¶´à¶±à·Ħà¶ļ": 4835,
      "Ġà¶ľà·Ħà¶ľà¶Ń": 4836,
      "Ġà¶»à¶¢à·Ģà¶»": 4837,
      "à¶©à¶±à¶ºà¶§": 4838,
      "Ġfl": 4839,
      "ĠTo": 4840,
      "à¶īà¶ľ": 4841,
      "ĠRV": 4842,
      "Ġ66": 4843,
      "olia": 4844,
      "ĠHi": 4845,
      "edd": 4846,
      "ĠOne": 4847,
      "Ġà¶¢à¶ºà¶ľà¶±": 4848,
      "ste": 4849,
      "stand": 4850,
      "iff": 4851,
      "Ġ03": 4852,
      "ally": 4853,
      "Ġà¶¸à·ħà¶ľ": 4854,
      "ĠXML": 4855,
      "ĠMarc": 4856,
      "ĠDavid": 4857,
      "17": 4858,
      "Ch": 4859,
      "RA": 4860,
      "fter": 4861,
      "found": 4862,
      "row": 4863,
      "ĿĦ": 4864,
      "à¶±à¶ķà¶±": 4865,
      "à¶ļà¶ºà¶ļà¶§": 4866,
      "Ġà¶ħà¶ºà¶ļ": 4867,
      "Ġà¶ļà¶»à¶¯à¶»à¶º": 4868,
      "Ġà¶¶à¶Ń": 4869,
      "à·ģà·ĥ": 4870,
      "à¶łà¶¶": 4871,
      "Ġà·Ħà¶»à·Ģà¶±à·Ģ": 4872,
      "Ġà¶¢à·Ĩ": 4873,
      "Ġà¶ħà·Ģà¶»": 4874,
      "Ġà·Ħà¶¯à¶¯": 4875,
      "à·ı...\"": 4876,
      "à¶ħà¶·": 4877,
      "à¶¸à¶»à¶«": 4878,
      "à¶»à·Ģà¶½à¶§": 4879,
      "Ġà¶Ńà¶»à·Ħà¶º": 4880,
      "ata": 4881,
      "Ġ'..": 4882,
      "Ġà¶½à¶¶à¶´": 4883,
      "ĠMom": 4884,
      "ĠMiss": 4885,
      "à¶ºà¶ļà¶§à¶¯": 4886,
      "asee": 4887,
      "Ġà¶°à¶±à¶º": 4888,
      "ĠTex": 4889,
      "Ġbug": 4890,
      "ĠIsl": 4891,
      "ĠKey": 4892,
      "Ġà¶īà·Ģà¶Ńà¶½à¶±": 4893,
      "ĠNe": 4894,
      "Ġdire": 4895,
      "ild": 4896,
      "Ġhint": 4897,
      "eter": 4898,
      "à¶«à¶ľà·ĥ": 4899,
      "à¶»à¶´à¶§à¶ºà¶ļ": 4900,
      "à¶°à¶ļà¶ºà¶±": 4901,
      "à¶Ŀà¶±à¶º": 4902,
      "agle": 4903,
      "Ġà¶¯à·Ħà·ĥà¶ļ": 4904,
      "ongolia": 4905,
      "Ġà¶»à·Ģà¶§à¶±": 4906,
      "à¶ľà¶«à¶ļà¶ºà¶ļ": 4907,
      "Ġà¶ħà¶±à·Ģà·ĥà¶»à¶º": 4908,
      "Ġclick": 4909,
      "Ġplay": 4910,
      "Ġunder": 4911,
      "Ġà¶įà¶¢": 4912,
      "Ġtooltip": 4913,
      "Ġdisplay": 4914,
      "Ġà¶´à·Ģà·ĥà¶±à·Ģ": 4915,
      "Ġfolder": 4916,
      "CI": 4917,
      "Con": 4918,
      "OS": 4919,
      "TS": 4920,
      "aj": 4921,
      "au": 4922,
      "bot": 4923,
      "cent": 4924,
      "my": 4925,
      "shell": 4926,
      "the": 4927,
      "Ġ<": 4928,
      "à¶½à¶«à¶º": 4929,
      "Ġà¶ļà¶±à·ĥ": 4930,
      "Ġà¶ļà¶¶à¶½": 4931,
      "à·ĥà¶½à¶º": 4932,
      "à·ĥà¶½à¶Ń": 4933,
      "Ġà¶Ńà¶½à¶±": 4934,
      "Ġà¶ľà¶³à¶ļ": 4935,
      "Ġà¶ĩà·ħ": 4936,
      "à¶«à·ģ": 4937,
      "Ġà¶¸à¶§à·Ģà¶Ń": 4938,
      "à·Ĭ,.": 4939,
      "Ġà¶»à¶¯à·Ģ": 4940,
      "à¶łà¶ºà¶±": 4941,
      "à¶»à¶ºà¶¯": 4942,
      "à·Ģà¶ļà¶ľ": 4943,
      "à·Ģà¶ļà·Ģà¶Ń": 4944,
      "à¶±à¶ºName": 4945,
      "Ġà¶ļà·Ģà¶łà¶º": 4946,
      "Ġà¶§à¶¸": 4947,
      "à¶¸à¶ļà¶¸": 4948,
      "Ġà¶©à¶ºà¶»": 4949,
      "Ġà¶łà¶½à¶±": 4950,
      "ĠCV": 4951,
      "Ġà¶¯à·Ģà·ĥà¶º": 4952,
      "à¶»à·Ģà¶ľà¶±": 4953,
      "Ġtwo": 4954,
      "Ġà¶¸à¶Ńà¶ļà¶ºà¶§": 4955,
      "Ġà¶Ĩà¶¯à¶»à¶±": 4956,
      "à·ĥà¶§à¶º": 4957,
      "ouis": 4958,
      "à¶ĩà¶ľ": 4959,
      "Ġà¶ħà¶¸à¶Ńà¶ļà·Ģ": 4960,
      "ĠAustralia": 4961,
      "ical": 4962,
      "à¶Ľà¶«": 4963,
      "à¶īà¶»": 4964,
      "à¶ĭà·ĥ": 4965,
      "Ġà¶´à¶§à¶½à·Ģ": 4966,
      "ĠRem": 4967,
      "Ġlook": 4968,
      "Ġlife": 4969,
      "Ġ65": 4970,
      "eld": 4971,
      "Ġnever": 4972,
      "adient": 4973,
      "Ġover": 4974,
      "andalf": 4975,
      "other": 4976,
      "thod": 4977,
      "Ġà¶Ĩà·Ģà¶»à¶±à¶º": 4978,
      "Ġ2005": 4979,
      "ĠYork": 4980,
      "akh": 4981,
      "ĠVasee": 4982,
      "igan": 4983,
      "Ġonly": 4984,
      "ĠNewfound": 4985,
      "Ġà¶ħà¶±à·Ģà·ĥà¶»": 4986,
      "Ġà¶±à·ħà¶½": 4987,
      "à¶Ĭà¶§à¶´à·ĥ": 4988,
      "ĠMaI": 4989,
      "cape": 4990,
      "Ġweekday": 4991,
      "DayName": 4992,
      "ĠTexas": 4993,
      "ĠNewfoundland": 4994,
      "Dev": 4995,
      "SS": 4996,
      "TV": 4997,
      "hr": 4998,
      "oad": 4999,
      "Ġes": 5000,
      "à·Ĵ;": 5001,
      "à¶Ńà·Ģà¶º": 5002,
      "à¶Ńà¶ºà¶ļà¶§": 5003,
      "à·Ħà¶¸à¶¯": 5004,
      "à¶½à¶½à¶ļ": 5005,
      "à¶´à¶ľ": 5006,
      "Ġà¶ĭà·ĥà¶§": 5007,
      "à¶ºà¶±à¶¥à¶º": 5008,
      "Ġà¶½à¶ºà¶±": 5009,
      "Ġà¶ķà¶½à¶±": 5010,
      "Ġà¶ķà¶±à¶ļà¶»à¶±": 5011,
      "Ġà¶¸à¶ľà¶ĩà¶»": 5012,
      "Ġà¶Ķà¶¶à¶¸": 5013,
      "Ġà¶Ķà¶¶à¶½à¶§": 5014,
      "Ġà¶Ķà¶¶à¶§à¶Ń": 5015,
      "à¶ļà¶»à¶¯": 5016,
      "Ġà¶§à¶Ń": 5017,
      "à¶»à¶¸à·Ģà¶Ń": 5018,
      "à·ı!\"": 5019,
      "à¶ºà¶¸à¶«": 5020,
      "Ġà¶¸à·Ħà¶½à¶§": 5021,
      "ĠCent": 5022,
      "Ġà·ħà¶¯à¶»": 5023,
      "ition": 5024,
      "à¶»à·Ģà¶»à¶º": 5025,
      "Ġà¶¸à¶±à·Ħà¶»": 5026,
      "Ġse": 5027,
      "Ġsource": 5028,
      "Ġ38": 5029,
      "Ġà¶ħà¶¸à¶Ńà¶ļà¶º": 5030,
      "Ġà¶ĩà¶ºà¶§à¶Ń": 5031,
      "à¶ĩà¶¸à¶»": 5032,
      "à¶ºà¶´à¶½": 5033,
      "ĠAri": 5034,
      "Ġà¶´à·ħà¶³": 5035,
      "Ġà·Ģà·Ħà¶½à¶º": 5036,
      "Ġà¶´à¶§à·Ħ": 5037,
      "Ġà·Ģà·ĥà¶»à¶ļà¶§": 5038,
      "ĠKR": 5039,
      "ĠPr": 5040,
      "ĠReyes": 5041,
      "Ġlord": 5042,
      "olina": 5043,
      "Ġmongolia": 5044,
      "ĠGandalf": 5045,
      "à¶ķà·Ħ": 5046,
      "à·ģà¶ļà¶ºà¶±": 5047,
      "Ġ1549": 5048,
      "Ġmethod": 5049,
      "Ġà¶±à¶»à¶¹à¶±": 5050,
      "eep": 5051,
      "oba": 5052,
      "eneral": 5053,
      "Ġgradient": 5054,
      "ĠWho": 5055,
      "ible": 5056,
      "mbols": 5057,
      "ĠNorth": 5058,
      "Ġà·ĥà¶»à¶½à·Ģà¶¸": 5059,
      "ĠSaito": 5060,
      "ĠCarolina": 5061,
      "mpathy": 5062,
      "Ġà¶Ńà¶¯à¶¶à¶¯à¶º": 5063,
      "format": 5064,
      "symbols": 5065,
      "ĠFrank": 5066,
      "Ġà¶ľà¶ľà¶±à¶ľ": 5067,
      "ĠWatney": 5068,
      "ĠRemote": 5069,
      "02": 5070,
      "500": 5071,
      "SP": 5072,
      "ied": 5073,
      "yll": 5074,
      "à¶¸à·ħ": 5075,
      "à¶»à¶ºà¶½": 5076,
      "à·ĥà¶ľà¶Ń": 5077,
      "Ġà·Ģà¶ľà¶±": 5078,
      "Ġà·Ģà¶±à¶Ń": 5079,
      "Ġà¶Ķà¶Ńà¶½": 5080,
      "Ġà¶ĳà·Ĩ": 5081,
      "Ġà¶¯à·ģà¶ļ": 5082,
      "Ġà¶´à¶Ńà¶ļ": 5083,
      "Ġà·ĥà¶´à¶º": 5084,
      "à¶©à¶ļà¶»à¶½": 5085,
      "Ġà¶¸à¶¸à¶¸à¶º": 5086,
      "à·ĵ:": 5087,
      "Ġà¶ĩà¶½à·Ģ": 5088,
      "Ġà¶ĳà¶ļà·ĥ": 5089,
      "Ġà¶ĭà¶ļà·ĥ": 5090,
      "Ġà¶ķà·Ģà¶§": 5091,
      "à¶Ńà¶±à¶Ń": 5092,
      "à¶°à·Ģà¶±": 5093,
      "à·ı,.": 5094,
      "Ġà¶ħà·Ģà¶ºà·Ģ": 5095,
      "Ġà¶§à¶½": 5096,
      "à¶¯à¶»à¶§à¶¸": 5097,
      "Ġà¶ĭà¶¹à¶¸": 5098,
      "Ġà¶¸à·Ħà¶¢à¶±à¶Ń": 5099,
      "à¶ºà¶ºà¶Ń": 5100,
      "à¶ļà¶½à¶ºà¶ļ": 5101,
      "à¶±à¶ºà¶ļà¶¯": 5102,
      "à¶ĳà¶ļà¶¸": 5103,
      "à¶ľà¶ºà¶Ń": 5104,
      "Ġà¶ĳà¶Ńà¶±à¶º": 5105,
      "ense": 5106,
      "ĠDon": 5107,
      "Ġà·ħà¶Łà¶¸": 5108,
      "Ġaway": 5109,
      "Ġdown": 5110,
      "Ġneed": 5111,
      "Ġmr": 5112,
      "Ġht": 5113,
      "editor": 5114,
      "ĠEv": 5115,
      "Ġà¶Ŀà¶«": 5116,
      "urn": 5117,
      "à¶»à¶«à¶ºà¶ļà¶§": 5118,
      "Ġthr": 5119,
      "à¶Ŀà¶±à¶ļ": 5120,
      "aint": 5121,
      "Ġà¶µà¶½": 5122,
      "ĠCho": 5123,
      "à¶Ĭà¶½à¶Ł": 5124,
      "à¶»à¶·à·Ģà¶º": 5125,
      "Ġwithout": 5126,
      "Ġdoes": 5127,
      "Ġ1999": 5128,
      "ĠLongNamePossessive": 5129,
      "Ġà¶ļà¶»à¶ļà·Ģà¶±": 5130,
      "ĠAdvanced": 5131,
      "ĠBlack": 5132,
      "ĠSubject": 5133,
      "ĠGNOME": 5134,
      "ĠTaha": 5135,
      "EOL": 5136,
      "NG": 5137,
      "WM": 5138,
      "fig": 5139,
      "gel": 5140,
      "à¶ļà¶¸à¶¯": 5141,
      "à¶ļà¶½à¶º": 5142,
      "à¶»à·Ģà¶ļ": 5143,
      "à¶»à¶ľà¶¸": 5144,
      "à¶½à·Ģà¶§": 5145,
      "à·ĥà¶¸à¶±": 5146,
      "à¶¯à¶ºà¶ļà¶§": 5147,
      "Ġà¶±à·Ģà·ĥ": 5148,
      "Ġà¶´à¶¶": 5149,
      "Ġà¶´à¶§à¶ļ": 5150,
      "Ġà¶Ĵà¶¶": 5151,
      "Ġà¶¶à¶ľ": 5152,
      "à¶©à·Ģà¶¸": 5153,
      "Ġà¶ĩà¶±à·ĥ": 5154,
      "Ġà¶ĩà¶¶à¶§": 5155,
      "Ġà¶ĳà¶ļà¶¸à¶º": 5156,
      "Ġà¶ĭà¶§": 5157,
      "Ġà¶ĭà·Ģà¶¸": 5158,
      "Ġà¶½à¶§": 5159,
      "à·ģà¶ļà¶»à¶±": 5160,
      "Ġà¶»à¶ºà·ĥ": 5161,
      "à·Ĥà¶¥": 5162,
      "Ġà¶¢à¶±à·Ģ": 5163,
      "Ġà¶±à¶¸à¶¯": 5164,
      "à¶¢à¶§": 5165,
      "à¶Łà¶½": 5166,
      "Ġà¶ļà¶»à¶±à·Ģà¶½": 5167,
      "à¶®à¶±à¶ºà¶ļ": 5168,
      "Ġà¶©à¶ł": 5169,
      "Ġà·Ħà¶¯à¶ľ": 5170,
      "its": 5171,
      "à¶»à·Ģà¶ºà¶§": 5172,
      "Ġà¶Ķà¶¶à¶§à¶º": 5173,
      "Ġà¶¶à¶ºà·Ģà¶±": 5174,
      "Ġà¶īà¶³à¶½à¶¯": 5175,
      "Ġà¶ĭà¶©à¶Ńà¶§": 5176,
      "Ġà¶±à¶»à¶ļà¶§": 5177,
      "Ġkcm": 5178,
      "ĠMer": 5179,
      "Ġcre": 5180,
      "Ġ3000": 5181,
      "ĠSy": 5182,
      "Ġà¶´à¶¯à·Ģà¶±à·Ģ": 5183,
      "Ġà¶¶à¶©à¶§": 5184,
      "à¶Ľà¶¸": 5185,
      "ĠIf": 5186,
      "ĠInt": 5187,
      "reg": 5188,
      "Ġà·Ģà¶¯à·Ģà¶±": 5189,
      "ĠPar": 5190,
      "ĠPal": 5191,
      "Ġà¶Īà¶Ńà¶ļà¶§": 5192,
      "Ġli": 5193,
      "Ġà¶ħà¶ºà¶§à¶º": 5194,
      "ĠEmpathy": 5195,
      "Ġà¶½à¶¸à¶ºà¶ľ": 5196,
      "ĠJer": 5197,
      "mentary": 5198,
      "osen": 5199,
      "à¶Ŀà¶«à¶ļ": 5200,
      "ira": 5201,
      "Ġà¶µà¶´": 5202,
      "à¶§à¶ľà·Ħà¶½": 5203,
      "Ġ02": 5204,
      "Ġà¶¶à¶»à¶´à¶Ńà·ħ": 5205,
      "avy": 5206,
      "Ġà¶Ńà¶»à¶ľà¶ºà¶§": 5207,
      "ĠStar": 5208,
      "ĠThat": 5209,
      "ĠURLs": 5210,
      "ĠShortNamePossessive": 5211,
      "à¶«à¶ľà·Ħà¶´à¶±": 5212,
      "Ġnorway": 5213,
      "gram": 5214,
      "ĠCAA": 5215,
      "Ġguy": 5216,
      "rist": 5217,
      "ward": 5218,
      "}[": 5219,
      "âĸ": 5220,
      "Ġang": 5221,
      "à·ĻâĪĻâĪĻ": 5222,
      "Ġà¶¸à¶¯à¶ļ": 5223,
      "à·Ħà¶´": 5224,
      "à¶½à·Ģà¶ļ": 5225,
      "à¶½à¶±à·Ģà¶¯": 5226,
      "à¶½à¶·à¶º": 5227,
      "à·ĥà¶·": 5228,
      "à¶¯à¶½à¶§": 5229,
      "à·Ĳ**": 5230,
      "Ġà·Ģà¶±à¶±": 5231,
      "Ġà¶Ķà¶»à·Ģà¶±": 5232,
      "Ġà·Ħà¶½à¶±": 5233,
      "Ġà¶¯à¶¸à¶¸": 5234,
      "Ġà¶¯à·ģà¶ļà¶º": 5235,
      "à¶©à¶ļà¶»à¶´": 5236,
      "Ġà¶īà¶´": 5237,
      "à¶ºà¶ļà¶ºà¶ļ": 5238,
      "à¶ºà¶ļà¶§à¶Ń": 5239,
      "à·ģà¶´à¶»": 5240,
      "Ġà¶»à¶§à¶¸": 5241,
      "à·Ģà¶Ńà¶§": 5242,
      "à¶ľà¶±à¶ºà¶§": 5243,
      "Ġà·ĥà¶¸à¶±à¶½": 5244,
      "à¶¹à¶¸": 5245,
      "à·Ħà¶»à¶«à¶º": 5246,
      "à¶½à¶ļà¶¸": 5247,
      "Ġà·ĥà·Ħà¶±": 5248,
      "à·Ĩà¶ºà¶»": 5249,
      "à·Ģà¶»à¶«à¶ºà¶ļ": 5250,
      "Ġà¶¸à·Ħà¶¯": 5251,
      "inal": 5252,
      "ince": 5253,
      "à¶»à¶¯à¶ļ": 5254,
      "itoba": 5255,
      "Ġà¶ĭà¶´à¶ļà¶»": 5256,
      "orida": 5257,
      "Ġà¶¯à¶»à¶±à·Ģ": 5258,
      "Ġsec": 5259,
      "Ġà¶ĭà¶©à¶¸": 5260,
      "ĠMu": 5261,
      "Ġà¶ļà¶©à¶´": 5262,
      "Ġcar": 5263,
      "à¶»à·Ħà¶ļà¶º": 5264,
      "ionary": 5265,
      "Ġfocus": 5266,
      "Ġbaby": 5267,
      "Ġà·Ģà¶¯à¶¯": 5268,
      "Ġpart": 5269,
      "à¶§à·Ģà¶©": 5270,
      "Ġà¶ħà¶·à¶º": 5271,
      "Ġlist": 5272,
      "à¶Ĩà¶ł": 5273,
      "ado": 5274,
      "ĠGood": 5275,
      "ĠLev": 5276,
      "ĠOn": 5277,
      "Ġ800": 5278,
      "unni": 5279,
      "Ġà¶Ķà·ĥà·Ģ": 5280,
      "stan": 5281,
      "pport": 5282,
      "que": 5283,
      "Ġà¶ħà¶§à·Ģà¶±": 5284,
      "Ġà¶¸à·ħà·ĥ": 5285,
      "ĠAlt": 5286,
      "Ġcolor": 5287,
      "Ġà¶´à·Ģà¶»à¶±": 5288,
      "ĠLongName": 5289,
      "ĠManitoba": 5290,
      "Ġevery": 5291,
      "Ġheader": 5292,
      "ĠElementary": 5293,
      "à¶±à¶ľà·Ħà¶´à¶±": 5294,
      "Ġà¶½à¶ºà¶±à¶½": 5295,
      "ĠKRunner": 5296,
      "DA": 5297,
      "MA": 5298,
      "bar": 5299,
      "ham": 5300,
      "ior": 5301,
      "ru": 5302,
      "ua": 5303,
      "Ġ^": 5304,
      "à¶ºComment": 5305,
      "à¶»à¶¸à¶±": 5306,
      "à¶»à¶¢à¶±": 5307,
      "à·Ħà¶Ńà¶¸": 5308,
      "à·ĥà¶ļà¶»": 5309,
      "à·Ĳ-": 5310,
      "Ġà·Ħà¶¸à¶±": 5311,
      "Ġà·ĥà¶Łà·Ģ": 5312,
      "Ġà¶ļà¶»à·Ģà¶ľà¶±": 5313,
      "à·ĳ--": 5314,
      "Ġà¶ĳà¶ļà¶ľà·Ģ": 5315,
      "à¶¸à¶ºà¶º": 5316,
      "Ġà¶ļà·Ģà¶»à¶º": 5317,
      "à¶ļà¶»à¶Ń": 5318,
      "Ġà¶ħà¶Ńà¶¯": 5319,
      "Ġà¶ħà·Ħà¶¶": 5320,
      "à¶Ńà¶»à·ĥ": 5321,
      "Ġà¶¸à¶»à¶´à¶±": 5322,
      "erv": 5323,
      "Ġà¶ĭà¶´à¶¸": 5324,
      "Ġint": 5325,
      "à¶Ķà¶ºà¶Ń": 5326,
      "ĠMor": 5327,
      "ĠMal": 5328,
      "Ġà¶ļà¶©à·Ģ": 5329,
      "ena": 5330,
      "Ġ52": 5331,
      "ĠAs": 5332,
      "ĠAre": 5333,
      "à·Ĥà¶ļà·Ģà¶»": 5334,
      "à¶»à·Ħà¶¸": 5335,
      "asma": 5336,
      "ica": 5337,
      "à¶Ľà¶ºà¶§": 5338,
      "ĠIC": 5339,
      "à¶īà¶½": 5340,
      "Ġag": 5341,
      "ĠBender": 5342,
      "ĠPa": 5343,
      "Ġdesktop": 5344,
      "Ġmin": 5345,
      "Ġmar": 5346,
      "ĠEPI": 5347,
      "ĠEagle": 5348,
      "à¶¨à¶¸": 5349,
      "ĠJe": 5350,
      "und": 5351,
      "Ġà¶ĳà·ĥà·Ģ": 5352,
      "ersey": 5353,
      "slot": 5354,
      "eaux": 5355,
      "Ġ007": 5356,
      "ipps": 5357,
      "à¶łà¶»à¶ļà¶½": 5358,
      "Ġà¶ħà·Ģà¶Ńà¶ļ": 5359,
      "cript": 5360,
      "vernow": 5361,
      "Ġà¶©à¶ºà¶±à¶¸à¶º": 5362,
      "âĪŀâĪŀâĪŀâĪŀ": 5363,
      "Ġà¶ļà¶¹à¶ºà¶ļ": 5364,
      "Ġpreview": 5365,
      "Ġà¶ħà¶ľà¶ºà¶ļà¶»à¶±à·Ģ": 5366,
      "Ġkeyword": 5367,
      "ucky": 5368,
      "ĠFlorida": 5369,
      "Ġemail": 5370,
      "Ġà·ĥà¶ľà·Ģà¶±": 5371,
      "ĠRobert": 5372,
      ",...": 5373,
      "24": 5374,
      "cl": 5375,
      "co": 5376,
      "mond": 5377,
      "ring": 5378,
      "ument": 5379,
      "à·Ģà¶ł": 5380,
      "à·Ģà¶«à¶ļ": 5381,
      "à¶ºà¶ľà¶Ń": 5382,
      "à¶ºà¶ºà¶±à·Ģ": 5383,
      "à¶§à¶ºà¶±": 5384,
      "Ġà·Ģà¶±à·ĥ": 5385,
      "Ġà·Ģà¶¯à¶±": 5386,
      "Ġà¶ħà·Ģà¶±à¶¸": 5387,
      "Ġà¶±à¶§à¶½": 5388,
      "Ġà¶´à¶½à¶ļ": 5389,
      "à¶´à¶»à¶¸": 5390,
      "Ġà¶ľà¶§": 5391,
      "Ġà¶ļà¶»à¶ļà¶»": 5392,
      "Ġà¶ºà·Ģà¶º": 5393,
      "à¶«à¶ļà¶º": 5394,
      "Ġà¶Ĵà¶ļà¶ľ": 5395,
      "à¶łà·ĥ": 5396,
      "à¶±à¶¸à¶¸": 5397,
      "Ġà·ĥà¶¸à¶»à¶±à·Ģ": 5398,
      "Ġà¶±à¶¸à¶±": 5399,
      "à¶ļà¶»à¶ºà¶ļ": 5400,
      "Ġà¶ħà¶Ńà¶ĩà¶»": 5401,
      "Ġà¶©à¶»": 5402,
      "à·Ģà¶»à·ĥà¶±": 5403,
      "Ġ!\"": 5404,
      "Ġà¶łà¶½à¶±à¶ºà¶ļ": 5405,
      "à¶ħà¶»à¶±": 5406,
      "Ġà·Ĩà¶ºà¶»": 5407,
      "Ġà·ħà¶ľà¶¯": 5408,
      "à¶ĳà·ħ": 5409,
      "Ġà¶ĳà¶±à·Ģà¶§": 5410,
      "à¶»à·Ģà¶´": 5411,
      "à·Ĵ...\"": 5412,
      "Ġà¶ļà¶»à¶´à¶§": 5413,
      "Ġ'...": 5414,
      "hem": 5415,
      "Ġway": 5416,
      "Ġà¶½à¶ľà¶§à¶¸": 5417,
      "ĠUA": 5418,
      "Ġà¶¢à¶±à¶±à¶º": 5419,
      "red": 5420,
      "ĠBor": 5421,
      "Ġà¶¶à¶¶à¶ļ": 5422,
      "ĠNov": 5423,
      "Ġdid": 5424,
      "Ġdef": 5425,
      "Ġhad": 5426,
      "ĠEm": 5427,
      "oth": 5428,
      "à·²,": 5429,
      "à·Ĵ\".": 5430,
      "Ġ2007": 5431,
      "ĠVIP": 5432,
      "ope": 5433,
      "Ġà¶īà·Ģà·ĥà¶ľ": 5434,
      "Ġà¶±à¶§à·Ģà¶±": 5435,
      "Ġwhich": 5436,
      "ĠCharlie": 5437,
      "à¶»à¶ļà¶Ńà¶±à¶ºà¶ļ": 5438,
      "Ġjust": 5439,
      "ship": 5440,
      "Ġroot": 5441,
      "Ġrobot": 5442,
      "ictionary": 5443,
      "inois": 5444,
      "Ġlatvia": 5445,
      "-#": 5446,
      "22": 5447,
      "Help": 5448,
      "TI": 5449,
      "__": 5450,
      "air": 5451,
      "beng": 5452,
      "gar": 5453,
      "¢âĹ": 5454,
      "Ġ`": 5455,
      "à¶ºà·Ģà¶º": 5456,
      "à·Ļ-": 5457,
      "à¶Ńà¶§à¶Ń": 5458,
      "Ġà¶¸à¶»à¶¸": 5459,
      "à¶§à¶¸à¶Ń": 5460,
      "à·ĥà¶©": 5461,
      "Ġà·Ģà¶»à¶±": 5462,
      "Ġà¶´à¶±à¶Ń": 5463,
      "Ġà¶Ĵà¶»": 5464,
      "Ġà¶¶à¶¯à·Ģ": 5465,
      "à¶¶à·Ģà¶±": 5466,
      "Ġà¶Ĩà¶ļà¶±": 5467,
      "à·Ĭ,...": 5468,
      "Ġà·ĥà¶¸à¶¸": 5469,
      "Ġà¶±à¶¸à·Ģ": 5470,
      "Ġà¶±à¶¸à¶ºà¶ļ": 5471,
      "à¶§à¶¸à¶±": 5472,
      "à¶©à¶ļà¶»à¶º": 5473,
      "Ġà¶ħà¶Ńà¶½": 5474,
      "Ġà¶ħà¶ºà·Ģà¶Ń": 5475,
      "à¶»à¶¸à¶«à¶ºà¶ļ": 5476,
      "Ġ\".": 5477,
      "Ġà¶ĳà¶ļà¶ļà¶§à¶¸": 5478,
      "Ġà¶©à¶ºà¶½": 5479,
      "à¶§à¶±à¶ºà¶ļ": 5480,
      "Ġà¶¸à·Ħà¶´à¶§": 5481,
      "à¶ħà¶³": 5482,
      "à¶ħà¶±à¶Ń": 5483,
      "ĠCO": 5484,
      "Ġà¶´à·Ħà¶±à¶ļ": 5485,
      "Ġà¶ħà¶¯à·Ħà·ĥà¶§": 5486,
      "Ġà¶ĳà·ħà·Ģà¶½": 5487,
      "ĠMich": 5488,
      "ĠSw": 5489,
      "Ġwon": 5490,
      "Ġwest": 5491,
      "ĠAC": 5492,
      "ĠAih": 5493,
      "led": 5494,
      "Ġà¶ħà¶°à¶¸à¶º": 5495,
      "ĠTom": 5496,
      "Ġautogen": 5497,
      "ĠKW": 5498,
      "ĠKipps": 5499,
      "ĠPower": 5500,
      "ĠNet": 5501,
      "ĠNote": 5502,
      "Ġdoc": 5503,
      "Ġlistbox": 5504,
      "ely": 5505,
      "à¶Ĩà¶¯à¶»à¶º": 5506,
      "Ġmine": 5507,
      "add": 5508,
      "ĠGo": 5509,
      "ĠGeneral": 5510,
      "ĠLove": 5511,
      "ĠOz": 5512,
      "Ġgive": 5513,
      "ĠJyll": 5514,
      "ĠJersey": 5515,
      "rid": 5516,
      "Ġ2003": 5517,
      "ster": 5518,
      "ĠYeah": 5519,
      "à¶Ĭà¶º": 5520,
      "ĠStacks": 5521,
      "à¶»à¶·à·Ģà¶ļà¶º": 5522,
      "aps": 5523,
      "gine": 5524,
      "Ġà¶¯à¶«à·Ħ": 5525,
      "Ġwork": 5526,
      "Ġsystem": 5527,
      "âĹ¢âĹ": 5528,
      "Ġà¶´à¶½à¶ºà·Ģ": 5529,
      "ĠShortName": 5530,
      "ĠCDC": 5531,
      "Ġà¶ħà¶¯à·Ħà¶ľà¶±": 5532,
      "ĠHansen": 5533,
      "#$%": 5534,
      "ĠLabeaux": 5535,
      "ĠMomose": 5536,
      "ĠChoong": 5537,
      "ĠEPIC": 5538,
      "bengal": 5539,
      "Ġwestbengal": 5540,
      "ĠAihara": 5541,
      "ĠJylland": 5542,
      "âĹ¢âĹ£": 5543,
      "CR": 5544,
      "St": 5545,
      "ais": 5546,
      "less": 5547,
      "nect": 5548,
      "wh": 5549,
      "well": 5550,
      "Ġent": 5551,
      "à¶±à¶¶": 5552,
      "à¶±à¶¯à¶»": 5553,
      "à·Ģà¶¶à¶½": 5554,
      "à¶ºà¶Ńà¶±": 5555,
      "à¶ºName": 5556,
      "à¶»à¶łà¶±": 5557,
      "à¶Ńà¶½à¶¸": 5558,
      "à·Ķ@": 5559,
      "à¶½à·Ħà¶ļà¶§": 5560,
      "à·ĥà¶ļà¶¸": 5561,
      "Ġà·Ģà·ħà¶¯": 5562,
      "Ġà¶¯à¶¸à·Ģ": 5563,
      "Ġà·ĥà¶¶à¶¯": 5564,
      "Ġà¶ļà¶»à·Ħ": 5565,
      "Ġà¶ĳà¶ļà·Ģà¶»": 5566,
      "Ġà¶ħà¶´à¶±": 5567,
      "à¶«à¶±à¶¸": 5568,
      "Ġà¶ĭà¶ºà¶±à·Ģ": 5569,
      "à¶ºà¶±à¶ºà¶ļà¶§": 5570,
      "à·ħà·Ģà¶§": 5571,
      "Ġà¶ķà¶±à¶Ń": 5572,
      "à·Ĥà¶ļà¶¸": 5573,
      "à¶°à¶±à¶ºà¶§": 5574,
      "Ġà¶ļà¶½à¶¯": 5575,
      "à¶¢à¶¶": 5576,
      "à¶¢à¶¹": 5577,
      "à·Ĭ?\"": 5578,
      "Ġà·Ĩà¶ļà¶»": 5579,
      "Ġà¶īà¶¯à¶´": 5580,
      "Ġà¶ļà¶§à·Ģà¶Ń": 5581,
      "Ġà¶·à¶ºà·Ģ": 5582,
      "à¶½à·Ģà¶±à·Ģ": 5583,
      "Ġà¶Ĵà¶ļà¶§à¶Ń": 5584,
      "à¶»à·Ģà¶ºà¶±": 5585,
      "Ġà¶īà¶³à¶´à¶±": 5586,
      "Ġà¶ĳà·ħà·Ģà·ħ": 5587,
      "à¶ºà·Ģà¶ľà¶±": 5588,
      "ĠMe": 5589,
      "ĠMart": 5590,
      "à·ĴâĢįâĢį": 5591,
      "à¶¯à¶ļà¶ºà¶ļ": 5592,
      "Ġ39": 5593,
      "Ġà¶īà¶©à¶Ń": 5594,
      "à¶ĩà¶¸": 5595,
      "ĠAL": 5596,
      "ĠAv": 5597,
      "ĠAction": 5598,
      "Ġà¶ĩà¶³à¶´": 5599,
      "ĠDel": 5600,
      "Ġfirst": 5601,
      "ĠThere": 5602,
      "à·Ħà¶ļà¶ºà¶±": 5603,
      "à¶ĭà¶©": 5604,
      "ĠKhan": 5605,
      "ĠPam": 5606,
      "Ġlay": 5607,
      "Ġmay": 5608,
      "ĠGu": 5609,
      "ĠWash": 5610,
      "Ġà¶ºà¶§à¶Ńà¶§": 5611,
      "Ġà¶¯à·Ħà·Ģà¶½": 5612,
      "riend": 5613,
      "osa": 5614,
      "Ġà¶ħà¶»à¶ļà¶§": 5615,
      "ages": 5616,
      "uman": 5617,
      "llinois": 5618,
      "Ġà¶ħà¶§à¶ļà¶§": 5619,
      "even": 5620,
      "Ġinform": 5621,
      "angu": 5622,
      "à¶ľà¶«à¶ļà¶ºà¶§": 5623,
      "Ġshould": 5624,
      "oogle": 5625,
      "à·ı).": 5626,
      "Ġà¶¢à¶±à¶´à¶¯à¶ºà¶§": 5627,
      "ustom": 5628,
      "Ġtools": 5629,
      "aract": 5630,
      "ĠNAME": 5631,
      "adyship": 5632,
      "Ġà¶¯à¶©à¶ºà¶¸à¶§": 5633,
      "Ġà¶īà¶½à¶ľà¶§": 5634,
      "ĠCVS": 5635,
      "Ġthrough": 5636,
      "ĠMichigan": 5637,
      "ĠWashington": 5638,
      "Edit": 5639,
      "GP": 5640,
      "In": 5641,
      "My": 5642,
      "by": 5643,
      "com": 5644,
      "hal": 5645,
      "ng": 5646,
      "oin": 5647,
      "sert": 5648,
      "Ġour": 5649,
      "ĠâĪŀâĪŀâĪŀâĪŀ": 5650,
      "à¶±à¶§à¶±": 5651,
      "à·Ĵ(": 5652,
      "à¶»à¶¥": 5653,
      "à·ļ;": 5654,
      "à¶½à¶Ŀ": 5655,
      "à·ĥà¶½à¶ºà¶ļ": 5656,
      "à¶¯à¶¶": 5657,
      "à¶¯à¶±à¶¸": 5658,
      "à¶¯à·Ģà¶º": 5659,
      "à¶¯à¶¢à¶±à¶ļà¶º": 5660,
      "Ġà·Ģà¶»à¶ºà¶ļ": 5661,
      "à¶ľà¶ľà¶±": 5662,
      "à¶ľà¶½à¶ļ": 5663,
      "Ġà¶Ķà¶»à·Ģ": 5664,
      "Ġà¶Ķà¶´à¶»": 5665,
      "Ġà¶¯à·Ħà¶±": 5666,
      "Ġà¶¯à¶«à¶ľ": 5667,
      "Ġà·ĥà·Ģà·ĥ": 5668,
      "Ġà¶Ĵà·ĥ": 5669,
      "Ġà¶¶à¶»à¶Ń": 5670,
      "Ġà¶¸à¶¸à·Ģà¶Ń": 5671,
      "Ġ-?": 5672,
      "à¶¶à¶ºà¶§": 5673,
      "à¶¶à¶»à¶Ń": 5674,
      "Ġà¶ĩà¶±à¶§": 5675,
      "Ġà¶ĳà¶ļà¶ļà¶¯": 5676,
      "à¶«à¶ļà¶»": 5677,
      "à¶«à¶§à¶¸": 5678,
      "à¶ºà¶ļà¶ºà¶§": 5679,
      "Ġà¶ļà¶»à¶±à¶¯": 5680,
      "à·Ģà¶±à¶ºà¶ļ": 5681,
      "Ġà¶»à¶łà¶ļà¶º": 5682,
      "à¶łà¶±à·Ģ": 5683,
      "à¶³à¶Ń": 5684,
      "à¶Ńà¶±à¶ļ": 5685,
      "Ġà¶¶à¶½à¶ļà¶»à¶±à·Ģ": 5686,
      "à¶»à¶ļà¶»à¶ľ": 5687,
      "Ġà¶ļà¶½à¶¸à¶«": 5688,
      "à¶¢à·ģ": 5689,
      "Ġà¶ĩà¶ºà¶¯": 5690,
      "Ġà¶ħà¶Ńà¶º": 5691,
      "Ġà·ĥà·Ħà¶ºà¶§": 5692,
      "Ġà¶¸à·Ħà¶Ńà¶º": 5693,
      "Ġà¶¸à·Ħà¶¢à¶±à¶º": 5694,
      "à¶¯à¶ºà¶Ń": 5695,
      "Ġà¶Ĭà¶ľ": 5696,
      "à¶Ķà¶´": 5697,
      "à¶ļà¶½à¶¸": 5698,
      "Ġà¶±à·Ģà¶Ńà¶±": 5699,
      "Ġà¶·à¶ľà¶Ń": 5700,
      "à¶±à¶§à¶º": 5701,
      "ona": 5702,
      "Ġà¶ĭà¶´à¶ļà¶»à¶±": 5703,
      "Ġà¶ļà¶«à¶§": 5704,
      "Ġà¶ħà·Ģà·ģà¶ºà¶º": 5705,
      "Ġsk": 5706,
      "Ġsize": 5707,
      "Ġshell": 5708,
      "Ġà·Ģà¶§à¶ļà¶»à¶½": 5709,
      "ĠMex": 5710,
      "ĠMary": 5711,
      "Ġcr": 5712,
      "à·Ĳà¶Ĥ,": 5713,
      "Ġ56": 5714,
      "Ġ41": 5715,
      "Ġà¶ĩà¶³à¶ľà¶Ń": 5716,
      "à¶»à·Ħà¶«à¶ºà¶ļ": 5717,
      "ĠDJ": 5718,
      "ĠUkraine": 5719,
      "ication": 5720,
      "à¶Ľà¶ļà¶º": 5721,
      "Ġà¶¢à¶±à¶»à¶¢à¶º": 5722,
      "ĠFitzie": 5723,
      "eler": 5724,
      "à·Ģà¶ºà¶ļà¶¯": 5725,
      "Ġà¶ħà¶ľà·Ħà¶»": 5726,
      "à·Ĭ\",": 5727,
      "Ġoh": 5728,
      "Ġà¶¶à¶½à¶±à·Ģà¶ļ": 5729,
      "à·²!": 5730,
      "ĠYe": 5731,
      "ump": 5732,
      "à·Ĥà¶«à¶ºà¶ļà¶§": 5733,
      "à¶»à¶¸à¶ºà¶º": 5734,
      "ĠKDM": 5735,
      "ortug": 5736,
      "à·Ģà¶´à·Ħà·ĥ": 5737,
      "Ġà¶ħà¶»à¶ºà¶ľ": 5738,
      "à·Ħà¶¬à·Ģ": 5739,
      "etto": 5740,
      "Ġeven": 5741,
      "ample": 5742,
      "ĠToretto": 5743,
      "ĠCheers": 5744,
      "stein": 5745,
      "ĠParcher": 5746,
      "Ġà·ĥà¶¶à¶¯à¶Ń": 5747,
      "Ġinformation": 5748,
      "ortugal": 5749,
      "21": 5750,
      "35": 5751,
      "AS": 5752,
      "IL": 5753,
      "IR": 5754,
      "RE": 5755,
      "ault": 5756,
      "ble": 5757,
      "ield": 5758,
      "mail": 5759,
      "of": 5760,
      "oot": 5761,
      "rc": 5762,
      "rap": 5763,
      "size": 5764,
      "tes": 5765,
      "uth": 5766,
      "uch": 5767,
      "Ã©": 5768,
      "à¶±à¶»à¶ļ": 5769,
      "à¶±à¶Ł": 5770,
      "à¶Ńà·Ģà¶»à¶º": 5771,
      "à·ĥà·Ĩ": 5772,
      "à·ĥà¶´à¶±": 5773,
      "Ġà¶ħà¶©à¶ļ": 5774,
      "Ġà·Ħà¶Ńà¶ļà¶§": 5775,
      "Ġà¶¯à¶¸à¶º": 5776,
      "Ġà¶¯à¶«à¶ľà·Ħ": 5777,
      "Ġà¶´à¶§à¶º": 5778,
      "à¶´à·Ħà¶»": 5779,
      "Ġà¶ľà·Ħà¶§": 5780,
      "Ġà¶ļà¶»à¶«": 5781,
      "âĢįà·Ĭ": 5782,
      "à¶©à¶ľà·ĥ": 5783,
      "Ġà¶ºà¶§à¶¯": 5784,
      "Ġà¶ħà¶´à¶º": 5785,
      "à¶ºà¶ļà¶»à¶«": 5786,
      "à·ħà·Ħ": 5787,
      "à·ħà¶ºà¶§": 5788,
      "Ġà¶½à¶¸à¶ºà¶§": 5789,
      "Ġà¶Ĩà¶±à¶±": 5790,
      "Ġà¶ķà¶ļà¶¸": 5791,
      "Ġà¶»à·Ģà¶±": 5792,
      "Ġà¶ºà¶±à¶Ń": 5793,
      "Ġà¶¶à¶½à¶ļà¶»à¶±": 5794,
      "à¶°à·Ģà¶½à¶§": 5795,
      "à¶»à¶ļà¶©": 5796,
      "Ġà·ĥà¶¸à¶¶à¶»à¶Ń": 5797,
      "à¶ļà¶»à·Ģ": 5798,
      "à¶ļà¶»à¶´à¶±": 5799,
      "Ġà¶ĭà¶±à¶¯": 5800,
      "Ġà¶ħà¶Ńà¶»à¶¯": 5801,
      "à¶¯à¶»à·Ģà¶»": 5802,
      "à·Ģà¶§à¶±": 5803,
      "Ġà¶¸à¶»à·Ģà¶±": 5804,
      "Ġà¶¸à¶»à¶±à·Ģà¶¯": 5805,
      "Ġà¶Ĵà·Ģà¶¯": 5806,
      "à¶·à¶ļà¶º": 5807,
      "à¶ļà¶½à·Ģà¶Ń": 5808,
      "Ġà¶ļà¶§à¶Ń": 5809,
      "Ġà·Ģà¶½à¶§à¶¸": 5810,
      "Ġà·Ģà¶½à¶§à¶¯": 5811,
      "Ġà¶ħà·Ģà·ĥà¶»à¶¯": 5812,
      "ors": 5813,
      "Ġà¶¶à¶ºà¶Ń": 5814,
      "Ġsw": 5815,
      "Ġson": 5816,
      "Ġsir": 5817,
      "à¶ºà·Ģà¶´": 5818,
      "ĠMord": 5819,
      "ĠMass": 5820,
      "help": 5821,
      "ĠSel": 5822,
      "Ġà¶´à¶½à¶¯": 5823,
      "à¶ºà¶¯à¶¸à¶ļ": 5824,
      "Ġà¶´à·ħà¶´": 5825,
      "ĠDC": 5826,
      "à¶§à·ĥà¶¯": 5827,
      "ĠURI": 5828,
      "oma": 5829,
      "à¶Ľà¶±à¶ºà¶ļ": 5830,
      "ĠIP": 5831,
      "ĠIllinois": 5832,
      "à¶īà¶¸": 5833,
      "Ġpage": 5834,
      "Ġacc": 5835,
      "ĠBran": 5836,
      "ĠNSA": 5837,
      "ĠNev": 5838,
      "Ġà¶Īà¶Ńà¶ļ": 5839,
      "Ġ68": 5840,
      "Ġmust": 5841,
      "Ġmouse": 5842,
      "ĠGeorgia": 5843,
      "ĠLouis": 5844,
      "ĠLadyship": 5845,
      "Ġyear": 5846,
      "ĠOpen": 5847,
      "Ġ98": 5848,
      "Ġstop": 5849,
      "Ġstart": 5850,
      "abeth": 5851,
      "Ġà¶Ńà¶»à¶Łà¶ºà¶§": 5852,
      "emy": 5853,
      "ĠView": 5854,
      "Ġà¶¸à·ħà¶¸": 5855,
      "Ġvar": 5856,
      "ĠAlp": 5857,
      "Ġ180": 5858,
      "ĠShift": 5859,
      "Ġà¶±à·Ģà¶ºà¶º": 5860,
      "izabeth": 5861,
      "ĠMarsh": 5862,
      "thias": 5863,
      "ĠElizabeth": 5864,
      "Ġnorth": 5865,
      "Ġà¶ļà·ĥà¶½à·ģ": 5866,
      "Ġà¶±à·Ģà¶ļà¶Ń": 5867,
      "self": 5868,
      "Ġokay": 5869,
      "ĠMatthias": 5870,
      "Devil": 5871,
      "Ġangola": 5872,
      "ĠPowerDevil": 5873,
      "ĠMartin": 5874,
      "ĠMexico": 5875,
      "\"...": 5876,
      "100": 5877,
      "27": 5878,
      "77": 5879,
      "GB": 5880,
      "Mr": 5881,
      "house": 5882,
      "ious": 5883,
      "uh": 5884,
      "yle": 5885,
      "Ġq": 5886,
      "Ġid": 5887,
      "ĠâĪĻâĪĻâĪĻâĪĻ": 5888,
      "à¶ºà¶ºà¶ļà¶§": 5889,
      "à·Ļà·ĬâĪĻ": 5890,
      "à·Ļà·ĴâĪĻ": 5891,
      "à¶¸à¶¢": 5892,
      "à¶¸à·Ħà¶±": 5893,
      "à¶»à·Ĩ": 5894,
      "à¶Ńà·Ģà¶¸": 5895,
      "à¶Ńà·Ģà¶¯": 5896,
      "Ġà¶¸à¶¯à¶»": 5897,
      "Ġà¶ļà¶¢": 5898,
      "à·ĥà¶ļà¶»à¶±à·Ģ": 5899,
      "à¶¯à¶¹": 5900,
      "à¶¯à¶»à¶ļà¶§": 5901,
      "Ġà¶Ķà¶±à¶¸": 5902,
      "Ġà¶¯à·Ħà¶¯": 5903,
      "Ġà¶´à¶³": 5904,
      "Ġà¶´à¶±à¶ľà¶±": 5905,
      "à¶´à·Ħà¶Ń": 5906,
      "Ġà·ĥà¶±à·ĥ": 5907,
      "âĢįà·Ļ": 5908,
      "à¶¶à¶ļà¶»à¶±": 5909,
      "à¶«à·Ħà¶¸": 5910,
      "Ġà¶Ĵà¶ļà¶§à¶¸": 5911,
      "à¶ĤâĪĻ": 5912,
      "Ġà¶īà¶±à¶±": 5913,
      "Ġà·Ħà¶»à·Ħà¶§": 5914,
      "à·Ĥà¶±à¶ºà¶§": 5915,
      "Ġà¶¶à¶½à·ĥà¶¸": 5916,
      "à¶°à·ĥ": 5917,
      "Ġà·ĥà¶¸à·Ģ": 5918,
      "Ġà·ĥà¶¸à¶¶à¶»": 5919,
      "Ġà¶Ķà¶¶à¶¯": 5920,
      "à¶±à¶ļà¶§à¶¸": 5921,
      "Ġ...âĢį": 5922,
      "Ġ\"..": 5923,
      "Ġà¶ĭà¶¹à¶¯": 5924,
      "Ġà¶ľà¶Ńà¶ļà¶»": 5925,
      "Ġà¶łà¶«": 5926,
      "Ġà·ĥà¶»à¶¯à¶¸": 5927,
      "Ġà¶ļà·ħà¶º": 5928,
      "Ġà¶Ĭà¶Ńà¶»": 5929,
      "à¶Ķà¶½": 5930,
      "à¶Ķà¶ºà¶º": 5931,
      "à¶Ķà¶¶à¶½": 5932,
      "Ġà¶ļà¶§à¶´": 5933,
      "à·Ĵà¶Ĥ!": 5934,
      "à·Ĵà¶Ĥ..": 5935,
      "à¶½à·Ģà¶¸": 5936,
      "à¶±à¶§à¶¯": 5937,
      "Ġà¶Ńà¶»à¶ľà¶ļ": 5938,
      "Ġà·ĥà¶½à·ĥà¶±": 5939,
      "Ġsa": 5940,
      "Ġsettings": 5941,
      "Ġkorea": 5942,
      "ĠSal": 5943,
      "---": 5944,
      "Ġà¶ĩà¶»à¶¶": 5945,
      "ĠTJ": 5946,
      "ĠIG": 5947,
      "ĠId": 5948,
      "ĠIndian": 5949,
      "à¶īà·Ģà·ĥ": 5950,
      "à¶ĭà¶ľ": 5951,
      "à¶ĭà¶´à·ĥ": 5952,
      "à¶Ńà·Ģà¶½à¶§": 5953,
      "Ġà·Ģà·ĥà¶»à¶ļ": 5954,
      "ĠNg": 5955,
      "ĠNow": 5956,
      "Ġdiff": 5957,
      "Ġthen": 5958,
      "eland": 5959,
      "ilts": 5960,
      "Ġmod": 5961,
      "adio": 5962,
      "uset": 5963,
      "ĠLet": 5964,
      "à¶½à¶°à¶»": 5965,
      "à·Ĭ:%": 5966,
      "Ġthree": 5967,
      "astian": 5968,
      "igh": 5969,
      "Ġà¶¸à·ħà·Ģ": 5970,
      "Ġvis": 5971,
      "obody": 5972,
      "Ġhelp": 5973,
      "à·´à·´": 5974,
      "estart": 5975,
      "à¶ĭà¶¹à¶§": 5976,
      "Ġà¶ļà¶½à¶¶à¶½à¶ļ": 5977,
      "owning": 5978,
      "à·ħà¶¹à·Ģà¶±": 5979,
      "Ġcharact": 5980,
      "onds": 5981,
      "achuset": 5982,
      "Ġindex": 5983,
      "Ġtextbox": 5984,
      "Ġpoland": 5985,
      "ĠDevHelp": 5986,
      "ĠPaul": 5987,
      "hemina": 5988,
      "ĠMassachuset": 5989,
      "iltskin": 5990,
      "ĠMassachusetts": 5991,
      ")?": 5992,
      "Mo": 5993,
      "OP": 5994,
      "PG": 5995,
      "RO": 5996,
      "Sh": 5997,
      "TF": 5998,
      "bers": 5999,
      "een": 6000,
      "sp": 6001,
      "syl": 6002,
      "vania": 6003,
      "zona": 6004,
      "à·Ĭà¶Ĥ": 6005,
      "à¶±à¶½à¶º": 6006,
      "à·Ģà·Ħà¶Ń": 6007,
      "à¶ºà¶©": 6008,
      "à¶ºà¶»à¶º": 6009,
      "à¶ļà·Ģà¶»": 6010,
      "à¶Ńà¶ļà¶»à¶«à¶º": 6011,
      "à¶§à¶ļà¶»à¶±": 6012,
      "Ġà¶ļà·ģ": 6013,
      "à¶ľà·Ħà¶½": 6014,
      "Ġà¶¯à¶Łà¶ļ": 6015,
      "Ġà¶´à¶¹à¶º": 6016,
      "Ġà¶Ĵà¶¸à¶§": 6017,
      "à·ĵ)": 6018,
      "à¶¶à¶±à·Ģ": 6019,
      "Ġà¶ĩà¶½à¶ļ": 6020,
      "Ġà¶ĩà¶«à¶ºà¶ļ": 6021,
      "Ġà¶ĳà¶ļà·Ģà¶ľ": 6022,
      "Ġà¶ºà·Ĥ": 6023,
      "Ġà¶Ĵà¶ļà¶ļà¶ºà¶§": 6024,
      "Ġà¶ĭà¶»à¶±": 6025,
      "à¶ºà¶±à¶±": 6026,
      "à·ģà¶ºà¶¸": 6027,
      "à¶łà¶¯": 6028,
      "Ġà¶¶à¶½à¶ľà¶±": 6029,
      "Ġà¶ļà¶½à·Ģ": 6030,
      "Ġà¶§à¶±à¶»": 6031,
      "à¶©à¶ļà¶§à¶º": 6032,
      "à¶ľà¶Ńà¶ºà¶±": 6033,
      "à¶»à¶¸à·Ģ": 6034,
      "à¶»à¶¸à¶§": 6035,
      "à¶Ńà¶ļà¶ºà¶±": 6036,
      "à·Ĭ!\"": 6037,
      "à·ĥà¶±à¶ºà¶ļ": 6038,
      "Ġà·Ģà¶½à¶½à¶±": 6039,
      "à¶Ńà¶»à¶Ń": 6040,
      "à·Ģà¶ºà¶»": 6041,
      "Ġà·ģà¶Ń": 6042,
      "à¶Ķà¶»": 6043,
      "Ġà¶Ĩà¶´à¶±à·ģ": 6044,
      "à¶±à¶Ńà¶¸": 6045,
      "ĠCo": 6046,
      "Ġà¶ļà·Ģà¶¯à¶Ń": 6047,
      "à·ĥà¶ºà¶Ń": 6048,
      "eria": 6049,
      "à·ĥà¶»à¶½": 6050,
      "à·ĥà¶»à¶ºà¶§": 6051,
      "Ġtem": 6052,
      "à¶¯à¶»à¶ºà¶ľ": 6053,
      "Ġà·Ģà¶»à·ħ": 6054,
      "Ġà¶ĭà¶¶à¶º": 6055,
      "Ġà¶ķà¶ļà¶Ń": 6056,
      "ĠSI": 6057,
      "Ġà¶ľà¶«à¶±à¶ļà¶§": 6058,
      "Ġ44": 6059,
      "ĠApp": 6060,
      "Ġfe": 6061,
      "Ġbur": 6062,
      "Ġà¶¸à¶Łà¶ļ": 6063,
      "Ġà·Ģà¶łà¶±à¶ºà¶§": 6064,
      "à¶ĭà¶´à¶ļ": 6065,
      "Ġà¶´à·Ħà¶»à¶±": 6066,
      "à·Ĥà¶«à¶ºà¶±": 6067,
      "Ġafter": 6068,
      "ĠPenn": 6069,
      "Ġà¶Īà·Ģ": 6070,
      "ĠRaven": 6071,
      "ĠGirl": 6072,
      "owa": 6073,
      "Ġà¶ºà¶§à·Ħà¶Ń": 6074,
      "ĠHar": 6075,
      "ĠHobb": 6076,
      "ĠLee": 6077,
      "ĠWhe": 6078,
      "ĠOK": 6079,
      "à¶¨à¶Ń": 6080,
      "Ġgermany": 6081,
      "ĠJames": 6082,
      "ross": 6083,
      "Ġà¶¸à·Ģà¶´": 6084,
      "ĠCanon": 6085,
      "à¶ļà¶©à·Ģ": 6086,
      "à¶§à¶ľà·Ħà¶±": 6087,
      "Ġ112": 6088,
      "Ġà¶ħà¶§à·Ģà¶½": 6089,
      "à¶»à¶®à¶¸à¶º": 6090,
      "à¶ħà¶¸à¶Ńà¶±": 6091,
      "Ġà¶ľà¶½à·Ģà¶´à¶±": 6092,
      "iana": 6093,
      "iant": 6094,
      "Ġà·Ħà¶¬à¶ļ": 6095,
      "Ġà¶īà¶©à¶ļà¶©": 6096,
      "à·Ģà·Ħà¶±à¶§": 6097,
      "Ġgoing": 6098,
      "lication": 6099,
      "options": 6100,
      "ĠScot": 6101,
      "ĠKnight": 6102,
      "Ġchanges": 6103,
      "ĠArizona": 6104,
      "ĠPalmer": 6105,
      "sylvania": 6106,
      "ĠPennsylvania": 6107,
      ".%": 6108,
      "29": 6109,
      "33": 6110,
      "55": 6111,
      "All": 6112,
      "BC": 6113,
      "ES": 6114,
      "New": 6115,
      "PA": 6116,
      "Th": 6117,
      "autogen": 6118,
      "mit": 6119,
      "pro": 6120,
      "pert": 6121,
      "ren": 6122,
      "ral": 6123,
      "Ġet": 6124,
      "Ġà¶³": 6125,
      "à·Ĭà·ı": 6126,
      "à¶±à¶»à¶«à¶º": 6127,
      "à·Ĵà·Ĵ": 6128,
      "à·Ģà·ĥà¶±": 6129,
      "à¶ºà¶·": 6130,
      "à¶»à·ħà¶§": 6131,
      "à¶Ńà¶¶": 6132,
      "à·Ķ--": 6133,
      "à·ļâĻª": 6134,
      "à¶§à¶ļà¶½": 6135,
      "à¶§à¶¶à¶»": 6136,
      "Ġà¶ļà¶©à¶º": 6137,
      "Ġà·Ħà¶Ł": 6138,
      "Ġà·Ħà¶³à¶§": 6139,
      "Ġà¶´à¶½à¶±": 6140,
      "à¶´à¶ļà¶»à¶±": 6141,
      "à¶´à¶®à¶º": 6142,
      "Ġà¶Ķà¶ºà·Ģà¶ľ": 6143,
      "Ġà¶ļà¶»à·Ģà¶º": 6144,
      "Ġà¶ļà¶»à¶ļà·Ģà¶½": 6145,
      "Ġà¶¶à¶ł": 6146,
      "Ġà¶īà·Ģà¶ļ": 6147,
      "Ġà¶īà¶»à¶ļ": 6148,
      "à¶¶à·Ħà¶º": 6149,
      "Ġà¶ĩà·Ħà¶±": 6150,
      "Ġà¶ĩà·ĥà¶§": 6151,
      "à¶«à¶´": 6152,
      "Ġà¶ĭà·Ģà¶¯": 6153,
      "Ġà¶ĭà·ĥà¶¸": 6154,
      "à·Ģà¶±à·ĥ": 6155,
      "à·ģà¶ºà¶ļà¶§": 6156,
      "à·ģà¶Ńà¶ºà¶ļ": 6157,
      "Ġà¶ķà¶±à¶Ńà¶»à¶¸": 6158,
      "à¶łà¶§": 6159,
      "à·Ĥà¶¯": 6160,
      "à·Ĥà¶Ńà¶¸": 6161,
      "Ġà¶¢à¶¢": 6162,
      "Ġà¶¢à¶ľà¶Ń": 6163,
      "Ġà¶¶à¶½à¶ºà¶Ń": 6164,
      "Ġà¶Ķà·Ħà¶½": 6165,
      "à·Ģà¶ļà¶§à·Ģà¶Ń": 6166,
      "à¶¢à¶ºà¶ľ": 6167,
      "Ġà¶ħà¶±à¶´": 6168,
      "à·Ģà¶½à¶ļà¶¸": 6169,
      "Ġà¶ħà¶Ńà¶ľ": 6170,
      "à·Ģà¶§à·Ģà¶Ń": 6171,
      "Ġà·Ģà¶½à·Ģà¶½": 6172,
      "à¶ļà¶ºà¶º": 6173,
      "à¶Ńà¶ºà¶¯": 6174,
      "Ġà¶ľà¶Ńà·Ħ": 6175,
      "Ġà¶łà¶§": 6176,
      "à·Ļ?\"": 6177,
      "à·ı?\"": 6178,
      "à¶»à¶¯à¶±": 6179,
      "à¶ħà¶»à¶ľ": 6180,
      "à·ĺ!": 6181,
      "à¶´à¶±à¶ºà¶±": 6182,
      "Ġà¶īà¶ļà¶¸à¶±à¶§": 6183,
      "à·Ħà¶§à¶¸à¶º": 6184,
      "Ġà¶ĭà¶´à¶ºà¶±": 6185,
      "orge": 6186,
      "Ġà¶Įà¶»à¶ļ": 6187,
      "à·Ģà¶¯à·ĥ": 6188,
      "Ġà·Ģà¶§à¶½à¶±": 6189,
      "ĠMs": 6190,
      "ĠMinn": 6191,
      "Ġcode": 6192,
      "esota": 6193,
      "ĠSook": 6194,
      "ene": 6195,
      "à¶±à¶ľà¶»": 6196,
      "à·ĥà·Ħà¶ļà¶»à¶±": 6197,
      "ĠAm": 6198,
      "Ġà¶ĩà¶³à¶ļ": 6199,
      "Ġà¶ĩà¶»à¶½à¶±": 6200,
      "lear": 6201,
      "ĠIowa": 6202,
      "ream": 6203,
      "ĠPA": 6204,
      "ĠRay": 6205,
      "ĠRedd": 6206,
      "Ġlangu": 6207,
      "ille": 6208,
      "ĠGod": 6209,
      "ĠLA": 6210,
      "ĠLena": 6211,
      "ĠWisc": 6212,
      "ĠEvernow": 6213,
      "Ġ95": 6214,
      "à¶»à¶ļà¶®à¶±à¶ºà¶§": 6215,
      "Ġà¶¯à·Ħà¶Ń": 6216,
      "rib": 6217,
      "Ġà¶Ńà¶»à¶Łà¶ļà¶»": 6218,
      "à·Ģà¶§à¶¸à¶¯": 6219,
      "à¶±à·Ħà·ħ": 6220,
      "Ġ2004": 6221,
      "idd": 6222,
      "Ġà¶µà¶½à¶ļ": 6223,
      "Ġà¶Ĩà·ĥà¶±à¶ºà¶ļ": 6224,
      "imp": 6225,
      "Ġ160": 6226,
      "ffect": 6227,
      "Ġà¶±à¶§à¶¹": 6228,
      "ĠYour": 6229,
      "à¶ĭà¶¹à¶½": 6230,
      "Ġcanada": 6231,
      "Ġplain": 6232,
      "ahir": 6233,
      "Ġ..........": 6234,
      "RLF": 6235,
      "Ġuse": 6236,
      "ĠOhio": 6237,
      "Ġà¶īà¶ľà¶±à¶ľà¶±": 6238,
      "Ġexample": 6239,
      "ĠColor": 6240,
      "Ġ1977": 6241,
      "onsin": 6242,
      "----------------": 6243,
      "Ġà¶´à¶®à¶ºà¶§": 6244,
      "Ġmoon": 6245,
      "ĠWilhemina": 6246,
      "ambay": 6247,
      "Conner": 6248,
      "Ġà¶ĭà·Ģà¶¸à¶«": 6249,
      "ĠLevel": 6250,
      "ĠUADescription": 6251,
      "ĠYeong": 6252,
      "Ġburma": 6253,
      "ĠMinnesota": 6254,
      "ĠWisconsin": 6255,
      "\"à·´": 6256,
      "89": 6257,
      "TA": 6258,
      "fl": 6259,
      "gi": 6260,
      "map": 6261,
      "net": 6262,
      "ris": 6263,
      "win": 6264,
      "yn": 6265,
      "à¶±à¶Ľà¶º": 6266,
      "à·Ģà¶ľà¶Ń": 6267,
      "à·Ģà¶¸à¶§": 6268,
      "à¶ļà¶»à¶ļ": 6269,
      "à¶ļà¶ºà¶§à¶¸": 6270,
      "à¶ļà·Ģà¶»à¶«à¶º": 6271,
      "à¶¸à¶½à¶ļ": 6272,
      "à¶»à¶´à¶½": 6273,
      "à¶½à¶±à¶¸": 6274,
      "à¶½à¶¯à¶ļ": 6275,
      "à¶¯à·Ģà·ĥ": 6276,
      "Ġà¶ĳà¶½à¶º": 6277,
      "Ġà¶±à·Ģà¶±": 6278,
      "Ġà¶¯à¶Ńà¶ļ": 6279,
      "à¶´à·ħà¶§": 6280,
      "Ġà¶ľà¶¯à¶º": 6281,
      "Ġà¶ľà·ĥà¶º": 6282,
      "Ġà¶¶à¶ºà¶±": 6283,
      "Ġà¶¶à·ħ": 6284,
      "Ġà¶¶à¶¶à¶½": 6285,
      "à¶¶à¶ºà¶±": 6286,
      "Ġà¶ħà¶´à·ĥ": 6287,
      "à¶ºà¶ļà¶ºà¶ľ": 6288,
      "Ġà¶ĭà¶»à¶ľ": 6289,
      "à·ħà·Ģà¶±": 6290,
      "à¶łà¶ļà¶ºà¶ļ": 6291,
      "à¶Ńà¶±à¶±": 6292,
      "à¶»à¶ºà¶¸": 6293,
      "à¶°à¶¸à¶º": 6294,
      "à¶°à¶ļà¶¸à¶ļ": 6295,
      "Ġà¶¯à¶±à¶±": 6296,
      "à¶»à¶ļà¶¸à¶§": 6297,
      "Ġà¶ļà¶½à¶¸à¶±": 6298,
      "à¶¢à¶ºà¶±": 6299,
      "à¶±à¶ºà¶¯": 6300,
      "Ġà¶Ķà¶¶à¶±à·Ģ": 6301,
      "Ġà¶§à·Ģà¶»": 6302,
      "à¶±à¶ļà¶¸à¶ļ": 6303,
      "à·ļ,?": 6304,
      "Ġà¶ħà·Ħà¶¯": 6305,
      "Ġà¶ħà·Ħà¶±à·Ģà¶±": 6306,
      "Ġà¶łà¶´": 6307,
      "Ġà·ĥà¶»à·ħà¶º": 6308,
      "Ġà¶Ĵà·Ģà¶ľà¶¸": 6309,
      "à¶·à¶«": 6310,
      "à¶ĳà¶ļà¶º": 6311,
      "Ġà¶ĳà¶Ńà¶ļà¶¸": 6312,
      "Ġà¶Įà¶º": 6313,
      "Ġà¶Įà¶»à¶±": 6314,
      "Ġà¶īà¶³à¶´": 6315,
      "aron": 6316,
      "ates": 6317,
      "Ġà¶ĭà¶©à¶ľ": 6318,
      "Ġà¶±à¶»à¶ļà¶¸à¶Ń": 6319,
      "Ġà¶½à¶¶à¶º": 6320,
      "ĠMP": 6321,
      "Ġcould": 6322,
      "Ġà¶ĩà¶¯à·Ģ": 6323,
      "Ġà¶ĩà¶¯à¶´": 6324,
      "ĠSV": 6325,
      "ĠSMS": 6326,
      "Ġà¶ĩà¶½à¶¢": 6327,
      "à·Ĳà¶Ĥ.": 6328,
      "Ġ57": 6329,
      "ĠAh": 6330,
      "ĠAt": 6331,
      "ĠAir": 6332,
      "à·Ĥà¶ļà¶ľ": 6333,
      "Ġà¶¸à¶½à·ĥ": 6334,
      "à·Ħà¶ļà¶ºà¶ļ": 6335,
      "Ġpress": 6336,
      "Ġà·Ģà·ĥà¶»à¶ļà¶¸": 6337,
      "à¶¯à¶½à¶¯": 6338,
      "nth": 6339,
      "ĠPol": 6340,
      "à¶Ĩà¶±": 6341,
      "ows": 6342,
      "Ġtoo": 6343,
      "ĠER": 6344,
      "ander": 6345,
      "Ġà¶Ńà¶¯à¶¶à¶½": 6346,
      "ĠJava": 6347,
      "Ġà¶¯à·Ħà¶©": 6348,
      "Ġà¶¯à·Ħà¶ºà¶§": 6349,
      "à¶Ŀà¶º": 6350,
      "Ġ2006": 6351,
      "Ġ05": 6352,
      "à¶±à¶ºà¶±à¶º": 6353,
      "Ġtranslation": 6354,
      "rite": 6355,
      "apan": 6356,
      "Ġwhy": 6357,
      "gins": 6358,
      "azakh": 6359,
      "Ġ.........": 6360,
      "Ġwater": 6361,
      "anny": 6362,
      "appy": 6363,
      "etscape": 6364,
      "ĠGlobody": 6365,
      "ĠSSC": 6366,
      "ĠHere": 6367,
      "ĠBlackwell": 6368,
      "à¶½à·Ħà¶ļà¶§à¶Ń": 6369,
      "ĠWheeler": 6370,
      "ĠColorado": 6371,
      "azakhstan": 6372,
      "ĠGlobodyne": 6373,
      "05": 6374,
      "44": 6375,
      "65": 6376,
      "Al": 6377,
      "DC": 6378,
      "Ebers": 6379,
      "FO": 6380,
      "IT": 6381,
      "Restart": 6382,
      "Sc": 6383,
      "Wing": 6384,
      "be": 6385,
      "bye": 6386,
      "emen": 6387,
      "lah": 6388,
      "lant": 6389,
      "ual": 6390,
      "uff": 6391,
      "vel": 6392,
      "zoom": 6393,
      "à¶±à¶Ńà¶ļà¶§": 6394,
      "à·ĴâĪĻâĪĻâĪĻâĪĻ": 6395,
      "à·ı]": 6396,
      "à¶ļà¶³": 6397,
      "à¶ļà¶¸à¶±": 6398,
      "à·Ļ\"": 6399,
      "à·Ļà·Ĳ": 6400,
      "à·Ļà·Ĭ!": 6401,
      "à¶¸à¶°": 6402,
      "à¶¸à¶«à¶º": 6403,
      "Ġà¶¸à·Ģà¶±": 6404,
      "Ġà¶¸à·Ħà¶»": 6405,
      "à·Ħà¶Ńà¶»": 6406,
      "à¶½à¶»à¶±": 6407,
      "à¶¯à¶¸à¶§": 6408,
      "à¶¯à¶ľà¶¸": 6409,
      "Ġà·Ģà·ĥà¶¸": 6410,
      "à¶ľà·Ģà¶½": 6411,
      "à¶ľà·ĥà¶¸": 6412,
      "Ġà¶±à¶½à¶º": 6413,
      "Ġà¶¯à¶ļà¶ļ": 6414,
      "Ġà¶¯à¶ľà¶½": 6415,
      "Ġà¶´à¶®à¶ºà¶ļ": 6416,
      "Ġà¶Ńà¶½à¶ºà¶ļ": 6417,
      "Ġà·ĥà¶ľà·Ģ": 6418,
      "à·Ŀ:": 6419,
      "à¶¶à¶ľà¶¸à¶±": 6420,
      "à·ĳâĪĻâĪĻ": 6421,
      "Ġà¶ĳà¶ļà¶½": 6422,
      "à¶«à¶»": 6423,
      "Ġà¶Ĵà¶ļà·Ģà¶Ń": 6424,
      "Ġà¶Ĵà¶ļà¶Ńà¶¸": 6425,
      "à¶ºà¶±à¶ĳà¶ļ": 6426,
      "Ġà¶¢à¶»à¶¸": 6427,
      "Ġà¶¶à¶½à·Ħ": 6428,
      "à¶°à·Ģà¶º": 6429,
      "Ġà·ĥà¶¸à¶ļ": 6430,
      "à¶¢à·Ģ": 6431,
      "à¶¢à¶´": 6432,
      "Ġà¶§à¶ļà¶»": 6433,
      "à¶©à¶ļà·ħ": 6434,
      "Ġà¶´à¶»à¶½": 6435,
      "Ġà¶´à¶»à·ĥ": 6436,
      "Ġà¶©à¶½": 6437,
      "à·Ģà¶»à·Ģ": 6438,
      "Ġà¶ĭà¶¹à¶§à¶Ń": 6439,
      "Ġà·ĥà¶»à¶«": 6440,
      "ĠComment": 6441,
      "ĠCarl": 6442,
      "à·ĥà¶ºà¶ľ": 6443,
      "à¶ĳà¶¯": 6444,
      "âĪĻâĪĻâĪĻ?": 6445,
      "orry": 6446,
      "Ġsur": 6447,
      "Ġà¶¸à¶Ńà¶ºà¶ļ": 6448,
      "Ġkazakhstan": 6449,
      "ĠMad": 6450,
      "à¶»à·ĥà¶¸": 6451,
      "ĠSC": 6452,
      "ĠSenpai": 6453,
      "ĠSyl": 6454,
      "à¶»à¶§à¶½": 6455,
      "enstein": 6456,
      "Ġà¶´à¶½à¶´": 6457,
      "à¶ĩà¶³": 6458,
      "à¶ĩà¶§à¶º": 6459,
      "à¶¥à·Ģà¶»à¶º": 6460,
      "Ġà¶ļà¶¸à¶½": 6461,
      "ĠAPI": 6462,
      "à¶»à·Ħà¶ļ": 6463,
      "Ġà·Ģà·Ħà¶½à¶ļ": 6464,
      "ley": 6465,
      "icar": 6466,
      "Ġfull": 6467,
      "ĠTenn": 6468,
      "Ġpar": 6469,
      "Ġpix": 6470,
      "ĠKl": 6471,
      "ĠPy": 6472,
      "ĠPer": 6473,
      "Ġlast": 6474,
      "ĠGye": 6475,
      "à·Ĭ\"!": 6476,
      "Ġhome": 6477,
      "ĠWal": 6478,
      "ĠWhen": 6479,
      "ĠOx": 6480,
      "Ġgirl": 6481,
      "ĠJenn": 6482,
      "Ġ125": 6483,
      "Ġthink": 6484,
      "Ġ195": 6485,
      "Ġà¶ĳà¶ļà¶Łà¶¯": 6486,
      "aine": 6487,
      "Ġ2002": 6488,
      "ĠChrist": 6489,
      "essee": 6490,
      "Ġ110": 6491,
      "Ġà¶ĭà¶¸à¶Ł": 6492,
      "ebr": 6493,
      "aho": 6494,
      "azar": 6495,
      "olden": 6496,
      "à·Ħà¶»à¶«à¶ºà¶ļà¶§": 6497,
      "Ġà·ĥà¶¸à¶±à¶½à¶º": 6498,
      "Ġ1996": 6499,
      "ĠConnect": 6500,
      "ĠOklah": 6501,
      "Ġroom": 6502,
      "Ġà¶´à¶§à¶½à·Ģà¶±": 6503,
      "Ġatt": 6504,
      "ĠWillia": 6505,
      "à¶»à¶¸à¶«à·ģ": 6506,
      "ĠLeito": 6507,
      "Ġmoment": 6508,
      "Ġà¶ĵà¶Ń": 6509,
      "ĠMcAll": 6510,
      "ĠIslands": 6511,
      "Ġcredit": 6512,
      "Ġagain": 6513,
      "ĠNova": 6514,
      "-#-#": 6515,
      "âĹ¢âĹ£âĹ¢âĹ£": 6516,
      "ĠMaryland": 6517,
      "ĠAlpha": 6518,
      "ĠSalas": 6519,
      "ĠGirlhouse": 6520,
      "ĠScotia": 6521,
      "ĠReddington": 6522,
      "Ebersole": 6523,
      "ĠSylvia": 6524,
      "ĠTennessee": 6525,
      "ĠGyeong": 6526,
      "ĠOklahoma": 6527,
      "ĠMcAllister": 6528,
      "%.": 6529,
      "'d": 6530,
      ".,": 6531,
      "67": 6532,
      "CE": 6533,
      "LS": 6534,
      "NI": 6535,
      "file": 6536,
      "gl": 6537,
      "hav": 6538,
      "hman": 6539,
      "ien": 6540,
      "ius": 6541,
      "list": 6542,
      "mm": 6543,
      "ps": 6544,
      "ron": 6545,
      "ves": 6546,
      "yp": 6547,
      "ynth": 6548,
      "Ġeyes": 6549,
      "à·Ģà¶¶": 6550,
      "à¶¯à·ħ": 6551,
      "à¶¯à·Ħà¶§": 6552,
      "à·Ĳ--": 6553,
      "Ġà·Ģà·Ģà¶±": 6554,
      "Ġà¶±à·Ħà¶ºà¶ļ": 6555,
      "à¶´à¶«à¶ºà¶ļ": 6556,
      "Ġà¶ľà·ĥà¶±": 6557,
      "Ġà¶ľà·Ģà¶º": 6558,
      "à¶©à¶ľà¶¸": 6559,
      "à¶©à·ĥà·Ģ": 6560,
      "Ġà¶īà¶«": 6561,
      "Ġà¶īà¶»à¶±": 6562,
      "à¶¶à¶»à¶ļ": 6563,
      "Ġà¶ĳà¶ļà¶ľà¶¯": 6564,
      "Ġà¶ºà·Ħà¶½": 6565,
      "Ġà¶ĭà·Ģ": 6566,
      "à·ħà¶¶": 6567,
      "à·ħà¶¯à¶ľ": 6568,
      "à·Ģà¶±à¶ļà¶¸": 6569,
      "à·ģà¶ļà¶½": 6570,
      "Ġà¶»à¶¶à¶»": 6571,
      "Ġà¶»à¶«à¶ļ": 6572,
      "Ġà·Ħà¶»à·Ģà¶ľ": 6573,
      "à¶ľà¶±à¶ºà¶ļ": 6574,
      "à¶ºà¶§à¶»": 6575,
      "Ġà¶ĩà¶Ńà¶§": 6576,
      "à·Ĥà¶±à¶»": 6577,
      "à·Ģà¶ļà¶±": 6578,
      "Ġà¶ļà¶½à¶´": 6579,
      "Ġà¶ļà¶½à·Ħà¶ļ": 6580,
      "à¶©à¶ļà¶ºà¶±": 6581,
      "à¶¯à¶»à¶§à¶Ń": 6582,
      "à¶Ńà¶ļà¶»à¶º": 6583,
      "Ġà·ĥà·Ħà¶¸": 6584,
      "Ġà¶©à·Ħà¶»": 6585,
      "Ġà¶ħà¶½à·Ģ": 6586,
      "à¶§à¶±à¶ºà¶§": 6587,
      "à¶·à¶ºà¶§": 6588,
      "Ġà¶ļà·ħà¶ļ": 6589,
      "à¶ħà·Ħà·ĥ": 6590,
      "Ġà¶ļà·Ģà¶¯à·Ģà¶Ń": 6591,
      "Ġà¶·à¶ºà¶º": 6592,
      "Ġ(*": 6593,
      "Ġà¶Ńà¶»à¶Łà¶ļ": 6594,
      "Ġà¶ħà¶©à¶¸": 6595,
      "Ġtell": 6596,
      "à·ļ...\"": 6597,
      "à¶¯à¶±à¶ºà¶§": 6598,
      "Ġà·Ģà¶»à¶½à¶§": 6599,
      "Ġà·Ģà¶»à·ħà¶§": 6600,
      "Ġà¶ħà¶»à¶ľà¶½": 6601,
      "oul": 6602,
      "Ġco": 6603,
      "Ġcustom": 6604,
      "ĠSU": 6605,
      "ĠSW": 6606,
      "ĠSEA": 6607,
      "à¶ĩà¶§": 6608,
      "Ġ51": 6609,
      "Ġ4000": 6610,
      "ĠAf": 6611,
      "let": 6612,
      "icut": 6613,
      "ĠTime": 6614,
      "Ġbec": 6615,
      "à¶±à¶ľà¶Ńà¶º": 6616,
      "refer": 6617,
      "Ġà¶´à·Ħà¶»à·Ģà¶½": 6618,
      "Ġà¶´à¶§à·Ģà¶±à·Ģ": 6619,
      "ĠBus": 6620,
      "Ġ108": 6621,
      "ĠNebr": 6622,
      "Ġdr": 6623,
      "ilbo": 6624,
      "Ġms": 6625,
      "Ġà¶ħà¶ľà·Ģà¶±à·Ģ": 6626,
      "ĠHam": 6627,
      "Ġ2015": 6628,
      "Ġ96": 6629,
      "ĠJake": 6630,
      "Ġà·ĥà¶¸à¶Łà¶¸": 6631,
      "Ġà¶Ńà¶½à¶±à·Ģ": 6632,
      "agua": 6633,
      "akota": 6634,
      "istan": 6635,
      "à¶¡à¶±à¶º": 6636,
      "Ġ04": 6637,
      "Ġà¶¶à¶»à¶´à¶Ńà¶½à·Ģ": 6638,
      "Ġà¶ħà·ĥà¶»à¶±": 6639,
      "ĠJoe": 6640,
      "Ġà¶īà·Ħà·ħà¶¸": 6641,
      "Ġà¶Ńà¶»à¶ľà¶ļà¶»": 6642,
      "Ġ50000": 6643,
      "Ġà¶ħà¶»à¶ºà¶Ń": 6644,
      "Ġprocess": 6645,
      "izz": 6646,
      "Ġlet": 6647,
      "ĠWhy": 6648,
      "à·ĥà¶¶à¶Ń": 6649,
      "ched": 6650,
      "ways": 6651,
      "Ġblack": 6652,
      "à·Ĭ]:": 6653,
      "ĠâĿĦ": 6654,
      "ause": 6655,
      "Ġiceland": 6656,
      "ency": 6657,
      "Ġhtml": 6658,
      "Editor": 6659,
      "ĠLouisiana": 6660,
      "Ġvariant": 6661,
      "ĠIdaho": 6662,
      "Ġlanguage": 6663,
      "ĠConnecticut": 6664,
      "ĠNebraska": 6665,
      "'?": 6666,
      "23": 6667,
      "70": 6668,
      "NT": 6669,
      "buk": 6670,
      "du": 6671,
      "hh": 6672,
      "iB": 6673,
      "ique": 6674,
      "ken": 6675,
      "name": 6676,
      "rg": 6677,
      "so": 6678,
      "unt": 6679,
      "work": 6680,
      "yon": 6681,
      "Ġà·Ĵ": 6682,
      "Ŀĸ": 6683,
      "Ġà¶Ł": 6684,
      "à·Ģà¶»à¶ļà¶º": 6685,
      "à¶ºà¶ºà¶¸": 6686,
      "à¶¸à¶¶": 6687,
      "à¶¸à¶³": 6688,
      "à¶¸à¶ļà¶»": 6689,
      "à¶¸à¶½à¶§": 6690,
      "à¶»à¶¹": 6691,
      "à·Ħà¶±à¶ļà¶§": 6692,
      "à¶½à·ĥà¶±": 6693,
      "à¶½à·ĥà¶§": 6694,
      "à¶½à·Ħà¶ļ": 6695,
      "Ġà¶ļà¶ľ": 6696,
      "Ġà¶ļà¶¸à¶Ń": 6697,
      "à·ĥà¶§à¶±": 6698,
      "à·ĥà¶ļà¶½": 6699,
      "à·ĥà¶ľà¶¸": 6700,
      "à¶¯à¶½à¶º": 6701,
      "à¶¯à·Ģà·ĥà¶ļ": 6702,
      "Ġà·Ħà¶ºà¶¯": 6703,
      "Ġà¶¯à¶¯": 6704,
      "Ġà¶¯à¶ľ": 6705,
      "Ġà¶´à¶Ńà¶»": 6706,
      "Ġà¶Ķà¶ºà·Ģ": 6707,
      "Ġà¶Ńà¶±à¶ļ": 6708,
      "Ġà¶Ńà¶¯à·Ģ": 6709,
      "Ġà¶ľà·ĥà¶ļ": 6710,
      "à¶¶à¶½à¶ºà¶ļ": 6711,
      "Ġà¶ĩà¶±à¶ºà¶ļ": 6712,
      "à·ĳà·Ļ": 6713,
      "Ġà¶ĭà¶º": 6714,
      "à·ħà¶ºà¶ļà¶§": 6715,
      "Ġà¶Ĩà¶ľà¶¸à¶±": 6716,
      "à·Ĭ,\"": 6717,
      "à·ģà¶ºà¶º": 6718,
      "Ġà¶ķà¶´": 6719,
      "Ġà¶»à¶Ŀ": 6720,
      "à¶³à·Ģà¶±à·Ģ": 6721,
      "à·Ĥà¶ļà¶§": 6722,
      "à·Ĵ,.": 6723,
      "à¶°à¶¯": 6724,
      "Ġà¶±à¶¸à·ĥ": 6725,
      "à¶±à¶ļà·Ģà¶Ń": 6726,
      "à¶©à¶ļà¶¸à¶ļ": 6727,
      "Ġà¶ħà¶Ńà¶§à¶¸": 6728,
      "à¶Łà¶º": 6729,
      "à¶½à¶ļà¶ľ": 6730,
      "Ġà·ĥà·Ħà·ĥ": 6731,
      "à¶®à¶¯": 6732,
      "à¶ºà¶¸à·Ģ": 6733,
      "ins": 6734,
      "inep": 6735,
      "à¶ħà¶¢": 6736,
      "à¶ħà·ĥà¶¸": 6737,
      "Ġà¶īà¶¯à¶½à¶Ń": 6738,
      "ĠCBI": 6739,
      "à·ĺ,": 6740,
      "à·ĺ.": 6741,
      "à¶½à·Ģà¶½à¶§": 6742,
      "à¶¸à¶»à¶ºà¶ļà¶§": 6743,
      "Ġà¶ĳà¶±à·Ģà¶ļ": 6744,
      "Ġà¶´à·Ħà¶½à¶¯": 6745,
      "Ġterm": 6746,
      "à¶Ĵà¶ľ": 6747,
      "âĻ«": 6748,
      "Ġà·Ģà¶»à¶§": 6749,
      "Ġsouth": 6750,
      "Ġà¶ħà·ĥà¶¸à·ĥ": 6751,
      "Ġkill": 6752,
      "ĠMaine": 6753,
      "Ġà·Ģà¶ºà¶¹": 6754,
      "Ġà¶ļà¶©à·Ģà¶½": 6755,
      "ĠAaron": 6756,
      "Ġà¶´à¶¯à¶ºà¶ļ": 6757,
      "à¶¯à·Ģà¶ľà¶±": 6758,
      "ĠDani": 6759,
      "ĠDSP": 6760,
      "ĠDakota": 6761,
      "Ġbir": 6762,
      "ĠIBM": 6763,
      "à¶ĭà¶´": 6764,
      "Ġposs": 6765,
      "Ġportugal": 6766,
      "ĠFar": 6767,
      "ĠFTP": 6768,
      "ĠBag": 6769,
      "ĠBilbo": 6770,
      "ĠKay": 6771,
      "ĠNetscape": 6772,
      "Ġdial": 6773,
      "Ġà¶Īà¶³": 6774,
      "Ġlt": 6775,
      "olution": 6776,
      "ila": 6777,
      "Ġmuch": 6778,
      "ĠGet": 6779,
      "à·Ģà¶½à¶§à¶Ń": 6780,
      "ĠHend": 6781,
      "Ġà¶´à¶»à¶«à¶¸": 6782,
      "Ġyemen": 6783,
      "ĠEL": 6784,
      "Ġ74": 6785,
      "Ġ700": 6786,
      "Ġgeorgia": 6787,
      "Ġ2011": 6788,
      "Ġà¶īà·Ħà¶½à¶º": 6789,
      "abber": 6790,
      "Ġà¶¸à¶»à¶«à¶ºà¶Ń": 6791,
      "rim": 6792,
      "à¶Ńà¶ºà¶§à¶Ń": 6793,
      "Ġà¶ħà¶Łà¶½à¶ļ": 6794,
      "style": 6795,
      "tonia": 6796,
      "à¶ļà¶¸à¶§à·Ģà¶Ń": 6797,
      "Ġshow": 6798,
      "Ġà¶±à¶Łà¶»": 6799,
      "Ġmoney": 6800,
      "ĠZeal": 6801,
      "Ġà¶ĭà¶¸à¶ľà¶§": 6802,
      "abled": 6803,
      "ĠBrowning": 6804,
      "udi": 6805,
      "âĹĦ": 6806,
      "yler": 6807,
      "ĠQt": 6808,
      "Ġapplication": 6809,
      "Ġà¶¯à¶©à¶ºà¶¸à¶ļ": 6810,
      "ĠThanks": 6811,
      "alking": 6812,
      "ĠCLU": 6813,
      "ĠHTML": 6814,
      "ĠNeil": 6815,
      "Ġunderstand": 6816,
      "Ġestonia": 6817,
      "garan": 6818,
      "à·Ģà¶¶à¶½à¶°": 6819,
      "ĠBranson": 6820,
      "Ġcharacter": 6821,
      "icaragua": 6822,
      "havior": 6823,
      "inephr": 6824,
      "Ġà¶ħà·ĥà¶¸à·ĥà¶¸à¶º": 6825,
      "ĠDaniel": 6826,
      "ĠZealand": 6827,
      "EO": 6828,
      "Gr": 6829,
      "SU": 6830,
      "dictionary": 6831,
      "ky": 6832,
      "korea": 6833,
      "sa": 6834,
      "sor": 6835,
      "ty": 6836,
      "tah": 6837,
      "à·Ĵ@": 6838,
      "à·Ģà¶«à¶§": 6839,
      "à¶ºà¶¹": 6840,
      "à¶½à·Ħà¶§": 6841,
      "à¶§à·Ģà¶»": 6842,
      "à·ĥà¶¯à¶½": 6843,
      "à·ĥweather": 6844,
      "Ġà·Ģà¶³à·Ģ": 6845,
      "à¶ľà¶¸à¶ļà¶§": 6846,
      "Ġà¶±à¶½à¶ºà¶ļ": 6847,
      "Ġà¶±à·Ģà¶ļà¶º": 6848,
      "Ġà·Ħà·Ĥ": 6849,
      "à¶´à¶»à·Ģ": 6850,
      "Ġà¶ºà·Ģà¶±à·Ģà¶¯": 6851,
      "à¶ºà¶ļà¶»à¶±": 6852,
      "Ġà¶ļà¶»à¶±à¶ļà¶½": 6853,
      "à·ħà¶ľà¶§": 6854,
      "à¶Ĥ\"": 6855,
      "à·Ģà¶±à¶Ń": 6856,
      "Ġà¶ķà¶±à¶ļà¶¸": 6857,
      "Ġà¶»à·Ħà¶º": 6858,
      "à¶»à¶ºà¶»": 6859,
      "Ġà¶¢à¶±à¶ļà¶º": 6860,
      "à¶»à¶ļà¶¯": 6861,
      "Ġà·ĥà¶¸à¶ł": 6862,
      "à¶¢à¶Ń": 6863,
      "Ġà¶ħà·Ģà¶½à·ĥ": 6864,
      "Ġà¶ĩà¶ºà¶¸": 6865,
      "Ġà¶ļà·Ģà¶»à¶ºà¶ļ": 6866,
      "à¶ļà¶¯à·Ģ": 6867,
      "Ġà¶ħà¶Ńà¶´à¶º": 6868,
      "Ġà¶ħà¶ºà·Ħ": 6869,
      "à·Ģà¶§à¶¸à¶º": 6870,
      "Ġ\"?": 6871,
      "Ġà¶´à¶»à¶Ńà¶»à¶ºà¶ļ": 6872,
      "à¶ºà¶¸à¶ºà¶ļ": 6873,
      "Ġà·ģà¶¸": 6874,
      "à¶·à·ĥ": 6875,
      "Ġà¶Ĭà¶ľà¶½": 6876,
      "à¶´à¶Ńà¶±à·Ģ": 6877,
      "Ġà¶Ĩà¶´à¶±": 6878,
      "Ġà¶ļà¶§à·Ħ": 6879,
      "à¶½à·Ģà¶´": 6880,
      "à¶½à·Ģà¶ºà¶ļ": 6881,
      "à¶ĳà·Ģ": 6882,
      "à¶ĳà¶©": 6883,
      "à¶»à·Ģà¶¯": 6884,
      "Ġà¶´à¶Ńà¶½à¶ļ": 6885,
      "à·Ģà¶¯à¶ļ": 6886,
      "Ġsl": 6887,
      "Ġà¶ĭà¶©à·Ħà¶§": 6888,
      "Ġà¶ħà¶»à¶ľà¶¸": 6889,
      "ĠMB": 6890,
      "ĠMia": 6891,
      "ĠMove": 6892,
      "head": 6893,
      "ĠSeth": 6894,
      "à·ĥà¶¸à¶ºà¶§": 6895,
      "Ġà¶īà¶©à¶¸à¶ļ": 6896,
      "Ġwhere": 6897,
      "Ġweb": 6898,
      "à·Ģà¶±à·Ģà¶§": 6899,
      "Ġà¶»à·ĥà¶ºà¶ļ": 6900,
      "à¶ĩà¶´à¶ļà¶»": 6901,
      "Ġà¶´à¶±à·Ħà¶º": 6902,
      "à¶¥à·Ģà¶»": 6903,
      "alth": 6904,
      "Ġà¶ľà·Ħà¶±à¶ļ": 6905,
      "à·Ĥà¶ļà¶ºà¶§": 6906,
      "Ġà·Ģà·Ħà·ħ": 6907,
      "ĠDam": 6908,
      "ĠDick": 6909,
      "ĠUtah": 6910,
      "Ġfil": 6911,
      "Ġfind": 6912,
      "Ġbet": 6913,
      "Ġà¶¸à¶Łà¶´": 6914,
      "Ġà·ĥà¶³à·Ħà¶±à¶ļ": 6915,
      "ĠIS": 6916,
      "à¶ĭà¶½": 6917,
      "à¶ĭà·ĥà·ĥ": 6918,
      "read": 6919,
      "Ġpop": 6920,
      "ĠBi": 6921,
      "ĠBer": 6922,
      "ĠPCI": 6923,
      "ĠNO": 6924,
      "ĠRA": 6925,
      "ĠRs": 6926,
      "Ġla": 6927,
      "Ġ62": 6928,
      "à¶Ĩà¶ļ": 6929,
      "à¶Ĩà·ĥ": 6930,
      "Ġnicaragua": 6931,
      "ily": 6932,
      "Ġmat": 6933,
      "ĠLib": 6934,
      "ĠEI": 6935,
      "ĠEMP": 6936,
      "Ġ78": 6937,
      "Ġgot": 6938,
      "Ġ89": 6939,
      "Ġà¶īà·Ħà¶Ńà¶¯": 6940,
      "Ġà¶īà·Ħà¶½à¶§à¶¸": 6941,
      "Ġ1500": 6942,
      "Ġà·Ħà¶Ńà¶»à¶§": 6943,
      "à¶Ŀà¶«à¶ļà¶º": 6944,
      "umb": 6945,
      "ents": 6946,
      "entucky": 6947,
      "à¶¡à¶±à¶ºà¶ļ": 6948,
      "Ġà¶±à¶¸à¶ºà¶º": 6949,
      "Ġ09": 6950,
      "Ġready": 6951,
      "à·Ĵ).": 6952,
      "Ġà¶ħà¶Ńà¶»à¶¸à¶ľà¶¯": 6953,
      "Ġhey": 6954,
      "Ġà·Ģà¶łà¶±à¶ºà¶º": 6955,
      "Ġlevel": 6956,
      "Ġsomething": 6957,
      "Ġà¶ĭà¶ļà·Ħ": 6958,
      "ĠBrun": 6959,
      "à·Ķ***": 6960,
      "ĠLongDayName": 6961,
      "Ġà¶¢à¶±à¶ľà·Ħ": 6962,
      "ĠClass": 6963,
      "Ġsuch": 6964,
      "Ġcontain": 6965,
      "Ġà¶Ńà¶¯à¶¶à¶¯à¶ºà¶ļ": 6966,
      "ĠATM": 6967,
      "matical": 6968,
      "à¶»à¶´à¶¯à¶ºà¶ļ": 6969,
      "aiti": 6970,
      "âĺħÛ©": 6971,
      "Ġplaylist": 6972,
      "ĠVaseegaran": 6973,
      "Ġguyana": 6974,
      "Ġdocument": 6975,
      "Ġà¶¯à¶«à¶ľà·Ħà¶±à·Ģ": 6976,
      "ĠNevada": 6977,
      "ffects": 6978,
      "ĠâĿĦâĺħÛ©": 6979,
      "Ġsouthkorea": 6980,
      "ĠBaggins": 6981,
      "Ġdialog": 6982,
      "'...": 6983,
      ",âĪĻ": 6984,
      "09": 6985,
      "800": 6986,
      "BS": 6987,
      "IV": 6988,
      "Rosen": 6989,
      "ax": 6990,
      "bl": 6991,
      "effects": 6992,
      "hing": 6993,
      "hut": 6994,
      "mart": 6995,
      "oh": 6996,
      "page": 6997,
      "press": 6998,
      "side": 6999,
      "Ġ;": 7000,
      "à·Ģà·ģà¶º": 7001,
      "à¶ºà¶¢à¶±à¶ļà¶º": 7002,
      "à¶»à¶¶à¶©": 7003,
      "à¶Ńà¶¥à¶º": 7004,
      "Ġà¶¸à¶½à¶ľ": 7005,
      "à¶§à¶´à¶½": 7006,
      "à·ĥà¶¯à¶º": 7007,
      "à¶¯à¶©": 7008,
      "Ġà·Ģà¶ºà¶±": 7009,
      "à·ľ-": 7010,
      "à¶ľà¶¶": 7011,
      "Ġà·Ħà¶ľ": 7012,
      "Ġà¶¯à¶»à¶¯": 7013,
      "Ġà¶´à·Ģà·ĥà¶¸": 7014,
      "Ġà¶´à¶¹à¶»": 7015,
      "à¶´à¶Ńà¶ļà¶§": 7016,
      "Ġà¶Ķà¶ºà¶¯": 7017,
      "Ġà¶¶à·ħà¶½": 7018,
      "Ġà¶ĳà¶ļà·Ģà¶»à¶¸": 7019,
      "Ġà¶ħà¶´à¶½à¶ºà¶ļ": 7020,
      "à¶«à·Ģà¶½": 7021,
      "Ġà¶ĭà¶ºà¶½": 7022,
      "à¶ºà¶±à¶ļà¶½": 7023,
      "à·ħà¶½à¶ļ": 7024,
      "Ġà¶Ĩà¶§": 7025,
      "Ġà¶Ĩà·Ħà¶»": 7026,
      "à·Ĭ,..": 7027,
      "à·ģà¶½": 7028,
      "à·ģà¶ļà¶»": 7029,
      "Ġà¶ķà¶ķ": 7030,
      "Ġà¶»à¶¯à·Ģà¶±": 7031,
      "à¶łà¶±à¶ºà¶ļ": 7032,
      "à¶³à¶½à¶¯": 7033,
      "à·Ĥà¶°": 7034,
      "Ġà¶Ķà·Ħà¶½à¶§": 7035,
      "à¶°à¶ºà¶Ń": 7036,
      "Ġà¶ļà¶½à·Ħà¶¸": 7037,
      "Ġà¶ħà¶»à¶¹à¶±à·Ģ": 7038,
      "à¶¸à¶¯à¶»": 7039,
      "Ġà¶ħà¶Ńà·Ģà¶»": 7040,
      "à¶Łà¶±à·Ģ": 7041,
      "à¶Ńà¶ļà¶¸à¶ļ": 7042,
      "à¶®à¶ºà¶±": 7043,
      "Ġà¶ĭà¶¯à¶º": 7044,
      "Ġà·Ģà¶½à·Ħà¶ļ": 7045,
      "à¶ºà¶±à·Ģà¶ļ": 7046,
      "Ġà¶ĭà¶¹à¶±à¶¸": 7047,
      "à¶«à¶ºà¶º": 7048,
      "à¶Ńà¶»à¶ľ": 7049,
      "iname": 7050,
      "à¶Ķà¶¶à·Ģ": 7051,
      "ĠCambay": 7052,
      "à·Ĵà¶ĤâĢįâĢį": 7053,
      "à¶½à·Ģà¶ľ": 7054,
      "Ġà¶ĳà¶ļà¶§à¶¸à¶º": 7055,
      "Ġà¶ħà¶©à·Ģà¶»": 7056,
      "Ġà¶ļà¶«à¶´": 7057,
      "à·Ĵ?\"": 7058,
      "Ġà¶ĭà¶¶à¶§à¶Ń": 7059,
      "Ġà¶Įà¶´": 7060,
      "atic": 7061,
      "à¶ºà·Ģà·Ħ": 7062,
      "ĠMon": 7063,
      "Ġà·ĥà¶±à·ĥà¶±": 7064,
      "Ġà¶¸à¶»à¶±à¶ºà¶§": 7065,
      "ĠSl": 7066,
      "Ġà¶īà·Ģà¶»à¶±": 7067,
      "à¶»à¶«à¶Ń": 7068,
      "à¶¢à¶±à¶ºà¶±": 7069,
      "ise": 7070,
      "Ġà¶ĩà¶±à¶¶": 7071,
      "Ġà¶ľà·Ħà¶ļà¶§": 7072,
      "à¶´à¶½à·Ģà¶½": 7073,
      "à¶»à·Ħà¶«": 7074,
      "Ġà·Ģà·Ħà¶±à¶º": 7075,
      "Ġà·Ģà·Ħà¶ľà¶Ń": 7076,
      "ĠDi": 7077,
      "ĠDGP": 7078,
      "ĠUr": 7079,
      "icense": 7080,
      "Ġà¶½à¶Łà¶§à¶¸": 7081,
      "Ġfound": 7082,
      "ĠTer": 7083,
      "ĠTyler": 7084,
      "Ġbhut": 7085,
      "Ġpi": 7086,
      "ĠFir": 7087,
      "ĠFox": 7088,
      "ĠPri": 7089,
      "ĠPeter": 7090,
      "Ġdata": 7091,
      "Ġthese": 7092,
      "ĠRio": 7093,
      "Ġ67": 7094,
      "olas": 7095,
      "Ġmail": 7096,
      "Ġmade": 7097,
      "ĠGP": 7098,
      "Ġà¶ħà¶ľà¶½à¶ļ": 7099,
      "Ġhaiti": 7100,
      ".\".": 7101,
      "ĠWong": 7102,
      "ctory": 7103,
      "ĠEy": 7104,
      "ĠEast": 7105,
      "ĠOS": 7106,
      "ĠOreg": 7107,
      "à¶¢à¶ļà¶ºà¶±": 7108,
      "Ġ2012": 7109,
      "Ġ2014": 7110,
      "ĠJapan": 7111,
      "Ġà¶Ķà¶Ńà¶±à¶¯": 7112,
      "Ġà¶Ńà¶½à¶½": 7113,
      "Ġforever": 7114,
      "Ġà¶«à¶ºà·Ģà¶»": 7115,
      "Ġthan": 7116,
      "Ġ2001": 7117,
      "Ġà¶ºà·Ħà¶´à¶Ńà¶ļ": 7118,
      "Ġrun": 7119,
      "ĠChand": 7120,
      "akes": 7121,
      "ification": 7122,
      "ĠVer": 7123,
      "ĠVol": 7124,
      "ĠVince": 7125,
      "erson": 7126,
      "Ġtrans": 7127,
      "ĠJoh": 7128,
      "Ġà¶»à¶®à¶ºà¶§": 7129,
      "Ġ*****": 7130,
      "Ġheavy": 7131,
      "à·ħà¶¯à¶´": 7132,
      "eller": 7133,
      "à¶»à¶łà¶ļ": 7134,
      "Ġshown": 7135,
      "ĠShit": 7136,
      "ocket": 7137,
      "à¶©à¶Ńà¶½à¶ºà¶ļ": 7138,
      "ives": 7139,
      "Ġzero": 7140,
      "Ġcho": 7141,
      "à·ı'.": 7142,
      "oved": 7143,
      "Ġà¶¯à¶Łà¶½à¶±à·Ģ": 7144,
      "Ġà·´à·´à·´": 7145,
      "à·Ķ**!": 7146,
      "Ġspace": 7147,
      "Ġà·ĥà·ħà¶ļà¶±": 7148,
      "Ġà¶´à·Ģà·ĥà¶º": 7149,
      "ollow": 7150,
      "ĠÂ£": 7151,
      "à¶ĥ!": 7152,
      "à¶Īà¶Ń": 7153,
      "Ġà¶¯à·ģà¶¸à·ĥ": 7154,
      "swick": 7155,
      "ĠIndia": 7156,
      "ĠEvery": 7157,
      "à¶Ĭà¶½à¶Łà¶§": 7158,
      "âĸ¬": 7159,
      "Ġlayer": 7160,
      "ĠSelene": 7161,
      "Ġpixmap": 7162,
      "ĠSEAL": 7163,
      "inephrine": 7164,
      "Ġà¶ħà¶ºà·Ħà¶´à¶Ń": 7165,
      "ĠBrunswick": 7166,
      "Ġbhutan": 7167,
      "ĠOregon": 7168,
      "01": 7169,
      "18": 7170,
      "36": 7171,
      "DO": 7172,
      "EC": 7173,
      "Script": 7174,
      "af": 7175,
      "con": 7176,
      "na": 7177,
      "nown": 7178,
      "title": 7179,
      "uc": 7180,
      "war": 7181,
      "wind": 7182,
      "à¶ºà¶¹à¶±": 7183,
      "à¶ļà·ĥà·Ħ": 7184,
      "à¶ļà¶©à¶ºà¶ļ": 7185,
      "à·Ķ*": 7186,
      "à·Ķ/": 7187,
      "à·Ħà·ħ": 7188,
      "à¶½à¶¥à¶º": 7189,
      "Ġà¶ļà¶¹à¶º": 7190,
      "à·ĥà¶½à¶ļà¶§": 7191,
      "à¶¯à·ģ": 7192,
      "Ġà·Ģà¶±à¶ºà¶ļ": 7193,
      "à¶ľà¶ºà¶¸": 7194,
      "Ġà¶ĳà¶¸à¶±": 7195,
      "Ġà·Ħà·ĥà¶±": 7196,
      "Ġà¶¯à¶±à·Ģà¶±": 7197,
      "à¶´à¶©": 7198,
      "à¶´à·Ħà¶ļ": 7199,
      "Ġà¶Ńà·Ģà¶§": 7200,
      "Ġà·ĥà·Ģà¶½": 7201,
      "Ġà·ĥà·Ģà¶»": 7202,
      "Ġà·ĥà·ĥà¶½": 7203,
      "à¶±à·Ģà·Ģ": 7204,
      "Ġà¶Ĵà¶¸à¶ļ": 7205,
      "âĢįà·ı": 7206,
      "Ġà¶¶à¶ļà¶§": 7207,
      "Ġà¶¶à¶ļà¶¸": 7208,
      "à¶©à¶½à¶ºà¶ļ": 7209,
      "à¶©à·Ģà¶±à·Ģ": 7210,
      "Ġà¶īà¶½à¶±": 7211,
      "Ġà¶ĩà¶±à¶ľà¶±": 7212,
      "Ġà¶ĩà¶Łà¶ļ": 7213,
      "Ġà¶ĳà¶ļà¶§à¶±": 7214,
      "Ġà¶ºà·Ħà¶Ń": 7215,
      "Ġà¶¸à¶§à¶±": 7216,
      "Ġà¶ĭà·ħ": 7217,
      "à·ħà¶ļà¶§": 7218,
      "Ġà¶Ĩà¶»à·Ģ": 7219,
      "à·ģà·Ģà¶Ń": 7220,
      "à·ģà¶Ńà¶º": 7221,
      "Ġà¶ķà¶±à¶ļà¶¸à¶ļ": 7222,
      "Ġà·Ħà¶»à¶º": 7223,
      "Ġà¶¢à¶ºà¶ļ": 7224,
      "à¶ļà¶ļà¶§à¶º": 7225,
      "à¶¢à¶»à¶ºà¶ļ": 7226,
      "à¶¢à¶½à¶±à¶º": 7227,
      "à¶¸à¶ļà¶§à¶¸": 7228,
      "à¶¹à¶ºà¶ļ": 7229,
      "Ġà¶ħà·Ħà¶±à·Ģà¶§": 7230,
      "à¶»à¶¸à¶ºà¶±": 7231,
      "Ġà¶ļà¶»à¶±à·Ģà¶ļ": 7232,
      "Ġà¶ħà¶¯à¶±à¶¸": 7233,
      "Ġà¶ħà¶¯à¶§à¶Ń": 7234,
      "Ġà·Ħà¶¯à¶§": 7235,
      "Ġà¶ļà¶»à¶½à·Ģà¶Ń": 7236,
      "Ġà·ĥà¶»à·ĥà·Ģ": 7237,
      "à¶½à¶±à¶½": 7238,
      "Ġ..\"": 7239,
      "à¶ħà¶´à¶»": 7240,
      "Ġà¶īà¶¯à¶ľà¶Ń": 7241,
      "à¶łà¶»à¶§": 7242,
      "Ġà¶ĳà¶½à·Ģà¶ľ": 7243,
      "Ġà¶¯à·Ģà·ĥà¶§à¶¸": 7244,
      "à¶½à·Ģà¶ľà¶Ń": 7245,
      "Ġ('": 7246,
      "Ġ()": 7247,
      "Ġà¶´à·Ħà¶½à¶¸": 7248,
      "Ġtri": 7249,
      "Ġtry": 7250,
      "Ġspe": 7251,
      "Ġ'.": 7252,
      "Ġà¶¸à¶Ńà¶¯": 7253,
      "ĠMi": 7254,
      "ĠMill": 7255,
      "ĠMess": 7256,
      "esh": 7257,
      "ĠSome": 7258,
      "ĠSSL": 7259,
      "à¶ºà¶ļà¶§à·Ģà¶Ń": 7260,
      "Ġwould": 7261,
      "Ġà¶´à¶½à·ĥ": 7262,
      "Ġà¶´à¶½à¶±à·Ģ": 7263,
      "à¶±à¶ľà¶»à¶º": 7264,
      "à·ĥà·Ħà¶ļà¶½": 7265,
      "alue": 7266,
      "à·Ĥà¶ļà·Ģà¶»à¶º": 7267,
      "ĠDol": 7268,
      "ĠDate": 7269,
      "Ġà¶»à¶¢à¶ļ": 7270,
      "Ġà¶»à¶¢à¶ºà¶±": 7271,
      "ĠText": 7272,
      "omb": 7273,
      "à¶Ľà¶«à¶º": 7274,
      "Ġboy": 7275,
      "rew": 7276,
      "Ġper": 7277,
      "ĠBri": 7278,
      "Ġ101": 7279,
      "ĠRPG": 7280,
      "à¶Ĩà¶Ń": 7281,
      "ilo": 7282,
      "Ġmach": 7283,
      "Ġhand": 7284,
      "ĠHappy": 7285,
      "ĠLear": 7286,
      "Ġà¶Ĩà¶ļà¶»à¶º": 7287,
      "ĠWeb": 7288,
      "Ġà¶±à·Ģà¶ºà¶ļà¶§": 7289,
      "ĠOR": 7290,
      "à¶¨à¶Ńà¶¸": 7291,
      "à¶ķà¶±à¶¸": 7292,
      "ambia": 7293,
      "Ġ86": 7294,
      "Ġà¶ħà·Ħà¶½à·Ģà¶Ń": 7295,
      "Ġà·Ħà¶¯à¶±à·Ģà¶±à¶¸": 7296,
      "Ġformat": 7297,
      "thday": 7298,
      "Ġà¶Ĩà·Ģà¶»à¶±à¶ºà¶ļ": 7299,
      "uron": 7300,
      "eath": 7301,
      "une": 7302,
      "Ġà¶ħà¶Ńà¶±à¶¯": 7303,
      "eck": 7304,
      "à·ħà¶ļà¶«": 7305,
      "uther": 7306,
      "aste": 7307,
      "Ġvery": 7308,
      "Ġrem": 7309,
      "à¶©à¶¶à·ĥ": 7310,
      "Ġà¶»à¶®à¶ľ": 7311,
      "à·Ħà¶»à¶ºà·Ģ": 7312,
      "Ġprogram": 7313,
      "ĠShow": 7314,
      "à·ħà¶Łà¶§": 7315,
      "Ġleft": 7316,
      "Ġanother": 7317,
      "ĠArk": 7318,
      "mber": 7319,
      "Ġdoing": 7320,
      "à¶§à¶ľà¶±à¶º": 7321,
      "lands": 7322,
      "à¶»à¶ļà¶Ńà¶±à¶ºà¶§": 7323,
      "Ġà¶īà¶ľà¶±à¶ľà¶Ń": 7324,
      "Ġà¶»à¶³à·Ģà¶ľ": 7325,
      "Ġdistrib": 7326,
      "Ġà¶įà¶±": 7327,
      "à¶»à¶¶à¶½à¶Ń": 7328,
      "ĠMIT": 7329,
      "ĠSauron": 7330,
      "Ġà¶ļà¶§à¶ļà¶®": 7331,
      "ĠUSB": 7332,
      "ĠDoctor": 7333,
      "Ġactive": 7334,
      "Ġdirection": 7335,
      "Ġdirectory": 7336,
      "Ġà¶łà¶½à¶±à¶ºà¶±": 7337,
      "WMComment": 7338,
      "uthor": 7339,
      "Ġtempl": 7340,
      "ĠMadge": 7341,
      "Ġdistribution": 7342,
      "03": 7343,
      "04": 7344,
      "37": 7345,
      "84": 7346,
      "GL": 7347,
      "Imp": 7348,
      "LA": 7349,
      "MJ": 7350,
      "NM": 7351,
      "OR": 7352,
      "RY": 7353,
      "aut": 7354,
      "fore": 7355,
      "ga": 7356,
      "je": 7357,
      "la": 7358,
      "port": 7359,
      "rom": 7360,
      "rong": 7361,
      "sc": 7362,
      "sen": 7363,
      "time": 7364,
      "wa": 7365,
      "zech": 7366,
      "Ġir": 7367,
      "ĠÛ©": 7368,
      "à¶±à¶ºà¶§à¶¸": 7369,
      "à·Ģà¶¯à¶º": 7370,
      "à¶ºà¶Ńà¶º": 7371,
      "à·Ļ:": 7372,
      "à·Ļà·Ļà·Ĵ": 7373,
      "à·Ļà¶Ĥ.": 7374,
      "à¶ŃName": 7375,
      "à·ĶâĪĻâĪĻâĪĻ": 7376,
      "à·ļ(": 7377,
      "Ġà¶¸à·Ģà¶ļ": 7378,
      "à·Ħà¶§à¶Ń": 7379,
      "à¶§à¶ºà¶¸": 7380,
      "Ġà¶ļà¶¸à¶»": 7381,
      "à·ĥà¶´à¶½": 7382,
      "à·ĥà·ħà¶ļ": 7383,
      "à·ĥà¶¢à¶±à¶ļ": 7384,
      "à¶¯à¶©à¶º": 7385,
      "à¶¯à¶»à¶ļà¶¸": 7386,
      "Ġà·Ģà¶¯à¶º": 7387,
      "à¶ľà·Ħà¶§": 7388,
      "Ġà¶Ķà¶±à·Ģ": 7389,
      "Ġà¶¯à·Ħà·Ģ": 7390,
      "à¶´à¶¸à¶±": 7391,
      "à¶´à¶ļà¶ºà¶ļ": 7392,
      "à¶´à·Ħà¶½à¶§": 7393,
      "Ġà¶Ńà¶º": 7394,
      "Ġà·ĥà·ĥà¶³à¶½": 7395,
      "à¶±à·Ģà¶§à¶Ń": 7396,
      "Ġà¶ļà¶»à¶¯à¶ºà¶ļ": 7397,
      "à¶©à¶ºà¶º": 7398,
      "à·ĿâĪĻâĪĻâĪĻ": 7399,
      "à¶¶à·ĥà¶ļ": 7400,
      "Ġà¶ĩà¶¸à¶§": 7401,
      "Ġà¶ħà¶´à¶ł": 7402,
      "Ġà¶ħà¶´à¶Ńà¶ºà¶±": 7403,
      "à¶«à¶ĩà¶´à¶ļà¶»": 7404,
      "à·ħà¶´à¶Ń": 7405,
      "à·ħà¶ļà¶±": 7406,
      "Ġà¶½à¶´à¶ºà¶ļ": 7407,
      "Ġà¶Ĩà¶½à¶º": 7408,
      "Ġà¶Ĩà¶¶à¶»": 7409,
      "à·ģà¶¯": 7410,
      "à·ģà¶·": 7411,
      "à¶łà¶´": 7412,
      "à¶³à·Ģà¶½": 7413,
      "à¶³à¶ľà¶Ń": 7414,
      "à¶¸à¶ºà¶Ń": 7415,
      "Ġà¶¶à¶½à¶ļà¶»": 7416,
      "à·Ĵ,\"": 7417,
      "Ġà¶¯à¶±à·Ħ": 7418,
      "Ġà·ĥà¶¸à¶´": 7419,
      "Ġà·ĥà¶¸à¶ºà¶ļ": 7420,
      "à¶ļà¶ļà¶»à¶±": 7421,
      "à¶ļà¶ļà¶»à¶±à·Ģ": 7422,
      "à¶ļà¶»à·Ģà¶±à·Ģ": 7423,
      "Ġà¶§à¶ľ": 7424,
      "à¶±à¶ļà·Ģ": 7425,
      "à·Ģà¶½à·Ģ": 7426,
      "Ġà¶ħà¶Ńà¶»à¶º": 7427,
      "à¶ľà¶Ńà·Ħ": 7428,
      "à¶¹à¶ļ": 7429,
      "à¶»à¶¸à¶½à·Ģ": 7430,
      "à¶»à¶¸à¶ºà¶ļà¶§": 7431,
      "à·Ģà¶§à¶±à¶ºà¶ļ": 7432,
      "Ġà·ĥà·Ħà¶½": 7433,
      "Ġà·ĥà·Ħà¶¶": 7434,
      "Ġà¶´à·ĥà¶§": 7435,
      "Ġà¶ħà¶¯à·ģ": 7436,
      "Ġà¶©à¶ļ": 7437,
      "à¶ºà¶¸à¶ºà¶±": 7438,
      "Ġà¶¸à¶»à·ħ": 7439,
      "à¶½à¶±à¶§": 7440,
      "à¶Ķà¶Ń": 7441,
      "à¶ħà¶¶": 7442,
      "à¶ħà·ħ": 7443,
      "à¶ħà¶¸à¶Ńà¶ļ": 7444,
      "Ġà·Ĩà¶½": 7445,
      "Ġà¶īà¶¯à¶ļ": 7446,
      "à¶ļà¶½à¶±à¶º": 7447,
      "ĠCynth": 7448,
      "à¶»à·ģà¶±": 7449,
      "à¶łà¶»à·Ģà¶Ń": 7450,
      "à¶łà¶»à¶«à¶º": 7451,
      "à¶½à¶ľà¶§": 7452,
      "itch": 7453,
      "Ġà¶´à·Ħà·Ģ": 7454,
      "Ġà¶ħà¶©à·ĥ": 7455,
      "Ġà·Ģà¶±à¶±à·Ģ": 7456,
      "à¶Ĵà¶ļà¶±": 7457,
      "Ġà¶īà¶³à¶ľà¶Ń": 7458,
      "Ġsn": 7459,
      "Ġser": 7460,
      "Ġsunni": 7461,
      "Ġkeep": 7462,
      "à¶½à¶ºà¶ļà¶¯": 7463,
      "ĠMag": 7464,
      "Ġà·Ģà¶ºà·ĥà¶¯": 7465,
      "Ġà¶ļà¶©à¶Ń": 7466,
      "Ġcreat": 7467,
      "à¶¯à¶ļà¶ºà¶±": 7468,
      "Ġà¶´à¶«à¶ľ": 7469,
      "à¶ĩà¶ºà·Ģ": 7470,
      "à¶»à¶«à·Ģ": 7471,
      "Ġ58": 7472,
      "ĠAb": 7473,
      "ĠAz": 7474,
      "Ġà¶ľà·Ħà¶¯": 7475,
      "à¶¯à·Ģà¶´": 7476,
      "ĠDe": 7477,
      "ĠDail": 7478,
      "à¶§à·ĥà¶ļà¶§": 7479,
      "ics": 7480,
      "Ġfox": 7481,
      "oming": 7482,
      "Ġbit": 7483,
      "Ġbas": 7484,
      "Ġbot": 7485,
      "à¶§à¶´à¶§": 7486,
      "à¶½à¶¯à¶ľà¶±": 7487,
      "ĠPe": 7488,
      "ĠNTS": 7489,
      "Ġdel": 7490,
      "Ġdev": 7491,
      "Ġdisc": 7492,
      "à¶Ĩà¶´à·ĥ": 7493,
      "Ġnet": 7494,
      "ads": 7495,
      "adid": 7496,
      "ĠGT": 7497,
      "ĠGe": 7498,
      "ĠGame": 7499,
      "Ġà¶ħà¶ľà¶ºà¶±à·Ģ": 7500,
      "Ġhapp": 7501,
      "ĠHard": 7502,
      "ĠHIV": 7503,
      "usic": 7504,
      "eting": 7505,
      "ĠWi": 7506,
      "ĠWow": 7507,
      "ĠEp": 7508,
      "Ġ900": 7509,
      "ĠJane": 7510,
      "à·ı\",": 7511,
      "roat": 7512,
      "Ġà·Ħà¶³à·Ħà¶±": 7513,
      "Ġ155": 7514,
      "url": 7515,
      "Ġà·Ħà¶Ńà·ħ": 7516,
      "à¶Ķà¶¶à¶Ń": 7517,
      "Ġ1950": 7518,
      "Ġà¶¶à¶§à¶ºà¶ļ": 7519,
      "oser": 7520,
      "ĠCanosa": 7521,
      "à·Ĵ\"?": 7522,
      "ager": 7523,
      "ĠYa": 7524,
      "ĠVerm": 7525,
      "ops": 7526,
      "ession": 7527,
      "à¶ļà·ħà¶ĭà¶´à·ĥ": 7528,
      "Ġ06": 7529,
      "Ġaround": 7530,
      "Ġred": 7531,
      "à·ħà¶³à¶´à¶½": 7532,
      "Ġ140": 7533,
      "ular": 7534,
      "ĠAlCA": 7535,
      "Ġà¶Ńà¶»à¶ľà¶ºà¶ļà¶§": 7536,
      "à¶¢à¶±à¶ºà¶ļà¶§": 7537,
      "ĠStart": 7538,
      "estorm": 7539,
      "à·ģà¶«à¶ºà¶±": 7540,
      "Ġwhile": 7541,
      "ansas": 7542,
      "Ġleave": 7543,
      "Ġzambia": 7544,
      "Ġà¶¶à¶ºà¶ļà¶½": 7545,
      "Ġused": 7546,
      "Ġele": 7547,
      "ators": 7548,
      "Ġà¶ĭà¶Ķà¶§": 7549,
      "achyon": 7550,
      "Ġbytes": 7551,
      "Ġ1976": 7552,
      "Ġà¶įà¶Ń": 7553,
      "à¶½à¶¹à·Ģà¶±": 7554,
      "Ġà·Ģà¶°à·Ħ": 7555,
      "ĠAngel": 7556,
      "ĠShortDayName": 7557,
      "Ġbrus": 7558,
      "ĠMaur": 7559,
      "ictor": 7560,
      "CADA": 7561,
      "ĠGru": 7562,
      "Ġsupport": 7563,
      "Ġselected": 7564,
      "Ġcommand": 7565,
      "rayne": 7566,
      "ĠCCTV": 7567,
      "Ġcurrently": 7568,
      "Ġà¶¹à¶º": 7569,
      "ĠCentral": 7570,
      "ĠIntern": 7571,
      "ĠJeremy": 7572,
      "Ġà¶ĭà¶´à¶ļà¶»à¶±à¶ºà¶ļ": 7573,
      "TION": 7574,
      "ĠMordor": 7575,
      "ĠPaulson": 7576,
      "Moab": 7577,
      "ĠSVN": 7578,
      "ĠJenny": 7579,
      "ĠWilliam": 7580,
      "ĠSUV": 7581,
      "ĠHendry": 7582,
      "ĠELM": 7583,
      "ĠFirestorm": 7584,
      "ĠArkansas": 7585,
      "ĠCynthia": 7586,
      "ĠDaily": 7587,
      "ĠNTSB": 7588,
      "ĠVermont": 7589,
      "90": 7590,
      "==": 7591,
      "AC": 7592,
      "Ar": 7593,
      "Cal": 7594,
      "Ex": 7595,
      "Go": 7596,
      "HT": 7597,
      "ID": 7598,
      "Su": 7599,
      "You": 7600,
      "cle": 7601,
      "dy": 7602,
      "ium": 7603,
      "not": 7604,
      "ti": 7605,
      "ville": 7606,
      "ware": 7607,
      "zer": 7608,
      "{\\": 7609,
      "âĿĦ": 7610,
      "Ġep": 7611,
      "Ġign": 7612,
      "à¶ª": 7613,
      "à·Ĭà·ĬâĢį": 7614,
      "à¶±to": 7615,
      "à·Ĵ%": 7616,
      "à·Ģà¶´à¶½": 7617,
      "à·ı/": 7618,
      "à¶»à¶Ńà¶º": 7619,
      "à¶»à¶ºà¶§à¶¸": 7620,
      "à¶Ńà¶ľà¶Ń": 7621,
      "à·Ħà¶³": 7622,
      "à¶½à·Ħà¶º": 7623,
      "à¶½à¶¥à¶ºà¶±": 7624,
      "Ġà¶ļà¶¸à¶º": 7625,
      "à·ĥà·Ģà¶ļ": 7626,
      "à·ĥà¶ºà¶º": 7627,
      "à¶¯à¶ł": 7628,
      "à¶¯à·Ģà¶»à¶º": 7629,
      "Ġà·Ģà¶°à·Ģ": 7630,
      "Ġà·Ģà¶»à¶ļà¶§": 7631,
      "à¶ľà¶¸à¶Ń": 7632,
      "Ġà¶Ķà¶ľ": 7633,
      "Ġà¶±à¶ļ": 7634,
      "Ġà¶±à¶¢": 7635,
      "Ġà¶±à·ħà¶º": 7636,
      "Ġà·Ħà¶´à¶½": 7637,
      "Ġà¶¯à·ģà¶¸": 7638,
      "Ġà¶´à¶½à¶§": 7639,
      "à¶´à¶»à¶ļ": 7640,
      "à¶´à¶ļà¶»à¶½": 7641,
      "Ġà¶Ńà·ĥ": 7642,
      "Ġà·ĥà·ĥà¶³à¶±": 7643,
      "Ġà¶ľà¶¯à¶ļ": 7644,
      "Ġà¶Ĵà¶¯": 7645,
      "Ġà¶ļà¶»à·Ģà¶¸": 7646,
      "Ġà¶ļà¶»à·Ħà¶¸": 7647,
      "âĢį.": 7648,
      "Ġà¶¶à¶©à¶ļ": 7649,
      "à¶©à¶»à¶ºà¶ļ": 7650,
      "Ġà¶ĩà¶§à¶ļ": 7651,
      "Ġà¶ºà·Ħà¶±": 7652,
      "Ġà¶ĭà¶Ł": 7653,
      "Ġà¶Ĩà¶Ĩ": 7654,
      "à·ģà·Ģà¶ºà¶ļ": 7655,
      "Ġà¶¸à¶ľà¶º": 7656,
      "à·Ģà¶Ńà¶º": 7657,
      "à¶ľà¶±à¶ļ": 7658,
      "à¶³à¶ļà¶§": 7659,
      "à¶±à¶¸à¶±à·Ģ": 7660,
      "à¶ºà¶§à¶±": 7661,
      "à¶¸à¶ºà¶¸": 7662,
      "à·Ĥà¶ľà¶Ń": 7663,
      "Ġà¶¢à¶½à¶±à¶½": 7664,
      "Ġà¶¶à¶½à¶ļà¶½": 7665,
      "Ġà¶¶à¶½à¶ļà¶»à¶½": 7666,
      "à·Ĵ,...": 7667,
      "à¶°à¶ľ": 7668,
      "Ġà·Ģà¶ľà¶ºà¶ļà¶§": 7669,
      "à·Ģà¶ļà¶§à¶¯": 7670,
      "Ġà¶ľà¶±à¶º": 7671,
      "Ġà¶ħà·Ģà¶¸à¶ľ": 7672,
      "Ġà¶ĩà¶ºà·Ģà¶Ń": 7673,
      "à¶¸à¶Ńà¶ļà¶¯": 7674,
      "à¶ļà¶»à¶±à¶ļ": 7675,
      "à¶ļà¶»à¶¯à¶»": 7676,
      "à¶¸à¶ļà¶§à¶¯": 7677,
      "à·Ģà¶½à¶ºà¶±": 7678,
      "Ġà¶ħà¶Ńà¶´à¶Ń": 7679,
      "à¶¯à¶»à¶±": 7680,
      "à·Ĩà¶½à¶ºà¶ļ": 7681,
      "Ġà¶ĭà¶¯à¶¸": 7682,
      "Ġà¶ľà¶Ńà¶ļà¶»à¶½": 7683,
      "Ġà·ĥà¶»à·ĥà¶±": 7684,
      "à·Ģà·ĥà¶ļà¶§": 7685,
      "à¶½à¶ºName": 7686,
      "à¶Ķà¶§": 7687,
      "Ġà¶¯à·Ģà·ĥà¶ļà¶¯": 7688,
      "Ġà·ħà¶ļ": 7689,
      "à¶½à·Ģà·Ģ": 7690,
      "à¶½à·Ģà¶»à¶ļ": 7691,
      "à·ĥà¶»à¶«à¶º": 7692,
      "à¶§à¶Ńà¶¸": 7693,
      "Ġà¶´à·Ħà¶¯à¶½": 7694,
      "à¶ľà¶ºName": 7695,
      "Ġà·Ģà¶±à·ĥà¶±": 7696,
      "ority": 7697,
      "Ġà¶¶à¶ºà·Ħ": 7698,
      "atar": 7699,
      "Ġsin": 7700,
      "Ġsure": 7701,
      "Ġà·Ģà¶§à·Ģ": 7702,
      "Ġà¶ĭà¶©à·Ħ": 7703,
      "Ġki": 7704,
      "Ġà¶ħà¶»à¶ľà¶½à¶ºà¶ļ": 7705,
      "ĠMay": 7706,
      "ĠMav": 7707,
      "ĠMER": 7708,
      "ouri": 7709,
      "Ġczech": 7710,
      "Ġà¶ķà¶ļà¶¸à¶º": 7711,
      "ĠSu": 7712,
      "ĠSeb": 7713,
      "ĠSettings": 7714,
      "à·ĥà¶¸à¶ľ": 7715,
      "Ġwer": 7716,
      "Ġwid": 7717,
      "à¶ľà¶¸à¶ºà¶§": 7718,
      "Ġà¶ľà¶«à¶ļ": 7719,
      "à¶ļà·ĥà¶½": 7720,
      "Ġà¶½à¶Łà¶´": 7721,
      "Ġfun": 7722,
      "Ġfav": 7723,
      "Ġbar": 7724,
      "ĠIm": 7725,
      "Ġà¶¢à¶±à¶»à¶¢": 7726,
      "à¶īà¶¶": 7727,
      "à·Ħà¶ļà¶ºà¶§": 7728,
      "Ġà¶´à¶§à·Ģ": 7729,
      "ĠBack": 7730,
      "ĠKGB": 7731,
      "ĠPark": 7732,
      "ĠPNM": 7733,
      "Ġdes": 7734,
      "Ġdest": 7735,
      "à¶Ĩà¶´": 7736,
      "ĠGoogle": 7737,
      "Ġà¶ļà¶´à¶´": 7738,
      "ĠLay": 7739,
      "ĠLock": 7740,
      "ĠLann": 7741,
      "Ġ76": 7742,
      "Ġ77": 7743,
      "Ġgiv": 7744,
      "Ġà¶Ńà¶¯à¶§à¶¸": 7745,
      "Ġà¶īà·Ħà·ħà¶º": 7746,
      "Ġstay": 7747,
      "Ġstring": 7748,
      "Ġ123": 7749,
      "à·Ĭ)?": 7750,
      "thon": 7751,
      "Ġà·Ħà¶Ńà¶»à·Ģà¶±": 7752,
      "Ġà¶¢à¶ºà¶ľà¶Ń": 7753,
      "Ġ190": 7754,
      "Ġ10000": 7755,
      "Ġà¶Ĵà¶ļà¶Ńà¶¸à¶º": 7756,
      "Ġmeans": 7757,
      "à¶±à·Ħà·Ģà¶ļ": 7758,
      "Ġà¶īà·Ģà¶»à¶ļà¶½": 7759,
      "irt": 7760,
      "Ġconfig": 7761,
      "iffer": 7762,
      "ĠVo": 7763,
      "à¶§à¶ľà·Ħ": 7764,
      "illa": 7765,
      "à¶¡à¶±": 7766,
      "Ġà¶ĭà¶´à¶ļà¶»à¶«à¶ºà¶§": 7767,
      "Ġ113": 7768,
      "alla": 7769,
      "Ġvalue": 7770,
      "Ġarms": 7771,
      "ube": 7772,
      "Ġ166": 7773,
      "Ġà·Ħà¶©à·Ģà¶½": 7774,
      "Ġbefore": 7775,
      "à¶»à¶·à¶½": 7776,
      "apa": 7777,
      "à·Ĭ'.": 7778,
      "Ġshall": 7779,
      "à¶ħà·Ģà·ĥà¶±": 7780,
      "Ġplace": 7781,
      "Ġà·ĥà¶¸à¶Ńà¶ºà¶ļà¶§": 7782,
      "ARG": 7783,
      "plasma": 7784,
      "Ġ*.": 7785,
      "keyboard": 7786,
      "Ġà·ĥà¶Łà¶º": 7787,
      "weet": 7788,
      "Ġframe": 7789,
      "Ġturn": 7790,
      "à¶½à¶³à¶ľà¶±": 7791,
      "Ġà¶įà¶«": 7792,
      "Ġblood": 7793,
      "Ġà¶ĩà¶´à¶ļà¶»à¶º": 7794,
      "Ġà¶¶à¶³à·Ģà¶ľà¶±": 7795,
      "ĠUnits": 7796,
      "Ġcursor": 7797,
      "Ġâĺ": 7798,
      "Ġtrack": 7799,
      "ategoryName": 7800,
      "Ġimage": 7801,
      "Ġdays": 7802,
      "Ġà¶ħà¶§à·Ģà¶´": 7803,
      "swana": 7804,
      "âĺħâĿĦ": 7805,
      "ĠMissouri": 7806,
      "white": 7807,
      "Ġyears": 7808,
      "ĠOpenGL": 7809,
      "ĠMarshall": 7810,
      "Ġà·ĥà¶±à·ĥà·Ģà¶±": 7811,
      "Ġfeel": 7812,
      "Ġetc": 7813,
      "Ġsuriname": 7814,
      "chedul": 7815,
      "Ġà¶ļà¶§à·Ħà¶©à¶ļ": 7816,
      "ĠBrian": 7817,
      "ĠORCA": 7818,
      "ĠSebastian": 7819,
      "\"!": 7820,
      "/.": 7821,
      "200": 7822,
      "31": 7823,
      "42": 7824,
      "71": 7825,
      ";%": 7826,
      ";}": 7827,
      "Balth": 7828,
      "Don": 7829,
      "ED": 7830,
      "EE": 7831,
      "HI": 7832,
      "IS": 7833,
      "Nash": 7834,
      "NON": 7835,
      "SV": 7836,
      "US": 7837,
      "ae": 7838,
      "aur": 7839,
      "bour": 7840,
      "hà¶Ń": 7841,
      "ipe": 7842,
      "iya": 7843,
      "known": 7844,
      "lk": 7845,
      "ool": 7846,
      "ram": 7847,
      "rot": 7848,
      "roll": 7849,
      "sir": 7850,
      "Äģ": 7851,
      "Ġà·Ĭ": 7852,
      "Ġask": 7853,
      "à·Ĭ%": 7854,
      "à¶±à·Ħà¶½": 7855,
      "à¶ºà¶»à¶ºà¶ļ": 7856,
      "à¶ºà·Ģà¶¯": 7857,
      "à¶ļà·Ĥ": 7858,
      "à¶ļà¶¢": 7859,
      "à·Ļà·ı.": 7860,
      "à¶¸weather": 7861,
      "à¶»à¶±à¶¸": 7862,
      "à¶»à¶Ńà¶±": 7863,
      "à¶»à¶±à¶¯": 7864,
      "à¶Ńà¶¶à¶±": 7865,
      "à¶Ńà¶ºà¶§à¶¸": 7866,
      "Ġà¶¸à¶¯à¶º": 7867,
      "Ġà¶¸à¶©à¶¸": 7868,
      "à¶½à¶±à¶ļ": 7869,
      "à¶½à·ĥà¶ļ": 7870,
      "à¶§à¶¸à¶ļà¶§": 7871,
      "Ġà¶ļà¶©à¶ļ": 7872,
      "Ġà¶ļà¶ľà·Ģ": 7873,
      "à¶¯à·Ģà¶Ń": 7874,
      "à¶¯à¶±à¶ļ": 7875,
      "à·ĲâĪĻâĪĻ": 7876,
      "à¶ľà·ĥà¶±": 7877,
      "Ġà¶ĳà·Ģà¶§": 7878,
      "Ġà¶ħà·Ĩ": 7879,
      "Ġà¶ħà¶«à¶§": 7880,
      "Ġà¶±à·Ħà·ĥ": 7881,
      "Ġà¶¯à¶±à·Ģ": 7882,
      "à¶´à·ģ": 7883,
      "à¶´à¶§à¶±": 7884,
      "à¶´à¶ļà¶½": 7885,
      "à¶´à·ħà¶ļ": 7886,
      "Ġà¶Ķà¶ºà¶½à¶ľ": 7887,
      "Ġà¶ľà¶½à¶§": 7888,
      "Ġà¶ľà¶«à¶º": 7889,
      "Ġà¶ľà¶ľà·Ħ": 7890,
      "Ġà¶ļà¶»à¶§": 7891,
      "à¶©à¶ľà¶¸à¶ļ": 7892,
      "à·ĵ'": 7893,
      "à¶¶à¶ºà·Ģ": 7894,
      "à¶¶à·Ħà¶¯": 7895,
      "Ġà¶ĳà¶ļà¶¸à¶Ń": 7896,
      "Ġà¶ħà¶´à¶ľà¶Ń": 7897,
      "à¶«à·Ģà¶±": 7898,
      "Ġà¶ĳà¶ºà·Ģ": 7899,
      "Ġà¶Ĵà¶ļà¶¸à¶Ń": 7900,
      "Ġà¶ĭà¶»à¶½": 7901,
      "à·ħà·Ħà¶ļ": 7902,
      "à·ħà¶ľà·ĥ": 7903,
      "Ġà¶½à¶ľà¶Ń": 7904,
      "Ġà¶ķà¶ļà¶¯": 7905,
      "Ġà¶ķà¶±à¶¸à¶º": 7906,
      "Ġà¶»à·Ĩ": 7907,
      "à·Ģà¶Ńà¶ºà¶ļ": 7908,
      "à¶³à¶±à¶¸": 7909,
      "à·Ĥà·ĥ": 7910,
      "Ġà¶¢à¶ļ": 7911,
      "à¶°à¶¸à¶Ń": 7912,
      "à·ı,\"": 7913,
      "à·ı,..": 7914,
      "Ġà·Ģà¶ľà·Ģ": 7915,
      "Ġà¶ļà¶½à¶¸": 7916,
      "à¶¢à¶½à¶º": 7917,
      "Ġà¶ħà·Ģà¶¸à¶º": 7918,
      "à¶ļà¶»à¶ľà¶¸": 7919,
      "à¶©à¶ļà¶ºà¶ļ": 7920,
      "Ġà¶ħà¶Ńà·Ģ": 7921,
      "à·ļ,âĪĻ": 7922,
      "Ġà¶ħà·Ħà·Ģà¶»à¶ļ": 7923,
      "à¶»à¶¸à¶±à¶º": 7924,
      "Ġà¶´à¶»à¶¯à·Ģà¶±": 7925,
      "à¶ļà¶ºà¶¯": 7926,
      "à¶ļà¶§à¶±": 7927,
      "à·Ģà¶ºà¶¸": 7928,
      "Ġà¶ľà¶Ńà¶ļà¶»à¶´": 7929,
      "Ġà¶¸à¶»à·Ģà¶±à·Ģ": 7930,
      "Ġà¶¸à¶»à¶´à¶½": 7931,
      "Ġà¶ļà·ħà·Ħà¶¸": 7932,
      "à¶¯à¶ºà·Ģà¶»": 7933,
      "Ġà¶Ĭà¶¶": 7934,
      "Ġà¶Ĭà¶Ńà¶½à¶º": 7935,
      "à¶Ķà·Ĩ": 7936,
      "à¶§à¶»à¶ºà¶§": 7937,
      "à¶±à·ĥà¶ļà¶§": 7938,
      "Ġà·Ĩà·Ģ": 7939,
      "ĠCor": 7940,
      "ĠCEO": 7941,
      "ĠCategoryName": 7942,
      "Ġà¶ĳà¶½à·Ģà¶´": 7943,
      "Ġà¶ĳà¶½à·Ģà·ħ": 7944,
      "à·Ĵà¶Ĥ-": 7945,
      "à¶½à·Ģà¶ºà¶§": 7946,
      "Ġà¶Ĵà¶ļà¶§à¶±à¶¸": 7947,
      "à¶§à¶Ńà¶¯": 7948,
      "Ġà¶Ńà¶»à¶«": 7949,
      "Ġtv": 7950,
      "Ġà¶ĭà¶´à·Ģ": 7951,
      "Ġinst": 7952,
      "orf": 7953,
      "à¶»à¶ºà¶ļà¶¯": 7954,
      "Ġà¶ĭà¶¶à¶½à·Ģ": 7955,
      "Ġà¶Įà¶¸": 7956,
      "ari": 7957,
      "att": 7958,
      "à·Ħà¶½à¶»": 7959,
      "Ġsm": 7960,
      "Ġslot": 7961,
      "Ġsweet": 7962,
      "Ġà·ħà¶¸à¶ºà¶º": 7963,
      "Ġà¶ħà·ĥà·Ħà¶±à¶º": 7964,
      "Ġà¶ĭà¶©à¶Ł": 7965,
      "Ġà¶ĳà·ħà¶¹": 7966,
      "ĠMama": 7967,
      "eslot": 7968,
      "Ġà¶ķà¶ļà¶±à¶¸": 7969,
      "Ġ350": 7970,
      "à·ĽâĢį": 7971,
      "ĠSunni": 7972,
      "ĠSky": 7973,
      "ĠSCADA": 7974,
      "Ġwrap": 7975,
      "Ġà¶´à¶½à¶½": 7976,
      "à¶ĩà¶´à¶½": 7977,
      "Ġà¶´à·ħà¶¯": 7978,
      "Ġà¶´à·ħà¶³à¶±": 7979,
      "ĠDale": 7980,
      "icy": 7981,
      "Ġfiles": 7982,
      "Ġfitzie": 7983,
      "ĠTMJ": 7984,
      "à¶Ľà·ĥ": 7985,
      "Ġbin": 7986,
      "Ġbus": 7987,
      "ĠIre": 7988,
      "ĠISI": 7989,
      "à¶ĭà¶©à¶§": 7990,
      "Ġac": 7991,
      "Ġà¶´à¶§à·Ģà¶½": 7992,
      "ĠFre": 7993,
      "ĠBar": 7994,
      "ĠBen": 7995,
      "ĠKentucky": 7996,
      "ĠPat": 7997,
      "ĠPre": 7998,
      "ĠPNG": 7999,
      "ĠNum": 8000,
      "Ġdarl": 8001,
      "Ġà¶Īà¶Ńà¶º": 8002,
      "ĠRep": 8003,
      "ĠROC": 8004,
      "Ġ6000": 8005,
      "olk": 8006,
      "à¶¯à¶¸à¶½": 8007,
      "Ġmore": 8008,
      "ĠGL": 8009,
      "ĠGal": 8010,
      "Ġhard": 8011,
      "use": 8012,
      "ĠLRA": 8013,
      "eta": 8014,
      "Ġà¶ĩà¶Łà¶¸": 8015,
      "Ġgl": 8016,
      "Ġ206": 8017,
      "Ġ2013": 8018,
      "Ġ85": 8019,
      "ĠJust": 8020,
      "abia": 8021,
      "abama": 8022,
      "Ġà¶ľà·ĥà¶±à·Ģ": 8023,
      "utes": 8024,
      "Ġà¶¢à¶ºà·Ģà¶»": 8025,
      "à¶°à¶ļà¶ºà¶§": 8026,
      "à¶¶à¶³à·Ģà¶º": 8027,
      "Ġà¶īà·Ģà¶»à¶ļ": 8028,
      "agg": 8029,
      "ago": 8030,
      "ags": 8031,
      "Ġà¶ºà·Ħà¶´à¶Ńà¶§": 8032,
      "Ġà¶µà¶±": 8033,
      "à·Ķ..\"": 8034,
      "aking": 8035,
      "ĠVictor": 8036,
      "oper": 8037,
      "Ġvs": 8038,
      "Ġrec": 8039,
      "Ġrecent": 8040,
      "Ġ4080": 8041,
      "Ġ147": 8042,
      "ĠXP": 8043,
      "ĠAlabama": 8044,
      "Ġà¶ħà¶Ńà¶»à¶¸à¶ľ": 8045,
      "eave": 8046,
      "Ġà¶īà·Ģà·ĥà¶½": 8047,
      "à·ħà¶¯à¶´à¶½": 8048,
      "IAS": 8049,
      "ĠStop": 8050,
      "ĠThey": 8051,
      "à¶»à¶¢à¶¸": 8052,
      "anssen": 8053,
      "Ġtitlebar": 8054,
      "Ġà¶ĩà¶´à¶ºà¶§": 8055,
      "orning": 8056,
      "Ġuh": 8057,
      "Ġsubtitle": 8058,
      "Ġzahir": 8059,
      "Ġà¶¢à¶±à¶´à¶¯à¶ºà¶ļ": 8060,
      "Ġà¶ħà·ĥà¶¸à·ĥà¶¸": 8061,
      "Ġexpl": 8062,
      "Ġ1998": 8063,
      "Ġunit": 8064,
      "Ġà·Ģà·ģà¶ºà¶±": 8065,
      "à¶´à·ħà¶¸": 8066,
      "PIN": 8067,
      "Ġengine": 8068,
      "eful": 8069,
      "ĠPhD": 8070,
      "ĠiCal": 8071,
      "itzer": 8072,
      "à¶«à¶ľà·Ħà¶´": 8073,
      "à¶©à¶±à¶ľà¶´": 8074,
      "à¶©à¶±à¶ľà¶±à·Ģ": 8075,
      "ĠGren": 8076,
      "ĠHeavy": 8077,
      "ĠÂ©": 8078,
      "Ġresolution": 8079,
      "Ġchange": 8080,
      "ĠExc": 8081,
      "phin": 8082,
      "ĠAlexander": 8083,
      "ĠRehman": 8084,
      "ĠPID": 8085,
      "ĠHTTP": 8086,
      "ĠMoira": 8087,
      "ĠReyesà¶ľ": 8088,
      "ĠJeon": 8089,
      "ĠKWin": 8090,
      "ĠALIAS": 8091,
      "OPTION": 8092,
      "EST": 8093,
      "ĠRaymond": 8094,
      "Screen": 8095,
      "ĠSWAT": 8096,
      "ĠAfric": 8097,
      "Ġpossible": 8098,
      "rimack": 8099,
      "ĠDickham": 8100,
      "ĠJohanssen": 8101,
      "âĸ¬âĸ¬": 8102,
      "ĠDolphin": 8103,
      "Ġmachine": 8104,
      "ĠÛ©âĺħâĿĦ": 8105,
      "ĠLannister": 8106,
      "Balthazar": 8107,
      "NONE": 8108,
      "siris": 8109,
      "ĠIreland": 8110,
      "Ġdarling": 8111,
      "ĠiCalImp": 8112,
      "41": 8113,
      "91": 8114,
      "AA": 8115,
      "EG": 8116,
      "Fi": 8117,
      "Java": 8118,
      "Lock": 8119,
      "MC": 8120,
      "MV": 8121,
      "Search": 8122,
      "Socket": 8123,
      "cut": 8124,
      "dout": 8125,
      "down": 8126,
      "kes": 8127,
      "lad": 8128,
      "lient": 8129,
      "oon": 8130,
      "oint": 8131,
      "path": 8132,
      "you": 8133,
      "ying": 8134,
      "yoming": 8135,
      "Ġ+": 8136,
      "Ġown": 8137,
      "à¶±à¶ļà¶ļà¶¸": 8138,
      "à·Ģà¶¸à¶Ń": 8139,
      "à¶ļà·Ħà¶»": 8140,
      "à·Ļà·Ļà·Ĭ": 8141,
      "à·Ļà¶Ĥ!": 8142,
      "à¶»à¶´à¶»": 8143,
      "à·Ķ#$%": 8144,
      "Ġà¶¸à¶½à¶¸": 8145,
      "Ġà¶¸à·ħà¶ļ": 8146,
      "Ġà¶¸à¶³à¶ļ": 8147,
      "à·Ħà¶¶": 8148,
      "à·Ħà·Ģà¶»": 8149,
      "à·Ħà¶½à¶¸": 8150,
      "à¶½à¶¸à¶ļà¶§": 8151,
      "à¶§à·Ģà¶±à·Ģ": 8152,
      "à·ĥà¶¸à¶Ń": 8153,
      "à·ĥà¶§à¶¸": 8154,
      "à·ĥà¶½à¶¸": 8155,
      "à·ĥà·Ģà¶±à·Ģ": 8156,
      "à¶¯à¶ļà¶»": 8157,
      "à¶¯à¶ļà¶»à¶±": 8158,
      "à¶¯à¶§à¶º": 8159,
      "Ġà·Ģà¶±à¶ļ": 8160,
      "Ġà·Ģà¶§à¶»": 8161,
      "à·ľà·Ĭ": 8162,
      "à¶ľà¶´à¶±": 8163,
      "Ġà¶±à·Ħà¶ºà¶§": 8164,
      "Ġà·Ħà¶¶à¶½": 8165,
      "à¶´à·Ħà¶½": 8166,
      "à¶´à¶ļà¶»à¶«": 8167,
      "Ġà¶Ńà¶¸à¶Ń": 8168,
      "Ġà·ĥà·ģ": 8169,
      "Ġà·ĥà¶°": 8170,
      "Ġà¶Ĵà¶½": 8171,
      "Ġà¶¶à·ħà¶°": 8172,
      "à¶©à¶©": 8173,
      "à¶©à¶ļà¶»à¶¸": 8174,
      "à·Ŀ(": 8175,
      "à¶¶à¶½à¶§": 8176,
      "à¶¶à·Ħà¶¸": 8177,
      "Ġà¶ĩà¶¯à¶ļ": 8178,
      "Ġà¶ħà¶´à·Ģà¶»": 8179,
      "à¶«à¶¸à¶º": 8180,
      "à¶«à¶±à¶º": 8181,
      "à¶«à¶ļà¶»à¶±": 8182,
      "Ġà¶Ĵà¶ļà¶§à¶±": 8183,
      "Ġà¶ĭà·ĥà¶ļ": 8184,
      "Ġà¶Ĩà¶¸à¶±": 8185,
      "Ġà¶Ĩà¶Ĩà·Ħ": 8186,
      "à·Ĭ,?": 8187,
      "à·ģà¶ļà¶»à¶½": 8188,
      "Ġà¶ķà·Ģà¶ľ": 8189,
      "Ġà¶ķà¶±à¶¸à¶¯": 8190,
      "Ġà¶»à·ĥà¶§": 8191,
      "à¶±à¶¸à¶¯": 8192,
      "à¶Ńà¶±à¶ºà¶ļà¶§": 8193,
      "Ġà¶ĩà¶Ńà¶Ń": 8194,
      "à·Ĥà¶¸à¶§": 8195,
      "à·Ĥà¶ºà¶ļà¶§": 8196,
      "à·Ĥà¶ºà¶Ń": 8197,
      "à¶°à¶ºà¶º": 8198,
      "à·ĸà·Ļ": 8199,
      "à¶»à¶ļà¶Ń": 8200,
      "à¶ļà¶ļà¶§à·Ģà¶Ń": 8201,
      "à¶¢à¶¸à¶º": 8202,
      "Ġà¶ħà·Ģà¶½à¶±": 8203,
      "Ġà¶ļà·Ģà¶½à¶¸": 8204,
      "Ġà¶§à·Ħ": 8205,
      "à·Ģà¶½à¶¸à¶ļ": 8206,
      "à·ļ,.": 8207,
      "à¶ľà¶Ńà¶ļ": 8208,
      "ĠâĢį'...": 8209,
      "Ġà¶ħà·Ħà·Ģ": 8210,
      "Ġà¶ħà·Ħà¶±à¶ļ": 8211,
      "Ġ\",": 8212,
      "à¶®à·Ģà¶Ń": 8213,
      "Ġà·Ģà¶½à·Ħà¶§": 8214,
      "à¶ļà¶ºà·Ģ": 8215,
      "à¶Ńà¶»à¶ºà¶ļà¶§": 8216,
      "Ġà¶łà·Ģ": 8217,
      "Ġà¶ħà¶½à·Ģà¶½": 8218,
      "Ġà¶¸à·Ħà¶¸": 8219,
      "à·Ģà·ĥà¶º": 8220,
      "à·Ģà·ĥà¶»": 8221,
      "à¶½à¶ºà¶¯": 8222,
      "Ġà¶¸à¶»à¶½à¶¯": 8223,
      "à¶·à¶ľà¶¸à¶±": 8224,
      "Ġà¶ļà·ħà¶ľ": 8225,
      "Ġà¶ºà¶±à·Ģà¶ļ": 8226,
      "à¶Ķà¶Ńà¶±": 8227,
      "à¶±à·ĥà¶ļà¶§à¶Ń": 8228,
      "à¶ħà¶§": 8229,
      "à¶ħà·ģ": 8230,
      "à¶ħà¶»à¶ľà¶±": 8231,
      "à¶ħà¶¯à¶¸": 8232,
      "Ġà·Ĩà·ĥ": 8233,
      "Ġà¶īà¶¯à·Ħà¶±": 8234,
      "ĠCat": 8235,
      "ĠCur": 8236,
      "ĠCroat": 8237,
      "Ġà·Ģà¶©à¶¯": 8238,
      "Ġà¶Ĵà¶ļà¶§à¶¯": 8239,
      "à¶»à·Ģà¶ľ": 8240,
      "Ġà¶´à·Ħà¶¯": 8241,
      "Ġà¶ħà¶©à¶´à¶±": 8242,
      "à·Ģà¶¸à¶±à¶º": 8243,
      "Ġà¶¸à¶Ńà¶ļà·Ģà¶Ń": 8244,
      "à¶¯à¶»à¶ºà¶Ń": 8245,
      "Ġinput": 8246,
      "Ġsav": 8247,
      "Ġà¶¸à¶Ńà·Ģ": 8248,
      "Ġà¶ĳà·ħà·Ģ": 8249,
      "Ġà¶ĳà·ħà·Ģà¶±à·Ģ": 8250,
      "ĠMR": 8251,
      "ĠMount": 8252,
      "ĠMAN": 8253,
      "à¶»à·ĥà¶½": 8254,
      "à¶»à·ĥà¶ºà¶§": 8255,
      "Ġà·Ģà¶ºà·ĥà¶Ń": 8256,
      "ĠSA": 8257,
      "ĠSib": 8258,
      "enry": 8259,
      "enby": 8260,
      "Ġ59": 8261,
      "à·ĥà·Ħà¶ļà¶»": 8262,
      "Ġà¶ľà·Ħà¶´à¶½": 8263,
      "ĠDesktop": 8264,
      "ĠDOS": 8265,
      "Ġà¶Ĩà¶¯à¶»à¶ºà¶º": 8266,
      "Ġà¶Ĩà¶¯à¶»à¶ºà¶Ń": 8267,
      "à¶´à¶ºà¶ļà¶§à¶¸": 8268,
      "ĠTar": 8269,
      "ĠTran": 8270,
      "ĠIR": 8271,
      "à¶īà·Ģà¶Ń": 8272,
      "Ġà¶´à·Ħà¶»à¶§": 8273,
      "Ġà¶´à¶§à¶ºà¶ļ": 8274,
      "Ġà·Ģà·ĥà¶Ł": 8275,
      "ĠFif": 8276,
      "ĠFort": 8277,
      "ĠBy": 8278,
      "ĠBur": 8279,
      "ĠPak": 8280,
      "ĠPort": 8281,
      "à¶»à¶°à¶»": 8282,
      "Ġà¶Īà·Ĥà¶»": 8283,
      "ĠRh": 8284,
      "ĠRes": 8285,
      "à¶Ĩà¶»à¶¸": 8286,
      "Ġà¶ļà·ĥà·ħ": 8287,
      "Ġmist": 8288,
      "Ġmove": 8289,
      "ĠGive": 8290,
      "Ġhum": 8291,
      "ĠHo": 8292,
      "ĠHamp": 8293,
      "Ġà·Ħà¶½à¶±à·Ģ": 8294,
      "etch": 8295,
      "ĠWyoming": 8296,
      "Ġtoday": 8297,
      "Ġ73": 8298,
      "Ġà¶¶à¶½à¶±à·Ģà¶§": 8299,
      "Ġ87": 8300,
      "Ġ88": 8301,
      "Ġà¶Ńà¶¯à¶ļà¶»à¶±": 8302,
      "Ġà¶Ńà¶¯à¶¶à¶¯": 8303,
      "ĠJabber": 8304,
      "à·Ģà¶ºà¶§à¶Ń": 8305,
      "uration": 8306,
      "Ġthing": 8307,
      "à¶Ŀà¶ļ": 8308,
      "aster": 8309,
      "à¶ºà·Ģà¶»à·Ģà¶½": 8310,
      "Ġradio": 8311,
      "embour": 8312,
      "sten": 8313,
      "Ġà¶ĩà¶§à¶ºà¶ļ": 8314,
      "à¶¶à¶§à·Ħ": 8315,
      "oclient": 8316,
      "arter": 8317,
      "arters": 8318,
      "avier": 8319,
      "à¶»à¶®à¶ºà¶ļ": 8320,
      "Ġ2500": 8321,
      "Ġà·ĥà¶´à¶ºà¶½": 8322,
      "Ġà·ĥà¶´à¶ºà¶º": 8323,
      "epar": 8324,
      "ĠXavier": 8325,
      "Ġà·Ħà¶¬à¶§": 8326,
      "ipper": 8327,
      "ĠShire": 8328,
      "Ġclose": 8329,
      "Ġlett": 8330,
      "Ġà·Ģà·ħà¶½à¶±": 8331,
      "ivers": 8332,
      "Ġgram": 8333,
      "def": 8334,
      "Ġà¶¯à¶Łà¶»": 8335,
      "Ġ1991": 8336,
      "ĠConst": 8337,
      "à·Ĵ'.": 8338,
      "Ġà¶»à¶³à·Ģà¶±à¶ºà¶ļ": 8339,
      "shire": 8340,
      "Ġasp": 8341,
      "rigi": 8342,
      "ĠAny": 8343,
      "Ġspec": 8344,
      "ĠMIME": 8345,
      "ĠPhill": 8346,
      "Ġreport": 8347,
      "Ġplugins": 8348,
      "uxembour": 8349,
      "ĠWeis": 8350,
      "Ġà¶·à¶§à¶ºà¶±": 8351,
      "ĠUSS": 8352,
      "ĠÂ¿": 8353,
      "à¶Īà¶±": 8354,
      "à¶Ĩà¶¯à¶»à¶«": 8355,
      "ĠEngine": 8356,
      "ĠPlasma": 8357,
      "ĠCCPD": 8358,
      "ĠWilkes": 8359,
      "ĠMcC": 8360,
      "ĠComp": 8361,
      "Ġlocation": 8362,
      "ĠMoz": 8363,
      "ences": 8364,
      "Ġdisplayed": 8365,
      "ĠPrinc": 8366,
      "ĠWhoa": 8367,
      "âĸº": 8368,
      "perty": 8369,
      "Ġà·Ħà¶Łà·Ģà¶±": 8370,
      "ĠAtlant": 8371,
      "ĠOxenby": 8372,
      "Ġcustomize": 8373,
      "izzy": 8374,
      "Ġterminal": 8375,
      "Ġbirthday": 8376,
      "ĠMBA": 8377,
      "Ġà¶ķà¶ķà¶ķ": 8378,
      "ĠMessage": 8379,
      "Ġbrushes": 8380,
      "Support": 8381,
      "Ġwere": 8382,
      "ĠCroatia": 8383,
      "ĠSiberia": 8384,
      "ĠHampshire": 8385,
      "uxembourg": 8386,
      "''": 8387,
      "/%": 8388,
      "//": 8389,
      "46": 8390,
      "5000": 8391,
      "97": 8392,
      "://": 8393,
      "Can": 8394,
      "Hero": 8395,
      "Id": 8396,
      "IFF": 8397,
      "MT": 8398,
      "Not": 8399,
      "Tagg": 8400,
      "UI": 8401,
      "UTF": 8402,
      "YY": 8403,
      "come": 8404,
      "forge": 8405,
      "gu": 8406,
      "hi": 8407,
      "iy": 8408,
      "iet": 8409,
      "lin": 8410,
      "mon": 8411,
      "padd": 8412,
      "source": 8413,
      "src": 8414,
      "tem": 8415,
      "ude": 8416,
      "vi": 8417,
      "xt": 8418,
      "ys": 8419,
      "Ġ\\": 8420,
      "Ġel": 8421,
      "à¶±à¶»à¶¸": 8422,
      "à¶±à¶Ľ": 8423,
      "à¶±NAME": 8424,
      "à·Ĵ/": 8425,
      "à·Ģà¶´à¶Ń": 8426,
      "à·Ģà¶ºà¶§à¶¸": 8427,
      "à¶ºà·Ģà¶§": 8428,
      "à¶ļà¶±à¶ºà¶ļ": 8429,
      "à¶ļà¶¸à¶ļà¶§": 8430,
      "à¶ļà¶¢à¶±à¶ļà¶º": 8431,
      "à·Ļà·Ķ.": 8432,
      "à·Ļà·Ĵ!": 8433,
      "à·Ļà·Ŀ,": 8434,
      "à¶¸à¶ºà¶ļà¶§": 8435,
      "à¶»à¶¸à¶Ń": 8436,
      "à¶»à·ĥà¶ļ": 8437,
      "à·Ķà·Ķ": 8438,
      "à·ļâĪĻâĪĻâĪĻâĪĻ": 8439,
      "Ġà¶¸à¶´": 8440,
      "Ġà¶¸à·Ĩ": 8441,
      "Ġà¶¸à·Ģà¶±à·Ģ": 8442,
      "à·Ħà¶±à·Ģ": 8443,
      "à¶½à¶»à¶º": 8444,
      "à·ĥà¶«à¶º": 8445,
      "à·ĥà¶§à¶»": 8446,
      "à¶¯à·Ģà¶»": 8447,
      "à¶¯à·Ħà·Ģ": 8448,
      "à·Ĳ***": 8449,
      "Ġà·Ģà¶ºà¶§": 8450,
      "Ġà·Ģà¶°à¶ºà¶ļ": 8451,
      "à¶ľà¶ļà¶»": 8452,
      "à¶ľà¶©à¶¸": 8453,
      "à¶ľà¶»à¶ºà¶§": 8454,
      "Ġà·Ħà¶½à¶ļ": 8455,
      "Ġà·Ħà¶§à¶ľ": 8456,
      "à¶´à¶Ńà¶º": 8457,
      "à¶´à¶ºà¶¸": 8458,
      "Ġà·ĥà·ĥ": 8459,
      "Ġà¶ľà·Ģà¶±": 8460,
      "Ġà¶ľà¶ľà¶§": 8461,
      "Ġà¶Ĵà¶§": 8462,
      "Ġà¶¶à¶»à¶§": 8463,
      "Ġà¶¶à·Ħà¶ļ": 8464,
      "à¶©à¶´à¶½": 8465,
      "Ġ---": 8466,
      "à¶¶à¶½à¶¸": 8467,
      "Ġà¶ĳà¶ļà·Ħ": 8468,
      "Ġà¶¸à¶§à·Ģ": 8469,
      "à¶ºà¶±à¶§": 8470,
      "à·ħà¶±à·Ģ": 8471,
      "à·ħà¶Łà¶ļ": 8472,
      "Ġà¶½à¶³": 8473,
      "Ġà¶½à¶§à¶´à¶§": 8474,
      "à·Ģà¶±à¶±": 8475,
      "à·Ģà¶±à¶§": 8476,
      "à·Ģà¶±à¶ºà¶§": 8477,
      "à·Ĭ,âĪĻ": 8478,
      "à¶łà¶ºà¶§": 8479,
      "à¶³à·Ģà¶º": 8480,
      "à¶±à¶¸à¶ļà¶§": 8481,
      "à¶ºà¶§à¶¸à¶º": 8482,
      "Ġà¶¢à¶©": 8483,
      "Ġà¶¢à¶±à¶±": 8484,
      "Ġà¶¶à¶½à¶´à¶½": 8485,
      "Ġà¶Ķà·Ħà¶ľ": 8486,
      "à¶°à·Ģà¶½": 8487,
      "à¶°à¶»à¶«": 8488,
      "Ġà¶¯à¶±à¶ľà¶±": 8489,
      "Ġà¶¯à¶±à¶ľà·Ħà¶±à·Ģ": 8490,
      "à¶»à¶ļà¶ºà¶§": 8491,
      "Ġà¶ľà¶±à¶±à¶º": 8492,
      "Ġà¶ļà·Ģà¶§à¶º": 8493,
      "Ġà¶Ķà¶¶à·Ģà¶Ń": 8494,
      "à¶½à¶§à·Ģà¶Ń": 8495,
      "à¶¸à¶¯à¶ļ": 8496,
      "Ġà¶ĳà¶´à¶¸à¶«à¶º": 8497,
      "à·Ģà¶½à¶ļà¶¸à¶ļ": 8498,
      "à¶Łà¶»à¶§": 8499,
      "à¶¯à¶»à·Ģà¶Ń": 8500,
      "à¶¹à¶³": 8501,
      "à¶Ńà¶ļà¶¸à¶§": 8502,
      "Ġà¶ħà¶¯à·ħ": 8503,
      "Ġà¶©à¶©": 8504,
      "à¶ļà¶ºà¶ľ": 8505,
      "Ġà·Ħà¶¸à¶±à·Ģ": 8506,
      "Ġà¶ļà¶»à¶½à¶±": 8507,
      "Ġà·ĥà¶»à¶Ń": 8508,
      "Ġà·ĥà¶»à·ĥ": 8509,
      "Ġà·ĥà¶»à·ħ": 8510,
      "inus": 8511,
      "ined": 8512,
      "à¶ħà¶»à¶ļ": 8513,
      "à¶ħà¶¯à·Ħà·ĥ": 8514,
      "Ġà·Ĩà¶ļ": 8515,
      "ĠCut": 8516,
      "ĠCass": 8517,
      "Ġà¶ļà¶§à¶ĭà¶Ń": 8518,
      "à¶łà¶»à·Ģ": 8519,
      "à·ĺ:": 8520,
      "à·Ĵà¶ĤâĪĻâĪĻâĪĻ": 8521,
      "Ġà¶·à¶ľ": 8522,
      "Ġà¶·à¶ºà¶ļ": 8523,
      "any": 8524,
      "à·ĥà¶»à¶§": 8525,
      "ital": 8526,
      "à¶ĳà¶¸à¶½": 8527,
      "Ġà¶Ńà¶»à¶´": 8528,
      "Ġà¶Ńà¶»à·Ģà¶§": 8529,
      "Ġà·ĥà¶¸à·Ħà¶»à¶¯": 8530,
      "à¶Ńà¶¸à¶ºà¶±": 8531,
      "à¶Ńà¶¸à¶±à¶º": 8532,
      "Ġtachyon": 8533,
      "à¶¯à¶»à¶ºà¶º": 8534,
      "Ġà¶ĭà¶´à¶ºà¶ľà¶±": 8535,
      "Ġinter": 8536,
      "Ġinsert": 8537,
      "ora": 8538,
      "Ġà·Ģà¶»à·Ħà¶±": 8539,
      "Ġà¶īà¶³à·Ħà¶±": 8540,
      "Ġà¶īà¶³à¶½à¶Ń": 8541,
      "ardit": 8542,
      "ĠâĻ¥": 8543,
      "à¶»à¶½à¶½": 8544,
      "à·ĬâĢįâĢįâĢį": 8545,
      "Ġà¶ĳà¶Ńà¶±à¶Ń": 8546,
      "Ġsil": 8547,
[...]
