{
  "version": "1.0",
  "truncation": null,
  "padding": null,
  "added_tokens": [
    {
      "id": 0,
      "content": "[PAD]",
      "single_word": false,
      "lstrip": false,
      "rstrip": false,
      "normalized": false,
      "special": true
    },
    {
      "id": 1,
      "content": "[UNK]",
      "single_word": false,
      "lstrip": false,
      "rstrip": false,
      "normalized": false,
      "special": true
    },
    {
      "id": 2,
      "content": "[BOS]",
      "single_word": false,
      "lstrip": false,
      "rstrip": false,
      "normalized": false,
      "special": true
    },
    {
      "id": 3,
      "content": "[EOS]",
      "single_word": false,
      "lstrip": false,
      "rstrip": false,
      "normalized": false,
      "special": true
    }
  ],
  "normalizer": null,
  "pre_tokenizer": {
    "type": "Whitespace"
  },
  "post_processor": null,
  "decoder": null,
  "model": {
    "type": "BPE",
    "dropout": null,
    "unk_token": "[UNK]",
    "continuing_subword_prefix": null,
    "end_of_word_suffix": null,
    "fuse_unk": false,
    "byte_fallback": false,
    "ignore_merges": false,
    "vocab": {
      "[PAD]": 0,
      "[UNK]": 1,
      "[BOS]": 2,
      "[EOS]": 3,
      "!": 4,
      "\"": 5,
      "#": 6,
      "$": 7,
      "%": 8,
      "&": 9,
      "'": 10,
      "(": 11,
      ")": 12,
      "*": 13,
      "+": 14,
      ",": 15,
      "-": 16,
      ".": 17,
      "/": 18,
      "0": 19,
      "1": 20,
      "2": 21,
      "3": 22,
      "4": 23,
      "5": 24,
      "6": 25,
      "7": 26,
      "8": 27,
      "9": 28,
      ":": 29,
      ";": 30,
      "<": 31,
      "=": 32,
      ">": 33,
      "?": 34,
      "@": 35,
      "A": 36,
      "B": 37,
      "C": 38,
      "D": 39,
      "E": 40,
      "F": 41,
      "G": 42,
      "H": 43,
      "I": 44,
      "J": 45,
      "K": 46,
      "L": 47,
      "M": 48,
      "N": 49,
      "O": 50,
      "P": 51,
      "Q": 52,
      "R": 53,
      "S": 54,
      "T": 55,
      "U": 56,
      "V": 57,
      "W": 58,
      "X": 59,
      "Y": 60,
      "Z": 61,
      "[": 62,
      "\\": 63,
      "]": 64,
      "^": 65,
      "_": 66,
      "`": 67,
      "a": 68,
      "b": 69,
      "c": 70,
      "d": 71,
      "e": 72,
      "f": 73,
      "g": 74,
      "h": 75,
      "i": 76,
      "j": 77,
      "k": 78,
      "l": 79,
      "m": 80,
      "n": 81,
      "o": 82,
      "p": 83,
      "q": 84,
      "r": 85,
      "s": 86,
      "t": 87,
      "u": 88,
      "v": 89,
      "w": 90,
      "x": 91,
      "y": 92,
      "z": 93,
      "{": 94,
      "}": 95,
      "~": 96,
      "": 97,
      "": 98,
      "¡": 99,
      "£": 100,
      "©": 101,
      "­": 102,
      "®": 103,
      "°": 104,
      "²": 105,
      "³": 106,
      "¹": 107,
      "½": 108,
      "¿": 109,
      "Á": 110,
      "Ç": 111,
      "È": 112,
      "Î": 113,
      "×": 114,
      "Ø": 115,
      "Ý": 116,
      "à": 117,
      "á": 118,
      "â": 119,
      "ã": 120,
      "ä": 121,
      "ç": 122,
      "è": 123,
      "é": 124,
      "ë": 125,
      "í": 126,
      "î": 127,
      "ï": 128,
      "ñ": 129,
      "ó": 130,
      "ô": 131,
      "õ": 132,
      "ö": 133,
      "ø": 134,
      "û": 135,
      "ü": 136,
      "Ā": 137,
      "ā": 138,
      "ň": 139,
      "ő": 140,
      "š": 141,
      "˚": 142,
      "μ": 143,
      "҉": 144,
      "۩": 145,
      "ං": 146,
      "ඃ": 147,
      "අ": 148,
      "ආ": 149,
      "ඇ": 150,
      "ඈ": 151,
      "ඉ": 152,
      "ඊ": 153,
      "උ": 154,
      "ඌ": 155,
      "ඍ": 156,
      "එ": 157,
      "ඒ": 158,
      "ඓ": 159,
      "ඔ": 160,
      "ඕ": 161,
      "ඖ": 162,
      "ක": 163,
      "ඛ": 164,
      "ග": 165,
      "ඝ": 166,
      "ඞ": 167,
      "ඟ": 168,
      "ච": 169,
      "ඡ": 170,
      "ජ": 171,
      "ඣ": 172,
      "ඤ": 173,
      "ඥ": 174,
      "ඦ": 175,
      "ට": 176,
      "ඨ": 177,
      "ඩ": 178,
      "ඪ": 179,
      "ණ": 180,
      "ඬ": 181,
      "ත": 182,
      "ථ": 183,
      "ද": 184,
      "ධ": 185,
      "න": 186,
      "ඳ": 187,
      "ප": 188,
      "ඵ": 189,
      "බ": 190,
      "භ": 191,
      "ම": 192,
      "ඹ": 193,
      "ය": 194,
      "ර": 195,
      "ල": 196,
      "ව": 197,
      "ශ": 198,
      "ෂ": 199,
      "ස": 200,
      "හ": 201,
      "ළ": 202,
      "ෆ": 203,
      "්": 204,
      "ා": 205,
      "ැ": 206,
      "ෑ": 207,
      "ි": 208,
      "ී": 209,
      "ු": 210,
      "ූ": 211,
      "ෘ": 212,
      "ෙ": 213,
      "ේ": 214,
      "ෛ": 215,
      "ො": 216,
      "ෝ": 217,
      "ෞ": 218,
      "ෟ": 219,
      "ෲ": 220,
      "ෳ": 221,
      "෴": 222,
      "๑": 223,
      "​": 224,
      "‌": 225,
      "‍": 226,
      "–": 227,
      "—": 228,
      "‘": 229,
      "’": 230,
      "“": 231,
      "”": 232,
      "•": 233,
      "…": 234,
      "‭": 235,
      "⁻": 236,
      "€": 237,
      "™": 238,
      "→": 239,
      "∙": 240,
      "∞": 241,
      "≡": 242,
      "⋆": 243,
      "⌨": 244,
      "⏩": 245,
      "■": 246,
      "▬": 247,
      "►": 248,
      "◄": 249,
      "●": 250,
      "◢": 251,
      "◣": 252,
      "★": 253,
      "☭": 254,
      "☯": 255,
      "☺": 256,
      "☻": 257,
      "♞": 258,
      "♠": 259,
      "♣": 260,
      "♥": 261,
      "♦": 262,
      "♩": 263,
      "♪": 264,
      "♫": 265,
      "♬": 266,
      "✎": 267,
      "❃": 268,
      "❄": 269,
      "❖": 270,
      "？": 271,
      "�": 272,
      "න්": 273,
      "න්න": 274,
      "ක්": 275,
      "යා": 276,
      "ිය": 277,
      "ත්": 278,
      "යි": 279,
      "ඔයා": 280,
      "වා": 281,
      "..": 282,
      "වෙ": 283,
      "කර": 284,
      "ලා": 285,
      "ම්": 286,
      "ස්": 287,
      "මම": 288,
      "ගේ": 289,
      "වි": 290,
      "කිය": 291,
      "ෙන": 292,
      "පි": 293,
      "ුව": 294,
      "ල්": 295,
      "මේ": 296,
      "රි": 297,
      "ති": 298,
      "මට": 299,
      "නි": 300,
      "න්නේ": 301,
      "හැ": 302,
      "ඒක": 303,
      "හි": 304,
      "ත්ත": 305,
      "එක": 306,
      "ර්": 307,
      "හො": 308,
      "නැ": 309,
      "...": 310,
      "එයා": 311,
      "මා": 312,
      "වු": 313,
      "නවා": 314,
      "මො": 315,
      "තිය": 316,
      "අපි": 317,
      "නේ": 318,
      "නා": 319,
      "දෙ": 320,
      "කො": 321,
      "කරන්න": 322,
      "පු": 323,
      "නෑ": 324,
      "කි": 325,
      "තු": 326,
      "ැන": 327,
      "්‍": 328,
      "යක්": 329,
      "ගන්න": 330,
      "රු": 331,
      "කා": 332,
      "මෙ": 333,
      "ගෙ": 334,
      "දි": 335,
      "තා": 336,
      "හෙ": 337,
      "මු": 338,
      "ව්": 339,
      "ලි": 340,
      "සි": 341,
      "ඔයාට": 342,
      "වැ": 343,
      "නව": 344,
      "පා": 345,
      "හු": 346,
      "හරි": 347,
      "කියලා": 348,
      "මි": 349,
      "දු": 350,
      "න්නෙ": 351,
      "ෙන්": 352,
      "මොක": 353,
      "්‍ර": 354,
      "ස්ස": 355,
      "නෙ": 356,
      "දැ": 357,
      "දා": 358,
      "මගේ": 359,
      "ෙක්": 360,
      "ල්ල": 361,
      "ද්": 362,
      "වෙන්න": 363,
      "ටි": 364,
      "ඉන්න": 365,
      "ක්ක": 366,
      "නම්": 367,
      "මයි": 368,
      "ගැන": 369,
      "තර": 370,
      "සා": 371,
      "කු": 372,
      "හා": 373,
      "වේ": 374,
      "ට්": 375,
      "ුවන්": 376,
      "වගේ": 377,
      "යන්න": 378,
      "වත්": 379,
      "හිත": 380,
      "බල": 381,
      "දේ": 382,
      "මේක": 383,
      "වෙලා": 384,
      "ගෙන": 385,
      "ගි": 386,
      "සු": 387,
      "ප්‍ර": 388,
      "වැඩ": 389,
      "නැහැ": 390,
      "වෙන": 391,
      "දැන්": 392,
      "රා": 393,
      "මං": 394,
      "ඔබ": 395,
      "පො": 396,
      "දන්න": 397,
      "ටම": 398,
      "ෙනවා": 399,
      "නය": 400,
      "වල": 401,
      "පැ": 402,
      "හොඳ": 403,
      "කට": 404,
      "දර": 405,
      "ඔහු": 406,
      "බැ": 407,
      "හැම": 408,
      "එක්ක": 409,
      "කැ": 410,
      "මැ": 411,
      "හේ": 412,
      "ශ්": 413,
      "ියට": 414,
      "ඩි": 415,
      "අපිට": 416,
      "ගො": 417,
      "ගත්ත": 418,
      "දෙන්න": 419,
      "ද්ද": 420,
      "අප": 421,
      "හර": 422,
      "ලේ": 423,
      "මක්": 424,
      "මිනි": 425,
      "තන": 426,
      "අර": 427,
      "හොම": 428,
      "ච්": 429,
      "දෙයක්": 430,
      "රී": 431,
      "ඔයාගේ": 432,
      "ඒත්": 433,
      "එපා": 434,
      "ඕන": 435,
      "එන්න": 436,
      "ලින්": 437,
      "රය": 438,
      "කෙන": 439,
      "එහෙ": 440,
      "කතා": 441,
      "නු": 442,
      "කියන්න": 443,
      "මාව": 444,
      "ක්ෂ": 445,
      "තේ": 446,
      "පුළ": 447,
      "තමයි": 448,
      "නවද": 449,
      "කවු": 450,
      "කියල": 451,
      "කිව්": 452,
      "අව": 453,
      "ඔව්": 454,
      "ඩ්": 455,
      "ඇය": 456,
      "ටිය": 457,
      "නො": 458,
      "ඩා": 459,
      "පුළුවන්": 460,
      "සහ": 461,
      "ච්ච": 462,
      "මොකක්": 463,
      "දැන": 464,
      "මොකද": 465,
      "ඇත්ත": 466,
      "වද": 467,
      "කොහොම": 468,
      "ඕනේ": 469,
      "හ්": 470,
      "තියෙ": 471,
      "බු": 472,
      "වෙනවා": 473,
      "ාව": 474,
      "ලු": 475,
      "වෙයි": 476,
      "බලන්න": 477,
      "එහෙම": 478,
      "කරනවා": 479,
      "ඇයි": 480,
      "කෝ": 481,
      "තියෙනවා": 482,
      "බා": 483,
      "සැ": 484,
      "පස්ස": 485,
      "ඩක්": 486,
      "ඇති": 487,
      "වර": 488,
      "යේ": 489,
      "ලැ": 490,
      "යට": 491,
      "බි": 492,
      "නිය": 493,
      "කෙ": 494,
      "එකක්": 495,
      "මන්": 496,
      "වන්න": 497,
      "ප්": 498,
      "ණා": 499,
      "බෑ": 500,
      "ලෝ": 501,
      "කොහොමද": 502,
      "වී": 503,
      "ඉති": 504,
      "උඹ": 505,
      "ළු": 506,
      "ලට": 507,
      "අහ": 508,
      "හොද": 509,
      "සම": 510,
      "දී": 511,
      "මෙහෙ": 512,
      "වුන්": 513,
      "ක්‍": 514,
      "කොට": 515,
      "යු": 516,
      "කරලා": 517,
      "නැති": 518,
      "වාස": 519,
      "ඔයාගෙ": 520,
      "කරන්නේ": 521,
      "වෙන්": 522,
      "∙∙": 523,
      "ම්බ": 524,
      "ටික": 525,
      "තුව": 526,
      "රෙ": 527,
      "ත්‍": 528,
      "ලො": 529,
      "අපේ": 530,
      "මත": 531,
      "ණය": 532,
      "ඔයාව": 533,
      "තව": 534,
      "පුල": 535,
      "ටු": 536,
      "මර": 537,
      "ඔවුන්": 538,
      "තාත්ත": 539,
      "එයාට": 540,
      "විතර": 541,
      "කේ": 542,
      "ගැ": 543,
      "බො": 544,
      "බ්": 545,
      "න්ද": 546,
      "දන්නවා": 547,
      "ලෙ": 548,
      "වට": 549,
      "සේ": 550,
      "කය": 551,
      "මොකක්ද": 552,
      "වක්": 553,
      "කෙනෙක්": 554,
      "දව": 555,
      "අද": 556,
      "සර්": 557,
      "ඔය": 558,
      "ගා": 559,
      "පුලුවන්": 560,
      "්‍ය": 561,
      "ස්සු": 562,
      "මෙතන": 563,
      "ණු": 564,
      "කැම": 565,
      "තියි": 566,
      "උද": 567,
      "in": 568,
      "සෙ": 569,
      "විය": 570,
      "ජී": 571,
      "පෙ": 572,
      "ඉන්නේ": 573,
      "කලා": 574,
      "විශ්": 575,
      "ගොඩක්": 576,
      "කව": 577,
      "න්ට": 578,
      "ආර": 579,
      "තියෙන": 580,
      "කළ": 581,
      "රැ": 582,
      "වල්": 583,
      "සිය": 584,
      "තැන": 585,
      "බලා": 586,
      "අය": 587,
      "හොයා": 588,
      "නිසා": 589,
      "අවු": 590,
      "කිසි": 591,
      "හොඳයි": 592,
      "මහ": 593,
      "ුවේ": 594,
      "ගු": 595,
      "කියන්නේ": 596,
      "යනවා": 597,
      "ඉතින්": 598,
      "විද": 599,
      "හිටිය": 600,
      "වුනා": 601,
      "වගේම": 602,
      "සමා": 603,
      "කරන": 604,
      "විශ්වාස": 605,
      "ඇතු": 606,
      "නී": 607,
      "වලට": 608,
      "වය": 609,
      "අම්": 610,
      "කම්": 611,
      "ච්චර": 612,
      "තියෙන්නේ": 613,
      "රො": 614,
      "හෙන": 615,
      "ගත්තා": 616,
      "කවුද": 617,
      "කොහෙ": 618,
      "නේද": 619,
      "ඉන්නවා": 620,
      "මගෙ": 621,
      "කින්": 622,
      "ටන්": 623,
      "ඩු": 624,
      "මත්": 625,
      "බේ": 626,
      "කරු": 627,
      "ජි": 628,
      "රිය": 629,
      "විදි": 630,
      "කලින්": 631,
      "වෙන්නේ": 632,
      "යෙන්": 633,
      "මොනවද": 634,
      "හින්": 635,
      "දෙන": 636,
      "ඕනෙ": 637,
      "ොත්": 638,
      "රේ": 639,
      "ුවක්": 640,
      "ද්ධ": 641,
      "දන්නේ": 642,
      "එයාව": 643,
      "ඇත්තටම": 644,
      "සන්": 645,
      "යන්නේ": 646,
      "ලිය": 647,
      "පහු": 648,
      "ධා": 649,
      "අයි": 650,
      "කී": 651,
      "උදව්": 652,
      "බෙ": 653,
      "මිනිස්සු": 654,
      "එයාල": 655,
      "නෙවෙයි": 656,
      "පේ": 657,
      "ප්‍රශ්": 658,
      "ග්": 659,
      "ආදර": 660,
      "අනි": 661,
      "ක්ම": 662,
      "හිතන්නේ": 663,
      "නයක්": 664,
      "ගිය": 665,
      "an": 666,
      "සං": 667,
      "ටර්": 668,
      "er": 669,
      "එකට": 670,
      "තිබු": 671,
      "කියන": 672,
      "ලය": 673,
      "තුරු": 674,
      "සී": 675,
      "ස්ථ": 676,
      "ගෙදර": 677,
      "කාර": 678,
      "it": 679,
      "තුර": 680,
      "ඒකට": 681,
      "මොන": 682,
      "වඩා": 683,
      "on": 684,
      "විතරයි": 685,
      "මතක": 686,
      "බෝ": 687,
      "ආපහු": 688,
      "රෝ": 689,
      "දේවල්": 690,
      "හෝ": 691,
      "‍ය": 692,
      "එහෙන": 693,
      "ත්ම": 694,
      "ුවෙන්": 695,
      "ලක්": 696,
      "විට": 697,
      "නින්": 698,
      "පරි": 699,
      "පාර": 700,
      "තය": 701,
      "ටිකක්": 702,
      "හට": 703,
      "ණ්": 704,
      "අල්ල": 705,
      "නම": 706,
      "කරන්නෙ": 707,
      "ගන්නවා": 708,
      "ල්ලා": 709,
      "ගිහින්": 710,
      "දුව": 711,
      "කවදා": 712,
      "ගෙන්": 713,
      "එහෙනම්": 714,
      "ගෝ": 715,
      "කෑ": 716,
      "ගහ": 717,
      "සමහර": 718,
      "වෙනුවෙන්": 719,
      "කාර්": 720,
      "ගියා": 721,
      "කන්": 722,
      "එත": 723,
      "කැමති": 724,
      "ලී": 725,
      "ඉවර": 726,
      "දුර": 727,
      "ල්ලි": 728,
      "අත": 729,
      "තමු": 730,
      "සමාවෙන්න": 731,
      "ආරක්ෂ": 732,
      "සක්": 733,
      "කල": 734,
      "පැත්ත": 735,
      "පස්සේ": 736,
      "පන්": 737,
      "මී": 738,
      "එයාලා": 739,
      "me": 740,
      "එයාගේ": 741,
      "ණි": 742,
      "යෙ": 743,
      "ඔබට": 744,
      "නට": 745,
      "රියා": 746,
      "පිට": 747,
      "කරා": 748,
      "පහ": 749,
      "තේරු": 750,
      "කිව්වා": 751,
      "මින්": 752,
      "දෙක": 753,
      "ඒවා": 754,
      "00": 755,
      "කිසිම": 756,
      "නැත්ත": 757,
      "මෝ": 758,
      "කවුරු": 759,
      "තමා": 760,
      "ජීවි": 761,
      "නැද්ද": 762,
      "කිරී": 763,
      "ඇවි": 764,
      "එකේ": 765,
      "සතු": 766,
      "බැරි": 767,
      "වර්": 768,
      "ළි": 769,
      "ඉක්ම": 770,
      "අහන්න": 771,
      "ඔක්": 772,
      "ෂ්": 773,
      "හැමෝ": 774,
      "කල්": 775,
      "චි": 776,
      "බැහැ": 777,
      "සම්": 778,
      "ලොකු": 779,
      "මොනා": 780,
      "චා": 781,
      "ඕනා": 782,
      "පර": 783,
      "යන": 784,
      "උනා": 785,
      "මුත්": 786,
      "කියන්නෙ": 787,
      "කාරය": 788,
      "ට්ට": 789,
      "කවදාවත්": 790,
      "කොහෙද": 791,
      "අවුරු": 792,
      "විනා": 793,
      "නමුත්": 794,
      "එනවා": 795,
      "හොදයි": 796,
      "ඔයාල": 797,
      "්‍යා": 798,
      "උන්": 799,
      "වයි": 800,
      "ඳු": 801,
      "හද": 802,
      "තාත්තා": 803,
      "ොර": 804,
      "යමු": 805,
      "වන්": 806,
      "එය": 807,
      "වැර": 808,
      "මෙයා": 809,
      "පොඩි": 810,
      "ඔහ්": 811,
      "තිබ්": 812,
      "හේයි": 813,
      "∙∙∙": 814,
      "එතකොට": 815,
      "යෝ": 816,
      "තත්": 817,
      "or": 818,
      "හස්": 819,
      "තූ": 820,
      "යන්": 821,
      "නැව": 822,
      "දෙවිය": 823,
      "ුවට": 824,
      "කලේ": 825,
      "භා": 826,
      "විශ": 827,
      "th": 828,
      "ඔක්කො": 829,
      "වෙනස්": 830,
      "අන්": 831,
      "වුනේ": 832,
      "ත්තු": 833,
      "ගත": 834,
      "නැත්": 835,
      "ඉන්නෙ": 836,
      "රම": 837,
      "පත්": 838,
      "වලින්": 839,
      "දාන්න": 840,
      "කෙල්ල": 841,
      "ියක්": 842,
      "ස්ට": 843,
      "බය": 844,
      "නෝ": 845,
      "ජා": 846,
      "කරගන්න": 847,
      "මොකද්ද": 848,
      "නක්": 849,
      "රෑ": 850,
      "ඔයාලා": 851,
      "අත්": 852,
      "වෙන්නෙ": 853,
      "අන": 854,
      "පූ": 855,
      "වන": 856,
      "ඉඳ": 857,
      "කළා": 858,
      "දන්නවද": 859,
      "හරියට": 860,
      "කරුණා": 861,
      "ar": 862,
      "ඔක්කොම": 863,
      "වහ": 864,
      "ඉද": 865,
      "හිටියේ": 866,
      "උත්": 867,
      "එල": 868,
      "රක": 869,
      "කොල්ල": 870,
      "තියනවා": 871,
      "තරම්": 872,
      ".\"": 873,
      "තියෙන්නෙ": 874,
      "මෙයි": 875,
      "වැඩි": 876,
      "තියා": 877,
      "දැක්ක": 878,
      "වනේ": 879,
      "සල්ලි": 880,
      "නැත්නම්": 881,
      "ත්‍ර": 882,
      "ස්තු": 883,
      "අනේ": 884,
      "විදිහට": 885,
      "තී": 886,
      "හිතන්නෙ": 887,
      "න්ධ": 888,
      "හුව": 889,
      "අවුරුදු": 890,
      "ශ්‍ය": 891,
      "ංග": 892,
      "නෙමෙයි": 893,
      "ආවේ": 894,
      "මොනවා": 895,
      "කිව්වේ": 896,
      "කරපු": 897,
      "දිය": 898,
      "සට": 899,
      "පොරො": 900,
      "රුව": 901,
      "සම්බ": 902,
      "පටන්": 903,
      "දුන්න": 904,
      "ටද": 905,
      "නියමයි": 906,
      "ඔහේ": 907,
      "කෙනා": 908,
      "වෙලාව": 909,
      "ඔබේ": 910,
      "හමු": 911,
      "ටියා": 912,
      "යෙක්": 913,
      "කුත්": 914,
      "ජේ": 915,
      "ින්": 916,
      "තැ": 917,
      "මූ": 918,
      "යින්": 919,
      "ඩො": 920,
      "ීම": 921,
      "හැකි": 922,
      "වැඩක්": 923,
      "දිහා": 924,
      "හම්බ": 925,
      "ෆ්": 926,
      "එකම": 927,
      "උප": 928,
      "යුතු": 929,
      "වාර්": 930,
      "ගය": 931,
      "ඊට": 932,
      "පිරි": 933,
      "යන්නෙ": 934,
      "බව": 935,
      "පස්සෙ": 936,
      "මැරු": 937,
      "හොයාගන්න": 938,
      "සයි": 939,
      "එතන": 940,
      "පාල": 941,
      "නත්": 942,
      "ස්ථා": 943,
      "එලියට": 944,
      "හරිද": 945,
      "ඔහුට": 946,
      "පොඩ්": 947,
      "ස්තූ": 948,
      "සො": 949,
      "අපිව": 950,
      "දන්නෙ": 951,
      "අවශ්‍ය": 952,
      "ලග": 953,
      "නවත්ත": 954,
      "විදියට": 955,
      "මාරු": 956,
      "හැමෝම": 957,
      "at": 958,
      "ග්‍ර": 959,
      "ඇවිත්": 960,
      "රෙන්න": 961,
      "ලැබු": 962,
      "පී": 963,
      "තෝ": 964,
      "ඕනි": 965,
      "කමක්": 966,
      "දැනගන්න": 967,
      "වෙඩි": 968,
      "සුන්": 969,
      "සම්බන්ධ": 970,
      "සර": 971,
      "කොච්චර": 972,
      "ity": 973,
      "නැතුව": 974,
      "පරී": 975,
      "රාජ": 976,
      "කරල": 977,
      "ක්කා": 978,
      "එයාගෙ": 979,
      "වෙනි": 980,
      "එළ": 981,
      "අරගෙන": 982,
      "කාල": 983,
      "es": 984,
      "යක": 985,
      "ou": 986,
      "නවත්": 987,
      "අරන්": 988,
      "ටින්": 989,
      "පැහැ": 990,
      "City": 991,
      "හිටියා": 992,
      "පිළි": 993,
      "අම්මා": 994,
      "දකි": 995,
      "හොදි": 996,
      "ණයක්": 997,
      "පිය": 998,
      "පුතා": 999,
      "ගමන්": 1000,
      "ලස්ස": 1001,
      "අතර": 1002,
      "කියනවා": 1003,
      "අඩු": 1004,
      "හම": 1005,
      "මොනාද": 1006,
      "මෙහේ": 1007,
      "ච්චි": 1008,
      "වෙක්": 1009,
      "හිට": 1010,
      "හරිය": 1011,
      "වාහ": 1012,
      "ame": 1013,
      "නරක": 1014,
      "අං": 1015,
      "ප්‍රති": 1016,
      "පොලි": 1017,
      "උබ": 1018,
      "හිතු": 1019,
      "පොඩ්ඩක්": 1020,
      "සෑ": 1021,
      "ඒයි": 1022,
      "en": 1023,
      "නයි": 1024,
      "ජැ": 1025,
      "එන": 1026,
      "කැමතියි": 1027,
      "ඩිය": 1028,
      "වැඩේ": 1029,
      "මෙන්": 1030,
      "ලබා": 1031,
      "‍‍": 1032,
      "තවත්": 1033,
      "පවු": 1034,
      "ගත්": 1035,
      "කම": 1036,
      "ඒකෙන්": 1037,
      "වෙනව": 1038,
      "ක්‍රියා": 1039,
      "පෙන": 1040,
      "කට්": 1041,
      "ධි": 1042,
      "පැන": 1043,
      "දහ": 1044,
      "වම": 1045,
      "න්‍ය": 1046,
      "නග": 1047,
      "පරීක්ෂ": 1048,
      "දෙනවා": 1049,
      "සහෝ": 1050,
      "ගාව": 1051,
      "ස්තුතියි": 1052,
      "එත්": 1053,
      "සල": 1054,
      "st": 1055,
      "මාර්": 1056,
      "වැරදි": 1057,
      "උඩ": 1058,
      "ෙන්ම": 1059,
      "කඩ": 1060,
      "උනේ": 1061,
      "ඉඩ": 1062,
      "කණ්": 1063,
      "ළඟ": 1064,
      "ඇයට": 1065,
      "ඔහුව": 1066,
      "සමහරවිට": 1067,
      "ලඟ": 1068,
      "ගත්තේ": 1069,
      "නියම": 1070,
      "නෙමේ": 1071,
      "ඩාය": 1072,
      "කයි": 1073,
      "න්ඩ": 1074,
      "අන්ති": 1075,
      "ඉස්ස": 1076,
      "කාට": 1077,
      "එයාලට": 1078,
      "පූර්": 1079,
      "ආවා": 1080,
      "තාව": 1081,
      "ලෑ": 1082,
      "පත": 1083,
      "සිද්ධ": 1084,
      "ස්තූතියි": 1085,
      "හිර": 1086,
      "ඕක": 1087,
      "න්ව": 1088,
      "ඇතුලට": 1089,
      "යයි": 1090,
      "තියන්න": 1091,
      "ඇහු": 1092,
      "මිය": 1093,
      "මෙන්න": 1094,
      "kg": 1095,
      "අනිත්": 1096,
      "නැවත": 1097,
      "kgm": 1098,
      "සූ": 1099,
      "ඉක්මනට": 1100,
      "ශා": 1101,
      "සින්": 1102,
      "පෙන්": 1103,
      "පසු": 1104,
      "මෝඩ": 1105,
      "කොහේ": 1106,
      "ඉදි": 1107,
      "පල": 1108,
      "කියලද": 1109,
      "සඳ": 1110,
      "බොරු": 1111,
      "කරුණාකරලා": 1112,
      "එච්චර": 1113,
      "වුණා": 1114,
      "මය": 1115,
      "වේවි": 1116,
      "කර්": 1117,
      "නොත්": 1118,
      "ජැක්": 1119,
      "බී": 1120,
      "ගොඩ": 1121,
      "ලයි": 1122,
      "හිතන්න": 1123,
      "දෙයක්ම": 1124,
      "ෝන්": 1125,
      "මරන්න": 1126,
      "ෙයි": 1127,
      "හිතනවා": 1128,
      "දිග": 1129,
      "දන්නව": 1130,
      "ාවක්": 1131,
      "කිව්වෙ": 1132,
      "ලුව": 1133,
      "දේශ": 1134,
      "ටුයි": 1135,
      "ජ්": 1136,
      "සහෝදර": 1137,
      "අලු": 1138,
      "ආයෙ": 1139,
      "කණ්ඩාය": 1140,
      "ඔයාලට": 1141,
      "අමතක": 1142,
      "දේම": 1143,
      "මාත්": 1144,
      "ණේ": 1145,
      "මගු": 1146,
      "ස්තර": 1147,
      "ඉවරයි": 1148,
      "කරනව": 1149,
      "එකෙන්": 1150,
      "සෙල්ල": 1151,
      "කුණු": 1152,
      "ජීවත්": 1153,
      "පිස්සු": 1154,
      "දාලා": 1155,
      "තාම": 1156,
      "ළුව": 1157,
      "ේෂ": 1158,
      "අයින්": 1159,
      "මෙත": 1160,
      "ශි": 1161,
      "විහි": 1162,
      "ගයක්": 1163,
      "නැගි": 1164,
      "සක": 1165,
      "න්දු": 1166,
      "ජන": 1167,
      "තියන": 1168,
      "ඔහුගේ": 1169,
      "ඇයව": 1170,
      "බේර": 1171,
      "වනවා": 1172,
      "ස්ති": 1173,
      "මොනව": 1174,
      "ඇම": 1175,
      "කරන්නම්": 1176,
      "වීම": 1177,
      "එක්": 1178,
      "වැඩිය": 1179,
      "තුමා": 1180,
      "පර්": 1181,
      "මහත්ත": 1182,
      "සාමා": 1183,
      "ටත්": 1184,
      "සෝ": 1185,
      "දොර": 1186,
      "--": 1187,
      "al": 1188,
      "රිකා": 1189,
      "කිව්ව": 1190,
      "තුවක්ක": 1191,
      "අදහ": 1192,
      "තමුසෙ": 1193,
      "ගන්නේ": 1194,
      "හොඳින්": 1195,
      "ියේ": 1196,
      "ඉතිං": 1197,
      "හරිම": 1198,
      "ගී": 1199,
      "යො": 1200,
      "පෙන්න": 1201,
      "කරදර": 1202,
      "රයක්": 1203,
      "න්ගේ": 1204,
      "දැම්": 1205,
      "බලාගෙන": 1206,
      "ඉස්සර": 1207,
      "ටෙ": 1208,
      "කන්න": 1209,
      "උඹට": 1210,
      "මුහු": 1211,
      "ලර්": 1212,
      "ගම": 1213,
      "කථ": 1214,
      "කරයි": 1215,
      "ඉල්ල": 1216,
      "ප්‍රශ්නයක්": 1217,
      "Name": 1218,
      "අනු": 1219,
      "යාව": 1220,
      "රට": 1221,
      "මුද": 1222,
      "පුදු": 1223,
      "දය": 1224,
      "තාත්තේ": 1225,
      "වො": 1226,
      "විනාශ": 1227,
      "කෑම": 1228,
      "සම්පූර්": 1229,
      "පැහැදි": 1230,
      "තේරුම්": 1231,
      "වෘ": 1232,
      "ion": 1233,
      "එකතු": 1234,
      "පුලුවන්ද": 1235,
      "කරේ": 1236,
      "හොර": 1237,
      "වැද": 1238,
      "ඔයත්": 1239,
      "බලාගන්න": 1240,
      "ද්දි": 1241,
      "තියෙනවද": 1242,
      "තියනව": 1243,
      "ගැනී": 1244,
      "කාලය": 1245,
      "දෙවියනේ": 1246,
      "පළ": 1247,
      "මනු": 1248,
      "අමාරු": 1249,
      "ගල": 1250,
      "දින": 1251,
      "පාවි": 1252,
      "මෙහෙට": 1253,
      "නිර්": 1254,
      "ගියේ": 1255,
      "දවස්": 1256,
      "සුම්": 1257,
      "දැන්ම": 1258,
      "කයෙක්": 1259,
      "is": 1260,
      "විශේෂ": 1261,
      "දක්": 1262,
      "අලුත්": 1263,
      "le": 1264,
      "මඟ": 1265,
      "සේරම": 1266,
      "ගණ": 1267,
      "හන්": 1268,
      "පුර": 1269,
      "අඩ": 1270,
      "ුත්": 1271,
      "සිටි": 1272,
      "නයේ": 1273,
      "මහත්ම": 1274,
      "ෑන්": 1275,
      "ic": 1276,
      "හොදින්": 1277,
      "සැල": 1278,
      "මිනිහා": 1279,
      "මග": 1280,
      "පාවිච්චි": 1281,
      "පති": 1282,
      "දැක්කා": 1283,
      "තොර": 1284,
      "සිදු": 1285,
      "ස්ටර්": 1286,
      "ක්‍රම": 1287,
      "දාගන්න": 1288,
      "ංචි": 1289,
      "රිලා": 1290,
      "හිතුවේ": 1291,
      "සුභ": 1292,
      "ක්‍රී": 1293,
      "මුණ": 1294,
      "රජ": 1295,
      "වතුර": 1296,
      "ලැබ": 1297,
      "ව්‍යා": 1298,
      "ගෑ": 1299,
      "ඇස්": 1300,
      "කට්ටිය": 1301,
      "නැතිව": 1302,
      "බලාපොරො": 1303,
      "හෙට": 1304,
      "මෙහෙම": 1305,
      "ජීවිත": 1306,
      "කූ": 1307,
      "ණ්ඩ": 1308,
      "නාව": 1309,
      "යාළු": 1310,
      "නයට": 1311,
      "වෛ": 1312,
      "ලන්": 1313,
      "හදන්නේ": 1314,
      "ස්ම": 1315,
      "විත": 1316,
      "පැය": 1317,
      "පහර": 1318,
      "මේකට": 1319,
      "නවත්තන්න": 1320,
      "දකින්න": 1321,
      "සැක": 1322,
      "අවසා": 1323,
      "බ්‍ර": 1324,
      "om": 1325,
      "ට්‍ර": 1326,
      "ම්ම්": 1327,
      "නැත්තේ": 1328,
      "හැර": 1329,
      "දො": 1330,
      "ලෝක": 1331,
      "හෙක්": 1332,
      "මෙතනින්": 1333,
      "කරමු": 1334,
      "දෙය": 1335,
      "වලා": 1336,
      "රින්": 1337,
      "වච": 1338,
      "තින්": 1339,
      "සන්න": 1340,
      "විතරක්": 1341,
      "තීර": 1342,
      "තාමත්": 1343,
      "තේර": 1344,
      "මමයි": 1345,
      "කියා": 1346,
      "දුන්නා": 1347,
      "ඳි": 1348,
      "හැමදේම": 1349,
      "සාමාන්‍ය": 1350,
      "10": 1351,
      "නිකන්": 1352,
      "යුධ": 1353,
      "මුළු": 1354,
      "තියාගන්න": 1355,
      "කරගෙන": 1356,
      "සඳහා": 1357,
      "පය": 1358,
      "ලින්ම": 1359,
      "පාලනය": 1360,
      "එළියට": 1361,
      "හාට": 1362,
      "කෝල්": 1363,
      "රූ": 1364,
      "සුව": 1365,
      "කණ": 1366,
      "ගන්": 1367,
      "ර්ථ": 1368,
      "අන්න": 1369,
      "ඒවගේම": 1370,
      "වතා": 1371,
      "ටයි": 1372,
      "ශක්": 1373,
      "ආරක්ෂා": 1374,
      "මැර": 1375,
      "අවස්ථ": 1376,
      "හායි": 1377,
      "මුකුත්": 1378,
      "තයි": 1379,
      "ර්ශ": 1380,
      "ෆි": 1381,
      "ලුවා": 1382,
      "අරි": 1383,
      "වැදගත්": 1384,
      "re": 1385,
      "ඇත": 1386,
      "හේතුව": 1387,
      "කරනවද": 1388,
      "ආදරෙයි": 1389,
      "උත්සහ": 1390,
      "අහ්": 1391,
      "හය": 1392,
      "ළමයි": 1393,
      "ව්වා": 1394,
      "ia": 1395,
      "වූ": 1396,
      "වුන": 1397,
      "හරියටම": 1398,
      "රන්": 1399,
      "ලෙස": 1400,
      "නං": 1401,
      "තර්": 1402,
      "ඔවුන්ට": 1403,
      "හමුදා": 1404,
      "මටත්": 1405,
      "බර": 1406,
      "තිබුනා": 1407,
      "දරු": 1408,
      "ඉදන්": 1409,
      "දිගටම": 1410,
      "හී": 1411,
      "තියේ": 1412,
      "මොකටද": 1413,
      "දෙකක්": 1414,
      "ටෝ": 1415,
      "තමන්": 1416,
      "විදිහ": 1417,
      "බිරි": 1418,
      "නැත්තම්": 1419,
      "සතුට": 1420,
      "දානම්": 1421,
      "ආදරය": 1422,
      "ආව": 1423,
      "පයක්": 1424,
      "පුරු": 1425,
      "කාලෙ": 1426,
      "මිනිහෙක්": 1427,
      "උත්ත": 1428,
      "රාධ": 1429,
      "කුණ": 1430,
      "රයේ": 1431,
      "පිලි": 1432,
      "කළේ": 1433,
      "මන": 1434,
      "පාරක්": 1435,
      "පෙර": 1436,
      "පුළුවන්ද": 1437,
      "ජෝ": 1438,
      "මගෙන්": 1439,
      "el": 1440,
      "නිද": 1441,
      "තෙ": 1442,
      "ඉන්": 1443,
      "ඇද": 1444,
      "මච": 1445,
      "මමත්": 1446,
      "අවුලක්": 1447,
      "තො": 1448,
      "තනිය": 1449,
      "කාරයෙක්": 1450,
      "උදේ": 1451,
      "තිබ": 1452,
      "ටා": 1453,
      "කිරීම": 1454,
      "ලෝකය": 1455,
      "ත්ව": 1456,
      "්‍රි": 1457,
      "ළම": 1458,
      "දුම්": 1459,
      "මැරෙන්න": 1460,
      "එන්නම්": 1461,
      "යෙන්ම": 1462,
      "හදන්න": 1463,
      "අභ": 1464,
      "හිටියෙ": 1465,
      "චාර්": 1466,
      "දැනටම": 1467,
      "ඔහොම": 1468,
      "දෙන්නෙ": 1469,
      "ගුවන්": 1470,
      "ගෙනිය": 1471,
      "පුදුම": 1472,
      "හිතා": 1473,
      "වුනත්": 1474,
      "නික": 1475,
      "nt": 1476,
      "යනව": 1477,
      "ස්තුව": 1478,
      "ජීවිතේ": 1479,
      "නුව": 1480,
      "හෙන්න": 1481,
      "කුට": 1482,
      "to": 1483,
      "වෙලාවට": 1484,
      "මීට": 1485,
      "the": 1486,
      "ඩේ": 1487,
      "යම්": 1488,
      "වන්නේ": 1489,
      "ආවෙ": 1490,
      "පින්": 1491,
      "පියා": 1492,
      "හොඳට": 1493,
      "‍ම": 1494,
      "අමු": 1495,
      "පැමි": 1496,
      "ද්‍ර": 1497,
      "කණගා": 1498,
      "වින්": 1499,
      "ට්ටු": 1500,
      "ගොල්ල": 1501,
      "දින්න": 1502,
      "as": 1503,
      "කාමර": 1504,
      "මොකුත්": 1505,
      "යුතුයි": 1506,
      "ඒව": 1507,
      "පිටි": 1508,
      "ක්කු": 1509,
      "මෙම": 1510,
      "කිව": 1511,
      "වැරැ": 1512,
      "මිනිහ": 1513,
      "ටො": 1514,
      "පස්සෙන්": 1515,
      "උත්සා": 1516,
      "වටි": 1517,
      "පේන": 1518,
      "ලස්සන": 1519,
      "ing": 1520,
      "පොලිස්": 1521,
      "ad": 1522,
      "ප්‍රධා": 1523,
      "විද්‍යා": 1524,
      "එන්නේ": 1525,
      "මේවා": 1526,
      "ද්ග": 1527,
      "පැහැදිලි": 1528,
      "වෝ": 1529,
      "කෙනකේ": 1530,
      "ක්මන්": 1531,
      "ප්‍රමා": 1532,
      "ියෝ": 1533,
      "ෂි": 1534,
      "ගහන්න": 1535,
      "අම්මේ": 1536,
      "ඇර": 1537,
      "කවුරුහරි": 1538,
      "ත්වය": 1539,
      "නිල": 1540,
      "සාද": 1541,
      "සටන්": 1542,
      "වග": 1543,
      "ආයෙත්": 1544,
      "තිබ්බා": 1545,
      "ol": 1546,
      "අදහසක්": 1547,
      "SA": 1548,
      "හම්": 1549,
      "සෙල්ලම්": 1550,
      "මනුස්ස": 1551,
      "පොරොන්දු": 1552,
      "සුදු": 1553,
      "මහත්තයා": 1554,
      "පණි": 1555,
      "අදහස්": 1556,
      "ගිහි": 1557,
      "දූ": 1558,
      "දැනු": 1559,
      "il": 1560,
      "පාට": 1561,
      "කියපු": 1562,
      "කරන්නද": 1563,
      "හදෙ": 1564,
      "බොහොම": 1565,
      "වේද": 1566,
      "කාන්": 1567,
      "කාලයක්": 1568,
      "උත්සාහ": 1569,
      "ඉක්මන්": 1570,
      "විනාඩි": 1571,
      "තියක්": 1572,
      "නියෝ": 1573,
      "‍යා": 1574,
      "ආයේ": 1575,
      "ගින්": 1576,
      "ජෙ": 1577,
      "උදවු": 1578,
      "බන්": 1579,
      "මාස": 1580,
      "ල්ලක්": 1581,
      "ඉස්": 1582,
      "පෝ": 1583,
      "කුරු": 1584,
      "වැරැද්ද": 1585,
      "දවස": 1586,
      "අන්තිම": 1587,
      "ලූ": 1588,
      "හතර": 1589,
      "මෙච්චර": 1590,
      "දන්නවනේ": 1591,
      "පැටිය": 1592,
      "මාර": 1593,
      "ඉන්නව": 1594,
      "ද්දී": 1595,
      "පම": 1596,
      "කාටවත්": 1597,
      "බලාපොරොත්තු": 1598,
      "‍ව": 1599,
      "නවත්වන්න": 1600,
      "ලෑස්ති": 1601,
      "වෙත": 1602,
      "ඉවත්": 1603,
      "‍ක": 1604,
      "උන": 1605,
      "දැනගෙන": 1606,
      "ලික": 1607,
      "රණ": 1608,
      "නවති": 1609,
      "ac": 1610,
      "ජීවිතය": 1611,
      "අනා": 1612,
      "ow": 1613,
      "ඉඳන්": 1614,
      "දර්ශ": 1615,
      "හැදු": 1616,
      "ආදරේ": 1617,
      "ජය": 1618,
      "දැක්කද": 1619,
      "යාළුවා": 1620,
      "ශී": 1621,
      "රාව": 1622,
      "නුඹ": 1623,
      "දැනටමත්": 1624,
      "හිටපු": 1625,
      "රුවත්": 1626,
      "නතර": 1627,
      "විඩ": 1628,
      "සමග": 1629,
      "තිබ්බ": 1630,
      "අනිවාර්": 1631,
      "ඉහ": 1632,
      "ක්ෂි": 1633,
      "සමාව": 1634,
      "තුන්": 1635,
      "බිම": 1636,
      "ල්ස්": 1637,
      "ඒකයි": 1638,
      "‍ර": 1639,
      "විශා": 1640,
      "හදව": 1641,
      "ඉගෙන": 1642,
      "තැනක්": 1643,
      "තේරෙ": 1644,
      "අපට": 1645,
      "ඩී": 1646,
      "ක්ලා": 1647,
      "යාන": 1648,
      "ප්ප": 1649,
      "රාත්‍": 1650,
      "ලැබෙ": 1651,
      "උනත්": 1652,
      "ඇඳු": 1653,
      "මස්": 1654,
      "හදි": 1655,
      "USA": 1656,
      "ක්ස්": 1657,
      "වෙලාවෙ": 1658,
      "න්නම්": 1659,
      "පස්සට": 1660,
      "වාද": 1661,
      "කිරීමට": 1662,
      "ඉන්නවද": 1663,
      "පුංචි": 1664,
      "අල්ලගන්න": 1665,
      "වෙලාවක්": 1666,
      "පරිස්ස": 1667,
      "දෙන්නේ": 1668,
      "තොරතුරු": 1669,
      "ලක්ද": 1670,
      "ටී": 1671,
      "FF": 1672,
      "දෙනෙක්": 1673,
      "විකාර": 1674,
      "කොහදෙ": 1675,
      "හිතුවා": 1676,
      "මහත්මයා": 1677,
      "තනියම": 1678,
      "බලන්": 1679,
      "ලෙන්": 1680,
      "ජනා": 1681,
      "යවන්න": 1682,
      "රහස්": 1683,
      "ප්‍රා": 1684,
      "ඔහුගෙ": 1685,
      "අයට": 1686,
      "හොඳම": 1687,
      "ඕහ්": 1688,
      "සිද්ද": 1689,
      "සුර": 1690,
      "පරණ": 1691,
      "සුබ": 1692,
      "20": 1693,
      "අළු": 1694,
      "ඔබව": 1695,
      "කාම": 1696,
      "හුඟ": 1697,
      "තිස්ස": 1698,
      "හොදට": 1699,
      "ගක්": 1700,
      "විදිය": 1701,
      "වස": 1702,
      "මතක්": 1703,
      "බර්": 1704,
      "පොයි": 1705,
      "එකයි": 1706,
      "උඹේ": 1707,
      "‍ට": 1708,
      "තුම්": 1709,
      "අනතුර": 1710,
      "දාල": 1711,
      "දෙන්නම්": 1712,
      "සහෝදරයා": 1713,
      "ක්ටර්": 1714,
      "ලියන": 1715,
      "එයාලව": 1716,
      "කවුරුත්": 1717,
      "නිදහස්": 1718,
      "වෙච්ච": 1719,
      "කොහේද": 1720,
      "ධ්‍ය": 1721,
      "සිං": 1722,
      "ගන": 1723,
      "පණිවිඩ": 1724,
      "ඇතුලේ": 1725,
      "පෘ": 1726,
      "බේරගන්න": 1727,
      "විස්තර": 1728,
      "බලමු": 1729,
      "අපරාධ": 1730,
      "රයට": 1731,
      "තමුන්": 1732,
      "මිනී": 1733,
      "තික": 1734,
      "වාර්තා": 1735,
      "මගෝ": 1736,
      "ඉක්මනින්": 1737,
      "ඩෝ": 1738,
      "මුලින්ම": 1739,
      "දැකලා": 1740,
      "තවමත්": 1741,
      "ත්මක": 1742,
      "අයිති": 1743,
      "අහු": 1744,
      "ඒකෙ": 1745,
      "ගැල": 1746,
      "පැනලා": 1747,
      "ජු": 1748,
      "මරණ": 1749,
      "ෙන්න": 1750,
      "‍න": 1751,
      "....": 1752,
      "ඉල": 1753,
      "පණ": 1754,
      "ගත්තෙ": 1755,
      "තුවා": 1756,
      "ප්පු": 1757,
      "කාව": 1758,
      "ක්‍රි": 1759,
      "අංක": 1760,
      "ed": 1761,
      "කවුරුවත්": 1762,
      "ගෞ": 1763,
      "කාරයා": 1764,
      "පෙන්වන්න": 1765,
      "ඇල": 1766,
      "න්ත": 1767,
      "මඟු": 1768,
      "ec": 1769,
      "තිබුනේ": 1770,
      "දානවා": 1771,
      "සැලැ": 1772,
      "ශ්‍ර": 1773,
      "කිහි": 1774,
      "ඇගේ": 1775,
      "එයි": 1776,
      "භූ": 1777,
      "හමුව": 1778,
      "රස්ස": 1779,
      "මයිකල්": 1780,
      "මාන": 1781,
      "ea": 1782,
      "දක්ෂ": 1783,
      "ඇඟ": 1784,
      "වෙලේ": 1785,
      "කථා": 1786,
      "තුම": 1787,
      "ඇවිල්ලා": 1788,
      "ආරක්ෂක": 1789,
      "සතුටු": 1790,
      "සූදානම්": 1791,
      "විවාහ": 1792,
      "වුණ": 1793,
      "රව": 1794,
      "බෝම්බ": 1795,
      "හැට": 1796,
      "සම්පූර්ණ": 1797,
      "පැත්තට": 1798,
      "මෙතනට": 1799,
      "වාසනා": 1800,
      "අරින්න": 1801,
      "ෆ්‍ර": 1802,
      "එහෙමයි": 1803,
      "රහ": 1804,
      "ඔන්න": 1805,
      "ඩුව": 1806,
      "මැරිලා": 1807,
      "තනි": 1808,
      "අධි": 1809,
      "බායි": 1810,
      "ප්‍රශ්න": 1811,
      "ආපු": 1812,
      "අපොයි": 1813,
      "තල": 1814,
      "තක්": 1815,
      "ගොනු": 1816,
      "කණගාටුයි": 1817,
      "හොයන්න": 1818,
      "වගෝ": 1819,
      "පමණ": 1820,
      "පද්ධ": 1821,
      "හෙලෝ": 1822,
      "ඔයාගෙන්": 1823,
      "අම්ම": 1824,
      "ඩෙ": 1825,
      "කතාව": 1826,
      "තියෙන්න": 1827,
      "හැමෝටම": 1828,
      "පද": 1829,
      "000": 1830,
      "ංච": 1831,
      "කව්": 1832,
      "ආරක්ෂි": 1833,
      "විසි": 1834,
      "තියෙනව": 1835,
      "දවසක්": 1836,
      "රස": 1837,
      "රයෙක්": 1838,
      "කෘ": 1839,
      "තන්": 1840,
      "මහා": 1841,
      "ම්භ": 1842,
      "for": 1843,
      "හවු": 1844,
      "ජෙන": 1845,
      "ව්‍ය": 1846,
      "කොයි": 1847,
      "දෙන්නා": 1848,
      "හැමදා": 1849,
      "පරක්කු": 1850,
      "ජො": 1851,
      "ගමු": 1852,
      "am": 1853,
      "ගැනද": 1854,
      "තරු": 1855,
      "බලය": 1856,
      "මෙහෙන්": 1857,
      "කකු": 1858,
      "යාළුව": 1859,
      "නේ": 1860,
      "ඔයයි": 1861,
      "භයාන": 1862,
      "වැටු": 1863,
      "ලස්සනයි": 1864,
      "et": 1865,
      "නෙවයි": 1866,
      "වැට": 1867,
      "‍ද": 1868,
      "වුණේ": 1869,
      "විනෝ": 1870,
      "you": 1871,
      "ගනී": 1872,
      "ප්‍රේ": 1873,
      "තමුසේ": 1874,
      "කාශ": 1875,
      "හෙයි": 1876,
      "සතුටක්": 1877,
      "විස්": 1878,
      "ලිපි": 1879,
      "කියන්නම්": 1880,
      "ංක": 1881,
      "හැමදෙයක්ම": 1882,
      "දෙයිය": 1883,
      "තවම": 1884,
      "ටැ": 1885,
      "and": 1886,
      "හොරකම්": 1887,
      "දැම්මා": 1888,
      "ස්ව": 1889,
      "අතුරු": 1890,
      "තම": 1891,
      "දුරටත්": 1892,
      "කැමැ": 1893,
      "සන්සුන්": 1894,
      "**": 1895,
      "ගල්": 1896,
      "ආයුධ": 1897,
      "සියලු": 1898,
      "ගන්නම්": 1899,
      "මෙහෙයු": 1900,
      "ay": 1901,
      "යර්": 1902,
      "නිර්මා": 1903,
      "කාරිය": 1904,
      "නෙවේ": 1905,
      "එක්කෙන": 1906,
      "කල්ප": 1907,
      "මොනවාද": 1908,
      "බල්ල": 1909,
      "විසින්": 1910,
      "මොහො": 1911,
      "ඔයාලගේ": 1912,
      "හුඟක්": 1913,
      "නීති": 1914,
      "හොදින්ද": 1915,
      "දියි": 1916,
      "ඩම්": 1917,
      "වැඩියි": 1918,
      "රයි": 1919,
      "පං": 1920,
      "උඩට": 1921,
      "ඉතුරු": 1922,
      "පව": 1923,
      "අවධා": 1924,
      "හොඳි": 1925,
      "තැන්": 1926,
      "රියට": 1927,
      "15": 1928,
      "ලව": 1929,
      "තැනට": 1930,
      "ගනි": 1931,
      "විශ්වාසයි": 1932,
      "සොයා": 1933,
      "තත්වය": 1934,
      "යමක්": 1935,
      "ලම": 1936,
      "තුන": 1937,
      "දෙනා": 1938,
      "ඔන": 1939,
      "ළට": 1940,
      "ඕනද": 1941,
      "මරලා": 1942,
      "us": 1943,
      "ch": 1944,
      "එනව": 1945,
      "කවම": 1946,
      "ගානක්": 1947,
      "වීමක්": 1948,
      "ther": 1949,
      "තුවක්කුව": 1950,
      "තීරණය": 1951,
      "කෙල්ලෙක්": 1952,
      "බඩු": 1953,
      "සති": 1954,
      "බැයි": 1955,
      "ඒකේ": 1956,
      "හොඳින්ද": 1957,
      "පුරා": 1958,
      "කිවු": 1959,
      "හැටියට": 1960,
      "ලද": 1961,
      "නැගිටි": 1962,
      "තෝරා": 1963,
      "ගත්තොත්": 1964,
      "අවසන්": 1965,
      "හිතුවෙ": 1966,
      "තිමත්": 1967,
      "දොස්තර": 1968,
      "ෙන්නේ": 1969,
      "ෙනව": 1970,
      "දීලා": 1971,
      "ඇමරිකා": 1972,
      "ඉලක්ක": 1973,
      "කයා": 1974,
      "ලැබුනා": 1975,
      "කරණ": 1976,
      "නිකම්": 1977,
      "බඩ": 1978,
      "ගැනීම": 1979,
      "ඉදලා": 1980,
      "කන": 1981,
      "පට": 1982,
      "රාත්‍රිය": 1983,
      "හිනා": 1984,
      "මිනිස්සුන්ට": 1985,
      "පුහු": 1986,
      "මිලියන": 1987,
      "ගිනි": 1988,
      "කයන්": 1989,
      "තෝර": 1990,
      "of": 1991,
      "සිහි": 1992,
      "යාලුවා": 1993,
      "කිරි": 1994,
      "චිත්‍ර": 1995,
      "ඩොලර්": 1996,
      "විවෘ": 1997,
      "ඔවුන්ගේ": 1998,
      "හිය": 1999,
      "කොහෙන්ද": 2000,
      "කප": 2001,
      "දිලා": 2002,
      "ලියා": 2003,
      "දාගෙන": 2004,
      "වෙලාවේ": 2005,
      "පොලී": 2006,
      "එන්නෙ": 2007,
      "තනය": 2008,
      "හැටි": 2009,
      "ම්ස්": 2010,
      "‍‍න": 2011,
      "ab": 2012,
      "ඇන්": 2013,
      "උත්තර": 2014,
      "ඇඳ": 2015,
      "වුනොත්": 2016,
      "කාලේ": 2017,
      "පුව": 2018,
      "පේනවා": 2019,
      "ක්‍රීය": 2020,
      "විරු": 2021,
      "උස": 2022,
      "හයි": 2023,
      "සියළු": 2024,
      "අනික": 2025,
      "පැත්තේ": 2026,
      "තිබ්බේ": 2027,
      "ලගට": 2028,
      "ප්‍රධාන": 2029,
      "ජන්": 2030,
      "හලෝ": 2031,
      "ගන්නෙ": 2032,
      "කැප්": 2033,
      "නිලධා": 2034,
      "ෂා": 2035,
      "තේරුනා": 2036,
      "ගෙදරට": 2037,
      "අනුව": 2038,
      "බවට": 2039,
      "දුවේ": 2040,
      "හොය": 2041,
      "ගොඩා": 2042,
      "ක්ලාක්": 2043,
      "තට": 2044,
      "පිටින්": 2045,
      "එදා": 2046,
      "ආරම්භ": 2047,
      "අවුල්": 2048,
      "අවශ්‍යයි": 2049,
      "අඳු": 2050,
      "හැබැයි": 2051,
      "තද": 2052,
      "වේග": 2053,
      "කලබල": 2054,
      "පුද්ග": 2055,
      "කරුණාකර": 2056,
      "ගනෙ": 2057,
      "හැක": 2058,
      "මෙහාට": 2059,
      "මරු": 2060,
      "වනෙ": 2061,
      "12": 2062,
      "ට්ටුව": 2063,
      "සිර": 2064,
      "කතාකරන්න": 2065,
      "වාඩි": 2066,
      "පැටියෝ": 2067,
      "අල්ලන්න": 2068,
      "අයියෝ": 2069,
      "කාමරේ": 2070,
      "ඔබගේ": 2071,
      "ඉතා": 2072,
      "ඇතුල්": 2073,
      "‍අ": 2074,
      "වරු": 2075,
      "වැනි": 2076,
      "හිතනවද": 2077,
      "බිරිඳ": 2078,
      "තියනවද": 2079,
      "ගොඩාක්": 2080,
      "නංගි": 2081,
      "පරීක්ෂා": 2082,
      "ලයක්": 2083,
      "විස": 2084,
      "ජේන්": 2085,
      "උස්ස": 2086,
      "බුද්ධ": 2087,
      "විශාල": 2088,
      "සමඟ": 2089,
      "භාවි": 2090,
      "වශ": 2091,
      "දුවන්න": 2092,
      "ඹු": 2093,
      "වගෙ": 2094,
      "විනෝද": 2095,
      "කොල්ලෝ": 2096,
      "කේස්": 2097,
      "විල්": 2098,
      "මේකෙන්": 2099,
      "ගැහු": 2100,
      "ගෙනා": 2101,
      "හාද": 2102,
      "අරගන්න": 2103,
      "සටහ": 2104,
      "ඩියෝ": 2105,
      "පෙනු": 2106,
      "අනතුරු": 2107,
      "මුහුණ": 2108,
      "හම්බු": 2109,
      "දුන්නේ": 2110,
      "දාන": 2111,
      "අවස්ථාවක්": 2112,
      "ෆෝන්": 2113,
      "හොයාගෙන": 2114,
      "ඉඳලා": 2115,
      "සියා": 2116,
      "ment": 2117,
      "අල්ලා": 2118,
      "නර්": 2119,
      "ල්ලු": 2120,
      "tion": 2121,
      "30": 2122,
      "සියට": 2123,
      "සිට": 2124,
      "ගියොත්": 2125,
      "හුස්ම": 2126,
      "ගැහැ": 2127,
      "සියල්ල": 2128,
      "හිතන": 2129,
      "අවස්ථාව": 2130,
      "ඉස්කෝ": 2131,
      "වෙලේම": 2132,
      "කැප්ටන්": 2133,
      "තුල": 2134,
      "ඩින්": 2135,
      "දෙන්නම": 2136,
      "පොලිසිය": 2137,
      "නද": 2138,
      "අවසර": 2139,
      "යුද්ධ": 2140,
      "ෙකුට": 2141,
      "කයක්": 2142,
      "පෑ": 2143,
      "ඊයේ": 2144,
      "සාක්ෂි": 2145,
      "ගෙනියන්න": 2146,
      "ඇත්තෙන්ම": 2147,
      "වැරදියි": 2148,
      "එකෙක්": 2149,
      "මැති": 2150,
      "තේරෙනවා": 2151,
      "නිශ්": 2152,
      "ඔක්ක": 2153,
      "බිය": 2154,
      "බොහෝ": 2155,
      "ot": 2156,
      "ජරා": 2157,
      "මෙය": 2158,
      "පැත්තෙන්": 2159,
      "ස්ථානය": 2160,
      "පිස්ස": 2161,
      "ගින්න": 2162,
      "ඔවුන්ව": 2163,
      "එයාලගේ": 2164,
      "හදන්නෙ": 2165,
      "දෙයියනේ": 2166,
      "ජිවත්": 2167,
      "බිලා": 2168,
      "වීමට": 2169,
      "ක්ශ": 2170,
      "ඉදිරි": 2171,
      "අළුත්": 2172,
      "යැ": 2173,
      "කියනව": 2174,
      "මිස්ටර්": 2175,
      "හරහා": 2176,
      "අයියා": 2177,
      "ඕනෙද": 2178,
      "එච්චරයි": 2179,
      "තියලා": 2180,
      "හාර": 2181,
      "නගරය": 2182,
      "හොදම": 2183,
      "ආහ්": 2184,
      "ද්‍ය": 2185,
      "Mr": 2186,
      "ත්‍රය": 2187,
      "අපිත්": 2188,
      "සෑම්": 2189,
      "ඩොක්ටර්": 2190,
      "ඥා": 2191,
      "ෂ්ඨ": 2192,
      "අඩුම": 2193,
      "එහා": 2194,
      "නියා": 2195,
      "ස්වා": 2196,
      "ලොක්": 2197,
      "වනේන": 2198,
      "පුරුදු": 2199,
      "සම්පූර්ණය": 2200,
      "ඕනෑ": 2201,
      "අංශ": 2202,
      "නෑනේ": 2203,
      "ජර්": 2204,
      "පරා": 2205,
      "උබට": 2206,
      "ඉව": 2207,
      "දීම": 2208,
      "කණ්ඩායම": 2209,
      "සප": 2210,
      "නැත": 2211,
      "ජෝන්": 2212,
      "නවතින්න": 2213,
      "පැට": 2214,
      "පවුල": 2215,
      "කතාවක්": 2216,
      "උදව්වක්": 2217,
      "දෙවියන්": 2218,
      "ග්‍රහ": 2219,
      "ve": 2220,
      "මෙයාව": 2221,
      "පින්තූ": 2222,
      "පනි": 2223,
      "බලනවා": 2224,
      "he": 2225,
      "මෙහි": 2226,
      "දුර්": 2227,
      "ලෝකෙ": 2228,
      "දුරකථ": 2229,
      "කාරයෝ": 2230,
      "තිබෙනවා": 2231,
      "වස්තුව": 2232,
      "යන්නම්": 2233,
      "එලිය": 2234,
      "ඔතන": 2235,
      "එකත්": 2236,
      "ස්ට්": 2237,
      "අමුතු": 2238,
      "පැතුම්": 2239,
      "හැමදාම": 2240,
      "සාර්ථ": 2241,
      "විශ්වාසද": 2242,
      "හිස්": 2243,
      "මගුලක්ද": 2244,
      "50": 2245,
      "වුම්": 2246,
      "අතන": 2247,
      "ෙම": 2248,
      "‍ත": 2249,
      "නිතර": 2250,
      "යාලුව": 2251,
      "කරමින්": 2252,
      "හිමි": 2253,
      "කැමැත්ත": 2254,
      "මායා": 2255,
      "විරුද්ධ": 2256,
      "ur": 2257,
      "බූ": 2258,
      "‍ල": 2259,
      "නියෝජි": 2260,
      "ගත්තද": 2261,
      "මතකද": 2262,
      "ෑස": 2263,
      "ඇවිදි": 2264,
      "වෛද්‍ය": 2265,
      "ල්ඩ්": 2266,
      "මුල්": 2267,
      "හුගක්": 2268,
      "ran": 2269,
      "බොන්න": 2270,
      "බාර": 2271,
      "විවෘත": 2272,
      "ලං": 2273,
      "ro": 2274,
      "ගේන්න": 2275,
      "සල්": 2276,
      "මොනවහරි": 2277,
      "ළුවක්": 2278,
      "වෙමු": 2279,
      "ියි": 2280,
      "ගොනුව": 2281,
      "ගනින්": 2282,
      "මට්": 2283,
      "උදෑස": 2284,
      "මුර": 2285,
      "මිනිසුන්": 2286,
      "ඕනම": 2287,
      "තෑ": 2288,
      "බං": 2289,
      "සතුටුයි": 2290,
      "ඇහැ": 2291,
      "චෝ": 2292,
      "මියා": 2293,
      "ත්‍ය": 2294,
      "දින්": 2295,
      "කිරීමක්": 2296,
      "ෙනි": 2297,
      "මරණය": 2298,
      "un": 2299,
      "තේරුම": 2300,
      "ආවර": 2301,
      "ගෙන්න": 2302,
      "තත්පර": 2303,
      "දුනා": 2304,
      "කරන්": 2305,
      "ආරක්ෂාව": 2306,
      "අමාරුයි": 2307,
      "ඉදිරියට": 2308,
      "නිකං": 2309,
      "මූණ": 2310,
      "පටි": 2311,
      "බඳ": 2312,
      "විධා": 2313,
      "ලොත්": 2314,
      "ධිපති": 2315,
      "සිදුව": 2316,
      "හොඳටම": 2317,
      "හොයාගත්තා": 2318,
      "උපන්": 2319,
      "කරුවන්": 2320,
      "විම": 2321,
      "තවදුරටත්": 2322,
      "උනොත්": 2323,
      "හින්දා": 2324,
      "නැත්තෙ": 2325,
      "ගාන": 2326,
      "මල": 2327,
      "හැං": 2328,
      "අණ": 2329,
      "ඇතුල": 2330,
      "තිබුන": 2331,
      "ගැනීමට": 2332,
      "ඌව": 2333,
      "සැලසුම්": 2334,
      "කොන්": 2335,
      "ගොල්ලෝ": 2336,
      "ඔප්පු": 2337,
      "දන්": 2338,
      "මුදල්": 2339,
      "කොල්ලනේ": 2340,
      "ෂ්‍ය": 2341,
      "න්නා": 2342,
      "දෙන්නෙක්": 2343,
      "රතු": 2344,
      "රස්": 2345,
      "තේරෙන්නේ": 2346,
      "වෙනකම්": 2347,
      "හදනවා": 2348,
      "ri": 2349,
      "ගනු": 2350,
      "හැඟ": 2351,
      "එහෙමද": 2352,
      "හිතාගන්න": 2353,
      "19": 2354,
      "කඩා": 2355,
      "මැඩම්": 2356,
      "කිව්වොත්": 2357,
      "එහේ": 2358,
      "තුනක්": 2359,
      "කාරී": 2360,
      "පෙම්": 2361,
      "ඇත්තට": 2362,
      "ලැයි": 2363,
      "ලඟට": 2364,
      "se": 2365,
      "පරික්ෂ": 2366,
      "ස්ටී": 2367,
      "ජූ": 2368,
      "විලි": 2369,
      "කාටද": 2370,
      "කොටස": 2371,
      "දියා": 2372,
      "වැටි": 2373,
      "ගිහිල්ලා": 2374,
      "සේවා": 2375,
      "දන්නෑ": 2376,
      "ංශ": 2377,
      "සහිත": 2378,
      "කොටසක්": 2379,
      "ඇහෙන": 2380,
      "දම": 2381,
      "පල්ල": 2382,
      "දුරු": 2383,
      "ඇහ": 2384,
      "පැමිණ": 2385,
      "බලාගන්නම්": 2386,
      "ේ": 2387,
      "ඩ්‍ර": 2388,
      "එක්කම": 2389,
      "මුණගැ": 2390,
      "ද්‍රව්‍ය": 2391,
      "බුද්ධි": 2392,
      "‍ලා": 2393,
      "ශක්තිමත්": 2394,
      "දඩ": 2395,
      "පැහැර": 2396,
      "ඳින්න": 2397,
      "න්ස්": 2398,
      "කුයි": 2399,
      "ජනය": 2400,
      "බෙහෙ": 2401,
      "වරෙන්": 2402,
      "පෙට්": 2403,
      "අග": 2404,
      "නමක්": 2405,
      "මල්": 2406,
      "තියාගෙන": 2407,
      "මධ්‍ය": 2408,
      "වෙනවද": 2409,
      "කරණය": 2410,
      "දරුණු": 2411,
      "සත්": 2412,
      "පාර්": 2413,
      "හදවත": 2414,
      "මොනවත්": 2415,
      "de": 2416,
      "වගයක්": 2417,
      "යාලු": 2418,
      "දැනෙනවා": 2419,
      "කොටස්": 2420,
      "කව්ද": 2421,
      "එයත්": 2422,
      "ලයේ": 2423,
      "විවේ": 2424,
      "පේන්නේ": 2425,
      "අන්තිමට": 2426,
      "පෙන්නන්න": 2427,
      "පනය": 2428,
      "එකා": 2429,
      "තාවක්": 2430,
      "න්සි": 2431,
      "කොල්ලා": 2432,
      "ද්දෙ": 2433,
      "රෝහ": 2434,
      "තෙක්": 2435,
      "සහා": 2436,
      "මනා": 2437,
      "ියෙන්": 2438,
      "නැගිටින්න": 2439,
      "ඇයගේ": 2440,
      "බහි": 2441,
      "අඩි": 2442,
      "යනවද": 2443,
      "ද්දක්": 2444,
      "ප්‍රශ්ණයක්": 2445,
      "කලොත්": 2446,
      "නිදාගන්න": 2447,
      "වේශ": 2448,
      "අතා": 2449,
      "යක්ෂ": 2450,
      "උන්ට": 2451,
      "හෙන්": 2452,
      "දැනට": 2453,
      "ගන්නව": 2454,
      "දුක්": 2455,
      "තිබුණා": 2456,
      "කරාවි": 2457,
      "පළමු": 2458,
      "පන": 2459,
      "ලයට": 2460,
      "ෙන්නෙ": 2461,
      "බයි": 2462,
      "‍යි": 2463,
      "තාවය": 2464,
      "දෝ": 2465,
      "විදු": 2466,
      "eather": 2467,
      "ීය": 2468,
      "‍එ": 2469,
      "ගැට": 2470,
      "අවසාන": 2471,
      "කසාද": 2472,
      "දවසක": 2473,
      "weather": 2474,
      "සතුටින්": 2475,
      "දහන්": 2476,
      "තමන්ගේ": 2477,
      "ීමක්": 2478,
      "නිර්මාණය": 2479,
      "පුළුව": 2480,
      "උතුමා": 2481,
      "දැක්": 2482,
      "ත්‍රා": 2483,
      "භාව": 2484,
      "මද": 2485,
      "මාර්ග": 2486,
      "cH": 2487,
      "රිස්": 2488,
      "නිව්": 2489,
      "නිදා": 2490,
      "පුපුර": 2491,
      "ගෙවන්න": 2492,
      "කෙනෙක්ව": 2493,
      "තැනම": 2494,
      "ශබ්": 2495,
      "එහි": 2496,
      "හැසි": 2497,
      "වේලා": 2498,
      "හිතුව": 2499,
      "කැමතිද": 2500,
      "නන්": 2501,
      "හැදුවේ": 2502,
      "පුර්": 2503,
      "ඔයාටත්": 2504,
      "ජිවිත": 2505,
      "පහලට": 2506,
      "ඇලෙක්": 2507,
      "තරුණ": 2508,
      "දවසේ": 2509,
      "ඇතුලෙ": 2510,
      "ඔයාලගෙ": 2511,
      "අගය": 2512,
      "පන්න": 2513,
      "වන්ත": 2514,
      "අතාරි": 2515,
      "ෆෙ": 2516,
      "සාදර": 2517,
      "සුදුසු": 2518,
      "නේන": 2519,
      "පෙළ": 2520,
      "තත්ව": 2521,
      "දැක්කේ": 2522,
      "ආත්ම": 2523,
      "කද": 2524,
      "අනික්": 2525,
      "ගාවට": 2526,
      "තුවාල": 2527,
      "නොහැකි": 2528,
      "ප්‍රශ්ණ": 2529,
      "ෂ්ට": 2530,
      "අධ": 2531,
      "තියනෙ": 2532,
      "උඹව": 2533,
      "ගැන්": 2534,
      "කවද": 2535,
      "යාවි": 2536,
      "එකඟ": 2537,
      "කැමරා": 2538,
      "චාර": 2539,
      "භාවිත": 2540,
      "ගොඩනැගි": 2541,
      "100": 2542,
      "සනී": 2543,
      "වචන": 2544,
      "ඩියක්": 2545,
      "පොත": 2546,
      "ටියක්": 2547,
      "අභි": 2548,
      "උපා": 2549,
      "දම්": 2550,
      "පේන්නෙ": 2551,
      "වැරැද්දක්": 2552,
      "චී": 2553,
      "දකුණු": 2554,
      "ගුරු": 2555,
      "හඳු": 2556,
      "ගමේ": 2557,
      "ටුව": 2558,
      "ලොක්කා": 2559,
      "කරදරයක්": 2560,
      "හැදුවා": 2561,
      "නිතරම": 2562,
      "වෙල": 2563,
      "බැරිද": 2564,
      "මුලු": 2565,
      "මයික්": 2566,
      "තයෙක්": 2567,
      "ෆේ": 2568,
      "කියි": 2569,
      "තරඟ": 2570,
      "එතනට": 2571,
      "තුවක්කු": 2572,
      "යව": 2573,
      "මේකේ": 2574,
      "ස්ත": 2575,
      "Com": 2576,
      "li": 2577,
      "ගණු": 2578,
      "මිනිහෝ": 2579,
      "උඹලා": 2580,
      "නිසයි": 2581,
      "ate": 2582,
      "වටිනා": 2583,
      "අති": 2584,
      "ළග": 2585,
      "තැනක": 2586,
      "සෑම": 2587,
      "ඉතිරි": 2588,
      "හදලා": 2589,
      "ක්‍රියාත්මක": 2590,
      "ඔලුව": 2591,
      "ණිය": 2592,
      "පවා": 2593,
      "උදා": 2594,
      "‍වා": 2595,
      "ව්වේ": 2596,
      "ඔහ්හ්": 2597,
      "සෙන": 2598,
      "ල්ට්": 2599,
      "යානය": 2600,
      "බිත්ත": 2601,
      "ත්‍යා": 2602,
      "අතේ": 2603,
      "වෙනකොට": 2604,
      "අනිවා": 2605,
      "මතකයි": 2606,
      "පලවෙනි": 2607,
      "දන්නවනෙ": 2608,
      "වුව": 2609,
      "සය": 2610,
      "නිදහ": 2611,
      "තේරුණා": 2612,
      "ඇඳුම්": 2613,
      "නොවේ": 2614,
      "ඉවරයක්": 2615,
      "අතට": 2616,
      "එකි": 2617,
      "ංගුවට": 2618,
      "සුම": 2619,
      "පවුලේ": 2620,
      "Can": 2621,
      "ත්තුව": 2622,
      "රක්": 2623,
      "එල්ල": 2624,
      "ලිං": 2625,
      "වෙනත්": 2626,
      "මැරුවා": 2627,
      "සම්පූර්ණයෙන්ම": 2628,
      "බස්": 2629,
      "පැති": 2630,
      "හදා": 2631,
      "වාහනේ": 2632,
      "පෞ": 2633,
      "උදෑසනක්": 2634,
      "කෙනෙක්ට": 2635,
      "හදිසි": 2636,
      "බෑග්": 2637,
      "වෙලාවෙම": 2638,
      "රෑට": 2639,
      "සටහන්": 2640,
      "ඩර්": 2641,
      "රුවා": 2642,
      "කාර්ය": 2643,
      "යකයා": 2644,
      "ඊළඟ": 2645,
      "තහවු": 2646,
      "සෑහෙන්න": 2647,
      "හිරේ": 2648,
      "මර්": 2649,
      "නාවක්": 2650,
      "ජිවි": 2651,
      "දෙනවද": 2652,
      "කාර්යා": 2653,
      "පයි": 2654,
      "ඒකි": 2655,
      "ada": 2656,
      "කළු": 2657,
      "බට": 2658,
      "මොකෝ": 2659,
      "ලැබෙන": 2660,
      "හේතුවක්": 2661,
      "භයානක": 2662,
      "සාදරයෙන්": 2663,
      "ුවා": 2664,
      "ද්දේ": 2665,
      "තාත්තට": 2666,
      "අඟ": 2667,
      "උණු": 2668,
      "ව්‍යාපෘ": 2669,
      "ලබ": 2670,
      "වෙළ": 2671,
      "ලෝකේ": 2672,
      "11": 2673,
      "නස්": 2674,
      "පල්": 2675,
      "බ්‍රි": 2676,
      "ව්ව": 2677,
      "හ්ම්ම්": 2678,
      "කිවුවා": 2679,
      "ke": 2680,
      "ලිස්": 2681,
      "ඉප": 2682,
      "එම": 2683,
      "ුම්": 2684,
      "හැරී": 2685,
      "name": 2686,
      "රුනි": 2687,
      "මොනාහරි": 2688,
      "ඉදිරිපත්": 2689,
      "ut": 2690,
      "පලය": 2691,
      "දැක": 2692,
      "මිනිත්තු": 2693,
      "ce": 2694,
      "ෆො": 2695,
      "වාව්": 2696,
      "නියි": 2697,
      "පහල": 2698,
      "වෙලාවක": 2699,
      "පවති": 2700,
      "තෑග්": 2701,
      "ඩන්": 2702,
      "තහවුරු": 2703,
      "ගබ": 2704,
      "ඟි": 2705,
      "තල්": 2706,
      "ෙකා": 2707,
      "යොමු": 2708,
      "ag": 2709,
      "හාර්": 2710,
      "Comment": 2711,
      "ගණුදෙන": 2712,
      "දත්ත": 2713,
      "මරනවා": 2714,
      "කෙන්": 2715,
      "ලමයි": 2716,
      "ෆී": 2717,
      "කෙල": 2718,
      "මහත්ව": 2719,
      "වර්ග": 2720,
      "විශි": 2721,
      "බිරිද": 2722,
      "මෙන": 2723,
      "බැඳ": 2724,
      "අවධානය": 2725,
      "lo": 2726,
      "කියවන්න": 2727,
      "ain": 2728,
      "ක්සි": 2729,
      "ඒකත්": 2730,
      "එකක": 2731,
      "ලේඛ": 2732,
      "පොලීසිය": 2733,
      "ර්ක්": 2734,
      "වේවා": 2735,
      "තැනකට": 2736,
      "මචං": 2737,
      "එන්": 2738,
      "තිබුණ": 2739,
      "රස්සාව": 2740,
      "පුහුණු": 2741,
      "ඔයාලව": 2742,
      "එනකම්": 2743,
      "විහිළු": 2744,
      "ගනුදෙන": 2745,
      "එහාට": 2746,
      "ගම්": 2747,
      "ඝා": 2748,
      "නික්": 2749,
      "වගේද": 2750,
      "මැරෙ": 2751,
      "අම්මට": 2752,
      "ළමයෙක්": 2753,
      "දුර්වල": 2754,
      "ජනාධිපති": 2755,
      "බබා": 2756,
      "සද්ද": 2757,
      "ගණන්": 2758,
      "චාර්ය": 2759,
      "Ch": 2760,
      "ලැයිස්තුව": 2761,
      "අට": 2762,
      "ීම්": 2763,
      "පුතේ": 2764,
      "සුපිරි": 2765,
      "ඔබලා": 2766,
      "එකිනෙ": 2767,
      "ir": 2768,
      "රික්": 2769,
      "සේව": 2770,
      "විහිළුවක්": 2771,
      "කාමරය": 2772,
      "තයක්": 2773,
      "වටේ": 2774,
      "සෑහෙන": 2775,
      "ුනා": 2776,
      "ෙහා": 2777,
      "ක්‍ෂ": 2778,
      "අදහස": 2779,
      "200": 2780,
      "ඈත්": 2781,
      "උපරි": 2782,
      "හැමවෙලේම": 2783,
      "දෙයි": 2784,
      "බැලුවා": 2785,
      "ශක්තිය": 2786,
      "පද්ධතිය": 2787,
      "උවම": 2788,
      "න්ගෙ": 2789,
      "ඇත්තම": 2790,
      "නෝනා": 2791,
      "මගුල": 2792,
      "ආස": 2793,
      "ඔවු": 2794,
      "නල්": 2795,
      "පාද": 2796,
      "දුන": 2797,
      "ඇත්තේ": 2798,
      "දුම්රිය": 2799,
      "ෆෝ": 2800,
      "සිරු": 2801,
      "කුඩා": 2802,
      "කරවන්න": 2803,
      "සුළු": 2804,
      "ජින්": 2805,
      "නැවතත්": 2806,
      "කරන්නයි": 2807,
      "අහලා": 2808,
      "හහ්": 2809,
      "කයෝ": 2810,
      "තමුසෙට": 2811,
      "ගෞරව": 2812,
      "කිට්": 2813,
      "ෙක්ට": 2814,
      "වෙනුවට": 2815,
      "මහත්මිය": 2816,
      "‍අ‍": 2817,
      "යතුර": 2818,
      "කිවුව": 2819,
      "සැලැස්ම": 2820,
      "වශයෙන්": 2821,
      "ආපසු": 2822,
      "මෙයාට": 2823,
      "පිටු": 2824,
      "වැඩසටහ": 2825,
      "අතුරුදහන්": 2826,
      "පස්": 2827,
      "බබෝ": 2828,
      "ට්ස්": 2829,
      "නැතිනම්": 2830,
      "සංසුන්": 2831,
      "හදන": 2832,
      "අඩංගුවට": 2833,
      "වස්තුවේ": 2834,
      "ආයු": 2835,
      "..\"": 2836,
      "මැරි": 2837,
      "වෙයිද": 2838,
      "ලැජ්": 2839,
      "ඔර": 2840,
      "යකට": 2841,
      "වන්නෙ": 2842,
      "හැකියි": 2843,
      "හොදටම": 2844,
      "පිරිසිදු": 2845,
      "ha": 2846,
      "ශෝ": 2847,
      "නොකර": 2848,
      "හමුවෙන්න": 2849,
      "ශාලා": 2850,
      "රථ": 2851,
      "රණය": 2852,
      "හසු": 2853,
      "හිං": 2854,
      "තරහ": 2855,
      "කින්ම": 2856,
      "මාර්ගය": 2857,
      "ඇහෙනවද": 2858,
      "ew": 2859,
      "එනවද": 2860,
      "වයස": 2861,
      "පළවෙනි": 2862,
      "ආය": 2863,
      "වසර": 2864,
      "ළමය": 2865,
      "හිතේ": 2866,
      "ගානේ": 2867,
      "උන්ව": 2868,
      "ළමයා": 2869,
      "ගබඩා": 2870,
      "ast": 2871,
      "බැලුව": 2872,
      "පස": 2873,
      "සෙන්": 2874,
      "‍ගේ": 2875,
      "සලකුණු": 2876,
      "යකෝ": 2877,
      "කිරීම්": 2878,
      "ලෝකයේ": 2879,
      "කිවුවේ": 2880,
      "ගෞර": 2881,
      "විලා": 2882,
      "නෙක්": 2883,
      "පැත්තකට": 2884,
      "ඩම්බ": 2885,
      "මරා": 2886,
      "යතුරු": 2887,
      "ස්මක්": 2888,
      "කැර": 2889,
      "න්ඩර්": 2890,
      "Canada": 2891,
      "ෙහ": 2892,
      "කරුණාකරල": 2893,
      "මැරුණා": 2894,
      "ක්‍රමයක්": 2895,
      "වීමේ": 2896,
      "තිබ්බෙ": 2897,
      "උතුමාණ": 2898,
      "උබේ": 2899,
      "මිස්": 2900,
      "කුමක්": 2901,
      "පහසු": 2902,
      "චෙ": 2903,
      "ශු": 2904,
      "අහන්නේ": 2905,
      "අනිවාර්ය": 2906,
      "con": 2907,
      "ආකාරය": 2908,
      "උසස්": 2909,
      "කලි": 2910,
      "op": 2911,
      "කසා": 2912,
      "ටේ": 2913,
      "දිවි": 2914,
      "කෙලින්ම": 2915,
      "නිසාද": 2916,
      "පැමිණි": 2917,
      "බෙහෙත්": 2918,
      "ගහනවා": 2919,
      "රාජකාරිය": 2920,
      "වීම්": 2921,
      "කීම": 2922,
      "සම්පුර්": 2923,
      "ංගු": 2924,
      "ඉර": 2925,
      "පැර": 2926,
      "හ්ම්": 2927,
      "කීර්": 2928,
      "ඔක්කම": 2929,
      "එහ": 2930,
      "ෙනවද": 2931,
      "ආච්චි": 2932,
      "ඩැ": 2933,
      "ප්‍": 2934,
      "න්ඩ්": 2935,
      "යාට": 2936,
      "අයිස්": 2937,
      "සීමාව": 2938,
      "චාර්ලි": 2939,
      "වෙයන්": 2940,
      "හිතලා": 2941,
      "ියෙ": 2942,
      "විකුණ": 2943,
      "මුලින්": 2944,
      "පත්ත": 2945,
      "විඩ්": 2946,
      "රුනා": 2947,
      "සාධා": 2948,
      "අයව": 2949,
      "ප්‍රශ්නේ": 2950,
      "ඉන්දියා": 2951,
      "දනේ": 2952,
      "්‍රා": 2953,
      "විස්වාස": 2954,
      "ලක": 2955,
      "වැඩකට": 2956,
      "ආරංච": 2957,
      "ඔහේට": 2958,
      "ග්‍රේ": 2959,
      "පහක්": 2960,
      "වාහන": 2961,
      "ඉස්සරහට": 2962,
      "අනිවාර්යෙන්ම": 2963,
      "වැටිලා": 2964,
      "නිව": 2965,
      "ලේසි": 2966,
      "බාධ": 2967,
      "කිරීමේ": 2968,
      "අමුත්ත": 2969,
      "ඇල්": 2970,
      "බහු": 2971,
      "හඩ": 2972,
      "ගෙම": 2973,
      "දිනය": 2974,
      "කියන්නද": 2975,
      "පීටර්": 2976,
      "අර්": 2977,
      "නීතිය": 2978,
      "පහත්": 2979,
      "දිම": 2980,
      "හරින්න": 2981,
      "සහතික": 2982,
      "සාර්ථක": 2983,
      "වතාවක්": 2984,
      "නිසැ": 2985,
      "දරුව": 2986,
      "එක්කෙනෙක්": 2987,
      "ෙකු": 2988,
      "නිවැරදි": 2989,
      "යටත්": 2990,
      "තට්ට": 2991,
      "හෝට": 2992,
      "අහකට": 2993,
      "කවද්ද": 2994,
      "දෙන්": 2995,
      "ස්තූති": 2996,
      "කල්පනා": 2997,
      "em": 2998,
      "චැ": 2999,
      "වුර": 3000,
      "පේන්න": 3001,
      "පේනවද": 3002,
      "ඌට": 3003,
      "ඒකා": 3004,
      "උත්ස": 3005,
      "අනතුරක්": 3006,
      "ගස්ස": 3007,
      "පසුව": 3008,
      "යිද": 3009,
      "දැං": 3010,
      "ස්ටා": 3011,
      "um": 3012,
      "ආඩම්බ": 3013,
      "ගතය": 3014,
      "ථා": 3015,
      "තාක්ෂ": 3016,
      "නගින්න": 3017,
      "තුරේ": 3018,
      "දැනන්": 3019,
      "ht": 3020,
      "ඇදු": 3021,
      "වරද": 3022,
      "බොර": 3023,
      "තිබුනෙ": 3024,
      "?\"": 3025,
      "බෙන්": 3026,
      "හඬ": 3027,
      "ෙත්": 3028,
      "එල්": 3029,
      "ඇතුළ": 3030,
      "තිස්සෙම": 3031,
      "මතු": 3032,
      "කණ්ඩායමක්": 3033,
      "වෛර": 3034,
      "කිහිපයක්": 3035,
      "සික": 3036,
      "ප්ල": 3037,
      "මැරෙනවා": 3038,
      "මෙහෙයුම": 3039,
      "කඳු": 3040,
      "කරුනා": 3041,
      "අතී": 3042,
      "ඇලෙක්ස්": 3043,
      "වරක්": 3044,
      "කලාද": 3045,
      "අන්තිමේ": 3046,
      "ඇඟි": 3047,
      "ඔත්තු": 3048,
      "රල්": 3049,
      "ප්‍රදේශ": 3050,
      "දෙනව": 3051,
      "පරිස්සම්": 3052,
      "පෞද්ග": 3053,
      "ඒකනම්": 3054,
      "අතින්": 3055,
      "ණට": 3056,
      "බිල්": 3057,
      "සියළුම": 3058,
      "ඇට": 3059,
      "බලන්නම්": 3060,
      "විනාඩියක්": 3061,
      "වෙනසක්": 3062,
      "විශ්වාසය": 3063,
      "ගර්": 3064,
      "ණාව": 3065,
      "ලුහු": 3066,
      "ලැබෙනවා": 3067,
      "එවන්න": 3068,
      "ලක්ෂ": 3069,
      "ත්ති": 3070,
      "විධ": 3071,
      "මෙට": 3072,
      "අයියේ": 3073,
      "ස්තුති": 3074,
      "ඇහුම්": 3075,
      "ආර්": 3076,
      "ගස්": 3077,
      "නිල්": 3078,
      "තුමනි": 3079,
      "මදි": 3080,
      "හර්": 3081,
      "මාළු": 3082,
      "රීන්": 3083,
      "40": 3084,
      "ලකේස්": 3085,
      "ස්තියි": 3086,
      "කෝපි": 3087,
      "මිනිහව": 3088,
      "කරගත්තා": 3089,
      "BI": 3090,
      "di": 3091,
      "භාවිතා": 3092,
      "බලන්නේ": 3093,
      "දේට": 3094,
      "සෙල්": 3095,
      "පෙන්නේ": 3096,
      "ඔච්චර": 3097,
      "තක": 3098,
      "pp": 3099,
      "කරන්නත්": 3100,
      "ස්ට්‍ර": 3101,
      "අශ්": 3102,
      "උණ්ඩ": 3103,
      "ධාව": 3104,
      "ගන්නා": 3105,
      "පොළ": 3106,
      "හැකියා": 3107,
      "ජෙනී": 3108,
      "මාගේ": 3109,
      "ent": 3110,
      "අහ්හ්": 3111,
      "යාගේ": 3112,
      "බිඳ": 3113,
      "ණ්ඩු": 3114,
      "දකින": 3115,
      "අස්": 3116,
      "ථි": 3117,
      "මේන්": 3118,
      "රජු": 3119,
      "මෘ": 3120,
      "නිවා": 3121,
      "මැද": 3122,
      "පවත්": 3123,
      "්‍රිකා": 3124,
      "එක්කන්": 3125,
      "sh": 3126,
      "කියලයි": 3127,
      "රාජ්": 3128,
      "ෙනා": 3129,
      "DE": 3130,
      "වුනාට": 3131,
      "බහ": 3132,
      "ප්‍රහා": 3133,
      "වුණත්": 3134,
      "සියලුම": 3135,
      "යහ": 3136,
      "ප්‍රයෝ": 3137,
      "ගමන": 3138,
      "ගෑණු": 3139,
      "පණපිටින්": 3140,
      "sl": 3141,
      "දන්නා": 3142,
      "ක්ෂේ": 3143,
      "උපකරණ": 3144,
      "සිටිනවා": 3145,
      "ඊලග": 3146,
      "බලන": 3147,
      "දැනෙන්නේ": 3148,
      "ගැහුවා": 3149,
      "මේව": 3150,
      "නුයි": 3151,
      "පිටත්": 3152,
      "දෛ": 3153,
      "එක්කගෙන": 3154,
      "එයාලගෙ": 3155,
      "දකුණ": 3156,
      "ල්ෆ්": 3157,
      "ත්තුවක්": 3158,
      "ගෙද": 3159,
      "මොකක්හරි": 3160,
      "රාජ්‍ය": 3161,
      "ෑන්ක්": 3162,
      "13": 3163,
      "අම": 3164,
      "මව්": 3165,
      "මේකෙ": 3166,
      "ලේසිය": 3167,
      "රියේ": 3168,
      "ප්‍රශ්නෙ": 3169,
      "කොල": 3170,
      "වෙන්නයි": 3171,
      "හිතන්": 3172,
      "හිතෙනවා": 3173,
      "නියක්": 3174,
      "සමත්": 3175,
      "විහිලු": 3176,
      "දරුවා": 3177,
      "ආවරණය": 3178,
      "ඊයෙ": 3179,
      "පලා": 3180,
      "නවට": 3181,
      "අවුල": 3182,
      "බේරා": 3183,
      "අල්ලගෙන": 3184,
      "පණිවිඩය": 3185,
      "න්දුව": 3186,
      "කියනවද": 3187,
      "කරුවෙක්": 3188,
      "කාලෙකට": 3189,
      "ෂණය": 3190,
      "{\\": 3191,
      "ගරු": 3192,
      "සත්‍ය": 3193,
      "පරිවර්": 3194,
      "ගියාම": 3195,
      "නගරයේ": 3196,
      "‍ති": 3197,
      "නැවැ": 3198,
      "පිලිගන්නවා": 3199,
      "පිහිට": 3200,
      "මේකයි": 3201,
      "කින්න": 3202,
      "අපා": 3203,
      "ඔයාම": 3204,
      "තියනේ": 3205,
      "අහනවා": 3206,
      "පිළිගන්නවා": 3207,
      "අංකය": 3208,
      "කුළු": 3209,
      "වොට්": 3210,
      "කිව්වද": 3211,
      "පරීක්ෂණ": 3212,
      "සිටින": 3213,
      "ඕනෑම": 3214,
      "ඩය": 3215,
      "සද": 3216,
      "බලලා": 3217,
      "සම්බන්ද": 3218,
      "ස්ථාන": 3219,
      "‍ක‍": 3220,
      "ෂර්": 3221,
      "සමු": 3222,
      "නිළ": 3223,
      "පුලුව": 3224,
      "වුනාම": 3225,
      "ග්‍රා": 3226,
      "මෝඩයෙක්": 3227,
      "බයයි": 3228,
      "ගෑනු": 3229,
      "FBI": 3230,
      "වෙනකන්": 3231,
      "ටොම්": 3232,
      "එවා": 3233,
      "කස්": 3234,
      "ක්ලෝ": 3235,
      "යක්ද": 3236,
      "පොත්": 3237,
      "බැට": 3238,
      "දෙකයි": 3239,
      "ගැහැණු": 3240,
      "වම්": 3241,
      "එකකට": 3242,
      "මෙක": 3243,
      "කටයුතු": 3244,
      "මිනිසා": 3245,
      "කොහොමත්": 3246,
      "හමුදාව": 3247,
      "ආරක්ෂිත": 3248,
      "උඩින්": 3249,
      "‍හ": 3250,
      "යානා": 3251,
      "වැසිය": 3252,
      "වේගය": 3253,
      "වෙලාද": 3254,
      "ජීව": 3255,
      "දෙකකට": 3256,
      "භාර": 3257,
      "පිපි": 3258,
      "නාට": 3259,
      "ප්‍රකාශ": 3260,
      "මිනිස්": 3261,
      "නුත්": 3262,
      "හදපු": 3263,
      "ගැනීමේ": 3264,
      "වචනයක්": 3265,
      "තේරෙන්නෙ": 3266,
      "\".": 3267,
      "නටම": 3268,
      "වැටෙ": 3269,
      "දුන්නෙ": 3270,
      "මැදි": 3271,
      "බෙල්": 3272,
      "කොල්ලෙක්": 3273,
      "ආවොත්": 3274,
      "ශරී": 3275,
      "ප්‍රසිද්ධ": 3276,
      "සංගී": 3277,
      "ලෑස්තිද": 3278,
      "තේරුනාද": 3279,
      "නිසැකවම": 3280,
      "රයා": 3281,
      "‍ග": 3282,
      "වීඩියෝ": 3283,
      "ගාණ": 3284,
      "ill": 3285,
      "භී": 3286,
      "දායක": 3287,
      "නයෙන්": 3288,
      "ට්‍රක්": 3289,
      "පෙල": 3290,
      "හැකියාව": 3291,
      "මෝඩයා": 3292,
      "නිකම්ම": 3293,
      "Al": 3294,
      "කඳ": 3295,
      "යාලුවෙක්": 3296,
      "ගනියි": 3297,
      "රෙන්": 3298,
      "බැල්ලි": 3299,
      "අවස්": 3300,
      "ඉස්සරහ": 3301,
      "මනුස්සයෙක්": 3302,
      "qu": 3303,
      "න්ක්": 3304,
      "තරමේ": 3305,
      "කුල": 3306,
      "ඉතිහා": 3307,
      "මචෝ": 3308,
      "වැසි": 3309,
      "වුනාද": 3310,
      "රොන්": 3311,
      "පරිගණ": 3312,
      "අද්": 3313,
      "තල්ලු": 3314,
      "ගෙයි": 3315,
      "දෙවියන්ට": 3316,
      "පරික්ෂා": 3317,
      "‍මා": 3318,
      "එයාගෙන්": 3319,
      "කාරි": 3320,
      "දුක": 3321,
      "පොලිසියට": 3322,
      "පනින්න": 3323,
      "රීම": 3324,
      "කෙටි": 3325,
      "තුවක්කුවක්": 3326,
      "අප්": 3327,
      "art": 3328,
      "තිස්සේ": 3329,
      "ගොඩනැගිල්ල": 3330,
      "සතිය": 3331,
      "ගත්තු": 3332,
      "ind": 3333,
      "ප්‍රශ්නය": 3334,
      "ඩයි": 3335,
      "හම්බවෙන්න": 3336,
      "16": 3337,
      "dit": 3338,
      "ඇවිද": 3339,
      "ස්වය": 3340,
      "හොයනවා": 3341,
      "මුල": 3342,
      "බෝවන්": 3343,
      "අත්සන්": 3344,
      "පිරිමි": 3345,
      "ඇහුම්කන්": 3346,
      "කිව්වනේ": 3347,
      "විදියක්": 3348,
      "ඇදලා": 3349,
      "කුරුල්ල": 3350,
      "කටම": 3351,
      "කොළ": 3352,
      "මෙතැන": 3353,
      "නියෝජිත": 3354,
      "5ක්": 3355,
      "දිනවා": 3356,
      "මිල": 3357,
      "පිළිබඳ": 3358,
      "මනුෂ්‍ය": 3359,
      "තෘ": 3360,
      "න්ගෙන්": 3361,
      "තිෙ": 3362,
      "වනු": 3363,
      "මුහුදු": 3364,
      "දූපත": 3365,
      "ලික්": 3366,
      "කීපයක්": 3367,
      "බෙල්ල": 3368,
      "කෑලි": 3369,
      "වැඩිපුර": 3370,
      "පෙම්ව": 3371,
      "තබා": 3372,
      "මළ": 3373,
      "සක්‍රීය": 3374,
      "මාමා": 3375,
      "නාස්ති": 3376,
      "මයිල්ස්": 3377,
      "පයකට": 3378,
      "හීන": 3379,
      "අකුරු": 3380,
      "ගනේ": 3381,
      "ගෞරවය": 3382,
      "නිෂ්": 3383,
      "ඩියු": 3384,
      "ස්වයං": 3385,
      "මිට": 3386,
      "නොහැක": 3387,
      "උනාට": 3388,
      "ess": 3389,
      "දක්වා": 3390,
      "පුද්ගලය": 3391,
      "ශබ්ද": 3392,
      "මටම": 3393,
      "ජේක්": 3394,
      "ප්‍රමාණ": 3395,
      "vi": 3396,
      "චර්": 3397,
      "දෑ": 3398,
      "හං": 3399,
      "තාත්තෙ": 3400,
      "ගහලා": 3401,
      "සයිඩ්": 3402,
      "ගන්වන්න": 3403,
      "හැරෙන්න": 3404,
      "දෙවෙනි": 3405,
      "එහෙට": 3406,
      "සේවය": 3407,
      "පාරෙන්": 3408,
      "සැලකි": 3409,
      "ක්‍රීඩා": 3410,
      "පලයන්": 3411,
      "fo": 3412,
      "බාර්": 3413,
      "බොත්ත": 3414,
      "ලියි": 3415,
      "කකුල": 3416,
      "අක": 3417,
      "අදින්න": 3418,
      "ඡා": 3419,
      "ලට්": 3420,
      "හූ": 3421,
      "‍ඔ": 3422,
      "දැකල": 3423,
      "කීය": 3424,
      "අත්අඩංගුවට": 3425,
      "ආරක්ෂිතයි": 3426,
      "උපරිම": 3427,
      "දරා": 3428,
      "...\"": 3429,
      "පාඩ": 3430,
      "වාසනාව": 3431,
      "පැත්තෙ": 3432,
      "දියු": 3433,
      "කපි": 3434,
      "පතේ": 3435,
      "හත්": 3436,
      "ers": 3437,
      "ගනන්": 3438,
      "කියපන්": 3439,
      "කොට්": 3440,
      "හෙල": 3441,
      "සිටිය": 3442,
      "ගෙනත්": 3443,
      "බැංක": 3444,
      "රයන්": 3445,
      "ඉක්මනටම": 3446,
      "කාන්තාව": 3447,
      "වොට්සන්": 3448,
      "ly": 3449,
      "ඔයාද": 3450,
      "ස්කෝ": 3451,
      "ආයුබෝවන්": 3452,
      "දත්": 3453,
      "නෑනෙ": 3454,
      "දවල්": 3455,
      "රැස්": 3456,
      "ත්‍රස්ත": 3457,
      "ගනීවි": 3458,
      "):": 3459,
      "අවල": 3460,
      "තහ": 3461,
      "‍නේ": 3462,
      "මිනිහට": 3463,
      "ලිපිනය": 3464,
      "ක්ලෙ": 3465,
      "වහන්න": 3466,
      "ාවට": 3467,
      "මටයි": 3468,
      "අවස්ථා": 3469,
      "කූපර්": 3470,
      "be": 3471,
      "ක්‍ර": 3472,
      "ව්‍යාපෘතිය": 3473,
      "හැදුව": 3474,
      "දායි": 3475,
      "ආරක්": 3476,
      "ජේම්ස්": 3477,
      "ount": 3478,
      "ලබාගන්න": 3479,
      "විදිහක්": 3480,
      "ප්‍රමාණය": 3481,
      "සපත්තු": 3482,
      "අමත": 3483,
      "මගින්": 3484,
      "ස්ටි": 3485,
      "ල්‍ය": 3486,
      "සිතිය": 3487,
      "රූප": 3488,
      "එළියේ": 3489,
      "24": 3490,
      "නමයි": 3491,
      "වළ": 3492,
      "හදාගන්න": 3493,
      "වාදී": 3494,
      "අතරේ": 3495,
      "im": 3496,
      "ඇනා": 3497,
      "හිම": 3498,
      "නාවි": 3499,
      "කාඩ්": 3500,
      "පැනල": 3501,
      "පමණයි": 3502,
      "වුනු": 3503,
      "ලේන්": 3504,
      "ig": 3505,
      "ෂෙ": 3506,
      "අහුව": 3507,
      "යාළුවො": 3508,
      "යන්නද": 3509,
      "සුදානම්": 3510,
      "ලෝන්": 3511,
      "බරපත": 3512,
      "cHFF": 3513,
      "අහිං": 3514,
      "එකද": 3515,
      "ගෙවල්": 3516,
      "පූජ": 3517,
      "පෙනී": 3518,
      "ප්‍රවේශ": 3519,
      "කටු": 3520,
      "ණික": 3521,
      "ලෑස්තියි": 3522,
      "ගැනීමක්": 3523,
      "හිතාගෙන": 3524,
      "මහත්වරුනි": 3525,
      "ලුවක්": 3526,
      "කාළ": 3527,
      "වැඩට": 3528,
      "කේට්": 3529,
      "කණ්ඩායමේ": 3530,
      "මාමේ": 3531,
      "භයානකයි": 3532,
      "අතාරින්න": 3533,
      "pe": 3534,
      "ඇහුව": 3535,
      "මූල": 3536,
      "අනාගතය": 3537,
      "do": 3538,
      "ඇදුම්": 3539,
      "එඩ්": 3540,
      "චරි": 3541,
      "චන්ද": 3542,
      "කරුව": 3543,
      "උවමනා": 3544,
      "පත්‍ර": 3545,
      "ාන්": 3546,
      "තිබිලා": 3547,
      "are": 3548,
      "දැක්කෙ": 3549,
      "අනුමාන": 3550,
      "ෆිල්": 3551,
      "හොයලා": 3552,
      "මුණගැහෙන්න": 3553,
      "තුළ": 3554,
      "සිත්": 3555,
      "ඉන්නකොට": 3556,
      "නැහැනේ": 3557,
      "රැජි": 3558,
      "පහුගිය": 3559,
      "වහගන්න": 3560,
      "පිටිපස්සේ": 3561,
      "එසේ": 3562,
      "ෙවන්න": 3563,
      "වෙස්": 3564,
      "ම්ම": 3565,
      "නිම": 3566,
      "ලුයි": 3567,
      "දීමක්": 3568,
      "උපදෙ": 3569,
      "ඉක්මනින්ම": 3570,
      "bo": 3571,
      "අරු": 3572,
      "මොළ": 3573,
      "හෙලි": 3574,
      "දැනුම්": 3575,
      "මඟුලක්ද": 3576,
      "මට්ට": 3577,
      "14": 3578,
      "උණ": 3579,
      "ලුවේ": 3580,
      "ුවනේ": 3581,
      "සහය": 3582,
      "සමී": 3583,
      "සැරයක්": 3584,
      "උගු": 3585,
      "සත්ත": 3586,
      "කරොත්": 3587,
      "බිමට": 3588,
      "රෙහි": 3589,
      "ඇතුළට": 3590,
      "කීයක්": 3591,
      "දුරට": 3592,
      "මිනීමැරු": 3593,
      "පිස්සුවක්": 3594,
      "පින්තූර": 3595,
      "ආසයි": 3596,
      "ඉන්නම්": 3597,
      "හිතනව": 3598,
      "වලදි": 3599,
      "සැබෑ": 3600,
      "ගහගෙන": 3601,
      "ලැජ්ජ": 3602,
      "ex": 3603,
      "රහිත": 3604,
      "කියයි": 3605,
      "හොයන්නේ": 3606,
      "කිවා": 3607,
      "සාම්": 3608,
      "රෙඩ්": 3609,
      "පරීක්ෂක": 3610,
      "වෘත්ත": 3611,
      "අභ්‍ය": 3612,
      "කකුල්": 3613,
      "සත්තු": 3614,
      "වරදක්": 3615,
      "යේදී": 3616,
      "හොයාගත්ත": 3617,
      "මිනිස්සුන්ව": 3618,
      "අවුරුද්ද": 3619,
      "ඇහුවා": 3620,
      "wh": 3621,
      "මිත්‍ර": 3622,
      "බල්ලෙක්": 3623,
      "භය": 3624,
      "වැල": 3625,
      "ප්‍රො": 3626,
      "ඩියා": 3627,
      "ත්‍රි": 3628,
      "පියන්": 3629,
      "විරුද්ධව": 3630,
      "ජිවිතේ": 3631,
      "න්තර": 3632,
      "සිල්": 3633,
      "පාරේ": 3634,
      "ට්ටුවක්": 3635,
      "ලයිට්": 3636,
      "මොහොත": 3637,
      "ul": 3638,
      "බට්": 3639,
      "යාම": 3640,
      "හිතෙන": 3641,
      "උපසි": 3642,
      "ation": 3643,
      "හයියෙන්": 3644,
      "පණිවිඩයක්": 3645,
      "දලා": 3646,
      "නාම": 3647,
      "අරං": 3648,
      "ච්චා": 3649,
      "පියවර": 3650,
      "ව්‍යාපාර": 3651,
      "ඇරලා": 3652,
      "පමණක්": 3653,
      "වේගයෙන්": 3654,
      "පෙනුම": 3655,
      "උසා": 3656,
      "තාන්": 3657,
      "දන්නවාද": 3658,
      "රැක": 3659,
      "සනීප": 3660,
      "Re": 3661,
      "ph": 3662,
      "යිඩ්": 3663,
      "කරපන්": 3664,
      "කාලා": 3665,
      "ටිකට්": 3666,
      "මගෙත්": 3667,
      "අවසානය": 3668,
      "පුරාම": 3669,
      "ts": 3670,
      "ඩැන": 3671,
      "ව්වෙ": 3672,
      "නුම්": 3673,
      "ලීස්": 3674,
      "මීටර්": 3675,
      "වයින්": 3676,
      "කඩේ": 3677,
      "රාවටම": 3678,
      "ඉංග": 3679,
      "මල්ලි": 3680,
      "ෂෝ": 3681,
      "මාලි": 3682,
      "කෙනෙකුට": 3683,
      "ම්බර්": 3684,
      "න්දුවක්": 3685,
      "NA": 3686,
      "අනෙක්": 3687,
      "ඉරි": 3688,
      "බදින්න": 3689,
      "පිහි": 3690,
      "නින්ද": 3691,
      "ක්‍රමය": 3692,
      "දැන්මම": 3693,
      "කේත": 3694,
      "ප්‍රේම්": 3695,
      "සාධාරණ": 3696,
      "ub": 3697,
      "ලන්ඩ": 3698,
      "යාර්": 3699,
      "මාස්ටර්": 3700,
      "තුන්ද": 3701,
      "කාවක්": 3702,
      "අහගන්න": 3703,
      "කාරයො": 3704,
      "ස්ථාපනය": 3705,
      "KDE": 3706,
      "ver": 3707,
      "හංග": 3708,
      "න්ග්": 3709,
      "මොන්": 3710,
      "්‍රී": 3711,
      "වං": 3712,
      "හිරි": 3713,
      "මිල්": 3714,
      "වෙන්නත්": 3715,
      "ගිවි": 3716,
      "ලො": 3717,
      "අයිතිය": 3718,
      "දෙකම": 3719,
      "ලැබුන": 3720,
      "ඉහල": 3721,
      "ome": 3722,
      "ry": 3723,
      "ti": 3724,
      "ලුවට": 3725,
      "ෙන්ට": 3726,
      "කෙල්ලේ": 3727,
      "තියනෙවා": 3728,
      "ඊලඟ": 3729,
      "ක්ද": 3730,
      "ඒකද": 3731,
      "කැඩි": 3732,
      "සැත": 3733,
      "ප්ට": 3734,
      "ලෙඩ": 3735,
      "වහනවා": 3736,
      "වැඩේට": 3737,
      "ලිංගි": 3738,
      "pl": 3739,
      "කනවා": 3740,
      "කට්ට": 3741,
      "දාපු": 3742,
      "ප්‍රිය": 3743,
      "රියන්": 3744,
      "all": 3745,
      "ජස්": 3746,
      "න්ටන්": 3747,
      "මත්ද්‍රව්‍ය": 3748,
      "ජිම්": 3749,
      "එතනින්": 3750,
      "තෑග්ගක්": 3751,
      "එකග": 3752,
      "රයෙන්": 3753,
      "බොස්": 3754,
      "වහලා": 3755,
      "ද්‍රෝ": 3756,
      "වෝල්": 3757,
      "තදින්": 3758,
      "සාක්ෂ": 3759,
      "කිසිවක්": 3760,
      "ගුහා": 3761,
      "තමුන්ට": 3762,
      "අන්තර්": 3763,
      "බුද්ධිමත්": 3764,
      "අනිවාර්යයෙන්ම": 3765,
      "පදි": 3766,
      "බඳින්න": 3767,
      "මහෙ": 3768,
      "මණ්ඩ": 3769,
      "කවුළු": 3770,
      "මහන්සි": 3771,
      "ඇවිල්ල": 3772,
      "ard": 3773,
      "ඉස්සෙ": 3774,
      "අගු": 3775,
      "මාරුව": 3776,
      "කුණා": 3777,
      "ගැඹු": 3778,
      "රැසි": 3779,
      "ෂිට්": 3780,
      "ලැබෙන්නේ": 3781,
      "වගෙයි": 3782,
      "චු": 3783,
      "බවක්": 3784,
      "රලා": 3785,
      "කෝච්ච": 3786,
      "නටන්න": 3787,
      "රම්": 3788,
      "ගැනයි": 3789,
      "දැනගත්තා": 3790,
      "සැප": 3791,
      "ඇමතු": 3792,
      "යාළුවෙක්": 3793,
      "oh": 3794,
      "ලකුණු": 3795,
      "වෙල්": 3796,
      "යන්ත්‍ර": 3797,
      "ජීවිතයක්": 3798,
      "ප්‍රියා": 3799,
      "ණුව": 3800,
      "යම": 3801,
      "රාක්ෂ": 3802,
      "බැං": 3803,
      "අපෙන්": 3804,
      "සමාජ": 3805,
      "නරකයි": 3806,
      "කාන්තා": 3807,
      "වාසනාවන්": 3808,
      "ෙක": 3809,
      "යිල්": 3810,
      "ලානා": 3811,
      "රෝධ": 3812,
      "සෙල්ලම": 3813,
      "ecast": 3814,
      "forecast": 3815,
      "2ක්": 3816,
      "උගේ": 3817,
      "මායි": 3818,
      "කාගේ": 3819,
      "ආරක්ශ": 3820,
      "ගහන": 3821,
      "යෝජනා": 3822,
      "ළඟට": 3823,
      "සැකසුම්": 3824,
      "action": 3825,
      "ff": 3826,
      "tran": 3827,
      "ආවම": 3828,
      "සදා": 3829,
      "විටම": 3830,
      "විසඳ": 3831,
      "හැමතැනම": 3832,
      "ගත්තට": 3833,
      "කෑමට": 3834,
      "කුණක්": 3835,
      "18": 3836,
      "ආවද": 3837,
      "ජරාව": 3838,
      "සිම්": 3839,
      "හුරු": 3840,
      "දේවි": 3841,
      "සමාන": 3842,
      "විකි": 3843,
      "පිවි": 3844,
      "ලැක්": 3845,
      "ලොකුම": 3846,
      "කෘති": 3847,
      "ගෙනාවා": 3848,
      "පෙට්ටිය": 3849,
      "\\\\": 3850,
      "ton": 3851,
      "දනා": 3852,
      "ඉල්ලන්න": 3853,
      "වේගවත්": 3854,
      "ඩුවක්": 3855,
      "රත්ත": 3856,
      "‍රු": 3857,
      "හින්ද": 3858,
      "සාක": 3859,
      "මතකය": 3860,
      "සීයා": 3861,
      "නැත්තං": 3862,
      "ඉස්සරහා": 3863,
      "id": 3864,
      "මෑන්": 3865,
      "කාලි": 3866,
      "නියමෙට": 3867,
      "හිටියොත්": 3868,
      "දුන්නොත්": 3869,
      "කාටහරි": 3870,
      "ඇවිදින්න": 3871,
      "නැඟි": 3872,
      "වුවා": 3873,
      "සිත": 3874,
      "මැරුව": 3875,
      "කොහොමහරි": 3876,
      "ඔවුන්ගෙ": 3877,
      "ස්ථි": 3878,
      "ඔහේගේ": 3879,
      "පුද්ගලික": 3880,
      "අමතර": 3881,
      "500": 3882,
      "man": 3883,
      "දයි": 3884,
      "තියන්": 3885,
      "ගිලි": 3886,
      "ඕනෙම": 3887,
      "සොල්": 3888,
      "නිර්භී": 3889,
      "ඉලක්කය": 3890,
      "අහිමි": 3891,
      "රියෙක්": 3892,
      "හෝව්": 3893,
      "os": 3894,
      "අස්ස": 3895,
      "ආචාර්ය": 3896,
      "නන්න": 3897,
      "විෂ": 3898,
      "ගිණු": 3899,
      "dition": 3900,
      "උපසිරැසි": 3901,
      "ඉංග්‍රී": 3902,
      "ලත්": 3903,
      "ගින": 3904,
      "නැත්තන්": 3905,
      "සුන්දර": 3906,
      "ලැබීම": 3907,
      "හම්බුනා": 3908,
      "ආහාර": 3909,
      "ඔහෙ": 3910,
      "වෙමින්": 3911,
      "දේකට": 3912,
      "කැප": 3913,
      "අපහසු": 3914,
      "වීරයෙක්": 3915,
      "රොබෝ": 3916,
      "සංඥ": 3917,
      "මැරුවේ": 3918,
      "තර්ජනය": 3919,
      "තෙල්": 3920,
      "දමන්න": 3921,
      "හඳුනා": 3922,
      "වෙර": 3923,
      "පැනගන්න": 3924,
      "ඇතුලත": 3925,
      "පෞද්ගලික": 3926,
      "ගෙදරින්": 3927,
      "පට්ට": 3928,
      "න්දා": 3929,
      "ගේම්": 3930,
      "කියවන්නේ": 3931,
      "පාත්": 3932,
      "පාරවල්": 3933,
      "නැත්ද": 3934,
      "පෙනෙන": 3935,
      "ඇහුනා": 3936,
      "ප්‍රාර්ථ": 3937,
      "සුරකින්න": 3938,
      "‍ප": 3939,
      "හිස": 3940,
      "මුන්": 3941,
      "මැරෙන": 3942,
      "දැකපු": 3943,
      "සදහා": 3944,
      "කයේ": 3945,
      "ෆර්": 3946,
      "පුද්": 3947,
      "මිලි": 3948,
      "කේතය": 3949,
      "ong": 3950,
      "මැරුණ": 3951,
      "හෙන්රි": 3952,
      "මුව": 3953,
      "සෙක්": 3954,
      "ැති": 3955,
      "පුම්": 3956,
      "රාහු": 3957,
      "අයත්": 3958,
      "ජේසු": 3959,
      "‍‍නේ": 3960,
      "දර්ශනය": 3961,
      "නිව්යෝ": 3962,
      "නඩු": 3963,
      "නැටු": 3964,
      "කොන්ඩ": 3965,
      "ගන්නද": 3966,
      "මික": 3967,
      "දුපත": 3968,
      "සැන්": 3969,
      "යුක්": 3970,
      "සිහින": 3971,
      "චැපී": 3972,
      "පුද්ගල": 3973,
      "ty": 3974,
      "අසර": 3975,
      "විල": 3976,
      "සැර": 3977,
      "විනාස": 3978,
      "හරිනේ": 3979,
      "යටතේ": 3980,
      "බිම්": 3981,
      "ගැහ": 3982,
      "විධානය": 3983,
      "Th": 3984,
      "බීම": 3985,
      "හොල්": 3986,
      "හෙමින්": 3987,
      "දැම්ම": 3988,
      "විදුලි": 3989,
      "උණුසුම්": 3990,
      "දෛවය": 3991,
      "දකුණට": 3992,
      "නිළධා": 3993,
      "17": 3994,
      "nd": 3995,
      "තට්ටු": 3996,
      "පයින්": 3997,
      "රඟ": 3998,
      "හත": 3999,
      "දෙපාර්": 4000,
      "බලවත්": 4001,
      "ප්ලෝන්": 4002,
      "හිටියද": 4003,
      "කොහෙත්ම": 4004,
      "ජික්": 4005,
      "සැලැස්මක්": 4006,
      "විවේක": 4007,
      "ඇමෙ": 4008,
      "ඔට්ටු": 4009,
      "පල්ලා": 4010,
      "කාගෙ": 4011,
      "ඇත්තද": 4012,
      "උනාද": 4013,
      "ඊටපස්සේ": 4014,
      "ග්‍රී": 4015,
      "හැංගි": 4016,
      "දඩයම්": 4017,
      "ඒවි": 4018,
      "තම්": 4019,
      "ෆැ": 4020,
      "විකල්": 4021,
      "දාමු": 4022,
      "හොයාගත්තේ": 4023,
      "සීමා": 4024,
      "කොල්ලො": 4025,
      "ලැබුනේ": 4026,
      "අනාගත": 4027,
      "ගෘ": 4028,
      "න්ම": 4029,
      "මුන": 4030,
      "පීඩ": 4031,
      "සම්බන්ධයක්": 4032,
      "වතාවට": 4033,
      "රාත්‍රියක්": 4034,
      "condition": 4035,
      "සත්තකින්ම": 4036,
      "ඉං": 4037,
      "දෙමව්": 4038,
      "සින": 4039,
      "සාජන්": 4040,
      "කුඩු": 4041,
      "ගත්තම": 4042,
      "කෙළ": 4043,
      "වියදම්": 4044,
      "කම්පා": 4045,
      "ඉඳල": 4046,
      "හමුවීම": 4047,
      "අවි": 4048,
      "වෙද්දි": 4049,
      "නාමය": 4050,
      "දුරකථන": 4051,
      "සළ": 4052,
      "නිදි": 4053,
      "අවං": 4054,
      "බෝට්ටුව": 4055,
      "දුවට": 4056,
      "ඇදගෙන": 4057,
      "ලැබෙයි": 4058,
      "වැටෙන්න": 4059,
      "br": 4060,
      "සැමියා": 4061,
      "මන්දා": 4062,
      "ort": 4063,
      "බියර්": 4064,
      "කං": 4065,
      "වරෙ": 4066,
      "ලොක්ක": 4067,
      "හෝම්ස්": 4068,
      "සුවඳ": 4069,
      "ඇමරිකානු": 4070,
      "දෝෂ": 4071,
      "රාහුල්": 4072,
      "ඥයෙක්": 4073,
      "බල්ලා": 4074,
      "එකපාර": 4075,
      "මුඛ": 4076,
      "වේදී": 4077,
      "අහල": 4078,
      "සමාගම": 4079,
      "බේරු": 4080,
      "දුරක": 4081,
      "කවදාවත්ම": 4082,
      "නැගිට": 4083,
      "transl": 4084,
      "ඇන": 4085,
      "ණයට": 4086,
      "බඳි": 4087,
      "වපු": 4088,
      "හැමදේ": 4089,
      "මැක්ස්": 4090,
      "පේනව": 4091,
      "යොදා": 4092,
      "හැදුවෙ": 4093,
      "අධ්‍": 4094,
      "බල්": 4095,
      "වතාව": 4096,
      "සතුර": 4097,
      "හල": 4098,
      "ෆා": 4099,
      "විට්": 4100,
      "හේතු": 4101,
      "සංකීර්": 4102,
      "ගමනය": 4103,
      "වේදනා": 4104,
      "පරිස්සමින්": 4105,
      "කසාදෙ": 4106,
      "ඹි": 4107,
      "එක්කද": 4108,
      "අවංක": 4109,
      "නොවන": 4110,
      "අතෑ": 4111,
      "තැනින්": 4112,
      "සරල": 4113,
      "නිකන්ම": 4114,
      "පෘථි": 4115,
      "කිවුවෙ": 4116,
      "ඇඟිලි": 4117,
      "චො": 4118,
      "ඵල": 4119,
      "‍කි": 4120,
      "මැස්ස": 4121,
      "සහගත": 4122,
      "info": 4123,
      "සංචා": 4124,
      "රාජු": 4125,
      "ස්ටීව්": 4126,
      "ඇග": 4127,
      "තරග": 4128,
      "බලන්නකෝ": 4129,
      "බිස්": 4130,
      "ව්‍යාපා": 4131,
      "උල්": 4132,
      "පක්ෂ": 4133,
      "ීමට": 4134,
      "‍ඇ": 4135,
      "‍තු": 4136,
      "වික්": 4137,
      "යන්නයි": 4138,
      "බොබ්": 4139,
      "නයිට්": 4140,
      "පවුලක්": 4141,
      "ආරංචියක්": 4142,
      "යං": 4143,
      "කරගන්නවා": 4144,
      "ඇරොන්": 4145,
      "ඔළුව": 4146,
      "මල්ල": 4147,
      "වාහනය": 4148,
      "‍ඔ‍යා": 4149,
      "ne": 4150,
      "සදහ": 4151,
      "‍මේ": 4152,
      "වහන්": 4153,
      "පියාඹ": 4154,
      "බහින්න": 4155,
      "වනව": 4156,
      "මාධ්‍ය": 4157,
      "ඇතුළු": 4158,
      "තේරුමක්": 4159,
      "දෙවියන්ගේ": 4160,
      "වනේනෙ": 4161,
      "නරකම": 4162,
      "ඇමතුමක්": 4163,
      "\"?": 4164,
      "com": 4165,
      "අරමුණ": 4166,
      "පිස්සුද": 4167,
      "දිනන්න": 4168,
      "ෂිත": 4169,
      "ඇරෙන්න": 4170,
      "දඬ": 4171,
      "දෘ": 4172,
      "කේන්": 4173,
      "සීම": 4174,
      "ලැබුණා": 4175,
      "සලකා": 4176,
      "කණ්ඩායම්": 4177,
      "ඔනේ": 4178,
      "ගලා": 4179,
      "පටිය": 4180,
      "හැරු": 4181,
      "කැත": 4182,
      "අහන්නෙ": 4183,
      "වඩාත්": 4184,
      "නැවතු": 4185,
      "අන්ධ": 4186,
      "පාලක": 4187,
      "ස්ථානයට": 4188,
      "පුදුමයි": 4189,
      "ඇහෙනවා": 4190,
      "තියනේනෙ": 4191,
      "අදාල": 4192,
      "සිග": 4193,
      "හැමතිස්සෙම": 4194,
      "කොහෙවත්": 4195,
      "ack": 4196,
      "රහසක්": 4197,
      "අමුතුයි": 4198,
      "හාර්ත": 4199,
      "අඬ": 4200,
      "ඒකම": 4201,
      "තියන්නේ": 4202,
      "දැඩි": 4203,
      "දාය": 4204,
      "පොර": 4205,
      "ඉක්මණට": 4206,
      "මූලික": 4207,
      "පිළිගන්න": 4208,
      "ඩේවිඩ්": 4209,
      "මඟුල": 4210,
      "තහනම්": 4211,
      "ඔලි": 4212,
      "දුන්": 4213,
      "බාධා": 4214,
      "රැගෙන": 4215,
      "සංඥා": 4216,
      "කාමරයට": 4217,
      "CI": 4218,
      "අසමත්": 4219,
      "බද": 4220,
      "‍නි": 4221,
      "පාස": 4222,
      "එක්කෝ": 4223,
      "කැලේ": 4224,
      "වරයා": 4225,
      "අවසානයේ": 4226,
      "වචනය": 4227,
      "මනස": 4228,
      "වැටුනා": 4229,
      "පොලීසියට": 4230,
      ").": 4231,
      "ඉම්": 4232,
      "ගණි": 4233,
      "බෙක්": 4234,
      "‍ස": 4235,
      "ක්ට": 4236,
      "රැන්": 4237,
      "සහෝදරිය": 4238,
      "25": 4239,
      "දහස්": 4240,
      "ධනය": 4241,
      "රග": 4242,
      "ෙදි": 4243,
      "සාම": 4244,
      "සේරා": 4245,
      "පහළ": 4246,
      "ජේසන්": 4247,
      "සම්බන්ධයෙන්": 4248,
      "ආරාධ": 4249,
      "ගඟ": 4250,
      "ශේ": 4251,
      "ළුවන්": 4252,
      "මොලේ": 4253,
      "මංකොල්ල": 4254,
      "වලදී": 4255,
      "මැජික්": 4256,
      "තාත්තගේ": 4257,
      "කරාද": 4258,
      "තීරණයක්": 4259,
      "හක්": 4260,
      "ෙන්ද": 4261,
      "ගැනම": 4262,
      "බලපන්": 4263,
      "ලැබේ": 4264,
      "විශ්ව": 4265,
      "මෙයාගේ": 4266,
      "විකාරයක්": 4267,
      "ai": 4268,
      "කදි": 4269,
      "වහා": 4270,
      "‍වේ": 4271,
      "හොයන": 4272,
      "කටද": 4273,
      "හිරවෙලා": 4274,
      "හවුල්": 4275,
      "බටහිර": 4276,
      "සදහටම": 4277,
      "පලි": 4278,
      "කියෙ": 4279,
      "පිං": 4280,
      "දිගු": 4281,
      "දුනේ": 4282,
      "වගේමයි": 4283,
      "අහගෙන": 4284,
      "සියක්": 4285,
      "ලියන්න": 4286,
      "පහළට": 4287,
      "වාර්ථා": 4288,
      "මානසික": 4289,
      "කනගා": 4290,
      "go": 4291,
      "රසා": 4292,
      "‍ටු": 4293,
      "හැගී": 4294,
      "ත්තේ": 4295,
      "නෙම්": 4296,
      "හරවන්න": 4297,
      "බාගයක්": 4298,
      "නැතිවෙලා": 4299,
      "ස්ටෝ": 4300,
      "හතරක්": 4301,
      "මෙනවිය": 4302,
      "වංචා": 4303,
      "'%": 4304,
      "ck": 4305,
      "චෙක්": 4306,
      "හයක්": 4307,
      "වාගෙන": 4308,
      "දැකී": 4309,
      "දෙන්නට": 4310,
      "ඕනදෙ": 4311,
      "පරිශී": 4312,
      "ප්‍රධානියා": 4313,
      "ගිහිං": 4314,
      "සොල්දා": 4315,
      "wor": 4316,
      "ආව්": 4317,
      "තරමට": 4318,
      "හිතෙන්නේ": 4319,
      "මැක්": 4320,
      "අරක": 4321,
      "ආරක්‍": 4322,
      "තුරක්": 4323,
      "ජයග්‍රහ": 4324,
      "ඇහුවේ": 4325,
      "මේන්තුව": 4326,
      "ඇප": 4327,
      "උතුරු": 4328,
      "තබ": 4329,
      "‍වෙ": 4330,
      "කරනු": 4331,
      "හිටි": 4332,
      "තුනයි": 4333,
      "හ්හ්": 4334,
      "තුන්වෙනි": 4335,
      "3ක්": 4336,
      "කලෙ": 4337,
      "ගඳ": 4338,
      "ලස්": 4339,
      "කුල්": 4340,
      "ලැබිලා": 4341,
      "කේක්": 4342,
      "කයො": 4343,
      "උනාම": 4344,
      "තාවයක්": 4345,
      "සකසන්න": 4346,
      "අඳුර": 4347,
      "ඔරලෝ": 4348,
      "බොරුවක්": 4349,
      "වික්ටර්": 4350,
      "තෝමස්": 4351,
      "හියු": 4352,
      "දුරකථනය": 4353,
      "කුමක්ද": 4354,
      "ක්ෂේප": 4355,
      "Sh": 4356,
      "ber": 4357,
      "එයින්": 4358,
      "කලෝ": 4359,
      "වගන්න": 4360,
      "සතියේ": 4361,
      "මුවා": 4362,
      "මරපු": 4363,
      "සාමාන්‍යයෙන්": 4364,
      "ගොල්ලො": 4365,
      "දෙනාම": 4366,
      "දනේන": 4367,
      "ප්‍රයෝජ": 4368,
      "Joh": 4369,
      "කන්ද": 4370,
      "පත්‍රය": 4371,
      "හැඩ": 4372,
      "පැව": 4373,
      "ලොස්": 4374,
      "බේ": 4375,
      "විහිලුවක්": 4376,
      "ඇඳුම": 4377,
      "000ක්": 4378,
      "චූ": 4379,
      "බනි": 4380,
      "ලවන්න": 4381,
      "ේද": 4382,
      "ේම": 4383,
      "විච්": 4384,
      "කුමා": 4385,
      "වේදි": 4386,
      "කෙනාව": 4387,
      "∙∙∙∙": 4388,
      "රියක්": 4389,
      "රේඩියෝ": 4390,
      "නගරෙ": 4391,
      "වේදනාව": 4392,
      "වගෝම": 4393,
      "උපන්දි": 4394,
      "Qu": 4395,
      "You": 4396,
      "ආයි": 4397,
      "ධර්": 4398,
      "ෙසා": 4399,
      "බේරෙන්න": 4400,
      "ශිල්": 4401,
      "මුද්‍ර": 4402,
      "දක්ෂයි": 4403,
      "ඉස්කෝප්ප": 4404,
      "වැඩසටහන": 4405,
      "ඇමෙරිකා": 4406,
      "අත්ත": 4407,
      "එලි": 4408,
      "එයට": 4409,
      "ලයින්": 4410,
      "වෙනස": 4411,
      "තාත්තව": 4412,
      "වර්ණ": 4413,
      "this": 4414,
      "නවත්තනවා": 4415,
      "ඇහුනද": 4416,
      "තමන්ගෙ": 4417,
      "od": 4418,
      "we": 4419,
      "ගමට": 4420,
      "සරය": 4421,
      "දැනෙන්නෙ": 4422,
      "කෙවින්": 4423,
      "ලියලා": 4424,
      "වහගෙන": 4425,
      "පුතාව": 4426,
      "ඇමති": 4427,
      "ma": 4428,
      "ඉල්ලා": 4429,
      "ඒවට": 4430,
      "ධ්‍යා": 4431,
      "වාසි": 4432,
      "නැගෙන": 4433,
      "මහත්": 4434,
      "one": 4435,
      "පිටපත්": 4436,
      "ලැබෙන්න": 4437,
      "මයෙ": 4438,
      "සුමක්": 4439,
      "පොදු": 4440,
      "ඩිර": 4441,
      "තමුසෙගෙ": 4442,
      "සැතපුම්": 4443,
      "ආසා": 4444,
      "එරෙහි": 4445,
      "සිප": 4446,
      "හානි": 4447,
      "කොහෙටද": 4448,
      "St": 4449,
      "The": 4450,
      "ඔත": 4451,
      "ෙහාද": 4452,
      "ස්තා": 4453,
      "විල්ල": 4454,
      "මේකත්": 4455,
      "මන්ද": 4456,
      "පටන්ගන්න": 4457,
      "දයකෝ": 4458,
      "පිටිපස්සෙ": 4459,
      "තත්පරයක්": 4460,
      "බැංකු": 4461,
      "නායකයා": 4462,
      "දෙි": 4463,
      "රුසියා": 4464,
      "කැඩු": 4465,
      "ස්ථානයේ": 4466,
      "වැටෙනවා": 4467,
      "හාදයා": 4468,
      "නිදහස": 4469,
      "ඉංග්‍රීසි": 4470,
      "අධ්‍යක්ෂ": 4471,
      "pro": 4472,
      "ඉද්දි": 4473,
      "තයා": 4474,
      "ුවත්": 4475,
      "නොමැ": 4476,
      "අයිය": 4477,
      "විදිහේ": 4478,
      "අල්ලගත්තා": 4479,
      "යකඩ": 4480,
      "හිටගෙන": 4481,
      "වැඩියෙන්": 4482,
      "සහාය": 4483,
      "ක්ලෝයි": 4484,
      "ආවට": 4485,
      "පදය": 4486,
      "නායක": 4487,
      "තාන්‍ය": 4488,
      "මිසයි": 4489,
      "වෙන්නම්": 4490,
      "ගානෙ": 4491,
      "ගියාද": 4492,
      "10ක්": 4493,
      "ell": 4494,
      "!\"": 4495,
      ":%": 4496,
      "නසා": 4497,
      "වෑන්": 4498,
      "නිමි": 4499,
      "හැමවෙලාවෙම": 4500,
      "නොවෙයි": 4501,
      "දැනෙන": 4502,
      "ගුරුව": 4503,
      "ධාර": 4504,
      "පහත": 4505,
      "හීනයක්": 4506,
      "ඩ්‍රයි": 4507,
      "ආඩම්බර": 4508,
      "කන්නේ": 4509,
      "චර": 4510,
      "ුයි": 4511,
      "ර්ය": 4512,
      "උපදේශ": 4513,
      "මෝඩයෝ": 4514,
      "වගකී": 4515,
      "උන්න": 4516,
      "පථ": 4517,
      "නාද": 4518,
      "පාන්": 4519,
      "පාරෙ": 4520,
      "මිනිසු": 4521,
      "කීවේ": 4522,
      "ජාතික": 4523,
      "පැහැදිලියි": 4524,
      "ගලවන්න": 4525,
      "ම්ම්ම්": 4526,
      "වතාවේ": 4527,
      "තිබෙන": 4528,
      "පරිස්සමෙන්": 4529,
      "තෝරාගන්න": 4530,
      "බෲ": 4531,
      "රික": 4532,
      "නැතත්": 4533,
      "තාර": 4534,
      "තරහා": 4535,
      "කුනු": 4536,
      "අප්‍රිකා": 4537,
      "සහති": 4538,
      "ගුණ": 4539,
      "කෑල්ල": 4540,
      "ගැනීම්": 4541,
      "දියුණු": 4542,
      "පඩි": 4543,
      "යත්": 4544,
      "‍කො": 4545,
      "නෙවා": 4546,
      "දීල": 4547,
      "බැරිවුනා": 4548,
      "මචන්": 4549,
      "මනුස්සයා": 4550,
      "පරක්කුයි": 4551,
      "වශයෙන්ම": 4552,
      "ඉස්කෝලෙ": 4553,
      "එහනෙම්": 4554,
      "මෘදු": 4555,
      "උපදෙස්": 4556,
      "ඩිරෙක්ට": 4557,
      "ඔෆි": 4558,
      "වේ": 4559,
      "තියට": 4560,
      "්‍‍": 4561,
      "කුස්ස": 4562,
      "එහෙත්": 4563,
      "බුන්": 4564,
      "දුරක්": 4565,
      "දැම්මේ": 4566,
      "ජෝර්": 4567,
      "රාත්‍රියේ": 4568,
      "ළගට": 4569,
      "හව": 4570,
      "විරෝධ": 4571,
      "නිවාස": 4572,
      "වැස්ස": 4573,
      "දානව": 4574,
      "රෙද්ද": 4575,
      "බෙදා": 4576,
      "හර්ලි": 4577,
      "tit": 4578,
      "ඉටු": 4579,
      "තයේ": 4580,
      "මව": 4581,
      "ෙි": 4582,
      "ප්ර": 4583,
      "උඹල": 4584,
      "ගැහෙන්න": 4585,
      "වියේ": 4586,
      "ගියාට": 4587,
      "පුතාට": 4588,
      "ක්‍රිස්": 4589,
      "රස්සා": 4590,
      "සිරුර": 4591,
      "tr": 4592,
      "එතැන": 4593,
      "‍දා": 4594,
      "තියල": 4595,
      "සංඛ": 4596,
      "යෙි": 4597,
      "කෙල්ලව": 4598,
      "යාළුවෝ": 4599,
      "තෝරන්න": 4600,
      "දඬුව": 4601,
      "John": 4602,
      "ජල": 4603,
      "රත්‍ර": 4604,
      "වරයෙක්": 4605,
      "ෙත": 4606,
      "ර්ස්": 4607,
      "මොඩියු": 4608,
      "මිත": 4609,
      "බලයක්": 4610,
      "ගිණි": 4611,
      "දෙන්නටම": 4612,
      "බිල": 4613,
      "සංස්": 4614,
      "පාරට": 4615,
      "ප්ලගින": 4616,
      "නපුරු": 4617,
      "වට්ට": 4618,
      "ශූ": 4619,
      "ෂණ": 4620,
      "හල්": 4621,
      "මන්ඩ්": 4622,
      "පිටුව": 4623,
      "ෆ්‍රෑන්ක්": 4624,
      "යුද්ධය": 4625,
      "ෆිල්ම්": 4626,
      "නර": 4627,
      "ලබ්": 4628,
      "ළුවට": 4629,
      "ගන්නයි": 4630,
      "හාහ්": 4631,
      "කවුළුව": 4632,
      "එනකන්": 4633,
      "ගැලපෙන": 4634,
      "‍න‍වා": 4635,
      "මට්ටම": 4636,
      "වුවමනා": 4637,
      "ඊලඟට": 4638,
      "උර": 4639,
      "උරු": 4640,
      "කමි": 4641,
      "මක": 4642,
      "ෙව": 4643,
      "පැන්": 4644,
      "කැන්": 4645,
      "අවදි": 4646,
      "වීර්": 4647,
      "ආරංචි": 4648,
      "වයසක": 4649,
      "ප්‍රතික්ෂේප": 4650,
      "***": 4651,
      "60": 4652,
      "gion": 4653,
      "io": 4654,
      "අදුර": 4655,
      "න්දේ": 4656,
      "ෙක්ටර්": 4657,
      "කෝටි": 4658,
      "මන්දි": 4659,
      "ගාරය": 4660,
      "සෙට්": 4661,
      "කලාට": 4662,
      "වාසනාවන්ත": 4663,
      "දෙපාර්ත": 4664,
      "රුවිත": 4665,
      "දිවුර": 4666,
      "පාහර": 4667,
      "ගැහුව": 4668,
      "බො": 4669,
      "බෙලා": 4670,
      "බයවෙන්න": 4671,
      "ලැබුණ": 4672,
      "වටිනවා": 4673,
      "පද්ධති": 4674,
      "ආත්මය": 4675,
      "මෑ": 4676,
      "ඔයාගෝ": 4677,
      "විකල්ප": 4678,
      "හිලා": 4679,
      "ඉඳගෙන": 4680,
      "ඉහළ": 4681,
      "හැංගිලා": 4682,
      "ඉරා": 4683,
      "දට": 4684,
      "ොන්": 4685,
      "විනි": 4686,
      "හරිගස්ස": 4687,
      "හිතෙන්නෙ": 4688,
      "ගමන්ම": 4689,
      "හිතුනා": 4690,
      "දර්ශන": 4691,
      "නුඹේ": 4692,
      "rance": 4693,
      "තත්වයට": 4694,
      "මැරෙයි": 4695,
      "ලන්ඩන්": 4696,
      "වාසනාවන්තයි": 4697,
      "රෙන": 4698,
      "වාදය": 4699,
      "පැවැ": 4700,
      "දවසෙ": 4701,
      "දුවව": 4702,
      "ආයෙමත්": 4703,
      "හන්ට්": 4704,
      "හදිස්ස": 4705,
      "බොත්තම": 4706,
      "අහිංසක": 4707,
      "can": 4708,
      "නූ": 4709,
      "සග": 4710,
      "පාස්": 4711,
      "වෙන්නද": 4712,
      "කිසිදෙයක්": 4713,
      "භාෂ": 4714,
      "කිහිප": 4715,
      "ඇන්ජ": 4716,
      "ඉමු": 4717,
      "සද්දේ": 4718,
      "විකු": 4719,
      "සමර": 4720,
      "පිටිපස්සෙන්": 4721,
      "නියෝග": 4722,
      "‍ර‍": 4723,
      "ග්‍රාහ": 4724,
      "බලපෑ": 4725,
      "දේව": 4726,
      "යනකොට": 4727,
      "රජය": 4728,
      "විවාහය": 4729,
      "අම්මව": 4730,
      "කොන්දේ": 4731,
      "බහලු": 4732,
      "az": 4733,
      "ter": 4734,
      "අතු": 4735,
      "සයක්": 4736,
      "තිර": 4737,
      "හැරි": 4738,
      "කිවේ": 4739,
      "අවශ්": 4740,
      "කාරණාව": 4741,
      "පාලන": 4742,
      "හැරලා": 4743,
      "CIA": 4744,
      "කයින්": 4745,
      "ලව්": 4746,
      "‍බ": 4747,
      "කියමු": 4748,
      "ගෙනි": 4749,
      "තිබුණේ": 4750,
      "කවදද": 4751,
      "අක්‍රීය": 4752,
      "රට්": 4753,
      "ලාව": 4754,
      "හැතැ": 4755,
      "දුම": 4756,
      "සැම": 4757,
      "අයගේ": 4758,
      "මහතා": 4759,
      "ලියු": 4760,
      "ඉඳගන්න": 4761,
      "සටන": 4762,
      "‍කි‍ය": 4763,
      "හියුගෝ": 4764,
      "සෞ": 4765,
      "හරු": 4766,
      "ඔයාටයි": 4767,
      "කියලවත්": 4768,
      "තුවක්": 4769,
      "සොයන්න": 4770,
      "මෙන්ම": 4771,
      "සාමාජි": 4772,
      "රස්සාවක්": 4773,
      "ප්‍රමාණවත්": 4774,
      "ta": 4775,
      "කනෙ": 4776,
      "ජනේ": 4777,
      "භි": 4778,
      "ශාව": 4779,
      "දෙමා": 4780,
      "කොත්": 4781,
      "සුරැ": 4782,
      "ඉදගන්න": 4783,
      "ඉඩදෙන්න": 4784,
      "දැනුනා": 4785,
      "මොහොතේ": 4786,
      "බ්‍රිතාන්‍ය": 4787,
      "අකමැති": 4788,
      "ංග්": 4789,
      "ආලෝකය": 4790,
      "ඇත්": 4791,
      "කමෝ": 4792,
      "ටෙක්": 4793,
      "රක්ෂ": 4794,
      "ුවර්": 4795,
      "ප්‍රංශ": 4796,
      "කළොත්": 4797,
      "කාර්‍ය": 4798,
      "තත්වෙ": 4799,
      "පතක්": 4800,
      "පලමු": 4801,
      "සන්නි": 4802,
      "ase": 4803,
      "චෝදනා": 4804,
      "කෙන්ට්": 4805,
      "හැකියාවක්": 4806,
      "mon": 4807,
      "දියට": 4808,
      "පිහිය": 4809,
      "හැදිලා": 4810,
      "සිහිය": 4811,
      "දෙන්නද": 4812,
      "රීමක්": 4813,
      "ගියෙ": 4814,
      "ඉල්ලනවා": 4815,
      "තියේවි": 4816,
      "රහස": 4817,
      "මුල්ම": 4818,
      "භාවය": 4819,
      "හිතුවද": 4820,
      "බරපතල": 4821,
      "New": 4822,
      "ඩෙන්": 4823,
      "ය්": 4824,
      "මාටින්": 4825,
      "හිතට": 4826,
      "ත්‍රී": 4827,
      "කීප": 4828,
      "කීවා": 4829,
      "පිරිතා": 4830,
      "ලස්සනට": 4831,
      "වනෙවා": 4832,
      "ඇහෙ": 4833,
      "උං": 4834,
      "ස්කොට්": 4835,
      "විභා": 4836,
      "නොමැති": 4837,
      "මැරුනා": 4838,
      "සැකයක්": 4839,
      "මනුස්සයෝ": 4840,
      "සිංහම්": 4841,
      "ෆ්‍රෙ": 4842,
      "age": 4843,
      "කඳවු": 4844,
      "කුලියට": 4845,
      "ඇන්ඩ": 4846,
      "ජනයක්": 4847,
      "රං": 4848,
      "ෙක්ද": 4849,
      "ලියම්": 4850,
      "එහෙනං": 4851,
      "කැමතිම": 4852,
      "පැහැදිළි": 4853,
      "කපිතාන්": 4854,
      "gr": 4855,
      "ආසන්න": 4856,
      "පදව": 4857,
      "‍උ": 4858,
      "මොකා": 4859,
      "ගන්නවද": 4860,
      "දිගේ": 4861,
      "ලැහැ": 4862,
      "නැවති": 4863,
      "පූජා": 4864,
      "කෙනාට": 4865,
      "වෙලාවකට": 4866,
      "out": 4867,
      "එලියේ": 4868,
      "උත්සව": 4869,
      "ඇතුළත්": 4870,
      "නිර්භීත": 4871,
      "අයේ": 4872,
      "ඒවගේ": 4873,
      "ජලය": 4874,
      "රුම්": 4875,
      "මේකද": 4876,
      "එකක්ද": 4877,
      "මොනවාහරි": 4878,
      "end": 4879,
      "මහත්තයෝ": 4880,
      "ත්වයක්": 4881,
      "ලූතර්": 4882,
      "එම්": 4883,
      "ධු": 4884,
      "පුච්ච": 4885,
      "කෝට්": 4886,
      "කෙල්ලෝ": 4887,
      "ඊටපස්සෙ": 4888,
      "එනකොට": 4889,
      "ජනතාව": 4890,
      "ජීවිතයේ": 4891,
      "කපලා": 4892,
      "සම්පුර්ණ": 4893,
      "අල්": 4894,
      "බන්ධ": 4895,
      "ගැනි": 4896,
      "මහන්": 4897,
      "ජිනේ": 4898,
      "ගහපන්": 4899,
      "වර්‍": 4900,
      "ඔහේව": 4901,
      "ජනපද": 4902,
      "උස්සන්න": 4903,
      "ෆොටෝ": 4904,
      "title": 4905,
      "ඔස්": 4906,
      "කබා": 4907,
      "ධෛ": 4908,
      "මනෝ": 4909,
      "ගැනත්": 4910,
      "මරල": 4911,
      "ප්‍රතිචාර": 4912,
      "ලන්ඩ්": 4913,
      "මචේ": 4914,
      "මස්සි": 4915,
      "අවලංගු": 4916,
      "ආරාධනා": 4917,
      "ඇලි": 4918,
      "රඳ": 4919,
      "ලයෙන්": 4920,
      "දිනා": 4921,
      "රෙයි": 4922,
      "සියදිවි": 4923,
      "කරනකොට": 4924,
      "සන්ධ්‍යා": 4925,
      "සයිමන්": 4926,
      "පවුලෙ": 4927,
      "ට්‍රේ": 4928,
      "තේරෙනවද": 4929,
      "විදිහටම": 4930,
      "කණගාටු": 4931,
      "විද්‍යාව": 4932,
      "ඉස්පිරිතා": 4933,
      "බෝම්බයක්": 4934,
      "your": 4935,
      "පෙම්වතා": 4936,
      "සම්පුර්ණය": 4937,
      "ev": 4938,
      "my": 4939,
      "කහ": 4940,
      "යමින්": 4941,
      "ුවොත්": 4942,
      "රිෆ්": 4943,
      "ඒකනේ": 4944,
      "මිතුර": 4945,
      "මොකවත්": 4946,
      "කුමර": 4947,
      "දෙන්නයි": 4948,
      "කෙසේ": 4949,
      "සේ": 4950,
      "රැකියා": 4951,
      "උන්ගේ": 4952,
      "අභියෝ": 4953,
      "මිනීමරු": 4954,
      "ඝාතනය": 4955,
      "වෝල්ටර්": 4956,
      "නැගෙනහිර": 4957,
      "ඇපල්": 4958,
      "වමට": 4959,
      "සන": 4960,
      "වායු": 4961,
      "මාවත්": 4962,
      "හෙල්": 4963,
      "ඔහුත්": 4964,
      "පිටවෙන්න": 4965,
      "පිරිලා": 4966,
      "star": 4967,
      "මොනවගේ": 4968,
      "ගිහිල්ල": 4969,
      "type": 4970,
      "සංකීර්ණ": 4971,
      "ඒගොල්ලෝ": 4972,
      "සාරා": 4973,
      "සුද්ද": 4974,
      "එකක්ම": 4975,
      "යුරෝ": 4976,
      "විශ්වාසයක්": 4977,
      "කාලයේ": 4978,
      "තේරුම්ගන්න": 4979,
      "යුධම්": 4980,
      "පටිගත": 4981,
      "indow": 4982,
      "ප්‍රාර්ථනා": 4983,
      "එස්": 4984,
      "ගන්ව": 4985,
      "තයට": 4986,
      "සභා": 4987,
      "ඔයාත්": 4988,
      "ත්තක්": 4989,
      "අවදා": 4990,
      "නැතිවෙයි": 4991,
      "ප්‍රතිකාර": 4992,
      "මගුල්": 4993,
      "හොරෙන්": 4994,
      "මොන්රෝ": 4995,
      "රත්‍රන්": 4996,
      "col": 4997,
      "ok": 4998,
      "ඕවා": 4999,
      "පෙනවා": 5000,
      "ඔයාවත්": 5001,
      "හිරු": 5002,
      "දෙවල්": 5003,
      "ද්දන්න": 5004,
      "ඔබතුමා": 5005,
      "කලින්ම": 5006,
      "ans": 5007,
      "බෝල්": 5008,
      "දැක්කම": 5009,
      "ගණනක්": 5010,
      "කාන්තාවක්": 5011,
      "එකිනෙකා": 5012,
      "ගාණක්": 5013,
      "gin": 5014,
      "රවු": 5015,
      "‍වි": 5016,
      "කෑල්ලක්": 5017,
      "ලීන": 5018,
      "තිස්සෙ": 5019,
      "ශ්‍රේ": 5020,
      "එක්කෙනා": 5021,
      "විදුලිය": 5022,
      "ගනුදෙනු": 5023,
      "ඇදුම": 5024,
      "එකෙ": 5025,
      "රාදා": 5026,
      "නුකූ": 5027,
      "බිහි": 5028,
      "කෙලින්": 5029,
      "නැතිවුනා": 5030,
      "men": 5031,
      "මෙයාල": 5032,
      "චිත්‍රපට": 5033,
      "දැක්කොත්": 5034,
      "කැඩිලා": 5035,
      "නොමැත": 5036,
      "උන්නේ": 5037,
      "කදී": 5038,
      "ඛාන්": 5039,
      "සලා": 5040,
      "වෙබ්": 5041,
      "මේඩ": 5042,
      "නියේ": 5043,
      "ප්පර": 5044,
      "කෙනෙක්ද": 5045,
      "කෙනෙක්ම": 5046,
      "කලාබර": 5047,
      "පිටසක්": 5048,
      "හම්බෙ": 5049,
      "සෙල්ලමක්": 5050,
      "නවතිනවා": 5051,
      "ගෙනාවේ": 5052,
      "if": 5053,
      "ld": 5054,
      "අක්ක": 5055,
      "සද්දෙ": 5056,
      "න්‍‍න": 5057,
      "වාදිය": 5058,
      "රාජා": 5059,
      "මිනිත්තුවක්": 5060,
      "ගැන්න": 5061,
      "හමුවෙමු": 5062,
      "වාර්තාව": 5063,
      "ජනක": 5064,
      "ass": 5065,
      "භූමිය": 5066,
      "වේලායුධම්": 5067,
      "අවස්තාවක්": 5068,
      "කබ": 5069,
      "දවන්න": 5070,
      "සිස්": 5071,
      "ඇයත්": 5072,
      "සමූ": 5073,
      "බෝධ": 5074,
      "ෆ්රෑ": 5075,
      "ඉදිරිය": 5076,
      "ගමනක්": 5077,
      "තත්වයක්": 5078,
      "මිනිසුන්ට": 5079,
      "ap": 5080,
      "mo": 5081,
      "sy": 5082,
      "ඇල්ල": 5083,
      "පච්ච": 5084,
      "එකකින්": 5085,
      "කාල්": 5086,
      "කටත්": 5087,
      "නුබ": 5088,
      "සැරේ": 5089,
      "ප්ලේන්": 5090,
      "නින්ම": 5091,
      "ගහන්නේ": 5092,
      "ඔක්සි": 5093,
      "මියෙක්": 5094,
      "කර්මා": 5095,
      "රටේ": 5096,
      "අරිනවා": 5097,
      "ලැබෙන්නෙ": 5098,
      "වාසනාවට": 5099,
      "කමෝන්": 5100,
      "av": 5101,
      "චෞ": 5102,
      "දඩුව": 5103,
      "දෙව්": 5104,
      "මගේම": 5105,
      "ලොව": 5106,
      "ලියට්": 5107,
      "සම්ප්‍ර": 5108,
      "චාලි": 5109,
      "සිද්ධිය": 5110,
      "දරුවෙක්": 5111,
      "ජොබ්": 5112,
      "යනු": 5113,
      "නාපති": 5114,
      "යක්ම": 5115,
      "දැමී": 5116,
      "පොල": 5117,
      "ප්‍රශ්ණය": 5118,
      "කාරයි": 5119,
      "රෝස්": 5120,
      "සිටින්න": 5121,
      "තොටු": 5122,
      "ඔක්කෝ": 5123,
      "අතීතය": 5124,
      "දෙමව්පිය": 5125,
      "ipp": 5126,
      "තලය": 5127,
      "දන": 5128,
      "රත්": 5129,
      "සතෙක්": 5130,
      "කරද්දි": 5131,
      "වේගෙන්": 5132,
      "බලන්නෙ": 5133,
      "දරුවන්": 5134,
      "ගොවි": 5135,
      "පවුල්": 5136,
      "ටැං": 5137,
      "සන්නිවේද": 5138,
      "ies": 5139,
      "අනව": 5140,
      "අංග": 5141,
      "ඔහො": 5142,
      "‍නා": 5143,
      "කියන්": 5144,
      "ද්දා": 5145,
      "කැමරාව": 5146,
      "නෝනාව": 5147,
      "මාර්ගයක්": 5148,
      "බෝම්බය": 5149,
      "අඳුරු": 5150,
      "යාලුවෝ": 5151,
      "අවශ්ය": 5152,
      "නත්ත": 5153,
      "හලෙ": 5154,
      "‍ඒ": 5155,
      "මේල්": 5156,
      "සීනු": 5157,
      "ඔක්කොටම": 5158,
      "ස්ටේ": 5159,
      "වහල": 5160,
      "ෆ්රෑන්ක්": 5161,
      "කලු": 5162,
      "කයට": 5163,
      "නඩුව": 5164,
      "‍රැ": 5165,
      "ගේම": 5166,
      "සහයෝ": 5167,
      "රෙඩි": 5168,
      "ith": 5169,
      "දොරවල්": 5170,
      "අනුකම්පා": 5171,
      "ලෝකයට": 5172,
      "තේරුණාද": 5173,
      "පැරණි": 5174,
      "හෙලිකො": 5175,
      "ආකර්": 5176,
      "ස්ප": 5177,
      "ර්ෂ": 5178,
      "ර්ඩ්": 5179,
      "කොලේ": 5180,
      "හිතපු": 5181,
      "බලු": 5182,
      "කීයට": 5183,
      "බයවෙලා": 5184,
      "මූන": 5185,
      "උගන්න": 5186,
      "නමින්": 5187,
      "මිනිය": 5188,
      "කරුවා": 5189,
      "රජයේ": 5190,
      "මෙහෙයුම්": 5191,
      "කීයද": 5192,
      "ලගින්": 5193,
      "එකනේ": 5194,
      "නාකි": 5195,
      "වැඩතල": 5196,
      "ඇත්තක්": 5197,
      "තියෙයි": 5198,
      "ක්‍රිය": 5199,
      "අතරින්": 5200,
      "හැමෝවම": 5201,
      "කපන්න": 5202,
      "යැව්වා": 5203,
      "ගෞරවයක්": 5204,
      "යී": 5205,
      "ුනේ": 5206,
      "‍දී": 5207,
      "රිච": 5208,
      "සිඩ්": 5209,
      "තරා": 5210,
      "මේකනම්": 5211,
      "දීපු": 5212,
      "බ්ලැක්": 5213,
      "බෙරී": 5214,
      "ංගම": 5215,
      "est": 5216,
      "ශාප": 5217,
      "ජෙනරල්": 5218,
      "උදාහර": 5219,
      "තට්ටුවේ": 5220,
      "සාකච්": 5221,
      "උන්නා": 5222,
      "උගන්වන්න": 5223,
      "ගත්ම": 5224,
      "ණීය": 5225,
      "වාසු": 5226,
      "නිකී": 5227,
      "වෙන්නෑ": 5228,
      "දෙයක්ද": 5229,
      "දවසට": 5230,
      "දෙවියනි": 5231,
      "කාවවත්": 5232,
      "පෙම්වතිය": 5233,
      "අසරණ": 5234,
      "ආරක්‍ෂිත": 5235,
      "ඔෆිස්": 5236,
      "ob": 5237,
      "මණා": 5238,
      "නාය": 5239,
      "අහන": 5240,
      "කාරණය": 5241,
      "තමුන්ගේ": 5242,
      "තේරෙනව": 5243,
      "විදියටම": 5244,
      "ගැන්වීම": 5245,
      "translate": 5246,
      "එරෙහිව": 5247,
      "ආක්‍රම": 5248,
      "කළින්": 5249,
      "org": 5250,
      "වැදගත්ම": 5251,
      "කාමරේට": 5252,
      "මධ්‍යම": 5253,
      "චීන": 5254,
      "ආරක්ශා": 5255,
      "චල්": 5256,
      "හවස": 5257,
      "‍මො": 5258,
      "‍හෙ": 5259,
      "ව්ස්": 5260,
      "සිතු": 5261,
      "සිටියා": 5262,
      "අපේක්ෂ": 5263,
      "නීතී": 5264,
      "අතරමං": 5265,
      "පුළුවනි": 5266,
      "ලබන": 5267,
      "මැරිල": 5268,
      "වහාම": 5269,
      "මොඩියුලය": 5270,
      "තප්පර": 5271,
      "‍ටි": 5272,
      "ලැස්ති": 5273,
      "ජීවී": 5274,
      "ගියපු": 5275,
      "අල්ලලා": 5276,
      "ෂ්ටික": 5277,
      "පරම්": 5278,
      "මනමා": 5279,
      "වාදනය": 5280,
      "කාමරයේ": 5281,
      "රවට්ට": 5282,
      "කැමැත්තෙන්": 5283,
      "නිව්යෝක්": 5284,
      "රිචඩ්": 5285,
      "per": 5286,
      "sia": 5287,
      "කෞ": 5288,
      "වලි": 5289,
      "හෘ": 5290,
      "‍රි": 5291,
      "යිස්": 5292,
      "කියක්": 5293,
      "හෙල්ල": 5294,
      "වැදිලා": 5295,
      "සුන": 5296,
      "ලෙන්න": 5297,
      "අනතුරේ": 5298,
      "නගර": 5299,
      "දක්වන්න": 5300,
      "අතුරුදන්": 5301,
      "‍ත‍මා": 5302,
      "තෑග්ග": 5303,
      "ඇබ්": 5304,
      "ඉන්ධ": 5305,
      "ඔයි": 5306,
      "යානයේ": 5307,
      "හිල්": 5308,
      "වුණු": 5309,
      "සාස්": 5310,
      "න්ද්‍ර": 5311,
      "ගාඩ්": 5312,
      "කරාට": 5313,
      "රාජධා": 5314,
      "පසුගිය": 5315,
      "බලාපොරොත්තුව": 5316,
      "මරණයට": 5317,
      "බඩගි": 5318,
      "නිශ්ච": 5319,
      "තුන්දෙන": 5320,
      "ඊලගට": 5321,
      "එරික්": 5322,
      "මකට": 5323,
      "මොරියා": 5324,
      "කොහා": 5325,
      "මුකු": 5326,
      "නොවෙන්න": 5327,
      "දීප්": 5328,
      "හොයාගන්නවා": 5329,
      "ජාන": 5330,
      "ඉදිරියේ": 5331,
      "කට්ටියක්": 5332,
      "වාඩිවෙන්න": 5333,
      "ඉංජිනේ": 5334,
      "මොරියාටි": 5335,
      "ust": 5336,
      "ඉතාමත්": 5337,
      "ශය": 5338,
      "ස්පර්": 5339,
      "මතකයන්": 5340,
      "ang": 5341,
      "හැංගෙන්න": 5342,
      "උතුමාණෙනි": 5343,
      "පරිවර්තනය": 5344,
      "විට්නි": 5345,
      "පරිශීලක": 5346,
      "මහන්සිය": 5347,
      "මචේචර": 5348,
      "මැන": 5349,
      "යද්දි": 5350,
      "නිරී": 5351,
      "මොඩ": 5352,
      "ඔයාටම": 5353,
      "හානියක්": 5354,
      "වලෙ": 5355,
      "තාත්තයි": 5356,
      "දහයක්": 5357,
      "අමතන්න": 5358,
      "Region": 5359,
      "\"%": 5360,
      "//": 5361,
      "එෙ": 5362,
      "ගවේශ": 5363,
      "ලවු": 5364,
      "නාන": 5365,
      "කොණ්ඩ": 5366,
      "මුදු": 5367,
      "ප්‍රවෘ": 5368,
      "බැට්": 5369,
      "විදියේ": 5370,
      "ලොකුයි": 5371,
      "කෙල්ලො": 5372,
      "ජාති": 5373,
      "ගණන": 5374,
      "පැහැදිලිවම": 5375,
      "කිහිපයකට": 5376,
      "සාර්ථකයි": 5377,
      "නාවික": 5378,
      "fs": 5379,
      "වාරය": 5380,
      "විච": 5381,
      "හොයන්නෙ": 5382,
      "යමුද": 5383,
      "එයයි": 5384,
      "විශ්‍රා": 5385,
      "අනන්‍ය": 5386,
      "ඉඳී": 5387,
      "නගරයට": 5388,
      "කර්නල්": 5389,
      "අනුගමනය": 5390,
      "ක්ලාර්ක්": 5391,
      "4ක්": 5392,
      "AN": 5393,
      "කමට": 5394,
      "ියන්": 5395,
      "පුතෙක්": 5396,
      "දික්ක": 5397,
      "පොතක්": 5398,
      "අපගේ": 5399,
      "තියෙනවාද": 5400,
      "රෝග": 5401,
      "ස්ථානයක්": 5402,
      "පෙන්වන්නම්": 5403,
      "Ar": 5404,
      "පව්": 5405,
      "හතුර": 5406,
      "කිත්": 5407,
      "වැළ": 5408,
      "වැදුනා": 5409,
      "පැන්න": 5410,
      "ප්ස්": 5411,
      "මරයි": 5412,
      "සීතල": 5413,
      "ary": 5414,
      "ශිෂ්‍ය": 5415,
      "පර්යේ": 5416,
      "ash": 5417,
      "key": 5418,
      "ye": 5419,
      "උබල": 5420,
      "නගි": 5421,
      "එකෝ": 5422,
      "මෙක්සි": 5423,
      "මැලි": 5424,
      "වරණය": 5425,
      "උඹලට": 5426,
      "රෝස": 5427,
      "වනේනේ": 5428,
      "බීලා": 5429,
      "තේරෙන": 5430,
      "reat": 5431,
      "ඒවගෝ": 5432,
      "ගනිමු": 5433,
      "ussia": 5434,
      "අධ්‍යක්ෂක": 5435,
      "22": 5436,
      "යාගන්න": 5437,
      "දෙපාරක්": 5438,
      "මෙවල": 5439,
      "සිරාවටම": 5440,
      "බැලු": 5441,
      "කැළ": 5442,
      "නීය": 5443,
      "රේස්": 5444,
      "තයෝ": 5445,
      "ener": 5446,
      "පුදුමයක්": 5447,
      "ෂර්ලොක්": 5448,
      "නිෂ්පාද": 5449,
      "ඉන්ධන": 5450,
      "රණ්ඩු": 5451,
      "සතියක්": 5452,
      "ෙට": 5453,
      "හැන්": 5454,
      "දෙවැනි": 5455,
      "දුරින්": 5456,
      "කැලෑ": 5457,
      "වයෙි": 5458,
      "ග්ස්": 5459,
      "සොහො": 5460,
      "අඩුවෙන්": 5461,
      "කඩන්න": 5462,
      "හොරෙක්": 5463,
      "ශීලී": 5464,
      "මහාචාර්ය": 5465,
      "තුනකට": 5466,
      "කදවු": 5467,
      "සැපයු": 5468,
      "විකල්පයක්": 5469,
      "බිස්නස්": 5470,
      "මුකුත්ම": 5471,
      "AR": 5472,
      "jec": 5473,
      "එවුන්": 5474,
      "අපූ": 5475,
      "නොවී": 5476,
      "දැනගත්ත": 5477,
      "මන්ත්‍ර": 5478,
      "රේචල්": 5479,
      "බෝල": 5480,
      "දුරස්ථ": 5481,
      "වර්ගය": 5482,
      "විනාඩිය": 5483,
      "පාලකය": 5484,
      "විශේෂයෙන්ම": 5485,
      "ගණනය": 5486,
      "හයියක්": 5487,
      "ප්පුව": 5488,
      "කර්මාන්ත": 5489,
      "1cHFF": 5490,
      "tp": 5491,
      "කදු": 5492,
      "දණ": 5493,
      "සන්ට": 5494,
      "නිවස": 5495,
      "යක්‍": 5496,
      "කාලීන": 5497,
      "වෙනකල්": 5498,
      "බින්": 5499,
      "ගුඩ්": 5500,
      "an0": 5501,
      "that": 5502,
      "මහත්තය": 5503,
      "ළමයින්ට": 5504,
      "රාත්‍රී": 5505,
      "විවේකයක්": 5506,
      "මට්ටමේ": 5507,
      "ලිංගික": 5508,
      "ස්ථිර": 5509,
      "මයො": 5510,
      "6ක්": 5511,
      "not": 5512,
      "බදු": 5513,
      "මයක්": 5514,
      "යකින්": 5515,
      "සෘ": 5516,
      "සවන්": 5517,
      "‍රා": 5518,
      "හොරක": 5519,
      "වලක්": 5520,
      "නොදන්නා": 5521,
      "ප්ත": 5522,
      "වැරදියට": 5523,
      "දෙවියෝ": 5524,
      "අවශ්‍යය": 5525,
      "පවුලට": 5526,
      "වුණොත්": 5527,
      "ලේසියි": 5528,
      "Oh": 5529,
      "b3": 5530,
      "උදව": 5531,
      "වරය": 5532,
      "යාවත්": 5533,
      "කියු": 5534,
      "ගෙට": 5535,
      "හුර": 5536,
      "දුවා": 5537,
      "ඇත්තෙ": 5538,
      "දීපන්": 5539,
      "රෙන්නේ": 5540,
      "බොබී": 5541,
      "කළාද": 5542,
      "ඊටත්": 5543,
      "වෙතට": 5544,
      "නිලධාරියෙක්": 5545,
      "අභ්‍යන්තර": 5546,
      "සාජන්ට්": 5547,
      "ලැබේවි": 5548,
      "ඔක්සිජන්": 5549,
      "ෂෝන්": 5550,
      "විරහිත": 5551,
      "පාත": 5552,
      "එකක්වත්": 5553,
      "පුලූ": 5554,
      "රැල්ෆ්": 5555,
      "අම්මයි": 5556,
      "රොබ්": 5557,
      "නෙවෙයිද": 5558,
      "අල්ලන්": 5559,
      "තේරුනේ": 5560,
      "යන්ත්‍රය": 5561,
      "දකිනවා": 5562,
      "පියල්": 5563,
      "කඩුව": 5564,
      "ලඟා": 5565,
      "එක්සත්": 5566,
      "බොරුවට": 5567,
      "ඡායා": 5568,
      "බැංකුව": 5569,
      "අවේ": 5570,
      "එව්වා": 5571,
      "යෑ": 5572,
      "වෙදි": 5573,
      "කරණයක්": 5574,
      "දෙවි": 5575,
      "කරන්නෑ": 5576,
      "රුධි": 5577,
      "ල්ලෙන්": 5578,
      "වීරය": 5579,
      "තාත්තගෙ": 5580,
      "බ්ස්": 5581,
      "කයකේ": 5582,
      "ඇඳුමක්": 5583,
      "කරුනාකරලා": 5584,
      "උහ්": 5585,
      "එළි": 5586,
      "ඔනෙ": 5587,
      "නරක්": 5588,
      "යකා": 5589,
      "ල්‍‍": 5590,
      "සුරු": 5591,
      "ඔහුගෙන්": 5592,
      "කතාකරන්නේ": 5593,
      "ඕනේද": 5594,
      "ක්‍රේ": 5595,
      "කොටු": 5596,
      "ලියුම්": 5597,
      "ජාතියේ": 5598,
      "state": 5599,
      "සකස්": 5600,
      "විමර්ශ": 5601,
      "පවතින": 5602,
      "ශරීරය": 5603,
      "වහන්සේ": 5604,
      "ඔතනින්": 5605,
      "Br": 5606,
      "අසනීප": 5607,
      "ඉරණ": 5608,
      "සස්": 5609,
      ".....": 5610,
      "ගොස්": 5611,
      "පෙති": 5612,
      "හිටියත්": 5613,
      "පිටත": 5614,
      "තිබ්බො": 5615,
      "ජුලියට්": 5616,
      "ෆ්‍රැ": 5617,
      "වැටෙන": 5618,
      "විශිෂ්ඨ": 5619,
      "http": 5620,
      "ඉතිහාස": 5621,
      "පුද්ගලයා": 5622,
      "සිගරට්": 5623,
      "කොහාටද": 5624,
      "300": 5625,
      "ජංගම": 5626,
      "ඥයා": 5627,
      "න්ට්": 5628,
      "හැදි": 5629,
      "ලිකව": 5630,
      "කරනවාද": 5631,
      "බිලී": 5632,
      "කේ": 5633,
      "හුවමාරු": 5634,
      "අඳුන": 5635,
      "කියනවනම්": 5636,
      "පැහැරගෙන": 5637,
      "කරුනාකරල": 5638,
      "ස්වයංක්‍රීය": 5639,
      "පුද්ගලයෙක්": 5640,
      "අහුවුනා": 5641,
      "DNA": 5642,
      "ඔලුවට": 5643,
      "ටුවක්": 5644,
      "පිස්": 5645,
      "කාවද": 5646,
      "පාටිය": 5647,
      "අපෝ": 5648,
      "මතී": 5649,
      "erman": 5650,
      "පරීක්ෂණය": 5651,
      "abel": 5652,
      "ගානකට": 5653,
      "පෙට්ටි": 5654,
      "බයික්": 5655,
      "ගණුදෙනු": 5656,
      "1cHFF0": 5657,
      "_C": 5658,
      "උමං": 5659,
      "යවනවා": 5660,
      "වකාශ": 5661,
      "වුඩ්": 5662,
      "දෙමු": 5663,
      "කිලෝ": 5664,
      "ගොන": 5665,
      "සීසර්": 5666,
      "අත්දැකී": 5667,
      "බ්‍රයන්": 5668,
      "පුවත්": 5669,
      "විශිෂ්ට": 5670,
      "සංගීතය": 5671,
      "ගැහුවේ": 5672,
      "count": 5673,
      "තියෙන්": 5674,
      "තුලට": 5675,
      "ගිලන්": 5676,
      "දැනෙන්න": 5677,
      "සැහැ": 5678,
      "කෑමක්": 5679,
      "උන්ගෙ": 5680,
      "පරීක්ෂණයක්": 5681,
      "ටොමී": 5682,
      "මහෙෙ": 5683,
      "භාෂාව": 5684,
      ",.": 5685,
      "AT": 5686,
      "cl": 5687,
      "ඔහෙට": 5688,
      "පරාජ": 5689,
      "මවු": 5690,
      "ස්වො": 5691,
      "කියව": 5692,
      "තුලින්": 5693,
      "කියන්නකෝ": 5694,
      "ළුවා": 5695,
      "සම්බන්ධය": 5696,
      "අඩුයි": 5697,
      "බ්‍රැ": 5698,
      "තියේද": 5699,
      "කබඩි": 5700,
      "තිබ්බොත්": 5701,
      "\",": 5702,
      "In": 5703,
      "but": 5704,
      "අමාර": 5705,
      "යටින්": 5706,
      "කරත්": 5707,
      "මමම": 5708,
      "පිච්ච": 5709,
      "නිවැරදියි": 5710,
      "හොරු": 5711,
      "දේපල": 5712,
      "ඇයගෙ": 5713,
      "කවදාහරි": 5714,
      "පූර්ණ": 5715,
      "ශිර්": 5716,
      "ඇමතුම": 5717,
      "ලෝකයක්": 5718,
      "සමාවනේන": 5719,
      "අල්ලාගෙන": 5720,
      "රෝහලේ": 5721,
      "නැවැත්තු": 5722,
      "මිත්‍රයා": 5723,
      "සංඥාව": 5724,
      "අවංකවම": 5725,
      "සන්ධ්‍යාවක්": 5726,
      "උබව": 5727,
      "එමිලි": 5728,
      "යූ": 5729,
      "හඳ": 5730,
      "‍ඉ": 5731,
      "ක්ලික්": 5732,
      "යාමට": 5733,
      "යාළුවන්": 5734,
      "කරවනවා": 5735,
      "මාසෙ": 5736,
      "දිව": 5737,
      "මොකු": 5738,
      "ට්ටි": 5739,
      "වීරයා": 5740,
      "ere": 5741,
      "කන්ඩාය": 5742,
      "දෙකකින්": 5743,
      "සම්භ": 5744,
      "සලකුණක්": 5745,
      "ආයුධය": 5746,
      "ආයුධයක්": 5747,
      "ඇමරිකාව": 5748,
      "කැමැත්තක්": 5749,
      "ඇතුලත්": 5750,
      "අශ්ව": 5751,
      "අශ්වය": 5752,
      "cHFFFF": 5753,
      "3cHFFFF": 5754,
      "ey": 5755,
      "iz": 5756,
      "උණා": 5757,
      "මාලු": 5758,
      "වුම": 5759,
      "මිත්": 5760,
      "තරගය": 5761,
      "ආදරයි": 5762,
      "පරිදි": 5763,
      "ඉක්මණි": 5764,
      "අවුරුද්දේ": 5765,
      "අනකේ": 5766,
      "වහම": 5767,
      "ෆ්ලෑ": 5768,
      "මාරයි": 5769,
      "පුහුණුව": 5770,
      "සංඛ්‍යා": 5771,
      "දෙපාර්තමේන්තුව": 5772,
      "3cHFFFFFF": 5773,
      "Wh": 5774,
      "ian": 5775,
      "tor": 5776,
      "tur": 5777,
      "ඉගැන්න": 5778,
      "මේරි": 5779,
      "නිආ": 5780,
      "නැනේ": 5781,
      "දෙකේ": 5782,
      "තුරා": 5783,
      "තුමිය": 5784,
      "තාක්": 5785,
      "දාන්නේ": 5786,
      "ඕනනම්": 5787,
      "එහෙමනම්": 5788,
      "කළමණා": 5789,
      "පන්දු": 5790,
      "කෙල්ලට": 5791,
      "වැඩිහිටිය": 5792,
      "රූම්": 5793,
      "මරණවා": 5794,
      "හැඟීම්": 5795,
      "විකුණන්න": 5796,
      "les": 5797,
      "land": 5798,
      "ඈත": 5799,
      "උබලා": 5800,
      "ෂන්": 5801,
      "සතා": 5802,
      "සිටී": 5803,
      "හොඳද": 5804,
      "වීර": 5805,
      "විතරද": 5806,
      "බ්ලූ": 5807,
      "න්‍යෂ්ටික": 5808,
      "න්ඩෝ": 5809,
      "මිනිහකේ": 5810,
      "වැටුන": 5811,
      "ඉස්කෝලේ": 5812,
      "වෙළඳ": 5813,
      "Char": 5814,
      "ස්ටාර්": 5815,
      "ජයි": 5816,
      "ට්‍රි": 5817,
      "දමා": 5818,
      "පසින්": 5819,
      "ෙවන්": 5820,
      "හොරා": 5821,
      "තානාපති": 5822,
      "දුපතේ": 5823,
      "නෙයි": 5824,
      "ටික්": 5825,
      "බාත්": 5826,
      "කලාම": 5827,
      "ත්මකයි": 5828,
      "කලත්": 5829,
      "එලවන්න": 5830,
      "හැකිද": 5831,
      "ක්‍රියාවල": 5832,
      "ගොල්ලන්ට": 5833,
      "ප්‍රමාද": 5834,
      "ජරාවක්": 5835,
      "මහත්වරු": 5836,
      "ශුද්ධ": 5837,
      "ක්ලෙයර්": 5838,
      "මණ්ඩලය": 5839,
      "අසා": 5840,
      "කමා": 5841,
      "කපා": 5842,
      "වසා": 5843,
      "ළා": 5844,
      "කාරෙ": 5845,
      "සිගත": 5846,
      "ඩාර්": 5847,
      "ණයයි": 5848,
      "මරුව": 5849,
      "පිටට": 5850,
      "ළින්": 5851,
      "යනකම්": 5852,
      "කණ්ඩායමට": 5853,
      "ෑන්ඩ්": 5854,
      "පදිංචි": 5855,
      "UR": 5856,
      "will": 5857,
      "අමා": 5858,
      "අර්ථ": 5859,
      "ඔලු": 5860,
      "වකු": 5861,
      "ෆන්": 5862,
      "ියනේ": 5863,
      "කරගත්ත": 5864,
      "දිස්": 5865,
      "ලිමත්": 5866,
      "පාටයි": 5867,
      "නොහැකියි": 5868,
      "වීදුර": 5869,
      "රෙදි": 5870,
      "ස්ථාව": 5871,
      "මෝනා": 5872,
      "පීනන්න": 5873,
      "නේන": 5874,
      "චන්ද්‍රිකා": 5875,
      "ive": 5876,
      "sub": 5877,
      "අසල්": 5878,
      "භට": 5879,
      "මලා": 5880,
      "ලන්න": 5881,
      "සබ්": 5882,
      "සොර": 5883,
      "එකතුව": 5884,
      "මානය": 5885,
      "දෙවන": 5886,
      "මුණු": 5887,
      "නෙවි": 5888,
      "ප්‍රථ": 5889,
      "බැද": 5890,
      "කෙනක්": 5891,
      "සැළ": 5892,
      "රේට": 5893,
      "භාගයක්": 5894,
      "ජාල": 5895,
      "ජාවා": 5896,
      "දැක්කනේ": 5897,
      "උපකරණය": 5898,
      "ප්‍රාණ": 5899,
      "රහසිගත": 5900,
      "පදක්ක": 5901,
      "පදවන්න": 5902,
      "එලියෙ": 5903,
      "රත්තරං": 5904,
      "වගකීමක්": 5905,
      "Gener": 5906,
      "උතුර": 5907,
      "ඩුවේ": 5908,
      "බෙන": 5909,
      "පිහ": 5910,
      "නිකුත්": 5911,
      "ලිලා": 5912,
      "පැයක්": 5913,
      "ඩික්": 5914,
      "ine": 5915,
      "විශ්ලේ": 5916,
      "දෙකෙන්": 5917,
      "ෂ්ටයි": 5918,
      "රජතුමා": 5919,
      "චාර්ල්ස්": 5920,
      "උනන්දු": 5921,
      "ෆේන්": 5922,
      "ගණුදෙනුවක්": 5923,
      "රුසියානු": 5924,
      "ඩිරෙක්ටරිය": 5925,
      "23": 5926,
      "90": 5927,
      "ඇනී": 5928,
      "ටස්": 5929,
      "රසි": 5930,
      "සල්ල": 5931,
      "සරා": 5932,
      "ෆු": 5933,
      "ැනට්": 5934,
      "ගිම්": 5935,
      "අවබෝධ": 5936,
      "කරුණාව": 5937,
      "හම්බෙන්න": 5938,
      "හරියයි": 5939,
      "ක්‍රියාකාර": 5940,
      "පෙරනිමි": 5941,
      "භූමි": 5942,
      "ජොනී": 5943,
      "ඇඳගෙන": 5944,
      "සම්පූර්ණයෙන්": 5945,
      "මිලදී": 5946,
      "ඉස්සෙල්ල": 5947,
      "කෝච්චිය": 5948,
      "menu": 5949,
      "ස්වොයර්": 5950,
      "මොකුත්ම": 5951,
      "Dr": 5952,
      "ak": 5953,
      "පළි": 5954,
      "වක": 5955,
      "ිත": 5956,
      "න්‍යා": 5957,
      "ල්විල්": 5958,
      "නැව්": 5959,
      "දුරා": 5960,
      "ල්ලට": 5961,
      "හරී": 5962,
      "අයගෙන්": 5963,
      "ගියත්": 5964,
      "යන්තර": 5965,
      "පිරිසක්": 5966,
      "මිනිහගේ": 5967,
      "20ක්": 5968,
      "වාසනාවක්": 5969,
      "නිලධාරියා": 5970,
      "වරුන්": 5971,
      "අංශක": 5972,
      "බැල්ලිගෙ": 5973,
      "Cal": 5974,
      "bu": 5975,
      "එඩී": 5976,
      "ඩූ": 5977,
      "ලෙන": 5978,
      "ත්තුවේ": 5979,
      "වැල්": 5980,
      "රාල්": 5981,
      "බැලුවේ": 5982,
      "කැසි": 5983,
      "ඩ්ස්": 5984,
      "හිටියනම්": 5985,
      "වයර්": 5986,
      "අල්ලනවා": 5987,
      "තාත්තාගේ": 5988,
      "උත්තරයක්": 5989,
      "හදිසිය": 5990,
      "සිංහ": 5991,
      "යාලුවො": 5992,
      "නිමවන්න": 5993,
      "කනගාටුයි": 5994,
      "ප්‍රයෝජනවත්": 5995,
      "නැවතිලා": 5996,
      "It": 5997,
      "අක්කා": 5998,
      "අසාමාන්‍ය": 5999,
      "ඩුවට": 6000,
      "පමන": 6001,
      "ෙවලා": 6002,
      "‍මි": 6003,
      "ම්ප්": 6004,
      "නිදාගෙන": 6005,
      "හැප්": 6006,
      "මෙක්": 6007,
      "ගෙයක්": 6008,
      "අරගත්තා": 6009,
      "සැත්": 6010,
      "යුත්": 6011,
      "සමාගමේ": 6012,
      "මෙයාලා": 6013,
      "පසුපස": 6014,
      "ශිත": 6015,
      "ick": 6016,
      "තීරණ": 6017,
      "පයකින්": 6018,
      "සුරංග": 6019,
      "ඩෙල්": 6020,
      "නියෝජිතයෙක්": 6021,
      "හැඟීමක්": 6022,
      "උත්සවය": 6023,
      "පරිගණක": 6024,
      "හෙලවෙන්න": 6025,
      "සිත්ගන්නා": 6026,
      "පීඩනය": 6027,
      "මිසයිල": 6028,
      "label": 6029,
      "now": 6030,
      "with": 6031,
      "ආශිර්": 6032,
      "ඒත්තු": 6033,
      "ණී": 6034,
      "වනි": 6035,
      "කින්ද": 6036,
      "මිලේ": 6037,
      "දාම": 6038,
      "නුවා": 6039,
      "ines": 6040,
      "හැමෝගෙම": 6041,
      "stat": 6042,
      "මියෝ": 6043,
      "මෙතෙන්ට": 6044,
      "ටෙල්": 6045,
      "ගෑස්": 6046,
      "කට්ටියම": 6047,
      "උදේට": 6048,
      "වගකීම": 6049,
      "ආයතනය": 6050,
      "හෘද": 6051,
      "ah": 6052,
      "හදල": 6053,
      "මෙයාගෙ": 6054,
      "නවත්වනවා": 6055,
      "ico": 6056,
      "තොරා": 6057,
      "පින්තූරයක්": 6058,
      "ෆීල්ඩ්": 6059,
      "අන්තිමේදි": 6060,
      "සතියකට": 6061,
      "ෂෙරිෆ්": 6062,
      "චෞද්": 6063,
      "විශ්‍රාම": 6064,
      "Count": 6065,
      "ඇණ": 6066,
      "උන්නෙ": 6067,
      "එවිට": 6068,
      "ඡන්ද": 6069,
      "ස්ගේ": 6070,
      "හැරුනා": 6071,
      "පාසල්": 6072,
      "අපරා": 6073,
      "කෙලි": 6074,
      "හොදද": 6075,
      "මරන": 6076,
      "වර්ඩ්": 6077,
      "පරන": 6078,
      "ඇහුවෙ": 6079,
      "ජනතා": 6080,
      "වොල්": 6081,
      "නිර්මාණ": 6082,
      "ගණුදෙනුව": 6083,
      "සුළුයි": 6084,
      "ටේලර්": 6085,
      "විධියට": 6086,
      "ඉතිහාසය": 6087,
      "දරාගන්න": 6088,
      "යන්ත්‍රයක්": 6089,
      "පිටසක්වල": 6090,
      "වාදියෙක්": 6091,
      "aw": 6092,
      "ep": 6093,
      "‍පා": 6094,
      "යාල": 6095,
      "කරැ": 6096,
      "කාමී": 6097,
      "නෙත්": 6098,
      "කියලත්": 6099,
      "ටියේ": 6100,
      "කෙස්": 6101,
      "දුවනවා": 6102,
      "ඒවාට": 6103,
      "වාර්ථ": 6104,
      "එක්තරා": 6105,
      "සාදයක්": 6106,
      "අපරාධයක්": 6107,
      "අනතුරුදායක": 6108,
      "පිළිබඳව": 6109,
      "ඔලිවර්": 6110,
      "කුමරිය": 6111,
      "නෝනාවරුනි": 6112,
      "how": 6113,
      "අව්": 6114,
      "ඕකට": 6115,
      "ලාභ": 6116,
      "රිදෙනවා": 6117,
      "මාතෘ": 6118,
      "සාක්": 6119,
      "මිනිසෙක්": 6120,
      "රොබට්": 6121,
      "ero": 6122,
      "ඇහුන": 6123,
      "නැගිට්ට": 6124,
      "ich": 6125,
      "දන්වන්න": 6126,
      "ජිවිතය": 6127,
      "ඇවිදගෙන": 6128,
      "පාසලේ": 6129,
      "ඔරලෝසුව": 6130,
      "\"...": 6131,
      "great": 6132,
      "අදා": 6133,
      "ආහා": 6134,
      "‍කා": 6135,
      "‍යේ": 6136,
      "හැරිලා": 6137,
      "නැගී": 6138,
      "රුපියල්": 6139,
      "කාත්": 6140,
      "ඉන්නයි": 6141,
      "තරංග": 6142,
      "වේවිද": 6143,
      "වැඩසටහන්": 6144,
      "කැවිලි": 6145,
      "සමහරු": 6146,
      "න්දෑ": 6147,
      "රෑම": 6148,
      "දියමන්": 6149,
      "හිතන්නෑ": 6150,
      "කාලෙක": 6151,
      "ගින්දර": 6152,
      "හදවතේ": 6153,
      "සද්දයක්": 6154,
      "සාක්ෂියක්": 6155,
      "රැන්චෝ": 6156,
      "Con": 6157,
      "au": 6158,
      "up": 6159,
      "අල": 6160,
      "ආචාර": 6161,
      "ඔයට": 6162,
      "දඟ": 6163,
      "ෂැ": 6164,
      "මේජර්": 6165,
      "හැමො": 6166,
      "මොහු": 6167,
      "දුවෙක්": 6168,
      "ස්සා": 6169,
      "රාන්": 6170,
      "ලුති": 6171,
      "විදින්න": 6172,
      "ආදරයක්": 6173,
      "ආදරණීය": 6174,
      "භාෂා": 6175,
      "ශාන්": 6176,
      "දේශීය": 6177,
      "ශක්ති": 6178,
      "පැහැදිලිව": 6179,
      "අධිරාජ්‍ය": 6180,
      "චිත්‍රපටි": 6181,
      "නැඟිටි": 6182,
      "ජයග්‍රහණය": 6183,
      "පැවැත්": 6184,
      "සභාපති": 6185,
      "ist": 6186,
      "දර්": 6187,
      "භෞ": 6188,
      "සඟ": 6189,
      "හදුනා": 6190,
      "ෆයිල්": 6191,
      "‍රන්": 6192,
      "ත්තුවෙන්": 6193,
      "ර්ඝ": 6194,
      "පාන්න": 6195,
      "වෙනු": 6196,
      "දීමට": 6197,
      "ස්සුවා": 6198,
      "රැඳ": 6199,
      "ආදරෙන්": 6200,
      "සීයේ": 6201,
      "ගහල": 6202,
      "වර්ධනය": 6203,
      "වැරද්දක්": 6204,
      "ඉදගෙන": 6205,
      "දුන්නද": 6206,
      "ක්‍රියාව": 6207,
      "මගුලේ": 6208,
      "කාන්ත්": 6209,
      "කාරියක්": 6210,
      "තිබුණෙ": 6211,
      "බහුල": 6212,
      "හෝටලේ": 6213,
      "ඉස්සෙල්ලා": 6214,
      "ගැඹුරු": 6215,
      "window": 6216,
      "ගං": 6217,
      "ටූ": 6218,
      "‍කු": 6219,
      "වෙද්දී": 6220,
      "තිබෙ": 6221,
      "මටනම්": 6222,
      "දිලි": 6223,
      "වැදු": 6224,
      "වැටී": 6225,
      "පාළු": 6226,
      "හාන්": 6227,
      "පැකේ": 6228,
      "අපිටත්": 6229,
      "ගොදුරු": 6230,
      "තේරෙන්න": 6231,
      "වීන්": 6232,
      "බෝට්ටු": 6233,
      "එකේදි": 6234,
      "වර්තමා": 6235,
      "චාරි": 6236,
      "අවුරුද්දක්": 6237,
      "ස්ටෙ": 6238,
      "සම්බන්ධයි": 6239,
      "ඇහුණ": 6240,
      "ට්‍රැ": 6241,
      "පෝට්": 6242,
      "සම්පූර්ණයි": 6243,
      "ගනුදෙනුව": 6244,
      "තාක්ෂණය": 6245,
      "ඩැනිය": 6246,
      "සම්පුර්ණයෙන්ම": 6247,
      "ME": 6248,
      "ඩග්": 6249,
      "බවයි": 6250,
      "යනේ": 6251,
      "වනය": 6252,
      "ෂී": 6253,
      "‍තා": 6254,
      "විකාශ": 6255,
      "කියවනවා": 6256,
      "කොල්": 6257,
      "ප්‍රෙ": 6258,
      "වැඩකරන": 6259,
      "මැවුම්": 6260,
      "රීම්": 6261,
      "කතාකරන්නෙ": 6262,
      "අවම": 6263,
      "මරන්නේ": 6264,
      "කළමනා": 6265,
      "ෆ්ට්": 6266,
      "පීට්": 6267,
      "lease": 6268,
      "තියෙනවනම්": 6269,
      "ලමයෙක්": 6270,
      "කාර්යාලය": 6271,
      "දරුවෝ": 6272,
      "මිනීමැරුම්": 6273,
      "නිරීක්ෂ": 6274,
      "ඒවගෝම": 6275,
      "පුලූවන්": 6276,
      "පරාජය": 6277,
      "TV": 6278,
      "ඈතට": 6279,
      "නට්": 6280,
      "යද්දී": 6281,
      "ළං": 6282,
      "ීමේ": 6283,
      "‍මු": 6284,
      "වෙහෙ": 6285,
      "හැබෑ": 6286,
      "පුවා": 6287,
      "දික්": 6288,
      "සාදය": 6289,
      "ගෙනාව": 6290,
      "වෙනම": 6291,
      "එක්කගනෙ": 6292,
      "අවන්": 6293,
      "ගාර": 6294,
      "හොයාගත්තෙ": 6295,
      "අම්මගේ": 6296,
      "රෝගී": 6297,
      "තාත්තාට": 6298,
      "හමුදාවේ": 6299,
      "නිකමට": 6300,
      "පින්තුර": 6301,
      "ප්‍රමාණයක්": 6302,
      "කැමැති": 6303,
      "තරඟය": 6304,
      "ඔස": 6305,
      "ජලී": 6306,
      "තක්ක": 6307,
      "වියට": 6308,
      "තිබේ": 6309,
      "කොහො": 6310,
      "සාමය": 6311,
      "කැඳ": 6312,
      "රයකට": 6313,
      "බිත්ති": 6314,
      "සෙව": 6315,
      "මගුලක්": 6316,
      "තමුසෙව": 6317,
      "පුදුමා": 6318,
      "අංකයක්": 6319,
      "ඝාත": 6320,
      "නිවසට": 6321,
      "ලැහැස්ති": 6322,
      "ඉරණම": 6323,
      "rom": 6324,
      "අමන": 6325,
      "ආත්": 6326,
      "ඕනවට": 6327,
      "පත්තු": 6328,
      "පදින්න": 6329,
      "බාව": 6330,
      "ුන": 6331,
      "හැසිර": 6332,
      "මාන්": 6333,
      "දුමක්": 6334,
      "වදවෙන්න": 6335,
      "බාග": 6336,
      "දවසම": 6337,
      "රැවු": 6338,
      "රොක්": 6339,
      "ඩුවා": 6340,
      "රේවි": 6341,
      "යෝධ": 6342,
      "arch": 6343,
      "වහපන්": 6344,
      "ඩොන්": 6345,
      "ග්‍රෙ": 6346,
      "තර්ජනයක්": 6347,
      "වටින": 6348,
      "ඉහලට": 6349,
      "විශාල්": 6350,
      "50ක්": 6351,
      "නාට්‍ය": 6352,
      "පිංතූ": 6353,
      "ermany": 6354,
      "නන්දු": 6355,
      "බනේ": 6356,
      "ෙවන": 6357,
      "වාගන්න": 6358,
      "කරද්දී": 6359,
      "විල්ලක්": 6360,
      "පිත": 6361,
      "දෙසට": 6362,
      "කොම්": 6363,
      "කුලී": 6364,
      "බලං": 6365,
      "බලනව": 6366,
      "ඔබත්": 6367,
      "මිනිහෙ": 6368,
      "අවදාන": 6369,
      "දැනගත්තේ": 6370,
      "දකින්නේ": 6371,
      "ඉස්සරහින්": 6372,
      "අනිවාර්යෙන්": 6373,
      "බිත්තර": 6374,
      "නිදහසේ": 6375,
      "ව්වොත්": 6376,
      "ලැජ්ජා": 6377,
      "අන්තිමේදී": 6378,
      "ප්‍රහාරයක්": 6379,
      "පාඩුවේ": 6380,
      "උල්කා": 6381,
      "අඳි": 6382,
      "ගති": 6383,
      "ශෙ": 6384,
      "හෑන්ක්": 6385,
      "කියාව": 6386,
      "කාගෝ": 6387,
      "දුෂ්ට": 6388,
      "තරුව": 6389,
      "තරමක්": 6390,
      "රාම්": 6391,
      "ටිකයි": 6392,
      "රෙස්": 6393,
      "මිනිස්සුන්ගේ": 6394,
      "වැරදීමක්": 6395,
      "අංකල්": 6396,
      "දේශප්‍රේ": 6397,
      "ඇමතුම්": 6398,
      "එකතුවෙලා": 6399,
      "සැලසුම": 6400,
      "පැයකට": 6401,
      "ටෝනි": 6402,
      "දවසකට": 6403,
      "ශීත": 6404,
      "ස්වාමි": 6405,
      "වටිනාකම": 6406,
      "පවාහි": 6407,
      "ජීවතුන්": 6408,
      "තිෙයනවා": 6409,
      "හැගීම්": 6410,
      "බහලුම": 6411,
      "Country": 6412,
      "ලුතිනන්": 6413,
      "80": 6414,
      "by": 6415,
      "ie": 6416,
      "ඉතාම": 6417,
      "එව්වේ": 6418,
      "කැන": 6419,
      "සතුව": 6420,
      "වෙකු": 6421,
      "ගේට්ටුව": 6422,
      "තිරි": 6423,
      "හැච්": 6424,
      "නැන්දේ": 6425,
      "පුරාවටම": 6426,
      "දිල්ලි": 6427,
      "මුදා": 6428,
      "මිසිස්": 6429,
      "අවට": 6430,
      "සැකයි": 6431,
      "බිලියන": 6432,
      "බොන": 6433,
      "වටපිට": 6434,
      "මගෙයි": 6435,
      "කාරක": 6436,
      "බෝට්ටුවක්": 6437,
      "කෑවා": 6438,
      "තීන්": 6439,
      "දහය": 6440,
      "පර්ස්": 6441,
      "ජෝයි": 6442,
      "ජෙම්": 6443,
      "චිත්‍රපටිය": 6444,
      "සියල්ලම": 6445,
      "ඊළඟට": 6446,
      "බැඳලා": 6447,
      "හොල්මන්": 6448,
      "පෘථිවිය": 6449,
      "ඇලිස්": 6450,
      "වසන්": 6451,
      "වාතය": 6452,
      "විස්ස": 6453,
      "පිසා": 6454,
      "සිකු": 6455,
      "මිසක්": 6456,
      "නම්බ": 6457,
      "ank": 6458,
      "itain": 6459,
      "item": 6460,
      "මොනතරම්": 6461,
      "ලීසා": 6462,
      "ඉදල": 6463,
      "සඳහන්": 6464,
      "කරයිද": 6465,
      "පණිවු": 6466,
      "කැරලි": 6467,
      "උතුමාණනි": 6468,
      "අභ්‍යවකාශ": 6469,
      "britain": 6470,
      "counties": 6471,
      "britain_": 6472,
      "france": 6473,
      "අසනී": 6474,
      "ඇන්ට": 6475,
      "එංග": 6476,
      "ෂො": 6477,
      "සුවක්": 6478,
      "ක්ලබ්": 6479,
      "තික්": 6480,
      "හැනා": 6481,
      "ප්‍රහාර": 6482,
      "ලින්කන්": 6483,
      "එහෙදි": 6484,
      "ත්‍රයේ": 6485,
      "ගොඩක්ම": 6486,
      "ගුණයක්": 6487,
      "සමාග": 6488,
      "අයිතියක්": 6489,
      "දෙකක": 6490,
      "සම්පන්න": 6491,
      "ඔයාලත්": 6492,
      "නවත්තලා": 6493,
      "තොරතුරක්": 6494,
      "අවසානයි": 6495,
      "බ්‍රේ": 6496,
      "දෙයකට": 6497,
      "සටහන": 6498,
      "හම්බුනේ": 6499,
      "පොලිසියේ": 6500,
      "ක්ලෙයාර්": 6501,
      "ext": 6502,
      "රසායන": 6503,
      "ධර්ම": 6504,
      "ඉඳීවි": 6505,
      "දික්කසාද": 6506,
      "mb": 6507,
      "අදි": 6508,
      "ඉඩක්": 6509,
      "ඒජන්": 6510,
      "ඔන්": 6511,
      "නුවන්": 6512,
      "රෙක්": 6513,
      "රටම": 6514,
      "ලකට": 6515,
      "යාත්‍රා": 6516,
      "්‍රියා": 6517,
      "අවකාශ": 6518,
      "සැඟ": 6519,
      "ඔයගොල්ලෝ": 6520,
      "වලටත්": 6521,
      "කීපයකට": 6522,
      "තත්ප": 6523,
      "ark": 6524,
      "මගුලෙ": 6525,
      "අධික": 6526,
      "භාවික": 6527,
      "list": 6528,
      "එකිනෙකාට": 6529,
      "රැජිණ": 6530,
      "කනෙකෝ": 6531,
      "දෙමාපිය": 6532,
      "bia": 6533,
      "අධ්‍ය": 6534,
      "තෙන්": 6535,
      "මකර": 6536,
      "හයෙි": 6537,
      "‍කෙ": 6538,
      "එකපාරක්": 6539,
      "මුද්ද": 6540,
      "වත්කම්": 6541,
      "ඔබේ": 6542,
      "ලෝගන්": 6543,
      "මෙතනම": 6544,
      "බේස්": 6545,
      "සංවිධා": 6546,
      "අතරෙ": 6547,
      "මාර්ක්": 6548,
      "අමාරුවෙන්": 6549,
      "තොරව": 6550,
      "ක්‍රමලේඛ": 6551,
      "කියාවි": 6552,
      "වතාවෙ": 6553,
      "හමුදාවක්": 6554,
      "තනියෙන්": 6555,
      "පින්ටු": 6556,
      "ilipp": 6557,
      "පරාද": 6558,
      "ගොඩනැගිලි": 6559,
      "දූපතට": 6560,
      "කුණාටුව": 6561,
      "_B": 6562,
      "ශයිඩ්": 6563,
      "බැල්": 6564,
      "එන්නකෝ": 6565,
      "ප්ලා": 6566,
      "ලෝක්": 6567,
      "අහපු": 6568,
      "කයන්ට": 6569,
      "කොහෙන්": 6570,
      "කරුණු": 6571,
      "රෝද": 6572,
      "සම්පත්": 6573,
      "පොරොන්දුව": 6574,
      "our": 6575,
      "ඩියේ": 6576,
      "----": 6577,
      "පෙන්නුවා": 6578,
      "ක්‍රීම්": 6579,
      "වතුරට": 6580,
      "කූඩුව": 6581,
      "ළමයින්ව": 6582,
      "පවතී": 6583,
      "ලෝකෙට": 6584,
      "සේවාදාය": 6585,
      "පැතිකඩ": 6586,
      "යහපත්": 6587,
      "ලේසියෙන්": 6588,
      "දඬුවම්": 6589,
      "සෞඛ": 6590,
      "එංගලන්": 6591,
      "der": 6592,
      "ඇගිලි": 6593,
      "පවස": 6594,
      "යන්ට": 6595,
      "පිරු": 6596,
      "ව්වද": 6597,
      "කියලාද": 6598,
      "කැමතී": 6599,
      "නොමිලේ": 6600,
      "සහභා": 6601,
      "ගෝවා": 6602,
      "ගහපු": 6603,
      "හම්බවෙලා": 6604,
      "පිළිතුරු": 6605,
      "කරදරේ": 6606,
      "විදිහකට": 6607,
      "විද්‍යාඥ": 6608,
      "තමුන්ගෙ": 6609,
      "ගැලපෙනවා": 6610,
      "නිලධාරී": 6611,
      "ආරක්ෂාවට": 6612,
      "100ක්": 6613,
      "එන්ජින්": 6614,
      "පත්තර": 6615,
      "නිවාඩු": 6616,
      "සැලකිල්ලක්": 6617,
      "කල්ල": 6618,
      "ඩොර": 6619,
      "ශැන": 6620,
      "ස්සි": 6621,
      "තිරය": 6622,
      "නිදිය": 6623,
      "දිගා": 6624,
      "මුම්": 6625,
      "ගිවිස": 6626,
      "පොතේ": 6627,
      "වාසියක්": 6628,
      "ටිකකින්": 6629,
      "ලෙට": 6630,
      "රැකියාව": 6631,
      "බේරිලා": 6632,
      "ania": 6633,
      "චාරය": 6634,
      "සටනක්": 6635,
      "හම්බවෙමු": 6636,
      "නගරේ": 6637,
      "ලඟින්": 6638,
      "සුභපැතුම්": 6639,
      "own": 6640,
      "නුඹට": 6641,
      "සැලැස්": 6642,
      "ආරක්ෂිතව": 6643,
      "නැගිටිනවා": 6644,
      "විසඳු": 6645,
      "පරාජි": 6646,
      "ෆ්ලෑෂ්": 6647,
      "45": 6648,
      "ඔලුවේ": 6649,
      "එකකුත්": 6650,
      "වෙන්නැති": 6651,
      "හිතුවට": 6652,
      "පැල්": 6653,
      "කැල්": 6654,
      "ඕනලු": 6655,
      "ලින්ඩා": 6656,
      "කෙනෙකු": 6657,
      "කෙනෙක්ගේ": 6658,
      "පිටතට": 6659,
      "සම්මුඛ": 6660,
      "චාල්ස්": 6661,
      "තත්ත්වය": 6662,
      "කොල්ලට": 6663,
      "ලැබුණු": 6664,
      "රාජකීය": 6665,
      "ජනප්‍රිය": 6666,
      "දොරෙන්": 6667,
      "ish": 6668,
      "ෂික්": 6669,
      "ඇන්ඩි": 6670,
      "වැසිකි": 6671,
      "‍රු‍දී": 6672,
      "ඩ්‍රයිව්": 6673,
      "month": 6674,
      "ධෛර්ය": 6675,
      "ලවුඩා": 6676,
      "_R": 6677,
      "උෂ්": 6678,
      "නමේ": 6679,
      "වසම්": 6680,
      "ෙවනවා": 6681,
      "‍කෝ": 6682,
      "විකෘති": 6683,
      "නිමැවුම්": 6684,
      "හැමේ": 6685,
      "මානව": 6686,
      "දැකීම": 6687,
      "ඩිස්": 6688,
      "අවහිර": 6689,
      "දැනෙනව": 6690,
      "න්ටර්": 6691,
      "ant": 6692,
      "යන්තම්": 6693,
      "තියාගන්නවා": 6694,
      "සම්බන්ධතා": 6695,
      "ටාර්": 6696,
      "හැසිරීම": 6697,
      "එන්ජි": 6698,
      "ගිවිසුම": 6699,
      "ෙහාදයි": 6700,
      "කොන්දේසි": 6701,
      "ප්‍රවෘත්ති": 6702,
      "Mo": 6703,
      "i1": 6704,
      "some": 6705,
      "wat": 6706,
      "අසි": 6707,
      "අන්ද": 6708,
      "‍ආ": 6709,
      "‍ගි": 6710,
      "නිකා": 6711,
      "දිද": 6712,
      "සියාව": 6713,
      "නෙමී": 6714,
      "ප්‍රභ": 6715,
      "පොහො": 6716,
      "නොදැන": 6717,
      "වීදිය": 6718,
      "ලේ": 6719,
      "බලාගන්නවා": 6720,
      "කාර්‍යා": 6721,
      "භාණ්ඩ": 6722,
      "හම්බවුනා": 6723,
      "එළිය": 6724,
      "සලකන්න": 6725,
      "ප්‍රශ්නයක්ද": 6726,
      "ගෑනි": 6727,
      "කාමරයක්": 6728,
      "යුද්ධයක්": 6729,
      "පවතිනවා": 6730,
      "‍ක‍රන්": 6731,
      "සමීප": 6732,
      "අපූරු": 6733,
      "ilippines": 6734,
      "තලා": 6735,
      "විකා": 6736,
      "පිර": 6737,
      "දිසි": 6738,
      "බුරු": 6739,
      "කොටුව": 6740,
      "බෝට්ට": 6741,
      "පිරික්": 6742,
      "ask": 6743,
      "කව්රු": 6744,
      "බඩගිනි": 6745,
      "තෝරගන්න": 6746,
      "නංගිව": 6747,
      "30ක්": 6748,
      "අංශය": 6749,
      "ඉවසන්න": 6750,
      "rip": 6751,
      "පල්ලෙ": 6752,
      "ලේඛන": 6753,
      "ධාවන": 6754,
      "අවස්තාව": 6755,
      "ඔක්කෝම": 6756,
      "21": 6757,
      "eb": 6758,
      "අසාර්ථකයි": 6759,
      "ඊළගට": 6760,
      "රමෝනා": 6761,
      "ෂේ": 6762,
      "ස්ටන්": 6763,
      "ස්‍‍": 6764,
      "පාපන්දු": 6765,
      "දුෂ්": 6766,
      "න්නෙක්": 6767,
      "කවුරැ": 6768,
      "නියර්": 6769,
      "සෙබ": 6770,
      "ගුල්ල": 6771,
      "සීමට": 6772,
      "ජාතිය": 6773,
      "තැබී": 6774,
      "ජීවිතයට": 6775,
      "ung": 6776,
      "බැලුවොත්": 6777,
      "පුලුවන්නම්": 6778,
      "කඳවුර": 6779,
      "අකමැ": 6780,
      "ගිණුම්": 6781,
      "අතෑරලා": 6782,
      "ටෙක්සාස්": 6783,
      "ඇන්ඩෲ": 6784,
      "PI": 6785,
      "ix": 6786,
      "චෑන්": 6787,
      "වඳු": 6788,
      "සැන": 6789,
      "ෙහද": 6790,
      "කරගත්තේ": 6791,
      "කිමි": 6792,
      "දිනයක්": 6793,
      "සිග්": 6794,
      "ප්පත්": 6795,
      "අහස": 6796,
      "ගෙන්ම": 6797,
      "ගෝලය": 6798,
      "නෝර්": 6799,
      "ound": 6800,
      "බේරගත්තා": 6801,
      "මුණගැහු": 6802,
      "වෛරස": 6803,
      "සිහිනය": 6804,
      "ධාවනය": 6805,
      "ජෝර්ජ්": 6806,
      "අභියෝග": 6807,
      "99": 6808,
      "No": 6809,
      "fe": 6810,
      "ධන": 6811,
      "‍පු": 6812,
      "ක්ලේ": 6813,
      "විලියම්": 6814,
      "දෙස": 6815,
      "කිස්": 6816,
      "හෙමීට": 6817,
      "බැල්ල": 6818,
      "බැලී": 6819,
      "කිව්වම": 6820,
      "උඹත්": 6821,
      "ගැළ": 6822,
      "සර්ව": 6823,
      "වුනානම්": 6824,
      "දියත්": 6825,
      "නවත්තගන්න": 6826,
      "ලැබුවා": 6827,
      "මෝඩයි": 6828,
      "පෙන්නන්නම්": 6829,
      "icName": 6830,
      "සතුටෙන්": 6831,
      "බහිනවා": 6832,
      "ඉපදුනේ": 6833,
      "ගම්මු": 6834,
      "box": 6835,
      "philippines": 6836,
      "මුද්‍රණය": 6837,
      "_N": 6838,
      "so": 6839,
      "ගූ": 6840,
      "ගවේ": 6841,
      "චල": 6842,
      "මකන්න": 6843,
      "න්තය": 6844,
      "වියා": 6845,
      "විනිශ්ච": 6846,
      "ඒකකය": 6847,
      "කොතන": 6848,
      "කරන්නම": 6849,
      "කාංග": 6850,
      "පාසල": 6851,
      "කුහර": 6852,
      "බලකා": 6853,
      "රාම": 6854,
      "පැළ": 6855,
      "කටවත්": 6856,
      "හැමවිටම": 6857,
      "දැනගත්තොත්": 6858,
      "එහෙමත්": 6859,
      "බිද": 6860,
      "බේරුවා": 6861,
      "දෙනු": 6862,
      "ලියක්": 6863,
      "කිරීමෙන්": 6864,
      "යයිද": 6865,
      "ංචු": 6866,
      "රසවත්": 6867,
      "පිටුපස": 6868,
      "චරිතය": 6869,
      "යුක්තිය": 6870,
      "කියෙව්වා": 6871,
      "හෙලිකොප්ට": 6872,
      "මෙවලම්": 6873,
      "GenericName": 6874,
      "ජන්ත": 6875,
      "ටවත්": 6876,
      "ණියක්": 6877,
      "බෘ": 6878,
      "රඩේ": 6879,
      "ො": 6880,
      "‍ඕ": 6881,
      "ම්බි": 6882,
      "ස්පා": 6883,
      "නැවේ": 6884,
      "දෙයක": 6885,
      "දුප්පත්": 6886,
      "කුලු": 6887,
      "සුරි": 6888,
      "වෙනුවනේ": 6889,
      "ලුසී": 6890,
      "නියමු": 6891,
      "යුනි": 6892,
      "කිසිදු": 6893,
      "අවුරුද්දෙ": 6894,
      "ක්‍රියාවක්": 6895,
      "කොහේවත්": 6896,
      "ඩේව්": 6897,
      "‍ම‍රු‍දී": 6898,
      "අගනුව": 6899,
      "උපාධ": 6900,
      "ත්‍රස්තවාදී": 6901,
      "ජස්ටින්": 6902,
      "හැමදේටම": 6903,
      "ඉම්මි": 6904,
      "ඇහෙන්නේ": 6905,
      "අස": 6906,
      "කතන්": 6907,
      "නමෙ": 6908,
      "වදින්න": 6909,
      "පාපො": 6910,
      "ප්‍රී": 6911,
      "මැන්": 6912,
      "අරක්කු": 6913,
      "කිව්වට": 6914,
      "වටහා": 6915,
      "සේනා": 6916,
      "රැයක්": 6917,
      "එයාලත්": 6918,
      "සීත": 6919,
      "ණ්ඩි": 6920,
      "කවුරුන්": 6921,
      "අහන්නද": 6922,
      "අතරතුර": 6923,
      "හරියේ": 6924,
      "කරනවට": 6925,
      "අනුමත": 6926,
      "ඉගෙනගන්න": 6927,
      "ඩීන්": 6928,
      "ස්ටික්": 6929,
      "button": 6930,
      "කතන්දර": 6931,
      "ile": 6932,
      "චිය": 6933,
      "පදා": 6934,
      "ියෙක්": 6935,
      "ස්කයි": 6936,
      "නිරා": 6937,
      "හිල": 6938,
      "දෙකට": 6939,
      "මිලිය": 6940,
      "හිතල": 6941,
      "දේව්": 6942,
      "බැඳි": 6943,
      "රෙන්නෙ": 6944,
      "සමානයි": 6945,
      "සතුන්": 6946,
      "චිකිත්": 6947,
      "ඩොක්": 6948,
      "පාලම": 6949,
      "නගරයක්": 6950,
      "සකස": 6951,
      "රූපවාහි": 6952,
      "ජීවිතේට": 6953,
      "පිටිපස්ස": 6954,
      "ඉන්නවනම්": 6955,
      "මොහොතක්": 6956,
      "තෝරාගත්": 6957,
      "ස්වාමියා": 6958,
      "පුළුවන්නේ": 6959,
      "සෙනසු": 6960,
      "ත්‍යාග": 6961,
      "මස්සිනා": 6962,
      "ජයිකාන්ත්": 6963,
      "ආශ්": 6964,
      "ඊවෝ": 6965,
      "ඒජන්ත": 6966,
      "ඔට්ටුවක්": 6967,
      "ඝන": 6968,
      "ප්‍රි": 6969,
      "ෙකුත්": 6970,
      "හිට්": 6971,
      "නම්බර්": 6972,
      "ප්‍රශ": 6973,
      "බැදලා": 6974,
      "බලන්නකො": 6975,
      "සැමිය": 6976,
      "ගාය": 6977,
      "නීනා": 6978,
      "‍යෝ": 6979,
      "වර්ගයක්": 6980,
      "ඉඳි": 6981,
      "බ්‍රහස්": 6982,
      "ගෙනියනවා": 6983,
      "අධිකරණ": 6984,
      "ල්ලුවා": 6985,
      "යාලුවනේ": 6986,
      "තට්ටුවට": 6987,
      "බැටරි": 6988,
      "quer": 6989,
      "වෙරළ": 6990,
      "දියමන්ති": 6991,
      "'.": 6992,
      ",\"": 6993,
      "ඕෙන්": 6994,
      "ජැනට්": 6995,
      "මනින්ම": 6996,
      "වධ": 6997,
      "සවි": 6998,
      "ගේනවා": 6999,
      "මේකා": 7000,
      "හාස්": 7001,
      "වගේනේ": 7002,
      "ප්‍රච": 7003,
      "ප්‍රථි": 7004,
      "තේමාව": 7005,
      "බුක්": 7006,
      "ත්‍යන්තර": 7007,
      "පෙන්නෙ": 7008,
      "මහත": 7009,
      "එයාලගෙන්": 7010,
      "අතක්": 7011,
      "ෂ්ෂ්": 7012,
      "පරීක්ශ": 7013,
      "කඩවසම්": 7014,
      "පසුම්බ": 7015,
      "ටේ": 7016,
      "හමුදාවට": 7017,
      "ach": 7018,
      "ජොන්": 7019,
      "see": 7020,
      "පෙට්ටියක්": 7021,
      "විශිෂ්ටයි": 7022,
      "ආරංචිය": 7023,
      "තබන්න": 7024,
      "‍දා‍ල": 7025,
      "සිඩ්නි": 7026,
      "කෞතු": 7027,
      "ගිම්හා": 7028,
      "අදාළ": 7029,
      "49": 7030,
      "70": 7031,
      "ge": 7032,
      "pr": 7033,
      "part": 7034,
      "අදුරු": 7035,
      "නෙන්": 7036,
      "මඩ": 7037,
      "වෙල්ස්": 7038,
      "ෙනම්": 7039,
      "මේසෙ": 7040,
      "මුතු": 7041,
      "සිතුව": 7042,
      "වැලි": 7043,
      "පාරි": 7044,
      "ඔබන්න": 7045,
      "දෙන්නව": 7046,
      "මන්‍ය": 7047,
      "ක්‍රා": 7048,
      "ටිකකට": 7049,
      "ලොක": 7050,
      "අම්මගෙ": 7051,
      "කරුණ": 7052,
      "පේන්": 7053,
      "යෝජ": 7054,
      "සම්බන්ධව": 7055,
      "ඇහුණා": 7056,
      "ව්‍යාජ": 7057,
      "ට්‍රෙ": 7058,
      "කෘතිය": 7059,
      "භාවිතය": 7060,
      "බූම්": 7061,
      "මාර්ගයේ": 7062,
      "හිරේට": 7063,
      "ස්ටාෆ්": 7064,
      "වේදිකා": 7065,
      "හරිගස්සන්න": 7066,
      "ආයා": 7067,
      "ඊතන්": 7068,
      "කන්නෙ": 7069,
      "ලයා": 7070,
      "වසන්න": 7071,
      "ශර්": 7072,
      "ශල්‍ය": 7073,
      "සන්ද": 7074,
      "‍නැ": 7075,
      "‍නෑ": 7076,
      "කරෝ": 7077,
      "හැඳු": 7078,
      "තාප": 7079,
      "මිශ්‍ර": 7080,
      "කුකුල්": 7081,
      "බලෙන්": 7082,
      "වලු": 7083,
      "ලැබ්": 7084,
      "ලැබී": 7085,
      "කියනදේ": 7086,
      "කලට්": 7087,
      "පන්තියේ": 7088,
      "චිත": 7089,
      "දාන්නම්": 7090,
      "අංජලී": 7091,
      "දොරට": 7092,
      "නිර්දේශ": 7093,
      "පුරවන්න": 7094,
      "සිටින්නේ": 7095,
      "හැරෙනවා": 7096,
      "වචනේ": 7097,
      "ෆික්": 7098,
      "දූපතේ": 7099,
      "පැටියේ": 7100,
      "භූත": 7101,
      "වාඩිවෙලා": 7102,
      "ෙකාෙහා": 7103,
      "ද්‍රෝහි": 7104,
      "ආරක්ශක": 7105,
      "‍කි‍ය‍ලා": 7106,
      "හෙල්ලෙන්න": 7107,
      "පල්ලෙහාට": 7108,
      "ake": 7109,
      "card": 7110,
      "ss": 7111,
      "ure": 7112,
      "ආසියා": 7113,
      "ගයි": 7114,
      "තණ": 7115,
      "වැන": 7116,
      "න්නෑ": 7117,
      "ස්ම්": 7118,
      "කියවෙන්නේ": 7119,
      "දුකයි": 7120,
      "කැඩ": 7121,
      "අපව": 7122,
      "තිබුණු": 7123,
      "පරිපූර්ණ": 7124,
      "ට්ටක්": 7125,
      "මැරුණු": 7126,
      "පතනවා": 7127,
      "තමුසෙලා": 7128,
      "ටෙඩ්": 7129,
      "ගලවලා": 7130,
      "ත්වයට": 7131,
      "පියාසර": 7132,
      "වාර්තාවක්": 7133,
      "යාළුවනේ": 7134,
      "ගනිමින්": 7135,
      "ංශය": 7136,
      "රෝහලට": 7137,
      "ඒකිව": 7138,
      "අපායට": 7139,
      "උගුලක්": 7140,
      "අවුරුද්දකට": 7141,
      "භෞතික": 7142,
      "Germany": 7143,
      "uk": 7144,
      "ගතිය": 7145,
      "ටල්": 7146,
      "මනක්": 7147,
      "වදේ": 7148,
      "‍නෙ": 7149,
      "යානයක්": 7150,
      "විමක්": 7151,
      "විවර": 7152,
      "කියෝ": 7153,
      "නෑදෑ": 7154,
      "අවවාද": 7155,
      "කෙහෙල්": 7156,
      "ලොයිඩ්": 7157,
      "නීමෝ": 7158,
      "බැරිනම්": 7159,
      "බැහැලා": 7160,
      "හමුවෙලා": 7161,
      "ඩොග්": 7162,
      "ඕනිද": 7163,
      "වෙනවට": 7164,
      "කඩන්": 7165,
      "සන්නද්ධ": 7166,
      "ඉන්ස්ප": 7167,
      "දානමින්": 7168,
      "කඩාගෙන": 7169,
      "බිත්තිය": 7170,
      "ලැයිස්තුවක්": 7171,
      "අරුශ්": 7172,
      "symb": 7173,
      "ඉංජිනේරු": 7174,
      "විචල්‍ය": 7175,
      "නැවැත්තුවා": 7176,
      "URL": 7177,
      "symbol": 7178,
      "ඒගැන": 7179,
      "චන්": 7180,
      "යකේ": 7181,
      "ලෙනවා": 7182,
      "ළුවේ": 7183,
      "ෆින්": 7184,
      "ෙප්": 7185,
      "‍පි": 7186,
      "එකනම්": 7187,
      "නැග්": 7188,
      "සිතා": 7189,
      "්‍රේ": 7190,
      "දාහක්": 7191,
      "හාස": 7192,
      "සුපර්": 7193,
      "බොනවා": 7194,
      "හොයාගත්තද": 7195,
      "බැරිවෙයි": 7196,
      "ජාත්‍යන්තර": 7197,
      "බලාපොරොත්තුවෙන්": 7198,
      "උත්තරේ": 7199,
      "කිරිම": 7200,
      "නිශ්ශබ්ද": 7201,
      "ශාලාව": 7202,
      "ආයත": 7203,
      "පරිවර්ථ": 7204,
      "අගුළු": 7205,
      "සතුරන්": 7206,
      "සම්ප්‍රේෂ": 7207,
      "එෙහම": 7208,
      "සිග්නල්": 7209,
      "බ්‍රහස්පති": 7210,
      "දශ": 7211,
      "නමට": 7212,
      "පරෙ": 7213,
      "ලමය": 7214,
      "විසන්": 7215,
      "මාග්‍ර": 7216,
      "තියන්නෙ": 7217,
      "පුජ": 7218,
      "ගන්නත්": 7219,
      "ජීන්": 7220,
      "තමුන්ව": 7221,
      "හදවත්": 7222,
      "යෝගි": 7223,
      "පියෙක්": 7224,
      "හිටපන්": 7225,
      "පසුතැ": 7226,
      "ඉල්ලන්නේ": 7227,
      "අඩුව": 7228,
      "ගන්තු": 7229,
      "බර්ග්": 7230,
      "මරුවා": 7231,
      "ලැයිස්තු": 7232,
      "වේලාව": 7233,
      "අභිප්‍රේ": 7234,
      "වුවත්": 7235,
      "බාධකය": 7236,
      "‍ති‍ය": 7237,
      "අන්තර්ජා": 7238,
      "දඩුවම්": 7239,
      "පිසාච": 7240,
      "day": 7241,
      "nia": 7242,
      "උනු": 7243,
      "ඔල්": 7244,
      "කවි": 7245,
      "ගතියක්": 7246,
      "බස්ස": 7247,
      "යමං": 7248,
      "‍දෙ": 7249,
      "කරගන්නේ": 7250,
      "ස්ලා": 7251,
      "වුනෙ": 7252,
      "මෙලෝ": 7253,
      "දිනේ": 7254,
      "ඔබෙන්": 7255,
      "කටෝ": 7256,
      "කෙර": 7257,
      "නැතිවෙන්න": 7258,
      "චිකාගෝ": 7259,
      "orea": 7260,
      "හොයාගන්නම්": 7261,
      "ක්‍රියාකාරී": 7262,
      "වුණාම": 7263,
      "සෝපා": 7264,
      "බලාපොරොත්තුවක්": 7265,
      "හමුවුනා": 7266,
      "මෙහෙයුමක්": 7267,
      "හිනාවෙන්න": 7268,
      "පැමිණිලි": 7269,
      "සොරකම්": 7270,
      "ඉන්ස්පෙක්ටර්": 7271,
      "42": 7272,
      "අග්": 7273,
      "ඔක": 7274,
      "නකොට": 7275,
      "නහය": 7276,
      "පටියක්": 7277,
      "ලෙක්": 7278,
      "ෙට්": 7279,
      "ෙකෙනක්": 7280,
      "‍ලි": 7281,
      "විඳ": 7282,
      "නිම්": 7283,
      "හැරියා": 7284,
      "කිට්ටු": 7285,
      "මෙතැනින්": 7286,
      "ල්ලේ": 7287,
      "ඉන්නද": 7288,
      "බලපත්‍රය": 7289,
      "සුප්": 7290,
      "නොසලකා": 7291,
      "බිං": 7292,
      "යුත්තේ": 7293,
      "ඔයාගෙම": 7294,
      "ත්‍‍ත": 7295,
      "ගාරයේ": 7296,
      "උද්‍යා": 7297,
      "පොඩ්ඩ": 7298,
      "පෙන්වනවා": 7299,
      "එක්කො": 7300,
      "පර්යන්": 7301,
      "පිටිපස්සට": 7302,
      "ටීවී": 7303,
      "මඟුලේ": 7304,
      "වනෙුවනේ": 7305,
      "උදෑසන": 7306,
      "ළමයකේ": 7307,
      "ලැජ්ජාවක්": 7308,
      "උසාවිය": 7309,
      "නැටුම්": 7310,
      "පක්ෂපා": 7311,
      "විකුන": 7312,
      "අපේක්ෂා": 7313,
      "CO": 7314,
      "crip": 7315,
      "ifor": 7316,
      "අඳින්න": 7317,
      "අසාර්ථක": 7318,
      "ආදා": 7319,
      "ආගන්තු": 7320,
      "ඔළුවට": 7321,
      "ණුවක්": 7322,
      "දුවක්": 7323,
      "දනේන": 7324,
      "ලභ": 7325,
      "ුණු": 7326,
      "ෙහට": 7327,
      "‍ජ": 7328,
      "‍හැ": 7329,
      "ස්නා": 7330,
      "මමද": 7331,
      "ගෙවන්නේ": 7332,
      "දිගින්": 7333,
      "දුනු": 7334,
      "දේවා": 7335,
      "ගෙනල්ලා": 7336,
      "වෙයින්": 7337,
      "ඇතිවෙලා": 7338,
      "යේදි": 7339,
      "ප්ටර්": 7340,
      "අහං": 7341,
      "රියෝ": 7342,
      "ඇත්තටමද": 7343,
      "සංවාද": 7344,
      "මොනහරි": 7345,
      "වැඩියා": 7346,
      "උපකරණයක්": 7347,
      "යුතුය": 7348,
      "හරියන්නේ": 7349,
      "සලස්": 7350,
      "රටාව": 7351,
      "දවස්වල": 7352,
      "වගකියන්න": 7353,
      "විසින්ම": 7354,
      "able": 7355,
      "ments": 7356,
      "සහිතයි": 7357,
      "ත්‍යානුකූ": 7358,
      "හැකියාවන්": 7359,
      "අද්සර්": 7360,
      "චන්ද්‍ර": 7361,
      "ද්‍රෝහී": 7362,
      "ග්‍රීන්": 7363,
      "පාන්දර": 7364,
      "දිවුරනවා": 7365,
      "Charles": 7366,
      "පාපොච්චා": 7367,
      "),": 7368,
      "අනෙ": 7369,
      "අඩිය": 7370,
      "ආතල්": 7371,
      "උමග": 7372,
      "එවන්": 7373,
      "එලිස්": 7374,
      "‍ගෙ": 7375,
      "‍වැ": 7376,
      "වෙල්ට්": 7377,
      "නිති": 7378,
      "නිහඩ": 7379,
      "ගෙවනවා": 7380,
      "පාටි": 7381,
      "ඔබයි": 7382,
      "හොඳක්": 7383,
      "කැට්": 7384,
      "නියමිත": 7385,
      "මෙහෙය": 7386,
      "රොනී": 7387,
      "ලියකිය": 7388,
      "බෙරි": 7389,
      "ගහගන්න": 7390,
      "ඉවරද": 7391,
      "උත්සහා": 7392,
      "මැරුම්": 7393,
      "ator": 7394,
      "ලැබුනද": 7395,
      "සින්දු": 7396,
      "දැම්මො": 7397,
      "දැම්මෙ": 7398,
      "තර්ජන": 7399,
      "පොලිසියෙන්": 7400,
      "මුරණ්ඩු": 7401,
      "කුළුණ": 7402,
      "පරිගණකය": 7403,
      "විකිරණ": 7404,
      "යාලුවන්": 7405,
      "අදුන": 7406,
      "අවාසනාව": 7407,
      "උඔ": 7408,
      "උද්": 7409,
      "එලා": 7410,
      "මනි": 7411,
      "යටි": 7412,
      "ැද්ද": 7413,
      "දෙයින්": 7414,
      "කොතරම්": 7415,
      "ෙක්ව": 7416,
      "කිව්වත්": 7417,
      "එතෙන්ට": 7418,
      "තියන්නම්": 7419,
      "එච්චරම": 7420,
      "මෙතෙක්": 7421,
      "ශ්‍රය": 7422,
      "ආසන": 7423,
      "පිහිටුව": 7424,
      "ශරීර": 7425,
      "තුන්දෙනා": 7426,
      "සහගතයි": 7427,
      "ආයිත්": 7428,
      "ඩොරති": 7429,
      "පොහොසත්": 7430,
      "Kon": 7431,
      "nam": 7432,
      "අකු": 7433,
      "අප්‍ර": 7434,
      "ඇගෙ": 7435,
      "කවත්": 7436,
      "කවර": 7437,
      "දනේ": 7438,
      "පප": 7439,
      "සතියෙ": 7440,
      "ුණා": 7441,
      "‍දු": 7442,
      "න්නු": 7443,
      "ුවර": 7444,
      "හැක්": 7445,
      "පාඩු": 7446,
      "කුමාර": 7447,
      "යන්නට": 7448,
      "දැන්වත්": 7449,
      "පැන්නා": 7450,
      "අපහු": 7451,
      "දැනෙනවද": 7452,
      "ප්ටි": 7453,
      "ina": 7454,
      "වියක්": 7455,
      "රැම්": 7456,
      "පහයි": 7457,
      "නෝවා": 7458,
      "ජේක": 7459,
      "දිහාවට": 7460,
      "සරලයි": 7461,
      "තුමාට": 7462,
      "ක්‍රීඩ": 7463,
      "උත්තරය": 7464,
      "ඇරල": 7465,
      "තනිවම": 7466,
      "there": 7467,
      "බොහෝම": 7468,
      "‍එ‍ක": 7469,
      "මර්ෆ්": 7470,
      "වර්ගයේ": 7471,
      "ඔරලො": 7472,
      "ග්‍රේස්": 7473,
      "ආර්යන්": 7474,
      "සංගීත": 7475,
      "කපිතන්": 7476,
      "රාක්ෂයෙක්": 7477,
      "රත්තරන්": 7478,
      "සංඥාවක්": 7479,
      "මෘදුකාංග": 7480,
      "ifornia": 7481,
      "ඌන්": 7482,
      "ඔළු": 7483,
      "කමු": 7484,
      "පලට": 7485,
      "පතුර": 7486,
      "භෝ": 7487,
      "ික": 7488,
      "‍හො": 7489,
      "විවිධ": 7490,
      "කියවලා": 7491,
      "දින්නේ": 7492,
      "දුටු": 7493,
      "අවසරය": 7494,
      "නොවැ": 7495,
      "නැතිවෙනවා": 7496,
      "ගානට": 7497,
      "අම්මෝ": 7498,
      "රෝයි": 7499,
      "තයන්": 7500,
      "ord": 7501,
      "පොරොන්දුවක්": 7502,
      "මැරුනේ": 7503,
      "මගුලයි": 7504,
      "පළා": 7505,
      "පැටියො": 7506,
      "පද්ධතියේ": 7507,
      "ගනිං": 7508,
      "පුපුරවන්න": 7509,
      "ෆෙඩ": 7510,
      "option": 7511,
      "බහුලයි": 7512,
      "බැටරිය": 7513,
      "සැලකිලිමත්": 7514,
      "සාක්ෂිය": 7515,
      "පරම්පරා": 7516,
      "ඇබ්බැ": 7517,
      "පිහියක්": 7518,
      "ආශිර්වාද": 7519,
      "queror": 7520,
      "EO": 7521,
      "co": 7522,
      "එද්දි": 7523,
      "ඳා": 7524,
      "‍්‍ර": 7525,
      "ස්මා": 7526,
      "හැරිය": 7527,
      "කායි": 7528,
      "බලල": 7529,
      "බැන්ද": 7530,
      "නොවෙන": 7531,
      "බාල": 7532,
      "ගැබ්": 7533,
      "රේඛ": 7534,
      "කරාම": 7535,
      "අන්ජු": 7536,
      "නෝන": 7537,
      "ario": 7538,
      "මූව": 7539,
      "උපකාර": 7540,
      "එච්චරද": 7541,
      "කරනවනම්": 7542,
      "ඉල්ලුවා": 7543,
      "කාලෙකින්": 7544,
      "පිලිගන්න": 7545,
      "තොල්": 7546,
      "දැනුනේ": 7547,
      "‍ක‍ර": 7548,
      "පාඩමක්": 7549,
      "අහිංස": 7550,
      "කොන්ඩේ": 7551,
      "දුරකතන": 7552,
      "world": 7553,
      "ඔහොමම": 7554,
      "හුරතල්": 7555,
      "අන්ජුටා": 7556,
      "Un": 7557,
      "sp": 7558,
      "අමාරුව": 7559,
      "ඇරිය": 7560,
      "රෙන්ම": 7561,
      "වන්ද": 7562,
      "ෙයන්": 7563,
      "න්නද": 7564,
      "එකටම": 7565,
      "හොත්": 7566,
      "නාර්": 7567,
      "දිව්‍ය": 7568,
      "සාමන්‍ය": 7569,
      "ඩිලන්": 7570,
      "එන්නද": 7571,
      "ටියන්": 7572,
      "අහෝ": 7573,
      "දීමේ": 7574,
      "කීන්": 7575,
      "බෙත්": 7576,
      "අල්ලගත්ත": 7577,
      "දුවගේ": 7578,
      "පීඩා": 7579,
      "කඩදා": 7580,
      "වොල්ට්": 7581,
      "ණ්ඩුව": 7582,
      "නිදන": 7583,
      "පෝල්": 7584,
      "ක්‍රිෂ්": 7585,
      "තුනකින්": 7586,
      "පල්ලෙහා": 7587,
      "ගනුදෙනුවක්": 7588,
      "සිරුරු": 7589,
      "ප්‍රදේශය": 7590,
      "මැදිහත්": 7591,
      "ඇලිසන්": 7592,
      "අනවශ්‍ය": 7593,
      "subjec": 7594,
      "8ක්": 7595,
      "SS": 7596,
      "අෑ": 7597,
      "අයු": 7598,
      "අජේ": 7599,
      "කප්ප": 7600,
      "ඟු": 7601,
      "යමන්": 7602,
      "ෑම්": 7603,
      "‍වෙන්": 7604,
      "‍ඉන්": 7605,
      "ම්ප": 7606,
      "නවය": 7607,
      "දාපන්": 7608,
      "ගැනවත්": 7609,
      "සාක්ක": 7610,
      "සුවා": 7611,
      "එන්නත්": 7612,
      "දැනුවත්": 7613,
      "වීමෙන්": 7614,
      "ක්‍ය": 7615,
      "ගැණු": 7616,
      "විද්‍": 7617,
      "වයසට": 7618,
      "ලියෝ": 7619,
      "පන්ති": 7620,
      "දිහාට": 7621,
      "ඇහුනේ": 7622,
      "රටා": 7623,
      "ගලවා": 7624,
      "ශක්තියක්": 7625,
      "වේදනාවක්": 7626,
      "වසරේ": 7627,
      "විධාන": 7628,
      "කවදහරි": 7629,
      "උපාය": 7630,
      "කාර්යාලයට": 7631,
      "ප්‍රහාරය": 7632,
      "එකපාරටම": 7633,
      "සංචාරය": 7634,
      "පිටුවහල්": 7635,
      "කොලේජ්": 7636,
      "California": 7637,
      "සිකුරාදා": 7638,
      "මාග්‍රට්": 7639,
      "ඉදී": 7640,
      "උගන්ව": 7641,
      "එල්ලි": 7642,
      "එරිකා": 7643,
      "කප්": 7644,
      "ඟන්": 7645,
      "චේ": 7646,
      "නඟි": 7647,
      "ෙඩා": 7648,
      "ුවද": 7649,
      "රිදව": 7650,
      "කොලින්": 7651,
      "කාලික": 7652,
      "දියාව": 7653,
      "සිවිල්": 7654,
      "පානවා": 7655,
      "හුදෙ": 7656,
      "හිතමු": 7657,
      "රාවට": 7658,
      "සීය": 7659,
      "කෑන්": 7660,
      "පිටල්": 7661,
      "ඉදියි": 7662,
      "දුන්නට": 7663,
      "මූලා": 7664,
      "වාහනයක්": 7665,
      "සෝදිසි": 7666,
      "ගෑණි": 7667,
      "ට්‍රො": 7668,
      "ටොන්": 7669,
      "හැමදාටම": 7670,
      "බල්ලෝ": 7671,
      "විරුද්ද": 7672,
      "ගැහැනු": 7673,
      "එහායින්": 7674,
      "අඟු": 7675,
      "පහසුවෙන්": 7676,
      "ඇඟිල්ල": 7677,
      "අස්සේ": 7678,
      "කීයටද": 7679,
      "ඩැනියල්": 7680,
      "Mar": 7681,
      "PD": 7682,
      "ll": 7683,
      "ආපිට": 7684,
      "ඔටු": 7685,
      "ඕෆ්": 7686,
      "දමෙ": 7687,
      "ලනවා": 7688,
      "වසං": 7689,
      "මේවගේ": 7690,
      "දිව්": 7691,
      "දිල්ල": 7692,
      "වැය": 7693,
      "හුගා": 7694,
      "ක්කද": 7695,
      "කුටිය": 7696,
      "හාදය": 7697,
      "වැඩකරන්න": 7698,
      "අරගන්නවා": 7699,
      "අහම්බ": 7700,
      "ටිකත්": 7701,
      "සමාගම්": 7702,
      "උදව්ව": 7703,
      "සීනි": 7704,
      "න්වලා": 7705,
      "තුමණි": 7706,
      "හිතාගන්නවත්": 7707,
      "ගැන්වීමක්": 7708,
      "ඉන්දියාවේ": 7709,
      "ස්ට්‍රේ": 7710,
      "ග්‍රෙග්": 7711,
      "ස්ම්ල්විල්": 7712,
      "CA": 7713,
      "Please": 7714,
      "Sp": 7715,
      "එෙහ": 7716,
      "ගලක්": 7717,
      "බයෙන්": 7718,
      "ෙවයි": 7719,
      "ක්ශා": 7720,
      "ස්ලි": 7721,
      "නිවේද": 7722,
      "නැවක්": 7723,
      "හුස්මක්": 7724,
      "කියලනේ": 7725,
      "කෙලී": 7726,
      "කෙළි": 7727,
      "වීදුරු": 7728,
      "onia": 7729,
      "දුවන": 7730,
      "අතහරින්න": 7731,
      "වහගන්නවා": 7732,
      "තරම්ම": 7733,
      "හයිය": 7734,
      "තොප්": 7735,
      "තක්සේ": 7736,
      "චීස්": 7737,
      "අනිවාරෙන්ම": 7738,
      "එවන්නම්": 7739,
      "view": 7740,
      "චොකලට්": 7741,
      "උපන්දිනේ": 7742,
      "ශ්‍රේෂ්ඨ": 7743,
      "සාකච්ඡා": 7744,
      "මුම්බායි": 7745,
      "උෂ්ණ": 7746,
      "දැම්මොත්": 7747,
      "ආදේශ": 7748,
      "එමෙන්ම": 7749,
      "කමින්": 7750,
      "දයක්": 7751,
      "නළ": 7752,
      "බබෙක්": 7753,
      "බබ්ලූ": 7754,
      "භු": 7755,
      "ලගේ": 7756,
      "වාගේ": 7757,
      "රිද්ද": 7758,
      "රිෂ්": 7759,
      "නිදො": 7760,
      "නාඩ්": 7761,
      "පාටියක්": 7762,
      "තරහින්": 7763,
      "කුම්": 7764,
      "වේල්ල": 7765,
      "ප්‍ර‍": 7766,
      "මිනිත්තුව": 7767,
      "කතාකරනවා": 7768,
      "ටියි": 7769,
      "කෝප්": 7770,
      "ලැප්": 7771,
      "දීම්": 7772,
      "අවුලෙන්": 7773,
      "ana": 7774,
      "පැත්තකින්": 7775,
      "එකේදී": 7776,
      "කාරයට": 7777,
      "හරියන": 7778,
      "පුරුෂ": 7779,
      "රසකැවිලි": 7780,
      "කෘත": 7781,
      "ඇඳේ": 7782,
      "පුවරු": 7783,
      "අංශයේ": 7784,
      "ජෝන්ස්": 7785,
      "තෑගි": 7786,
      "ගානක": 7787,
      "අධ්‍යා": 7788,
      "වෙලත්": 7789,
      "love": 7790,
      "අමුත්තෙක්": 7791,
      "ආඩම්බරයි": 7792,
      "ඇදුමක්": 7793,
      "ලොකු": 7794,
      "‍වේ‍දා‍ල": 7795,
      "විනිසුරු": 7796,
      "මෙක්සිකෝ": 7797,
      "නමෙේ": 7798,
      "කෞතුකා": 7799,
      "ෙකාෙහාමද": 7800,
      "Ok": 7801,
      "Ont": 7802,
      "_H": 7803,
      "ght": 7804,
      "ඕයි": 7805,
      "ඤ්": 7806,
      "වොත්": 7807,
      "ොතින්": 7808,
      "ඔයානම්": 7809,
      "මමී": 7810,
      "කියවන්නෙ": 7811,
      "ලිව": 7812,
      "දැයි": 7813,
      "හිතයි": 7814,
      "කැලි": 7815,
      "හොදක්": 7816,
      "සියම්": 7817,
      "රොඩ්": 7818,
      "රේණු": 7819,
      "සීල්": 7820,
      "ලීන්": 7821,
      "චාන්": 7822,
      "චාරිකා": 7823,
      "මැරුවෙ": 7824,
      "ඩියි": 7825,
      "සූසන්": 7826,
      "උත්තමාව": 7827,
      "ලෝකයම": 7828,
      "හැමදාමත්": 7829,
      "මෙහිදී": 7830,
      "දුර්ලභ": 7831,
      "කොන්ත්‍රා": 7832,
      "සේවාව": 7833,
      "ළමයව": 7834,
      "චෙස්ටර්": 7835,
      "හංගන්න": 7836,
      "ත්‍රස්තවාදියෙක්": 7837,
      "වික්ටෝ": 7838,
      "වකුග": 7839,
      "සෞඛ්‍ය": 7840,
      "35": 7841,
      "bab": 7842,
      "ආන්": 7843,
      "උස්": 7844,
      "උඩු": 7845,
      "ජමින්": 7846,
      "වරා": 7847,
      "ාන": 7848,
      "ඉන්නවනේ": 7849,
      "බලයන්": 7850,
      "සැග": 7851,
      "කෙලව": 7852,
      "තාත්තත්": 7853,
      "ඇතුලෙන්": 7854,
      "ජිප්": 7855,
      "යෙදුම්": 7856,
      "ඒවායේ": 7857,
      "බැහැර": 7858,
      "කාරයකේ": 7859,
      "සින්ග්": 7860,
      "අලුත්ම": 7861,
      "මුහුද": 7862,
      "අවසානයක්": 7863,
      "rec": 7864,
      "මිනිහෙක්ව": 7865,
      "ජෙරී": 7866,
      "ace": 7867,
      "අනාථ": 7868,
      "දර්ශනයක්": 7869,
      "හදවතට": 7870,
      "ස්ටීවන්": 7871,
      "මැරිච්ච": 7872,
      "සිතියමක්": 7873,
      "ඇහුවොත්": 7874,
      "ලුයිස්": 7875,
      "සිනමා": 7876,
      "නැගිටලා": 7877,
      "රසාය": 7878,
      "ෙසායා": 7879,
      "මිතුරන්": 7880,
      "රෙඩින්ටන්": 7881,
      "උදවුවක්": 7882,
      "ලියකියවිලි": 7883,
      "Ontario": 7884,
      "app": 7885,
      "අරා": 7886,
      "ඇරු": 7887,
      "ඒයා": 7888,
      "ඔෙහ": 7889,
      "පන්ද": 7890,
      "බැන": 7891,
      "‍වත්": 7892,
      "රිකන්": 7893,
      "රිද්දන්න": 7894,
      "මටෙ": 7895,
      "නැගලා": 7896,
      "කොක්": 7897,
      "පුස්ත": 7898,
      "කින": 7899,
      "ගෙව": 7900,
      "හෙම": 7901,
      "දාන්නෙ": 7902,
      "තරගයක්": 7903,
      "බලධා": 7904,
      "කටේ": 7905,
      "සැන්ඩර්": 7906,
      "ලැන්": 7907,
      "බොරුව": 7908,
      "රෝගිය": 7909,
      "අතහැර": 7910,
      "වන්දි": 7911,
      "කෙල්ලනේ": 7912,
      "තැපැල්": 7913,
      "මැරුන": 7914,
      "පෙනේ": 7915,
      "රටට": 7916,
      "දක්වන": 7917,
      "තොපි": 7918,
      "හදවතින්": 7919,
      "ඇඳට": 7920,
      "හැසිරෙන්න": 7921,
      "කාර්යාලයේ": 7922,
      "උදාහරණයක්": 7923,
      "Konqueror": 7924,
      ",...": 7925,
      "27": 7926,
      "Col": 7927,
      "GP": 7928,
      "Le": 7929,
      "tle": 7930,
      "text": 7931,
      "නහ": 7932,
      "ඵ්": 7933,
      "මවා": 7934,
      "සෛ": 7935,
      "ාක්": 7936,
      "න්වා": 7937,
      "වාන": 7938,
      "ස්පයි": 7939,
      "නිස්": 7940,
      "ඒකක": 7941,
      "ත්තා": 7942,
      "නෑනා": 7943,
      "මොකට": 7944,
      "බලපත්‍ර": 7945,
      "වලත්": 7946,
      "කැල": 7947,
      "ගොන්": 7948,
      "නොදන්න": 7949,
      "සහයකයා": 7950,
      "කෝඩ්": 7951,
      "තාත්තාව": 7952,
      "වියන්": 7953,
      "චිප්": 7954,
      "කොල්ලව": 7955,
      "වැඩිම": 7956,
      "එළියෙ": 7957,
      "str": 7958,
      "දේශපාල": 7959,
      "දක්වනවා": 7960,
      "කූඩු": 7961,
      "තොට": 7962,
      "මීටර": 7963,
      "කාටවත්ම": 7964,
      "වෙළද": 7965,
      "තාක්ෂණික": 7966,
      "ඩියුක්": 7967,
      "සළකුණු": 7968,
      "status": 7969,
      "විද්‍යුත්": 7970,
      "Be": 7971,
      "OR": 7972,
      "og": 7973,
      "russia": 7974,
      "way": 7975,
      "ඇස": 7976,
      "ඇරෝ": 7977,
      "උදුර": 7978,
      "උසයි": 7979,
      "ඌරු": 7980,
      "බහා": 7981,
      "යුව": 7982,
      "යවලා": 7983,
      "ලන": 7984,
      "සජීවී": 7985,
      "ෙතා": 7986,
      "යාඥා": 7987,
      "කරමුද": 7988,
      "මාංචු": 7989,
      "තරුවක්": 7990,
      "සාර්": 7991,
      "ප්‍රමුඛ": 7992,
      "එක්කයි": 7993,
      "අපෙ": 7994,
      "නොකරන": 7995,
      "මෙහෙමයි": 7996,
      "රොව්": 7997,
      "රොජර්": 7998,
      "රියි": 7999,
      "සංජේ": 8000,
      "සීනුව": 8001,
      "අල්ලන": 8002,
      "පන්තිය": 8003,
      "කඩලා": 8004,
      "ළඟා": 8005,
      "සූදානමින්": 8006,
      "කෙනකේට": 8007,
      "රණශූ": 8008,
      "දෙනෙක්ව": 8009,
      "තලයක්": 8010,
      "ජෙනරාල්": 8011,
      "මධ්‍යස්ථානය": 8012,
      "ජිවිතයක්": 8013,
      "එකඟයි": 8014,
      "රථය": 8015,
      "ෂර්ට්": 8016,
      "විලවුන්": 8017,
      "උපන්දිනයක්": 8018,
      "වර්තමාන": 8019,
      "ශැනොන්": 8020,
      "චෑන්ග්": 8021,
      "ඇබ්බැහි": 8022,
      "උත්තමාවිය": 8023,
      "russia_": 8024,
      "Nor": 8025,
      "Se": 8026,
      "_A": 8027,
      "ww": 8028,
      "ඉස": 8029,
      "සවා": 8030,
      "ෙව්": 8031,
      "යානයට": 8032,
      "කරෙ": 8033,
      "නිවු": 8034,
      "කුතු": 8035,
      "පැටියා": 8036,
      "මැරී": 8037,
      "ලේකම්": 8038,
      "අහසේ": 8039,
      "සියෙන්": 8040,
      "ලයො": 8041,
      "චාලට්": 8042,
      "වෙනස්කම්": 8043,
      "ඉදන්ද": 8044,
      "දිගට": 8045,
      "දයකේ": 8046,
      "අඩියක්": 8047,
      "පොලිස්කාරයෙක්": 8048,
      "form": 8049,
      "උස්සගෙන": 8050,
      "දඩයක්": 8051,
      "මැරෙන්නේ": 8052,
      "වටේට": 8053,
      "කලිසම": 8054,
      "කලිනුත්": 8055,
      "මොහොතකට": 8056,
      "සාධාරණයි": 8057,
      "බේර": 8058,
      "ජේකබ්": 8059,
      "ඤ්ඤ": 8060,
      "120": 8061,
      "des": 8062,
      "ආධු": 8063,
      "ඇල්ලුවා": 8064,
      "ඊළග": 8065,
      "කදිම": 8066,
      "බද්ධ": 8067,
      "මධු": 8068,
      "වගෙන": 8069,
      "සවු": 8070,
      "ැතුව": 8071,
      "ීන": 8072,
      "යාන්": 8073,
      "කියවෙන්නෙ": 8074,
      "හැරිස්": 8075,
      "හෙළි": 8076,
      "මුගේ": 8077,
      "ටිස්": 8078,
      "තරමෙ": 8079,
      "කුගේ": 8080,
      "එක්කං": 8081,
      "සැල්": 8082,
      "ඇතිවෙන්න": 8083,
      "ලැරී": 8084,
      "නියමුවා": 8085,
      "අහපන්": 8086,
      "හොයාගන්නේ": 8087,
      "සම්මත": 8088,
      "පූරණය": 8089,
      "හරියන්නෙ": 8090,
      "කිව්වනෙ": 8091,
      "සොයාගන්න": 8092,
      "ලෝකෙම": 8093,
      "ආවරණයක්": 8094,
      "දුර්වලයි": 8095,
      "නිවසේ": 8096,
      "මේන්තු": 8097,
      "oss": 8098,
      "ගෘහ": 8099,
      "සමරන්න": 8100,
      "අවදානම": 8101,
      "ඡායාරූප": 8102,
      "කමාන්ඩර්": 8103,
      "හුගාක්": 8104,
      "අවා": 8105,
      "දකු": 8106,
      "පෑන්": 8107,
      "ශන්": 8108,
      "සමි": 8109,
      "සබඳ": 8110,
      "හමාර": 8111,
      "විදේශ": 8112,
      "කොපමණ": 8113,
      "දිවු": 8114,
      "ක්කෝ": 8115,
      "යන්නම": 8116,
      "සුලු": 8117,
      "පැයි": 8118,
      "මැඩ": 8119,
      "දෙන්නකෝ": 8120,
      "ච්ච්": 8121,
      "රයෝ": 8122,
      "යටට": 8123,
      "බොන්නේ": 8124,
      "බොම්බ": 8125,
      "ආදරවන්": 8126,
      "ගහන්නෙ": 8127,
      "සමහරවෙලාවට": 8128,
      "කාර්තික්": 8129,
      "අවශ්‍යද": 8130,
      "පිළිවෙ": 8131,
      "ලබාදෙන්න": 8132,
      "මුහුන": 8133,
      "ගමනා": 8134,
      "රටක": 8135,
      "වොෂි": 8136,
      "ඇදල": 8137,
      "ජයග්‍රාහ": 8138,
      "පැමිණෙන්න": 8139,
      "කිවුවොත්": 8140,
      "ight": 8141,
      "කට්ටියට": 8142,
      "සහයෝගය": 8143,
      "ඔයිට": 8144,
      "අත්දැකීම්": 8145,
      "ස්නායු": 8146,
      "_P": 8147,
      "sen": 8148,
      "නඟ": 8149,
      "යල්": 8150,
      "ක්ලයො": 8151,
      "නෙල්": 8152,
      "දායකයා": 8153,
      "ට්ටුයි": 8154,
      "ද්දට": 8155,
      "එහෙමම": 8156,
      "නොවි": 8157,
      "සහජ": 8158,
      "බිට්": 8159,
      "යුතුව": 8160,
      "නැතිද": 8161,
      "කේතනය": 8162,
      "සියේ": 8163,
      "ලියන්": 8164,
      "ධාරක": 8165,
      "ආදරයෙන්": 8166,
      "සීයක්": 8167,
      "හදනව": 8168,
      "ory": 8169,
      "කොච්චරක්": 8170,
      "හමුවක්": 8171,
      "රන්ස්": 8172,
      "විදිහක": 8173,
      "ළමයට": 8174,
      "ජෙනි": 8175,
      "ett": 8176,
      "about": 8177,
      "පුවරුව": 8178,
      "ඉවසි": 8179,
      "පැටවුන්": 8180,
      "ඇවිදිනවා": 8181,
      "ෙකාෙහද": 8182,
      "ඔබලාට": 8183,
      "හමුවෙන්නම්": 8184,
      "කසාදේ": 8185,
      "කරුවෝ": 8186,
      "වෘත්තිය": 8187,
      "ඉදිරියෙන්": 8188,
      "ස්පර්ශ": 8189,
      "ගොනුවක්": 8190,
      "class": 8191,
      "බේස්බෝල්": 8192,
      "වික්ටෝරියා": 8193,
      "අක්": 8194,
      "ඇමී": 8195,
      "එපැයි": 8196,
      "ඔබල": 8197,
      "පටෝ": 8198,
      "බම්බ": 8199,
      "බන්ද": 8200,
      "යනය": 8201,
      "රුවක්": 8202,
      "හලේ": 8203,
      "ලාට": 8204,
      "මමනම්": 8205,
      "විඳි": 8206,
      "තියයි": 8207,
      "කොටම": 8208,
      "පුන": 8209,
      "මෙෙහ": 8210,
      "හෙව්වා": 8211,
      "මුලා": 8212,
      "ලිස්ස": 8213,
      "ගිල්ල": 8214,
      "පොල්": 8215,
      "අරගනෙ": 8216,
      "නොද": 8217,
      "දැනෙයි": 8218,
      "බාද්": 8219,
      "අතහැරලා": 8220,
      "දාන්නද": 8221,
      "යින්ගේ": 8222,
      "පිරිස": 8223,
      "මෙහේට": 8224,
      "ප්‍රතිඵ": 8225,
      "මියු": 8226,
      "ශික්": 8227,
      "පහරක්": 8228,
      "ඇදන්": 8229,
      "අහුවෙලා": 8230,
      "තුවාලයක්": 8231,
      "ශ්‍රී": 8232,
      "තැන්පත්": 8233,
      "ලියාපදිංචි": 8234,
      "නිලධාරි": 8235,
      "පිස්සෙක්": 8236,
      "ස්ටීෆන්": 8237,
      "දරුණුයි": 8238,
      "පුළුවන්නම්": 8239,
      "අවධානයෙන්": 8240,
      "ටේප්": 8241,
      "සිතියම": 8242,
      "ජස්මින්": 8243,
      "මොකාද": 8244,
      "ජාවාරම්": 8245,
      "_S": 8246,
      "lic": 8247,
      "son": 8248,
      "ඇරියා": 8249,
      "කඹ": 8250,
      "ටවුන්": 8251,
      "මේස": 8252,
      "තිබිල": 8253,
      "නැන්ද": 8254,
      "මොස්": 8255,
      "දෙයයි": 8256,
      "මිස්ට": 8257,
      "බලනවද": 8258,
      "කැම්": 8259,
      "කැසී": 8260,
      "අරූ": 8261,
      "බාන්න": 8262,
      "ලෝහ": 8263,
      "සමගින්": 8264,
      "රෙව්වා": 8265,
      "ගහනව": 8266,
      "ආරක්ෂාවක්": 8267,
      "කෙනාගේ": 8268,
      "මොනවටද": 8269,
      "සැලසුමක්": 8270,
      "ජීවිතේම": 8271,
      "හතරයි": 8272,
      "‍ව‍": 8273,
      "මිනීමරුව": 8274,
      "ඩෝරි": 8275,
      "හොයල": 8276,
      "මොළේ": 8277,
      "සාම්පල": 8278,
      "නිව්යෝර්ක්": 8279,
      "වරෙළ": 8280,
      "විරෝධී": 8281,
      "ඇන්ජලීස්": 8282,
      "සැහැල්ල": 8283,
      "ක්‍රමලේඛය": 8284,
      "හැඳුනුම්": 8285,
      "subjects": 8286,
      "Sha": 8287,
      "cam": 8288,
      "අසල": 8289,
      "එවනවා": 8290,
      "එවලා": 8291,
      "ඕව": 8292,
      "ගමෙ": 8293,
      "ඝණ": 8294,
      "දසුන": 8295,
      "ළමා": 8296,
      "‍ලු": 8297,
      "‍ගන්": 8298,
      "විකට": 8299,
      "මාසේ": 8300,
      "නාඩි": 8301,
      "ලිකවම": 8302,
      "දානය": 8303,
      "හාව": 8304,
      "සුවිශේෂ": 8305,
      "මංගල": 8306,
      "හරක්": 8307,
      "inmenu": 8308,
      "දෙනකේ": 8309,
      "ලියේ": 8310,
      "බෙදාගන්න": 8311,
      "මීන්": 8312,
      "මෝටර්": 8313,
      "තීරුව": 8314,
      "තැටිය": 8315,
      "සම්බන්ධතාවය": 8316,
      "කාලකන්න": 8317,
      "මාර්ථ": 8318,
      "ඉඩම්": 8319,
      "කූල": 8320,
      "බ්‍රෙ": 8321,
      "විද්‍යාඥයෙක්": 8322,
      "මාසයක්": 8323,
      "භූම": 8324,
      "වගෝද": 8325,
      "රයිලි": 8326,
      "ඇවිදින": 8327,
      "සේවකයෙක්": 8328,
      "අර්ල්": 8329,
      "සිටියේ": 8330,
      "ව්‍යාපාරයක්": 8331,
      "චුට්ටක්": 8332,
      "විසඳන්න": 8333,
      "කේන්ති": 8334,
      "_BAR": 8335,
      "පරාජිතයෙක්": 8336,
      "waters": 8337,
      "විසන්ධි": 8338,
      "ස්පයිඩර්": 8339,
      "Car": 8340,
      "Hel": 8341,
      "ආසාද": 8342,
      "ඇලන්": 8343,
      "ඊස්ටර්": 8344,
      "නඩුවක්": 8345,
      "යථා": 8346,
      "ශශී": 8347,
      "ෂින්": 8348,
      "හසුර": 8349,
      "වෙස්ට්": 8350,
      "ගේන්නම්": 8351,
      "මේවට": 8352,
      "හැක්ක": 8353,
      "නැන්දා": 8354,
      "වේගෙන": 8355,
      "මැක්සි": 8356,
      "රීඩ්": 8357,
      "කතාකලා": 8358,
      "නුවෙක්": 8359,
      "ලුවිස්": 8360,
      "ලියපු": 8361,
      "කාරණයක්": 8362,
      "වෙනුවෙන්ද": 8363,
      "කාරයන්ට": 8364,
      "කරපුවා": 8365,
      "ඩොක්ට": 8366,
      "එතනදි": 8367,
      "නෙමේද": 8368,
      "තාවයට": 8369,
      "අඩංගු": 8370,
      "වෛදය": 8371,
      "නගරයෙන්": 8372,
      "aine": 8373,
      "have": 8374,
      "ප්‍රදේශයේ": 8375,
      "සැපයුම්": 8376,
      "ඉතිහාසයේ": 8377,
      "අවදානමක්": 8378,
      "Lo": 8379,
      "අලි": 8380,
      "අවාසනාවට": 8381,
      "උතුම්": 8382,
      "තලේ": 8383,
      "දනෙ": 8384,
      "යහ්හ්": 8385,
      "පිපුරු": 8386,
      "මටවත්": 8387,
      "ර්ට්": 8388,
      "නාග": 8389,
      "කිල්": 8390,
      "සිරි": 8391,
      "හරිනවා": 8392,
      "වේඩ්": 8393,
      "ට්ටම": 8394,
      "ප්‍රබල": 8395,
      "රාකේ": 8396,
      "අරෙ": 8397,
      "ඇතිද": 8398,
      "නියම්": 8399,
      "ලෝරි": 8400,
      "අහනව": 8401,
      "ගාලා": 8402,
      "ink": 8403,
      "අවුස්ස": 8404,
      "කම්ප": 8405,
      "උදව්වට": 8406,
      "සංවේදී": 8407,
      "err": 8408,
      "රෝක්": 8409,
      "කැමතිනම්": 8410,
      "රාජකාරි": 8411,
      "දකින්නෙ": 8412,
      "වුණාට": 8413,
      "ලයිසන්": 8414,
      "මරන්නද": 8415,
      "යොදව": 8416,
      "මුළුමනින්ම": 8417,
      "තිබිය": 8418,
      "ඒවගෙන්": 8419,
      "විදියකට": 8420,
      "විනෝදයක්": 8421,
      "චෝටා": 8422,
      "‍එ‍පා": 8423,
      "cH00": 8424,
      "අතාරිනවා": 8425,
      "මෘග": 8426,
      "ලියුමක්": 8427,
      "බැලුවෙ": 8428,
      "දුෂ්කර": 8429,
      "එල්ලිලා": 8430,
      "Bl": 8431,
      "My": 8432,
      "no": 8433,
      "ආත": 8434,
      "එව්වෙ": 8435,
      "කපු": 8436,
      "පතු": 8437,
      "පලේ": 8438,
      "බලි": 8439,
      "බදා": 8440,
      "කරහන්": 8441,
      "ලාගේ": 8442,
      "ස්කා": 8443,
      "හැප්පු": 8444,
      "දිශා": 8445,
      "ලිකා": 8446,
      "පාවා": 8447,
      "ප්‍රයි": 8448,
      "ගොදුර": 8449,
      "තේමා": 8450,
      "ඔවුන්ගෙන්": 8451,
      "පේ": 8452,
      "සියන්": 8453,
      "හොයාගමු": 8454,
      "අම්මත්": 8455,
      "කම්මැලි": 8456,
      "සංවිධානය": 8457,
      "මතකයක්": 8458,
      "ජාලය": 8459,
      "මියගිය": 8460,
      "අයිතිකාරයා": 8461,
      "මරණයේ": 8462,
      "පදනම්": 8463,
      "ලමයා": 8464,
      "ආරම්භයක්": 8465,
      "ඹුරු": 8466,
      "වර්ගයා": 8467,
      "ආකාරයට": 8468,
      "මැදිරිය": 8469,
      "කලෙින්": 8470,
      "සහතිකයි": 8471,
      "යාවත්කාලීන": 8472,
      "උතුරට": 8473,
      "ජනතාවට": 8474,
      "EOL": 8475,
      "MI": 8476,
      "ner": 8477,
      "අක්ෂ": 8478,
      "ආපස්සට": 8479,
      "ඉන්ද": 8480,
      "උයන්න": 8481,
      "තට්ටුව": 8482,
      "නගන්න": 8483,
      "පියක්": 8484,
      "වෑ": 8485,
      "වනා": 8486,
      "සනක්": 8487,
      "න්දෙ": 8488,
      "වෙළු": 8489,
      "විපා": 8490,
      "හොයනව": 8491,
      "කරන්නට": 8492,
      "ලිසී": 8493,
      "නම්මා": 8494,
      "කුමන්ත්‍ර": 8495,
      "ගිල්": 8496,
      "එන්නයි": 8497,
      "තියෙද්දි": 8498,
      "වන්නම්": 8499,
      "ණාත්මක": 8500,
      "බෑනා": 8501,
      "ඔයගේ": 8502,
      "වියට්": 8503,
      "ආරක්‍ෂ": 8504,
      "සන්තෝ": 8505,
      "සංවේද": 8506,
      "උනානම්": 8507,
      "ස්ටෝන්": 8508,
      "දියන්": 8509,
      "මුහුදට": 8510,
      "විශේෂයෙන්": 8511,
      "සාමාන්‍යයි": 8512,
      "තමන්ට": 8513,
      "වෝව්": 8514,
      "කුරුමි": 8515,
      "ශ්‍රෙක්": 8516,
      "ලබන්න": 8517,
      "වැඩසටහනක්": 8518,
      "ස්කෝෆීල්ඩ්": 8519,
      "ize": 8520,
      "චෞද්රි": 8521,
      "හැමේම": 8522,
      "waters_": 8523,
      "Go": 8524,
      "kde": 8525,
      "sc": 8526,
      "want": 8527,
      "අබ්": 8528,
      "ඉගන": 8529,
      "එතරම්": 8530,
      "කඩු": 8531,
      "ටවු": 8532,
      "රන": 8533,
      "‍සි": 8534,
      "ක්ලි": 8535,
      "හැදෙන්න": 8536,
      "ර්කි": 8537,
      "තාප්": 8538,
      "හෙණ": 8539,
      "පොප්": 8540,
      "නොකියා": 8541,
      "බාබා": 8542,
      "කොටසේ": 8543,
      "ටිකෙන්": 8544,
      "එයාටත්": 8545,
      "ගැටු": 8546,
      "අයිතම": 8547,
      "නමය": 8548,
      "ගහක්": 8549,
      "මෙයාලට": 8550,
      "අත්හදා": 8551,
      "හම්බවුනේ": 8552,
      "සොරි": 8553,
      "මියගියා": 8554,
      "බ්‍රා": 8555,
      "දොස්": 8556,
      "වූවා": 8557,
      "මැරෙන්නයි": 8558,
      "උස්සලා": 8559,
      "සටහනක්": 8560,
      "මායාවක්": 8561,
      "සහායක": 8562,
      "ලබනවා": 8563,
      "ලුහුබඳි": 8564,
      "දුකක්": 8565,
      "කුරුල්ලෙක්": 8566,
      "ගුහාව": 8567,
      "\\\\\\\\": 8568,
      "සුරැකීම": 8569,
      "රාජධානිය": 8570,
      "සුරංගනා": 8571,
      "And": 8572,
      "Pr": 8573,
      "ආවත්": 8574,
      "ඇතුව": 8575,
      "රසයි": 8576,
      "ෙද": 8577,
      "ෙහි": 8578,
      "ඔයානේ": 8579,
      "වෙමි": 8580,
      "මේදී": 8581,
      "මේසන්": 8582,
      "තිරණය": 8583,
      "නාඩෝ": 8584,
      "කොකා": 8585,
      "තුමන්": 8586,
      "දිනුවා": 8587,
      "ෙන්ට්": 8588,
      "තරමටම": 8589,
      "සාප්පු": 8590,
      "සුරාජ්": 8591,
      "පැමිනි": 8592,
      "හරස්": 8593,
      "කතාවට": 8594,
      "ඇතිනේ": 8595,
      "අහන්": 8596,
      "පාරටම": 8597,
      "කලෙක්ටර්": 8598,
      "වර්ටන්": 8599,
      "චිත්‍රය": 8600,
      "වයිද": 8601,
      "කෙල්ලෙ": 8602,
      "දියණිය": 8603,
      "ලැබුනොත්": 8604,
      "පියවරක්": 8605,
      "‍‍ම": 8606,
      "දහයයි": 8607,
      "පරීක්ෂකයෙක්": 8608,
      "මරන්නයි": 8609,
      "ජනකයි": 8610,
      "iss": 8611,
      "ටෝබෝ": 8612,
      "මඟුල්": 8613,
      "තනිකඩ": 8614,
      "cher": 8615,
      "පෙනුමක්": 8616,
      "අටක්": 8617,
      "වැසියන්": 8618,
      "දායික": 8619,
      "This": 8620,
      "රඟපෑ": 8621,
      "ව්‍යාපාරය": 8622,
      "පියාඹන්න": 8623,
      "මිනීමරුවෙක්": 8624,
      "මහන්සියි": 8625,
      "ක්ලේයර්": 8626,
      "ප්‍රචණ්ඩ": 8627,
      "කැට්නස්": 8628,
      "\"'": 8629,
      "(%": 8630,
      "pa": 8631,
      "tic": 8632,
      "ආයෝ": 8633,
      "ඇතැ": 8634,
      "ඊජිප්": 8635,
      "උගෙ": 8636,
      "ඥාව": 8637,
      "ටයර්": 8638,
      "වංච": 8639,
      "සභි": 8640,
      "වෙකුට": 8641,
      "විඳින්න": 8642,
      "කියවන": 8643,
      "නැග": 8644,
      "ගෙවන": 8645,
      "මොකෙක්ද": 8646,
      "දාවි": 8647,
      "ප්‍රවේ": 8648,
      "රාස්": 8649,
      "මැලේ": 8650,
      "කෝවි": 8651,
      "ළුවෙක්": 8652,
      "මෙහෙදි": 8653,
      "ක්‍රො": 8654,
      "වටෙන්": 8655,
      "කලාප": 8656,
      "රැවටි": 8657,
      "ගුටි": 8658,
      "සන්ට්": 8659,
      "ery": 8660,
      "ones": 8661,
      "චාරයක්": 8662,
      "ඔයාලගෙන්": 8663,
      "දොරක්": 8664,
      "මුහුණු": 8665,
      "ට්‍රා": 8666,
      "කාලෙම": 8667,
      "tool": 8668,
      "පියාණ": 8669,
      "ඇරලවන්න": 8670,
      "දැනුම": 8671,
      "අනතුරක": 8672,
      "ආරක්ෂකයින්": 8673,
      "බෝම්බෙ": 8674,
      "නිලධාරීන්": 8675,
      "ක්ශේ": 8676,
      "කාර්යය": 8677,
      "බැලුවම": 8678,
      "විනිශ්චය": 8679,
      "පසුම්බිය": 8680,
      "ක්ලයොර්": 8681,
      "Man": 8682,
      "Sa": 8683,
      "ආවහම": 8684,
      "ඇඩ්": 8685,
      "ඇහැර": 8686,
      "ඔහ": 8687,
      "ධනා": 8688,
      "මරි": 8689,
      "වපන්": 8690,
      "ෂුවර්": 8691,
      "‍ජි": 8692,
      "ස්වර": 8693,
      "මොක්කද": 8694,
      "කොම": 8695,
      "රුම": 8696,
      "සිස්කෝ": 8697,
      "පාන": 8698,
      "පාඩම්": 8699,
      "හරිනම්": 8700,
      "දේවල": 8701,
      "සුමට": 8702,
      "වැඩකරනවා": 8703,
      "වැඩකරන්නේ": 8704,
      "රායි": 8705,
      "පැණි": 8706,
      "කටහඬ": 8707,
      "දෙන්නවම": 8708,
      "අපියි": 8709,
      "නොව": 8710,
      "මන්ස්": 8711,
      "වාසිය": 8712,
      "තැනකම": 8713,
      "ගුණය": 8714,
      "කරනකම්": 8715,
      "ඇතුලු": 8716,
      "රේන්": 8717,
      "රේඩ්": 8718,
      "මිනිස්සුන්ගෙ": 8719,
      "තිබුනොත්": 8720,
      "ලීසෙල්": 8721,
      "සතුරා": 8722,
      "යන්ගේ": 8723,
      "පත්ති": 8724,
      "පත්වෙලා": 8725,
      "පටන්ගමු": 8726,
      "මූට": 8727,
      "වෙඩිතියන්න": 8728,
      "සලකුණ": 8729,
      "සහෝදරය": 8730,
      "ඉල්ලන": 8731,
      "අඩන්න": 8732,
      "ළමයෝ": 8733,
      "‍ම‍ගේ": 8734,
      "පැටියෙක්": 8735,
      "ඉහලින්": 8736,
      "ඇලඩීන්": 8737,
      "කොයිතරම්": 8738,
      "නීතිඥ": 8739,
      "ස්වාන්": 8740,
      "සුදුසුයි": 8741,
      "අනිවාර්යයෙන්": 8742,
      "එහමයි": 8743,
      "බලනකොට": 8744,
      "බේරාගන්න": 8745,
      "රවුමක්": 8746,
      "සන්නිවේදනය": 8747,
      "සිතුවිලි": 8748,
      "දීප්තිමත්": 8749,
      "වලෙේම": 8750,
      "සම්භන්ද": 8751,
      "තිබෙන්නේ": 8752,
      "සෙවනැ": 8753,
      "සෙනසුරාදා": 8754,
      "ෆෙඩරල්": 8755,
      "==": 8756,
      "So": 8757,
      "ue": 8758,
      "ඇහෙන්න": 8759,
      "ඒගොල්ලො": 8760,
      "ඔනි": 8761,
      "නත": 8762,
      "පලක්": 8763,
      "රච": 8764,
      "සහො": 8765,
      "සබෙත්": 8766,
      "ක්ව": 8767,
      "මේකි": 8768,
      "මොවුන්": 8769,
      "රුත්": 8770,
      "පැද": 8771,
      "කටහඩ": 8772,
      "බැන්දා": 8773,
      "උඹගේ": 8774,
      "යුද": 8775,
      "ම්බර": 8776,
      "සෙබල": 8777,
      "සෙවුම්": 8778,
      "අයගෙ": 8779,
      "සමාෙවන්න": 8780,
      "අම්මෙ": 8781,
      "ani": 8782,
      "මීයෙක්": 8783,
      "මෙයාලව": 8784,
      "ස්ටැ": 8785,
      "බයගුල්ල": 8786,
      "කරගන්නම්": 8787,
      "කෙනාම": 8788,
      "වෙනිදා": 8789,
      "ප්‍රතිපත්ත": 8790,
      "ඕකෙන්": 8791,
      "මුදලක්": 8792,
      "සැකකරු": 8793,
      "වචනෙ": 8794,
      "ප්‍රේම": 8795,
      "වෛද්‍යවරයෙක්": 8796,
      "මූණට": 8797,
      "197": 8798,
      "සහිතව": 8799,
      "උපාංග": 8800,
      "වටිනාකමක්": 8801,
      "ලැයිස්තුවේ": 8802,
      "සීමාවක්": 8803,
      "විධිය": 8804,
      "පූජක": 8805,
      "පේනවනේ": 8806,
      "සොල්දාදුව": 8807,
      "අකමැතියි": 8808,
      "26": 8809,
      "400": 8810,
      "ආම්": 8811,
      "ඕවර්": 8812,
      "කත": 8813,
      "ඩයක්": 8814,
      "පණය": 8815,
      "බයක්": 8816,
      "මහේ": 8817,
      "මගී": 8818,
      "වයේ": 8819,
      "සඳු": 8820,
      "‍ඩ": 8821,
      "ක්ලො": 8822,
      "මේසේ": 8823,
      "නැවුම්": 8824,
      "මොට්ට": 8825,
      "කොපි": 8826,
      "කරන්නවත්": 8827,
      "ට්ලි": 8828,
      "හිතෙනව": 8829,
      "කැරැ": 8830,
      "අරය": 8831,
      "අරයා": 8832,
      "කතාබහ": 8833,
      "පුළු": 8834,
      "බලන්නද": 8835,
      "පස්සනේ": 8836,
      "ක්‍රෝ": 8837,
      "කලාව": 8838,
      "හොයාගත්තොත්": 8839,
      "‍ය‍ට": 8840,
      "දුවලා": 8841,
      "පහකට": 8842,
      "මෝර්": 8843,
      "වර්දා": 8844,
      "ලැබුනෙ": 8845,
      "අතරට": 8846,
      "වුණාද": 8847,
      "රජයට": 8848,
      "ටොප්": 8849,
      "පරිස්සමට": 8850,
      "අනතුරට": 8851,
      "පුරාවට": 8852,
      "දමනවා": 8853,
      "බයිසි": 8854,
      "පොලීසියෙන්": 8855,
      "‍අ‍පේ": 8856,
      "ශාලාවේ": 8857,
      "ස්ථානගත": 8858,
      "කුරුල්ලො": 8859,
      "what": 8860,
      "ටැංකිය": 8861,
      "පර්යේෂණ": 8862,
      "පිස්තෝ": 8863,
      "කැසිනෝ": 8864,
      "මිනිහෙකුට": 8865,
      "‍ඕ‍නේ": 8866,
      "අප්‍රසන්න": 8867,
      "කඩදාසි": 8868,
      "ආභ": 8869,
      "කපූර්": 8870,
      "හදාගෙන": 8871,
      "‍යක්‍": 8872,
      "කරවන": 8873,
      "හොල්ල": 8874,
      "දෙදෙනා": 8875,
      "කොළුව": 8876,
      "කරන්නා": 8877,
      "තුනට": 8878,
      "දිල": 8879,
      "සුක්කා": 8880,
      "පැසි": 8881,
      "එහෙන්": 8882,
      "කෝන්": 8883,
      "ත්‍යාව": 8884,
      "අපේම": 8885,
      "දන්නවානේ": 8886,
      "සේරටම": 8887,
      "සෙන්න": 8888,
      "නීත්‍යානුකූ": 8889,
      "බේරුනා": 8890,
      "පිටපත": 8891,
      "ඉඳන්ද": 8892,
      "කළාට": 8893,
      "පටන්ගත්තා": 8894,
      "නගරා": 8895,
      "දන්නවනම්": 8896,
      "පර්සි": 8897,
      "හැරල්ඩ්": 8898,
      "eck": 8899,
      "ස්වභාව": 8900,
      "උස්සන්": 8901,
      "ගින්නක්": 8902,
      "මිනිසුන්ව": 8903,
      "ජනාධිපතිතුමා": 8904,
      "පවත්වන්න": 8905,
      "ඩැනී": 8906,
      "ආචාර්යය": 8907,
      "‍තු‍": 8908,
      "පාහරයා": 8909,
      "ලියුම": 8910,
      "තුන්දෙනෙක්": 8911,
      "eroon": 8912,
      "නැඟිටින්න": 8913,
      ",?": 8914,
      "IP": 8915,
      "ආසම": 8916,
      "එවැනි": 8917,
      "ගයේ": 8918,
      "බටර්": 8919,
      "ඹා": 8920,
      "රන්න": 8921,
      "රෙනා": 8922,
      "ීන්": 8923,
      "ම්‍": 8924,
      "ස්මිත්": 8925,
      "ෙනේ": 8926,
      "හිත්": 8927,
      "කිම්": 8928,
      "දුෂ්ඨ": 8929,
      "ද්වි": 8930,
      "සාධ": 8931,
      "ඩ්සන්": 8932,
      "ඩාව": 8933,
      "ප්ලෑ": 8934,
      "බෑනේ": 8935,
      "සමය": 8936,
      "ලෙඩක්": 8937,
      "int": 8938,
      "තැනකින්": 8939,
      "කිසිදා": 8940,
      "බෝංචි": 8941,
      "රෝම": 8942,
      "කරන්නෙත්": 8943,
      "මෝදී": 8944,
      "වෙන්නෙත්": 8945,
      "වහනව": 8946,
      "තියාගත්තා": 8947,
      "outh": 8948,
      "හිටියට": 8949,
      "වැරදිලා": 8950,
      "සෝයී": 8951,
      "පහරදෙන්න": 8952,
      "මිනිහෙක්ට": 8953,
      "නුවෝ": 8954,
      "විද්‍යාත්මක": 8955,
      "දැනුයි": 8956,
      "owl": 8957,
      "විස්තරයක්": 8958,
      "ක්‍රිප්ට": 8959,
      "නංගිට": 8960,
      "ගැහැණිය": 8961,
      "බොහෝවිට": 8962,
      "ඔතනම": 8963,
      "ජූනියර්": 8964,
      "පැමිණීම": 8965,
      "ඩ්‍රා": 8966,
      "depart": 8967,
      "පාදක": 8968,
      "නැවැත්තුවේ": 8969,
      "රැජින": 8970,
      "නාමයෙන්": 8971,
      "මිල්වර්ටන්": 8972,
      "හැගීමක්": 8973,
      "උරුම": 8974,
      "බොරු": 8975,
      "තත්වෙට": 8976,
      "අමාරුවක්": 8977,
      "කළමණාකරු": 8978,
      "රසිකයෙක්": 8979,
      "අග්නි": 8980,
      "_BAR_": 8981,
      "France": 8982,
      "nor": 8983,
      "ආධාර": 8984,
      "ඇවැසි": 8985,
      "ගතේ": 8986,
      "යස්": 8987,
      "∞∞": 8988,
      "න්නයි": 8989,
      "වාර": 8990,
      "වැන්": 8991,
      "නම්‍": 8992,
      "සාර": 8993,
      "ප්‍රවාහනය": 8994,
      "වෙනකං": 8995,
      "බැවින්": 8996,
      "සියෝ": 8997,
      "මහජන": 8998,
      "මත්පැන්": 8999,
      "විදිහෙ": 9000,
      "කීකරු": 9001,
      "රෝගය": 9002,
      "තීරු": 9003,
      "වෙලාවකම": 9004,
      "යුතුද": 9005,
      "පිරිමියෙක්": 9006,
      "පස්සෙත්": 9007,
      "ලඟදී": 9008,
      "කර්ම": 9009,
      "ජීවත්වෙන්න": 9010,
      "දොරටු": 9011,
      "කාලයකට": 9012,
      "ශීලි": 9013,
      "බර්නාඩ්": 9014,
      "ඇමරිකාවේ": 9015,
      "බූරුව": 9016,
      "unit": 9017,
      "දඩය": 9018,
      "පිටුපසින්": 9019,
      "කලිස": 9020,
      "පත්තරේ": 9021,
      "තියනේනේ": 9022,
      "වැලන්ට": 9023,
      "කාන්තාවන්": 9024,
      "හැතැප්": 9025,
      "රැකියාවක්": 9026,
      "කියන්ෙන": 9027,
      "ආක්‍රමණය": 9028,
      "මහත්වරුණි": 9029,
      "පිරුණු": 9030,
      "උපාධිය": 9031,
      "ලොකුවට": 9032,
      "47": 9033,
      "pre": 9034,
      "ං‍‍": 9035,
      "ඇරන්": 9036,
      "එන්ඩර්": 9037,
      "ඕව්": 9038,
      "තටා": 9039,
      "රජ්": 9040,
      "ෙබන්": 9041,
      "‍දි": 9042,
      "ෙනවේ": 9043,
      "ෙනුත්": 9044,
      "රිදවන්න": 9045,
      "ත්තල්": 9046,
      "දෙවනි": 9047,
      "කොලො": 9048,
      "තුකයා": 9049,
      "හුග": 9050,
      "දුග්": 9051,
      "මොකෙක්": 9052,
      "යන්නත්": 9053,
      "අරඹ": 9054,
      "ප්ලෙන්": 9055,
      "ගැස්ම": 9056,
      "අල්ලන්නේ": 9057,
      "අතැ": 9058,
      "නැවතී": 9059,
      "නැවතුම්": 9060,
      "වෙන්නෙපා": 9061,
      "තැටි": 9062,
      "කාලයට": 9063,
      "ක්‍රියාත්මකයි": 9064,
      "ඇහුන්": 9065,
      "ආයෙම": 9066,
      "ඉල්ලීම": 9067,
      "විශේෂයි": 9068,
      "සැකසුම": 9069,
      "‍ම‍ම": 9070,
      "වින්‍යා": 9071,
      "සුරක්ෂි": 9072,
      "විනෝදා": 9073,
      "නිලධාරිය": 9074,
      "‍අ‍යි": 9075,
      "බූරු": 9076,
      "199": 9077,
      "ඇහෙනව": 9078,
      "උතුමාන": 9079,
      "උවමනාවක්": 9080,
      "විස්වාසයි": 9081,
      "නිවාඩුව": 9082,
      "ආරක්ශි": 9083,
      "කාළය": 9084,
      "ත්‍රික්ක": 9085,
      "time": 9086,
      "මන්දිරා": 9087,
      "‍ටි‍යා": 9088,
      "තේරෙනවනේ": 9089,
      "ඉක්මණින්": 9090,
      "ක්‍රියාවලිය": 9091,
      "දිස්ත්‍රික්ක": 9092,
      "කරැණා": 9093,
      "තේරෙන්නෑ": 9094,
      "cription": 9095,
      "කුමාරයා": 9096,
      "‍ඉන්‍‍න": 9097,
      "සෛල": 9098,
      "cameroon": 9099,
      "නගරාධිපති": 9100,
      "departments": 9101,
      "දුග්ගල්": 9102,
      "cameroon_": 9103,
      "911": 9104,
      "An": 9105,
      "cat": 9106,
      "dis": 9107,
      "ංසා": 9108,
      "එඩි": 9109,
      "ගද": 9110,
      "ග්‍ය": 9111,
      "චෙන්න": 9112,
      "තඩි": 9113,
      "සමන්": 9114,
      "ක්වා": 9115,
      "ක්වීන්": 9116,
      "යාර": 9117,
      "කරත්ත": 9118,
      "වින්ඩෝ": 9119,
      "නිහඬ": 9120,
      "එකකේ": 9121,
      "නැවට": 9122,
      "කොමි": 9123,
      "මුනු": 9124,
      "මිලට": 9125,
      "සාන්": 9126,
      "ප්‍රසං": 9127,
      "දන්නැ": 9128,
      "එන්නම": 9129,
      "වරැ": 9130,
      "වටා": 9131,
      "කම්පනය": 9132,
      "ස්ථී": 9133,
      "ගෙදරක්": 9134,
      "මොනම": 9135,
      "ත්මකව": 9136,
      "තත්වේ": 9137,
      "ජාතියෙ": 9138,
      "ඩියස්": 9139,
      "වෙනවනම්": 9140,
      "lec": 9141,
      "යම්කිසි": 9142,
      "ඉඳන්ම": 9143,
      "හදවතක්": 9144,
      "ඇඟේ": 9145,
      "තනිකර": 9146,
      "ඉවතට": 9147,
      "හැඟීම": 9148,
      "හිංසා": 9149,
      "ගබඩාව": 9150,
      "හැදුවොත්": 9151,
      "කාලිකව": 9152,
      "නත්තල්": 9153,
      "obb": 9154,
      "ජෙනිෆර්": 9155,
      "dom": 9156,
      "ඇද්ද": 9157,
      "ඒවත්": 9158,
      "ට්‍": 9159,
      "ණෙ": 9160,
      "පණ්ඩි": 9161,
      "බබාව": 9162,
      "වස්": 9163,
      "‍පැ": 9164,
      "‍ටුයි": 9165,
      "ක්ලින්": 9166,
      "ස්කො": 9167,
      "වින්ද": 9168,
      "විහින්": 9169,
      "එයාද": 9170,
      "තියපු": 9171,
      "තුනේ": 9172,
      "ගෙවලා": 9173,
      "දුකින්": 9174,
      "දැනේ": 9175,
      "කැට": 9176,
      "කැරන්": 9177,
      "අවදානම්": 9178,
      "ඩ්මන්": 9179,
      "මරන්නෙ": 9180,
      "වයසේ": 9181,
      "උදව්කරන්න": 9182,
      "ගියහම": 9183,
      "තිබුනත්": 9184,
      "සීමක්": 9185,
      "සීයට": 9186,
      "රෝමා": 9187,
      "පැත්තක්": 9188,
      "පිටපතක්": 9189,
      "thing": 9190,
      "දන්නෙත්": 9191,
      "එනකල්": 9192,
      "ශාන්ත": 9193,
      "යොදාගන්න": 9194,
      "lear": 9195,
      "ට්‍රල්": 9196,
      "සුවද": 9197,
      "හයකට": 9198,
      "ද්‍රවය": 9199,
      "ඩෝරියන්": 9200,
      "........": 9201,
      "පද්ධතියක්": 9202,
      "ගෙනාපු": 9203,
      "ආවරණ": 9204,
      "වැටිල": 9205,
      "සුදුසුකම්": 9206,
      "අතිශ": 9207,
      "එමලි": 9208,
      "ඝාතන": 9209,
      "කඳුළු": 9210,
      "රජුගේ": 9211,
      "viet": 9212,
      "lye": 9213,
      "ජේසුනේ": 9214,
      "දුරකතනය": 9215,
      "ශිල්පියෙක්": 9216,
      "අක්කේ": 9217,
      "දැමීම": 9218,
      "දෙමව්පියෝ": 9219,
      "ගොවිපල": 9220,
      "ආකර්ශ": 9221,
      "ප්‍රථම": 9222,
      "‍ක‍රන්‍‍න": 9223,
      "සීතලයි": 9224,
      "‍වත්‍": 9225,
      "64": 9226,
      "Do": 9227,
      "TR": 9228,
      "ip": 9229,
      "ire": 9230,
      "අදිනවා": 9231,
      "අක්‍රිය": 9232,
      "කක්": 9233,
      "දයා": 9234,
      "මනේ": 9235,
      "ලගා": 9236,
      "සටර්": 9237,
      "‍නු": 9238,
      "යින්ට": 9239,
      "පිට්": 9240,
      "පිච්චි": 9241,
      "ල්ව": 9242,
      "නිලා": 9243,
      "මානයක්": 9244,
      "මාළි": 9245,
      "තුරෙ": 9246,
      "දිනුම්": 9247,
      "මිලර්": 9248,
      "දානවද": 9249,
      "ුවන්ට": 9250,
      "වෙලාවයි": 9251,
      "රාත්තල්": 9252,
      "ඕනෙනම්": 9253,
      "කතාකරලා": 9254,
      "නොවූ": 9255,
      "දැනගන්නේ": 9256,
      "බාල්": 9257,
      "ලෝඩ්": 9258,
      "ලටෙ": 9259,
      "ක්‍ෂා": 9260,
      "ගුස්ටෝ": 9261,
      "රියදුරු": 9262,
      "අයිතියි": 9263,
      "සංග්‍රහ": 9264,
      "තිබුනු": 9265,
      "හෝඩුවා": 9266,
      "ෂ්ප": 9267,
      "කරගන්නෙ": 9268,
      "ංගුවේ": 9269,
      "මැරුණේ": 9270,
      "නවත්තපන්": 9271,
      "තමුසෙගේ": 9272,
      "පෙන්නුම්": 9273,
      "අනුමැ": 9274,
      "හමුදාවෙ": 9275,
      "තෙත්": 9276,
      "අනාවැ": 9277,
      "විස්තරය": 9278,
      "මඟුලක්": 9279,
      "15ක්": 9280,
      "ඉලක්කයක්": 9281,
      "පින්තූරය": 9282,
      "මරණයෙන්": 9283,
      "පහසුකම්": 9284,
      "ෙකුගේ": 9285,
      "ලේසියෙන්ම": 9286,
      "දෙමව්පියන්": 9287,
      "නැගිටපන්": 9288,
      "පෘථිවියේ": 9289,
      "සන්නිවේදන": 9290,
      "ඉගැන්නුවා": 9291,
      "පැකේජය": 9292,
      "ඇහුණද": 9293,
      "තොප්පිය": 9294,
      "තක්සේරු": 9295,
      "=\\\\\\\\": 9296,
      "Long": 9297,
      "Ph": 9298,
      "අහා": 9299,
      "උරා": 9300,
      "ඩෑන්": 9301,
      "බත්": 9302,
      "සනා": 9303,
      "හප": 9304,
      "ෙපා": 9305,
      "වාරේ": 9306,
      "ස්කෑන්": 9307,
      "විධි": 9308,
      "කිංග්": 9309,
      "කිසියම්": 9310,
      "මෙහා": 9311,
      "්‍රැ": 9312,
      "දෙන්නකේ": 9313,
      "මිනිහො": 9314,
      "ච්ත්‍ර": 9315,
      "අවජා": 9316,
      "අවනත": 9317,
      "ඇත්තමයි": 9318,
      "කේතයක්": 9319,
      "කයෙන්": 9320,
      "සර්කස්": 9321,
      "මෙතනදි": 9322,
      "නිසාම": 9323,
      "වලටයි": 9324,
      "බේත්": 9325,
      "ජිව": 9326,
      "සීරු": 9327,
      "කාරණේ": 9328,
      "පරිලෝක": 9329,
      "පරද්දන්න": 9330,
      "කාරයේ": 9331,
      "පියු": 9332,
      "ළඟින්": 9333,
      "පසුබිම": 9334,
      "හිතන්නවත්": 9335,
      "කෑමකට": 9336,
      "ලැබෙනව": 9337,
      "පැයකින්": 9338,
      "බ්‍රෑන්ඩ්": 9339,
      "ට්‍රෝ": 9340,
      "ගෙනියන්නේ": 9341,
      "නියෝගයක්": 9342,
      "ජෙර": 9343,
      "තනිවෙලා": 9344,
      "ටැක්": 9345,
      "පුරුදුයි": 9346,
      "cHowl": 9347,
      "මැරිලද": 9348,
      "ආයතන": 9349,
      "තිෙයන": 9350,
      "ස්ටිග්": 9351,
      "මුනගැ": 9352,
      "මෑතක": 9353,
      "බන්ධනා": 9354,
      "මිනීමරුවා": 9355,
      "බෙනට්": 9356,
      "හැමොම": 9357,
      "විස්සක්": 9358,
      "සහොදර": 9359,
      "සුක්කානම": 9360,
      "cHowllye": 9361,
      "AL": 9362,
      "Ad": 9363,
      "MM": 9364,
      "ඈන්": 9365,
      "ඉවස": 9366,
      "ඔට්ටුයි": 9367,
      "ඩෙනි": 9368,
      "බනේ": 9369,
      "ලදී": 9370,
      "න්‍": 9371,
      "කරනය": 9372,
      "මාකස්": 9373,
      "කාගෙන්": 9374,
      "මෙතැනට": 9375,
      "මිරි": 9376,
      "කුන්": 9377,
      "කුසලා": 9378,
      "සුමේ": 9379,
      "කැපිටල්": 9380,
      "බුල්": 9381,
      "ලෝරා": 9382,
      "යුද්ද": 9383,
      "මතයි": 9384,
      "ඉන්නවාද": 9385,
      "කින්ස්": 9386,
      "සංකේත": 9387,
      "කාරණා": 9388,
      "අල්ලගන්නවා": 9389,
      "ගියානම්": 9390,
      "ලීය": 9391,
      "කලයුතු": 9392,
      "නටන": 9393,
      "විශේ": 9394,
      "ජාලයක්": 9395,
      "මෙයින්": 9396,
      "ඩොල්": 9397,
      "සිද්ධියක්": 9398,
      "ජනපදය": 9399,
      "බේරගත්ත": 9400,
      "ඉල්ලුවේ": 9401,
      "මගනේ": 9402,
      "වතුරෙන්": 9403,
      "ගෑනිය": 9404,
      "ඇරඹු": 9405,
      "තිබ්බද": 9406,
      "සිංදු": 9407,
      "පෘතුව": 9408,
      "බල්ලො": 9409,
      "බඩුවක්": 9410,
      "off": 9411,
      "චිත්‍රපටියක්": 9412,
      "ඇන්ටි": 9413,
      "පුවහම": 9414,
      "හුස්මගන්න": 9415,
      "ශබ්ධ": 9416,
      "සෙනෙට්": 9417,
      "රථයක්": 9418,
      "ඩැඩී": 9419,
      "අර්ධ": 9420,
      "ඩැනියෙ": 9421,
      "පිහිටු": 9422,
      "නැවතුනා": 9423,
      "චූටි": 9424,
      "අප්‍රිකාව": 9425,
      "දෙමාපියන්": 9426,
      "වර්‍ගය": 9427,
      "නායකයෙක්": 9428,
      "අසල්වැසිය": 9429,
      "පාපොච්චාරණය": 9430,
      "Shaw": 9431,
      "28": 9432,
      "Dev": 9433,
      "Fis": 9434,
      "pai": 9435,
      "ආඟන්": 9436,
      "එලෙ": 9437,
      "එවපු": 9438,
      "කපල": 9439,
      "ගුව": 9440,
      "දවෙ": 9441,
      "පතිය": 9442,
      "මකා": 9443,
      "ලගෙ": 9444,
      "ෂල්": 9445,
      "රිස්වාන්": 9446,
      "නිවහ": 9447,
      "හැම්": 9448,
      "පුන්": 9449,
      "ලිපිය": 9450,
      "වැන්න": 9451,
      "පානය": 9452,
      "කුකු": 9453,
      "ගෙනයන්න": 9454,
      "පොරක්": 9455,
      "කැස්": 9456,
      "ගොට": 9457,
      "තුවේ": 9458,
      "රොකට්": 9459,
      "සමහරක්": 9460,
      "යෙදුම": 9461,
      "අහන්නම්": 9462,
      "ඩොම්": 9463,
      "පීසා": 9464,
      "එළදෙන": 9465,
      "ප්‍රතිපත්ති": 9466,
      "ඩියන්": 9467,
      "විශේෂිත": 9468,
      "ice": 9469,
      "වෛරස්": 9470,
      "වුනහම": 9471,
      "්‍රික්": 9472,
      "වින්සන්ට්": 9473,
      "ඇරත්": 9474,
      "ගැලවෙන්න": 9475,
      "ගැලපෙන්නේ": 9476,
      "අල්ලාගන්න": 9477,
      "අඩුමගානේ": 9478,
      "ජූනි": 9479,
      "ෆේස්": 9480,
      "40ක්": 9481,
      "බොත්තම්": 9482,
      "රැස්වීම": 9483,
      "ප්‍රොෆෙ": 9484,
      "ආරක්ශාව": 9485,
      "මැරුවොත්": 9486,
      "මල්ලී": 9487,
      "ගෙනිච්ච": 9488,
      "‍මො‍ක": 9489,
      "කළමනාකරු": 9490,
      "වෙහෙස": 9491,
      "වොෂින්ටන්": 9492,
      "‍ගන්‍‍න": 9493,
      "vietnam": 9494,
      "Gr": 9495,
      "ආණ්ඩු": 9496,
      "ඇසු": 9497,
      "කතෘ": 9498,
      "පටු": 9499,
      "යවන්නේ": 9500,
      "වයට": 9501,
      "ශක": 9502,
      "යිනේ": 9503,
      "විප්": 9504,
      "හින": 9505,
      "යක්කු": 9506,
      "දැන්වීම්": 9507,
      "නයක": 9508,
      "නොකරන්න": 9509,
      "බිග්": 9510,
      "අහවර": 9511,
      "ගැති": 9512,
      "ගාස්": 9513,
      "ගාමී": 9514,
      "inc": 9515,
      "වියෙක්": 9516,
      "ආරෝ": 9517,
      "රැවට": 9518,
      "ඇතුළුව": 9519,
      "රේමන්ඩ්": 9520,
      "සංජනා": 9521,
      "erb": 9522,
      "ඔයාලාට": 9523,
      "තීන්ත": 9524,
      "කරලද": 9525,
      "oup": 9526,
      "ලස්සනම": 9527,
      "ප්‍රතිඵල": 9528,
      "ලඟදි": 9529,
      "කාටත්": 9530,
      "සින්ඩි": 9531,
      "කන්නා": 9532,
      "ක්‍රීයයි": 9533,
      "මැරෙනව": 9534,
      "ගුවන්තොටු": 9535,
      "සිංදුව": 9536,
      "ගනිවි": 9537,
      "සිරස්": 9538,
      "හම්බුණා": 9539,
      "නිශ්චිත": 9540,
      "මෙයත්": 9541,
      "ශබ්දය": 9542,
      "අභිරහස්": 9543,
      "ශාලාවට": 9544,
      "හෝටල්": 9545,
      "පොළො": 9546,
      "බැංකුවේ": 9547,
      "සිතියම්": 9548,
      "බිස්කට්": 9549,
      "word": 9550,
      "Short": 9551,
      "Query": 9552,
      "පථය": 9553,
      "රුධිර": 9554,
      "පුදුමාකාර": 9555,
      "ඔටුන්න": 9556,
      "මොස්කව්": 9557,
      "Fischer": 9558,
      "''": 9559,
      "61": 9560,
      "අලං": 9561,
      "අත්‍යාව": 9562,
      "ඇක්": 9563,
      "උද්දී": 9564,
      "එවර්": 9565,
      "ඒක්": 9566,
      "ඒනිසා": 9567,
      "යළි": 9568,
      "රද": 9569,
      "රනවා": 9570,
      "රකින්න": 9571,
      "ලවා": 9572,
      "වමු": 9573,
      "ස්ක්": 9574,
      "ස්පැ": 9575,
      "විත්": 9576,
      "කියහන්": 9577,
      "ෙනමයි": 9578,
      "පිම්": 9579,
      "හැග": 9580,
      "එයාම": 9581,
      "කොමා": 9582,
      "පුටුව": 9583,
      "ගෙව්වා": 9584,
      "සිරාවට": 9585,
      "ඉන්නවට": 9586,
      "බලෝ": 9587,
      "මංගල්": 9588,
      "පැල්ල": 9589,
      "බැස්ස": 9590,
      "බැග්": 9591,
      "කැරක": 9592,
      "මැසේ": 9593,
      "බුහු": 9594,
      "එහෙමනේ": 9595,
      "ඇතිව": 9596,
      "සංචාර": 9597,
      "නින්දා": 9598,
      "පරිසර": 9599,
      "කලකි": 9600,
      "උපකල්ප": 9601,
      "පොඩ්ඩෙන්": 9602,
      "ස්තූතී": 9603,
      "ග්‍රහය": 9604,
      "පෙනි": 9605,
      "මාර්‍": 9606,
      "ශික්‍රේ": 9607,
      "බ්‍රෙන්": 9608,
      "ර්ථය": 9609,
      "පිලිවෙ": 9610,
      "මනුස්සය": 9611,
      "වනෙස්": 9612,
      "‍ත‍ර": 9613,
      "මුරපදය": 9614,
      "ඇහැක්": 9615,
      "ද්දෙන්": 9616,
      "හිතුවොත්": 9617,
      "පද්ධතියට": 9618,
      "ශෝව්": 9619,
      "බැලුවද": 9620,
      "පෞද්ගලිකව": 9621,
      "play": 9622,
      "අතෑර": 9623,
      "විශ්වවිද්‍යා": 9624,
      "ඩිරෙක්ටරි": 9625,
      "රක්ෂණ": 9626,
      "පිහියෙන්": 9627,
      "නීතීඥ": 9628,
      "තප්පරයක්": 9629,
      "රෝගියෙක්": 9630,
      "@}": 9631,
      "Not": 9632,
      "get": 9633,
      "mark": 9634,
      "pu": 9635,
      "ගසා": 9636,
      "ටුවට": 9637,
      "ඩස්": 9638,
      "බයේ": 9639,
      "සභාව": 9640,
      "හදුන": 9641,
      "‍වන්": 9642,
      "ගේට්ටු": 9643,
      "එයාත්": 9644,
      "කොනී": 9645,
      "දිරි": 9646,
      "දිව්වා": 9647,
      "මුත්‍රා": 9648,
      "සිනා": 9649,
      "සින්දුව": 9650,
      "මිහිරි": 9651,
      "හාදු": 9652,
      "යන්නෑ": 9653,
      "බලයෙන්": 9654,
      "බලපං": 9655,
      "පොඩියි": 9656,
      "නයකට": 9657,
      "වලයි": 9658,
      "දරව්": 9659,
      "ඩිංග": 9660,
      "ගත්තත්": 9661,
      "කවුන්සි": 9662,
      "සැහෙන්න": 9663,
      "බ්ලේ": 9664,
      "ගායි": 9665,
      "සෙල": 9666,
      "සෙත්": 9667,
      "මහල්": 9668,
      "තුරකින්": 9669,
      "කාර්ලා": 9670,
      "කලුවර": 9671,
      "දෙවියො": 9672,
      "ශාක": 9673,
      "බොරුකාරයෙක්": 9674,
      "හිතනවාද": 9675,
      "දොරටුව": 9676,
      "ඉල්ලීමක්": 9677,
      "කාවහරි": 9678,
      "ලිපින": 9679,
      "බාරගන්න": 9680,
      "උපන්දින": 9681,
      "search": 9682,
      "අගමැති": 9683,
      "පනපිටින්": 9684,
      "ගෙවන්නම්": 9685,
      "ප්‍රයෝජන": 9686,
      "හිරිහැර": 9687,
      "500ක්": 9688,
      "කදිමයි": 9689,
      "හදිස්සිය": 9690,
      "බලපෑමක්": 9691,
      "නොමැතිව": 9692,
      "color": 9693,
      "විශ්ලේෂ": 9694,
      "රැවුල": 9695,
      "කොතනද": 9696,
      "හැතැප්ම": 9697,
      "CD": 9698,
      "ML": 9699,
      "Mic": 9700,
      "Russia": 9701,
      "ser": 9702,
      "{@}": 9703,
      "අමන්දා": 9704,
      "අෙප්": 9705,
      "ඇවට": 9706,
      "ධ්‍රැ": 9707,
      "පනේ": 9708,
      "වස්තු": 9709,
      "ශතව": 9710,
[...]
