{
  "version": "1.0",
  "truncation": null,
  "padding": null,
  "added_tokens": [
    {
      "id": 0,
      "content": "[PAD]",
      "single_word": false,
      "lstrip": false,
      "rstrip": false,
      "normalized": false,
      "special": true
    },
    {
      "id": 1,
      "content": "[UNK]",
      "single_word": false,
      "lstrip": false,
      "rstrip": false,
      "normalized": false,
      "special": true
    },
    {
      "id": 2,
      "content": "[BOS]",
      "single_word": false,
      "lstrip": false,
      "rstrip": false,
      "normalized": false,
      "special": true
    },
    {
      "id": 3,
      "content": "[EOS]",
      "single_word": false,
      "lstrip": false,
      "rstrip": false,
      "normalized": false,
      "special": true
    }
  ],
  "normalizer": {
    "type": "Sequence",
    "normalizers": [
      {
        "type": "NFKC"
      }
    ]
  },
  "pre_tokenizer": {
    "type": "Metaspace",
    "replacement": "▁",
    "prepend_scheme": "always",
    "split": true
  },
  "post_processor": null,
  "decoder": null,
  "model": {
    "type": "BPE",
    "dropout": null,
    "unk_token": "[UNK]",
    "continuing_subword_prefix": null,
    "end_of_word_suffix": null,
    "fuse_unk": false,
    "byte_fallback": false,
    "ignore_merges": false,
    "vocab": {
      "[PAD]": 0,
      "[UNK]": 1,
      "[BOS]": 2,
      "[EOS]": 3,
      "!": 4,
      "\"": 5,
      "#": 6,
      "$": 7,
      "%": 8,
      "&": 9,
      "'": 10,
      "(": 11,
      ")": 12,
      "*": 13,
      "+": 14,
      ",": 15,
      "-": 16,
      ".": 17,
      "/": 18,
      "0": 19,
      "1": 20,
      "2": 21,
      "3": 22,
      "4": 23,
      "5": 24,
      "6": 25,
      "7": 26,
      "8": 27,
      "9": 28,
      ":": 29,
      ";": 30,
      "<": 31,
      "=": 32,
      ">": 33,
      "?": 34,
      "@": 35,
      "A": 36,
      "B": 37,
      "C": 38,
      "D": 39,
      "E": 40,
      "F": 41,
      "G": 42,
      "H": 43,
      "I": 44,
      "J": 45,
      "K": 46,
      "L": 47,
      "M": 48,
      "N": 49,
      "O": 50,
      "P": 51,
      "Q": 52,
      "R": 53,
      "S": 54,
      "T": 55,
      "U": 56,
      "V": 57,
      "W": 58,
      "X": 59,
      "Y": 60,
      "Z": 61,
      "[": 62,
      "\\": 63,
      "]": 64,
      "^": 65,
      "_": 66,
      "`": 67,
      "a": 68,
      "b": 69,
      "c": 70,
      "d": 71,
      "e": 72,
      "f": 73,
      "g": 74,
      "h": 75,
      "i": 76,
      "j": 77,
      "k": 78,
      "l": 79,
      "m": 80,
      "n": 81,
      "o": 82,
      "p": 83,
      "q": 84,
      "r": 85,
      "s": 86,
      "t": 87,
      "u": 88,
      "v": 89,
      "w": 90,
      "x": 91,
      "y": 92,
      "z": 93,
      "{": 94,
      "}": 95,
      "~": 96,
      "": 97,
      "": 98,
      "": 99,
      "¡": 100,
      "¢": 101,
      "£": 102,
      "¦": 103,
      "©": 104,
      "¬": 105,
      "­": 106,
      "®": 107,
      "°": 108,
      "¶": 109,
      "·": 110,
      "¿": 111,
      "À": 112,
      "Á": 113,
      "Â": 114,
      "Ã": 115,
      "Ä": 116,
      "Å": 117,
      "Æ": 118,
      "Ç": 119,
      "È": 120,
      "É": 121,
      "Ê": 122,
      "Ë": 123,
      "Ì": 124,
      "Í": 125,
      "Î": 126,
      "Ï": 127,
      "Ð": 128,
      "Ñ": 129,
      "Ò": 130,
      "Ó": 131,
      "Ô": 132,
      "Õ": 133,
      "Ö": 134,
      "×": 135,
      "Ø": 136,
      "Ú": 137,
      "Ý": 138,
      "Þ": 139,
      "ß": 140,
      "à": 141,
      "á": 142,
      "â": 143,
      "ã": 144,
      "ä": 145,
      "å": 146,
      "æ": 147,
      "ç": 148,
      "è": 149,
      "é": 150,
      "ê": 151,
      "ë": 152,
      "ì": 153,
      "í": 154,
      "î": 155,
      "ï": 156,
      "ð": 157,
      "ñ": 158,
      "ò": 159,
      "ó": 160,
      "ô": 161,
      "õ": 162,
      "ö": 163,
      "÷": 164,
      "ø": 165,
      "ù": 166,
      "ú": 167,
      "û": 168,
      "ü": 169,
      "ý": 170,
      "þ": 171,
      "ÿ": 172,
      "Ā": 173,
      "ā": 174,
      "ă": 175,
      "Č": 176,
      "č": 177,
      "ē": 178,
      "ė": 179,
      "ę": 180,
      "ě": 181,
      "ğ": 182,
      "ī": 183,
      "ĭ": 184,
      "İ": 185,
      "ı": 186,
      "ļ": 187,
      "Ł": 188,
      "ł": 189,
      "ń": 190,
      "ň": 191,
      "ŏ": 192,
      "ő": 193,
      "Ś": 194,
      "Ş": 195,
      "ş": 196,
      "Š": 197,
      "š": 198,
      "ţ": 199,
      "ū": 200,
      "ŭ": 201,
      "ź": 202,
      "Ž": 203,
      "ž": 204,
      "́": 205,
      "̄": 206,
      "̈": 207,
      "̊": 208,
      "Β": 209,
      "Ε": 210,
      "Ι": 211,
      "Μ": 212,
      "Ν": 213,
      "Τ": 214,
      "Χ": 215,
      "ε": 216,
      "μ": 217,
      "Џ": 218,
      "А": 219,
      "В": 220,
      "Д": 221,
      "К": 222,
      "Л": 223,
      "М": 224,
      "Н": 225,
      "О": 226,
      "П": 227,
      "С": 228,
      "Х": 229,
      "Ч": 230,
      "а": 231,
      "б": 232,
      "в": 233,
      "г": 234,
      "д": 235,
      "е": 236,
      "ж": 237,
      "з": 238,
      "и": 239,
      "к": 240,
      "л": 241,
      "м": 242,
      "н": 243,
      "о": 244,
      "п": 245,
      "р": 246,
      "с": 247,
      "т": 248,
      "у": 249,
      "х": 250,
      "ц": 251,
      "ч": 252,
      "ш": 253,
      "ѕ": 254,
      "і": 255,
      "ј": 256,
      "њ": 257,
      "ћ": 258,
      "ං": 259,
      "අ": 260,
      "ආ": 261,
      "ඇ": 262,
      "ඉ": 263,
      "උ": 264,
      "එ": 265,
      "ඒ": 266,
      "ඔ": 267,
      "ඕ": 268,
      "ක": 269,
      "ග": 270,
      "ඝ": 271,
      "ඟ": 272,
      "ච": 273,
      "ජ": 274,
      "ට": 275,
      "ඩ": 276,
      "ණ": 277,
      "ඬ": 278,
      "ත": 279,
      "ථ": 280,
      "ද": 281,
      "ධ": 282,
      "න": 283,
      "ඳ": 284,
      "ප": 285,
      "බ": 286,
      "භ": 287,
      "ම": 288,
      "ය": 289,
      "ර": 290,
      "ල": 291,
      "ව": 292,
      "ශ": 293,
      "ෂ": 294,
      "ස": 295,
      "හ": 296,
      "ළ": 297,
      "ෆ": 298,
      "්": 299,
      "ා": 300,
      "ැ": 301,
      "ෑ": 302,
      "ි": 303,
      "ී": 304,
      "ු": 305,
      "ූ": 306,
      "ෘ": 307,
      "ෙ": 308,
      "ේ": 309,
      "ො": 310,
      "ෝ": 311,
      "ෞ": 312,
      "​": 313,
      "–": 314,
      "—": 315,
      "‘": 316,
      "’": 317,
      "“": 318,
      "”": 319,
      "‟": 320,
      "•": 321,
      "⁄": 322,
      "€": 323,
      "→": 324,
      "⇒": 325,
      "∆": 326,
      "−": 327,
      "│": 328,
      "▁": 329,
      "☹": 330,
      "☻": 331,
      "♥": 332,
      "♪": 333,
      "♫": 334,
      "眉": 335,
      "碈": 336,
      "羘": 337,
      "醤": 338,
      "韆": 339,
      "鷓": 340,
      "▁t": 341,
      "he": 342,
      "ou": 343,
      "▁a": 344,
      "in": 345,
      "re": 346,
      "▁w": 347,
      "▁s": 348,
      "▁I": 349,
      "ha": 350,
      "on": 351,
      "▁y": 352,
      "▁you": 353,
      "▁m": 354,
      "▁the": 355,
      "is": 356,
      "▁b": 357,
      "er": 358,
      "ll": 359,
      "▁d": 360,
      "ing": 361,
      "it": 362,
      "▁c": 363,
      "▁to": 364,
      "an": 365,
      "▁f": 366,
      "▁g": 367,
      "or": 368,
      "hat": 369,
      "..": 370,
      "ve": 371,
      "▁l": 372,
      "en": 373,
      "▁W": 374,
      "▁n": 375,
      "'s": 376,
      "ow": 377,
      "▁T": 378,
      "▁-": 379,
      "ed": 380,
      "▁p": 381,
      "om": 382,
      "▁o": 383,
      "es": 384,
      "nd": 385,
      "ot": 386,
      "et": 387,
      "▁he": 388,
      "ar": 389,
      "e.": 390,
      "st": 391,
      "▁Y": 392,
      "at": 393,
      "▁th": 394,
      "▁h": 395,
      "ay": 396,
      "▁S": 397,
      "▁ha": 398,
      "▁in": 399,
      "▁it": 400,
      "▁of": 401,
      "'t": 402,
      "▁H": 403,
      "▁A": 404,
      "as": 405,
      "▁be": 406,
      "▁You": 407,
      "▁is": 408,
      "▁on": 409,
      "le": 410,
      "id": 411,
      "gh": 412,
      "▁that": 413,
      "▁k": 414,
      "▁u": 415,
      "...": 416,
      "▁me": 417,
      "ld": 418,
      "▁we": 419,
      "im": 420,
      "▁I'": 421,
      "ic": 422,
      "ut": 423,
      "ac": 424,
      "al": 425,
      "▁and": 426,
      "▁e": 427,
      "▁M": 428,
      "▁C": 429,
      "ght": 430,
      "ke": 431,
      "ver": 432,
      "out": 433,
      "oo": 434,
      "▁do": 435,
      "s.": 436,
      "se": 437,
      "ri": 438,
      "▁B": 439,
      "▁N": 440,
      "ad": 441,
      "▁D": 442,
      "▁The": 443,
      "▁for": 444,
      "▁your": 445,
      "ill": 446,
      "▁re": 447,
      "ome": 448,
      "▁this": 449,
      "am": 450,
      "▁O": 451,
      "▁st": 452,
      "ir": 453,
      "▁He": 454,
      "'re": 455,
      "▁G": 456,
      "▁have": 457,
      "ust": 458,
      "▁We": 459,
      "▁my": 460,
      "on't": 461,
      "▁go": 462,
      "▁are": 463,
      "y.": 464,
      "▁kn": 465,
      "▁L": 466,
      "▁not": 467,
      "ion": 468,
      "▁li": 469,
      "▁I'm": 470,
      "▁an": 471,
      "ith": 472,
      "ro": 473,
      "▁know": 474,
      "▁was": 475,
      "▁What": 476,
      "ent": 477,
      "▁with": 478,
      "▁can": 479,
      "ould": 480,
      "ee": 481,
      "▁j": 482,
      "▁It": 483,
      "all": 484,
      "▁ne": 485,
      "her": 486,
      "ho": 487,
      "ant": 488,
      "ly": 489,
      "▁P": 490,
      "ec": 491,
      "ur": 492,
      "n't": 493,
      "▁what": 494,
      "▁here": 495,
      "hing": 496,
      "▁get": 497,
      "if": 498,
      "ea": 499,
      "▁don't": 500,
      "▁him": 501,
      "pp": 502,
      "▁out": 503,
      "ack": 504,
      "▁R": 505,
      "ake": 506,
      "ter": 507,
      "▁F": 508,
      "il": 509,
      "h,": 510,
      "op": 511,
      "one": 512,
      "▁all": 513,
      "▁ab": 514,
      "un": 515,
      "▁J": 516,
      "▁as": 517,
      "▁up": 518,
      "y,": 519,
      "▁just": 520,
      "our": 521,
      "ch": 522,
      "▁And": 523,
      "right": 524,
      "ell": 525,
      "han": 526,
      "ook": 527,
      "and": 528,
      "▁It's": 529,
      "ra": 530,
      "▁want": 531,
      "▁No": 532,
      "ck": 533,
      "▁like": 534,
      "▁E": 535,
      "▁sh": 536,
      "▁at": 537,
      "▁did": 538,
      "e,": 539,
      "ink": 540,
      "ive": 541,
      "▁will": 542,
      "ood": 543,
      "▁right": 544,
      "▁about": 545,
      "ind": 546,
      "▁got": 547,
      "▁there": 548,
      "na": 549,
      "▁you.": 550,
      "ight": 551,
      "s,": 552,
      "rom": 553,
      "▁so": 554,
      "▁wor": 555,
      "very": 556,
      "ore": 557,
      "▁That": 558,
      "hy": 559,
      "▁her": 560,
      "here": 561,
      "ce": 562,
      "au": 563,
      "art": 564,
      "▁any": 565,
      "▁no": 566,
      "od": 567,
      "▁su": 568,
      "▁r": 569,
      "▁they": 570,
      "▁tr": 571,
      "▁think": 572,
      "ag": 573,
      "▁lo": 574,
      "ain": 575,
      "own": 576,
      "ing.": 577,
      "▁Th": 578,
      "▁it.": 579,
      "▁sa": 580,
      "▁\"": 581,
      "▁now": 582,
      "▁al": 583,
      "end": 584,
      "ist": 585,
      "▁me.": 586,
      "el": 587,
      "▁com": 588,
      "▁from": 589,
      "▁one": 590,
      "est": 591,
      "▁but": 592,
      "▁But": 593,
      "▁see": 594,
      "ig": 595,
      "hen": 596,
      "▁back": 597,
      "ak": 598,
      "▁K": 599,
      "▁need": 600,
      "▁man": 601,
      "▁if": 602,
      "▁pl": 603,
      "ab": 604,
      "em": 605,
      "ast": 606,
      "ol": 607,
      "os": 608,
      "▁gon": 609,
      "ct": 610,
      "kay": 611,
      "▁his": 612,
      "▁some": 613,
      "ation": 614,
      "▁them": 615,
      "us": 616,
      "▁us": 617,
      "▁who": 618,
      "es.": 619,
      "ess": 620,
      "ie": 621,
      "ear": 622,
      "ong": 623,
      "er.": 624,
      "ul": 625,
      "▁tim": 626,
      "▁gonna": 627,
      "nt": 628,
      "um": 629,
      "▁going": 630,
      "ound": 631,
      "▁This": 632,
      "▁say": 633,
      "▁So": 634,
      "ame": 635,
      "'ll": 636,
      "are": 637,
      "▁she": 638,
      "ed.": 639,
      "▁or": 640,
      "▁I'll": 641,
      "▁you're": 642,
      "▁con": 643,
      "▁de": 644,
      "▁would": 645,
      "▁gu": 646,
      "▁ex": 647,
      "h.": 648,
      "▁it's": 649,
      "▁They": 650,
      "ect": 651,
      "qu": 652,
      "alk": 653,
      "▁How": 654,
      "▁come": 655,
      "ally": 656,
      "other": 657,
      "▁were": 658,
      "▁our": 659,
      "▁look": 660,
      "ard": 661,
      "way": 662,
      "▁You're": 663,
      "▁tell": 664,
      "▁sp": 665,
      "▁been": 666,
      "▁That's": 667,
      "▁ag": 668,
      "▁pro": 669,
      "ure": 670,
      "ate": 671,
      "▁has": 672,
      "leas": 673,
      "▁here.": 674,
      "ick": 675,
      "thing": 676,
      "omet": 677,
      "ap": 678,
      "▁happ": 679,
      "ort": 680,
      "ry": 681,
      "es,": 682,
      "▁Come": 683,
      "▁too": 684,
      "▁She": 685,
      "▁If": 686,
      "▁off": 687,
      "▁take": 688,
      "▁good": 689,
      "▁down": 690,
      "▁St": 691,
      "▁can't": 692,
      "ers": 693,
      "ll,": 694,
      "▁am": 695,
      "ven": 696,
      "▁every": 697,
      "▁could": 698,
      "▁v": 699,
      "'ve": 700,
      "ire": 701,
      "uck": 702,
      "▁Do": 703,
      "▁Why": 704,
      "▁Yea": 705,
      "▁way": 706,
      "itt": 707,
      "▁had": 708,
      "▁No,": 709,
      "omething": 710,
      "ause": 711,
      "lp": 712,
      "▁U": 713,
      "▁There": 714,
      "▁when": 715,
      "▁ar": 716,
      "▁Oh,": 717,
      "ough": 718,
      "▁br": 719,
      "▁how": 720,
      "▁int": 721,
      "▁should": 722,
      "▁talk": 723,
      "▁kill": 724,
      "▁pe": 725,
      "▁cl": 726,
      "▁you,": 727,
      "▁let": 728,
      "▁didn't": 729,
      "▁call": 730,
      "▁work": 731,
      "▁happen": 732,
      "ice": 733,
      "res": 734,
      "hi": 735,
      "ove": 736,
      "▁Well,": 737,
      "▁thing": 738,
      "▁something": 739,
      "▁1": 740,
      "▁Don't": 741,
      "lf": 742,
      "▁you?": 743,
      "a.": 744,
      "▁by": 745,
      "▁se": 746,
      "fe": 747,
      "ous": 748,
      "▁All": 749,
      "reat": 750,
      "▁Let": 751,
      "▁make": 752,
      "hank": 753,
      "▁mean": 754,
      "▁My": 755,
      "▁love": 756,
      "▁Where": 757,
      "orr": 758,
      "ait": 759,
      "eep": 760,
      "▁Who": 761,
      "▁day": 762,
      "▁only": 763,
      "▁over": 764,
      "ud": 765,
      "▁bl": 766,
      "nder": 767,
      "▁He's": 768,
      "▁peop": 769,
      "▁him.": 770,
      "▁more": 771,
      "pl": 772,
      "▁find": 773,
      "▁Okay": 774,
      "ble": 775,
      "▁le": 776,
      "▁never": 777,
      "▁bo": 778,
      "▁help": 779,
      "▁I've": 780,
      "ace": 781,
      "▁V": 782,
      "▁'": 783,
      "▁time": 784,
      "s?": 785,
      "ther": 786,
      "ff": 787,
      "wo": 788,
      "▁said": 789,
      "ide": 790,
      "▁lea": 791,
      "ge": 792,
      "▁where": 793,
      "act": 794,
      "▁guy": 795,
      "ond": 796,
      "red": 797,
      "ber": 798,
      "▁Not": 799,
      "pt": 800,
      "▁en": 801,
      "▁qu": 802,
      "▁Now": 803,
      "ought": 804,
      "ew": 805,
      "▁Just": 806,
      "▁then": 807,
      "▁give": 808,
      "▁okay": 809,
      "▁ro": 810,
      "▁sc": 811,
      "▁why": 812,
      "▁does": 813,
      "▁Yeah,": 814,
      "ather": 815,
      "▁Look": 816,
      "th": 817,
      "ose": 818,
      "▁Get": 819,
      "iss": 820,
      "le.": 821,
      "on.": 822,
      "▁Hey,": 823,
      "ine": 824,
      "▁under": 825,
      "ving": 826,
      "▁sir": 827,
      "▁bec": 828,
      "ittle": 829,
      "▁people": 830,
      "▁doing": 831,
      "riend": 832,
      "▁pr": 833,
      "▁Is": 834,
      "ting": 835,
      "ost": 836,
      "r.": 837,
      "▁Are": 838,
      "ave": 839,
      "ob": 840,
      "ull": 841,
      "▁that.": 842,
      "self": 843,
      "urn": 844,
      "▁again": 845,
      "irst": 846,
      "▁un": 847,
      "▁bet": 848,
      "▁really": 849,
      "▁me,": 850,
      "fter": 851,
      "▁ask": 852,
      "▁that's": 853,
      "ang": 854,
      "▁little": 855,
      "▁into": 856,
      "old": 857,
      "▁even": 858,
      "▁On": 859,
      "lease": 860,
      "▁on.": 861,
      "▁mu": 862,
      "▁two": 863,
      "y?": 864,
      "▁We're": 865,
      "▁year": 866,
      "ree": 867,
      "per": 868,
      "har": 869,
      "ad.": 870,
      "▁it?": 871,
      "▁In": 872,
      "▁An": 873,
      "▁now.": 874,
      "▁What's": 875,
      "iz": 876,
      "y!": 877,
      "t.": 878,
      "fore": 879,
      "▁Go": 880,
      "be": 881,
      "ass": 882,
      "▁other": 883,
      "▁bel": 884,
      "irl": 885,
      "get": 886,
      "▁min": 887,
      "▁im": 888,
      "00": 889,
      "▁gr": 890,
      "eel": 891,
      "▁Your": 892,
      "▁hand": 893,
      "▁very": 894,
      "ep": 895,
      "ord": 896,
      "▁anything": 897,
      "ody": 898,
      "▁he's": 899,
      "ark": 900,
      "age": 901,
      "▁Thank": 902,
      "o.": 903,
      "▁away": 904,
      "▁much": 905,
      "▁car": 906,
      "▁this.": 907,
      "▁friend": 908,
      "▁sec": 909,
      "▁we're": 910,
      "▁me?": 911,
      "'d": 912,
      "▁chan": 913,
      "▁God": 914,
      "ment": 915,
      "▁their": 916,
      "▁Sh": 917,
      "▁rem": 918,
      "▁these": 919,
      "▁di": 920,
      "▁still": 921,
      "▁mad": 922,
      "day": 923,
      "▁up.": 924,
      "▁girl": 925,
      "ion.": 926,
      "▁..": 927,
      "ite": 928,
      "ity": 929,
      "a,": 930,
      "▁before": 931,
      "▁keep": 932,
      "▁try": 933,
      "▁new": 934,
      "▁wr": 935,
      "▁sure": 936,
      "▁long": 937,
      "▁wat": 938,
      "▁first": 939,
      "al.": 940,
      "▁than": 941,
      "▁go.": 942,
      "▁right?": 943,
      "▁on,": 944,
      "orn": 945,
      "▁there.": 946,
      "▁feel": 947,
      "▁2": 948,
      "▁told": 949,
      "▁Yes,": 950,
      "ing,": 951,
      "isten": 952,
      "▁Can": 953,
      "▁fin": 954,
      "▁that?": 955,
      "oll": 956,
      "ach": 957,
      "ish": 958,
      "▁ac": 959,
      "▁after": 960,
      "▁pre": 961,
      "an.": 962,
      "▁Let's": 963,
      "ieve": 964,
      "▁thr": 965,
      "ail": 966,
      "er,": 967,
      "ft": 968,
      "▁Did": 969,
      "▁fl": 970,
      "orm": 971,
      "▁may": 972,
      "ies": 973,
      "og": 974,
      "▁wait": 975,
      "▁right.": 976,
      "ue": 977,
      "sp": 978,
      "▁Mr.": 979,
      "hic": 980,
      "▁must": 981,
      "▁thought": 982,
      "▁dis": 983,
      "▁father": 984,
      "▁care": 985,
      "▁kid": 986,
      "▁night": 987,
      "▁last": 988,
      "▁because": 989,
      "▁won't": 990,
      "d.": 991,
      "one.": 992,
      "▁Good": 993,
      "▁know,": 994,
      "stand": 995,
      "▁name": 996,
      "▁sw": 997,
      "▁out.": 998,
      "ever": 999,
      "ock": 1000,
      "▁There's": 1001,
      "ool": 1002,
      "▁leave": 1003,
      "body": 1004,
      "▁cont": 1005,
      "▁bu": 1006,
      "▁put": 1007,
      "▁it,": 1008,
      "m.": 1009,
      "h?": 1010,
      "ip": 1011,
      "▁When": 1012,
      "▁part": 1013,
      "▁sm": 1014,
      "ign": 1015,
      "ady": 1016,
      "▁start": 1017,
      "ed,": 1018,
      "pen": 1019,
      "▁cr": 1020,
      "▁act": 1021,
      "▁ad": 1022,
      "▁stop": 1023,
      "ount": 1024,
      "aught": 1025,
      "▁believe": 1026,
      "▁world": 1027,
      "se.": 1028,
      "et.": 1029,
      "▁ever": 1030,
      "▁Okay,": 1031,
      "si": 1032,
      "or.": 1033,
      "ce.": 1034,
      "▁run": 1035,
      "ress": 1036,
      "av": 1037,
      "ing?": 1038,
      "▁made": 1039,
      "▁hell": 1040,
      "▁around": 1041,
      "▁fuck": 1042,
      "▁te": 1043,
      "▁understand": 1044,
      "▁plan": 1045,
      "▁Then": 1046,
      "oin": 1047,
      "xt": 1048,
      "▁live": 1049,
      "▁che": 1050,
      "▁...": 1051,
      "aking": 1052,
      "▁them.": 1053,
      "▁us.": 1054,
      "▁May": 1055,
      "▁mat": 1056,
      "▁el": 1057,
      "▁minut": 1058,
      "ren": 1059,
      "▁doesn't": 1060,
      "▁stay": 1061,
      "o,": 1062,
      "▁move": 1063,
      "▁id": 1064,
      "ug": 1065,
      "▁sir.": 1066,
      "▁better": 1067,
      "▁tra": 1068,
      "aw": 1069,
      "▁Cl": 1070,
      "ways": 1071,
      "▁mone": 1072,
      "▁everything": 1073,
      "▁here?": 1074,
      "▁For": 1075,
      "▁her.": 1076,
      "s!": 1077,
      "up": 1078,
      "▁real": 1079,
      "ile": 1080,
      "▁hear": 1081,
      "▁found": 1082,
      "▁show": 1083,
      "▁back.": 1084,
      "▁life": 1085,
      "▁So,": 1086,
      "▁those": 1087,
      "▁fam": 1088,
      "▁lot": 1089,
      "hed": 1090,
      "hich": 1091,
      "▁Every": 1092,
      "▁happened": 1093,
      "▁time.": 1094,
      "▁through": 1095,
      "▁Al": 1096,
      "h!": 1097,
      "▁sorr": 1098,
      "▁comp": 1099,
      "▁came": 1100,
      "▁Br": 1101,
      "ict": 1102,
      "▁Bec": 1103,
      "▁mar": 1104,
      "ta": 1105,
      "▁know.": 1106,
      "port": 1107,
      "it.": 1108,
      "ub": 1109,
      "▁wrong": 1110,
      "▁dr": 1111,
      "ty": 1112,
      "▁big": 1113,
      "▁own": 1114,
      "▁per": 1115,
      "▁nothing": 1116,
      "▁this?": 1117,
      "▁great": 1118,
      "ont": 1119,
      "▁ph": 1120,
      "k.": 1121,
      "ix": 1122,
      "oc": 1123,
      "▁ins": 1124,
      "▁supp": 1125,
      "i.": 1126,
      "ful": 1127,
      "▁always": 1128,
      "ister": 1129,
      "▁brother": 1130,
      "▁man.": 1131,
      "ome.": 1132,
      "▁She's": 1133,
      "▁cour": 1134,
      "ious": 1135,
      "▁here,": 1136,
      "en.": 1137,
      "▁They're": 1138,
      "▁someone": 1139,
      "▁app": 1140,
      "ice.": 1141,
      "▁sur": 1142,
      "ise": 1143,
      "▁head": 1144,
      "▁meet": 1145,
      "▁_": 1146,
      "ian": 1147,
      "▁Am": 1148,
      "▁play": 1149,
      "ly.": 1150,
      "▁Ch": 1151,
      "▁right,": 1152,
      "▁att": 1153,
      "▁sho": 1154,
      "▁there's": 1155,
      "▁home": 1156,
      "ember": 1157,
      "▁getting": 1158,
      "▁miss": 1159,
      "▁Because": 1160,
      "▁rec": 1161,
      "▁coming": 1162,
      "▁kind": 1163,
      "▁old": 1164,
      "▁okay?": 1165,
      "▁sha": 1166,
      "▁ser": 1167,
      "▁ass": 1168,
      "▁No.": 1169,
      "ng": 1170,
      "▁son": 1171,
      "▁dec": 1172,
      "▁Re": 1173,
      "ent.": 1174,
      "▁har": 1175,
      "▁Jo": 1176,
      "ial": 1177,
      "▁left": 1178,
      "▁cle": 1179,
      "▁As": 1180,
      "▁isn't": 1181,
      "ried": 1182,
      "▁Here": 1183,
      "ation.": 1184,
      "ily": 1185,
      "▁looking": 1186,
      "able": 1187,
      "▁mother": 1188,
      "▁ey": 1189,
      "▁job": 1190,
      "▁might": 1191,
      "▁mom": 1192,
      "anna": 1193,
      "▁wanted": 1194,
      "▁pol": 1195,
      "▁Please": 1196,
      "▁proble": 1197,
      "▁done": 1198,
      "ran": 1199,
      "--": 1200,
      "▁ra": 1201,
      "▁Be": 1202,
      "▁turn": 1203,
      "▁talking": 1204,
      "▁down.": 1205,
      "▁I'd": 1206,
      "▁do.": 1207,
      "▁Tell": 1208,
      "ow.": 1209,
      "ike": 1210,
      "iv": 1211,
      "▁To": 1212,
      "▁trying": 1213,
      "▁today": 1214,
      "▁acc": 1215,
      "▁(": 1216,
      "ia": 1217,
      "▁pers": 1218,
      "▁Take": 1219,
      "▁no,": 1220,
      "▁Sir": 1221,
      "▁cas": 1222,
      "▁well": 1223,
      "▁it!": 1224,
      "▁place": 1225,
      "▁enough": 1226,
      "tain": 1227,
      "ouse": 1228,
      "▁saw": 1229,
      "▁lif": 1230,
      "▁many": 1231,
      "hn": 1232,
      "▁read": 1233,
      "▁gotta": 1234,
      "▁bad": 1235,
      "▁being": 1236,
      "▁what?": 1237,
      "▁end": 1238,
      "▁save": 1239,
      "er?": 1240,
      "ince": 1241,
      "▁pos": 1242,
      "▁another": 1243,
      "▁comm": 1244,
      "in.": 1245,
      "▁bab": 1246,
      "▁use": 1247,
      "e?": 1248,
      "▁bot": 1249,
      "▁dif": 1250,
      "▁they're": 1251,
      "▁3": 1252,
      "▁sl": 1253,
      "▁yourself": 1254,
      "▁mon": 1255,
      "▁took": 1256,
      "▁years": 1257,
      "▁des": 1258,
      "▁heart": 1259,
      "▁♪": 1260,
      "ate.": 1261,
      "een": 1262,
      "▁hur": 1263,
      "▁bring": 1264,
      "▁Jack": 1265,
      "▁what's": 1266,
      "▁Dad": 1267,
      "▁too.": 1268,
      "▁What?": 1269,
      "▁Ex": 1270,
      "▁things": 1271,
      "▁please": 1272,
      "▁Wait": 1273,
      "▁mind": 1274,
      "▁else": 1275,
      "ory": 1276,
      "▁without": 1277,
      "ers.": 1278,
      "ight.": 1279,
      "▁Look,": 1280,
      "▁str": 1281,
      "▁bus": 1282,
      "▁open": 1283,
      "ess.": 1284,
      "▁co": 1285,
      "▁hour": 1286,
      "▁ent": 1287,
      "ated": 1288,
      "▁Maybe": 1289,
      "▁chi": 1290,
      "reak": 1291,
      "▁war": 1292,
      "▁seen": 1293,
      "ning": 1294,
      "on,": 1295,
      "▁hu": 1296,
      "ild": 1297,
      "▁Hell": 1298,
      "▁em": 1299,
      "eet": 1300,
      "ans": 1301,
      "▁Now,": 1302,
      "▁again.": 1303,
      "▁pleas": 1304,
      "oy": 1305,
      "▁One": 1306,
      "ath": 1307,
      "▁listen": 1308,
      "▁Some": 1309,
      "▁lost": 1310,
      "igh": 1311,
      "atch": 1312,
      "▁wanna": 1313,
      "ace.": 1314,
      "▁De": 1315,
      "▁guys": 1316,
      "ance": 1317,
      "ary": 1318,
      "am.": 1319,
      "▁you've": 1320,
      "rest": 1321,
      "▁same": 1322,
      "▁let's": 1323,
      "gr": 1324,
      "▁in.": 1325,
      "rent": 1326,
      "▁bit": 1327,
      "▁fun": 1328,
      "akes": 1329,
      "▁boy": 1330,
      "▁me!": 1331,
      "▁room": 1332,
      "▁Stop": 1333,
      "ions": 1334,
      "air": 1335,
      "ons": 1336,
      "▁quest": 1337,
      "▁gun": 1338,
      "▁okay.": 1339,
      "gg": 1340,
      "▁alre": 1341,
      "gether": 1342,
      "▁three": 1343,
      "▁killed": 1344,
      "▁next": 1345,
      "▁dri": 1346,
      "ey": 1347,
      "land": 1348,
      "▁remember": 1349,
      "▁second": 1350,
      "▁mean,": 1351,
      "▁knew": 1352,
      "ide.": 1353,
      "aj": 1354,
      "ret": 1355,
      "▁went": 1356,
      "so": 1357,
      "i,": 1358,
      "▁daught": 1359,
      "amn": 1360,
      "▁way.": 1361,
      "▁idea": 1362,
      "▁wee": 1363,
      "▁Or": 1364,
      "▁used": 1365,
      "▁yö": 1366,
      "ple": 1367,
      "▁Okay.": 1368,
      "▁best": 1369,
      "orry": 1370,
      "▁hold": 1371,
      "▁Give": 1372,
      "form": 1373,
      "osed": 1374,
      "ive.": 1375,
      "▁good.": 1376,
      "where": 1377,
      "▁matter": 1378,
      "▁mo": 1379,
      "ollow": 1380,
      "▁ch": 1381,
      "ence": 1382,
      "▁which": 1383,
      "ik": 1384,
      "▁child": 1385,
      "p.": 1386,
      "ax": 1387,
      "▁hop": 1388,
      "▁set": 1389,
      "▁Have": 1390,
      "ar.": 1391,
      "▁is.": 1392,
      "▁together": 1393,
      "cu": 1394,
      "▁Any": 1395,
      "▁met": 1396,
      "▁now,": 1397,
      "▁See": 1398,
      "▁dad": 1399,
      "vel": 1400,
      "▁person": 1401,
      "ity.": 1402,
      "▁pow": 1403,
      "▁wasn't": 1404,
      "eak": 1405,
      "▁thank": 1406,
      "▁Oh": 1407,
      "ine.": 1408,
      "▁cra": 1409,
      "▁OK": 1410,
      "▁We'll": 1411,
      "▁Un": 1412,
      "▁few": 1413,
      "▁fr": 1414,
      "▁one.": 1415,
      "▁him?": 1416,
      "▁rest": 1417,
      "▁that,": 1418,
      "pped": 1419,
      "rop": 1420,
      "leep": 1421,
      "▁num": 1422,
      "▁heard": 1423,
      "ly,": 1424,
      "▁house": 1425,
      "▁%": 1426,
      "▁Pleas": 1427,
      "▁wif": 1428,
      "▁no.": 1429,
      "▁4": 1430,
      "▁she's": 1431,
      "▁nam": 1432,
      "aut": 1433,
      ".\"": 1434,
      "▁anyone": 1435,
      "▁you'll": 1436,
      "▁Char": 1437,
      "▁res": 1438,
      "a!": 1439,
      "▁wh": 1440,
      "mm": 1441,
      "▁diffe": 1442,
      "oint": 1443,
      "▁i": 1444,
      "ntil": 1445,
      "ank": 1446,
      "▁morn": 1447,
      "▁wouldn't": 1448,
      "▁Listen": 1449,
      "anc": 1450,
      "▁Will": 1451,
      "▁sign": 1452,
      "▁wom": 1453,
      "ually": 1454,
      "▁prom": 1455,
      "▁At": 1456,
      "▁hard": 1457,
      "les": 1458,
      "▁problem": 1459,
      "▁walk": 1460,
      "▁cho": 1461,
      "▁5": 1462,
      "▁sister": 1463,
      "▁whole": 1464,
      "li": 1465,
      "▁seem": 1466,
      "▁tow": 1467,
      "▁pret": 1468,
      "▁yea": 1469,
      "ch.": 1470,
      "▁count": 1471,
      "▁hit": 1472,
      "▁cha": 1473,
      "ical": 1474,
      "▁most": 1475,
      "▁already": 1476,
      "▁fire": 1477,
      "s...": 1478,
      "▁check": 1479,
      "▁sorry.": 1480,
      "enc": 1481,
      "ered": 1482,
      "man": 1483,
      "▁sit": 1484,
      "▁Hey.": 1485,
      "ure.": 1486,
      "▁John": 1487,
      "▁ord": 1488,
      "ject": 1489,
      "▁Gr": 1490,
      "ream": 1491,
      "▁up!": 1492,
      "▁called": 1493,
      "▁Mom": 1494,
      "▁dead": 1495,
      "▁Q": 1496,
      "▁such": 1497,
      "▁Hey!": 1498,
      "▁Mar": 1499,
      "▁By": 1500,
      "▁You've": 1501,
      "ss": 1502,
      "▁family": 1503,
      "▁now?": 1504,
      "rew": 1505,
      "▁men": 1506,
      "▁also": 1507,
      "▁word": 1508,
      "uc": 1509,
      "▁him,": 1510,
      "▁life.": 1511,
      "▁fucking": 1512,
      "▁[": 1513,
      "es?": 1514,
      "▁trust": 1515,
      "▁fine.": 1516,
      "sw": 1517,
      "▁do?": 1518,
      "▁blood": 1519,
      "▁lat": 1520,
      "▁ter": 1521,
      "▁stand": 1522,
      "ating": 1523,
      "▁gave": 1524,
      "▁up,": 1525,
      "▁pay": 1526,
      "▁prot": 1527,
      "▁sy": 1528,
      "uff": 1529,
      "▁tom": 1530,
      "ens": 1531,
      "lect": 1532,
      "▁rel": 1533,
      "▁hum": 1534,
      "▁eas": 1535,
      "a?": 1536,
      "▁home.": 1537,
      "ult": 1538,
      "▁yöu": 1539,
      "▁ret": 1540,
      "ize": 1541,
      "▁gl": 1542,
      "▁pass": 1543,
      "dd": 1544,
      "▁Move": 1545,
      "hile": 1546,
      "▁sleep": 1547,
      "az": 1548,
      "▁far": 1549,
      "ry.": 1550,
      "▁resp": 1551,
      "h...": 1552,
      "hind": 1553,
      "▁follow": 1554,
      "▁conf": 1555,
      "in'": 1556,
      "▁compl": 1557,
      "▁week": 1558,
      "▁Sp": 1559,
      "▁Bl": 1560,
      "ason": 1561,
      "rol": 1562,
      "ris": 1563,
      "▁With": 1564,
      "▁Like": 1565,
      "▁Sc": 1566,
      "ime": 1567,
      "ird": 1568,
      "▁there?": 1569,
      "▁we'll": 1570,
      "▁exp": 1571,
      "▁tomorr": 1572,
      "ble.": 1573,
      "app": 1574,
      "▁fight": 1575,
      "▁break": 1576,
      "▁myself": 1577,
      "▁until": 1578,
      "cept": 1579,
      "ors": 1580,
      "ching": 1581,
      "ition": 1582,
      "▁Of": 1583,
      "▁money": 1584,
      "▁Right": 1585,
      "at.": 1586,
      "▁shot": 1587,
      "urd": 1588,
      "▁Pro": 1589,
      "omb": 1590,
      "▁Nothing": 1591,
      "▁chang": 1592,
      "to": 1593,
      "▁mess": 1594,
      "▁Z": 1595,
      "▁there,": 1596,
      "▁both": 1597,
      "▁Gu": 1598,
      "enn": 1599,
      "▁fil": 1600,
      "▁No!": 1601,
      "▁haven't": 1602,
      "▁you!": 1603,
      "▁bro": 1604,
      "aul": 1605,
      "ies.": 1606,
      "▁cam": 1607,
      "age.": 1608,
      "▁Sha": 1609,
      "▁inc": 1610,
      "▁exact": 1611,
      "▁cut": 1612,
      "▁beaut": 1613,
      "ex": 1614,
      "▁Ab": 1615,
      "▁ev": 1616,
      "▁couldn't": 1617,
      "▁maybe": 1618,
      "unt": 1619,
      "▁imp": 1620,
      "▁expl": 1621,
      "uth": 1622,
      "igure": 1623,
      "ither": 1624,
      "▁behind": 1625,
      "▁supposed": 1626,
      "▁this,": 1627,
      "▁spec": 1628,
      "inn": 1629,
      "ps": 1630,
      "inc": 1631,
      "ous.": 1632,
      "ient": 1633,
      "▁Ar": 1634,
      "▁hat": 1635,
      "irect": 1636,
      "▁taking": 1637,
      "uct": 1638,
      "▁guess": 1639,
      "ared": 1640,
      "▁go,": 1641,
      "▁fast": 1642,
      "▁wants": 1643,
      "▁answ": 1644,
      "▁cou": 1645,
      "cuse": 1646,
      "▁everyone": 1647,
      "ident": 1648,
      "▁Sir,": 1649,
      "▁something.": 1650,
      "▁Com": 1651,
      "▁doing?": 1652,
      "less": 1653,
      "▁its": 1654,
      "▁inst": 1655,
      "▁hurt": 1656,
      "▁gone": 1657,
      "er!": 1658,
      "lic": 1659,
      "▁ear": 1660,
      "▁def": 1661,
      "▁police": 1662,
      "hes": 1663,
      "▁!": 1664,
      "▁luck": 1665,
      "▁shoot": 1666,
      "▁pick": 1667,
      "not": 1668,
      "▁cop": 1669,
      "▁You'll": 1670,
      "ok": 1671,
      "▁light": 1672,
      "▁dead.": 1673,
      "▁busin": 1674,
      "▁wind": 1675,
      "▁send": 1676,
      "▁inter": 1677,
      "▁knows": 1678,
      "att": 1679,
      "▁10": 1680,
      "▁since": 1681,
      "▁sk": 1682,
      "▁Se": 1683,
      "an,": 1684,
      "▁course": 1685,
      "▁Cha": 1686,
      "vent": 1687,
      "iful": 1688,
      "▁arm": 1689,
      "▁Yeah.": 1690,
      "▁His": 1691,
      "or,": 1692,
      "ally,": 1693,
      "bab": 1694,
      "▁Keep": 1695,
      "▁sorry": 1696,
      "▁Hold": 1697,
      "▁Well": 1698,
      "lc": 1699,
      "▁not.": 1700,
      "▁craz": 1701,
      "el.": 1702,
      "▁Where's": 1703,
      "▁sound": 1704,
      "▁you...": 1705,
      "▁speak": 1706,
      "▁tou": 1707,
      "ations": 1708,
      "▁clos": 1709,
      "▁month": 1710,
      "▁please.": 1711,
      "▁dest": 1712,
      "▁thing.": 1713,
      "▁Help": 1714,
      "▁away.": 1715,
      "▁question": 1716,
      "▁drink": 1717,
      "ard.": 1718,
      "▁while": 1719,
      "▁go!": 1720,
      "▁phone": 1721,
      "▁build": 1722,
      "▁murd": 1723,
      "int": 1724,
      "▁tri": 1725,
      "▁char": 1726,
      "arent": 1727,
      "▁pat": 1728,
      "ash": 1729,
      "▁asked": 1730,
      "▁different": 1731,
      "▁are.": 1732,
      "▁sent": 1733,
      "▁four": 1734,
      "ott": 1735,
      "▁pretty": 1736,
      "stem": 1737,
      "▁cons": 1738,
      "by": 1739,
      "chool": 1740,
      "▁off.": 1741,
      "▁saf": 1742,
      "ah": 1743,
      "in't": 1744,
      "▁New": 1745,
      "▁five": 1746,
      "▁here!": 1747,
      "▁deal": 1748,
      "aptain": 1749,
      "e!": 1750,
      "▁mill": 1751,
      "cle": 1752,
      "▁protect": 1753,
      "▁least": 1754,
      "▁book": 1755,
      "▁fall": 1756,
      "▁We've": 1757,
      "▁number": 1758,
      "oot": 1759,
      "▁ton": 1760,
      "▁each": 1761,
      "▁saying": 1762,
      "▁Sorr": 1763,
      "▁Got": 1764,
      "▁huh?": 1765,
      "ense": 1766,
      "▁change": 1767,
      "more": 1768,
      "▁possi": 1769,
      "▁pull": 1770,
      "ung": 1771,
      "ed?": 1772,
      "▁These": 1773,
      "▁once": 1774,
      "▁is,": 1775,
      "▁Mic": 1776,
      "▁Che": 1777,
      "▁telling": 1778,
      "▁Say": 1779,
      "▁det": 1780,
      "▁means": 1781,
      "ie.": 1782,
      "▁says": 1783,
      "▁ap": 1784,
      "▁mist": 1785,
      "vers": 1786,
      "▁air": 1787,
      "ump": 1788,
      "▁nice": 1789,
      "▁inv": 1790,
      "▁lead": 1791,
      "erest": 1792,
      "▁ob": 1793,
      "▁Our": 1794,
      "ross": 1795,
      "edd": 1796,
      "▁die": 1797,
      "▁beautiful": 1798,
      "arl": 1799,
      "▁high": 1800,
      "▁all.": 1801,
      "idd": 1802,
      "ween": 1803,
      "▁pain": 1804,
      "er's": 1805,
      "▁del": 1806,
      "▁gen": 1807,
      "▁hope": 1808,
      "▁face": 1809,
      "▁Mr": 1810,
      "lve": 1811,
      "▁shit": 1812,
      "▁\"T": 1813,
      "▁working": 1814,
      "▁stuff": 1815,
      "▁full": 1816,
      "▁vis": 1817,
      "▁tak": 1818,
      "bably": 1819,
      "▁med": 1820,
      "en,": 1821,
      "▁point": 1822,
      "▁makes": 1823,
      "▁power": 1824,
      "▁bra": 1825,
      "ern": 1826,
      "▁brought": 1827,
      "ying": 1828,
      "fect": 1829,
      "▁add": 1830,
      "▁night.": 1831,
      "▁inside": 1832,
      "pe": 1833,
      "▁\"I": 1834,
      "▁school": 1835,
      "▁exactly": 1836,
      "▁figure": 1837,
      "▁marri": 1838,
      "▁did.": 1839,
      "ering": 1840,
      "▁Tr": 1841,
      "▁close": 1842,
      "ver.": 1843,
      "▁day.": 1844,
      "▁forg": 1845,
      "▁clear": 1846,
      "▁sorry,": 1847,
      "▁mem": 1848,
      "▁Ne": 1849,
      "m,": 1850,
      "▁lear": 1851,
      "▁happened?": 1852,
      "▁beg": 1853,
      "**": 1854,
      "ual": 1855,
      "▁fore": 1856,
      "▁time,": 1857,
      "▁coll": 1858,
      "ery": 1859,
      "▁on!": 1860,
      "es!": 1861,
      "▁Qu": 1862,
      "id.": 1863,
      "ant.": 1864,
      "▁mil": 1865,
      "▁hot": 1866,
      "▁leg": 1867,
      "▁Pr": 1868,
      "▁inform": 1869,
      "med": 1870,
      "▁hon": 1871,
      "▁import": 1872,
      "▁train": 1873,
      "▁you'd": 1874,
      "▁making": 1875,
      "▁eat": 1876,
      "▁sto": 1877,
      "▁ain't": 1878,
      "▁dream": 1879,
      "▁island": 1880,
      "▁Har": 1881,
      "▁Dr.": 1882,
      "the": 1883,
      "▁outs": 1884,
      "esc": 1885,
      "ete": 1886,
      "ield": 1887,
      "ic.": 1888,
      "▁Su": 1889,
      "▁food": 1890,
      "▁I...": 1891,
      "▁pres": 1892,
      "▁watch": 1893,
      "cc": 1894,
      "▁between": 1895,
      "▁6": 1896,
      "▁ri": 1897,
      "▁file": 1898,
      "led": 1899,
      "ally.": 1900,
      "▁Rem": 1901,
      "▁po": 1902,
      "▁grand": 1903,
      "▁control": 1904,
      "ER": 1905,
      "▁famil": 1906,
      "ue.": 1907,
      "eric": 1908,
      "▁attack": 1909,
      "▁aw": 1910,
      "iet": 1911,
      "▁dang": 1912,
      "▁ext": 1913,
      "▁become": 1914,
      "▁actually": 1915,
      "▁compan": 1916,
      "erg": 1917,
      "▁trou": 1918,
      "▁bas": 1919,
      "▁against": 1920,
      "▁Excuse": 1921,
      "▁anything.": 1922,
      "ins": 1923,
      "ouse.": 1924,
      "▁system": 1925,
      "▁forget": 1926,
      "br": 1927,
      "udd": 1928,
      "▁wond": 1929,
      "▁disc": 1930,
      "most": 1931,
      "ion,": 1932,
      "▁gets": 1933,
      "▁days": 1934,
      "▁looks": 1935,
      "a's": 1936,
      "▁direct": 1937,
      "ork": 1938,
      "▁Man": 1939,
      "▁cur": 1940,
      "▁to.": 1941,
      "▁Uh,": 1942,
      "▁people.": 1943,
      "band": 1944,
      "▁dog": 1945,
      "▁work.": 1946,
      "000": 1947,
      "ved": 1948,
      "▁TH": 1949,
      "ia.": 1950,
      "▁having": 1951,
      "▁able": 1952,
      "ric": 1953,
      "▁reason": 1954,
      "▁Stay": 1955,
      "▁return": 1956,
      "▁land": 1957,
      "▁Micha": 1958,
      "▁Ind": 1959,
      "▁anymore": 1960,
      "▁hus": 1961,
      "▁out!": 1962,
      "▁offic": 1963,
      "ory.": 1964,
      "▁lock": 1965,
      "▁Even": 1966,
      "▁half": 1967,
      "▁entire": 1968,
      "osp": 1969,
      "▁Clark": 1970,
      "eal": 1971,
      "▁Two": 1972,
      "▁sub": 1973,
      "▁cannot": 1974,
      "ied": 1975,
      "▁doct": 1976,
      "▁law": 1977,
      "▁well,": 1978,
      "▁Does": 1979,
      "fra": 1980,
      "y's": 1981,
      "▁waiting": 1982,
      "ows": 1983,
      "▁whatever": 1984,
      "▁on?": 1985,
      "▁interest": 1986,
      "ness": 1987,
      "▁ve": 1988,
      "-l": 1989,
      "▁dra": 1990,
      "▁lik": 1991,
      "o!": 1992,
      "▁pri": 1993,
      "▁soon": 1994,
      "▁hands": 1995,
      "IN": 1996,
      "ne": 1997,
      "▁ready": 1998,
      "▁Which": 1999,
      "▁Pe": 2000,
      "▁Shut": 2001,
      "▁door": 2002,
      "▁report": 2003,
      "▁dist": 2004,
      "iew": 2005,
      "▁After": 2006,
      "▁husband": 2007,
      "▁bomb": 2008,
      "ton": 2009,
      "AN": 2010,
      "▁wife": 2011,
      "▁yet": 2012,
      "▁sweet": 2013,
      "▁sn": 2014,
      "ars": 2015,
      "▁thinking": 2016,
      "▁ago.": 2017,
      "olog": 2018,
      "▁well.": 2019,
      "▁human": 2020,
      "▁Hey": 2021,
      "iec": 2022,
      "▁pap": 2023,
      "▁aren't": 2024,
      "▁out,": 2025,
      "▁wish": 2026,
      "▁town": 2027,
      "OU": 2028,
      "▁we've": 2029,
      "▁Pre": 2030,
      "rap": 2031,
      "▁sim": 2032,
      "▁young": 2033,
      "▁learn": 2034,
      "ake.": 2035,
      "▁Everything": 2036,
      "▁ahe": 2037,
      "▁sing": 2038,
      "▁son.": 2039,
      "▁help.": 2040,
      "ger": 2041,
      "▁fix": 2042,
      "▁En": 2043,
      "▁comes": 2044,
      "sh": 2045,
      "▁'em": 2046,
      "▁know?": 2047,
      "▁fact": 2048,
      "▁Only": 2049,
      "▁Act": 2050,
      "ift": 2051,
      "▁Please,": 2052,
      "▁six": 2053,
      "▁Oh.": 2054,
      "▁Put": 2055,
      "▁car.": 2056,
      "▁eyes": 2057,
      "▁Tom": 2058,
      "▁eng": 2059,
      "▁years.": 2060,
      "▁20": 2061,
      "▁Fuck": 2062,
      "▁loc": 2063,
      "▁moment": 2064,
      "▁fre": 2065,
      "▁Ag": 2066,
      "ief": 2067,
      "▁Americ": 2068,
      "▁friends": 2069,
      "▁Wh": 2070,
      "▁alone": 2071,
      "▁Lord": 2072,
      "ist.": 2073,
      "▁today.": 2074,
      "▁test": 2075,
      "▁wall": 2076,
      "mm.": 2077,
      "lex": 2078,
      "▁trans": 2079,
      "▁front": 2080,
      "aid": 2081,
      "lo": 2082,
      "▁die.": 2083,
      "bod": 2084,
      "ison": 2085,
      "▁damn": 2086,
      "▁black": 2087,
      "ush": 2088,
      "▁probably": 2089,
      "▁surv": 2090,
      "▁feeling": 2091,
      "able.": 2092,
      "▁place.": 2093,
      "▁needs": 2094,
      "▁small": 2095,
      "▁afra": 2096,
      "reet": 2097,
      "▁track": 2098,
      "▁Hello,": 2099,
      "▁him!": 2100,
      "lcome": 2101,
      "bo": 2102,
      "▁quite": 2103,
      "us.": 2104,
      "ick.": 2105,
      "▁esc": 2106,
      "▁Pl": 2107,
      "▁going?": 2108,
      "▁7": 2109,
      "▁bir": 2110,
      "▁bull": 2111,
      "▁asking": 2112,
      "ment.": 2113,
      "▁tried": 2114,
      "▁weap": 2115,
      "▁done.": 2116,
      "ow,": 2117,
      "▁man,": 2118,
      "▁God.": 2119,
      "▁over.": 2120,
      "itting": 2121,
      "▁world.": 2122,
      "▁team": 2123,
      "▁Sam": 2124,
      "a'": 2125,
      "ence.": 2126,
      "aring": 2127,
      "▁us,": 2128,
      "▁chance": 2129,
      "ospit": 2130,
      "▁Fran": 2131,
      "▁\"W": 2132,
      "▁dep": 2133,
      "▁woman": 2134,
      "▁secur": 2135,
      "eg": 2136,
      "▁money.": 2137,
      "▁Would": 2138,
      "▁reg": 2139,
      "▁bag": 2140,
      "oke": 2141,
      "▁past": 2142,
      "▁about?": 2143,
      "in,": 2144,
      "▁Em": 2145,
      "-h": 2146,
      "ling": 2147,
      "▁daughter": 2148,
      "ry,": 2149,
      "▁Sw": 2150,
      "▁her?": 2151,
      "ward": 2152,
      "▁ind": 2153,
      "▁safe": 2154,
      "▁running": 2155,
      "▁uh,": 2156,
      "▁Captain": 2157,
      "▁happy": 2158,
      "eed": 2159,
      "oud": 2160,
      "ited": 2161,
      "▁parent": 2162,
      "al,": 2163,
      "ib": 2164,
      "▁started": 2165,
      "olut": 2166,
      "alm": 2167,
      "▁secret": 2168,
      "▁water": 2169,
      "▁Con": 2170,
      "umb": 2171,
      "▁exc": 2172,
      "▁fell": 2173,
      "▁back,": 2174,
      "ired": 2175,
      "▁house.": 2176,
      "▁understand.": 2177,
      "ai": 2178,
      "▁Per": 2179,
      "▁bar": 2180,
      "▁free": 2181,
      "▁lose": 2182,
      "▁God!": 2183,
      "AR": 2184,
      "▁Open": 2185,
      "ilt": 2186,
      "▁ship": 2187,
      "▁her,": 2188,
      "iving": 2189,
      "▁expect": 2190,
      "iate": 2191,
      "vious": 2192,
      "▁promis": 2193,
      "▁dou": 2194,
      "▁Lea": 2195,
      "▁shut": 2196,
      "ific": 2197,
      "▁now!": 2198,
      "▁breat": 2199,
      "▁drive": 2200,
      "▁step": 2201,
      "ched": 2202,
      "spect": 2203,
      "as.": 2204,
      "▁taken": 2205,
      "▁Brother": 2206,
      "▁catch": 2207,
      "ract": 2208,
      "adi": 2209,
      "'m": 2210,
      "▁say?": 2211,
      "ale": 2212,
      "▁Her": 2213,
      "▁Go!": 2214,
      "iot": 2215,
      "▁Who's": 2216,
      "▁friend.": 2217,
      "▁cor": 2218,
      "▁goes": 2219,
      "▁along": 2220,
      "▁Good.": 2221,
      "▁hospit": 2222,
      "▁fav": 2223,
      "ometim": 2224,
      "ft.": 2225,
      "inal": 2226,
      "ates": 2227,
      "▁touch": 2228,
      "▁cool": 2229,
      "▁ke": 2230,
      "unch": 2231,
      "ead": 2232,
      "▁tw": 2233,
      "▁key": 2234,
      "▁way,": 2235,
      "▁mov": 2236,
      "ier": 2237,
      "▁Bab": 2238,
      "reen": 2239,
      "▁couple": 2240,
      "ats": 2241,
      "▁almost": 2242,
      "alt": 2243,
      "▁us?": 2244,
      "▁important": 2245,
      "▁bos": 2246,
      "▁gra": 2247,
      "▁Could": 2248,
      "▁trut": 2249,
      "ing!": 2250,
      "hip": 2251,
      "ter.": 2252,
      "▁girl.": 2253,
      "▁Ro": 2254,
      "▁together.": 2255,
      "▁piec": 2256,
      "oose": 2257,
      "roy": 2258,
      "unn": 2259,
      "▁ris": 2260,
      "o?": 2261,
      "rat": 2262,
      "▁dear": 2263,
      "▁much.": 2264,
      "ror": 2265,
      "▁body": 2266,
      "▁First": 2267,
      "▁vill": 2268,
      "me": 2269,
      "ertain": 2270,
      "▁cell": 2271,
      "▁gam": 2272,
      "▁afraid": 2273,
      "ful.": 2274,
      "▁mark": 2275,
      "▁Miss": 2276,
      "▁do,": 2277,
      "▁Great": 2278,
      "▁From": 2279,
      "ely.": 2280,
      "▁adv": 2281,
      "▁Was": 2282,
      "ention": 2283,
      "ines": 2284,
      "▁form": 2285,
      "you": 2286,
      "▁near": 2287,
      "ge.": 2288,
      "▁hero": 2289,
      "▁who's": 2290,
      "▁Something": 2291,
      "▁case": 2292,
      "▁strong": 2293,
      "entle": 2294,
      "▁side": 2295,
      "eral": 2296,
      "▁fool": 2297,
      "▁rep": 2298,
      "▁God,": 2299,
      "ch,": 2300,
      "▁mag": 2301,
      "ents": 2302,
      "▁brother.": 2303,
      "k,": 2304,
      "▁sear": 2305,
      "▁cap": 2306,
      "▁them,": 2307,
      "▁explain": 2308,
      "▁red": 2309,
      "▁boy.": 2310,
      "▁9": 2311,
      "ay.": 2312,
      "▁down,": 2313,
      "▁danger": 2314,
      "▁scared": 2315,
      "▁either": 2316,
      "▁alive": 2317,
      "▁job.": 2318,
      "▁fail": 2319,
      "▁pict": 2320,
      "▁stud": 2321,
      "its": 2322,
      "room": 2323,
      "▁12": 2324,
      "cess": 2325,
      "aire": 2326,
      "▁foot": 2327,
      "▁Car": 2328,
      "▁ground": 2329,
      "▁seems": 2330,
      "nect": 2331,
      "▁yeah.": 2332,
      "ert": 2333,
      "ings": 2334,
      "▁stup": 2335,
      "amp": 2336,
      "▁Oh!": 2337,
      "▁himself": 2338,
      "▁Charl": 2339,
      "-c": 2340,
      "▁Hu": 2341,
      "▁funn": 2342,
      "▁fut": 2343,
      "u.": 2344,
      "selve": 2345,
      "▁till": 2346,
      "▁up?": 2347,
      "▁baby.": 2348,
      "▁col": 2349,
      "▁perfect": 2350,
      "▁escap": 2351,
      "ade": 2352,
      "-in": 2353,
      "▁though": 2354,
      "▁minutes": 2355,
      "ance.": 2356,
      "▁anymore.": 2357,
      "▁win": 2358,
      "▁game": 2359,
      "▁course.": 2360,
      "▁yourself.": 2361,
      "▁morning.": 2362,
      "ester": 2363,
      "▁problem.": 2364,
      "rist": 2365,
      "▁&": 2366,
      "▁rob": 2367,
      "▁Call": 2368,
      "▁exper": 2369,
      "ice,": 2370,
      "▁Show": 2371,
      "▁tem": 2372,
      "▁shouldn't": 2373,
      "▁yet.": 2374,
      "▁birth": 2375,
      "is.": 2376,
      "▁me...": 2377,
      "▁room.": 2378,
      "▁-W": 2379,
      "▁Hur": 2380,
      "▁just...": 2381,
      "▁\"S": 2382,
      "▁imag": 2383,
      "▁be.": 2384,
      "▁go?": 2385,
      "ards": 2386,
      "▁prof": 2387,
      "u,": 2388,
      "▁alone.": 2389,
      "▁name?": 2390,
      "▁surp": 2391,
      "arget": 2392,
      "▁Hi,": 2393,
      "▁requ": 2394,
      "You": 2395,
      "aster": 2396,
      "▁8": 2397,
      "▁stra": 2398,
      "▁buy": 2399,
      "▁gone.": 2400,
      "ular": 2401,
      "▁less": 2402,
      "▁million": 2403,
      "▁bod": 2404,
      "▁cod": 2405,
      "\"?": 2406,
      "▁.": 2407,
      "▁Please.": 2408,
      "▁creat": 2409,
      "▁hang": 2410,
      "▁leaving": 2411,
      "▁given": 2412,
      "▁Everyone": 2413,
      "▁Col": 2414,
      "vern": 2415,
      "▁everything.": 2416,
      "▁Michael": 2417,
      "▁mod": 2418,
      "▁coming.": 2419,
      "ople": 2420,
      ",000": 2421,
      "▁tre": 2422,
      "▁Pet": 2423,
      "▁short": 2424,
      "▁Sorry,": 2425,
      "ef": 2426,
      "▁fac": 2427,
      "▁pack": 2428,
      "outh": 2429,
      "▁hate": 2430,
      "▁he?": 2431,
      "▁dev": 2432,
      "▁15": 2433,
      "▁Mil": 2434,
      "▁box": 2435,
      "▁Very": 2436,
      "▁beat": 2437,
      "unk": 2438,
      "▁died": 2439,
      "▁children": 2440,
      "▁wonder": 2441,
      "▁Gen": 2442,
      "▁wrong.": 2443,
      "▁nothing.": 2444,
      "ation,": 2445,
      "▁them?": 2446,
      "▁name.": 2447,
      "▁caught": 2448,
      "▁father.": 2449,
      "▁record": 2450,
      "ative": 2451,
      "▁Someone": 2452,
      "▁dark": 2453,
      "▁family.": 2454,
      "▁oper": 2455,
      "▁Me": 2456,
      "ote": 2457,
      "▁Hi.": 2458,
      "▁destroy": 2459,
      "▁ty": 2460,
      "▁phot": 2461,
      "ie,": 2462,
      "hose": 2463,
      "▁conc": 2464,
      "ugg": 2465,
      "▁Make": 2466,
      "▁calling": 2467,
      "▁okay,": 2468,
      "ber.": 2469,
      "▁guy.": 2470,
      "▁down!": 2471,
      "vest": 2472,
      "▁Ser": 2473,
      "ement": 2474,
      "▁Can't": 2475,
      "mp": 2476,
      "sing": 2477,
      "▁guys.": 2478,
      "▁lad": 2479,
      "▁Yes.": 2480,
      "itch": 2481,
      "▁days.": 2482,
      "▁minutes.": 2483,
      "ers,": 2484,
      "▁business": 2485,
      "▁Sm": 2486,
      "▁idea.": 2487,
      "▁quick": 2488,
      "▁contact": 2489,
      "▁special": 2490,
      "▁burn": 2491,
      "▁rid": 2492,
      "▁see.": 2493,
      "where.": 2494,
      "▁$": 2495,
      "▁sort": 2496,
      "▁budd": 2497,
      "▁Bar": 2498,
      "▁outside": 2499,
      "ish.": 2500,
      "▁saved": 2501,
      "▁fly": 2502,
      "m...": 2503,
      "▁Run": 2504,
      "▁proper": 2505,
      "▁disapp": 2506,
      "ets": 2507,
      "▁clean": 2508,
      "▁married": 2509,
      "▁Wait,": 2510,
      "▁-I": 2511,
      "▁then.": 2512,
      "▁Alex": 2513,
      "ase": 2514,
      "elt": 2515,
      "▁serious": 2516,
      "▁minute.": 2517,
      "▁People": 2518,
      "▁Nice": 2519,
      "▁Fl": 2520,
      "...?": 2521,
      "als": 2522,
      "▁times": 2523,
      "▁join": 2524,
      "▁Comm": 2525,
      "irt": 2526,
      "▁he'll": 2527,
      "▁rock": 2528,
      "▁tomorrow": 2529,
      "ault": 2530,
      "▁true": 2531,
      "▁cond": 2532,
      "gram": 2533,
      "che": 2534,
      "le,": 2535,
      "▁worth": 2536,
      "▁crim": 2537,
      "▁shall": 2538,
      "iver": 2539,
      "▁Listen,": 2540,
      "▁ru": 2541,
      "▁alive.": 2542,
      "▁baby": 2543,
      "▁par": 2544,
      "▁ran": 2545,
      "▁\"A": 2546,
      "▁first.": 2547,
      "-d": 2548,
      "ann": 2549,
      "on?": 2550,
      "ham": 2551,
      "ev": 2552,
      "▁ang": 2553,
      "▁great.": 2554,
      "▁like,": 2555,
      "▁security": 2556,
      "▁king": 2557,
      "▁more.": 2558,
      "ption": 2559,
      "▁Never": 2560,
      "▁for?": 2561,
      "▁drop": 2562,
      "....": 2563,
      "ized": 2564,
      "▁plac": 2565,
      "▁command": 2566,
      "▁OK.": 2567,
      "▁respect": 2568,
      "▁can.": 2569,
      "▁Ram": 2570,
      "oul": 2571,
      "ari": 2572,
      "fort": 2573,
      "▁Back": 2574,
      "▁Whatever": 2575,
      "▁no!": 2576,
      "▁tomorrow.": 2577,
      "▁mis": 2578,
      "ided": 2579,
      "▁But,": 2580,
      "▁ref": 2581,
      "ffect": 2582,
      "▁picture": 2583,
      "ine,": 2584,
      "erve": 2585,
      "▁top": 2586,
      "▁Aar": 2587,
      "▁sold": 2588,
      "▁worry": 2589,
      "▁complete": 2590,
      "pping": 2591,
      "▁val": 2592,
      "▁living": 2593,
      "▁allow": 2594,
      "▁camer": 2595,
      "▁Leave": 2596,
      "fic": 2597,
      "▁whe": 2598,
      "▁shit.": 2599,
      "▁flo": 2600,
      "▁Christ": 2601,
      "-s": 2602,
      "or?": 2603,
      "ary.": 2604,
      "▁back!": 2605,
      "▁myself.": 2606,
      "▁pur": 2607,
      "oof": 2608,
      "▁answer": 2609,
      "▁Those": 2610,
      "▁around.": 2611,
      "▁Eng": 2612,
      "▁so.": 2613,
      "over": 2614,
      "ually,": 2615,
      "▁said,": 2616,
      "▁meant": 2617,
      "▁somebody": 2618,
      "▁say,": 2619,
      "▁Jack.": 2620,
      "▁Sar": 2621,
      "▁Welcome": 2622,
      "▁day,": 2623,
      "ru": 2624,
      "rect": 2625,
      "▁press": 2626,
      "▁I?": 2627,
      "▁watching": 2628,
      "▁cover": 2629,
      "▁%1": 2630,
      "▁respon": 2631,
      "my": 2632,
      "▁z": 2633,
      "▁ball": 2634,
      "▁known": 2635,
      "ile.": 2636,
      "▁He'll": 2637,
      "▁fear": 2638,
      "▁Del": 2639,
      "▁El": 2640,
      "▁serv": 2641,
      "▁Father": 2642,
      "▁giving": 2643,
      "▁line": 2644,
      "▁death": 2645,
      "▁Te": 2646,
      "▁certain": 2647,
      "▁late": 2648,
      "▁needed": 2649,
      "-f": 2650,
      "▁god": 2651,
      "▁enough.": 2652,
      "aur": 2653,
      "▁anyway": 2654,
      "oup": 2655,
      "▁safe.": 2656,
      "▁project": 2657,
      "entlem": 2658,
      "▁come.": 2659,
      "▁using": 2660,
      "▁kept": 2661,
      "▁target": 2662,
      "▁am.": 2663,
      "ator": 2664,
      "▁arrest": 2665,
      "▁Le": 2666,
      "▁else.": 2667,
      "a...": 2668,
      "ndred": 2669,
      "▁hair": 2670,
      "▁kidd": 2671,
      "▁sun": 2672,
      "▁but...": 2673,
      "▁%s": 2674,
      "lock": 2675,
      "▁wast": 2676,
      "▁super": 2677,
      "▁about.": 2678,
      "▁deat": 2679,
      "▁things.": 2680,
      "▁mine.": 2681,
      "▁dem": 2682,
      "▁is?": 2683,
      "▁\"H": 2684,
      "▁steal": 2685,
      "uring": 2686,
      "it!": 2687,
      "▁YOU": 2688,
      "▁will.": 2689,
      "▁Watch": 2690,
      "▁enem": 2691,
      "▁promise": 2692,
      "▁Nobody": 2693,
      "▁arri": 2694,
      "-m": 2695,
      "-t": 2696,
      "▁Mon": 2697,
      "▁Damn": 2698,
      "▁before.": 2699,
      "-law": 2700,
      "▁Jes": 2701,
      "▁hours": 2702,
      "▁Dev": 2703,
      "ossi": 2704,
      "▁wait.": 2705,
      "solut": 2706,
      "▁blow": 2707,
      "ished": 2708,
      "▁radi": 2709,
      "sy": 2710,
      "ined": 2711,
      "▁Sorry": 2712,
      "▁night,": 2713,
      "rec": 2714,
      "▁Sing": 2715,
      "ten": 2716,
      "▁cook": 2717,
      "▁in,": 2718,
      "▁accept": 2719,
      "▁Sim": 2720,
      "▁Bell": 2721,
      "▁Chan": 2722,
      "▁bre": 2723,
      "ight,": 2724,
      "▁wedd": 2725,
      "ane": 2726,
      "▁connect": 2727,
      "▁30": 2728,
      "gu": 2729,
      "▁Sy": 2730,
      "▁Raj": 2731,
      "▁support": 2732,
      "▁months": 2733,
      "AT": 2734,
      "bt": 2735,
      "▁uh...": 2736,
      "▁19": 2737,
      "▁sir?": 2738,
      "▁apart": 2739,
      "ani": 2740,
      "▁Looks": 2741,
      "miss": 2742,
      "▁threat": 2743,
      "but": 2744,
      "ility": 2745,
      "▁throw": 2746,
      "▁marry": 2747,
      "▁THE": 2748,
      "▁ten": 2749,
      "▁sell": 2750,
      "▁Sec": 2751,
      "▁'C": 2752,
      "LL": 2753,
      "full": 2754,
      "ole": 2755,
      "ations.": 2756,
      "▁window": 2757,
      "ated.": 2758,
      "▁App": 2759,
      "ublic": 2760,
      "iddle": 2761,
      "▁stat": 2762,
      "▁happens": 2763,
      "▁weren't": 2764,
      "▁dud": 2765,
      "▁evid": 2766,
      "▁information": 2767,
      "joy": 2768,
      "no": 2769,
      "ess,": 2770,
      "▁then,": 2771,
      "-in-law": 2772,
      "hal": 2773,
      "ity,": 2774,
      "▁Pres": 2775,
      "▁Claire": 2776,
      "▁playing": 2777,
      "▁Okay?": 2778,
      "▁truth": 2779,
      "▁seeing": 2780,
      "▁lives": 2781,
      "▁Mrs.": 2782,
      "▁]": 2783,
      "▁list": 2784,
      "▁kids": 2785,
      "▁trouble": 2786,
      "▁cent": 2787,
      "▁invest": 2788,
      "▁don't.": 2789,
      "▁mach": 2790,
      "▁city": 2791,
      "oth": 2792,
      "▁star": 2793,
      "▁want.": 2794,
      "▁vict": 2795,
      "▁birthday": 2796,
      "▁hun": 2797,
      "uk": 2798,
      "▁bank": 2799,
      "▁dro": 2800,
      "▁Think": 2801,
      "▁How's": 2802,
      "▁Why?": 2803,
      "ousand": 2804,
      "▁left.": 2805,
      "▁Didn't": 2806,
      "now": 2807,
      "that": 2808,
      "▁Dadd": 2809,
      "ere": 2810,
      "arr": 2811,
      "ometimes": 2812,
      "ider": 2813,
      "▁later.": 2814,
      "-b": 2815,
      "▁dinn": 2816,
      "▁gold": 2817,
      "tern": 2818,
      "▁Guy": 2819,
      "▁\"The": 2820,
      "\\\\": 2821,
      "▁belong": 2822,
      "▁friends.": 2823,
      "▁carry": 2824,
      "▁idiot": 2825,
      "▁better.": 2826,
      "ruct": 2827,
      "▁deep": 2828,
      "ali": 2829,
      "▁order": 2830,
      "ense.": 2831,
      "ot.": 2832,
      "▁hundred": 2833,
      "y...": 2834,
      "▁fu": 2835,
      "▁govern": 2836,
      "▁man?": 2837,
      "▁Ste": 2838,
      "uthor": 2839,
      "▁felt": 2840,
      "▁not?": 2841,
      "▁turned": 2842,
      "▁stupid": 2843,
      "▁Mart": 2844,
      "est.": 2845,
      "▁move.": 2846,
      "▁hone": 2847,
      "▁sir,": 2848,
      "bers": 2849,
      "▁think?": 2850,
      "▁Yes": 2851,
      "▁happened.": 2852,
      "▁Alright": 2853,
      "▁moving": 2854,
      "tle": 2855,
      "▁treat": 2856,
      "▁sam": 2857,
      "▁-T": 2858,
      "am,": 2859,
      "ious.": 2860,
      "▁again,": 2861,
      "▁unc": 2862,
      "▁Bet": 2863,
      "amm": 2864,
      "▁smart": 2865,
      "▁eye": 2866,
      "▁OK,": 2867,
      "▁av": 2868,
      "▁Try": 2869,
      "ffic": 2870,
      "▁born": 2871,
      "ition.": 2872,
      "▁yeah,": 2873,
      "son": 2874,
      "▁Pap": 2875,
      "▁spend": 2876,
      "▁cross": 2877,
      "▁smell": 2878,
      "ON": 2879,
      "▁norm": 2880,
      "▁want?": 2881,
      "▁Bo": 2882,
      "▁Mother": 2883,
      "▁'c": 2884,
      "▁bird": 2885,
      "▁head.": 2886,
      "▁Out": 2887,
      "▁handle": 2888,
      "▁remain": 2889,
      "A.": 2890,
      "▁lau": 2891,
      "▁late.": 2892,
      "irm": 2893,
      "▁would've": 2894,
      "▁Thanks": 2895,
      "▁inside.": 2896,
      "▁anim": 2897,
      "▁rul": 2898,
      "range": 2899,
      "ced": 2900,
      "oun": 2901,
      "▁sick": 2902,
      "itor": 2903,
      "▁there!": 2904,
      "▁girls": 2905,
      "▁Dad,": 2906,
      "▁responsi": 2907,
      "▁loved": 2908,
      "▁Check": 2909,
      "view": 2910,
      "▁mus": 2911,
      "▁story": 2912,
      "ING": 2913,
      "▁X": 2914,
      "it,": 2915,
      "▁stick": 2916,
      "▁truck": 2917,
      "rence": 2918,
      "▁mind.": 2919,
      "▁situ": 2920,
      "ower": 2921,
      "▁host": 2922,
      "▁Should": 2923,
      "▁comput": 2924,
      "▁brok": 2925,
      "▁Turn": 2926,
      "▁thousand": 2927,
      "ident.": 2928,
      "▁Ph": 2929,
      "▁mean?": 2930,
      "▁Remember": 2931,
      "▁scare": 2932,
      "▁water.": 2933,
      "▁ahead": 2934,
      "oop": 2935,
      "▁art": 2936,
      "▁class": 2937,
      "▁news": 2938,
      "▁Jenn": 2939,
      "▁Grand": 2940,
      "▁dat": 2941,
      "▁dare": 2942,
      "▁cost": 2943,
      "▁Find": 2944,
      "fer": 2945,
      "ically": 2946,
      "▁level": 2947,
      "▁country": 2948,
      "▁parents": 2949,
      "ages": 2950,
      "▁share": 2951,
      "▁tonight.": 2952,
      "et,": 2953,
      "▁father's": 2954,
      "▁possible": 2955,
      "▁ma'": 2956,
      "▁boat": 2957,
      "ions.": 2958,
      "▁Ed": 2959,
      "▁conv": 2960,
      "S.": 2961,
      "tt": 2962,
      "▁agre": 2963,
      "▁love.": 2964,
      "▁opp": 2965,
      "ide,": 2966,
      "▁Hello.": 2967,
      "▁marriage": 2968,
      "cum": 2969,
      "▁hist": 2970,
      "ask": 2971,
      "▁kick": 2972,
      "▁Kill": 2973,
      "esterday": 2974,
      "▁bed": 2975,
      "▁terri": 2976,
      "gan": 2977,
      "▁tot": 2978,
      "ational": 2979,
      "▁good,": 2980,
      "▁100": 2981,
      "▁surpris": 2982,
      "RE": 2983,
      "haps": 2984,
      "ache": 2985,
      "▁yours.": 2986,
      "ph": 2987,
      "ature": 2988,
      "▁they'll": 2989,
      "▁say.": 2990,
      "▁finish": 2991,
      "▁contin": 2992,
      "▁hor": 2993,
      "ion?": 2994,
      "▁out?": 2995,
      "eor": 2996,
      "▁vo": 2997,
      "▁worked": 2998,
      "▁road": 2999,
      "▁decis": 3000,
      "▁strang": 3001,
      "uri": 3002,
      "▁Sure": 3003,
      "▁one,": 3004,
      "▁wear": 3005,
      "▁Cle": 3006,
      "▁Love": 3007,
      "▁ago,": 3008,
      "ald": 3009,
      "▁finally": 3010,
      "▁ident": 3011,
      "▁San": 3012,
      "il.": 3013,
      "arth": 3014,
      "▁ed": 3015,
      "▁takes": 3016,
      "IT": 3017,
      "▁main": 3018,
      "▁Lan": 3019,
      "ces": 3020,
      "▁bri": 3021,
      "▁appro": 3022,
      "▁'cause": 3023,
      "▁fair": 3024,
      "▁field": 3025,
      "iding": 3026,
      "▁Mad": 3027,
      "▁stor": 3028,
      "▁worry.": 3029,
      "▁fill": 3030,
      "▁kid.": 3031,
      "▁survive": 3032,
      "▁single": 3033,
      "▁inn": 3034,
      "▁Pri": 3035,
      "▁manag": 3036,
      "▁immed": 3037,
      "▁'Cause": 3038,
      "▁tick": 3039,
      "▁and...": 3040,
      "▁killing": 3041,
      "▁truth.": 3042,
      "▁Max": 3043,
      "▁Bob": 3044,
      "▁Lex": 3045,
      "▁can't.": 3046,
      "▁prison": 3047,
      "▁bad.": 3048,
      "▁prep": 3049,
      "▁fine": 3050,
      "▁Ben": 3051,
      "▁phone.": 3052,
      "▁wake": 3053,
      "iat": 3054,
      "▁bat": 3055,
      "om.": 3056,
      "▁slow": 3057,
      "▁About": 3058,
      "▁tor": 3059,
      "an?": 3060,
      "▁lab": 3061,
      "▁door.": 3062,
      "▁happen.": 3063,
      "▁Once": 3064,
      "su": 3065,
      "▁squ": 3066,
      "ster": 3067,
      "▁select": 3068,
      "▁..and": 3069,
      "ass.": 3070,
      "▁piece": 3071,
      "▁What,": 3072,
      "▁grow": 3073,
      "▁elect": 3074,
      "▁clot": 3075,
      "▁Go,": 3076,
      "▁Nothing.": 3077,
      "echn": 3078,
      "▁Jam": 3079,
      "uss": 3080,
      "▁Isn't": 3081,
      "▁adm": 3082,
      "ya": 3083,
      "ities": 3084,
      "▁Yeah?": 3085,
      "vi": 3086,
      "▁going.": 3087,
      "▁uncle": 3088,
      "▁Dad.": 3089,
      "ned": 3090,
      "top": 3091,
      "▁Tod": 3092,
      "▁post": 3093,
      "atur": 3094,
      "▁drug": 3095,
      "▁daughter.": 3096,
      "▁50": 3097,
      "▁Sorry.": 3098,
      "▁priv": 3099,
      "▁future": 3100,
      "ified": 3101,
      "▁inf": 3102,
      "▁life,": 3103,
      "▁John.": 3104,
      "erc": 3105,
      "▁dam": 3106,
      "▁cre": 3107,
      "ay,": 3108,
      "▁Cont": 3109,
      "▁lie": 3110,
      "▁\"O": 3111,
      "▁everybody": 3112,
      "▁remem": 3113,
      "ogn": 3114,
      "▁mistake": 3115,
      "-w": 3116,
      "▁♫": 3117,
      "inite": 3118,
      "read": 3119,
      "▁yes.": 3120,
      "▁hours.": 3121,
      "▁risk": 3122,
      "▁see,": 3123,
      "▁scen": 3124,
      "-I": 3125,
      "n.": 3126,
      "us,": 3127,
      "▁aut": 3128,
      "ma": 3129,
      "▁er": 3130,
      "▁stri": 3131,
      "▁gift": 3132,
      "▁Ad": 3133,
      "ountain": 3134,
      "▁broke": 3135,
      "ible": 3136,
      "▁mine": 3137,
      "ies,": 3138,
      "▁Des": 3139,
      "▁sitting": 3140,
      "ve.": 3141,
      "▁missed": 3142,
      "▁ill": 3143,
      "▁Other": 3144,
      "▁look.": 3145,
      "cri": 3146,
      "▁amaz": 3147,
      "▁ready.": 3148,
      "▁Huh?": 3149,
      "▁kiss": 3150,
      "▁back?": 3151,
      "▁something?": 3152,
      "▁morning": 3153,
      "▁meeting": 3154,
      "▁ble": 3155,
      "▁cir": 3156,
      "▁gentlem": 3157,
      "▁Time": 3158,
      "▁rece": 3159,
      "▁\"L": 3160,
      "▁across": 3161,
      "▁invol": 3162,
      "▁visit": 3163,
      "▁street": 3164,
      "hol": 3165,
      "▁program": 3166,
      "▁standing": 3167,
      "▁ow": 3168,
      "▁soon.": 3169,
      "ession": 3170,
      "▁looked": 3171,
      "▁teac": 3172,
      "▁business.": 3173,
      "e's": 3174,
      "ron": 3175,
      "rod": 3176,
      "▁swear": 3177,
      "▁easy": 3178,
      "▁too,": 3179,
      "▁onto": 3180,
      "▁within": 3181,
      "▁hand.": 3182,
      "▁account": 3183,
      "▁OK?": 3184,
      "▁I,": 3185,
      "▁sugg": 3186,
      "▁suspect": 3187,
      "▁seven": 3188,
      "isc": 3189,
      "▁sure.": 3190,
      "▁thing,": 3191,
      "body.": 3192,
      "▁suggest": 3193,
      "▁cold": 3194,
      "▁fing": 3195,
      "▁hasn't": 3196,
      "ics": 3197,
      "elf": 3198,
      "▁talk.": 3199,
      "▁Luc": 3200,
      "ate?": 3201,
      "ience": 3202,
      "▁middle": 3203,
      "▁fe": 3204,
      "imb": 3205,
      "▁for.": 3206,
      "▁appear": 3207,
      "▁decided": 3208,
      "▁building": 3209,
      "ney": 3210,
      "ate,": 3211,
      "▁apolog": 3212,
      "▁cras": 3213,
      "vis": 3214,
      "▁/": 3215,
      "▁bur": 3216,
      "▁ele": 3217,
      "▁true.": 3218,
      "ms": 3219,
      "▁Dud": 3220,
      "▁was.": 3221,
      "red.": 3222,
      "▁Charli": 3223,
      "▁message": 3224,
      ":00": 3225,
      "▁ir": 3226,
      "▁soul": 3227,
      "▁cry": 3228,
      "▁corn": 3229,
      "▁reach": 3230,
      "▁have.": 3231,
      "▁call.": 3232,
      "▁weapon": 3233,
      "▁correct": 3234,
      "ray": 3235,
      "▁worried": 3236,
      "ie?": 3237,
      "▁Actually,": 3238,
      "\".": 3239,
      "▁-H": 3240,
      "▁Happ": 3241,
      "▁Min": 3242,
      "▁\"M": 3243,
      "orth": 3244,
      "▁again?": 3245,
      "bit": 3246,
      "t's": 3247,
      "▁Wal": 3248,
      "▁that...": 3249,
      "▁Over": 3250,
      "▁somewhere": 3251,
      "▁prop": 3252,
      "ipp": 3253,
      "ness.": 3254,
      "of": 3255,
      "▁what,": 3256,
      "ured": 3257,
      "▁doubt": 3258,
      "ached": 3259,
      "▁jump": 3260,
      "▁Eas": 3261,
      "yl": 3262,
      "ify": 3263,
      "▁Three": 3264,
      "▁office": 3265,
      "▁Bring": 3266,
      "▁apprec": 3267,
      "▁mother.": 3268,
      "▁straight": 3269,
      "ony": 3270,
      "▁Pol": 3271,
      "▁diffic": 3272,
      "▁Help!": 3273,
      "EN": 3274,
      "▁sal": 3275,
      "▁dress": 3276,
      "▁longer": 3277,
      "▁home,": 3278,
      "▁government": 3279,
      "eng": 3280,
      "▁Cong": 3281,
      "▁station": 3282,
      "▁alright": 3283,
      "ce,": 3284,
      "ving.": 3285,
      "▁mot": 3286,
      "▁Ho": 3287,
      "▁Jul": 3288,
      "▁eyes.": 3289,
      "ah!": 3290,
      "we": 3291,
      "▁Vict": 3292,
      "▁bill": 3293,
      "▁is...": 3294,
      "▁equ": 3295,
      "▁Don": 3296,
      "▁King": 3297,
      "▁travel": 3298,
      "▁victim": 3299,
      "AS": 3300,
      "▁sense": 3301,
      "▁pop": 3302,
      "▁plan.": 3303,
      "▁Ang": 3304,
      "▁built": 3305,
      "▁feet": 3306,
      "▁bitch": 3307,
      "man.": 3308,
      "▁saying?": 3309,
      "▁following": 3310,
      "ault.": 3311,
      "▁crazy.": 3312,
      "▁current": 3313,
      "angu": 3314,
      "D.": 3315,
      "▁dad.": 3316,
      "▁ce": 3317,
      "▁story.": 3318,
      "ounds": 3319,
      "▁leave.": 3320,
      "▁recogn": 3321,
      "▁wife.": 3322,
      "▁favor": 3323,
      "i?": 3324,
      "at,": 3325,
      "▁Bill": 3326,
      "▁hospital": 3327,
      "i!": 3328,
      "▁Saw": 3329,
      "ective": 3330,
      "▁changed": 3331,
      "▁detail": 3332,
      "▁doctor": 3333,
      "ia,": 3334,
      "zz": 3335,
      "▁prove": 3336,
      "ploy": 3337,
      "▁Wow.": 3338,
      "▁Par": 3339,
      "▁thinks": 3340,
      "▁club": 3341,
      "▁partn": 3342,
      "velop": 3343,
      "ES": 3344,
      "itc": 3345,
      "▁park": 3346,
      "▁beha": 3347,
      "▁access": 3348,
      "▁course,": 3349,
      "▁company": 3350,
      "ised": 3351,
      "▁enjoy": 3352,
      "▁Here,": 3353,
      "▁terror": 3354,
      "▁Rus": 3355,
      "▁vi": 3356,
      "initely": 3357,
      "▁It'll": 3358,
      "▁gener": 3359,
      "▁ahead.": 3360,
      "amond": 3361,
      "▁Thanks,": 3362,
      "ral": 3363,
      "▁jud": 3364,
      "▁stop.": 3365,
      "ency": 3366,
      "row": 3367,
      "▁rather": 3368,
      "▁commun": 3369,
      "▁draw": 3370,
      "▁nobody": 3371,
      "▁plane": 3372,
      "▁Save": 3373,
      "▁glad": 3374,
      "ooper": 3375,
      "ress.": 3376,
      "▁we?": 3377,
      "▁remove": 3378,
      "▁impossi": 3379,
      "▁yesterday": 3380,
      "▁to...": 3381,
      "ots": 3382,
      "ar,": 3383,
      "▁sounds": 3384,
      "▁Cop": 3385,
      "▁Dav": 3386,
      "▁Pat": 3387,
      "▁design": 3388,
      "▁ones": 3389,
      "▁event": 3390,
      "▁Last": 3391,
      "▁Loc": 3392,
      "umm": 3393,
      "er...": 3394,
      "▁poin": 3395,
      "▁one's": 3396,
      "▁spent": 3397,
      "▁death.": 3398,
      "ov": 3399,
      "erv": 3400,
      "▁coff": 3401,
      "▁search": 3402,
      "OM": 3403,
      "ially": 3404,
      "▁Mark": 3405,
      "▁neck": 3406,
      "▁anybody": 3407,
      "▁Uncle": 3408,
      "les.": 3409,
      "▁Ow": 3410,
      "▁stopped": 3411,
      "aff": 3412,
      "▁Im": 3413,
      "▁public": 3414,
      "▁Maj": 3415,
      "▁are,": 3416,
      "▁begin": 3417,
      "▁Mor": 3418,
      "ume": 3419,
      "▁Everybody": 3420,
      "es...": 3421,
      "▁More": 3422,
      "-p": 3423,
      "uce": 3424,
      "▁sat": 3425,
      "▁pun": 3426,
      "▁party": 3427,
      "an!": 3428,
      "▁block": 3429,
      "▁200": 3430,
      "ograp": 3431,
      "▁engine": 3432,
      "▁dance": 3433,
      "▁Since": 3434,
      "ters": 3435,
      "▁one?": 3436,
      "▁man!": 3437,
      "▁kidna": 3438,
      "▁missing": 3439,
      "igg": 3440,
      "aim": 3441,
      "age,": 3442,
      "ast.": 3443,
      "▁Wait.": 3444,
      "▁chick": 3445,
      "iqu": 3446,
      "▁weak": 3447,
      "▁stuck": 3448,
      "▁personal": 3449,
      "▁Trust": 3450,
      "▁Command": 3451,
      "solute": 3452,
      "0.": 3453,
      "bed": 3454,
      "erm": 3455,
      "▁he'd": 3456,
      "▁hide": 3457,
      "ife": 3458,
      "▁she?": 3459,
      "orrow": 3460,
      "▁crazy": 3461,
      "▁Sit": 3462,
      "▁Gl": 3463,
      "▁And,": 3464,
      "▁Here.": 3465,
      "ratul": 3466,
      "▁choice.": 3467,
      "▁Agent": 3468,
      "▁plug": 3469,
      "▁quiet": 3470,
      "▁brain": 3471,
      "▁forgive": 3472,
      "DE": 3473,
      "▁occ": 3474,
      "host": 3475,
      "▁exam": 3476,
      "▁teach": 3477,
      "****": 3478,
      "▁evidence": 3479,
      "ite.": 3480,
      "▁card": 3481,
      "▁They'll": 3482,
      "▁vide": 3483,
      "▁long.": 3484,
      "viously": 3485,
      "▁grab": 3486,
      "▁innoc": 3487,
      "▁wit": 3488,
      "▁cat": 3489,
      "▁cust": 3490,
      "avy": 3491,
      "▁self": 3492,
      "▁fur": 3493,
      "iles": 3494,
      "▁ago": 3495,
      "▁investig": 3496,
      "af": 3497,
      "l.": 3498,
      "s'": 3499,
      "▁song": 3500,
      "▁Sure.": 3501,
      "▁they?": 3502,
      "▁mistake.": 3503,
      "-up": 3504,
      "ise.": 3505,
      "▁eight": 3506,
      "▁Dr": 3507,
      "▁flight": 3508,
      "BI": 3509,
      "cell": 3510,
      "▁hey,": 3511,
      "▁weird": 3512,
      "roll": 3513,
      "▁named": 3514,
      "▁present": 3515,
      "▁Set": 3516,
      "rab": 3517,
      "▁exist": 3518,
      "▁roll": 3519,
      "▁Shall": 3520,
      "▁cow": 3521,
      "▁load": 3522,
      "▁talked": 3523,
      "▁second.": 3524,
      "▁week.": 3525,
      "ler": 3526,
      "th.": 3527,
      "▁shar": 3528,
      "ones": 3529,
      "▁it'll": 3530,
      "▁doll": 3531,
      "ly?": 3532,
      "▁so,": 3533,
      "▁deal.": 3534,
      "▁Before": 3535,
      "▁instead": 3536,
      "▁paid": 3537,
      "▁Ms.": 3538,
      "add": 3539,
      "▁Read": 3540,
      "▁camp": 3541,
      "ball": 3542,
      "friend": 3543,
      "g.": 3544,
      "just": 3545,
      "▁nice.": 3546,
      "▁Has": 3547,
      "▁diamond": 3548,
      "▁Jack,": 3549,
      "sed": 3550,
      "▁sea": 3551,
      "▁side.": 3552,
      "▁11": 3553,
      "▁files": 3554,
      "▁tonight": 3555,
      "▁laugh": 3556,
      "▁mention": 3557,
      "▁Rel": 3558,
      "▁Yeah!": 3559,
      "▁group": 3560,
      "▁Black": 3561,
      "▁jail": 3562,
      "▁los": 3563,
      "um.": 3564,
      "▁Shit.": 3565,
      "▁text": 3566,
      "▁Son": 3567,
      "▁Hang": 3568,
      "▁contain": 3569,
      "▁own.": 3570,
      "▁white": 3571,
      "k?": 3572,
      "▁anyone.": 3573,
      "▁sex": 3574,
      "▁Bye.": 3575,
      "▁wood": 3576,
      "▁sil": 3577,
      "▁Ah,": 3578,
      "▁Right.": 3579,
      "agg": 3580,
      "▁island.": 3581,
      "aven": 3582,
      "▁please?": 3583,
      "▁question.": 3584,
      "▁Russi": 3585,
      "go": 3586,
      "inct": 3587,
      "ree.": 3588,
      "▁this!": 3589,
      "▁summ": 3590,
      "heart": 3591,
      "▁face.": 3592,
      "▁reas": 3593,
      "▁So...": 3594,
      "▁Ann": 3595,
      "▁rain": 3596,
      "▁Great.": 3597,
      "OR": 3598,
      "par": 3599,
      "▁cal": 3600,
      "▁ant": 3601,
      "IC": 3602,
      "▁worry,": 3603,
      "▁think.": 3604,
      "▁lar": 3605,
      "ie!": 3606,
      "▁Dad!": 3607,
      "▁easy.": 3608,
      "▁village": 3609,
      "kn": 3610,
      "work": 3611,
      "▁Bu": 3612,
      "ent,": 3613,
      "▁rout": 3614,
      "▁blind": 3615,
      "▁guys,": 3616,
      "▁remind": 3617,
      "▁yöur": 3618,
      "▁See,": 3619,
      "▁completely": 3620,
      "mb": 3621,
      "▁mir": 3622,
      "▁batt": 3623,
      "▁gang": 3624,
      "arm": 3625,
      "▁Geor": 3626,
      "▁\"D": 3627,
      "▁happy.": 3628,
      "▁minute": 3629,
      "▁honest": 3630,
      "▁that!": 3631,
      "▁position": 3632,
      "▁Move!": 3633,
      "ial.": 3634,
      "▁ann": 3635,
      "▁Khan": 3636,
      "▁Um,": 3637,
      "▁princ": 3638,
      "▁techn": 3639,
      "ed!": 3640,
      "▁it...": 3641,
      "▁problem?": 3642,
      "use": 3643,
      "▁don": 3644,
      "▁-Y": 3645,
      "▁Mo": 3646,
      "vert": 3647,
      "▁Det": 3648,
      "▁write": 3649,
      "▁flow": 3650,
      "▁court": 3651,
      "▁accident": 3652,
      "▁case.": 3653,
      "▁milit": 3654,
      "▁extra": 3655,
      "ource": 3656,
      "▁ric": 3657,
      "▁then?": 3658,
      "▁please,": 3659,
      "▁morning,": 3660,
      "ues": 3661,
      "▁tast": 3662,
      "▁TV": 3663,
      "▁Carl": 3664,
      "irlf": 3665,
      "▁peace": 3666,
      "▁works": 3667,
      "▁Here's": 3668,
      "ground": 3669,
      "▁impress": 3670,
      "irlfriend": 3671,
      "sc": 3672,
      "▁lay": 3673,
      "▁Sho": 3674,
      "▁High": 3675,
      "▁Hmm.": 3676,
      "ach.": 3677,
      "ple.": 3678,
      "▁today,": 3679,
      "▁stole": 3680,
      "▁Hol": 3681,
      "▁Fine.": 3682,
      "▁gun.": 3683,
      "▁Anything": 3684,
      "as,": 3685,
      "key": 3686,
      "▁so...": 3687,
      "▁other.": 3688,
      "▁Really": 3689,
      "iant": 3690,
      "▁Yes!": 3691,
      "▁Mike": 3692,
      "rog": 3693,
      "▁jack": 3694,
      "▁sol": 3695,
      "▁anywhere": 3696,
      "▁Step": 3697,
      "▁pray": 3698,
      "▁others": 3699,
      "▁lim": 3700,
      "▁Want": 3701,
      "▁Wats": 3702,
      "▁Fire": 3703,
      "selves": 3704,
      "▁whether": 3705,
      "stair": 3706,
      "▁Mod": 3707,
      "▁Jun": 3708,
      "empt": 3709,
      "▁activ": 3710,
      "▁possible.": 3711,
      "lud": 3712,
      "▁bother": 3713,
      "▁Lond": 3714,
      "▁something,": 3715,
      "▁understand?": 3716,
      "▁realize": 3717,
      "ule": 3718,
      "▁tru": 3719,
      "izz": 3720,
      "▁dangerous": 3721,
      "▁dut": 3722,
      "▁once.": 3723,
      "▁effect": 3724,
      "el,": 3725,
      "▁hands.": 3726,
      "▁sword": 3727,
      "▁deserve": 3728,
      "▁real.": 3729,
      "ama": 3730,
      "▁jok": 3731,
      "▁\"B": 3732,
      "▁from?": 3733,
      "▁people,": 3734,
      "▁Clark.": 3735,
      "▁sac": 3736,
      "▁gar": 3737,
      "▁Jan": 3738,
      "▁emerg": 3739,
      "▁murder": 3740,
      "▁locked": 3741,
      "▁concern": 3742,
      "ior": 3743,
      "▁yes,": 3744,
      "▁Dor": 3745,
      "els": 3746,
      "▁Use": 3747,
      "▁Forget": 3748,
      "▁relations": 3749,
      "vill": 3750,
      "ying.": 3751,
      "▁tap": 3752,
      "▁pot": 3753,
      "▁Rob": 3754,
      "rag": 3755,
      "▁prod": 3756,
      "▁choose": 3757,
      "▁lucky": 3758,
      "▁difficult": 3759,
      "▁ben": 3760,
      "▁Co": 3761,
      "▁Ger": 3762,
      "▁ups": 3763,
      "▁became": 3764,
      "▁weeks": 3765,
      "▁miles": 3766,
      "▁appreciate": 3767,
      "yn": 3768,
      "▁Tw": 3769,
      "▁Mc": 3770,
      "▁know...": 3771,
      "nable": 3772,
      "▁happening": 3773,
      "iting": 3774,
      "▁Ev": 3775,
      "▁see?": 3776,
      "▁work,": 3777,
      "▁Shit!": 3778,
      "▁wait,": 3779,
      "io": 3780,
      "under": 3781,
      "▁feed": 3782,
      "▁bear": 3783,
      "her.": 3784,
      "▁FBI": 3785,
      "▁prec": 3786,
      "▁swe": 3787,
      "▁Perhaps": 3788,
      "▁magic": 3789,
      "u!": 3790,
      "▁ur": 3791,
      "▁wearing": 3792,
      "▁way!": 3793,
      "▁move!": 3794,
      "▁words": 3795,
      "▁Prof": 3796,
      "▁coffee": 3797,
      "▁Hone": 3798,
      "aly": 3799,
      "▁Come.": 3800,
      "▁jung": 3801,
      "overed": 3802,
      "▁chance.": 3803,
      "rang": 3804,
      "▁a...": 3805,
      "in?": 3806,
      "atic": 3807,
      "▁Rog": 3808,
      "ored": 3809,
      "used": 3810,
      "▁school.": 3811,
      "▁-N": 3812,
      "al?": 3813,
      "▁13": 3814,
      "▁board": 3815,
      "▁proud": 3816,
      "cha": 3817,
      "▁I.": 3818,
      "▁crew": 3819,
      "▁foc": 3820,
      "imate": 3821,
      "▁Doct": 3822,
      "▁boys": 3823,
      "▁depart": 3824,
      "▁viol": 3825,
      "for": 3826,
      "por": 3827,
      "▁aff": 3828,
      "▁AN": 3829,
      "▁Lock": 3830,
      "▁Uh...": 3831,
      "ax.": 3832,
      "▁girlfriend": 3833,
      "▁Hen": 3834,
      "ade.": 3835,
      "▁Little": 3836,
      "▁her!": 3837,
      "own.": 3838,
      "▁plant": 3839,
      "▁prov": 3840,
      "▁two.": 3841,
      "▁bullet": 3842,
      "▁request": 3843,
      "▁They've": 3844,
      "▁definitely": 3845,
      "▁Engl": 3846,
      "▁receive": 3847,
      "bor": 3848,
      "▁we'd": 3849,
      "▁Red": 3850,
      "▁off,": 3851,
      "▁vehic": 3852,
      "▁President": 3853,
      "▁anything?": 3854,
      "▁Zo": 3855,
      "▁fast.": 3856,
      "▁figured": 3857,
      "▁cast": 3858,
      "s.\"": 3859,
      "▁offer": 3860,
      "▁Still": 3861,
      "▁sir!": 3862,
      "▁years,": 3863,
      "▁money,": 3864,
      "▁to,": 3865,
      "▁langu": 3866,
      "ecut": 3867,
      "▁Who?": 3868,
      "▁Look.": 3869,
      "▁Somebody": 3870,
      "▁either.": 3871,
      "ram": 3872,
      "hys": 3873,
      "ation?": 3874,
      "▁loves": 3875,
      "▁25": 3876,
      "▁putting": 3877,
      "▁partic": 3878,
      "▁code": 3879,
      "pr": 3880,
      "▁pus": 3881,
      "▁Bri": 3882,
      "irty": 3883,
      "▁guard": 3884,
      "▁vir": 3885,
      "▁Under": 3886,
      "▁sure?": 3887,
      "▁trouble.": 3888,
      "▁Dis": 3889,
      "aint": 3890,
      "ortun": 3891,
      "bert": 3892,
      "▁patient": 3893,
      "▁beautiful.": 3894,
      "▁promise.": 3895,
      "▁ma'am.": 3896,
      "▁owe": 3897,
      "▁Happy": 3898,
      "▁Sawy": 3899,
      "▁freak": 3900,
      "en?": 3901,
      "▁third": 3902,
      "▁hol": 3903,
      "ides": 3904,
      "▁all,": 3905,
      "ry?": 3906,
      "▁wedding": 3907,
      "▁psy": 3908,
      "lebr": 3909,
      "▁rese": 3910,
      "▁us!": 3911,
      "▁organ": 3912,
      "play": 3913,
      "▁suppose": 3914,
      "▁Select": 3915,
      "▁ice": 3916,
      "▁calm": 3917,
      "▁la": 3918,
      "▁Sl": 3919,
      "▁Big": 3920,
      "▁Kn": 3921,
      "ures": 3922,
      "▁sleep.": 3923,
      "▁address": 3924,
      "ers?": 3925,
      "▁empt": 3926,
      "hood": 3927,
      "▁during": 3928,
      "▁Air": 3929,
      "id,": 3930,
      "hard": 3931,
      "▁perform": 3932,
      "▁Talk": 3933,
      "▁Aw": 3934,
      "riff": 3935,
      "▁Jim": 3936,
      "▁careful": 3937,
      "▁lot.": 3938,
      "iny": 3939,
      "▁Af": 3940,
      "▁forward": 3941,
      "enty": 3942,
      "▁sudd": 3943,
      "▁fun.": 3944,
      "aith": 3945,
      "▁Er": 3946,
      "▁time?": 3947,
      "reng": 3948,
      "▁heading": 3949,
      "▁holding": 3950,
      "▁forgot": 3951,
      "▁Next": 3952,
      "▁collect": 3953,
      "gn": 3954,
      "itive": 3955,
      "▁Wind": 3956,
      "▁Pull": 3957,
      "ope": 3958,
      "▁Stand": 3959,
      "▁24": 3960,
      "ous,": 3961,
      "▁-S": 3962,
      "▁Gre": 3963,
      "▁didn't.": 3964,
      "ged": 3965,
      "▁mut": 3966,
      "▁map": 3967,
      "▁men.": 3968,
      "▁fault.": 3969,
      "stood": 3970,
      "▁in?": 3971,
      "ace,": 3972,
      "ellig": 3973,
      "▁Up": 3974,
      "▁Now!": 3975,
      "▁wrong?": 3976,
      "▁American": 3977,
      "on!": 3978,
      "ow!": 3979,
      "▁Nik": 3980,
      "▁ring": 3981,
      "▁man's": 3982,
      "▁Come,": 3983,
      "▁said.": 3984,
      "▁emb": 3985,
      "ks": 3986,
      "▁city.": 3987,
      "-hmm.": 3988,
      "▁further": 3989,
      "E.": 3990,
      "▁tea": 3991,
      "▁screw": 3992,
      "▁like.": 3993,
      "ky": 3994,
      "▁none": 3995,
      "▁office.": 3996,
      "▁Start": 3997,
      "▁40": 3998,
      "▁poor": 3999,
      "itud": 4000,
      "▁Sun": 4001,
      "▁state": 4002,
      "▁Thanks.": 4003,
      "▁sister.": 4004,
      "solutely": 4005,
      "▁Int": 4006,
      "▁yours": 4007,
      "▁bott": 4008,
      "▁Enough": 4009,
      "▁Ob": 4010,
      "▁Ric": 4011,
      "▁Five": 4012,
      "▁Ell": 4013,
      "lcome.": 4014,
      "▁close.": 4015,
      "▁medic": 4016,
      "▁tear": 4017,
      "▁itself": 4018,
      "▁Whoa!": 4019,
      "ence,": 4020,
      "▁game.": 4021,
      "ishing": 4022,
      "▁should've": 4023,
      "▁Inst": 4024,
      "▁signal": 4025,
      "▁shot.": 4026,
      "be.": 4027,
      "ge,": 4028,
      "▁lying": 4029,
      "▁Sher": 4030,
      "▁Ana": 4031,
      "▁jour": 4032,
      "▁suff": 4033,
      "▁\"You": 4034,
      "▁Att": 4035,
      "▁Hurry": 4036,
      "▁body.": 4037,
      "his": 4038,
      "ina": 4039,
      "▁captain": 4040,
      "▁Bra": 4041,
      "▁Rah": 4042,
      "▁fine,": 4043,
      "▁team.": 4044,
      "load": 4045,
      "▁Frank": 4046,
      "▁celebr": 4047,
      "ktop": 4048,
      "u?": 4049,
      "▁author": 4050,
      "▁Rep": 4051,
      "▁Kev": 4052,
      "ose.": 4053,
      "▁stuff.": 4054,
      "▁hy": 4055,
      "▁Ren": 4056,
      "▁calls": 4057,
      "▁helping": 4058,
      "▁recent": 4059,
      "its.": 4060,
      "▁to?": 4061,
      "▁Too": 4062,
      "▁spl": 4063,
      "▁separ": 4064,
      "▁memor": 4065,
      "▁#": 4066,
      "▁does.": 4067,
      "se,": 4068,
      "▁ste": 4069,
      "eez": 4070,
      "resh": 4071,
      "▁Without": 4072,
      "ya.": 4073,
      "▁mountain": 4074,
      "▁und": 4075,
      "▁necess": 4076,
      "ike.": 4077,
      "▁Que": 4078,
      "▁coun": 4079,
      "▁Doesn't": 4080,
      "lt": 4081,
      "head": 4082,
      "▁fish": 4083,
      "'s.": 4084,
      "▁storm": 4085,
      "▁Four": 4086,
      "▁applic": 4087,
      "▁Shaw": 4088,
      "▁though.": 4089,
      "IS": 4090,
      "yond": 4091,
      "▁path": 4092,
      "ett": 4093,
      "▁Add": 4094,
      "▁You,": 4095,
      "▁this...": 4096,
      "▁Pick": 4097,
      "▁orig": 4098,
      "▁off!": 4099,
      "▁imm": 4100,
      "▁Chlo": 4101,
      "▁liked": 4102,
      "▁radio": 4103,
      "et?": 4104,
      "▁Mm": 4105,
      "▁Mac": 4106,
      "▁Thom": 4107,
      "ended": 4108,
      "itted": 4109,
      "▁claim": 4110,
      "▁pract": 4111,
      "▁heart.": 4112,
      "▁hour.": 4113,
      "▁pulled": 4114,
      "▁Congratul": 4115,
      "gar": 4116,
      "▁?": 4117,
      "▁I-I": 4118,
      "..\"": 4119,
      "▁Where?": 4120,
      "▁son,": 4121,
      "▁\"C": 4122,
      "▁away,": 4123,
      "▁Ask": 4124,
      "▁Wait!": 4125,
      "▁earli": 4126,
      "▁simple": 4127,
      "▁typ": 4128,
      "▁Today": 4129,
      "then": 4130,
      "▁TO": 4131,
      "▁-A": 4132,
      "▁ride": 4133,
      "▁care.": 4134,
      "▁Mom,": 4135,
      "▁create": 4136,
      "▁Dude,": 4137,
      "will": 4138,
      "▁streng": 4139,
      "▁'T": 4140,
      "▁year.": 4141,
      "▁world,": 4142,
      "▁attempt": 4143,
      "▁shad": 4144,
      "▁employ": 4145,
      "▁boyfriend": 4146,
      "▁drag": 4147,
      "▁boss.": 4148,
      "ox": 4149,
      "▁nine": 4150,
      "▁Ter": 4151,
      "▁You'd": 4152,
      "▁Res": 4153,
      "▁Rs.": 4154,
      "▁KDE": 4155,
      "▁spir": 4156,
      "▁two,": 4157,
      "▁home?": 4158,
      "▁alread": 4159,
      "▁buddy.": 4160,
      "ches": 4161,
      "ring": 4162,
      "▁yell": 4163,
      "ar!": 4164,
      "▁Sometimes": 4165,
      "▁comb": 4166,
      "▁helped": 4167,
      "▁lost.": 4168,
      "▁possib": 4169,
      "▁lawy": 4170,
      "fully": 4171,
      "iet.": 4172,
      "▁bath": 4173,
      "abl": 4174,
      "▁vac": 4175,
      "▁feels": 4176,
      "▁polit": 4177,
      "▁Anyway": 4178,
      "▁Chapp": 4179,
      "▁-What": 4180,
      "gest": 4181,
      "pect": 4182,
      "▁–": 4183,
      "▁Cor": 4184,
      "▁godd": 4185,
      "▁through.": 4186,
      "▁Brit": 4187,
      "▁Mom.": 4188,
      "▁picked": 4189,
      "what": 4190,
      "▁Sur": 4191,
      "▁Lau": 4192,
      "▁keeping": 4193,
      "▁term": 4194,
      "▁shit!": 4195,
      "▁~": 4196,
      "re.": 4197,
      "▁--": 4198,
      "▁fort": 4199,
      "▁they've": 4200,
      "▁view": 4201,
      "place": 4202,
      "▁girl,": 4203,
      "▁job,": 4204,
      "▁child.": 4205,
      "▁music": 4206,
      "ream.": 4207,
      "▁knock": 4208,
      "iff": 4209,
      "▁Kat": 4210,
      "▁assist": 4211,
      "▁today?": 4212,
      "▁bitch.": 4213,
      "▁bloody": 4214,
      "▁promised": 4215,
      "▁totally": 4216,
      "i...": 4217,
      "hed.": 4218,
      "▁cave": 4219,
      "▁button": 4220,
      "▁convers": 4221,
      "▁except": 4222,
      "▁18": 4223,
      "▁gives": 4224,
      "▁kids.": 4225,
      "▁Michael.": 4226,
      "light": 4227,
      "▁word.": 4228,
      "▁butt": 4229,
      "▁process": 4230,
      "▁16": 4231,
      "▁film": 4232,
      "▁funny.": 4233,
      "how": 4234,
      "mond": 4235,
      "▁buck": 4236,
      "▁Same": 4237,
      "▁store": 4238,
      "▁too?": 4239,
      "itten": 4240,
      "▁hadn't": 4241,
      "▁hung": 4242,
      "▁of.": 4243,
      "alent": 4244,
      "▁reb": 4245,
      "▁upon": 4246,
      "▁times.": 4247,
      "▁Uh": 4248,
      "▁Um...": 4249,
      "▁unless": 4250,
      "▁died.": 4251,
      "▁wound": 4252,
      "▁faith": 4253,
      "▁low": 4254,
      "▁York": 4255,
      "▁hiding": 4256,
      "▁Met": 4257,
      "▁Follow": 4258,
      "ement.": 4259,
      "▁ready?": 4260,
      "ins.": 4261,
      "▁line.": 4262,
      "rif": 4263,
      "ries": 4264,
      "▁anything,": 4265,
      "▁div": 4266,
      "▁dadd": 4267,
      "iter": 4268,
      "▁soft": 4269,
      "▁trick": 4270,
      "ending": 4271,
      "▁Anj": 4272,
      "▁ver": 4273,
      "▁darl": 4274,
      "▁be?": 4275,
      "▁Lad": 4276,
      "▁not,": 4277,
      "▁Fred": 4278,
      "▁suck": 4279,
      "▁space": 4280,
      "▁Please!": 4281,
      "▁walking": 4282,
      "▁medical": 4283,
      "e...": 4284,
      "▁cab": 4285,
      "▁Cent": 4286,
      "▁above": 4287,
      "▁them!": 4288,
      "▁assho": 4289,
      "▁honor": 4290,
      "co": 4291,
      "▁cau": 4292,
      "omm": 4293,
      "▁repe": 4294,
      "ction": 4295,
      "▁everyone.": 4296,
      "ording": 4297,
      "▁friend,": 4298,
      "▁crime": 4299,
      "▁done,": 4300,
      "ivil": 4301,
      "▁place?": 4302,
      "▁driving": 4303,
      "▁fighting": 4304,
      "▁point.": 4305,
      "▁crack": 4306,
      "▁women": 4307,
      "▁luck.": 4308,
      "than": 4309,
      "▁Most": 4310,
      "▁willing": 4311,
      "▁Aren't": 4312,
      "▁keeps": 4313,
      "▁glass": 4314,
      "▁safet": 4315,
      "▁doctor.": 4316,
      "▁resear": 4317,
      "OT": 4318,
      "less.": 4319,
      "is,": 4320,
      "▁Hmm": 4321,
      "ver,": 4322,
      "▁Oo": 4323,
      "▁agent": 4324,
      "▁Another": 4325,
      "▁broken": 4326,
      "▁Holm": 4327,
      "OW": 4328,
      "▁fault": 4329,
      "▁Ant": 4330,
      "▁um...": 4331,
      "▁Mur": 4332,
      "▁Dou": 4333,
      "agn": 4334,
      "▁thing?": 4335,
      "▁woman.": 4336,
      "▁Locke": 4337,
      "by.": 4338,
      "father": 4339,
      "▁Ton": 4340,
      "▁strange": 4341,
      "urb": 4342,
      "▁Ray": 4343,
      "▁polic": 4344,
      "▁blood.": 4345,
      "board": 4346,
      "▁Sweet": 4347,
      "▁Conf": 4348,
      "ian.": 4349,
      "▁taught": 4350,
      "▁date": 4351,
      "ater": 4352,
      "▁stol": 4353,
      "▁was...": 4354,
      "ter,": 4355,
      "▁suit": 4356,
      "▁enc": 4357,
      "▁moved": 4358,
      "▁imagine": 4359,
      "▁kidding": 4360,
      "'?": 4361,
      "5.": 4362,
      "dom": 4363,
      "▁Walt": 4364,
      "▁neigh": 4365,
      "▁happening?": 4366,
      "▁guy?": 4367,
      "▁final": 4368,
      "▁swim": 4369,
      "▁matter.": 4370,
      "▁together,": 4371,
      "▁evil": 4372,
      "▁charge": 4373,
      "▁memory": 4374,
      "▁paper": 4375,
      "▁anyway.": 4376,
      "phan": 4377,
      "▁push": 4378,
      "▁Ha": 4379,
      "alf": 4380,
      "▁Care": 4381,
      "▁round": 4382,
      "▁guest": 4383,
      "▁Vel": 4384,
      "▁end.": 4385,
      "▁towards": 4386,
      "▁discuss": 4387,
      "▁Run!": 4388,
      "ana": 4389,
      "▁War": 4390,
      "▁Hand": 4391,
      "▁solve": 4392,
      "▁seat": 4393,
      "▁difference": 4394,
      "▁murdered": 4395,
      "▁hospital.": 4396,
      "oming": 4397,
      "▁with.": 4398,
      "▁Jas": 4399,
      "ordin": 4400,
      "▁lived": 4401,
      "▁system.": 4402,
      "▁criminal": 4403,
      "▁Delhi": 4404,
      "val": 4405,
      "▁0": 4406,
      "▁bed.": 4407,
      "ank.": 4408,
      "▁lady": 4409,
      "ices": 4410,
      "▁really.": 4411,
      "▁accident.": 4412,
      "▁hoping": 4413,
      "▁boss": 4414,
      "▁soldi": 4415,
      "▁cit": 4416,
      "▁thief": 4417,
      "▁eld": 4418,
      "▁Cap": 4419,
      "▁Du": 4420,
      "▁Their": 4421,
      "▁losing": 4422,
      "▁How?": 4423,
      "▁mom.": 4424,
      "▁monst": 4425,
      "▁emot": 4426,
      "▁Clark,": 4427,
      "▁yet?": 4428,
      "▁opportun": 4429,
      "▁batter": 4430,
      "gre": 4431,
      "▁cause": 4432,
      "le?": 4433,
      "▁Jake": 4434,
      "▁boat.": 4435,
      "▁passed": 4436,
      "▁scared.": 4437,
      "▁ls": 4438,
      "asc": 4439,
      "▁Nor": 4440,
      "▁force": 4441,
      "▁could've": 4442,
      "▁party.": 4443,
      "▁starting": 4444,
      "gry.": 4445,
      "▁Remove": 4446,
      "▁India": 4447,
      "ffe": 4448,
      "▁pil": 4449,
      "▁Cut": 4450,
      "ants": 4451,
      "▁amb": 4452,
      "▁showed": 4453,
      "▁likes": 4454,
      "▁allowed": 4455,
      "▁remember.": 4456,
      ".S.": 4457,
      "ke.": 4458,
      "▁tree": 4459,
      "▁-You": 4460,
      "▁right!": 4461,
      "ice?": 4462,
      "▁shock": 4463,
      "▁Victor": 4464,
      "LE": 4465,
      "iam": 4466,
      "▁Lo": 4467,
      "▁look,": 4468,
      "▁client": 4469,
      "▁tele": 4470,
      "▁match": 4471,
      "▁shop": 4472,
      "▁please!": 4473,
      "▁Stop.": 4474,
      "▁Charles": 4475,
      "▁complet": 4476,
      "▁Alright,": 4477,
      "▁Holy": 4478,
      "os.": 4479,
      "▁welcome": 4480,
      "▁Cur": 4481,
      "▁No...": 4482,
      "▁susp": 4483,
      "▁Close": 4484,
      "▁town.": 4485,
      "▁Rahul": 4486,
      "IA": 4487,
      "word": 4488,
      "▁Head": 4489,
      "▁here...": 4490,
      "▁const": 4491,
      "▁execut": 4492,
      "▁vol": 4493,
      "▁Vas": 4494,
      "▁fire.": 4495,
      "▁threaten": 4496,
      "▁tort": 4497,
      "▁Charlie.": 4498,
      "ah,": 4499,
      "ining": 4500,
      "▁sens": 4501,
      "▁Id": 4502,
      "▁pan": 4503,
      "▁pen": 4504,
      "▁succ": 4505,
      "▁excuse": 4506,
      "▁Whoa,": 4507,
      "▁result": 4508,
      "▁months.": 4509,
      "▁obs": 4510,
      "cut": 4511,
      "▁tough": 4512,
      "era": 4513,
      "▁hig": 4514,
      "▁log": 4515,
      "▁develop": 4516,
      "▁Right,": 4517,
      "▁Guys,": 4518,
      "▁ghost": 4519,
      "ork.": 4520,
      "st.": 4521,
      "▁Aut": 4522,
      "ades": 4523,
      "ily.": 4524,
      "▁why?": 4525,
      "▁moment.": 4526,
      "▁police.": 4527,
      "▁wis": 4528,
      "▁react": 4529,
      "▁Were": 4530,
      "▁Fin": 4531,
      "▁Ja": 4532,
      "▁temple": 4533,
      "▁sudden": 4534,
      "-ha": 4535,
      "▁the...": 4536,
      "▁chat": 4537,
      "▁cup": 4538,
      "▁Sam.": 4539,
      "icul": 4540,
      "▁14": 4541,
      "▁money?": 4542,
      "▁confirm": 4543,
      "▁install": 4544,
      "mission": 4545,
      "▁Sanj": 4546,
      "▁communic": 4547,
      "hes.": 4548,
      "arter": 4549,
      "▁Long": 4550,
      "▁purp": 4551,
      "T.": 4552,
      "off": 4553,
      "ually.": 4554,
      "ves": 4555,
      "▁beyond": 4556,
      "▁Calm": 4557,
      "▁La": 4558,
      "▁Ve": 4559,
      "ments": 4560,
      "▁Anyone": 4561,
      "▁dig": 4562,
      "ire.": 4563,
      "▁name,": 4564,
      "▁change.": 4565,
      "▁airport": 4566,
      "▁situation": 4567,
      "oor": 4568,
      "well": 4569,
      "▁bast": 4570,
      "▁bought": 4571,
      "an's": 4572,
      "▁natur": 4573,
      "...\"": 4574,
      "▁Norm": 4575,
      "▁neg": 4576,
      "hod": 4577,
      "▁gotten": 4578,
      "▁agree": 4579,
      "▁introd": 4580,
      "▁plane.": 4581,
      "▁planning": 4582,
      "▁consider": 4583,
      "▁surviv": 4584,
      "fortun": 4585,
      "▁waste": 4586,
      "ah.": 4587,
      "▁gut": 4588,
      "▁Mill": 4589,
      "▁reached": 4590,
      "ility.": 4591,
      "▁arrang": 4592,
      "▁others.": 4593,
      "▁engag": 4594,
      "?\"": 4595,
      "CK": 4596,
      "i's": 4597,
      "het": 4598,
      "on's": 4599,
      "▁Morn": 4600,
      "▁Dri": 4601,
      "▁Ra": 4602,
      "earch": 4603,
      "▁among": 4604,
      "▁energ": 4605,
      "▁news.": 4606,
      "▁believed": 4607,
      "▁Momm": 4608,
      "▁deliver": 4609,
      "▁cool.": 4610,
      "und": 4611,
      "▁wild": 4612,
      "▁you..": 4613,
      "omin": 4614,
      "▁Bel": 4615,
      "▁Redd": 4616,
      "▁want,": 4617,
      "▁bigger": 4618,
      "▁person.": 4619,
      "▁else?": 4620,
      "▁warn": 4621,
      "▁thanks.": 4622,
      "attoo": 4623,
      "▁Well...": 4624,
      "▁Super": 4625,
      "▁General": 4626,
      "▁Down": 4627,
      "ubb": 4628,
      "▁aware": 4629,
      "▁bathroom": 4630,
      "bar": 4631,
      "cho": 4632,
      "ivers": 4633,
      "ines.": 4634,
      "iment": 4635,
      "▁saving": 4636,
      "▁How'd": 4637,
      "▁John,": 4638,
      "▁fact,": 4639,
      "▁Whit": 4640,
      "▁disappear": 4641,
      "▁computer": 4642,
      "ege": 4643,
      "oid": 4644,
      "itz": 4645,
      "▁lord": 4646,
      "▁pal": 4647,
      "▁Shan": 4648,
      "▁notic": 4649,
      "ant,": 4650,
      "▁common": 4651,
      "▁numbers": 4652,
      "▁sweetheart": 4653,
      "▁dear.": 4654,
      "▁Police": 4655,
      "▁witness": 4656,
      "ze": 4657,
      "▁sad": 4658,
      "onn": 4659,
      "▁fat": 4660,
      "▁cand": 4661,
      "▁climb": 4662,
      "▁Then,": 4663,
      "rence.": 4664,
      "▁later": 4665,
      "▁Guess": 4666,
      "▁outside.": 4667,
      "▁Small": 4668,
      "▁Thing": 4669,
      "▁option": 4670,
      "▁hunt": 4671,
      "▁Hit": 4672,
      "▁Acc": 4673,
      "▁Mal": 4674,
      "▁Jac": 4675,
      "▁spot": 4676,
      "▁intellig": 4677,
      "▁while.": 4678,
      "iately.": 4679,
      "▁Afric": 4680,
      "back": 4681,
      "fuck": 4682,
      "▁mout": 4683,
      "▁WH": 4684,
      "▁pill": 4685,
      "▁heal": 4686,
      "▁bell": 4687,
      "▁Cooper": 4688,
      "▁docum": 4689,
      "ain.": 4690,
      "▁need.": 4691,
      "▁spare": 4692,
      "▁mission": 4693,
      "▁case,": 4694,
      "▁capt": 4695,
      "▁color": 4696,
      "-by": 4697,
      "sen": 4698,
      "▁anywhere.": 4699,
      "▁come,": 4700,
      "▁name's": 4701,
      "▁descri": 4702,
      "▁country.": 4703,
      "▁includ": 4704,
      "▁interview": 4705,
      "▁Sayid": 4706,
      "▁Hurle": 4707,
      "gue": 4708,
      "▁tunn": 4709,
      "ing...": 4710,
      "▁pock": 4711,
      "le!": 4712,
      "▁Cal": 4713,
      "all.": 4714,
      "▁\"F": 4715,
      "▁closed": 4716,
      "▁doing,": 4717,
      "▁planet": 4718,
      "rench": 4719,
      "▁Hello": 4720,
      "▁goddamn": 4721,
      "▁egg": 4722,
      "▁Ma": 4723,
      "▁soc": 4724,
      "▁over,": 4725,
      "▁Vis": 4726,
      "▁yourself,": 4727,
      "▁hotel": 4728,
      "oned": 4729,
      "▁phys": 4730,
      "▁Yes?": 4731,
      "▁Master": 4732,
      "ly!": 4733,
      "▁did,": 4734,
      "▁betray": 4735,
      "▁lives.": 4736,
      "▁hurt.": 4737,
      "▁book.": 4738,
      "▁forever.": 4739,
      "▁Brother,": 4740,
      "▁immediately.": 4741,
      "▁military": 4742,
      "▁~a": 4743,
      "-1": 4744,
      "ise,": 4745,
      "▁danc": 4746,
      "▁in!": 4747,
      "▁Bea": 4748,
      "ional": 4749,
      "▁Free": 4750,
      "▁tran": 4751,
      "▁but,": 4752,
      "▁away!": 4753,
      "▁interested": 4754,
      "▁learned": 4755,
      "▁terrorist": 4756,
      "line": 4757,
      "put": 4758,
      "▁green": 4759,
      "▁Way": 4760,
      "▁nut": 4761,
      "▁hall": 4762,
      "▁Hug": 4763,
      "▁afterno": 4764,
      "▁freed": 4765,
      "▁breathe": 4766,
      "yal": 4767,
      "ic,": 4768,
      "▁Mmm": 4769,
      "▁roof": 4770,
      "▁army": 4771,
      "▁paint": 4772,
      "ings.": 4773,
      "ompl": 4774,
      "▁Log": 4775,
      "▁race": 4776,
      "▁trad": 4777,
      "▁blue": 4778,
      "▁night?": 4779,
      "▁decide": 4780,
      "▁harm": 4781,
      "▁Def": 4782,
      "▁Play": 4783,
      "▁himself.": 4784,
      "GH": 4785,
      "▁tight": 4786,
      "▁mouth": 4787,
      "▁pred": 4788,
      "idge": 4789,
      "▁Dani": 4790,
      "▁letter": 4791,
      "▁work?": 4792,
      "▁Anna": 4793,
      "▁huge": 4794,
      "▁dead,": 4795,
      "▁intern": 4796,
      "▁bullsh": 4797,
      "▁recognize": 4798,
      "▁custom": 4799,
      "ty.": 4800,
      "hip.": 4801,
      "▁bless": 4802,
      "▁proof": 4803,
      "▁car,": 4804,
      "▁careful.": 4805,
      "▁food.": 4806,
      "▁type": 4807,
      "xy": 4808,
      "▁sense.": 4809,
      "▁bare": 4810,
      "▁lic": 4811,
      "▁opt": 4812,
      "▁hole": 4813,
      "▁doing.": 4814,
      "▁Rom": 4815,
      "ends": 4816,
      "▁tells": 4817,
      "▁contract": 4818,
      "▁Indian": 4819,
      "▁escape": 4820,
      "▁created": 4821,
      "war": 4822,
      "▁ign": 4823,
      "▁mor": 4824,
      "▁mid": 4825,
      "▁due": 4826,
      "▁cro": 4827,
      "▁cred": 4828,
      "▁Cr": 4829,
      "▁Pret": 4830,
      "▁Ethan": 4831,
      "▁questions": 4832,
      "▁different.": 4833,
      "▁animal": 4834,
      "▁responsible": 4835,
      "▁innocent": 4836,
      "ELL": 4837,
      "ala": 4838,
      "▁Cy": 4839,
      "▁people?": 4840,
      "▁crash": 4841,
      "▁Dad?": 4842,
      "▁Exact": 4843,
      "▁busy": 4844,
      "▁driver": 4845,
      "▁poison": 4846,
      "▁angry": 4847,
      "▁Angel": 4848,
      "known": 4849,
      "'.": 4850,
      "l,": 4851,
      "▁bunch": 4852,
      "▁civil": 4853,
      "▁Ty": 4854,
      "▁is!": 4855,
      "eared": 4856,
      "▁setting": 4857,
      "▁normal": 4858,
      "▁AND": 4859,
      "▁letting": 4860,
      "▁girl?": 4861,
      "▁runn": 4862,
      "▁thanks": 4863,
      "▁Jesus": 4864,
      "▁Profess": 4865,
      "ience.": 4866,
      "▁tail": 4867,
      "▁-O": 4868,
      "▁Send": 4869,
      "▁issu": 4870,
      "aster.": 4871,
      "▁killed.": 4872,
      "▁clock": 4873,
      "▁explos": 4874,
      "▁free.": 4875,
      "▁ship.": 4876,
      "▁future.": 4877,
      "OO": 4878,
      "▁corr": 4879,
      "alp": 4880,
      "▁ali": 4881,
      "▁raise": 4882,
      "▁hearts": 4883,
      "▁listen.": 4884,
      "idden": 4885,
      "▁company.": 4886,
      "-y": 4887,
      "cl": 4888,
      "▁sand": 4889,
      "▁sick.": 4890,
      "▁den": 4891,
      "▁Sounds": 4892,
      "▁\"N": 4893,
      "▁guy,": 4894,
      "▁Ass": 4895,
      "▁done?": 4896,
      "▁number.": 4897,
      "▁choice": 4898,
      "▁snow": 4899,
      "selves.": 4900,
      "king": 4901,
      "▁table": 4902,
      "▁fight.": 4903,
      "▁Sus": 4904,
      "▁Aust": 4905,
      "▁station.": 4906,
      "▁lift": 4907,
      "▁was,": 4908,
      "▁father,": 4909,
      "▁son?": 4910,
      "▁local": 4911,
      "▁place,": 4912,
      "▁finger": 4913,
      "▁video": 4914,
      "▁tour": 4915,
      "▁oce": 4916,
      "oo!": 4917,
      "▁are?": 4918,
      "▁Light": 4919,
      "▁lied": 4920,
      "▁knowing": 4921,
      "ers!": 4922,
      "▁wrong,": 4923,
      "▁remember?": 4924,
      "▁photograp": 4925,
      "▁terrible": 4926,
      "▁Really?": 4927,
      "▁Sherlock": 4928,
      "wise": 4929,
      "▁sometimes": 4930,
      "▁Tra": 4931,
      "▁suic": 4932,
      "▁speed": 4933,
      "▁sever": 4934,
      "▁realized": 4935,
      "▁Jack?": 4936,
      "▁trigg": 4937,
      "▁college": 4938,
      "▁dangerous.": 4939,
      "▁dude.": 4940,
      "▁dinner": 4941,
      "▁tattoo": 4942,
      "ree,": 4943,
      "▁Whe": 4944,
      "▁Walk": 4945,
      "▁Jos": 4946,
      "▁whose": 4947,
      "▁she'll": 4948,
      "obb": 4949,
      "▁grad": 4950,
      "▁written": 4951,
      "▁surve": 4952,
      "▁breakf": 4953,
      "▁early": 4954,
      "▁married.": 4955,
      "▁transfer": 4956,
      "▁responsib": 4957,
      "▁Grandp": 4958,
      "▁voice": 4959,
      "-A": 4960,
      "a/": 4961,
      "sha": 4962,
      "▁fle": 4963,
      "ved.": 4964,
      "▁non": 4965,
      "▁Coll": 4966,
      "▁here's": 4967,
      "▁Earth": 4968,
      "▁van": 4969,
      "▁sending": 4970,
      "▁Secur": 4971,
      "▁machine": 4972,
      "▁immediate": 4973,
      "gress": 4974,
      "▁tired": 4975,
      "reck": 4976,
      "▁Hon": 4977,
      "▁Ros": 4978,
      "▁But...": 4979,
      "ires": 4980,
      "▁seconds": 4981,
      "▁powerful": 4982,
      "▁'em.": 4983,
      "'S": 4984,
      "7.": 4985,
      "EA": 4986,
      "▁Bas": 4987,
      "ecially": 4988,
      "▁Rec": 4989,
      "▁'I": 4990,
      "▁car?": 4991,
      "▁move,": 4992,
      "▁warri": 4993,
      "▁cops": 4994,
      "▁grandp": 4995,
      "▁extre": 4996,
      "▁history": 4997,
      "-2": 4998,
      "bb": 4999,
      "cent": 5000,
      "lin": 5001,
      "yle": 5002,
      "▁fold": 5003,
      "▁\"Y": 5004,
      "▁scream": 5005,
      "ment,": 5006,
      "▁father?": 5007,
      "▁Chand": 5008,
      "▁movie": 5009,
      "itchen": 5010,
      "▁Honey,": 5011,
      "▁hack": 5012,
      "▁Ay": 5013,
      "aching": 5014,
      "▁Dep": 5015,
      "▁File": 5016,
      "▁worse": 5017,
      "▁days,": 5018,
      "▁finding": 5019,
      "▁brave": 5020,
      "▁control.": 5021,
      "body,": 5022,
      "▁double": 5023,
      "▁dropped": 5024,
      "▁maj": 5025,
      "▁coin": 5026,
      "ates.": 5027,
      "▁South": 5028,
      "▁Must": 5029,
      "▁Bur": 5030,
      "▁Rad": 5031,
      "▁worst": 5032,
      "▁stop!": 5033,
      "▁boys.": 5034,
      "▁Right?": 5035,
      "▁involved": 5036,
      "▁relationship": 5037,
      "ET": 5038,
      "ison.": 5039,
      "▁fake": 5040,
      "▁piss": 5041,
      "▁hom": 5042,
      "▁item": 5043,
      "▁eating": 5044,
      "▁you.\"": 5045,
      "▁usually": 5046,
      "▁guess.": 5047,
      "▁unit": 5048,
      "pens": 5049,
      "▁house,": 5050,
      "rupt": 5051,
      "▁continue": 5052,
      "hs": 5053,
      "▁tax": 5054,
      "ane.": 5055,
      "▁neither": 5056,
      "▁leaves": 5057,
      "▁matter?": 5058,
      "▁why.": 5059,
      "▁confus": 5060,
      "▁complic": 5061,
      "▁weeks.": 5062,
      "▁moving.": 5063,
      "▁avail": 5064,
      "▁affect": 5065,
      "ination": 5066,
      "▁dumb": 5067,
      "▁welcome.": 5068,
      "▁spoke": 5069,
      "▁smile": 5070,
      "▁teet": 5071,
      "▁later,": 5072,
      "▁Charlie": 5073,
      "▁condition": 5074,
      "▁breaking": 5075,
      "▁won": 5076,
      "▁Hor": 5077,
      "▁Drop": 5078,
      "▁O'": 5079,
      "▁click": 5080,
      "▁God's": 5081,
      "▁enter": 5082,
      "▁Spec": 5083,
      "▁floor": 5084,
      "▁teacher": 5085,
      "▁Detective": 5086,
      "ware": 5087,
      "▁Ah": 5088,
      "ard,": 5089,
      "▁queen": 5090,
      "this": 5091,
      "▁live.": 5092,
      "▁questions.": 5093,
      "▁ridicul": 5094,
      "NA": 5095,
      "▁size": 5096,
      "▁nur": 5097,
      "eter": 5098,
      "ets.": 5099,
      "▁Sol": 5100,
      "▁inj": 5101,
      "▁Aah!": 5102,
      "▁Offic": 5103,
      "▁Fr": 5104,
      "ceed": 5105,
      "ure,": 5106,
      "▁finished": 5107,
      "▁cock": 5108,
      "▁fed": 5109,
      "ayud": 5110,
      "ime.": 5111,
      "rie": 5112,
      "▁Far": 5113,
      "▁upstair": 5114,
      "▁\"G": 5115,
      "▁comfort": 5116,
      "▁Until": 5117,
      "ies?": 5118,
      "ia?": 5119,
      "▁best.": 5120,
      "▁behind.": 5121,
      "▁object": 5122,
      "▁favorite": 5123,
      "ux": 5124,
      "▁pu": 5125,
      "arant": 5126,
      "▁Shi": 5127,
      "imp": 5128,
      "▁ass.": 5129,
      "▁at?": 5130,
      "▁wrote": 5131,
      "▁pregn": 5132,
      "▁mate.": 5133,
      "up.": 5134,
      "▁old.": 5135,
      "▁house?": 5136,
      "▁honey.": 5137,
      "▁Better": 5138,
      "▁focus": 5139,
      "ging": 5140,
      "ied.": 5141,
      "son.": 5142,
      "yd": 5143,
      "▁est": 5144,
      "hem": 5145,
      "▁sna": 5146,
      "▁master": 5147,
      "▁Wake": 5148,
      "▁infect": 5149,
      "▁kitchen": 5150,
      "▁Dec": 5151,
      "▁print": 5152,
      "▁acting": 5153,
      "▁same.": 5154,
      "▁private": 5155,
      "▁Minister": 5156,
      "C.": 5157,
      "book": 5158,
      "rate": 5159,
      "ret.": 5160,
      "▁fol": 5161,
      "et's": 5162,
      "▁hired": 5163,
      "pper": 5164,
      "▁happen?": 5165,
      "▁enemy": 5166,
      "▁Monro": 5167,
      "▁data": 5168,
      "1.": 5169,
      "vir": 5170,
      "▁fresh": 5171,
      "▁held": 5172,
      "▁um,": 5173,
      "▁Bes": 5174,
      "▁action": 5175,
      "▁chur": 5176,
      "▁followed": 5177,
      "▁dog.": 5178,
      "▁Copy": 5179,
      "▁Anyway,": 5180,
      "ient.": 5181,
      "rise": 5182,
      "omed": 5183,
      "iling": 5184,
      "▁clear.": 5185,
      "▁light.": 5186,
      "▁wonderful": 5187,
      "▁bleed": 5188,
      "rit": 5189,
      "reet.": 5190,
      "▁me..": 5191,
      "▁Ever": 5192,
      "▁happened,": 5193,
      "▁serve": 5194,
      "▁war.": 5195,
      "man,": 5196,
      "▁charac": 5197,
      "▁Captain.": 5198,
      "VE": 5199,
      "▁far.": 5200,
      "or's": 5201,
      "▁Wor": 5202,
      "▁help,": 5203,
      "▁Chines": 5204,
      "▁assign": 5205,
      "▁Speak": 5206,
      "▁ground.": 5207,
      "▁mirac": 5208,
      "2.": 5209,
      "oss": 5210,
      "er.\"": 5211,
      "▁spo": 5212,
      "▁way?": 5213,
      "▁love,": 5214,
      "ocol": 5215,
      "▁rest.": 5216,
      "▁aunt": 5217,
      "ero": 5218,
      "▁nons": 5219,
      "lear": 5220,
      "acu": 5221,
      "▁Cass": 5222,
      "urg": 5223,
      "ired.": 5224,
      "▁listening": 5225,
      "▁geni": 5226,
      "▁photo": 5227,
      "▁camera": 5228,
      "▁Velayud": 5229,
      "ital": 5230,
      "▁Sub": 5231,
      "▁be,": 5232,
      "▁absolutely": 5233,
      "▁about,": 5234,
      "arth.": 5235,
      "ager": 5236,
      "ulf": 5237,
      "▁around,": 5238,
      "mark": 5239,
      "▁-G": 5240,
      "▁Seen": 5241,
      "▁U.S.": 5242,
      "▁One,": 5243,
      "▁die,": 5244,
      "▁base": 5245,
      "▁searching": 5246,
      "-to": 5247,
      "ones.": 5248,
      "▁dying": 5249,
      "▁Wow,": 5250,
      "▁Ten": 5251,
      "▁Six": 5252,
      "ides,": 5253,
      "▁earth": 5254,
      "▁understood": 5255,
      "▁Bye,": 5256,
      "▁Probably": 5257,
      "▁husband.": 5258,
      "▁funny": 5259,
      "fortunate": 5260,
      "round": 5261,
      "ward.": 5262,
      "▁odd": 5263,
      "▁iss": 5264,
      "▁Mind": 5265,
      "▁Man,": 5266,
      "venge": 5267,
      "▁minutes,": 5268,
      "▁greatest": 5269,
      "▁hurry": 5270,
      "▁bringing": 5271,
      "gged": 5272,
      "▁settle": 5273,
      "▁fund": 5274,
      "▁several": 5275,
      "BAR": 5276,
      "chan": 5277,
      "ating.": 5278,
      "▁spread": 5279,
      "▁run.": 5280,
      "▁train.": 5281,
      "▁Unless": 5282,
      "▁orders": 5283,
      "▁selected": 5284,
      "▁)": 5285,
      "in!": 5286,
      "etic": 5287,
      "▁Cam": 5288,
      "▁Cra": 5289,
      "▁\"l": 5290,
      "▁nowhere": 5291,
      "▁chem": 5292,
      "▁location": 5293,
      "▁Window": 5294,
      "bec": 5295,
      "ming": 5296,
      "ina.": 5297,
      "ish,": 5298,
      "▁bit.": 5299,
      "▁-C": 5300,
      "▁Dam": 5301,
      "▁What'd": 5302,
      "▁East": 5303,
      "▁scient": 5304,
      "▁..w": 5305,
      "▁brother?": 5306,
      "▁cash": 5307,
      "▁seconds.": 5308,
      "▁drink.": 5309,
      "▁English": 5310,
      "ipped": 5311,
      "u's": 5312,
      "▁ya": 5313,
      "▁nor": 5314,
      "▁op": 5315,
      "▁only.": 5316,
      "ley": 5317,
      "▁I'm...": 5318,
      "▁him...": 5319,
      "pped.": 5320,
      "ists": 5321,
      "▁Kab": 5322,
      "▁smoke": 5323,
      "▁runs": 5324,
      "▁position.": 5325,
      "▁United": 5326,
      "▁whom": 5327,
      "▁incred": 5328,
      "▁destroyed": 5329,
      "▁impossible.": 5330,
      "iar": 5331,
      "itut": 5332,
      "▁gre": 5333,
      "▁led": 5334,
      "▁Wall": 5335,
      "ese": 5336,
      "▁Search": 5337,
      "▁Hunt": 5338,
      "ribut": 5339,
      "▁Both": 5340,
      "ilit": 5341,
      "▁End": 5342,
      "ode": 5343,
      "▁Us": 5344,
      "▁blame": 5345,
      "▁reading": 5346,
      "▁chall": 5347,
      "▁family,": 5348,
      "▁changes": 5349,
      "▁detect": 5350,
      "▁awes": 5351,
      "▁subject": 5352,
      "▁bag.": 5353,
      "▁Russian": 5354,
      "ner": 5355,
      "z.": 5356,
      "▁mont": 5357,
      "▁mix": 5358,
      "▁dream.": 5359,
      "asure": 5360,
      "icate": 5361,
      "acy": 5362,
      "▁and,": 5363,
      "▁None": 5364,
      "▁Lou": 5365,
      "ury": 5366,
      "▁down?": 5367,
      "▁guy's": 5368,
      "▁sched": 5369,
      "▁Jack!": 5370,
      "ney.": 5371,
      "▁Peter": 5372,
      "▁Clear": 5373,
      "▁ide": 5374,
      "rel": 5375,
      "▁cous": 5376,
      "▁Green": 5377,
      "▁area.": 5378,
      "▁Eu": 5379,
      "cel": 5380,
      "▁sees": 5381,
      "▁dial": 5382,
      "gging": 5383,
      "▁problem,": 5384,
      "exic": 5385,
      "▁Richard": 5386,
      "m?": 5387,
      "▁et": 5388,
      "ed...": 5389,
      "▁Ap": 5390,
      "▁stock": 5391,
      "▁Park": 5392,
      "▁Rain": 5393,
      "▁Je": 5394,
      "ra.": 5395,
      "▁\"P": 5396,
      "▁She'll": 5397,
      "▁good?": 5398,
      "▁amount": 5399,
      "▁'%": 5400,
      "ians": 5401,
      "▁played": 5402,
      "▁hard.": 5403,
      "ance,": 5404,
      "▁skill": 5405,
      "▁Velayudham": 5406,
      "▁sight": 5407,
      "▁lun": 5408,
      "▁often": 5409,
      "ics.": 5410,
      "ir.": 5411,
      "▁herself": 5412,
      "▁display": 5413,
      "▁staying": 5414,
      "▁biggest": 5415,
      "land.": 5416,
      "▁yeah?": 5417,
      "▁particular": 5418,
      "▁Things": 5419,
      "cious": 5420,
      "▁tit": 5421,
      "inary": 5422,
      "rend": 5423,
      "▁Won't": 5424,
      "▁Sand": 5425,
      "▁Bad": 5426,
      "▁Greet": 5427,
      "▁Vik": 5428,
      "▁much,": 5429,
      "▁river": 5430,
      "▁success": 5431,
      "can": 5432,
      "zen": 5433,
      "▁cart": 5434,
      "▁Opt": 5435,
      "▁Li": 5436,
      "▁Jud": 5437,
      "▁just,": 5438,
      "▁raised": 5439,
      "▁walked": 5440,
      "▁Princ": 5441,
      "▁transp": 5442,
      "BAR_": 5443,
      "b.": 5444,
      "give": 5445,
      "nel": 5446,
      "iness": 5447,
      "any": 5448,
      "▁Mam": 5449,
      "▁Mexic": 5450,
      "rill": 5451,
      "▁now...": 5452,
      "ations,": 5453,
      "▁where's": 5454,
      "ailed": 5455,
      "▁mind?": 5456,
      "▁stolen": 5457,
      "upt": 5458,
      "ons.": 5459,
      "▁lt": 5460,
      "▁Linc": 5461,
      "▁Eric": 5462,
      "▁Goodby": 5463,
      "▁switch": 5464,
      "▁turns": 5465,
      "▁opened": 5466,
      "▁wife,": 5467,
      "▁resc": 5468,
      "▁sleeping": 5469,
      "▁closer": 5470,
      "▁destin": 5471,
      "▁Queen": 5472,
      "▁surveill": 5473,
      "iy": 5474,
      "o's": 5475,
      "▁*": 5476,
      "▁sometim": 5477,
      "ator.": 5478,
      "▁reve": 5479,
      "▁lie.": 5480,
      "▁like?": 5481,
      "▁image": 5482,
      "▁Godd": 5483,
      "ipe": 5484,
      "▁hearing": 5485,
      "▁Chief": 5486,
      "▁assume": 5487,
      "▁Sir!": 5488,
      "▁bad,": 5489,
      "▁fit": 5490,
      "▁Work": 5491,
      "ayl": 5492,
      "▁Sister": 5493,
      "sel": 5494,
      "▁Boy": 5495,
      "illy": 5496,
      "▁Old": 5497,
      "iform": 5498,
      "▁rac": 5499,
      "▁boy,": 5500,
      "▁Inc": 5501,
      "▁starts": 5502,
      "▁Alad": 5503,
      "▁compet": 5504,
      "▁headed": 5505,
      "▁Sir.": 5506,
      "▁dad's": 5507,
      "▁Johnn": 5508,
      "licop": 5509,
      "▁door!": 5510,
      "▁Serious": 5511,
      "▁decision": 5512,
      "▁satell": 5513,
      "▁British": 5514,
      "▁mass": 5515,
      "▁Tran": 5516,
      "ary,": 5517,
      "▁Hard": 5518,
      "▁eff": 5519,
      "▁Bha": 5520,
      "▁rat": 5521,
      "▁actually.": 5522,
      "▁important.": 5523,
      "▁Michael,": 5524,
      "▁value": 5525,
      "arrass": 5526,
      "▁received": 5527,
      "3.": 5528,
      "col": 5529,
      "▁IT": 5530,
      "▁loud": 5531,
      "▁West": 5532,
      "▁Sn": 5533,
      "ash.": 5534,
      "▁Name": 5535,
      "▁talking.": 5536,
      "▁brother,": 5537,
      "▁power.": 5538,
      "▁Blood": 5539,
      "▁forever": 5540,
      "▁Quick": 5541,
      "▁yet,": 5542,
      "▁failed": 5543,
      "ounce": 5544,
      "in's": 5545,
      "▁merc": 5546,
      "▁heavy": 5547,
      "▁Sal": 5548,
      "▁Ma'": 5549,
      "us?": 5550,
      "▁17": 5551,
      "▁hell.": 5552,
      "▁Always": 5553,
      "in'.": 5554,
      "▁children.": 5555,
      "▁rule": 5556,
      "ey.": 5557,
      "nes": 5558,
      "esp": 5559,
      "▁Sant": 5560,
      "▁Dear": 5561,
      "▁Direct": 5562,
      "▁rev": 5563,
      "▁got?": 5564,
      "▁killer": 5565,
      "▁boy?": 5566,
      "▁prefer": 5567,
      "▁falling": 5568,
      "▁wondering": 5569,
      "▁fellow": 5570,
      "▁stupid.": 5571,
      "▁already.": 5572,
      "een.": 5573,
      "k!": 5574,
      "ply": 5575,
      "s\"": 5576,
      "▁source": 5577,
      "▁band": 5578,
      "▁north": 5579,
      "▁Tre": 5580,
      "▁Mos": 5581,
      "▁god.": 5582,
      "ential": 5583,
      "▁French": 5584,
      "▁first,": 5585,
      "▁strugg": 5586,
      "ER:": 5587,
      "▁directory": 5588,
      "▁impossible": 5589,
      "ses": 5590,
      "wood": 5591,
      "▁dont": 5592,
      "▁Sat": 5593,
      "▁City": 5594,
      "▁leaving.": 5595,
      "uclear": 5596,
      "▁paying": 5597,
      "▁forgott": 5598,
      "▁Robert": 5599,
      "▁nearly": 5600,
      "▁Control": 5601,
      "▁gentlemen,": 5602,
      "face": 5603,
      "iart": 5604,
      "▁sen": 5605,
      "▁sect": 5606,
      "ham.": 5607,
      "▁lying.": 5608,
      "▁pet": 5609,
      "▁ho": 5610,
      "▁aband": 5611,
      "▁like...": 5612,
      "▁finds": 5613,
      "▁smok": 5614,
      "▁attent": 5615,
      "▁open.": 5616,
      "▁Listen.": 5617,
      "▁uncle.": 5618,
      "ges": 5619,
      "ja": 5620,
      "men": 5621,
      "w.": 5622,
      "ors.": 5623,
      "▁three.": 5624,
      "▁init": 5625,
      "▁Had": 5626,
      "▁Aj": 5627,
      "aced": 5628,
      "▁repl": 5629,
      "▁not...": 5630,
      "▁Its": 5631,
      "▁Rache": 5632,
      "▁Feel": 5633,
      "il,": 5634,
      "one,": 5635,
      "▁everywhere.": 5636,
      "▁Where'd": 5637,
      "▁drunk": 5638,
      "▁serious.": 5639,
      "▁mother's": 5640,
      "▁mind,": 5641,
      "▁500": 5642,
      "▁respond": 5643,
      "▁hero.": 5644,
      "▁Shoot": 5645,
      "▁Pretty": 5646,
      "▁rescue": 5647,
      "ED": 5648,
      "▁helicop": 5649,
      "▁Bat": 5650,
      "▁staff": 5651,
      "▁Penn": 5652,
      "▁working.": 5653,
      "▁'A": 5654,
      "ine!": 5655,
      "▁poss": 5656,
      "▁$1": 5657,
      "▁demand": 5658,
      "▁product": 5659,
      "▁language": 5660,
      "-4": 5661,
      "ford": 5662,
      "▁vers": 5663,
      "▁nerv": 5664,
      "▁Tha": 5665,
      "▁hook": 5666,
      "▁Hank": 5667,
      "▁guns": 5668,
      "▁die?": 5669,
      "▁perfect.": 5670,
      "▁Serge": 5671,
      "▁floor.": 5672,
      "▁service": 5673,
      "CH": 5674,
      "ished.": 5675,
      "▁-D": 5676,
      "▁\"%": 5677,
      "▁Kate": 5678,
      "▁away?": 5679,
      "▁Stop!": 5680,
      "▁Comp": 5681,
      "▁shooting": 5682,
      "▁air.": 5683,
      "▁painting": 5684,
      "▁David": 5685,
      "▁Moriart": 5686,
      "▁empty": 5687,
      "▁embarrass": 5688,
      "AY": 5689,
      "ka": 5690,
      "▁sle": 5691,
      "▁sake": 5692,
      "▁hey": 5693,
      "▁unt": 5694,
      "ift.": 5695,
      "▁Thought": 5696,
      "▁KIT": 5697,
      "▁were.": 5698,
      "▁quit": 5699,
      "▁Hello!": 5700,
      "▁champ": 5701,
      "▁dreams": 5702,
      "▁attacked": 5703,
      "▁neighbor": 5704,
      "-year": 5705,
      "rict": 5706,
      "▁bust": 5707,
      "▁net": 5708,
      "▁knowled": 5709,
      "▁Ry": 5710,
      "▁qual": 5711,
      "▁friends,": 5712,
      "▁Charlott": 5713,
      "▁diamonds": 5714,
      "▁effort": 5715,
      "50": 5716,
      "I.": 5717,
      "▁win.": 5718,
      "vey": 5719,
      "▁Hanna": 5720,
      "▁CIA": 5721,
      "ird.": 5722,
      "▁note": 5723,
      "ros": 5724,
      "▁Whoever": 5725,
      "▁road.": 5726,
      "▁Intern": 5727,
      "▁Go.": 5728,
      "ful,": 5729,
      "▁Reg": 5730,
      "▁breathing": 5731,
      "▁arrived": 5732,
      "▁Ladies": 5733,
      "▁aud": 5734,
      "▁Mand": 5735,
      "▁Day": 5736,
      "▁ON": 5737,
      "▁staring": 5738,
      "▁Girl": 5739,
      "▁outta": 5740,
      "rav": 5741,
      "▁Either": 5742,
      "abet": 5743,
      "▁whoa,": 5744,
      "way.": 5745,
      "▁secure": 5746,
      "▁world's": 5747,
      "▁moon": 5748,
      "▁protocol": 5749,
      "▁Blue": 5750,
      "▁surprise": 5751,
      "▁clothes": 5752,
      "▁\"My": 5753,
      "▁bitch!": 5754,
      "▁Ow!": 5755,
      "▁Build": 5756,
      "▁strength": 5757,
      "▁Europ": 5758,
      "▁by.": 5759,
      "▁Wow!": 5760,
      "omp": 5761,
      "icious": 5762,
      "▁Off": 5763,
      "▁stab": 5764,
      "▁who?": 5765,
      "▁minister": 5766,
      "▁attract": 5767,
      "▁baby,": 5768,
      "▁brings": 5769,
      "▁Harry": 5770,
      "▁official": 5771,
      "▁flying": 5772,
      "▁filled": 5773,
      "▁Greg": 5774,
      "R.": 5775,
      "d,": 5776,
      "▁hidden": 5777,
      "▁saying,": 5778,
      "▁help!": 5779,
      "▁secret.": 5780,
      "day.": 5781,
      "▁disp": 5782,
      "ropol": 5783,
      "▁ruin": 5784,
      "▁pressure": 5785,
      "▁illeg": 5786,
      "US": 5787,
      "lu": 5788,
      "▁wave": 5789,
      "▁IN": 5790,
      "▁mask": 5791,
      "▁tool": 5792,
      "▁gas": 5793,
      "▁Tri": 5794,
      "▁Me?": 5795,
      "▁Pop": 5796,
      "▁they'd": 5797,
      "ages.": 5798,
      "▁Know": 5799,
      "▁boy!": 5800,
      "▁girls.": 5801,
      "▁wait!": 5802,
      "▁...and": 5803,
      "▁tonight,": 5804,
      "▁grandfather": 5805,
      "▁appears": 5806,
      "ini": 5807,
      "▁mob": 5808,
      "▁pant": 5809,
      "▁pig": 5810,
      "▁Snow": 5811,
      "▁weight": 5812,
      "▁Ey": 5813,
      "▁someone.": 5814,
      "▁sky": 5815,
      "▁crazy?": 5816,
      "▁Everything's": 5817,
      "▁amazing.": 5818,
      "▁original": 5819,
      "▁extreme": 5820,
      "-M": 5821,
      "c.": 5822,
      "f.": 5823,
      "▁site": 5824,
      "▁nort": 5825,
      "▁heaven": 5826,
      "▁releas": 5827,
      "▁Over.": 5828,
      "▁Paul": 5829,
      "▁Pint": 5830,
      "▁whoever": 5831,
      "▁off?": 5832,
      "▁goodby": 5833,
      "able,": 5834,
      "▁See?": 5835,
      "▁incre": 5836,
      "▁grandm": 5837,
      "▁weapon.": 5838,
      "▁strike": 5839,
      "▁Redding": 5840,
      "▁major": 5841,
      "-g": 5842,
      "O.": 5843,
      "UT": 5844,
      "iod": 5845,
      "▁bow": 5846,
      "▁font": 5847,
      "▁lak": 5848,
      "▁thro": 5849,
      "▁Sa": 5850,
      "▁Home": 5851,
      "▁Mess": 5852,
      "▁Mmm.": 5853,
      "▁Cas": 5854,
      "▁BE": 5855,
      "▁Lady": 5856,
      "antic": 5857,
      "are.": 5858,
      "▁come?": 5859,
      "▁Sheriff": 5860,
      "▁help?": 5861,
      "▁uniform": 5862,
      "▁won't.": 5863,
      "▁life?": 5864,
      "▁dead?": 5865,
      "▁message.": 5866,
      "▁Tomorrow": 5867,
      "▁Steve": 5868,
      "▁behavi": 5869,
      "▁battle": 5870,
      "▁barely": 5871,
      "OL": 5872,
      "cul": 5873,
      "de": 5874,
      "uch": 5875,
      "et!": 5876,
      "▁Fair": 5877,
      "▁think,": 5878,
      "▁So?": 5879,
      "▁remote": 5880,
      "▁crow": 5881,
      "▁minute,": 5882,
      "▁turning": 5883,
      "▁dad,": 5884,
      "▁gone,": 5885,
      "▁60": 5886,
      "AN:": 5887,
      "▁White": 5888,
      "▁weapons": 5889,
      "▁Colone": 5890,
      "▁kingdom": 5891,
      "-in-law.": 5892,
      "▁convince": 5893,
      "▁Metropol": 5894,
      "AM": 5895,
      "ible.": 5896,
      "▁borrow": 5897,
      "▁fought": 5898,
      "ots.": 5899,
      "arn": 5900,
      "am?": 5901,
      "ech": 5902,
      "astic": 5903,
      "▁mean...": 5904,
      "▁quiet.": 5905,
      "▁showing": 5906,
      "▁attention": 5907,
      "▁trip": 5908,
      "▁hot.": 5909,
      "▁simply": 5910,
      "▁Emily": 5911,
      "▁Baby,": 5912,
      "▁alive,": 5913,
      "▁disappoint": 5914,
      "th,": 5915,
      "▁ment": 5916,
      "itions": 5917,
      "▁Sen": 5918,
      "▁Him": 5919,
      "▁Cons": 5920,
      "▁Andrew": 5921,
      "▁Kate.": 5922,
      "▁somewhere.": 5923,
      "aren": 5924,
      "▁spee": 5925,
      "▁screen": 5926,
      "▁understand,": 5927,
      "▁warm": 5928,
      "▁Oh...": 5929,
      "▁names": 5930,
      "▁express": 5931,
      "▁specific": 5932,
      "▁drive.": 5933,
      "▁capable": 5934,
      "▁quickly.": 5935,
      "▁occur": 5936,
      "▁document": 5937,
      "s)": 5938,
      "▁Chi": 5939,
      "▁Coop": 5940,
      "▁Luck": 5941,
      "▁Rock": 5942,
      "▁me.\"": 5943,
      "▁guys?": 5944,
      "ered.": 5945,
      "▁Marg": 5946,
      "▁building.": 5947,
      "▁\"We": 5948,
      "▁box.": 5949,
      "▁emergency": 5950,
      "▁Mm-hmm.": 5951,
      "▁possibly": 5952,
      "'all": 5953,
      "cy": 5954,
      "xt.": 5955,
      "▁Wil": 5956,
      "▁that..": 5957,
      "▁Mike.": 5958,
      "▁area": 5959,
      "▁all?": 5960,
      "apt": 5961,
      "▁Star": 5962,
      "ever,": 5963,
      "▁stayed": 5964,
      "▁daughter?": 5965,
      "▁window.": 5966,
      "▁Sund": 5967,
      "▁along.": 5968,
      "▁certainly": 5969,
      "▁feet.": 5970,
      "▁Watson.": 5971,
      "time": 5972,
      "▁IS": 5973,
      "ha.": 5974,
      "▁mic": 5975,
      "▁Sel": 5976,
      "▁Hi": 5977,
      "▁Az": 5978,
      "▁yours?": 5979,
      "▁Oli": 5980,
      "iled": 5981,
      "▁worse.": 5982,
      "▁Forgive": 5983,
      "▁attack.": 5984,
      "▁fixed": 5985,
      "▁brill": 5986,
      "▁dry": 5987,
      "▁Wr": 5988,
      "▁hey.": 5989,
      "▁Shar": 5990,
      "▁invent": 5991,
      "...!": 5992,
      "▁Mer": 5993,
      "▁Night": 5994,
      "▁don't...": 5995,
      "▁shout": 5996,
      "▁grown": 5997,
      "▁bug": 5998,
      "▁assoc": 5999,
      "▁chose": 6000,
      "▁checked": 6001,
      "▁priest": 6002,
      "▁ladies": 6003,
      "▁Christm": 6004,
      "▁yesterday.": 6005,
      "▁reason.": 6006,
      "▁Chinese": 6007,
      "-n": 6008,
      "ey,": 6009,
      "ras": 6010,
      "▁wire": 6011,
      "▁lap": 6012,
      "▁Ca": 6013,
      "▁D.": 6014,
      "umber": 6015,
      "▁lovely": 6016,
      "izing": 6017,
      "▁Shre": 6018,
      "▁..I": 6019,
      "ail.": 6020,
      "▁commit": 6021,
      "▁passport": 6022,
      "▁member": 6023,
      "▁Fuck!": 6024,
      "▁Fucking": 6025,
      "▁excit": 6026,
      "▁convinc": 6027,
      "▁Majest": 6028,
      "▁large": 6029,
      "▁rich": 6030,
      "▁sacrif": 6031,
      "▁spirit": 6032,
      "IM": 6033,
      "con": 6034,
      "▁tip": 6035,
      "hel": 6036,
      "▁bright": 6037,
      "▁link": 6038,
      "▁Ba": 6039,
      "▁for,": 6040,
      "▁joke": 6041,
      "▁age": 6042,
      "▁happening.": 6043,
      "▁water,": 6044,
      "▁plan?": 6045,
      "▁dece": 6046,
      "▁motherfuck": 6047,
      "▁chief": 6048,
      "▁Like,": 6049,
      "▁evacu": 6050,
      "▁leader": 6051,
      "▁tracking": 6052,
      "▁belongs": 6053,
      "▁princess": 6054,
      "▁divor": 6055,
      "▁Shann": 6056,
      "9.": 6057,
      "side": 6058,
      "t,": 6059,
      "zing": 6060,
      "▁=": 6061,
      "▁dirty": 6062,
      "esh": 6063,
      "▁door,": 6064,
      "▁stair": 6065,
      "▁Hel": 6066,
      "▁from.": 6067,
      "erson": 6068,
      "▁US": 6069,
      "udhe": 6070,
      "▁cars": 6071,
      "▁buried": 6072,
      "▁Except": 6073,
      "▁seemed": 6074,
      "▁pretend": 6075,
      "▁murder.": 6076,
      "▁pain.": 6077,
      "▁disturb": 6078,
      "▁breath": 6079,
      "▁blew": 6080,
      "-B": 6081,
      "▁yes": 6082,
      "▁mood": 6083,
      "▁dump": 6084,
      "▁nuclear": 6085,
      "▁-M": 6086,
      "▁port": 6087,
      "▁Nic": 6088,
      "▁Jason": 6089,
      "▁Though": 6090,
      "ush.": 6091,
      "▁Class": 6092,
      "▁lots": 6093,
      "▁Almost": 6094,
      "▁Brand": 6095,
      "▁turn.": 6096,
      "▁problems": 6097,
      "▁pattern": 6098,
      "▁shit,": 6099,
      "▁valu": 6100,
      "▁thousands": 6101,
      "▁amazing": 6102,
      "_BAR_": 6103,
      "cher": 6104,
      "mar": 6105,
      "ped": 6106,
      "▁these.": 6107,
      "▁giant": 6108,
      "▁Sil": 6109,
      "▁Count": 6110,
      "▁upd": 6111,
      "▁And...": 6112,
      "▁try.": 6113,
      "▁seat.": 6114,
      "▁much?": 6115,
      "▁..but": 6116,
      "▁..that": 6117,
      "▁_C": 6118,
      "▁family?": 6119,
      "▁Seven": 6120,
      "▁lady.": 6121,
      "▁Phil": 6122,
      "▁Roger": 6123,
      "▁elder": 6124,
      "▁tab": 6125,
      "▁mile": 6126,
      "▁cy": 6127,
      "▁lam": 6128,
      "▁hug": 6129,
      "▁Aunt": 6130,
      "▁North": 6131,
      "▁forced": 6132,
      "igare": 6133,
      "▁Ver": 6134,
      "▁evening.": 6135,
      "▁before?": 6136,
      "▁head,": 6137,
      "▁eyes,": 6138,
      "▁fru": 6139,
      "▁weekend": 6140,
      "▁Harris": 6141,
      "▁moment,": 6142,
      "▁profession": 6143,
      "▁avoid": 6144,
      "▁brief": 6145,
      "▁Jacob": 6146,
      "igarett": 6147,
      ",\"": 6148,
      "ai.": 6149,
      "bel": 6150,
      "ising": 6151,
      "imum": 6152,
      "▁Dem": 6153,
      "hern": 6154,
      "▁Jon": 6155,
      "▁Jer": 6156,
      "▁asleep": 6157,
      "▁one!": 6158,
      "▁going,": 6159,
      "▁univer": 6160,
      "ment?": 6161,
      "▁coffe": 6162,
      "▁drill": 6163,
      "▁crap": 6164,
      "▁hunting": 6165,
      "▁truly": 6166,
      "print": 6167,
      "S)": 6168,
      "ees": 6169,
      "▁shirt": 6170,
      "▁stay.": 6171,
      "▁mission.": 6172,
      "▁break.": 6173,
      "▁speaking": 6174,
      "▁murdere": 6175,
      "▁forest": 6176,
      "▁Jenny.": 6177,
      "▁Charlie,": 6178,
      "▁equip": 6179,
      "▁plugins": 6180,
      "ville": 6181,
      "▁Hmm?": 6182,
      "▁Whether": 6183,
      "6.": 6184,
      "down": 6185,
      "▁boo": 6186,
      "▁fem": 6187,
      "▁S.": 6188,
      "aces": 6189,
      "▁Nort": 6190,
      "ope.": 6191,
      "▁seal": 6192,
      "▁year,": 6193,
      "▁hell?": 6194,
      "▁surround": 6195,
      "▁changed.": 6196,
      "olution": 6197,
      "▁hanging": 6198,
      "▁connection": 6199,
      "ique": 6200,
      "▁technolog": 6201,
      "ton.": 6202,
      "uel": 6203,
      "ym": 6204,
      "▁rom": 6205,
      "▁tall": 6206,
      "▁bal": 6207,
      "▁bord": 6208,
      "▁fan": 6209,
      "▁Tayl": 6210,
      "▁pool": 6211,
      "▁Fine,": 6212,
      "▁says,": 6213,
      "▁someone's": 6214,
      "▁missing.": 6215,
      "▁restaur": 6216,
      "▁robber": 6217,
      "▁Jesus.": 6218,
      "mbol": 6219,
      "RI": 6220,
      "gy": 6221,
      "mit": 6222,
      "mber": 6223,
      "shi": 6224,
      "▁,": 6225,
      "▁ast": 6226,
      "▁oil": 6227,
      "▁inspect": 6228,
      "uten": 6229,
      "▁ep": 6230,
      "▁Gar": 6231,
      "▁lies": 6232,
      "ee,": 6233,
      "opt": 6234,
      "▁nose": 6235,
      "age?": 6236,
      "▁Sir?": 6237,
      "▁listen,": 6238,
      "▁i'm": 6239,
      "▁farm": 6240,
      "▁distract": 6241,
      "▁alone,": 6242,
      "▁advant": 6243,
      "▁Desktop": 6244,
      "▁bottom": 6245,
      "▁fortun": 6246,
      "ns": 6247,
      "▁¶": 6248,
      "hest": 6249,
      "▁Benn": 6250,
      "▁Nat": 6251,
      "▁Gand": 6252,
      "▁Full": 6253,
      "raw": 6254,
      "▁shell": 6255,
      "▁deb": 6256,
      "▁attend": 6257,
      "▁ends": 6258,
      "▁both.": 6259,
      "▁rescu": 6260,
      "▁relax": 6261,
      "▁Program": 6262,
      "▁pulling": 6263,
      "solutely.": 6264,
      "`t": 6265,
      "like": 6266,
      "▁south": 6267,
      "ings,": 6268,
      "▁gate": 6269,
      "▁-B": 6270,
      "▁Yö": 6271,
      "▁You.": 6272,
      "▁Mir": 6273,
      "▁Lor": 6274,
      "▁Los": 6275,
      "hold": 6276,
      "▁got.": 6277,
      "▁trapped": 6278,
      "▁shows": 6279,
      "▁famous": 6280,
      "▁whis": 6281,
      "▁million.": 6282,
      "▁obviously": 6283,
      "▁exchan": 6284,
      "▁James": 6285,
      "▁designed": 6286,
      "▁chicken": 6287,
      "▁citiz": 6288,
      "-S": 6289,
      "B.": 6290,
      "cle.": 6291,
      "rish": 6292,
      "▁tens": 6293,
      "▁fian": 6294,
      "▁oh": 6295,
      "▁hid": 6296,
      "▁Hot": 6297,
      "▁Mumb": 6298,
      "▁Grab": 6299,
      "▁anc": 6300,
      "▁Edd": 6301,
      "▁shift": 6302,
      "▁there...": 6303,
      "▁\"E": 6304,
      "uman": 6305,
      "▁spades": 6306,
      "▁day?": 6307,
      "iple": 6308,
      "▁appoint": 6309,
      "▁yourself?": 6310,
      "▁password": 6311,
      "▁president": 6312,
      "▁twice": 6313,
      "▁dollar": 6314,
      "▁duty": 6315,
      "▁reveal": 6316,
      "sk": 6317,
      "▁wha": 6318,
      "ert.": 6319,
      "▁fate": 6320,
      "▁gri": 6321,
      "▁DNA": 6322,
      "amed": 6323,
      "▁Fel": 6324,
      "▁kid,": 6325,
      "ency.": 6326,
      "▁order.": 6327,
      "▁fully": 6328,
      "▁Father,": 6329,
      "▁purpose": 6330,
      "xyg": 6331,
      "▁Lincol": 6332,
      "-T": 6333,
      "uf": 6334,
      "▁bi": 6335,
      "▁fant": 6336,
      "▁beach.": 6337,
      "▁web": 6338,
      "▁doors": 6339,
      "▁soon,": 6340,
      "▁worri": 6341,
      "▁expens": 6342,
      "arden": 6343,
      "▁spell": 6344,
      "▁There.": 6345,
      "▁start.": 6346,
      "▁started.": 6347,
      "▁bottle": 6348,
      "▁impro": 6349,
      "▁prior": 6350,
      "▁Brother.": 6351,
      "▁elev": 6352,
      "▁\"Your": 6353,
      "▁coinc": 6354,
      "▁sin": 6355,
      "oring": 6356,
      "▁Tex": 6357,
      "ale.": 6358,
      "▁Part": 6359,
      "▁lets": 6360,
      "▁Guard": 6361,
      "fully.": 6362,
      "▁agreed": 6363,
      "▁surprised": 6364,
      "▁Benj": 6365,
      "▁benef": 6366,
      "▁noticed": 6367,
      "▁available": 6368,
      "▁Besides,": 6369,
      "▁tank": 6370,
      "▁sour": 6371,
      "▁curi": 6372,
      "▁lf": 6373,
      "iday": 6374,
      "▁Catch": 6375,
      "▁stars": 6376,
      "▁Port": 6377,
      "chieve": 6378,
      "▁Each": 6379,
      "ive,": 6380,
      "ives": 6381,
      "▁been?": 6382,
      "▁'S": 6383,
      "▁again!": 6384,
      "▁hand,": 6385,
      "▁part.": 6386,
      "▁Stop,": 6387,
      "▁William": 6388,
      "▁instruct": 6389,
      "▁Sam,": 6390,
      "▁Martin": 6391,
      "▁situation.": 6392,
      "▁application": 6393,
      "▁suddenly": 6394,
      "viron": 6395,
      "▁Caes": 6396,
      "-old": 6397,
      "ID": 6398,
      "▁sout": 6399,
      "▁gear": 6400,
      "▁pair": 6401,
      "idence": 6402,
      "oose.": 6403,
      "ill.": 6404,
      "▁rent": 6405,
      "▁have?": 6406,
      "▁Prom": 6407,
      "▁degre": 6408,
      "quer": 6409,
      "ick,": 6410,
      "though": 6411,
      "ize.": 6412,
      "▁(S": 6413,
      "▁baby?": 6414,
      "▁incident": 6415,
      "▁mistak": 6416,
      "▁\"What": 6417,
      "▁Captain,": 6418,
      "▁places": 6419,
      "▁hair.": 6420,
      "▁dinner.": 6421,
      "▁carrying": 6422,
      "▁prepared": 6423,
      "▁Slow": 6424,
      "▁safety": 6425,
      "▁coffee.": 6426,
      "-st": 6427,
      "sl": 6428,
      "▁wol": 6429,
      "▁oh,": 6430,
      "▁Cour": 6431,
      "▁out...": 6432,
      "▁works.": 6433,
      "▁blast": 6434,
      "▁watch.": 6435,
      "▁heads": 6436,
      "▁picking": 6437,
      "▁officer": 6438,
      "▁Change": 6439,
      "▁afford": 6440,
      "▁Professor": 6441,
      "-a": 6442,
      "ual.": 6443,
      "▁bound": 6444,
      "▁fulf": 6445,
      "▁hitting": 6446,
      "▁on...": 6447,
      "el?": 6448,
      "▁Whoa.": 6449,
      "▁price": 6450,
      "spir": 6451,
      "▁play.": 6452,
      "▁assum": 6453,
      "▁eye.": 6454,
      "▁business,": 6455,
      "▁information.": 6456,
      "▁device": 6457,
      "▁anyway?": 6458,
      "▁rules": 6459,
      "ofield": 6460,
      "▁alright.": 6461,
      "▁research": 6462,
      "ium": 6463,
      "let": 6464,
      "my.": 6465,
      "ashed": 6466,
      "▁beach": 6467,
      "▁hours,": 6468,
      "▁scene": 6469,
      "▁Walter": 6470,
      "▁kidnapped": 6471,
      "▁World": 6472,
      "!\"": 6473,
      "▁wand": 6474,
      "▁loose": 6475,
      "▁While": 6476,
      "▁Tim": 6477,
      "▁Hall": 6478,
      "▁Med": 6479,
      "▁Meen": 6480,
      "ant?": 6481,
      "▁lover": 6482,
      "▁whenever": 6483,
      "ference": 6484,
      "▁meaning": 6485,
      "▁thought.": 6486,
      "▁comprom": 6487,
      "▁percent": 6488,
      "▁desper": 6489,
      "▁sister's": 6490,
      "▁fired": 6491,
      "▁obvious": 6492,
      "▁highly": 6493,
      "▁Previously": 6494,
      "▁study": 6495,
      "▁gentlemen.": 6496,
      ":00.": 6497,
      "▁natural": 6498,
      "▁introduce": 6499,
      "▁schedul": 6500,
      "▁cigarett": 6501,
      "▁Wat": 6502,
      "▁threw": 6503,
      "ased": 6504,
      "▁Da": 6505,
      "▁Ok": 6506,
      "tering": 6507,
      "▁coming,": 6508,
      "ission": 6509,
      "▁girl's": 6510,
      "▁assass": 6511,
      "▁Excell": 6512,
      "▁pleasure": 6513,
      "▁room,": 6514,
      "▁favour": 6515,
      "▁market": 6516,
      "▁hungry.": 6517,
      "▁Sure,": 6518,
      "▁autom": 6519,
      "▁opportunity": 6520,
      "▁Load": 6521,
      "EM": 6522,
      "IR": 6523,
      "LA": 6524,
      "▁ic": 6525,
      "▁achieve": 6526,
      "▁Imp": 6527,
      "▁din": 6528,
      "▁lunch": 6529,
      "▁Wond": 6530,
      "▁Yo,": 6531,
      "acy.": 6532,
      "▁Lar": 6533,
      "▁Files": 6534,
      "▁shr": 6535,
      "▁us...": 6536,
      "▁Whose": 6537,
      "▁Van": 6538,
      "▁Seems": 6539,
      "itional": 6540,
      "▁Prem.": 6541,
      "▁parents.": 6542,
      "▁details": 6543,
      "▁judge": 6544,
      "▁plugin": 6545,
      "▁taste": 6546,
      "▁pilot": 6547,
      "▁Believe": 6548,
      "lim": 6549,
      "ps.": 6550,
      "van": 6551,
      "▁Wid": 6552,
      "▁HE": 6553,
      "▁OF": 6554,
      "▁Rick": 6555,
      "▁guarant": 6556,
      "▁Yeah": 6557,
      "▁ways": 6558,
      "▁class.": 6559,
      "▁things,": 6560,
      "▁more,": 6561,
      "▁'H": 6562,
      "olly": 6563,
      "▁controll": 6564,
      "iction": 6565,
      "▁faster": 6566,
      "▁Chaud": 6567,
      "▁Such": 6568,
      "▁Actually": 6569,
      "▁regular": 6570,
      "▁animals": 6571,
      "▁manager": 6572,
      "▁Drink": 6573,
      "▁energy": 6574,
      "'c": 6575,
      "30": 6576,
      "▁nature": 6577,
      "▁Tur": 6578,
      "om,": 6579,
      "▁SH": 6580,
      "as?": 6581,
      "ically,": 6582,
      "▁Bos": 6583,
      "▁analy": 6584,
      "▁sail": 6585,
      "▁she'd": 6586,
      "▁defe": 6587,
      "▁Vinc": 6588,
      "▁below": 6589,
      "▁car!": 6590,
      "▁plans": 6591,
      "▁mother,": 6592,
      "▁accompl": 6593,
      "▁powers": 6594,
      "▁easier": 6595,
      "▁Scott": 6596,
      "▁Project": 6597,
      "▁deli": 6598,
      "▁directly": 6599,
      "▁truck.": 6600,
      "▁horse": 6601,
      "▁ticket": 6602,
      "▁remembe": 6603,
      "▁corrupt": 6604,
      "▁Security": 6605,
      "▁Special": 6606,
      "▁forgotten": 6607,
      "▁list.": 6608,
      "ative.": 6609,
      "▁Ac": 6610,
      "▁You?": 6611,
      "▁Men": 6612,
      "▁Cho": 6613,
      "▁Cool": 6614,
      "▁know!": 6615,
      "ist,": 6616,
      "us!": 6617,
      "▁ourselves": 6618,
      "▁spok": 6619,
      "▁boot": 6620,
      "▁..then": 6621,
      "▁according": 6622,
      "▁remember,": 6623,
      "▁week,": 6624,
      "▁phone,": 6625,
      "▁danger.": 6626,
      "▁Hey...": 6627,
      "▁wedding.": 6628,
      "▁Second": 6629,
      "▁idiot.": 6630,
      "▁\"Oh": 6631,
      "▁Ready?": 6632,
      "▁true,": 6633,
      "▁department": 6634,
      "▁bastard": 6635,
      "eed.": 6636,
      "ness,": 6637,
      "▁wid": 6638,
      "▁mult": 6639,
      "iss.": 6640,
      "▁grew": 6641,
      "ach,": 6642,
      "▁Mat": 6643,
      "▁Mem": 6644,
      "oo.": 6645,
      "▁Ber": 6646,
      "▁Gur": 6647,
      "▁Lat": 6648,
      "eak.": 6649,
      "▁Ron": 6650,
      "▁Good,": 6651,
      "▁adopt": 6652,
      "▁guns.": 6653,
      "▁daughter,": 6654,
      "▁relax.": 6655,
      "▁clearly": 6656,
      "▁former": 6657,
      "▁alive?": 6658,
      "▁bodies": 6659,
      "▁circum": 6660,
      "▁iron": 6661,
      "▁London": 6662,
      "▁Murp": 6663,
      "▁Exactly.": 6664,
      "▁month.": 6665,
      "ue,": 6666,
      "oud.": 6667,
      "▁daw": 6668,
      "▁Squ": 6669,
      "▁ME": 6670,
      "▁Matt": 6671,
      "▁Nin": 6672,
      "▁Dark": 6673,
      "▁rough": 6674,
      "▁State": 6675,
      "▁unp": 6676,
      "▁watched": 6677,
      "▁flood": 6678,
      "▁ever.": 6679,
      "▁perhaps": 6680,
      "▁ended": 6681,
      "▁committed": 6682,
      "▁camp.": 6683,
      "▁marriage.": 6684,
      "▁regret": 6685,
      "▁Conn": 6686,
      "▁Rohan": 6687,
      "▁experi": 6688,
      "▁code.": 6689,
      "▁Apparent": 6690,
      "▁Papa": 6691,
      "▁prepare": 6692,
      "▁upset": 6693,
      "-se": 6694,
      "bl": 6695,
      "▁winn": 6696,
      "hand": 6697,
      "is?": 6698,
      "▁bes": 6699,
      "▁-L": 6700,
      "ar?": 6701,
      "▁kil": 6702,
      "▁ug": 6703,
      "▁eat.": 6704,
      "▁Bor": 6705,
      "ments.": 6706,
      "▁found.": 6707,
      "▁tomorrow,": 6708,
      "▁determ": 6709,
      "▁electric": 6710,
      "▁billion": 6711,
      "▁nonsense": 6712,
      "AD": 6713,
      "AL": 6714,
      "uj": 6715,
      "▁Till": 6716,
      "▁Hail": 6717,
      "▁Alp": 6718,
      "▁Mus": 6719,
      "▁Ben.": 6720,
      "▁Gun": 6721,
      "▁\"J": 6722,
      "▁Kitt": 6723,
      "▁everywhere": 6724,
      "▁peace.": 6725,
      "▁'B": 6726,
      "▁scr": 6727,
      "▁enough,": 6728,
      "▁chair": 6729,
      "▁John?": 6730,
      "▁relative": 6731,
      "▁answer.": 6732,
      "▁earn": 6733,
      "▁defend": 6734,
      "▁wall.": 6735,
      "▁grav": 6736,
      "▁experience": 6737,
      "▁McC": 6738,
      "itude": 6739,
      "▁opin": 6740,
      "20": 6741,
      "VER": 6742,
      "ya,": 6743,
      "inst": 6744,
      "▁ID": 6745,
      "▁weird.": 6746,
      "▁Bro": 6747,
      "▁Bus": 6748,
      "▁Deep": 6749,
      "irt.": 6750,
      "y.\"": 6751,
      "▁knif": 6752,
      "▁Friend": 6753,
      "arthi": 6754,
      "aked": 6755,
      "▁Just...": 6756,
      "▁uns": 6757,
      "▁Inter": 6758,
      "ep.": 6759,
      "▁Shh.": 6760,
      "▁long,": 6761,
      "▁long?": 6762,
      "▁fucked": 6763,
      "▁warning": 6764,
      "ance?": 6765,
      "uced": 6766,
      "▁luck,": 6767,
      "▁officer.": 6768,
      "▁Eliz": 6769,
      "▁ahead,": 6770,
      "▁total": 6771,
      "▁managed": 6772,
      "▁alright?": 6773,
      "▁sweetheart.": 6774,
      "▁Yöu": 6775,
      "wic": 6776,
      "▁tig": 6777,
      "it's": 6778,
      "ity?": 6779,
      "etch": 6780,
      "ase.": 6781,
      "▁Best": 6782,
      "▁Ran": 6783,
      "▁Rang": 6784,
      "unk.": 6785,
      "▁Eri": 6786,
      "▁so?": 6787,
      "▁no?": 6788,
      "▁mean.": 6789,
      "▁Vir": 6790,
      "▁2.": 6791,
      "▁checking": 6792,
      "▁Absolutely.": 6793,
      "▁keys": 6794,
      "▁horri": 6795,
      "▁parking": 6796,
      "▁punish": 6797,
      "▁alien": 6798,
      "'T": 6799,
      "▁You...": 6800,
      "▁Meet": 6801,
      "▁Lie": 6802,
      "▁next.": 6803,
      "▁no...": 6804,
      "ulation": 6805,
      "▁saying.": 6806,
      "▁am,": 6807,
      "▁time!": 6808,
      "▁then...": 6809,
      "▁sure,": 6810,
      "▁else,": 6811,
      "▁entered": 6812,
      "▁Mom!": 6813,
      "▁interrupt": 6814,
      "▁arms": 6815,
      "▁Need": 6816,
      "▁Suri": 6817,
      "▁Ramon": 6818,
      "▁Claire.": 6819,
      "▁Juliet": 6820,
      "▁beginning": 6821,
      "▁Duke": 6822,
      "▁Kabadd": 6823,
      "-year-old": 6824,
      "E:": 6825,
      "OS": 6826,
      "pat": 6827,
      "ration": 6828,
      "▁esp": 6829,
      "ites": 6830,
      "▁cong": 6831,
      "▁Pass": 6832,
      "▁Roy": 6833,
      "aged": 6834,
      "▁\"R": 6835,
      "▁ask.": 6836,
      "▁..the": 6837,
      "▁brother's": 6838,
      "▁_S": 6839,
      "▁serge": 6840,
      "▁desktop": 6841,
      "▁syn": 6842,
      "▁copy": 6843,
      "▁consult": 6844,
      "▁Father.": 6845,
      "▁bury": 6846,
      "▁jungle": 6847,
      "8.": 6848,
      "c,": 6849,
      "ts": 6850,
      "or!": 6851,
      "▁lone": 6852,
      "▁liter": 6853,
      "▁Wom": 6854,
      "▁nand": 6855,
      "▁Tor": 6856,
      "▁weather": 6857,
      "▁stood": 6858,
      "lyn": 6859,
      "ur.": 6860,
      "▁what.": 6861,
      "▁rang": 6862,
      "els.": 6863,
      "▁Kid": 6864,
      "▁plat": 6865,
      "▁brid": 6866,
      "▁prevent": 6867,
      "▁trap": 6868,
      "▁show.": 6869,
      "▁difference.": 6870,
      "ancy": 6871,
      "▁words.": 6872,
      "▁everyone's": 6873,
      "▁millions": 6874,
      "▁fallen": 6875,
      "▁interesting": 6876,
      "▁security.": 6877,
      "▁operation": 6878,
      "▁birthday.": 6879,
      "▁educ": 6880,
      "▁urg": 6881,
      "▁Doug": 6882,
      "▁Hands": 6883,
      "IL": 6884,
      "cra": 6885,
      "ces.": 6886,
      "iest": 6887,
      "ier.": 6888,
      "▁wreck": 6889,
      "▁date.": 6890,
      "▁Tam": 6891,
      "▁Summ": 6892,
      "▁Av": 6893,
      "▁street.": 6894,
      "ira": 6895,
      "ly...": 6896,
      "▁Fore": 6897,
      "▁Form": 6898,
      "▁shel": 6899,
      "ava": 6900,
      "▁recomm": 6901,
      "▁left,": 6902,
      "▁clean.": 6903,
      "gram.": 6904,
      "▁Haven't": 6905,
      "▁Desmond": 6906,
      "▁journey": 6907,
      "2,": 6908,
      "P.": 6909,
      "kes": 6910,
      "▁talent": 6911,
      "hew": 6912,
      "▁cree": 6913,
      "▁gather": 6914,
      "▁lt's": 6915,
      "▁page": 6916,
      "▁oxyg": 6917,
      "▁Sk": 6918,
      "▁east": 6919,
      "▁Dar": 6920,
      "▁Dave": 6921,
      "▁Lis": 6922,
      "▁not!": 6923,
      "▁thinking.": 6924,
      "▁becoming": 6925,
      "▁Init": 6926,
      "▁planet.": 6927,
      "▁permission": 6928,
      "▁coming!": 6929,
      "▁fire!": 6930,
      "▁201": 6931,
      "▁past.": 6932,
      "▁status": 6933,
      "▁machine.": 6934,
      "▁-Yea": 6935,
      "▁solut": 6936,
      "▁German": 6937,
      "▁Instead": 6938,
      "▁split": 6939,
      "▁gradu": 6940,
      "▁transport": 6941,
      "▁attention.": 6942,
      "▁extremely": 6943,
      "cast": 6944,
      "da": 6945,
      "rough": 6946,
      "▁tong": 6947,
      "▁covered": 6948,
      "▁mechan": 6949,
      "adem": 6950,
      "▁Rome": 6951,
      "ili": 6952,
      "▁plenty": 6953,
      "▁themselves": 6954,
      "essed": 6955,
      "ress?": 6956,
      "▁hell's": 6957,
      "▁rare": 6958,
      "▁hope.": 6959,
      "▁signal.": 6960,
      "▁easy,": 6961,
      "▁Neither": 6962,
      "▁beginn": 6963,
      "▁bomb.": 6964,
      "▁sneak": 6965,
      "▁Again": 6966,
      "▁System": 6967,
      "▁Daddy!": 6968,
      "▁fuel": 6969,
      "▁Alright.": 6970,
      "▁scene.": 6971,
      "▁judg": 6972,
      "▁mouth.": 6973,
      "▁license": 6974,
      "▁circumst": 6975,
      "lin.": 6976,
      "line.": 6977,
      "x.": 6978,
      "▁Iris": 6979,
      "onna": 6980,
      "▁pir": 6981,
      "▁o'c": 6982,
      "▁ST": 6983,
      "ades.": 6984,
      "▁Ling": 6985,
      "▁Liz": 6986,
      "▁Fort": 6987,
      "ilar": 6988,
      "▁No?": 6989,
      "▁Egg": 6990,
      "▁did?": 6991,
      "rypt": 6992,
      "▁Unable": 6993,
      "▁flat": 6994,
      "▁great,": 6995,
      "▁served": 6996,
      "▁Ready": 6997,
      "▁job?": 6998,
      "▁Scofield": 6999,
      "▁point,": 7000,
      "▁magn": 7001,
      "▁robot": 7002,
      "▁Alex.": 7003,
      "▁decision.": 7004,
      "▁admit": 7005,
      "▁Current": 7006,
      "▁breakfast": 7007,
      "▁==": 7008,
      "▁aim": 7009,
      "ism": 7010,
      "▁Tem": 7011,
      "▁Bull": 7012,
      "▁Bang": 7013,
      "▁Gentlem": 7014,
      "▁don't,": 7015,
      "▁abs": 7016,
      "▁coming?": 7017,
      "▁score": 7018,
      "ine?": 7019,
      "▁prison.": 7020,
      "▁Amand": 7021,
      "▁mother?": 7022,
      "▁heart,": 7023,
      "▁sister,": 7024,
      "▁file.": 7025,
      "▁detective": 7026,
      "▁profile": 7027,
      "▁Aaron.": 7028,
      "▁birds": 7029,
      "▁darling.": 7030,
      "▁higher": 7031,
      "▁Cooper.": 7032,
      "ez": 7033,
      "ee.": 7034,
      "s:": 7035,
      "reate": 7036,
      "ans.": 7037,
      "▁fal": 7038,
      "▁gift.": 7039,
      "▁healt": 7040,
      "key.": 7041,
      "amb": 7042,
      "▁stret": 7043,
      "▁myster": 7044,
      "▁Land": 7045,
      "▁Lab": 7046,
      "▁Life": 7047,
      "▁canc": 7048,
      "▁ju": 7049,
      "▁jew": 7050,
      "ack.": 7051,
      "▁rit": 7052,
      "osit": 7053,
      "ateg": 7054,
      "▁1.": 7055,
      "▁season": 7056,
      "▁desert": 7057,
      "ancho": 7058,
      "▁foreign": 7059,
      "▁THAT": 7060,
      "▁Fuck.": 7061,
      "▁expecting": 7062,
      "▁student": 7063,
      "▁Serv": 7064,
      "▁property": 7065,
      "▁selling": 7066,
      "▁histor": 7067,
      "▁mentioned": 7068,
      "▁Thomas": 7069,
      "▁ambul": 7070,
      "-W": 7071,
      "RA": 7072,
      "thy": 7073,
      "▁I..": 7074,
      "omes": 7075,
      "▁Ari": 7076,
      "ices.": 7077,
      "▁Me,": 7078,
      "▁CH": 7079,
      "▁can,": 7080,
      "▁P.": 7081,
      "▁Fall": 7082,
      "▁likely": 7083,
      "▁shown": 7084,
      "▁als": 7085,
      "igur": 7086,
      "▁Kell": 7087,
      "▁everybody.": 7088,
      "feren": 7089,
      "▁'W": 7090,
      "▁nightm": 7091,
      "▁swit": 7092,
      "▁leave,": 7093,
      "▁mater": 7094,
      "▁_R": 7095,
      "▁(C": 7096,
      "▁slave": 7097,
      "▁busy.": 7098,
      "▁sister?": 7099,
      "▁ordered": 7100,
      "▁late,": 7101,
      "▁simple.": 7102,
      "▁Tom.": 7103,
      "▁Why,": 7104,
      "▁Lord.": 7105,
      "▁Franc": 7106,
      ",000.": 7107,
      "▁wasting": 7108,
      "▁fulfill": 7109,
      "4.": 7110,
      "loy": 7111,
      "s..": 7112,
      "▁bha": 7113,
      "▁bike": 7114,
      "▁gentle": 7115,
      "athi": 7116,
      "ated,": 7117,
      "▁Sign": 7118,
      "ime,": 7119,
      "▁Mm.": 7120,
      "▁Chen": 7121,
      "▁Ball": 7122,
      "unt.": 7123,
      "hered": 7124,
      "▁orphan": 7125,
      "▁too!": 7126,
      "ian,": 7127,
      "▁kinda": 7128,
      "▁next?": 7129,
      "▁hardly": 7130,
      "▁training": 7131,
      "▁based": 7132,
      "▁alone?": 7133,
      "▁Level": 7134,
      "▁Steven": 7135,
      "▁propos": 7136,
      "▁Central": 7137,
      "1,": 7138,
      "it?": 7139,
      "hat's": 7140,
      "▁Tot": 7141,
      "▁Tedd": 7142,
      "▁ok": 7143,
      "idence.": 7144,
      "imin": 7145,
      "▁Bank": 7146,
      "▁Law": 7147,
      "▁libr": 7148,
      "▁with?": 7149,
      "▁Key": 7150,
      "▁tell.": 7151,
      "idered": 7152,
      "▁where?": 7153,
      "▁wherever": 7154,
      "▁before,": 7155,
      "▁traffic": 7156,
      "▁_P": 7157,
      "▁Choose": 7158,
      "▁slipp": 7159,
      "▁chain": 7160,
      "▁skin": 7161,
      "▁island,": 7162,
      "▁repres": 7163,
      "▁temper": 7164,
      "▁affair": 7165,
      "▁Understand": 7166,
      "▁Vishal": 7167,
      "▁issue": 7168,
      "▁o'clock": 7169,
      "apped": 7170,
      "fl": 7171,
      "▁mast": 7172,
      "▁fro": 7173,
      "▁lack": 7174,
      "▁l'm": 7175,
      "▁of...": 7176,
      "▁House": 7177,
      "ute": 7178,
      "iring": 7179,
      "▁Hell,": 7180,
      "▁Jay": 7181,
      "▁Jap": 7182,
      "▁rad": 7183,
      "using": 7184,
      "▁States": 7185,
      "▁am?": 7186,
      "▁could.": 7187,
      "▁vamp": 7188,
      "ge?": 7189,
      "▁Inspect": 7190,
      "▁nights": 7191,
      "▁fuckin'": 7192,
      "▁coordin": 7193,
      "▁entran": 7194,
      "▁bedroom": 7195,
      "▁Lana.": 7196,
      "▁clubs": 7197,
      "▁Congratulations.": 7198,
      "▁shadow": 7199,
      "▁conversation": 7200,
      "▁Jaik": 7201,
      "▁Margare": 7202,
      "IGH": 7203,
      "Y:": 7204,
      "aa": 7205,
      "ks.": 7206,
      "mon": 7207,
      "oy.": 7208,
      "▁Iren": 7209,
      "▁litt": 7210,
      "▁Tal": 7211,
      "▁C.": 7212,
      "▁C'm": 7213,
      "▁Lind": 7214,
      "ter?": 7215,
      "▁Esp": 7216,
      "▁ride.": 7217,
      "▁arch": 7218,
      "▁drown": 7219,
      "▁300": 7220,
      "▁opening": 7221,
      "▁sett": 7222,
      "▁dad?": 7223,
      "▁special.": 7224,
      "▁defense": 7225,
      "▁trained": 7226,
      "▁Gener": 7227,
      "▁joined": 7228,
      "▁example": 7229,
      "▁Relax.": 7230,
      "▁dialog": 7231,
      "work.": 7232,
      "▁dust": 7233,
      "▁gain": 7234,
      "▁groom": 7235,
      "▁three,": 7236,
      "▁Hope": 7237,
      "▁Chic": 7238,
      "▁Dest": 7239,
      "▁Po": 7240,
      "▁Poo": 7241,
      "ie's": 7242,
      "▁vot": 7243,
      "▁had.": 7244,
      "▁rop": 7245,
      "▁must've": 7246,
      "▁stop,": 7247,
      "▁Force": 7248,
      "▁desp": 7249,
      "▁warned": 7250,
      "▁signed": 7251,
      "▁easily": 7252,
      "▁broad": 7253,
      "▁drinking": 7254,
      "▁delay": 7255,
      "▁colleg": 7256,
      "▁Prince": 7257,
      "▁excited": 7258,
      "▁quickly": 7259,
      "▁\"And": 7260,
      "▁Easy.": 7261,
      "▁currently": 7262,
      "▁jail.": 7263,
      "▁sweat": 7264,
      "▁Henry": 7265,
      "▁launch": 7266,
      "va": 7267,
      "▁tiny": 7268,
      "▁woke": 7269,
      "▁dirt": 7270,
      "▁cooper": 7271,
      "▁beating": 7272,
      "▁Bern": 7273,
      "▁Gal": 7274,
      "▁Ret": 7275,
      "▁Kenn": 7276,
      "▁talk,": 7277,
      "▁kills": 7278,
      "ress,": 7279,
      "▁guys!": 7280,
      "▁Look!": 7281,
      "▁girl!": 7282,
      "▁warr": 7283,
      "▁Sayid.": 7284,
      "▁Text": 7285,
      "▁kicked": 7286,
      "holog": 7287,
      "▁provide": 7288,
      "▁Kevin": 7289,
      "▁separate": 7290,
      "▁Lincoln": 7291,
      "▁Elizabet": 7292,
      "▁little.": 7293,
      "`s": 7294,
      "duct": 7295,
      "gin": 7296,
      "ties": 7297,
      "with": 7298,
      "ha,": 7299,
      "▁fishing": 7300,
      "▁Nard": 7301,
      "▁Dyl": 7302,
      "▁release": 7303,
      "ions,": 7304,
      "ified.": 7305,
      "▁alt": 7306,
      "ender": 7307,
      "▁Kind": 7308,
      "▁time...": 7309,
      "▁active": 7310,
      "▁meeting.": 7311,
      "▁home!": 7312,
      "▁familiar": 7313,
      "▁Couldn't": 7314,
      "unny": 7315,
      "▁conduct": 7316,
      "▁Easy,": 7317,
      "▁organiz": 7318,
      "▁Idiot": 7319,
      "▁Mmm-hmm.": 7320,
      "▁credit": 7321,
      "▁KITT": 7322,
      "ious,": 7323,
      "me.": 7324,
      "wise,": 7325,
      "▁bang": 7326,
      "▁heat": 7327,
      "▁Ain't": 7328,
      "▁Na": 7329,
      "▁really,": 7330,
      "aming": 7331,
      "▁We'd": 7332,
      "▁are!": 7333,
      "▁knife": 7334,
      "▁her...": 7335,
      "▁rup": 7336,
      "▁loyal": 7337,
      "istic": 7338,
      "▁virt": 7339,
      "▁Why'd": 7340,
      "▁recover": 7341,
      "▁hearts.": 7342,
      "▁room?": 7343,
      "▁Ord": 7344,
      "▁instinct": 7345,
      "▁ruined": 7346,
      "▁misunder": 7347,
      "▁Singh": 7348,
      "▁crash.": 7349,
      "▁sweet.": 7350,
      "▁Europe": 7351,
      "sit": 7352,
      "tr": 7353,
      "uis": 7354,
      "▁table.": 7355,
      "▁west": 7356,
      "ano": 7357,
      "▁ut": 7358,
      "▁Book": 7359,
      "▁Break": 7360,
      "▁Nem": 7361,
      "▁are...": 7362,
      "▁jeal": 7363,
      "▁anybody.": 7364,
      "▁rum": 7365,
      "▁thinking?": 7366,
      "▁Kap": 7367,
      "▁quick.": 7368,
      "▁quarter": 7369,
      "▁complex": 7370,
      "▁3.": 7371,
      "▁Anybody": 7372,
      "▁glob": 7373,
      "▁confir": 7374,
      "▁Arth": 7375,
      "▁general": 7376,
      "▁truth,": 7377,
      "▁risk.": 7378,
      "▁disappeared": 7379,
      "▁corner": 7380,
      "▁joke.": 7381,
      "▁vehicle": 7382,
      "▁yellow": 7383,
      "▁Austral": 7384,
      "▁Goodbye,": 7385,
      "gust": 7386,
      "uild": 7387,
      "your": 7388,
      "▁tight.": 7389,
      "▁mas": 7390,
      "▁toil": 7391,
      "▁Wood": 7392,
      "▁naught": 7393,
      "▁be...": 7394,
      "▁ones.": 7395,
      "▁Dan": 7396,
      "▁yours,": 7397,
      "▁go...": 7398,
      "▁Riz": 7399,
      "um,": 7400,
      "▁brand": 7401,
      "▁intention": 7402,
      "▁talks": 7403,
      "▁blank": 7404,
      "▁becomes": 7405,
      "▁evening": 7406,
      "▁surely": 7407,
      "▁big.": 7408,
      "▁assure": 7409,
      "▁Sir...": 7410,
      "▁Death": 7411,
      "▁%2": 7412,
      "▁crazy,": 7413,
      "▁hotel.": 7414,
      "▁cameras": 7415,
      "▁history.": 7416,
      "▁Lex.": 7417,
      "▁Relax": 7418,
      "▁Install": 7419,
      "▁{": 7420,
      "▁mak": 7421,
      "▁mort": 7422,
      "▁ban": 7423,
      "▁York.": 7424,
      "▁in...": 7425,
      "al!": 7426,
      "▁have,": 7427,
      "un.": 7428,
      "▁rot": 7429,
      "▁rub": 7430,
      "▁alarm": 7431,
      "ult.": 7432,
      "▁writing": 7433,
      "▁planned": 7434,
      "▁everything,": 7435,
      "▁inside,": 7436,
      "▁monitor": 7437,
      "ances": 7438,
      "▁ordinary": 7439,
      "▁cop.": 7440,
      "▁windows": 7441,
      "▁favor.": 7442,
      "▁straight.": 7443,
      "▁evidence.": 7444,
      "▁President.": 7445,
      "▁rules.": 7446,
      "▁diamonds.": 7447,
      "▁According": 7448,
      ".m.": 7449,
      "there": 7450,
      "zy": 7451,
      "▁tur": 7452,
      "▁tied": 7453,
      "▁wet": 7454,
      "▁da": 7455,
      "▁pub": 7456,
      "▁Hind": 7457,
      "imet": 7458,
      "▁Mach": 7459,
      "▁Gab": 7460,
      "▁wanted.": 7461,
      "▁sheriff": 7462,
      "quenc": 7463,
      "▁age.": 7464,
      "▁intend": 7465,
      "▁love?": 7466,
      "▁science": 7467,
      "▁people's": 7468,
      "ia!": 7469,
      "▁promot": 7470,
      "▁chocol": 7471,
      "▁hurt?": 7472,
      "▁early.": 7473,
      "▁question,": 7474,
      "▁members": 7475,
      "▁director": 7476,
      "▁returned": 7477,
      "▁football": 7478,
      "▁expert": 7479,
      "▁creature": 7480,
      "▁Alexand": 7481,
      "▁pictures": 7482,
      "▁service.": 7483,
      "▁arrested": 7484,
      "▁smart.": 7485,
      "▁Uncle,": 7486,
      "▁route": 7487,
      "▁Jasm": 7488,
      "▁Colonel": 7489,
      "▁sacrifice": 7490,
      "be,": 7491,
      "uh.": 7492,
      "▁****": 7493,
      "ino": 7494,
      "hav": 7495,
      "▁fish.": 7496,
      "▁pal.": 7497,
      "▁Yet": 7498,
      "▁Ak": 7499,
      "lev": 7500,
      "▁Mag": 7501,
      "▁dozen": 7502,
      "▁liqu": 7503,
      "▁Kar": 7504,
      "▁them...": 7505,
      "▁offered": 7506,
      "▁how's": 7507,
      "▁waiting.": 7508,
      "▁Brad": 7509,
      "▁shake": 7510,
      "▁function": 7511,
      "▁considered": 7512,
      "▁Mann": 7513,
      "▁escape.": 7514,
      "▁package": 7515,
      "▁serious?": 7516,
      "▁surprise.": 7517,
      "▁field.": 7518,
      "▁Knight": 7519,
      "▁counter": 7520,
      "▁church": 7521,
      "▁Ma'am,": 7522,
      "9,": 7523,
      "S,": 7524,
      "lm": 7525,
      "ler.": 7526,
      "my,": 7527,
      "night": 7528,
      "ship": 7529,
      "▁tie": 7530,
      "ont.": 7531,
      "▁ly": 7532,
      "▁ok?": 7533,
      "ass,": 7534,
      "acc": 7535,
      "▁Cole": 7536,
      "out.": 7537,
      "▁reward": 7538,
      "▁up...": 7539,
      "▁Eat": 7540,
      "▁loss": 7541,
      "▁background": 7542,
      "▁call,": 7543,
      "ples": 7544,
      "▁unf": 7545,
      "▁waited": 7546,
      "▁plan,": 7547,
      "▁insur": 7548,
      "▁answers.": 7549,
      "▁leads": 7550,
      "▁Prep": 7551,
      "▁blackm": 7552,
      "▁Miles": 7553,
      "▁demon": 7554,
      "▁Syd": 7555,
      "▁tonight?": 7556,
      "▁London.": 7557,
      "▁caused": 7558,
      "▁freedom": 7559,
      "▁surveillance": 7560,
      "▁Wonder": 7561,
      "bling": 7562,
      "gum": 7563,
      "ij": 7564,
      "▁met.": 7565,
      "▁heav": 7566,
      "▁Mast": 7567,
      "ame.": 7568,
      "▁stage": 7569,
      "▁Lloy": 7570,
      "▁knows.": 7571,
      "▁wash": 7572,
      "▁Pa": 7573,
      "▁Found": 7574,
      "our.": 7575,
      "el!": 7576,
      "▁View": 7577,
      "▁flag": 7578,
      "▁decl": 7579,
      "ivid": 7580,
      "▁cases": 7581,
      "▁resour": 7582,
      "▁orders.": 7583,
      "▁Marudhe": 7584,
      "▁human.": 7585,
      "▁complain": 7586,
      "▁phone?": 7587,
      "▁leading": 7588,
      "▁address.": 7589,
      "▁handsome": 7590,
      "▁kidding.": 7591,
      "ruction": 7592,
      "▁\"Let's": 7593,
      "▁jungle.": 7594,
      "▁laun": 7595,
      "▁Chappie.": 7596,
      "▁including": 7597,
      "▁'%s'": 7598,
      "▁Goddamn": 7599,
      "▁Chicag": 7600,
      "oup.": 7601,
      "▁sed": 7602,
      "hab": 7603,
      "onquer": 7604,
      "▁du": 7605,
      "▁five.": 7606,
      "hatt": 7607,
      "▁pip": 7608,
      "▁Shank": 7609,
      "▁Satur": 7610,
      "uta": 7611,
      "▁Mone": 7612,
      "▁Mond": 7613,
      "▁Div": 7614,
      "▁Lost": 7615,
      "▁Eight": 7616,
      "▁guilt": 7617,
      "▁exit": 7618,
      "▁proced": 7619,
      "▁progress": 7620,
      "▁cloud": 7621,
      "ge!": 7622,
      "▁Looking": 7623,
      "▁Island": 7624,
      "▁22": 7625,
      "▁greater": 7626,
      "▁gun,": 7627,
      "rison": 7628,
      "▁gone?": 7629,
      "▁stopping": 7630,
      "▁food,": 7631,
      "▁report.": 7632,
      "▁profess": 7633,
      "▁dark.": 7634,
      "▁\"He's": 7635,
      "▁apartment": 7636,
      "▁stories": 7637,
      "▁mistake,": 7638,
      "▁crashed": 7639,
      "▁captain.": 7640,
      "▁ridiculous.": 7641,
      "▁chemical": 7642,
      "▁Child": 7643,
      "▁ought": 7644,
      "▁tent": 7645,
      "▁tag": 7646,
      "▁mess.": 7647,
      "▁hell,": 7648,
      "▁Ary": 7649,
      "ash,": 7650,
      "▁Mary": 7651,
      "▁Nick": 7652,
      "▁Nice.": 7653,
      "▁stom": 7654,
      "▁joy": 7655,
      "▁Pay": 7656,
      "▁Palm": 7657,
      "▁Earth.": 7658,
      "ushed": 7659,
      "▁speak.": 7660,
      "ureau": 7661,
      "resp": 7662,
      "▁Vard": 7663,
      "▁environ": 7664,
      "▁scar": 7665,
      "▁Going": 7666,
      "▁dise": 7667,
      "▁crit": 7668,
      "▁chest": 7669,
      "▁another.": 7670,
      "▁trust.": 7671,
      "▁entirely": 7672,
      "▁Switch": 7673,
      "▁expected": 7674,
      "▁Sarah": 7675,
      "▁motor": 7676,
      "▁flowers": 7677,
      "▁Module": 7678,
      "▁Zoom": 7679,
      "▁politic": 7680,
      "▁software": 7681,
      "▁coc": 7682,
      "▁Hyd": 7683,
      "▁Camp": 7684,
      "▁Cover": 7685,
      "▁Fed": 7686,
      "▁Emm": 7687,
      "na.": 7688,
      "▁Krish": 7689,
      "▁somehow": 7690,
      "▁exist.": 7691,
      "▁said?": 7692,
      "▁friend?": 7693,
      "▁23": 7694,
      "▁Canad": 7695,
      "▁recru": 7696,
      "▁idea,": 7697,
      "▁chasing": 7698,
      "▁[S": 7699,
      "▁relig": 7700,
      "▁leg.": 7701,
      "▁America": 7702,
      "▁Frank.": 7703,
      "▁true?": 7704,
      "▁Jesus,": 7705,
      "▁err": 7706,
      "▁cold.": 7707,
      "OME": 7708,
      "▁Locke.": 7709,
      "▁celebrate": 7710,
      "▁pupp": 7711,
      "▁remembered": 7712,
      "▁Tit": 7713,
      "▁pee": 7714,
      "▁Asi": 7715,
      "▁kitt": 7716,
      "▁Luthor": 7717,
      "▁alway": 7718,
      "▁ours.": 7719,
      "▁evening,": 7720,
      "▁One.": 7721,
      "▁21": 7722,
      "▁run,": 7723,
      "▁Brun": 7724,
      "▁insane.": 7725,
      "ise?": 7726,
      "▁Chitt": 7727,
      "▁Joe": 7728,
      "▁ready,": 7729,
      "▁positive": 7730,
      "▁walk.": 7731,
      "▁check.": 7732,
      "▁lights": 7733,
      "▁Something's": 7734,
      "▁imagin": 7735,
      "▁stranger.": 7736,
      "fortunately,": 7737,
      "▁challen": 7738,
      "▁mixed": 7739,
      "▁convinced": 7740,
      "6,": 7741,
      "oon": 7742,
      "▁side,": 7743,
      "▁mouse": 7744,
      "▁card.": 7745,
      "gh!": 7746,
      "▁Dann": 7747,
      "▁reject": 7748,
      "▁arrange": 7749,
      "act.": 7750,
      "▁water?": 7751,
      "▁flash": 7752,
      "spap": 7753,
      "▁better,": 7754,
      "▁owner": 7755,
      "▁Being": 7756,
      "▁Move,": 7757,
      "▁die!": 7758,
      "▁legend": 7759,
      "▁truth?": 7760,
      "▁target.": 7761,
      "▁Jenny": 7762,
      "▁error": 7763,
      "▁garb": 7764,
      "▁hyp": 7765,
      "▁torture": 7766,
      "▁cousin": 7767,
      "▁Options": 7768,
      "▁Especially": 7769,
      "house": 7770,
      "▁sink": 7771,
      "has": 7772,
      "▁digg": 7773,
      "▁fright": 7774,
      "ened": 7775,
      "se?": 7776,
      "▁Nand": 7777,
      "▁angry.": 7778,
      "▁shield": 7779,
      "ables": 7780,
      "▁proc": 7781,
      "▁Getting": 7782,
      "▁hand?": 7783,
      "▁advent": 7784,
      "▁...I": 7785,
      "▁life!": 7786,
      "▁dram": 7787,
      "▁Deb": 7788,
      "▁Dead": 7789,
      "▁meteor": 7790,
      "▁word,": 7791,
      "▁trusted": 7792,
      "▁closed.": 7793,
      "▁invit": 7794,
      "ney,": 7795,
      "▁distance": 7796,
      "▁face,": 7797,
      "▁devil": 7798,
      "▁concent": 7799,
      "▁stealing": 7800,
      "▁drove": 7801,
      "▁Steve.": 7802,
      "▁continu": 7803,
      "▁identify": 7804,
      "▁suffer": 7805,
      "▁negot": 7806,
      "▁societ": 7807,
      "▁Officer": 7808,
      "o...": 7809,
      "re,": 7810,
      "▁dick": 7811,
      "▁cake": 7812,
      "▁once,": 7813,
      "▁Might": 7814,
      "▁do...": 7815,
      "▁Dun": 7816,
      "▁aside": 7817,
      "▁suit.": 7818,
      "▁Karl": 7819,
      "ap.": 7820,
      "▁underground": 7821,
      "▁hurting": 7822,
      "▁chip": 7823,
      "▁second,": 7824,
      "▁daughter's": 7825,
      "▁matters": 7826,
      "▁myself,": 7827,
      "▁Coming": 7828,
      "▁milk": 7829,
      "▁papers": 7830,
      "▁location.": 7831,
      "▁regist": 7832,
      "▁corpor": 7833,
      "▁199": 7834,
      "▁soul.": 7835,
      "▁occas": 7836,
      "▁map.": 7837,
      "▁recently": 7838,
      "▁'The": 7839,
      "▁daddy": 7840,
      "▁Anjuta": 7841,
      "▁Beaut": 7842,
      "s+": 7843,
      "▁somed": 7844,
      "an...": 7845,
      "ana.": 7846,
      "▁Water": 7847,
      "▁pink": 7848,
      "▁Sch": 7849,
      "▁habit": 7850,
      "rig": 7851,
      "rific": 7852,
      "▁Den": 7853,
      "▁Poor": 7854,
      "▁Ri": 7855,
      "▁Jake.": 7856,
      "▁It's...": 7857,
      "▁suc": 7858,
      "▁rud": 7859,
      "▁underw": 7860,
      "▁years?": 7861,
      "orn.": 7862,
      "aughter": 7863,
      "▁chee": 7864,
      "▁slip": 7865,
      "▁childhood": 7866,
      "▁high.": 7867,
      "▁memory.": 7868,
      "▁transl": 7869,
      "▁though,": 7870,
      "▁seriously": 7871,
      "ches.": 7872,
      "\\\\s+": 7873,
      "cript": 7874,
      "▁Imag": 7875,
      "▁dollars": 7876,
      "▁woods": 7877,
      "▁Stephen": 7878,
      "▁screwed": 7879,
      "▁Anjali": 7880,
      "▁suicide": 7881,
      "▁Message": 7882,
      "▁associ": 7883,
      "▁Kabaddi...": 7884,
      "nal": 7885,
      "oad": 7886,
      "rint": 7887,
      "inter": 7888,
      "inal.": 7889,
      "e.\"": 7890,
      "▁thirst": 7891,
      "acher": 7892,
      "▁Bomb": 7893,
      "▁Nars": 7894,
      "▁notice": 7895,
      "ent?": 7896,
      "▁Rand": 7897,
      "▁\"..": 7898,
      "▁butter": 7899,
      "orted": 7900,
      "▁grant": 7901,
      "▁these?": 7902,
      "less,": 7903,
      "▁dead!": 7904,
      "▁Bye": 7905,
      "ERE": 7906,
      "▁law.": 7907,
      "▁America.": 7908,
      "▁twist": 7909,
      "▁marks": 7910,
      "▁Washing": 7911,
      "▁wheel": 7912,
      "▁Left": 7913,
      "▁survived": 7914,
      "▁clothes.": 7915,
      "▁apologize": 7916,
      "▁victims": 7917,
      "ynam": 7918,
      "▁network": 7919,
      "\",": 7920,
      "15": 7921,
      "i-": 7922,
      "p:": 7923,
      "▁task": 7924,
      "▁sight.": 7925,
      "isf": 7926,
      "▁bond": 7927,
      "▁bite": 7928,
      "▁nice,": 7929,
      "▁hous": 7930,
      "▁uh": 7931,
      "▁eh?": 7932,
      "▁stress": 7933,
      "▁Face": 7934,
      "oph": 7935,
      "▁Jane": 7936,
      "▁Ext": 7937,
      "▁will,": 7938,
      "▁think...": 7939,
      "▁seek": 7940,
      "▁manage": 7941,
      "▁spy": 7942,
      "▁unknown": 7943,
      "▁Inform": 7944,
      "▁elop": 7945,
      "▁insist": 7946,
      "▁son!": 7947,
      "▁Real": 7948,
      "▁Mom?": 7949,
      "▁Scot": 7950,
      "▁Shad": 7951,
      "▁dealing": 7952,
      "▁collea": 7953,
      "▁Supp": 7954,
      "▁discovered": 7955,
      "▁Enter": 7956,
      "ification": 7957,
      "▁keys.": 7958,
      "▁90": 7959,
      "▁Miles.": 7960,
      "▁Mean": 7961,
      "▁Barry": 7962,
      "▁married?": 7963,
      "▁\"He": 7964,
      "▁smells": 7965,
      "▁psycho": 7966,
      "▁Morning.": 7967,
      "▁Collect": 7968,
      "▁federal": 7969,
      "-sh": 7970,
      "on...": 7971,
      "▁core": 7972,
      "▁Wol": 7973,
      "otect": 7974,
      "▁SP": 7975,
      "▁e-m": 7976,
      "▁Bil": 7977,
      "▁NY": 7978,
      "▁Drag": 7979,
      "▁Gra": 7980,
      "▁Fast": 7981,
      "▁Jose": 7982,
      "▁rand": 7983,
      "▁Throw": 7984,
      "iev": 7985,
      "▁or...": 7986,
      "▁space.": 7987,
      "▁program.": 7988,
      "▁Stat": 7989,
      "▁Answ": 7990,
      "▁belove": 7991,
      "▁period": 7992,
      "▁_A": 7993,
      "▁monkey": 7994,
      "▁wife?": 7995,
      "▁site.": 7996,
      "▁Marc": 7997,
      "▁passing": 7998,
      "▁Compl": 7999,
      "▁touched": 8000,
      "▁anymore,": 8001,
      "▁reports": 8002,
      "▁afraid.": 8003,
      "▁-I'm": 8004,
      "▁Team": 8005,
      "▁hundreds": 8006,
      "▁Maxim": 8007,
      "▁Drive": 8008,
      "▁afternoon.": 8009,
      "▁Aye,": 8010,
      ").": 8011,
      "hary": 8012,
      "▁max": 8013,
      "ised.": 8014,
      "▁cream": 8015,
      "▁py": 8016,
      "▁htt": 8017,
      "▁Half": 8018,
      "idering": 8019,
      "▁NO": 8020,
      "▁Fitz": 8021,
      "aus": 8022,
      "▁alert": 8023,
      "aken": 8024,
      "▁user": 8025,
      "▁Yeah...": 8026,
      "▁Valent": 8027,
      "▁unus": 8028,
      "▁last.": 8029,
      "▁believes": 8030,
      "▁cheat": 8031,
      "▁Beat": 8032,
      "▁Shashi": 8033,
      "▁answers": 8034,
      "▁closer.": 8035,
      "▁\"This": 8036,
      "▁Many": 8037,
      "▁Prem": 8038,
      "▁freaking": 8039,
      "▁Plan": 8040,
      "▁arrive": 8041,
      "▁Remember,": 8042,
      "▁Grandm": 8043,
      "▁drugs": 8044,
      "zzle": 8045,
      "▁necessary": 8046,
      "▁abandoned": 8047,
      "▁\"%s\"": 8048,
      "▁Lieuten": 8049,
      "▁false": 8050,
      "-ass": 8051,
      "ina,": 8052,
      "▁wip": 8053,
      "▁dying.": 8054,
      "▁-J": 8055,
      "▁pin": 8056,
      "storm": 8057,
      "▁B.": 8058,
      "▁Oce": 8059,
      "ro.": 8060,
      "celer": 8061,
      "▁\"s": 8062,
      "estiv": 8063,
      "▁times,": 8064,
      "▁Soon": 8065,
      "▁were,": 8066,
      "▁actual": 8067,
      "▁Maybe.": 8068,
      "▁shame": 8069,
      "▁decent": 8070,
      "▁baby!": 8071,
      "▁knew.": 8072,
      "▁craw": 8073,
      "▁problems.": 8074,
      "▁chosen": 8075,
      "▁months,": 8076,
      "▁Neg": 8077,
      "they": 8078,
      "▁officers": 8079,
      "▁key.": 8080,
      "▁First,": 8081,
      "▁picture.": 8082,
      "▁remains": 8083,
      "▁maintain": 8084,
      "▁dressed": 8085,
      "▁calcul": 8086,
      "▁-No,": 8087,
      "▁Hurry!": 8088,
      "▁Brav": 8089,
      "▁earlier": 8090,
      "▁knowledge": 8091,
      "▁brilliant": 8092,
      "RL": 8093,
      "oom": 8094,
      "▁y'all": 8095,
      "▁der": 8096,
      "▁ded": 8097,
      "▁fif": 8098,
      "▁pizz": 8099,
      "ay?": 8100,
      "▁beast": 8101,
      "▁Main": 8102,
      "▁Number": 8103,
      "▁Ol": 8104,
      "▁LA": 8105,
      "▁jer": 8106,
      "▁abduct": 8107,
      "▁Jed": 8108,
      "eland": 8109,
      "osaur": 8110,
      "▁downstair": 8111,
      "▁Street": 8112,
      "▁flight.": 8113,
      "▁crown": 8114,
      "▁whist": 8115,
      "▁humans": 8116,
      "▁lucky.": 8117,
      "▁deton": 8118,
      "▁repair": 8119,
      "▁\"Sing": 8120,
      "▁require": 8121,
      "▁normal.": 8122,
      "▁growing": 8123,
      "▁Khan.": 8124,
      "force": 8125,
      "▁Morning,": 8126,
      "▁health": 8127,
      "▁predict": 8128,
      "▁ignore": 8129,
      "▁warrior": 8130,
      "▁folder": 8131,
      "▁Reddington": 8132,
      "▁murderer": 8133,
      "▁Mumbai": 8134,
      "rum": 8135,
      "▁tal": 8136,
      "▁silly": 8137,
      "onic": 8138,
      "▁therap": 8139,
      "▁cere": 8140,
      "▁laid": 8141,
      "ena": 8142,
      "▁national": 8143,
      "ato": 8144,
      "▁hors": 8145,
      "ay!": 8146,
      "▁Rud": 8147,
      "▁Ralp": 8148,
      "▁Fold": 8149,
      "rak": 8150,
      "abled": 8151,
      "▁agent.": 8152,
      "▁newspap": 8153,
      "▁longer.": 8154,
      "▁acqu": 8155,
      "▁run!": 8156,
      "▁Although": 8157,
      "▁Brook": 8158,
      "▁useless": 8159,
      "▁slight": 8160,
      "▁Unknown": 8161,
      "▁cops.": 8162,
      "ooth": 8163,
      "▁honor.": 8164,
      "▁similar": 8165,
      "▁younger": 8166,
      "▁Americans": 8167,
      "▁cell.": 8168,
      "▁strong.": 8169,
      "▁throwing": 8170,
      "▁Shouldn't": 8171,
      "▁announce": 8172,
      "▁pushing": 8173,
      "▁lawyer": 8174,
      "▁assistant": 8175,
      "▁battery": 8176,
      "▁volunt": 8177,
      "▁threatened": 8178,
      "▁WHAT": 8179,
      "▁physical": 8180,
      "▁slept": 8181,
      "▁spoken": 8182,
      "eath": 8183,
      "son,": 8184,
      "▁tabl": 8185,
      "▁wish.": 8186,
      "▁bud": 8187,
      "▁dance.": 8188,
      "anic": 8189,
      "▁mere": 8190,
      "ript": 8191,
      "amin": 8192,
      "ion!": 8193,
      "one!": 8194,
      "unz": 8195,
      "▁guil": 8196,
      "▁guards": 8197,
      "▁spr": 8198,
      "▁Stup": 8199,
      "▁sew": 8200,
      "▁seas": 8201,
      "▁Vall": 8202,
      "▁unique": 8203,
      "▁Short": 8204,
      "▁died,": 8205,
      "▁..to": 8206,
      "▁buff": 8207,
      "▁world?": 8208,
      "▁head?": 8209,
      "▁copy?": 8210,
      "▁armed": 8211,
      "▁closing": 8212,
      "▁safe,": 8213,
      "▁invited": 8214,
      "▁school,": 8215,
      "▁burned": 8216,
      "▁respect,": 8217,
      "▁damage": 8218,
      "▁psych": 8219,
      "▁memories": 8220,
      "▁title": 8221,
      "-and": 8222,
      "egr": 8223,
      "tell": 8224,
      "u...": 8225,
      "▁male": 8226,
      "vell": 8227,
      "▁Hill": 8228,
      "▁unable": 8229,
      "▁Breat": 8230,
      "▁Base": 8231,
      "▁stink": 8232,
      "▁He'd": 8233,
      "▁Ghost": 8234,
      "▁What...": 8235,
      "▁jun": 8236,
      "▁Pun": 8237,
      "▁would.": 8238,
      "ard?": 8239,
      "▁over?": 8240,
      "▁find.": 8241,
      "▁other,": 8242,
      "▁grate": 8243,
      "▁..you": 8244,
      "▁cares": 8245,
      "▁kids,": 8246,
      "▁puts": 8247,
      "▁Alb": 8248,
      "▁apparent": 8249,
      "▁kind.": 8250,
      "▁lifet": 8251,
      "▁child,": 8252,
      "▁crap.": 8253,
      "▁books": 8254,
      "▁inside?": 8255,
      "▁escaped": 8256,
      "ounc": 8257,
      "▁elephan": 8258,
      "▁virus": 8259,
      "▁Raymond": 8260,
      "▁ancient": 8261,
      "▁experienc": 8262,
      "-th": 8263,
      "break": 8264,
      "res.": 8265,
      "▁mal": 8266,
      "▁lower": 8267,
      "▁pound": 8268,
      "stitut": 8269,
      "▁You!": 8270,
      "▁Create": 8271,
      "▁Od": 8272,
      "▁Ok,": 8273,
      "▁Lizz": 8274,
      "▁with,": 8275,
      "urs": 8276,
      "▁Fisc": 8277,
      "▁justice": 8278,
      "▁KN": 8279,
      "▁Ky": 8280,
      "about": 8281,
      "▁deg": 8282,
      "▁called.": 8283,
      "▁happens,": 8284,
      "▁Okay!": 8285,
      "▁root": 8286,
      "▁royal": 8287,
      "▁belt": 8288,
      "▁impl": 8289,
      "▁match.": 8290,
      "▁courage": 8291,
      "▁cleared": 8292,
      "▁method": 8293,
      "▁cute": 8294,
      "▁genetic": 8295,
      "▁interesting.": 8296,
      "▁games": 8297,
      "▁datab": 8298,
      "▁Twenty": 8299,
      "▁intelligence": 8300,
      "▁desperate": 8301,
      "▁http:": 8302,
      "PD": 8303,
      "dog": 8304,
      "os,": 8305,
      "ys": 8306,
      "▁tun": 8307,
      "▁mail": 8308,
      "▁bunk": 8309,
      "▁dim": 8310,
      "▁nail": 8311,
      "▁Top": 8312,
      "▁Tab": 8313,
      "▁Sull": 8314,
      "▁Said": 8315,
      "▁ult": 8316,
      "▁forward.": 8317,
      "illy.": 8318,
      "▁reven": 8319,
      "am!": 8320,
      "▁Pac": 8321,
      "▁Jin": 8322,
      "▁Jai": 8323,
      "▁alco": 8324,
      "▁existen": 8325,
      "▁happiness": 8326,
      "▁Don't.": 8327,
      "▁means,": 8328,
      "ized.": 8329,
      "▁Please...": 8330,
      "▁personal.": 8331,
      "▁retire": 8332,
      "▁confident": 8333,
      "▁beauty": 8334,
      "▁hatch": 8335,
      "otted": 8336,
      "▁protecting": 8337,
      "▁falls": 8338,
      "▁delive": 8339,
      "▁face?": 8340,
      "▁Quiet": 8341,
      "▁Enjoy": 8342,
      "▁survive.": 8343,
      "▁pursu": 8344,
      "▁death,": 8345,
      "▁Today,": 8346,
      "▁necessary.": 8347,
      "▁palace": 8348,
      "▁responsibility": 8349,
      "▁especially": 8350,
      "UN": 8351,
      "cholog": 8352,
      "▁Ira": 8353,
      "en!": 8354,
      "▁hide.": 8355,
      "▁Sky": 8356,
      "▁Ham": 8357,
      "lead": 8358,
      "▁M.": 8359,
      "▁Mont": 8360,
      "▁NOT": 8361,
      "▁Dhar": 8362,
      "ently": 8363,
      "▁get.": 8364,
      "▁Rat": 8365,
      "▁Ronn": 8366,
      "ils": 8367,
      "▁E.": 8368,
      "▁Ele": 8369,
      "elp": 8370,
      "▁Konquer": 8371,
      "que": 8372,
      "ine's": 8373,
      "▁Govern": 8374,
      "▁maybe.": 8375,
      "▁brother!": 8376,
      "▁end,": 8377,
      "▁front.": 8378,
      "▁42": 8379,
      "anced": 8380,
      "▁Chaut": 8381,
      "▁touching": 8382,
      "▁drink?": 8383,
      "▁obl": 8384,
      "▁beautiful,": 8385,
      "▁India.": 8386,
      "▁team,": 8387,
      "▁breath.": 8388,
      "ertific": 8389,
      "▁connected": 8390,
      "▁treated": 8391,
      "▁oppos": 8392,
      "▁extraordin": 8393,
      "▁Configure": 8394,
      "▁breathe.": 8395,
      "▁Aladin.": 8396,
      "▁Jaikant": 8397,
      "▁blackmail": 8398,
      "LD": 8399,
      "born": 8400,
      "hh": 8401,
      "▁san": 8402,
      "▁mad.": 8403,
      "▁top.": 8404,
      "▁fran": 8405,
      "▁frag": 8406,
      "▁lines": 8407,
      "ary?": 8408,
      "▁hit.": 8409,
      "▁A.": 8410,
      "▁Burn": 8411,
      "▁ability": 8412,
      "▁Egy": 8413,
      "▁back...": 8414,
      "▁madam.": 8415,
      "▁[C": 8416,
      "▁changing": 8417,
      "▁Arm": 8418,
      "▁guessing": 8419,
      "▁default": 8420,
      "▁sooner": 8421,
      "▁husband's": 8422,
      "▁America/": 8423,
      "▁Whoo!": 8424,
      "▁feelings": 8425,
      "▁individ": 8426,
      "▁explain.": 8427,
      "▁module": 8428,
      "▁Secret": 8429,
      "▁precious": 8430,
      "▁Sawyer.": 8431,
      "▁button.": 8432,
      "▁airport.": 8433,
      "▁Bloody": 8434,
      "▁crowd": 8435,
      "▁speech": 8436,
      "▁horrible": 8437,
      "▁Egypt": 8438,
      "by,": 8439,
      "ger.": 8440,
      "n,": 8441,
      "who": 8442,
      "▁wa": 8443,
      "▁sad.": 8444,
      "▁set.": 8445,
      "▁bon": 8446,
      "▁bank.": 8447,
      "▁cult": 8448,
      "▁hey!": 8449,
      "ature.": 8450,
      "▁Nav": 8451,
      "▁Dist": 8452,
      "▁have...": 8453,
      "▁Lies": 8454,
      "▁What're": 8455,
      "allow": 8456,
      "▁Rour": 8457,
      "one?": 8458,
      "est,": 8459,
      "▁Kur": 8460,
      "ump.": 8461,
      "ummy": 8462,
      "▁good!": 8463,
      "▁Stark": 8464,
      "▁bridge": 8465,
      "▁okay!": 8466,
      "▁buying": 8467,
      "▁brothers": 8468,
      "▁45": 8469,
      "▁Atl": 8470,
      "▁patri": 8471,
      "▁invite": 8472,
      "▁friendship": 8473,
      "▁Brother!": 8474,
      "▁tempor": 8475,
      "▁Whatever.": 8476,
      "\\\\{": 8477,
      "▁girlfriend.": 8478,
      "▁Correct": 8479,
      "▁Uh-h": 8480,
      "▁policy": 8481,
      "▁roof.": 8482,
      "▁sandwic": 8483,
      "▁version": 8484,
      "▁female": 8485,
      "▁guarantee": 8486,
      "▁Prepare": 8487,
      "▁Iraq": 8488,
      "-C": 8489,
      "IP": 8490,
      "ext": 8491,
      "iant.": 8492,
      "nec": 8493,
      "▁Imm": 8494,
      "▁gat": 8495,
      "vere": 8496,
      "▁nation": 8497,
      "ster.": 8498,
      "ashing": 8499,
      "ids": 8500,
      "▁Mu": 8501,
      "▁Mama": 8502,
      "▁review": 8503,
      "ames": 8504,
      "▁sty": 8505,
      "▁Ge": 8506,
      "▁thinking,": 8507,
      "▁exerc": 8508,
      "▁talk?": 8509,
      "▁Isab": 8510,
      "▁mine,": 8511,
      "▁four.": 8512,
      "▁dreams.": 8513,
      "▁return.": 8514,
      "▁regard": 8515,
      "▁Perfect": 8516,
      "▁riding": 8517,
      "▁Delete": 8518,
      "▁apartment.": 8519,
      "▁Daddy,": 8520,
      "▁Otherwise": 8521,
      "▁laughing": 8522,
      "▁\"Don't": 8523,
      "▁concerned": 8524,
      "-bye.": 8525,
      "▁satellite": 8526,
      "▁Chenna": 8527,
      "hu": 8528,
      "ju": 8529,
      "▁tend": 8530,
      "▁tired.": 8531,
      "he's": 8532,
      "▁maid": 8533,
      "▁cub": 8534,
      "▁gate.": 8535,
      "▁lamp": 8536,
      "▁punch": 8537,
      "▁helm": 8538,
      "▁inqu": 8539,
      "▁Hobb": 8540,
      "▁king.": 8541,
      "▁melt": 8542,
      "ical.": 8543,
      "▁Cou": 8544,
      "▁doin'": 8545,
      "▁Di": 8546,
      "▁Gold": 8547,
      "▁Pur": 8548,
      "▁Failed": 8549,
      "han.": 8550,
      "▁trace": 8551,
      "eless": 8552,
      "▁Kate,": 8553,
      "▁conse": 8554,
      "▁van.": 8555,
      "▁happens.": 8556,
      "▁days?": 8557,
      "▁really?": 8558,
      "▁real?": 8559,
      "▁permiss": 8560,
      "▁Joe,": 8561,
      "▁cash.": 8562,
      "▁well...": 8563,
      "▁matter,": 8564,
      "▁latest": 8565,
      "▁cute.": 8566,
      "▁interrog": 8567,
      "attle": 8568,
      "▁began": 8569,
      "▁Harold": 8570,
      "▁escort": 8571,
      "▁steps": 8572,
      "▁cool,": 8573,
      "▁grave": 8574,
      "▁village.": 8575,
      "▁Huh.": 8576,
      "▁perfectly": 8577,
      "▁-We": 8578,
      "▁zero": 8579,
      "▁voice.": 8580,
      "▁teaching": 8581,
      "▁Mike,": 8582,
      "▁running.": 8583,
      "▁character": 8584,
      "▁awesome": 8585,
      "▁awesome.": 8586,
      "▁destiny.": 8587,
      "▁neighborhood": 8588,
      "EP": 8589,
      "K.": 8590,
      "cons": 8591,
      "ept": 8592,
      "z,": 8593,
      "▁trop": 8594,
      "anut": 8595,
      "▁Yas": 8596,
      "▁thieve": 8597,
      "▁of,": 8598,
      "▁Nag": 8599,
      "▁Dian": 8600,
      "▁style": 8601,
      "▁Pan": 8602,
      "▁don't!": 8603,
      "acks": 8604,
      "hant": 8605,
      "▁noble": 8606,
      "▁offering": 8607,
      "▁prim": 8608,
      "epend": 8609,
      "▁acceler": 8610,
      "▁party,": 8611,
      "▁hello": 8612,
      "▁life...": 8613,
      "▁older": 8614,
      "man?": 8615,
      "▁standard": 8616,
      "▁base.": 8617,
      "▁papa.": 8618,
      "▁Someone's": 8619,
      "▁refer": 8620,
      "▁blowing": 8621,
      "▁computer.": 8622,
      "▁weak.": 8623,
      "▁duty.": 8624,
      "▁hungry": 8625,
      "▁Daniel": 8626,
      "▁folks": 8627,
      "▁confirmed": 8628,
      "ty,": 8629,
      "▁tub": 8630,
      "ony.": 8631,
      "▁fart": 8632,
      "▁Ta": 8633,
      "ad,": 8634,
      "▁goin'": 8635,
      "ion...": 8636,
      "▁was?": 8637,
      "▁Jess": 8638,
      "▁Eag": 8639,
      "ably": 8640,
      "▁look?": 8641,
      "▁seen.": 8642,
      "▁Val": 8643,
      "▁ens": 8644,
      "▁smugg": 8645,
      "▁stays": 8646,
      "▁useful": 8647,
      "▁symbol": 8648,
      "▁far,": 8649,
      "▁Nothing,": 8650,
      "▁numbers.": 8651,
      "▁river.": 8652,
      "▁snake": 8653,
      "▁test.": 8654,
      "box": 8655,
      "▁advice": 8656,
      "▁tree.": 8657,
      "▁enemy.": 8658,
      "▁trouble,": 8659,
      "▁sick,": 8660,
      "▁partner.": 8661,
      "-up.": 8662,
      "▁sharp": 8663,
      "▁summer": 8664,
      "▁pushed": 8665,
      "▁Katn": 8666,
      "▁Fredd": 8667,
      "▁Holmes.": 8668,
      "▁soldiers": 8669,
      "▁social": 8670,
      "▁material": 8671,
      "bly": 8672,
      "bass": 8673,
      "field": 8674,
      "ipping": 8675,
      "lus": 8676,
      "lin,": 8677,
      "sa": 8678,
      "▁lake": 8679,
      "▁line,": 8680,
      "▁nerve": 8681,
      "▁Target": 8682,
      "▁height": 8683,
      "▁Sleep": 8684,
      "▁Hop": 8685,
      "▁MAN": 8686,
      "▁Cat": 8687,
      "▁do!": 8688,
      "▁Gonna": 8689,
      "▁my...": 8690,
      "▁Laur": 8691,
      "▁liar.": 8692,
      "▁Pak": 8693,
      "▁Fre": 8694,
      "▁need,": 8695,
      "ctic": 8696,
      "ulate": 8697,
      "▁role": 8698,
      "▁still.": 8699,
      "▁disgust": 8700,
      "▁kids?": 8701,
      "▁Been": 8702,
      "ia's": 8703,
      "man's": 8704,
      "▁Absolutely": 8705,
      "▁while,": 8706,
      "▁rip": 8707,
      "▁veget": 8708,
      "▁town,": 8709,
      "▁Frank,": 8710,
      "▁scared,": 8711,
      "▁Cole.": 8712,
      "▁burning": 8713,
      "▁buddy,": 8714,
      "▁property.": 8715,
      "▁enemies": 8716,
      "▁story,": 8717,
      "▁David.": 8718,
      "▁Juni": 8719,
      "▁Doctor": 8720,
      "▁tea.": 8721,
      "▁repeat": 8722,
      "▁highest": 8723,
      "▁Autob": 8724,
      "▁amongst": 8725,
      "▁capture": 8726,
      "▁baseball": 8727,
      "▁Oliver": 8728,
      "RO": 8729,
      "gl": 8730,
      "night.": 8731,
      "▁Wit": 8732,
      "▁Tel": 8733,
      "▁-F": 8734,
      "▁pure": 8735,
      "▁Year": 8736,
      "▁begging": 8737,
      "▁karthi": 8738,
      "al's": 8739,
      "▁Budd": 8740,
      "▁Nar": 8741,
      "▁Darl": 8742,
      "▁replace": 8743,
      "▁Pink": 8744,
      "▁ate": 8745,
      "▁sake.": 8746,
      "ol.": 8747,
      "▁dept": 8748,
      "▁vault": 8749,
      "▁prince": 8750,
      "▁muse": 8751,
      "▁trail": 8752,
      "▁choice,": 8753,
      "▁men?": 8754,
      "▁Army": 8755,
      "▁points": 8756,
      "▁stopped.": 8757,
      "body?": 8758,
      "▁depress": 8759,
      "▁Wouldn't": 8760,
      "▁secrets": 8761,
      "▁Wasn't": 8762,
      "▁condition.": 8763,
      "▁miser": 8764,
      "▁born.": 8765,
      "▁crossed": 8766,
      "▁identity": 8767,
      "▁James.": 8768,
      "▁correct.": 8769,
      "▁Commander": 8770,
      "▁limit": 8771,
      "▁Tonight": 8772,
      "▁Sanjay": 8773,
      "hetic": 8774,
      "▁Honest": 8775,
      "▁Metropolis": 8776,
      "▁Azhar": 8777,
      "▁fianc": 8778,
      "▁Narsing": 8779,
      "-E": 8780,
      "7,": 8781,
      "min": 8782,
      "s": 8783,
      "▁somet": 8784,
      "itor.": 8785,
      "ities.": 8786,
      "▁city,": 8787,
      "▁-R": 8788,
      "ators": 8789,
      "▁SO": 8790,
      "▁Cir": 8791,
      "aday": 8792,
      "▁Date": 8793,
      "▁Fif": 8794,
      "▁allerg": 8795,
      "▁Jew": 8796,
      "aud": 8797,
      "▁man...": 8798,
      "icked": 8799,
      "▁Ven": 8800,
      "▁said...": 8801,
      "▁asked.": 8802,
      "▁Ins": 8803,
      "▁insult": 8804,
      "▁court.": 8805,
      "▁Beet": 8806,
      "▁please...": 8807,
      "▁struct": 8808,
      "▁coast": 8809,
      "▁meters.": 8810,
      "▁resist": 8811,
      "▁invis": 8812,
      "▁Quite": 8813,
      "▁paper.": 8814,
      "▁walls": 8815,
      "▁excell": 8816,
      "▁doub": 8817,
      "▁footage": 8818,
      "▁Geni": 8819,
      "▁Christian": 8820,
      "▁project.": 8821,
      "▁birthday,": 8822,
      "▁broken.": 8823,
      "vision": 8824,
      "▁partner": 8825,
      "▁reasons": 8826,
      "▁Georg": 8827,
      "▁upstairs.": 8828,
      "▁sometimes.": 8829,
      "▁helicopter": 8830,
      "▁Wrong": 8831,
      "▁laptop": 8832,
      "▁professional": 8833,
      "▁dinosaur": 8834,
      "▁represent": 8835,
      "-H": 8836,
      "iac": 8837,
      "rated": 8838,
      "eted": 8839,
      "▁Cab": 8840,
      "▁dock": 8841,
      "▁Nad": 8842,
      "▁DO": 8843,
      "▁Web": 8844,
      "rain": 8845,
      "▁from,": 8846,
      "▁themselves.": 8847,
      "▁can't...": 8848,
      "▁arm.": 8849,
      "▁should.": 8850,
      "▁board.": 8851,
      "▁Vic": 8852,
      "▁Vol": 8853,
      "▁insan": 8854,
      "▁rap": 8855,
      "▁Expl": 8856,
      "▁emp": 8857,
      "▁frame": 8858,
      "▁names.": 8859,
      "▁terms": 8860,
      "ension": 8861,
      "▁messed": 8862,
      "▁sorry!": 8863,
      "▁trip.": 8864,
      "▁face!": 8865,
      "▁brain.": 8866,
      "▁legal": 8867,
      "▁office,": 8868,
      "▁Lord,": 8869,
      "▁beaten": 8870,
      "▁Alex,": 8871,
      "-time": 8872,
      "▁Priya,": 8873,
      "▁Max.": 8874,
      "▁TV.": 8875,
      "▁beneath": 8876,
      "▁betrayed": 8877,
      "▁Freez": 8878,
      "▁Trans": 8879,
      "▁Lucky": 8880,
      "▁jewel": 8881,
      "iguration": 8882,
      "▁misunderstand": 8883,
      "bing": 8884,
      "io.": 8885,
      "▁'t": 8886,
      "▁session": 8887,
      "▁yes?": 8888,
      "orter": 8889,
      "▁Wanna": 8890,
      "▁Bhar": 8891,
      "▁Gust": 8892,
      "▁junk": 8893,
      "ant!": 8894,
      "▁River": 8895,
      "▁Fight": 8896,
      "▁abo": 8897,
      "▁Jar": 8898,
      "▁Easter": 8899,
      "▁Enable": 8900,
      "▁altern": 8901,
      "▁Keen": 8902,
      "▁Soor": 8903,
      "▁Stick": 8904,
      "▁argum": 8905,
      "▁killer.": 8906,
      "▁made.": 8907,
      "▁carefully.": 8908,
      "▁leave?": 8909,
      "▁fuck?": 8910,
      "▁raft": 8911,
      "▁(G": 8912,
      "▁Hello?": 8913,
      "▁together?": 8914,
      "▁signs": 8915,
      "▁Group": 8916,
      "▁passeng": 8917,
      "▁files.": 8918,
      "▁Gotta": 8919,
      "▁school?": 8920,
      "▁Harry.": 8921,
      "▁extract": 8922,
      "▁forget.": 8923,
      "▁70": 8924,
      "▁caught.": 8925,
      "▁dude": 8926,
      "arrow": 8927,
      "\\\\\\\\{": 8928,
      "▁Trying": 8929,
      "▁fairy": 8930,
      "▁clothe": 8931,
      "▁jumped": 8932,
      "▁June": 8933,
      "▁itself.": 8934,
      "▁lunch.": 8935,
      "▁nervous": 8936,
      "▁Konqueror": 8937,
      "-of": 8938,
      "bur": 8939,
      "do": 8940,
      "ixt": 8941,
      "nome": 8942,
      "shal": 8943,
      "▁dea": 8944,
      "▁Tyl": 8945,
      "▁pul": 8946,
      "▁hi.": 8947,
      "▁AS": 8948,
      "▁AT": 8949,
      "▁Ah!": 8950,
      "▁Mister": 8951,
      "▁Crew": 8952,
      "▁Bi": 8953,
      "▁Rest": 8954,
      "▁Rose": 8955,
      "▁Riv": 8956,
      "han,": 8957,
      "▁Thunder": 8958,
      "aste": 8959,
      "▁spades.": 8960,
      "▁agents": 8961,
      "▁career": 8962,
      "▁_F": 8963,
      "▁Chur": 8964,
      "▁(%": 8965,
      "▁metal": 8966,
      "▁48": 8967,
      "▁toward": 8968,
      "▁men,": 8969,
      "▁messages": 8970,
      "▁Champ": 8971,
      "▁Well.": 8972,
      "▁rig": 8973,
      "▁Clark?": 8974,
      "body!": 8975,
      "▁91": 8976,
      "▁Charlie?": 8977,
      "▁experiment": 8978,
      "▁-It's": 8979,
      "▁camera.": 8980,
      "uke.": 8981,
      "▁gold.": 8982,
      "▁Lana": 8983,
      "▁lab.": 8984,
      "▁influ": 8985,
      "▁engineer": 8986,
      "▁calm.": 8987,
      "▁psycholog": 8988,
      "▁engagement": 8989,
      "▁fingerprint": 8990,
      "▁immediately": 8991,
      "▁throat": 8992,
      "▁Answer": 8993,
      "ne.": 8994,
      "rows": 8995,
      "▁wra": 8996,
      "▁low.": 8997,
      "ath.": 8998,
      "▁Arab": 8999,
      "▁measure": 9000,
      "aches": 9001,
      "▁Ben,": 9002,
      "▁Luth": 9003,
      "roc": 9004,
      "▁Rav": 9005,
      "▁Ju": 9006,
      "▁Earl": 9007,
      "artment": 9008,
      "ula": 9009,
      "▁St.": 9010,
      "▁'P": 9011,
      "ang.": 9012,
      "▁otherwise": 9013,
      "▁previous": 9014,
      "▁flu": 9015,
      "▁cheap": 9016,
      "▁shoes": 9017,
      "▁bad?": 9018,
      "▁funeral": 9019,
      "▁bro.": 9020,
      "▁touch.": 9021,
      "▁destiny": 9022,
      "▁consc": 9023,
      "▁island?": 9024,
      "▁sweetie.": 9025,
      "▁depend": 9026,
      "▁120": 9027,
      "▁Meh": 9028,
      "▁photos": 9029,
      "▁cleaning": 9030,
      "▁selection": 9031,
      "▁neck.": 9032,
      "▁neckl": 9033,
      "▁satisf": 9034,
      "OOD": 9035,
      "▁Trev": 9036,
      "▁universe": 9037,
      "craft": 9038,
      "▁recommend": 9039,
      "▁beginning.": 9040,
      "▁Imagine": 9041,
      "▁Breathe": 9042,
      "-k": 9043,
      "eer": 9044,
      "eed,": 9045,
      "hot": 9046,
      "rr": 9047,
      "iness.": 9048,
      "▁dynam": 9049,
      "ity!": 9050,
      "▁greet": 9051,
      "▁Wild": 9052,
      "▁Tob": 9053,
      "▁Sit.": 9054,
      "im.": 9055,
      "uty": 9056,
      "▁Bal": 9057,
      "▁Oct": 9058,
      "▁Heavy": 9059,
      "▁cant": 9060,
      "▁Rakes": 9061,
      "▁Jen": 9062,
      "▁rate": 9063,
      "▁trade": 9064,
      "▁Kent": 9065,
      "▁Kore": 9066,
      "▁guide": 9067,
      "ardon": 9068,
      "▁day...": 9069,
      "▁Whenever": 9070,
      "▁adult": 9071,
      "▁shoes.": 9072,
      "▁pleasure.": 9073,
      "▁%d": 9074,
      "▁came.": 9075,
      "▁army.": 9076,
      "▁collap": 9077,
      "▁doctor?": 9078,
      "▁god!": 9079,
      "▁Watson,": 9080,
      "▁violent": 9081,
      "▁Aw,": 9082,
      "▁policem": 9083,
      "▁arranged": 9084,
      "▁Type": 9085,
      "▁breakfast.": 9086,
      "▁teeth": 9087,
      "▁spoil": 9088,
      "▁genius.": 9089,
      "▁Mosc": 9090,
      "▁section": 9091,
      "▁exchange": 9092,
      "▁Gentlemen,": 9093,
      "▁also.": 9094,
      "TER": 9095,
      "UCK": 9096,
      "ni": 9097,
      "ite,": 9098,
      "▁-l": 9099,
      "▁Yesterday": 9100,
      "▁Han": 9101,
      "▁is..": 9102,
      "imal": 9103,
      "imeter": 9104,
      "▁Nain": 9105,
      "▁Dom": 9106,
      "▁GP": 9107,
      "▁Py": 9108,
      "▁Fion": 9109,
      "▁Font": 9110,
      "▁sugar": 9111,
      "▁loving": 9112,
      "ist?": 9113,
      "ush,": 9114,
      "▁ourselves.": 9115,
      "▁sport": 9116,
      "▁proceed": 9117,
      "ers...": 9118,
      "▁script": 9119,
      "▁unex": 9120,
      "▁channel": 9121,
      "▁news,": 9122,
      "▁big,": 9123,
      "▁supply": 9124,
      "▁surface": 9125,
      "iance": 9126,
      "▁son's": 9127,
      "▁gun?": 9128,
      "▁Move.": 9129,
      "▁Spir": 9130,
      "▁hatch.": 9131,
      "▁question?": 9132,
      "▁medal": 9133,
      "▁clear?": 9134,
      "▁curs": 9135,
      "▁villain": 9136,
      "▁formal": 9137,
      "▁failed.": 9138,
      "▁images": 9139,
      "▁weapons.": 9140,
      "▁contains": 9141,
      "▁largest": 9142,
      "▁sacrific": 9143,
      "ville.": 9144,
      "▁empty.": 9145,
      "▁Error": 9146,
      "▁asshole.": 9147,
      "▁Roman": 9148,
      "▁competition": 9149,
      "▁equipment": 9150,
      "▁advantage": 9151,
      "▁Court": 9152,
      "▁Eggs": 9153,
      "▁Arthur": 9154,
      "-the": 9155,
      "E,": 9156,
      "bound": 9157,
      "ront": 9158,
      "▁wag": 9159,
      "▁mer": 9160,
      "▁fra": 9161,
      "▁garden": 9162,
      "▁Tues": 9163,
      "▁pa": 9164,
      "▁he...": 9165,
      "▁Sound": 9166,
      "▁Aud": 9167,
      "▁Mel": 9168,
      "▁Cec": 9169,
      "sect": 9170,
      "▁Gib": 9171,
      "▁anger": 9172,
      "ilities": 9173,
      "▁row": 9174,
      "▁sav": 9175,
      "olved": 9176,
      "ape": 9177,
      "▁Stig": 9178,
      "▁things?": 9179,
      "▁dies": 9180,
      "▁When?": 9181,
      "▁around?": 9182,
      "▁everything's": 9183,
      "▁rail": 9184,
      "▁slow.": 9185,
      "▁struck": 9186,
      "▁entertain": 9187,
      "▁Unfortunately,": 9188,
      "▁heard.": 9189,
      "lied": 9190,
      "▁chap": 9191,
      "▁chase": 9192,
      "▁visual": 9193,
      "▁married,": 9194,
      "▁Prime": 9195,
      "▁rif": 9196,
      "▁land.": 9197,
      "▁Color": 9198,
      "▁operating": 9199,
      "▁$2": 9200,
      "▁buddy": 9201,
      "▁Aaron,": 9202,
      "▁YOU'": 9203,
      "▁Chang": 9204,
      "▁center": 9205,
      "▁terrif": 9206,
      "▁Contact": 9207,
      "▁Otherwise,": 9208,
      "▁partners": 9209,
      "▁Setting": 9210,
      "▁tunnel": 9211,
      "▁Shiv": 9212,
      "▁establ": 9213,
      "▁grandmother": 9214,
      "▁Nichol": 9215,
      "▁worried.": 9216,
      "▁tongue": 9217,
      "▁ritual": 9218,
      "▁naughty": 9219,
      "▁Fischer": 9220,
      "ead.": 9221,
      "time.": 9222,
      "▁dy": 9223,
      "▁dent": 9224,
      "▁Siv": 9225,
      "verton": 9226,
      "oop.": 9227,
      "▁National": 9228,
      "▁Nope.": 9229,
      "▁for...": 9230,
      "▁Lu": 9231,
      "▁Len": 9232,
      "▁Power": 9233,
      "▁backup": 9234,
      "▁plain": 9235,
      "▁it's...": 9236,
      "▁brown": 9237,
      "hi.": 9238,
      "▁more?": 9239,
      "▁quot": 9240,
      "▁units": 9241,
      "▁unlike": 9242,
      "▁feel?": 9243,
      "▁cris": 9244,
      "▁cry.": 9245,
      "▁actually,": 9246,
      "▁surf": 9247,
      "▁mom's": 9248,
      "▁slap": 9249,
      "▁desire": 9250,
      "▁listening.": 9251,
      "▁boy's": 9252,
      "▁powers.": 9253,
      "▁morning?": 9254,
      "▁explan": 9255,
      "▁four,": 9256,
      "▁stuff?": 9257,
      "▁extinct": 9258,
      "▁fear.": 9259,
      "▁Daddy": 9260,
      "▁golden": 9261,
      "ING)": 9262,
      "▁approaching": 9263,
      "▁Lex,": 9264,
      "▁corner.": 9265,
      "▁Walt.": 9266,
      "▁clubs.": 9267,
      "▁type.": 9268,
      "▁Ooh!": 9269,
      "▁neighb": 9270,
      "▁results": 9271,
      "▁Cooper,": 9272,
      "▁Hurley.": 9273,
      "▁bullshit.": 9274,
      "▁Rachel": 9275,
      "▁illegal": 9276,
      "▁valuable": 9277,
      "▁bridge.": 9278,
      "▁Beautiful": 9279,
      "▁guilty": 9280,
      "-off": 9281,
      "In": 9282,
      "boy": 9283,
      "ees.": 9284,
      "ka.": 9285,
      "les,": 9286,
      "head.": 9287,
      "▁theat": 9288,
      "is!": 9289,
      "▁nic": 9290,
      "▁nast": 9291,
      "▁patch": 9292,
      "ot,": 9293,
      "ara": 9294,
      "ster's": 9295,
      "ator,": 9296,
      "▁Source": 9297,
      "▁it'd": 9298,
      "▁bear.": 9299,
      "▁Cast": 9300,
      "▁Nell": 9301,
      "▁Nine": 9302,
      "▁Dugg": 9303,
      "▁steel": 9304,
      "▁Lin": 9305,
      "▁Fun": 9306,
      "iliz": 9307,
      "▁Andy": 9308,
      "▁That'll": 9309,
      "▁race.": 9310,
      "▁Thirty": 9311,
      "um!": 9312,
      "▁going!": 9313,
      "▁how?": 9314,
      "▁Okay...": 9315,
      "▁helps": 9316,
      "▁sir...": 9317,
      "▁hand!": 9318,
      "▁carried": 9319,
      "▁Shit,": 9320,
      "▁swing": 9321,
      "▁Alice": 9322,
      "▁hour,": 9323,
      "▁Will.": 9324,
      "▁yöu.": 9325,
      "aze": 9326,
      "▁Abb": 9327,
      "▁doctors": 9328,
      "▁wife's": 9329,
      "▁fool.": 9330,
      "▁Charles.": 9331,
      "▁model": 9332,
      "▁Milverton": 9333,
      "▁contact.": 9334,
      "▁Aaron": 9335,
      "▁Claire,": 9336,
      "▁editor": 9337,
      "▁behalf": 9338,
      "▁loss.": 9339,
      "▁potential": 9340,
      "▁English.": 9341,
      "▁Ooh,": 9342,
      "▁Mommy.": 9343,
      "believ": 9344,
      "▁Widmore": 9345,
      "▁literally": 9346,
      "▁creep": 9347,
      "▁Japan": 9348,
      "▁Naom": 9349,
      "▁beloved": 9350,
      "KE": 9351,
      "ga": 9352,
      "ipl": 9353,
      "rad": 9354,
      "rell": 9355,
      "▁dom": 9356,
      "▁dome": 9357,
      "▁-P": 9358,
      "▁Sut": 9359,
      "▁revenge": 9360,
      "▁Welcome.": 9361,
      "▁lip": 9362,
      "ants.": 9363,
      "▁Path": 9364,
      "▁Fe": 9365,
      "▁Fox": 9366,
      "▁one...": 9367,
      "▁manip": 9368,
      "▁say...": 9369,
      "▁prog": 9370,
      "hi,": 9371,
      "▁over!": 9372,
      "▁Note": 9373,
      "▁proud.": 9374,
      "▁girls,": 9375,
      "▁trying.": 9376,
      "▁Cannot": 9377,
      "▁surger": 9378,
      "▁Chris": 9379,
      "▁shop.": 9380,
      "▁hits": 9381,
      "ensive": 9382,
      "▁confess": 9383,
      "▁weeks,": 9384,
      "▁shots": 9385,
      "▁number,": 9386,
      "▁Manager": 9387,
      "▁officially": 9388,
      "▁required": 9389,
      "▁trees": 9390,
      "▁Flor": 9391,
      "▁placed": 9392,
      "▁mine.\"": 9393,
      "▁arrived.": 9394,
      "▁possible?": 9395,
      "▁squad": 9396,
      "▁circ": 9397,
      "▁terrorist.": 9398,
      "▁pointing": 9399,
      "▁tape": 9400,
      "▁tears": 9401,
      "▁Congratulations,": 9402,
      "▁nurse": 9403,
      "▁comfortable": 9404,
      "▁challeng": 9405,
      "▁possess": 9406,
      "▁Gandalf": 9407,
      "▁Chaudhary": 9408,
      "▁Avat": 9409,
      "EC": 9410,
      "burg": 9411,
      "render": 9412,
      "▁domin": 9413,
      "orge": 9414,
      "atically": 9415,
      "▁hmm": 9416,
      "▁HA": 9417,
      "icated": 9418,
      "▁does,": 9419,
      "▁Nia.": 9420,
      "▁rever": 9421,
      "ama.": 9422,
      "▁stone": 9423,
[...]
