{
  "version": "1.0",
  "truncation": null,
  "padding": null,
  "added_tokens": [
    {
      "id": 0,
      "content": "[PAD]",
      "single_word": false,
      "lstrip": false,
      "rstrip": false,
      "normalized": false,
      "special": true
    },
    {
      "id": 1,
      "content": "[UNK]",
      "single_word": false,
      "lstrip": false,
      "rstrip": false,
      "normalized": false,
      "special": true
    },
    {
      "id": 2,
      "content": "[BOS]",
      "single_word": false,
      "lstrip": false,
      "rstrip": false,
      "normalized": false,
      "special": true
    },
    {
      "id": 3,
      "content": "[EOS]",
      "single_word": false,
      "lstrip": false,
      "rstrip": false,
      "normalized": false,
      "special": true
    }
  ],
  "normalizer": null,
  "pre_tokenizer": {
    "type": "ByteLevel",
    "add_prefix_space": true,
    "trim_offsets": true,
    "use_regex": true
  },
  "post_processor": null,
  "decoder": {
    "type": "ByteLevel",
    "add_prefix_space": true,
    "trim_offsets": true,
    "use_regex": true
  },
  "model": {
    "type": "BPE",
    "dropout": null,
    "unk_token": "[UNK]",
    "continuing_subword_prefix": null,
    "end_of_word_suffix": null,
    "fuse_unk": false,
    "byte_fallback": false,
    "ignore_merges": false,
    "vocab": {
      "[PAD]": 0,
      "[UNK]": 1,
      "[BOS]": 2,
      "[EOS]": 3,
      "!": 4,
      "\"": 5,
      "#": 6,
      "$": 7,
      "%": 8,
      "&": 9,
      "'": 10,
      "(": 11,
      ")": 12,
      "*": 13,
      "+": 14,
      ",": 15,
      "-": 16,
      ".": 17,
      "/": 18,
      "0": 19,
      "1": 20,
      "2": 21,
      "3": 22,
      "4": 23,
      "5": 24,
      "6": 25,
      "7": 26,
      "8": 27,
      "9": 28,
      ":": 29,
      ";": 30,
      "<": 31,
      "=": 32,
      ">": 33,
      "?": 34,
      "@": 35,
      "A": 36,
      "B": 37,
      "C": 38,
      "D": 39,
      "E": 40,
      "F": 41,
      "G": 42,
      "H": 43,
      "I": 44,
      "J": 45,
      "K": 46,
      "L": 47,
      "M": 48,
      "N": 49,
      "O": 50,
      "P": 51,
      "Q": 52,
      "R": 53,
      "S": 54,
      "T": 55,
      "U": 56,
      "V": 57,
      "W": 58,
      "X": 59,
      "Y": 60,
      "Z": 61,
      "[": 62,
      "\\": 63,
      "]": 64,
      "^": 65,
      "_": 66,
      "`": 67,
      "a": 68,
      "b": 69,
      "c": 70,
      "d": 71,
      "e": 72,
      "f": 73,
      "g": 74,
      "h": 75,
      "i": 76,
      "j": 77,
      "k": 78,
      "l": 79,
      "m": 80,
      "n": 81,
      "o": 82,
      "p": 83,
      "q": 84,
      "r": 85,
      "s": 86,
      "t": 87,
      "u": 88,
      "v": 89,
      "w": 90,
      "x": 91,
      "y": 92,
      "z": 93,
      "{": 94,
      "}": 95,
      "~": 96,
      "¡": 97,
      "¢": 98,
      "£": 99,
      "¤": 100,
      "¥": 101,
      "¦": 102,
      "§": 103,
      "¨": 104,
      "©": 105,
      "ª": 106,
      "«": 107,
      "¬": 108,
      "®": 109,
      "¯": 110,
      "°": 111,
      "±": 112,
      "²": 113,
      "³": 114,
      "´": 115,
      "µ": 116,
      "¶": 117,
      "·": 118,
      "¸": 119,
      "¹": 120,
      "º": 121,
      "»": 122,
      "¼": 123,
      "½": 124,
      "¾": 125,
      "¿": 126,
      "Â": 127,
      "Ã": 128,
      "Ä": 129,
      "Å": 130,
      "Ë": 131,
      "Î": 132,
      "Ð": 133,
      "Ñ": 134,
      "à": 135,
      "â": 136,
      "ç": 137,
      "é": 138,
      "ï": 139,
      "Ġ": 140,
      "Ģ": 141,
      "ģ": 142,
      "Ĥ": 143,
      "ĥ": 144,
      "Ħ": 145,
      "ħ": 146,
      "Ĩ": 147,
      "ĩ": 148,
      "Ī": 149,
      "ī": 150,
      "Ĭ": 151,
      "ĭ": 152,
      "Į": 153,
      "į": 154,
      "İ": 155,
      "ı": 156,
      "Ĳ": 157,
      "ĳ": 158,
      "Ĵ": 159,
      "ĵ": 160,
      "Ķ": 161,
      "ķ": 162,
      "ĸ": 163,
      "Ĺ": 164,
      "ĺ": 165,
      "Ļ": 166,
      "ļ": 167,
      "Ľ": 168,
      "ľ": 169,
      "Ŀ": 170,
      "ŀ": 171,
      "Ł": 172,
      "ł": 173,
      "Ń": 174,
      "Ġt": 175,
      "he": 176,
      "ou": 177,
      "Ġa": 178,
      "in": 179,
      "re": 180,
      "Ġw": 181,
      "Ġs": 182,
      "ĠI": 183,
      "ha": 184,
      "on": 185,
      "Ġy": 186,
      "Ġyou": 187,
      "Ġm": 188,
      "Ġthe": 189,
      "is": 190,
      "Ġb": 191,
      "er": 192,
      "ll": 193,
      "Ġd": 194,
      "ing": 195,
      "it": 196,
      "Ġc": 197,
      "Ġto": 198,
      "an": 199,
      "Ġf": 200,
      "Ġg": 201,
      "or": 202,
      "hat": 203,
      "..": 204,
      "ve": 205,
      "Ġl": 206,
      "en": 207,
      "ĠW": 208,
      "Ġn": 209,
      "'s": 210,
      "ow": 211,
      "ĠT": 212,
      "Ġ-": 213,
      "ed": 214,
      "Ġp": 215,
      "om": 216,
      "Ġo": 217,
      "es": 218,
      "nd": 219,
      "ot": 220,
      "et": 221,
      "Ġhe": 222,
      "ar": 223,
      "st": 224,
      "ĠY": 225,
      "at": 226,
      "Ġth": 227,
      "Ġh": 228,
      "ay": 229,
      "ĠS": 230,
      "Ġha": 231,
      "Ġin": 232,
      "Ġit": 233,
      "Ġof": 234,
      "'t": 235,
      "ĠH": 236,
      "ĠA": 237,
      "le": 238,
      "Ġme": 239,
      "as": 240,
      "Ġbe": 241,
      "ĠYou": 242,
      "Ġis": 243,
      "Ġon": 244,
      "id": 245,
      "gh": 246,
      "Ġthat": 247,
      "Ġk": 248,
      "Ġu": 249,
      "...": 250,
      "ld": 251,
      "Ġwe": 252,
      "im": 253,
      "ic": 254,
      "ut": 255,
      "ac": 256,
      "se": 257,
      "al": 258,
      "ke": 259,
      "Ġand": 260,
      "Ġe": 261,
      "ĠM": 262,
      "ĠC": 263,
      "ght": 264,
      "ver": 265,
      "out": 266,
      "oo": 267,
      "Ġdo": 268,
      "ri": 269,
      "ĠB": 270,
      "ome": 271,
      "ĠN": 272,
      "ad": 273,
      "ĠD": 274,
      "ĠThe": 275,
      "Ġfor": 276,
      "Ġyour": 277,
      "ill": 278,
      "Ġre": 279,
      "Ġthis": 280,
      "am": 281,
      "ĠO": 282,
      "Ġst": 283,
      "ir": 284,
      "ĠHe": 285,
      "'re": 286,
      "ĠG": 287,
      "Ġhave": 288,
      "ust": 289,
      "ĠWe": 290,
      "Ġmy": 291,
      "Ġgo": 292,
      "Ġare": 293,
      "Ġkn": 294,
      "ĠL": 295,
      "Ġnot": 296,
      "'m": 297,
      "ion": 298,
      "Ġli": 299,
      "Ġan": 300,
      "ly": 301,
      "ith": 302,
      "ro": 303,
      "Ġknow": 304,
      "Ġwas": 305,
      "ĠWhat": 306,
      "ee": 307,
      "ent": 308,
      "Ġwith": 309,
      "Ġcan": 310,
      "ould": 311,
      "Ġj": 312,
      "ĠIt": 313,
      "all": 314,
      "Ġne": 315,
      "her": 316,
      "ho": 317,
      "ant": 318,
      "Ġdon": 319,
      "ĠP": 320,
      "ec": 321,
      "ur": 322,
      "Ġwhat": 323,
      "Ġhere": 324,
      "hing": 325,
      "Ġget": 326,
      "if": 327,
      "ea": 328,
      "Ġhim": 329,
      "ake": 330,
      "pp": 331,
      "Ġout": 332,
      "ack": 333,
      "ĠR": 334,
      "'ll": 335,
      "one": 336,
      "ter": 337,
      "ĠF": 338,
      "ry": 339,
      "op": 340,
      "ch": 341,
      "Ġall": 342,
      "Ġab": 343,
      "un": 344,
      "ĠJ": 345,
      "ce": 346,
      "Ġas": 347,
      "Ġup": 348,
      "Ġjust": 349,
      "our": 350,
      "ĠAnd": 351,
      "right": 352,
      "il": 353,
      "han": 354,
      "ook": 355,
      "and": 356,
      "Ġlike": 357,
      "ell": 358,
      "ra": 359,
      "Ġwant": 360,
      "ĠNo": 361,
      "ĠE": 362,
      "Ġsh": 363,
      "ck": 364,
      "Ġat": 365,
      "Ġdid": 366,
      "ink": 367,
      "ive": 368,
      "Ġwill": 369,
      "ood": 370,
      "Ġright": 371,
      "Ġabout": 372,
      "ind": 373,
      "Ġgot": 374,
      "Ġthere": 375,
      "na": 376,
      "ight": 377,
      "very": 378,
      "hy": 379,
      "rom": 380,
      "Ġso": 381,
      "Ġwor": 382,
      "ore": 383,
      "Ġus": 384,
      "ge": 385,
      "ĠThat": 386,
      "ie": 387,
      "Ġher": 388,
      "here": 389,
      "Ġone": 390,
      "au": 391,
      "art": 392,
      "Ġany": 393,
      "Ġno": 394,
      "od": 395,
      "ess": 396,
      "Ġsu": 397,
      "Ġr": 398,
      "'ve": 399,
      "Ġthey": 400,
      "Ġthink": 401,
      "Ġlo": 402,
      "ain": 403,
      "own": 404,
      "ĠTh": 405,
      "Ġsa": 406,
      "Ġ\"": 407,
      "us": 408,
      "Ġnow": 409,
      "end": 410,
      "Ġal": 411,
      "Ġsee": 412,
      "ist": 413,
      "ame": 414,
      "Ġfrom": 415,
      "Ġde": 416,
      "est": 417,
      "Ġbut": 418,
      "ate": 419,
      "ĠBut": 420,
      "hen": 421,
      "Ġback": 422,
      "ĠK": 423,
      "Ġneed": 424,
      "Ġman": 425,
      "Ġcom": 426,
      "ig": 427,
      "Ġif": 428,
      "Ġpl": 429,
      "ab": 430,
      "ast": 431,
      "ime": 432,
      "ally": 433,
      "ct": 434,
      "kay": 435,
      "Ġsome": 436,
      "ol": 437,
      "Ġhis": 438,
      "os": 439,
      "ation": 440,
      "Ġthem": 441,
      "Ġwho": 442,
      "Ġgoing": 443,
      "ers": 444,
      "onna": 445,
      "ong": 446,
      "ak": 447,
      "Ġgonna": 448,
      "ase": 449,
      "rou": 450,
      "ul": 451,
      "nt": 452,
      "um": 453,
      "ĠOh": 454,
      "ĠThis": 455,
      "Ġsay": 456,
      "ĠSo": 457,
      "em": 458,
      "are": 459,
      "Ġshe": 460,
      "ear": 461,
      "ice": 462,
      "ine": 463,
      "Ġor": 464,
      "Ġcome": 465,
      "Ġcon": 466,
      "Ġwould": 467,
      "Ġgu": 468,
      "Ġtime": 469,
      "Ġex": 470,
      "eah": 471,
      "ĠThey": 472,
      "ect": 473,
      "el": 474,
      "qu": 475,
      "alk": 476,
      "ĠHow": 477,
      "other": 478,
      "Ġwere": 479,
      "ĠHey": 480,
      "fe": 481,
      "Ġour": 482,
      "Ġlook": 483,
      "ard": 484,
      "way": 485,
      "Ġtell": 486,
      "Ġsp": 487,
      "Ġbeen": 488,
      "Ġpro": 489,
      "Ġhas": 490,
      "ĠCome": 491,
      "ure": 492,
      "ick": 493,
      "thing": 494,
      "ace": 495,
      "omet": 496,
      "ap": 497,
      "Ġhapp": 498,
      "ort": 499,
      "Ġag": 500,
      "Ġtoo": 501,
      "ĠShe": 502,
      "Ġtr": 503,
      "Ġtake": 504,
      "ĠIf": 505,
      "Ġgood": 506,
      "Ġdown": 507,
      "ven": 508,
      "ĠSt": 509,
      "Ġoff": 510,
      "ide": 511,
      "Ġam": 512,
      "Ġevery": 513,
      "Ġcould": 514,
      "ĠWell": 515,
      "ĠWhy": 516,
      "Ġthing": 517,
      "Ġv": 518,
      "lease": 519,
      "uck": 520,
      "ire": 521,
      "ĠDo": 522,
      "ĠYeah": 523,
      "Ġway": 524,
      "itt": 525,
      "Ġhad": 526,
      "ause": 527,
      "omething": 528,
      "lp": 529,
      "ĠU": 530,
      "ĠThere": 531,
      "ble": 532,
      "Ġwhen": 533,
      "ag": 534,
      "Ġhow": 535,
      "Ġint": 536,
      "ĠDon": 537,
      "Ġshould": 538,
      "ous": 539,
      "Ġtalk": 540,
      "Ġkill": 541,
      "hi": 542,
      "Ġpe": 543,
      "res": 544,
      "Ġcl": 545,
      "Ġlet": 546,
      "Ġdidn": 547,
      "Ġcall": 548,
      "Ġby": 549,
      "Ġwork": 550,
      "ople": 551,
      "Ġhappen": 552,
      "ove": 553,
      "Ġsomething": 554,
      "Ġ1": 555,
      "ity": 556,
      "lf": 557,
      "Ġguy": 558,
      "ĠAll": 559,
      "reat": 560,
      "'d": 561,
      "Ġmake": 562,
      "ĠLet": 563,
      "Ġonly": 564,
      "hank": 565,
      "ĠMy": 566,
      "Ġmean": 567,
      "nder": 568,
      "Ġlove": 569,
      "th": 570,
      "ĠWhere": 571,
      "age": 572,
      "ait": 573,
      "eep": 574,
      "ĠWho": 575,
      "Ġday": 576,
      "Ġbr": 577,
      "Ġover": 578,
      "ud": 579,
      "Ġbl": 580,
      "ber": 581,
      "Ġpeople": 582,
      "Ġmore": 583,
      "Ġfind": 584,
      "Ġ'": 585,
      "ound": 586,
      "ĠOkay": 587,
      "ff": 588,
      "Ġle": 589,
      "Ġnever": 590,
      "Ġbo": 591,
      "ose": 592,
      "Ġhelp": 593,
      "ving": 594,
      "ĠV": 595,
      "Ġse": 596,
      "ies": 597,
      "Ġdoes": 598,
      "ther": 599,
      "wo": 600,
      "ree": 601,
      ".\"": 602,
      "Ġsaid": 603,
      "Ġwhy": 604,
      "Ġlea": 605,
      "ĠYes": 606,
      "pl": 607,
      "Ġwhere": 608,
      "act": 609,
      "orry": 610,
      "ond": 611,
      "red": 612,
      "iss": 613,
      "ody": 614,
      "ĠNot": 615,
      "Ġen": 616,
      "Ġqu": 617,
      "ĠNow": 618,
      "pt": 619,
      "ew": 620,
      "ĠJust": 621,
      "Ġthen": 622,
      "Ġgive": 623,
      "Ġokay": 624,
      "Ġro": 625,
      "Ġsc": 626,
      "ather": 627,
      "ĠLook": 628,
      "Ġdoing": 629,
      "ĠGet": 630,
      "ting": 631,
      "ady": 632,
      "ittle": 633,
      "Ġunder": 634,
      "Ġreally": 635,
      "Ġsir": 636,
      "ass": 637,
      "Ġbec": 638,
      "riend": 639,
      "ĠIs": 640,
      "ning": 641,
      "ue": 642,
      "be": 643,
      "ost": 644,
      "ĠAre": 645,
      "ull": 646,
      "per": 647,
      "Ġlittle": 648,
      "self": 649,
      "Ġagain": 650,
      "ave": 651,
      "irst": 652,
      "ob": 653,
      "Ġun": 654,
      "ment": 655,
      "Ġlife": 656,
      "Ġbet": 657,
      "fter": 658,
      "Ġask": 659,
      "uch": 660,
      "ite": 661,
      "Ġinto": 662,
      "ish": 663,
      "old": 664,
      "Ġeven": 665,
      "ĠOn": 666,
      "ĠMr": 667,
      "Ġtwo": 668,
      "Ġyear": 669,
      "Ġpr": 670,
      "ĠIn": 671,
      "ĠAn": 672,
      "har": 673,
      "iz": 674,
      "ade": 675,
      "round": 676,
      "fore": 677,
      "ĠGo": 678,
      "ft": 679,
      "Ġother": 680,
      "Ġbel": 681,
      "Ġmuch": 682,
      "Ġvery": 683,
      "ought": 684,
      "Ġname": 685,
      "urn": 686,
      "ough": 687,
      "irl": 688,
      "get": 689,
      "Ġim": 690,
      "ang": 691,
      "00": 692,
      "eel": 693,
      "ĠYour": 694,
      "Ġhand": 695,
      "ord": 696,
      "ach": 697,
      "Ġanything": 698,
      "ep": 699,
      "ĠThank": 700,
      "Ġthese": 701,
      "ark": 702,
      "Ġtry": 703,
      "Ġaway": 704,
      "Ġar": 705,
      "body": 706,
      "Ġcar": 707,
      "Ġfriend": 708,
      "Ġsec": 709,
      "row": 710,
      "Ġchan": 711,
      "ĠGod": 712,
      "Ġtheir": 713,
      "ĠSh": 714,
      "Ġrem": 715,
      "Ġstill": 716,
      "day": 717,
      "ise": 718,
      "Ġgirl": 719,
      "Ġ..": 720,
      "Ġhome": 721,
      "Ġbefore": 722,
      "Ġkeep": 723,
      "Ġnew": 724,
      "ĠPlease": 725,
      "oney": 726,
      "Ġwr": 727,
      "Ġsure": 728,
      "ia": 729,
      "Ġlong": 730,
      "Ġwat": 731,
      "Ġwon": 732,
      "Ġsorry": 733,
      "Ġthan": 734,
      "ress": 735,
      "Ġfirst": 736,
      "Ġfeel": 737,
      "Ġ2": 738,
      "Ġtold": 739,
      "isten": 740,
      "ĠCan": 741,
      "oll": 742,
      "Ġafter": 743,
      "Ġac": 744,
      "Ġpre": 745,
      "aybe": 746,
      "ieve": 747,
      "Ġmin": 748,
      "ty": 749,
      "ans": 750,
      "ĠDid": 751,
      "Ġplease": 752,
      "orm": 753,
      "ail": 754,
      "Ġwait": 755,
      "og": 756,
      "hic": 757,
      "Ġmust": 758,
      "ory": 759,
      "Ġthought": 760,
      "Ġhappened": 761,
      "Ġfl": 762,
      "Ġfather": 763,
      "Ġyears": 764,
      "Ġcare": 765,
      "Ġkid": 766,
      "Ġbecause": 767,
      "Ġnight": 768,
      "Ġlast": 769,
      "ĠGood": 770,
      "stand": 771,
      "Ġsw": 772,
      "Ġcoming": 773,
      "ever": 774,
      "Ġdis": 775,
      "ool": 776,
      "ions": 777,
      "Ġleave": 778,
      "Ġson": 779,
      "ip": 780,
      "ily": 781,
      "ile": 782,
      "Ġplace": 783,
      "Ġcont": 784,
      "ance": 785,
      "Ġput": 786,
      "sp": 787,
      "ious": 788,
      "Ġguys": 789,
      "ĠWhen": 790,
      "Ġpart": 791,
      "Ġsm": 792,
      "xt": 793,
      "Ġstart": 794,
      "ock": 795,
      "pen": 796,
      "Ġact": 797,
      "Ġad": 798,
      "Ġmade": 799,
      "ug": 800,
      "able": 801,
      "Ġboy": 802,
      "Ġplan": 803,
      "Ġhell": 804,
      "Ġstop": 805,
      "int": 806,
      "hed": 807,
      "ouse": 808,
      "ount": 809,
      "aught": 810,
      "Ġreal": 811,
      "Ġdone": 812,
      "ign": 813,
      "Ġwell": 814,
      "Ġbelieve": 815,
      "Ġworld": 816,
      "side": 817,
      "Ġever": 818,
      "aking": 819,
      "Ġrun": 820,
      "av": 821,
      "oss": 822,
      "ways": 823,
      "Ġaround": 824,
      "Ġfuck": 825,
      "ary": 826,
      "Ġte": 827,
      "Ġunderstand": 828,
      "ons": 829,
      "ĠThen": 830,
      "Ġlive": 831,
      "Ġhead": 832,
      "Ġ...": 833,
      "Ġche": 834,
      "ey": 835,
      "ren": 836,
      "Ġdoesn": 837,
      "Ġel": 838,
      "Ġminut": 839,
      "ial": 840,
      "ried": 841,
      "Ġstay": 842,
      "Ġmove": 843,
      "ath": 844,
      "ence": 845,
      "Ġid": 846,
      "Ġbu": 847,
      "Ġcr": 848,
      "Ġleft": 849,
      "Ġbetter": 850,
      "Ġtra": 851,
      "aw": 852,
      "ĠCl": 853,
      "rough": 854,
      "Ġmoney": 855,
      "Ġeverything": 856,
      "Ġâ": 857,
      "Ġthings": 858,
      "ĠFor": 859,
      "Ġcame": 860,
      "Ġthose": 861,
      "port": 862,
      "hich": 863,
      "up": 864,
      "Ġhear": 865,
      "Ġshow": 866,
      "ict": 867,
      "Ġfound": 868,
      "Ġdead": 869,
      "Ġass": 870,
      "ta": 871,
      "Ġlot": 872,
      "ĠEvery": 873,
      "ated": 874,
      "Ġfam": 875,
      "Ġsomeone": 876,
      "Ġthrough": 877,
      "oc": 878,
      "ember": 879,
      "ĠAl": 880,
      "Ġalways": 881,
      "Ġcomp": 882,
      "ix": 883,
      "ĠBec": 884,
      "Ġwrong": 885,
      "Ġbig": 886,
      "Ġown": 887,
      "Ġmat": 888,
      "Ġper": 889,
      "mm": 890,
      "Ġmar": 891,
      "Ġnothing": 892,
      "Ġdr": 893,
      "Ġgreat": 894,
      "ub": 895,
      "Ġph": 896,
      "Ġbad": 897,
      "ye": 898,
      "ĠBr": 899,
      "Ġelse": 900,
      "Ġsupp": 901,
      "ful": 902,
      "Ġtalking": 903,
      "Ġmeet": 904,
      "ister": 905,
      "Ġbrother": 906,
      "Ġcour": 907,
      "Ġpo": 908,
      "Ġapp": 909,
      "Ġgr": 910,
      "ank": 911,
      "ny": 912,
      "Ġsur": 913,
      "ike": 914,
      "Ġmiss": 915,
      "iv": 916,
      "Ġ_": 917,
      "ian": 918,
      "ĠâĻ": 919,
      "Ġplay": 920,
      "ĠDad": 921,
      "Ġhouse": 922,
      "Ġatt": 923,
      "ĠCh": 924,
      "ually": 925,
      "Ġsho": 926,
      "Ġwanted": 927,
      "ĠAs": 928,
      "Ġlooking": 929,
      "Ġgetting": 930,
      "ĠBecause": 931,
      "ied": 932,
      "ĠJo": 933,
      "ĠAm": 934,
      "blem": 935,
      "Ġrec": 936,
      "Ġkind": 937,
      "Ġold": 938,
      "Ġser": 939,
      "Ġsha": 940,
      "eet": 941,
      "Ġdec": 942,
      "Ġhar": 943,
      "oy": 944,
      "een": 945,
      "ng": 946,
      "oth": 947,
      "Ġisn": 948,
      "Ġcle": 949,
      "ĠHere": 950,
      "Ġtrying": 951,
      "les": 952,
      "Ġmother": 953,
      "Ġjob": 954,
      "Ġmight": 955,
      "Ġmom": 956,
      "anna": 957,
      "Ġpol": 958,
      "Ġproblem": 959,
      "ont": 960,
      "aby": 961,
      "ife": 962,
      "ĠOne": 963,
      "--": 964,
      "erson": 965,
      "Ġmany": 966,
      "Ġra": 967,
      "Ġstr": 968,
      "ible": 969,
      "ince": 970,
      "Ġfine": 971,
      "Ġmon": 972,
      "ĠTell": 973,
      "ĠRe": 974,
      "ĠTo": 975,
      "Ġbeing": 976,
      "Ġco": 977,
      "Ġtoday": 978,
      "Ġacc": 979,
      "ah": 980,
      "Ġ(": 981,
      "ash": 982,
      "ĠTake": 983,
      "ĠSir": 984,
      "Ġsame": 985,
      "Ġdie": 986,
      "ple": 987,
      "Ġthree": 988,
      "Ġfamily": 989,
      "Ġenough": 990,
      "tain": 991,
      "ors": 992,
      "Ġsaw": 993,
      "ower": 994,
      "Ġuse": 995,
      "akes": 996,
      "Ġgotta": 997,
      "Ġkilled": 998,
      "Ġdad": 999,
      "hn": 1000,
      "Ġend": 1001,
      "ĠMaybe": 1002,
      "Ġsave": 1003,
      "dy": 1004,
      "Ġbus": 1005,
      "Ġcomm": 1006,
      "Ġanother": 1007,
      "Ġremember": 1008,
      "ĠHell": 1009,
      "Ġtook": 1010,
      "uth": 1011,
      "Ġmay": 1012,
      "Ġdif": 1013,
      "ations": 1014,
      "Ġ3": 1015,
      "der": 1016,
      "Ġsl": 1017,
      "Ġyourself": 1018,
      "Ġseen": 1019,
      "ek": 1020,
      "Ġturn": 1021,
      "Ġdes": 1022,
      "Ġbit": 1023,
      "Ġheart": 1024,
      "ĠâĻª": 1025,
      "Ġbring": 1026,
      "Ġhur": 1027,
      "ĠJack": 1028,
      "so": 1029,
      "Ġperson": 1030,
      "ĠEx": 1031,
      "imes": 1032,
      "ret": 1033,
      "ĠWait": 1034,
      "hes": 1035,
      "Ġmind": 1036,
      "atch": 1037,
      "Ġwithout": 1038,
      "igh": 1039,
      "uh": 1040,
      "ĠBe": 1041,
      "man": 1042,
      "Ã¶": 1043,
      "Ġanyone": 1044,
      "Ġopen": 1045,
      "pped": 1046,
      "Ġdays": 1047,
      "Ġhour": 1048,
      "Ġnext": 1049,
      "Ġent": 1050,
      "Ġchi": 1051,
      "Ġwar": 1052,
      "ild": 1053,
      "reak": 1054,
      "osed": 1055,
      "ps": 1056,
      "Ġem": 1057,
      "ĠSome": 1058,
      "Ġlisten": 1059,
      "Ġlost": 1060,
      "Ġwanna": 1061,
      "ope": 1062,
      "ready": 1063,
      "Ġgone": 1064,
      "ating": 1065,
      "aughter": 1066,
      "rest": 1067,
      "Ġfin": 1068,
      "orrow": 1069,
      "ĠDe": 1070,
      "ner": 1071,
      "Ġcourse": 1072,
      "rent": 1073,
      "Ġfun": 1074,
      "Ġroom": 1075,
      "ĠStop": 1076,
      "air": 1077,
      "Ġquest": 1078,
      "Ġgun": 1079,
      "orning": 1080,
      "Ġwent": 1081,
      "Ġalready": 1082,
      "ss": 1083,
      "gether": 1084,
      "ream": 1085,
      "land": 1086,
      "ĠHello": 1087,
      "eak": 1088,
      "Ġsaying": 1089,
      "Ġmet": 1090,
      "Ġdri": 1091,
      "Ġset": 1092,
      "Ġsecond": 1093,
      "Ġknew": 1094,
      "use": 1095,
      "Ġbaby": 1096,
      "Ġused": 1097,
      "Ġago": 1098,
      "iles": 1099,
      "aj": 1100,
      "Ġwhich": 1101,
      "ollow": 1102,
      "Ġmen": 1103,
      "ĠOr": 1104,
      "Ġready": 1105,
      "amn": 1106,
      "ason": 1107,
      "Ġidea": 1108,
      "ms": 1109,
      "my": 1110,
      "ĠyÃ¶": 1111,
      "Ġmo": 1112,
      "Ġfr": 1113,
      "Ġbest": 1114,
      "Ġhold": 1115,
      "ĠGive": 1116,
      "form": 1117,
      "gg": 1118,
      "Ġword": 1119,
      "ars": 1120,
      "Ġweek": 1121,
      "where": 1122,
      "Ġmatter": 1123,
      "less": 1124,
      "ident": 1125,
      "Ġch": 1126,
      "pe": 1127,
      "Ġchild": 1128,
      "ĠSee": 1129,
      "ax": 1130,
      "ens": 1131,
      "Ġdaughter": 1132,
      "Ġtogether": 1133,
      "ĠAny": 1134,
      "ition": 1135,
      "ĠRight": 1136,
      "vel": 1137,
      "Ġwasn": 1138,
      "Ġthank": 1139,
      "ical": 1140,
      "Ġfriends": 1141,
      "yes": 1142,
      "Ġcra": 1143,
      "ĠOK": 1144,
      "ĠUn": 1145,
      "Ġfew": 1146,
      "hile": 1147,
      "Ġrest": 1148,
      "ott": 1149,
      "leep": 1150,
      "ings": 1151,
      "ater": 1152,
      "Ġnum": 1153,
      "Ġinside": 1154,
      "Ġhit": 1155,
      "Ġheard": 1156,
      "Ġshit": 1157,
      "cle": 1158,
      "ins": 1159,
      "Ġhard": 1160,
      "ĠSorry": 1161,
      "Ġ%": 1162,
      "Ġminutes": 1163,
      "Ġcalled": 1164,
      "ize": 1165,
      "ense": 1166,
      "Ġ4": 1167,
      "Ġwife": 1168,
      "Ġwater": 1169,
      "Ġi": 1170,
      "aut": 1171,
      "Ġphone": 1172,
      "ĠChar": 1173,
      "ird": 1174,
      "Ġalso": 1175,
      "Ġdiffe": 1176,
      "Ġres": 1177,
      "ĠUh": 1178,
      "orn": 1179,
      "Ġfar": 1180,
      "ntil": 1181,
      "aster": 1182,
      "Ġwouldn": 1183,
      "ĠListen": 1184,
      "Ġmorning": 1185,
      "ĠWill": 1186,
      "ĠHave": 1187,
      "Ġwhole": 1188,
      "Ġwom": 1189,
      "zy": 1190,
      "Ġprom": 1191,
      "ĠHi": 1192,
      "ĠAt": 1193,
      "Ġfight": 1194,
      "Ġnice": 1195,
      "Ġyet": 1196,
      "ared": 1197,
      "Ġwalk": 1198,
      "Ġcho": 1199,
      "Ġ5": 1200,
      "Ġsister": 1201,
      "Ġtow": 1202,
      "Ġpret": 1203,
      "Ġcount": 1204,
      "anc": 1205,
      "Ġcha": 1206,
      "Ġpolice": 1207,
      "ying": 1208,
      "iness": 1209,
      "Ġmost": 1210,
      "Ġyeah": 1211,
      "ru": 1212,
      "Ġonce": 1213,
      "Ġfire": 1214,
      "Ġguess": 1215,
      "Ġalone": 1216,
      "Ġcheck": 1217,
      "Ġboth": 1218,
      "Ġsign": 1219,
      "ctor": 1220,
      "Ġsuch": 1221,
      "med": 1222,
      "uff": 1223,
      "Ġface": 1224,
      "Ġeveryone": 1225,
      "Ġsafe": 1226,
      "Ġpass": 1227,
      "ult": 1228,
      "ĠJohn": 1229,
      "ject": 1230,
      "ik": 1231,
      "ness": 1232,
      "Ġeyes": 1233,
      "ient": 1234,
      "ĠMom": 1235,
      "ĠQ": 1236,
      "ib": 1237,
      "Ġsoon": 1238,
      "Ġyes": 1239,
      "Ġdeal": 1240,
      "ves": 1241,
      "rew": 1242,
      "Ġfucking": 1243,
      "cess": 1244,
      "Ġuh": 1245,
      "Ġhurt": 1246,
      "Ġ[": 1247,
      "Ġsit": 1248,
      "Ġtrust": 1249,
      "Ġmess": 1250,
      "Ġrel": 1251,
      "arl": 1252,
      "Ġblood": 1253,
      "Ġter": 1254,
      "sw": 1255,
      "Ġstand": 1256,
      "Ġgave": 1257,
      "Ġpay": 1258,
      "Ġprot": 1259,
      "Ġsy": 1260,
      "ger": 1261,
      "Ġtom": 1262,
      "Ġmaybe": 1263,
      "ier": 1264,
      "Ġknows": 1265,
      "Ġfollow": 1266,
      "rop": 1267,
      "Ġhum": 1268,
      "ude": 1269,
      "Ġhands": 1270,
      "lect": 1271,
      "asy": 1272,
      "Ġchange": 1273,
      "Ġgl": 1274,
      "ĠyÃ¶u": 1275,
      "Ġdoor": 1276,
      "Ġret": 1277,
      "dd": 1278,
      "Ġworry": 1279,
      "Ġwhile": 1280,
      "ĠMove": 1281,
      "Ġsleep": 1282,
      "Ġresp": 1283,
      "hind": 1284,
      "Ġconf": 1285,
      "to": 1286,
      "Ġcompl": 1287,
      "actly": 1288,
      "Ġsays": 1289,
      "rol": 1290,
      "ĠLike": 1291,
      "ĠWith": 1292,
      "Ġcase": 1293,
      "ĠDr": 1294,
      "ĠSc": 1295,
      "lt": 1296,
      "ching": 1297,
      "Ġwants": 1298,
      "ered": 1299,
      "Ġpower": 1300,
      "Ġmeans": 1301,
      "Ġexp": 1302,
      "az": 1303,
      "Ġmonth": 1304,
      "Ġtomorrow": 1305,
      "Ġmyself": 1306,
      "Ġuntil": 1307,
      "cept": 1308,
      "ĠOf": 1309,
      "Ġbreak": 1310,
      "Ġshot": 1311,
      "ĠPro": 1312,
      "Ġhaven": 1313,
      "app": 1314,
      "lic": 1315,
      "Ġclose": 1316,
      "ĠNothing": 1317,
      "ison": 1318,
      "als": 1319,
      "ĠGu": 1320,
      "ĠZ": 1321,
      "Ġalive": 1322,
      "Ġpoint": 1323,
      "Ġhappy": 1324,
      "ding": 1325,
      "ĠBl": 1326,
      "Ġworking": 1327,
      "iet": 1328,
      "omb": 1329,
      "ton": 1330,
      "ush": 1331,
      "Ġbro": 1332,
      "ĠSp": 1333,
      "come": 1334,
      "ĠSha": 1335,
      "unt": 1336,
      "Ġcouldn": 1337,
      "Ġcut": 1338,
      "Ġbeaut": 1339,
      "igure": 1340,
      "ete": 1341,
      "Ġev": 1342,
      "ĠAb": 1343,
      "Ġspeak": 1344,
      "Ġimp": 1345,
      "Ġtaking": 1346,
      "its": 1347,
      "Ġposs": 1348,
      "Ġexpl": 1349,
      "anger": 1350,
      "ved": 1351,
      "ither": 1352,
      "ĠMe": 1353,
      "Ġbehind": 1354,
      "ged": 1355,
      "Ġread": 1356,
      "Ġminute": 1357,
      "Ġsupposed": 1358,
      "Ġsince": 1359,
      "Ġspec": 1360,
      "cuse": 1361,
      "Ġcor": 1362,
      "Ġtruth": 1363,
      "amp": 1364,
      "Ġhat": 1365,
      "Ġasked": 1366,
      "any": 1367,
      "ĠGr": 1368,
      "head": 1369,
      "Ġpretty": 1370,
      "ably": 1371,
      "Ġansw": 1372,
      "Ġchance": 1373,
      "Ġcou": 1374,
      "son": 1375,
      "Ġits": 1376,
      "ĠCom": 1377,
      "Ġthinking": 1378,
      "Ġactually": 1379,
      "Ġlate": 1380,
      "ets": 1381,
      "Ġinst": 1382,
      "Ġfive": 1383,
      "Ġdef": 1384,
      "Ġinc": 1385,
      "Ġhope": 1386,
      "vers": 1387,
      "Ġjo": 1388,
      "cy": 1389,
      "Ġ!": 1390,
      "Ġluck": 1391,
      "ates": 1392,
      "Ġshoot": 1393,
      "Ġpick": 1394,
      "ĠAr": 1395,
      "ross": 1396,
      "att": 1397,
      "Ġclear": 1398,
      "not": 1399,
      "Ġlight": 1400,
      "ĠThanks": 1401,
      "Ġbusiness": 1402,
      "ung": 1403,
      "Ġwind": 1404,
      "Ġsend": 1405,
      "Ġinter": 1406,
      "Ġ10": 1407,
      "ents": 1408,
      "Ġsk": 1409,
      "ĠSe": 1410,
      "ĠMar": 1411,
      "Ġnumber": 1412,
      "Ġcop": 1413,
      "und": 1414,
      "Ġdream": 1415,
      "ĠCha": 1416,
      "vent": 1417,
      "ames": 1418,
      "iful": 1419,
      "ork": 1420,
      "Ġside": 1421,
      "ĠHis": 1422,
      "led": 1423,
      "ole": 1424,
      "ai": 1425,
      "ĠKeep": 1426,
      "Ġhours": 1427,
      "ĠHold": 1428,
      "ane": 1429,
      "ards": 1430,
      "Ġwatch": 1431,
      "ĠLe": 1432,
      "Ġsound": 1433,
      "onight": 1434,
      "Ġhuh": 1435,
      "Ġtrue": 1436,
      "ised": 1437,
      "Ġtou": 1438,
      "ump": 1439,
      "gr": 1440,
      "Ġmur": 1441,
      "Ġdest": 1442,
      "eed": 1443,
      "ĠTr": 1444,
      "ĠHelp": 1445,
      "Ġbody": 1446,
      "Ġwoman": 1447,
      "Ġdrink": 1448,
      "ery": 1449,
      "Ġbuild": 1450,
      "Ġsent": 1451,
      "Ġlead": 1452,
      "Ġtrain": 1453,
      "pr": 1454,
      "Ġchar": 1455,
      "arent": 1456,
      "Ġquestion": 1457,
      "Ġdifferent": 1458,
      "ned": 1459,
      "Ġexactly": 1460,
      "lcome": 1461,
      "Ġfour": 1462,
      "Ġeach": 1463,
      "Ġcrazy": 1464,
      "stem": 1465,
      "chool": 1466,
      "ĠNew": 1467,
      "more": 1468,
      "Ġdeath": 1469,
      "Ġteam": 1470,
      "Ġreason": 1471,
      "aptain": 1472,
      "Ġmill": 1473,
      "Ġprotect": 1474,
      "Ġleast": 1475,
      "Ġbook": 1476,
      "Ġfall": 1477,
      "Ġfile": 1478,
      "Ġyours": 1479,
      "Ġpull": 1480,
      "ering": 1481,
      "bably": 1482,
      "io": 1483,
      "iate": 1484,
      "ĠGot": 1485,
      "Ġtelling": 1486,
      "ĠThese": 1487,
      "du": 1488,
      "ual": 1489,
      "ĠMic": 1490,
      "ĠMan": 1491,
      "rought": 1492,
      "ĠSay": 1493,
      "Ġdet": 1494,
      "ĠChe": 1495,
      "ĠPr": 1496,
      "Ġmine": 1497,
      "Ġkids": 1498,
      "ween": 1499,
      "ines": 1500,
      "Ġmist": 1501,
      "Ġair": 1502,
      "ction": 1503,
      "Ġinv": 1504,
      "erest": 1505,
      "Ġob": 1506,
      "ĠOur": 1507,
      "Ġmed": 1508,
      "Ġwaiting": 1509,
      "Ġfull": 1510,
      "Ġbeautiful": 1511,
      "Ġwh": 1512,
      "ange": 1513,
      "Ġlater": 1514,
      "Ġhigh": 1515,
      "Ġeat": 1516,
      "Ġstory": 1517,
      "aken": 1518,
      "Ġdied": 1519,
      "Ġgen": 1520,
      "Ġfree": 1521,
      "Ġpain": 1522,
      "urity": 1523,
      "Ġmakes": 1524,
      "Ġgame": 1525,
      "Ġstuff": 1526,
      "ĠFr": 1527,
      "ya": 1528,
      "Ġvis": 1529,
      "ĠSam": 1530,
      "Ġtri": 1531,
      "Ġtrans": 1532,
      "Ġbrought": 1533,
      "Ġhon": 1534,
      "outh": 1535,
      "ute": 1536,
      "fect": 1537,
      "Ġfigure": 1538,
      "Ġtimes": 1539,
      "ital": 1540,
      "Ġschool": 1541,
      "Ġbra": 1542,
      "Ġwish": 1543,
      "ana": 1544,
      "Ġap": 1545,
      "Ġmem": 1546,
      "Ġcons": 1547,
      "Ġlear": 1548,
      "Ġpat": 1549,
      "Ġmaking": 1550,
      "Ġbeg": 1551,
      "**": 1552,
      "inc": 1553,
      "Ġadd": 1554,
      "Ġfore": 1555,
      "Ġsweet": 1556,
      "Ġstarted": 1557,
      "Ġcoll": 1558,
      "by": 1559,
      "ault": 1560,
      "Ġtonight": 1561,
      "ode": 1562,
      "ift": 1563,
      "ĠHar": 1564,
      "hael": 1565,
      "Ġleg": 1566,
      "ĠQu": 1567,
      "the": 1568,
      "Ġhot": 1569,
      "ired": 1570,
      "Ġwin": 1571,
      "Ġinform": 1572,
      "Ġcomes": 1573,
      "ma": 1574,
      "Ġimport": 1575,
      "Ġbecome": 1576,
      "Ġbetween": 1577,
      "Ġain": 1578,
      "Ġisland": 1579,
      "esc": 1580,
      "Ġlooks": 1581,
      "ield": 1582,
      "me": 1583,
      "Ġfood": 1584,
      "Ġgets": 1585,
      "unch": 1586,
      "Ġcity": 1587,
      "idd": 1588,
      "Ġtrou": 1589,
      "ica": 1590,
      "Ġ6": 1591,
      "Ġri": 1592,
      "ĠRem": 1593,
      "Ġcontrol": 1594,
      "Ġgrand": 1595,
      "ER": 1596,
      "Ġmoment": 1597,
      "Ġattack": 1598,
      "Ġaw": 1599,
      "lo": 1600,
      "Ġext": 1601,
      "Ġsecret": 1602,
      "ited": 1603,
      "Ġscared": 1604,
      "Ġagainst": 1605,
      "ĠExcuse": 1606,
      "Ġforg": 1607,
      "ĠCharl": 1608,
      "Ġsystem": 1609,
      "Ġrunning": 1610,
      "vice": 1611,
      "Ġdire": 1612,
      "Ġforget": 1613,
      "Ġwond": 1614,
      "Ġdisc": 1615,
      "most": 1616,
      "ph": 1617,
      "Ġcur": 1618,
      "uss": 1619,
      "Ġeasy": 1620,
      "ling": 1621,
      "Ġpres": 1622,
      "ention": 1623,
      "Ġfront": 1624,
      "band": 1625,
      "Ġhaving": 1626,
      "Ġdog": 1627,
      "Ġdel": 1628,
      "Ġoutside": 1629,
      "000": 1630,
      "Ġmonths": 1631,
      "Ġable": 1632,
      "ĠTH": 1633,
      "iously": 1634,
      "Ġasking": 1635,
      "sh": 1636,
      "Ġhuman": 1637,
      "ĠStay": 1638,
      "hip": 1639,
      "era": 1640,
      "Ġland": 1641,
      "Ġline": 1642,
      "ĠInd": 1643,
      "Ġfast": 1644,
      "ĠMichael": 1645,
      "oot": 1646,
      "Ġanymore": 1647,
      "Ġmarried": 1648,
      "Ġdanger": 1649,
      "ĠNe": 1650,
      "Ġtried": 1651,
      "ĠEven": 1652,
      "ale": 1653,
      "Ġhalf": 1654,
      "Ġentire": 1655,
      "Ġlock": 1656,
      "osp": 1657,
      "Ġimportant": 1658,
      "Ġsub": 1659,
      "ĠTwo": 1660,
      "Ġnews": 1661,
      "Ġcannot": 1662,
      "ĠDoes": 1663,
      "Ġlaw": 1664,
      "fra": 1665,
      "Ġste": 1666,
      "ĠWhich": 1667,
      "Ġwhatever": 1668,
      "aring": 1669,
      "Ġpromise": 1670,
      "Ġinterest": 1671,
      "ows": 1672,
      "usband": 1673,
      "ĠClark": 1674,
      "Ġdra": 1675,
      "Ġkey": 1676,
      "arly": 1677,
      "vie": 1678,
      "Ġdep": 1679,
      "Ġpri": 1680,
      "ces": 1681,
      "Ġsn": 1682,
      "IN": 1683,
      "ĠShut": 1684,
      "Ġreport": 1685,
      "Ġdist": 1686,
      "ĠAfter": 1687,
      "Ġneeds": 1688,
      "Ġhusband": 1689,
      "Ġsing": 1690,
      "Ġaren": 1691,
      "AN": 1692,
      "ĠPe": 1693,
      "erg": 1694,
      "olog": 1695,
      "ĠAmer": 1696,
      "reet": 1697,
      "Ġins": 1698,
      "iec": 1699,
      "Ġpap": 1700,
      "oose": 1701,
      "Ġlives": 1702,
      "Ġsix": 1703,
      "Ġbomb": 1704,
      "sel": 1705,
      "Ġtown": 1706,
      "OU": 1707,
      "ĠPre": 1708,
      "Ġsim": 1709,
      "Ġyoung": 1710,
      "ility": 1711,
      "itting": 1712,
      "ĠEverything": 1713,
      "ror": 1714,
      "ĠOnly": 1715,
      "Ġahead": 1716,
      "Ġfix": 1717,
      "fraid": 1718,
      "Ġgirls": 1719,
      "reen": 1720,
      "alm": 1721,
      "Ġfact": 1722,
      "Ġtouch": 1723,
      "Ġlose": 1724,
      "Ġbed": 1725,
      "Ġparty": 1726,
      "ys": 1727,
      "Ġve": 1728,
      "ĠPut": 1729,
      "eral": 1730,
      "ĠEn": 1731,
      "ages": 1732,
      "ne": 1733,
      "ĠTom": 1734,
      "Ġgoes": 1735,
      "Ġloc": 1736,
      "Ġ20": 1737,
      "ĠFuck": 1738,
      "Ġeng": 1739,
      "ced": 1740,
      "Ġprobably": 1741,
      "ief": 1742,
      "ched": 1743,
      "Ġdi": 1744,
      "ĠLord": 1745,
      "Ġtest": 1746,
      "Ġwall": 1747,
      "ward": 1748,
      "Ġquite": 1749,
      "aid": 1750,
      "unk": 1751,
      "ĠAg": 1752,
      "Ġdamn": 1753,
      "ots": 1754,
      "Ġblack": 1755,
      "Ġreturn": 1756,
      "Ġtaken": 1757,
      "lex": 1758,
      "Ġsurv": 1759,
      "Ġleaving": 1760,
      "br": 1761,
      "ĠMay": 1762,
      "ative": 1763,
      "ĠEm": 1764,
      "ert": 1765,
      "Ġsmall": 1766,
      "Ġafraid": 1767,
      "Ġtrack": 1768,
      "Ġoffic": 1769,
      "Ġhey": 1770,
      "ĠBen": 1771,
      "ney": 1772,
      "ator": 1773,
      "Ġreg": 1774,
      "ote": 1775,
      "ĠSure": 1776,
      "Ġesc": 1777,
      "Ġmad": 1778,
      "iving": 1779,
      "Ġ7": 1780,
      "Ġbull": 1781,
      "ĠPl": 1782,
      "Ġweap": 1783,
      "Ġanswer": 1784,
      "men": 1785,
      "à¶": 1786,
      "ster": 1787,
      "ĠWow": 1788,
      "ics": 1789,
      "Ġbar": 1790,
      "Ġtrouble": 1791,
      "Ġplane": 1792,
      "ined": 1793,
      "ĠCon": 1794,
      "idence": 1795,
      "Ġmillion": 1796,
      "à·": 1797,
      "ĠWould": 1798,
      "Ġpossible": 1799,
      "ham": 1800,
      "Ġbag": 1801,
      "Ġpast": 1802,
      "ony": 1803,
      "ilt": 1804,
      "upid": 1805,
      "umb": 1806,
      "ĠAct": 1807,
      "ape": 1808,
      "ene": 1809,
      "ĠSw": 1810,
      "ific": 1811,
      "Ġsecurity": 1812,
      "Ġmistake": 1813,
      "arth": 1814,
      "ĠCaptain": 1815,
      "Ġparent": 1816,
      "ures": 1817,
      "ĠShit": 1818,
      "ler": 1819,
      "Ġoffice": 1820,
      "Ġclean": 1821,
      "Ġhappening": 1822,
      "Ġcountry": 1823,
      "Ġfell": 1824,
      "irth": 1825,
      "Ġking": 1826,
      "Ġorder": 1827,
      "itch": 1828,
      "AR": 1829,
      "ĠOpen": 1830,
      "ĠPer": 1831,
      "rence": 1832,
      "ĠHer": 1833,
      "Ġgra": 1834,
      "Ġdoctor": 1835,
      "Ġship": 1836,
      "Ġcompany": 1837,
      ".'": 1838,
      "Ġexpect": 1839,
      "ospital": 1840,
      "Ġdou": 1841,
      "Ġcatch": 1842,
      "roy": 1843,
      "Ġshut": 1844,
      "oor": 1845,
      "Ġboat": 1846,
      "Ġfeeling": 1847,
      "iver": 1848,
      "Ġbreat": 1849,
      "Ġcouple": 1850,
      "Ġlie": 1851,
      "Ġhappens": 1852,
      "Ġind": 1853,
      "Ġpos": 1854,
      "ĠMiss": 1855,
      "Ġstep": 1856,
      "cer": 1857,
      "fer": 1858,
      "spect": 1859,
      "ĠBrother": 1860,
      "uc": 1861,
      "ina": 1862,
      "ĠNice": 1863,
      "inal": 1864,
      "ĠBy": 1865,
      "rist": 1866,
      "pping": 1867,
      "bo": 1868,
      "ama": 1869,
      "Ġalong": 1870,
      "Ġfav": 1871,
      "alt": 1872,
      "Ġseems": 1873,
      "Ġspecial": 1874,
      "ĠCharlie": 1875,
      "ract": 1876,
      "Ġless": 1877,
      "Ġquick": 1878,
      "Ġcool": 1879,
      "ĠAh": 1880,
      "Ġtw": 1881,
      "Ġgod": 1882,
      "ized": 1883,
      "Ġeye": 1884,
      "Ġalmost": 1885,
      "gram": 1886,
      "ĠWas": 1887,
      "ĠWhoa": 1888,
      "ule": 1889,
      "eter": 1890,
      "ience": 1891,
      "ĠCould": 1892,
      "...?": 1893,
      "Ġfly": 1894,
      "Ġpiec": 1895,
      "riage": 1896,
      "oke": 1897,
      "ĠFirst": 1898,
      "Ġvill": 1899,
      "Ġparents": 1900,
      "ĠWh": 1901,
      "ones": 1902,
      "Ġbud": 1903,
      "Ġcell": 1904,
      "ĠLea": 1905,
      "Ġboss": 1906,
      "Ġform": 1907,
      "entle": 1908,
      "Ġcomplete": 1909,
      "Ġmark": 1910,
      "ĠGreat": 1911,
      "ĠFrom": 1912,
      "Ġclos": 1913,
      "ept": 1914,
      "ished": 1915,
      "Ġbirth": 1916,
      "The": 1917,
      "ĠTe": 1918,
      "you": 1919,
      "ĠBye": 1920,
      "Ġdear": 1921,
      "ully": 1922,
      "Ġhospital": 1923,
      "Ġrep": 1924,
      "Ġcalling": 1925,
      "Ġchoice": 1926,
      "Ġinformation": 1927,
      "Ġhero": 1928,
      "ĠSomething": 1929,
      "Ġord": 1930,
      "Ġstrong": 1931,
      "Ġmoving": 1932,
      "edding": 1933,
      "Ġsick": 1934,
      "Ġfool": 1935,
      "Ġbitch": 1936,
      "Ġmag": 1937,
      "ertain": 1938,
      "Ġbeat": 1939,
      "reed": 1940,
      "Ġsear": 1941,
      "Ġexplain": 1942,
      "enny": 1943,
      "Ġstud": 1944,
      "Ġ9": 1945,
      "Ġothers": 1946,
      "ok": 1947,
      "ically": 1948,
      "Ġeither": 1949,
      "bers": 1950,
      "Ġdrive": 1951,
      "Ġfail": 1952,
      "Ġsomebody": 1953,
      "ities": 1954,
      "ask": 1955,
      "Ġpict": 1956,
      "room": 1957,
      "ometimes": 1958,
      "Ġ12": 1959,
      "Ġground": 1960,
      "Ġboys": 1961,
      "nect": 1962,
      "Ġfoot": 1963,
      "Ġhimself": 1964,
      "Ġstupid": 1965,
      "Ġfut": 1966,
      "Ġris": 1967,
      "Ġwindow": 1968,
      "selves": 1969,
      "Ġtill": 1970,
      "Ġcol": 1971,
      "Ġclass": 1972,
      "Ġperfect": 1973,
      "Ġstra": 1974,
      "sy": 1975,
      "Ġhate": 1976,
      "Ġthough": 1977,
      "ption": 1978,
      "Ġdin": 1979,
      "aire": 1980,
      "Ġred": 1981,
      "Ġeverybody": 1982,
      "Ġtop": 1983,
      "ĠEveryone": 1984,
      "leas": 1985,
      "Ġshouldn": 1986,
      "Ġ&": 1987,
      "ĠCall": 1988,
      "Ġexper": 1989,
      "ead": 1990,
      "Ġtem": 1991,
      "ĠHur": 1992,
      "Ġsaved": 1993,
      "Ġcap": 1994,
      "Ġrob": 1995,
      "ĠVery": 1996,
      "ues": 1997,
      "ĠRo": 1998,
      "artment": 1999,
      "ĠSu": 2000,
      "Ġprof": 2001,
      "aste": 2002,
      "arget": 2003,
      "Ġrequ": 2004,
      "Ġstation": 2005,
      "Ġrad": 2006,
      "You": 2007,
      "iding": 2008,
      "ĠUm": 2009,
      "ĠShow": 2010,
      "Ġ8": 2011,
      "ided": 2012,
      "ĠWelcome": 2013,
      "cc": 2014,
      "Ġfuture": 2015,
      "\"?": 2016,
      "Ġlist": 2017,
      "Ġmarriage": 2018,
      "Ġfunny": 2019,
      "Ġwonder": 2020,
      "Ġcam": 2021,
      "Ġhang": 2022,
      "irt": 2023,
      "Ġgiven": 2024,
      "vi": 2025,
      "Ġ.": 2026,
      "Ġworth": 2027,
      "Ġweeks": 2028,
      "Ġshort": 2029,
      "sing": 2030,
      "Ġcreat": 2031,
      "ency": 2032,
      "vern": 2033,
      "Ġbuy": 2034,
      "Ġpack": 2035,
      "ĠChrist": 2036,
      "Ġ15": 2037,
      "ĠSomeone": 2038,
      "Ġliving": 2039,
      "Ġbox": 2040,
      "Ġsurpr": 2041,
      "Ġbuilding": 2042,
      "ider": 2043,
      "Ġchildren": 2044,
      "Ġexc": 2045,
      "Ġroad": 2046,
      "Ġcaught": 2047,
      "Ġrecord": 2048,
      "Ġdestroy": 2049,
      "Ġdark": 2050,
      "uation": 2051,
      "ants": 2052,
      "Ġoper": 2053,
      "Ġcover": 2054,
      "kes": 2055,
      "Ġty": 2056,
      "rie": 2057,
      "oon": 2058,
      "hose": 2059,
      "ĠRun": 2060,
      "Ġphot": 2061,
      "Ġsto": 2062,
      "ision": 2063,
      "ĠSer": 2064,
      "ĠMake": 2065,
      "ĠPeople": 2066,
      "ĠBar": 2067,
      "Ġproper": 2068,
      "vest": 2069,
      "Ġsense": 2070,
      "ric": 2071,
      "aces": 2072,
      "iot": 2073,
      "Ġseem": 2074,
      "Ġcontact": 2075,
      "ĠSm": 2076,
      "Ġmeant": 2077,
      "Ġ$": 2078,
      "Ġsort": 2079,
      "ĠEl": 2080,
      "ging": 2081,
      "ges": 2082,
      "?\"": 2083,
      "Ġuncle": 2084,
      "fic": 2085,
      "Ġdisapp": 2086,
      "Ġmessage": 2087,
      "ution": 2088,
      "Ġneeded": 2089,
      "ĠAlex": 2090,
      "Ġserious": 2091,
      "mp": 2092,
      "ĠFl": 2093,
      "ĠSte": 2094,
      "de": 2095,
      "Ġdirect": 2096,
      "ters": 2097,
      "Ġshall": 2098,
      "Ġpress": 2099,
      "Ġrock": 2100,
      "bt": 2101,
      "Ġbank": 2102,
      "Ġchanged": 2103,
      "ten": 2104,
      "ille": 2105,
      "ĠHmm": 2106,
      "elt": 2107,
      "ides": 2108,
      "Ġplaying": 2109,
      "Ġpar": 2110,
      "ĠMa": 2111,
      "Ġaccident": 2112,
      "rap": 2113,
      "ĠNever": 2114,
      "orth": 2115,
      "miss": 2116,
      "....": 2117,
      "Ġmurder": 2118,
      "ĠNobody": 2119,
      "Ġprison": 2120,
      "ĠFine": 2121,
      "Ġcommand": 2122,
      "Ġrespect": 2123,
      "go": 2124,
      "Ġsol": 2125,
      "Ġmeeting": 2126,
      "Ġsun": 2127,
      "ĠBack": 2128,
      "ĠWhatever": 2129,
      "Ġworks": 2130,
      "Ġquestions": 2131,
      "nel": 2132,
      "ified": 2133,
      "Ġlearn": 2134,
      "Ġbur": 2135,
      "ffect": 2136,
      "mand": 2137,
      "ĠAar": 2138,
      "law": 2139,
      "ley": 2140,
      "Ġsold": 2141,
      "Ġval": 2142,
      "tern": 2143,
      "ular": 2144,
      "Ġdangerous": 2145,
      "sol": 2146,
      "Ġwhe": 2147,
      "Ġfil": 2148,
      "oul": 2149,
      "ĠThose": 2150,
      "Ġallow": 2151,
      "uthor": 2152,
      "now": 2153,
      "ze": 2154,
      "oof": 2155,
      "Ġmil": 2156,
      "ĠJes": 2157,
      "ĠLeave": 2158,
      "Ġmissing": 2159,
      "Ġwords": 2160,
      "Ġbuddy": 2161,
      "ĠSar": 2162,
      "ĠDel": 2163,
      "ĠOver": 2164,
      "uring": 2165,
      "Ġusing": 2166,
      "over": 2167,
      "Ġma": 2168,
      "Ġdrop": 2169,
      "ĠCar": 2170,
      "Ġsomewhere": 2171,
      "Ġwatching": 2172,
      "ches": 2173,
      "yer": 2174,
      "Ġten": 2175,
      "Ġball": 2176,
      "Ġknown": 2177,
      "Ġanywhere": 2178,
      "Ġrisk": 2179,
      "Ġgiving": 2180,
      "Ġpur": 2181,
      "ĠSing": 2182,
      "ĠHuh": 2183,
      "joy": 2184,
      "rat": 2185,
      "Ġbird": 2186,
      "Ġfear": 2187,
      "rying": 2188,
      "iddle": 2189,
      "bye": 2190,
      "Ġfault": 2191,
      "ĠEng": 2192,
      "ĠFather": 2193,
      "Ġgentle": 2194,
      "Ġones": 2195,
      "fort": 2196,
      "Ġfeet": 2197,
      "fully": 2198,
      "Ġcertain": 2199,
      "airs": 2200,
      "Ġgift": 2201,
      "ĠCol": 2202,
      "Ġlonger": 2203,
      "Ġslow": 2204,
      "ari": 2205,
      "ĠMrs": 2206,
      "read": 2207,
      "Ġthrow": 2208,
      "Ġworked": 2209,
      "Ġproject": 2210,
      "Ġsurvive": 2211,
      "lock": 2212,
      "Ġz": 2213,
      "Ġfavor": 2214,
      "haps": 2215,
      "Ġkept": 2216,
      "Ġtarget": 2217,
      "Ġsuper": 2218,
      "Ġcode": 2219,
      "ĠGen": 2220,
      "Ġarrest": 2221,
      "ĠActually": 2222,
      "eth": 2223,
      "Ġhair": 2224,
      "Ġblow": 2225,
      "undred": 2226,
      "Ġanybody": 2227,
      "Ġseeing": 2228,
      "Ġran": 2229,
      "itor": 2230,
      "ĠWatch": 2231,
      "ĠMon": 2232,
      "Ġimag": 2233,
      "Ġsteal": 2234,
      "Ġstraight": 2235,
      "iny": 2236,
      "amed": 2237,
      "ĠThree": 2238,
      "Ġnear": 2239,
      "ĠYOU": 2240,
      "illy": 2241,
      "Ġenem": 2242,
      "Ġmod": 2243,
      "Ġdress": 2244,
      "ume": 2245,
      "ĠFrank": 2246,
      "Ġarri": 2247,
      "Ġbegin": 2248,
      "Ġlying": 2249,
      "ich": 2250,
      "ĠDamn": 2251,
      "rect": 2252,
      "ession": 2253,
      "Ġanyway": 2254,
      "Ġhandle": 2255,
      "iting": 2256,
      "Ġstate": 2257,
      "Ġstick": 2258,
      "Ġang": 2259,
      "Ġcareful": 2260,
      "Ġum": 2261,
      "ĠRam": 2262,
      "ments": 2263,
      "that": 2264,
      "Ġcook": 2265,
      "Ġaccept": 2266,
      "Ġpiece": 2267,
      "Ġdro": 2268,
      "ĠSim": 2269,
      "ĠBell": 2270,
      "Ġquiet": 2271,
      "ĠChan": 2272,
      "ooper": 2273,
      "solute": 2274,
      "Ġkiss": 2275,
      "ĠKing": 2276,
      "Ġconnect": 2277,
      "Ġ30": 2278,
      "ĠRaj": 2279,
      "ĠLooks": 2280,
      "Ġsupport": 2281,
      "AT": 2282,
      "nie": 2283,
      "Ġtakes": 2284,
      "ational": 2285,
      "Ġprogram": 2286,
      "Ġ19": 2287,
      "gan": 2288,
      "Ġthanks": 2289,
      "Ġthreat": 2290,
      "ffee": 2291,
      "ĠSy": 2292,
      "Ġart": 2293,
      "ĠTHE": 2294,
      "mit": 2295,
      "Ġsell": 2296,
      "ĠSec": 2297,
      "LL": 2298,
      "Ġlady": 2299,
      "ries": 2300,
      "bed": 2301,
      "aur": 2302,
      "ĠHa": 2303,
      "roup": 2304,
      "ĠApp": 2305,
      "ounds": 2306,
      "ffic": 2307,
      "ublic": 2308,
      "Ġcross": 2309,
      "Ġworried": 2310,
      "Ġweren": 2311,
      "Ġfelt": 2312,
      "ĠClaire": 2313,
      "ugg": 2314,
      "Ġweapon": 2315,
      "Ġwedding": 2316,
      "Ġ]": 2317,
      "ĠRed": 2318,
      "ured": 2319,
      "Ġhor": 2320,
      "Ġinvest": 2321,
      "Ġturned": 2322,
      "Ġmach": 2323,
      "Ġloved": 2324,
      "ĠDidn": 2325,
      "ĠKate": 2326,
      "Ġvict": 2327,
      "Ġbirthday": 2328,
      "ĠDan": 2329,
      "Ġaddress": 2330,
      "Ġgrow": 2331,
      "ĠThink": 2332,
      "ousand": 2333,
      "Ġmarry": 2334,
      "Ġevidence": 2335,
      "Ġcent": 2336,
      "ĠDaddy": 2337,
      "Ġfiles": 2338,
      "Ġgold": 2339,
      "\\\\": 2340,
      "Ġbelong": 2341,
      "ature": 2342,
      "Ġdeep": 2343,
      "Ġhundred": 2344,
      "Ġburn": 2345,
      "Ġdinner": 2346,
      "Ġgovern": 2347,
      "Ġdance": 2348,
      "Ġpeace": 2349,
      "ĠMart": 2350,
      "ĠMike": 2351,
      "ĠPres": 2352,
      "Ġfinish": 2353,
      "Ġseat": 2354,
      "ali": 2355,
      "Ġrespons": 2356,
      "king": 2357,
      "oint": 2358,
      "Ġce": 2359,
      "ĠAlright": 2360,
      "viously": 2361,
      "Ġtreat": 2362,
      "Ġseconds": 2363,
      "Ġhoney": 2364,
      "key": 2365,
      "Ġsmart": 2366,
      "Ġfinally": 2367,
      "ists": 2368,
      "ĠJesus": 2369,
      "Ġborn": 2370,
      "Ġadv": 2371,
      "Ġposition": 2372,
      "Ġed": 2373,
      "ĠLoc": 2374,
      "ĠPap": 2375,
      "ears": 2376,
      "Ġspend": 2377,
      "work": 2378,
      "isc": 2379,
      "Ġref": 2380,
      "Ġsmell": 2381,
      "Ġpersonal": 2382,
      "ON": 2383,
      "rec": 2384,
      "Ġnorm": 2385,
      "oun": 2386,
      "hal": 2387,
      "owers": 2388,
      "Ġkick": 2389,
      "ĠMother": 2390,
      "ager": 2391,
      "Ġcamp": 2392,
      "ĠOut": 2393,
      "Ġremain": 2394,
      "ĠRemember": 2395,
      "Ġlau": 2396,
      "Ġhide": 2397,
      "Ġflight": 2398,
      "Ġtre": 2399,
      "inite": 2400,
      "Ġanim": 2401,
      "What": 2402,
      "ories": 2403,
      "Ġav": 2404,
      "Ġdate": 2405,
      "ĠCheck": 2406,
      "view": 2407,
      "Ġhop": 2408,
      "acy": 2409,
      "ĠPh": 2410,
      "used": 2411,
      "Ġkilling": 2412,
      "ING": 2413,
      "Ġsingle": 2414,
      "ser": 2415,
      "ĠX": 2416,
      "Ġtruck": 2417,
      "bit": 2418,
      "Ġmus": 2419,
      "Ġhost": 2420,
      "ĠShould": 2421,
      "ken": 2422,
      "Ġthousand": 2423,
      "ĠSon": 2424,
      "Ġvillage": 2425,
      "Ġweird": 2426,
      "Ġlucky": 2427,
      "Ġstopped": 2428,
      "solutely": 2429,
      "Ġcomput": 2430,
      "Ġcond": 2431,
      "Ġkidding": 2432,
      "azing": 2433,
      "ĠGrand": 2434,
      "Ġcost": 2435,
      "uty": 2436,
      "ĠFind": 2437,
      "Ġlevel": 2438,
      "ĠEverybody": 2439,
      "Ġdare": 2440,
      "ective": 2441,
      "Ġpicture": 2442,
      "ĠOnce": 2443,
      "ius": 2444,
      "Ġforever": 2445,
      "Ġdude": 2446,
      "ĠSit": 2447,
      "Ġconv": 2448,
      "cum": 2449,
      "ules": 2450,
      "Ġopp": 2451,
      "ĠTurn": 2452,
      "Ġhist": 2453,
      "Ġstar": 2454,
      "Ġdrug": 2455,
      "Ġcoffee": 2456,
      "Ġbroke": 2457,
      "Ġwake": 2458,
      "Ġtot": 2459,
      "ĠTime": 2460,
      "irm": 2461,
      "terday": 2462,
      "ĠKill": 2463,
      "adies": 2464,
      "Ġmissed": 2465,
      "ĠReally": 2466,
      "Ġterri": 2467,
      "Ġ100": 2468,
      "RE": 2469,
      "Ġwelcome": 2470,
      "Ġjoin": 2471,
      "cause": 2472,
      "Ġdam": 2473,
      "Ġacross": 2474,
      "Ġcontin": 2475,
      "Ġvo": 2476,
      "aged": 2477,
      "uts": 2478,
      "ĠCle": 2479,
      "ĠLove": 2480,
      "ĠEd": 2481,
      "Ġident": 2482,
      "ĠAmeric": 2483,
      "ks": 2484,
      "pa": 2485,
      "Ġmouth": 2486,
      "Ġmis": 2487,
      "ĠBet": 2488,
      "Ġsuit": 2489,
      "mediate": 2490,
      "Ġmission": 2491,
      "IT": 2492,
      "Ġtick": 2493,
      "Ġshare": 2494,
      "Ġmain": 2495,
      "Ġdecided": 2496,
      "we": 2497,
      "Ġbase": 2498,
      "ossible": 2499,
      "Ġappro": 2500,
      "Ġfield": 2501,
      "Ġrid": 2502,
      "Cause": 2503,
      "Ġbat": 2504,
      "ĠMad": 2505,
      "Ġsignal": 2506,
      "Ġfair": 2507,
      "Ġdoubt": 2508,
      "ĠMm": 2509,
      "eor": 2510,
      "ĠPri": 2511,
      "ify": 2512,
      "ately": 2513,
      "Ġimmediate": 2514,
      "ray": 2515,
      "une": 2516,
      "Ġprep": 2517,
      "ĠMax": 2518,
      "ĠBob": 2519,
      "Ġnobody": 2520,
      "que": 2521,
      "Ġsituation": 2522,
      "mission": 2523,
      "vin": 2524,
      "Ġfill": 2525,
      "ĠLex": 2526,
      "Ġjump": 2527,
      "ices": 2528,
      "Ġtor": 2529,
      "ĠDes": 2530,
      "ĠAbout": 2531,
      "bar": 2532,
      "line": 2533,
      "Ġbott": 2534,
      "Ġwear": 2535,
      "pper": 2536,
      "Ġstanding": 2537,
      "Ġmiddle": 2538,
      "ently": 2539,
      "Ġselect": 2540,
      "ached": 2541,
      "Ġgovernment": 2542,
      "ĠIsn": 2543,
      "Ġwhite": 2544,
      "bs": 2545,
      "top": 2546,
      "Ġwithin": 2547,
      "echn": 2548,
      "Ġlooked": 2549,
      "ĠAaron": 2550,
      "Ġelect": 2551,
      "avy": 2552,
      "lin": 2553,
      "ron": 2554,
      "Ġlab": 2555,
      "ĠTod": 2556,
      "Ġpost": 2557,
      "Ġ50": 2558,
      "Ġpriv": 2559,
      "initely": 2560,
      "atur": 2561,
      "ĠUncle": 2562,
      "Ġsounds": 2563,
      "Ġsitting": 2564,
      "Ġride": 2565,
      "Ġpaper": 2566,
      "gu": 2567,
      "ĠCont": 2568,
      "cell": 2569,
      "Ġthinks": 2570,
      "ogn": 2571,
      "Ġfloor": 2572,
      "'.": 2573,
      "ĠâĻ«": 2574,
      "ĠMin": 2575,
      "ior": 2576,
      "oh": 2577,
      "ris": 2578,
      "Ġsqu": 2579,
      "Ġeight": 2580,
      "Ġcourt": 2581,
      "ĠPresident": 2582,
      "Ġarea": 2583,
      "roud": 2584,
      "Ġinstead": 2585,
      "Ġstri": 2586,
      "ming": 2587,
      "Ġaut": 2588,
      "ata": 2589,
      "ili": 2590,
      "ountain": 2591,
      "ral": 2592,
      "ĠGuys": 2593,
      "Ġhonor": 2594,
      "Ġfish": 2595,
      "Ġbrain": 2596,
      "Ġinf": 2597,
      "ĠBo": 2598,
      "ĠOther": 2599,
      "Ġbuilt": 2600,
      "cri": 2601,
      "lish": 2602,
      "Ġreach": 2603,
      "Ġescape": 2604,
      "Ġow": 2605,
      "Ġclot": 2606,
      "Ġcat": 2607,
      "Ġaccess": 2608,
      "Ġengine": 2609,
      "ades": 2610,
      "Ġplanet": 2611,
      "ĠSayid": 2612,
      "Ġble": 2613,
      "Ġcir": 2614,
      "Ġiss": 2615,
      "Ġrece": 2616,
      "Ġcrash": 2617,
      "Ġinvol": 2618,
      "reate": 2619,
      "ially": 2620,
      "Ġcalm": 2621,
      "Ġonto": 2622,
      "Ġarm": 2623,
      "Ġcomputer": 2624,
      "Ġhasn": 2625,
      "Ġcops": 2626,
      "hel": 2627,
      "Ġsearch": 2628,
      "ĠBab": 2629,
      "Ġaccount": 2630,
      "ource": 2631,
      "Ġsugg": 2632,
      "Ġsuspect": 2633,
      "Ġseven": 2634,
      "Ġdifference": 2635,
      "Ġfollowing": 2636,
      "Ġsuggest": 2637,
      "ulations": 2638,
      "Ġcold": 2639,
      "Ġfing": 2640,
      "sed": 2641,
      "Ġevening": 2642,
      "night": 2643,
      "Ġele": 2644,
      "Ġspace": 2645,
      "Ġbusy": 2646,
      "iant": 2647,
      "Ġworse": 2648,
      "elf": 2649,
      "Ġangry": 2650,
      "ES": 2651,
      "cent": 2652,
      "ination": 2653,
      "Ġcalls": 2654,
      "Ġenjoy": 2655,
      "Ġapolog": 2656,
      "ov": 2657,
      "Ġpleas": 2658,
      "Ġinn": 2659,
      "Ġglad": 2660,
      "Ġsimple": 2661,
      "Ġ/": 2662,
      "Ġpresent": 2663,
      "AS": 2664,
      "Ġer": 2665,
      "oud": 2666,
      "Ġoffer": 2667,
      "ails": 2668,
      "Ġidiot": 2669,
      "Ġhistory": 2670,
      "Ġir": 2671,
      "Ġsoul": 2672,
      "onds": 2673,
      "Ġguns": 2674,
      "ĠWat": 2675,
      "iew": 2676,
      "Ġteac": 2677,
      "Ġcrime": 2678,
      "Ġgentlemen": 2679,
      "ĠTry": 2680,
      "ĠHapp": 2681,
      "Ġstreet": 2682,
      "Ġmemory": 2683,
      "\".": 2684,
      "cl": 2685,
      "Ġmiles": 2686,
      "Ġswear": 2687,
      "He": 2688,
      "itary": 2689,
      "tle": 2690,
      "idge": 2691,
      "ĠBring": 2692,
      "Ġapprec": 2693,
      "ked": 2694,
      "uri": 2695,
      "Ġproud": 2696,
      "ĠAd": 2697,
      "Ġdiffic": 2698,
      "EN": 2699,
      "Ġear": 2700,
      "ĠMmm": 2701,
      "ongrat": 2702,
      "fet": 2703,
      "ky": 2704,
      "time": 2705,
      "Ġtight": 2706,
      "Ġeas": 2707,
      "ĠPol": 2708,
      "Ġalright": 2709,
      "Ġterror": 2710,
      "Ġlocked": 2711,
      "Ġya": 2712,
      "Ġamazing": 2713,
      "ĠVict": 2714,
      "angu": 2715,
      "yle": 2716,
      "Ġequ": 2717,
      "overed": 2718,
      "Ġtravel": 2719,
      "ĠCharles": 2720,
      "Ġvictim": 2721,
      "ĠPapa": 2722,
      "Ġbear": 2723,
      "ĠDev": 2724,
      "Ġcorrect": 2725,
      "but": 2726,
      "cious": 2727,
      "ja": 2728,
      "Ġmot": 2729,
      "Ġlim": 2730,
      "Ġprop": 2731,
      "Ġbroken": 2732,
      "Ġmagic": 2733,
      "ts": 2734,
      "Ġage": 2735,
      "Ġbre": 2736,
      "els": 2737,
      "Ġrain": 2738,
      "attle": 2739,
      "Ġcurrent": 2740,
      "ĠIndia": 2741,
      "erve": 2742,
      "rill": 2743,
      "Ġboard": 2744,
      "Ġcas": 2745,
      "Ġearly": 2746,
      "Ġforward": 2747,
      "Ġrecogn": 2748,
      "Ġwomen": 2749,
      "of": 2750,
      "Ġhung": 2751,
      "ĠPar": 2752,
      "Ġarmy": 2753,
      "ĠSaw": 2754,
      "ĠDude": 2755,
      "ĠJenny": 2756,
      "Ġdev": 2757,
      "Ġbas": 2758,
      "Ġpop": 2759,
      "aced": 2760,
      "Ġlow": 2761,
      "Ġpath": 2762,
      "ĠYork": 2763,
      "hol": 2764,
      "Ġclub": 2765,
      "Ġcompletely": 2766,
      "Ġpark": 2767,
      "Ġbeha": 2768,
      "ĠToday": 2769,
      "irty": 2770,
      "Ġexam": 2771,
      "Ġcard": 2772,
      "Ġvisit": 2773,
      "Ġtree": 2774,
      "ĠPeter": 2775,
      "ĠEarth": 2776,
      "ĠAmerica": 2777,
      "tt": 2778,
      "ĠMor": 2779,
      "ĠLana": 2780,
      "Ġjud": 2781,
      "Ġorders": 2782,
      "Ġradio": 2783,
      "ern": 2784,
      "itive": 2785,
      "Ġpaid": 2786,
      "ĠSan": 2787,
      "Ġrather": 2788,
      "Ġtalked": 2789,
      "Ġchick": 2790,
      "Ġhonest": 2791,
      "Ġdraw": 2792,
      "how": 2793,
      "Ġbill": 2794,
      "Ġru": 2795,
      ",\"": 2796,
      "Ġice": 2797,
      "ĠSave": 2798,
      "Ġbutton": 2799,
      "Ġgroup": 2800,
      "Ġplug": 2801,
      "Ġcommun": 2802,
      "Ġremove": 2803,
      "wise": 2804,
      "ĠHo": 2805,
      "Ġstrange": 2806,
      "Ġyesterday": 2807,
      "Ġmurd": 2808,
      "ĠCop": 2809,
      "ĠDav": 2810,
      "Ġspent": 2811,
      "ses": 2812,
      "Ġpal": 2813,
      "Ġevent": 2814,
      "ĠLast": 2815,
      "Ġmatch": 2816,
      "Ġgener": 2817,
      "ĠMaster": 2818,
      "ĠPat": 2819,
      "Ġring": 2820,
      "Ġteach": 2821,
      "Ġtext": 2822,
      "Ġhearts": 2823,
      "Ġimpossible": 2824,
      "ĠLocke": 2825,
      "OM": 2826,
      "ĠIm": 2827,
      "ĠMark": 2828,
      "Ġneck": 2829,
      "Ġhotel": 2830,
      "Ġmachine": 2831,
      "Ġvoice": 2832,
      "ĠOw": 2833,
      "ĠJames": 2834,
      "Ġimmediately": 2835,
      "Ġpublic": 2836,
      "ĠMs": 2837,
      "ĠMaj": 2838,
      "Ġvan": 2839,
      "Ġnumbers": 2840,
      "itness": 2841,
      "ĠMiles": 2842,
      "aff": 2843,
      "Ġsat": 2844,
      "Ġsal": 2845,
      "ĠMore": 2846,
      "Ġforgive": 2847,
      "'?": 2848,
      "ĠEr": 2849,
      "Ġclosed": 2850,
      "Ġpatient": 2851,
      "ĠAgent": 2852,
      "Ġnormal": 2853,
      "ĠSince": 2854,
      "Ġblock": 2855,
      "Ġ200": 2856,
      "ĠHurry": 2857,
      "com": 2858,
      "Ġclothes": 2859,
      "iam": 2860,
      "ored": 2861,
      "Ġkidna": 2862,
      "Ġcow": 2863,
      "Ġvi": 2864,
      "Ġroll": 2865,
      "Ġforgot": 2866,
      "ĠHappy": 2867,
      "ege": 2868,
      "range": 2869,
      "hole": 2870,
      "Ġexist": 2871,
      "Ġstuck": 2872,
      "roll": 2873,
      "ury": 2874,
      "Ġload": 2875,
      "ended": 2876,
      "ĠCommand": 2877,
      "ĠTrust": 2878,
      "Ġdiam": 2879,
      "Ġquickly": 2880,
      "Ġfeed": 2881,
      "Ġoh": 2882,
      "ĠJake": 2883,
      "hard": 2884,
      "ĠCooper": 2885,
      "Ġcarry": 2886,
      "ĠJoe": 2887,
      "Ġdifficult": 2888,
      "Ġmention": 2889,
      "Ġocc": 2890,
      "ĠOk": 2891,
      "Ġrequest": 2892,
      "DE": 2893,
      "uel": 2894,
      "Ġla": 2895,
      "ĠGl": 2896,
      "host": 2897,
      "Ġdesign": 2898,
      "Ġmovie": 2899,
      "****": 2900,
      "Ġenemy": 2901,
      "Ã©": 2902,
      "atic": 2903,
      "Ġvide": 2904,
      "Ġofficer": 2905,
      "Ġcloser": 2906,
      "Ġinnoc": 2907,
      "gth": 2908,
      "Ġcust": 2909,
      "Ġrace": 2910,
      "ball": 2911,
      "set": 2912,
      "zz": 2913,
      "Ġdying": 2914,
      "Ġpen": 2915,
      "ibility": 2916,
      "Ġinvestig": 2917,
      "Ġsong": 2918,
      "Ġself": 2919,
      "Ġnamed": 2920,
      "Ġdoll": 2921,
      "Ġfighting": 2922,
      "light": 2923,
      "Ġrules": 2924,
      "ĠKe": 2925,
      "Ġprocess": 2926,
      "BI": 2927,
      "friend": 2928,
      "ians": 2929,
      "ĠJul": 2930,
      "Ġprove": 2931,
      "ĠShall": 2932,
      "Ġweak": 2933,
      "Ġblue": 2934,
      "Ġwrite": 2935,
      "arling": 2936,
      "Ġcamera": 2937,
      "aim": 2938,
      "Ġsad": 2939,
      "Ġsometimes": 2940,
      "Ġdig": 2941,
      "Ġok": 2942,
      "Ġhun": 2943,
      "ĠRuss": 2944,
      "ĠBefore": 2945,
      "Ġchoose": 2946,
      "Ġcash": 2947,
      "Ġwearing": 2948,
      "just": 2949,
      "incess": 2950,
      "enty": 2951,
      "rab": 2952,
      "ĠReady": 2953,
      "ergency": 2954,
      "Ġtype": 2955,
      "par": 2956,
      "Ġsea": 2957,
      "ĠTer": 2958,
      "ala": 2959,
      "ĠRa": 2960,
      "Ġlaugh": 2961,
      "cha": 2962,
      "Ġmaster": 2963,
      "ĠHas": 2964,
      "oop": 2965,
      "ĠRel": 2966,
      "Ġagree": 2967,
      "ĠBlack": 2968,
      "Ġcharge": 2969,
      "Ġlocation": 2970,
      "mes": 2971,
      "Ġstole": 2972,
      "ĠFred": 2973,
      "Ġ11": 2974,
      "ĠSomebody": 2975,
      "ĠNext": 2976,
      "Ġshar": 2977,
      "iter": 2978,
      "Ġpray": 2979,
      "uk": 2980,
      "ĠHang": 2981,
      "Ġearth": 2982,
      "Ġagent": 2983,
      "Ġcontain": 2984,
      "Ġdreams": 2985,
      "duct": 2986,
      "No": 2987,
      "gue": 2988,
      "ĠSun": 2989,
      "ĠEasy": 2990,
      "Ġsex": 2991,
      "Ġgrab": 2992,
      "Ġwood": 2993,
      "Ġforce": 2994,
      "ĠHarry": 2995,
      "ĠDavid": 2996,
      "OR": 2997,
      "ien": 2998,
      "val": 2999,
      "Ġsil": 3000,
      "hys": 3001,
      "Ġdem": 3002,
      "pty": 3003,
      "Ġfur": 3004,
      "ĠWalt": 3005,
      "Ġbeach": 3006,
      "Ġjail": 3007,
      "Ġsumm": 3008,
      "Ġkiller": 3009,
      "IC": 3010,
      "for": 3011,
      "heart": 3012,
      "Ġwhoa": 3013,
      "ĠPerhaps": 3014,
      "icks": 3015,
      "bor": 3016,
      "under": 3017,
      "Ġlar": 3018,
      "Ġsuc": 3019,
      "Ġattention": 3020,
      "Ġrout": 3021,
      "Ġblind": 3022,
      "Ġremind": 3023,
      "Ġrealize": 3024,
      "ĠyÃ¶ur": 3025,
      "Ġimpress": 3026,
      "che": 3027,
      "Ġtable": 3028,
      "Ġgang": 3029,
      "Ġhiding": 3030,
      "ĠGeor": 3031,
      "play": 3032,
      "Ġcrim": 3033,
      "ald": 3034,
      "ini": 3035,
      "Ġresc": 3036,
      "ground": 3037,
      "Ġmir": 3038,
      "ĠKhan": 3039,
      "Ġdecision": 3040,
      "Ġlistening": 3041,
      "Ġkeys": 3042,
      "hmm": 3043,
      "Ġtechn": 3044,
      "rog": 3045,
      "ĠFive": 3046,
      "Ġconcer": 3047,
      "Ġsuppose": 3048,
      "Ġservice": 3049,
      "Ġwalking": 3050,
      "Ġmusic": 3051,
      "ran": 3052,
      "Ġtur": 3053,
      "Ġscene": 3054,
      "Ġextra": 3055,
      "ex": 3056,
      "Ġpot": 3057,
      "Ġguest": 3058,
      "velop": 3059,
      "uge": 3060,
      "ĠTV": 3061,
      "ĠCarl": 3062,
      "irlf": 3063,
      "irlfriend": 3064,
      "Ġlay": 3065,
      "ĠSho": 3066,
      "ĠHigh": 3067,
      "nable": 3068,
      "Ġheading": 3069,
      "Ġrelations": 3070,
      "ĠHol": 3071,
      "ĠUp": 3072,
      "ĠAnything": 3073,
      "min": 3074,
      "Ġfre": 3075,
      "ĠDet": 3076,
      "resh": 3077,
      "Ġhelping": 3078,
      "Ġdefinitely": 3079,
      "Ġinterested": 3080,
      "Ġpun": 3081,
      "Ġhole": 3082,
      "Ġann": 3083,
      "Ġjack": 3084,
      "ĠStep": 3085,
      "Ġloves": 3086,
      "Ġpromised": 3087,
      "ĠFire": 3088,
      "ondon": 3089,
      "rupt": 3090,
      "Ġcollege": 3091,
      "Ġwhether": 3092,
      "Ġimagine": 3093,
      "ĠWatson": 3094,
      "icul": 3095,
      "ĠGeneral": 3096,
      "what": 3097,
      "Ġnone": 3098,
      "Ġclient": 3099,
      "Ġactiv": 3100,
      "Ġbreath": 3101,
      "ring": 3102,
      "Ġbother": 3103,
      "Ġdiv": 3104,
      "stairs": 3105,
      "ending": 3106,
      "Ġhurry": 3107,
      "Ġglass": 3108,
      "Ġnine": 3109,
      "ĠLondon": 3110,
      "Ġappreciate": 3111,
      "Ġfac": 3112,
      "ĠSometimes": 3113,
      "Ġeffect": 3114,
      "essor": 3115,
      "itted": 3116,
      "bert": 3117,
      "Ġsword": 3118,
      "ĠTy": 3119,
      "ese": 3120,
      "ĠRen": 3121,
      "Ġbecame": 3122,
      "Ġsac": 3123,
      "Ġbath": 3124,
      "erc": 3125,
      "ocus": 3126,
      "Ġholding": 3127,
      "!\"": 3128,
      "ĠBu": 3129,
      "ĠUse": 3130,
      "ĠForget": 3131,
      "eer": 3132,
      "por": 3133,
      "...\"": 3134,
      "ĠMur": 3135,
      "Ġclim": 3136,
      "ĠâĢ": 3137,
      "Ġ40": 3138,
      "Ġmate": 3139,
      "ĠCo": 3140,
      "Ġprov": 3141,
      "Ġpoor": 3142,
      "Ġinnocent": 3143,
      "ĠTw": 3144,
      "ĠMc": 3145,
      "ploy": 3146,
      "ongratulations": 3147,
      "Ġlied": 3148,
      "ĠRob": 3149,
      "Ġsight": 3150,
      "Ġnames": 3151,
      "vert": 3152,
      "ĠFBI": 3153,
      "sc": 3154,
      "sen": 3155,
      "Ġur": 3156,
      "ĠBig": 3157,
      "ĠEv": 3158,
      "Ġdriving": 3159,
      "ĠProf": 3160,
      "Ġevil": 3161,
      "shit": 3162,
      "Ġcry": 3163,
      "ĠWant": 3164,
      "Ġjung": 3165,
      "empt": 3166,
      "Ġproblems": 3167,
      "Ġbullet": 3168,
      "ĠVictor": 3169,
      "ram": 3170,
      "arm": 3171,
      "ĠBaby": 3172,
      "ĠRog": 3173,
      "board": 3174,
      "Ġreceive": 3175,
      "inary": 3176,
      "Ġpush": 3177,
      "ats": 3178,
      "Ġthird": 3179,
      "ĠHoney": 3180,
      "ĠLu": 3181,
      "Ġ13": 3182,
      "Ġfigured": 3183,
      "ĠAmerican": 3184,
      "Ġcrew": 3185,
      "Ġspeed": 3186,
      "Ġowe": 3187,
      "Ġviol": 3188,
      "li": 3189,
      "Ġaff": 3190,
      "ĠAN": 3191,
      "ĠLittle": 3192,
      "Ġgirlfriend": 3193,
      "ĠHen": 3194,
      "Ġeverywhere": 3195,
      "anguage": 3196,
      "kn": 3197,
      "no": 3198,
      "Ġlt": 3199,
      "ĠGer": 3200,
      "ires": 3201,
      "ĠUnder": 3202,
      "Ġdiscuss": 3203,
      "ĠEnglish": 3204,
      "We": 3205,
      "ville": 3206,
      "ĠRs": 3207,
      "Ġcars": 3208,
      "Ġvehic": 3209,
      "Ġhungry": 3210,
      "mb": 3211,
      "add": 3212,
      "ĠZo": 3213,
      "dom": 3214,
      "Ġtired": 3215,
      "ĠStill": 3216,
      "Ġvideo": 3217,
      "Ġjungle": 3218,
      "IA": 3219,
      "tery": 3220,
      "Ġfaster": 3221,
      "icated": 3222,
      "cean": 3223,
      "Ġ25": 3224,
      "Ġputting": 3225,
      "load": 3226,
      "Ġsurprise": 3227,
      "ka": 3228,
      "ani": 3229,
      "Ġvir": 3230,
      "Ġhelped": 3231,
      "Ġshop": 3232,
      "gar": 3233,
      "jay": 3234,
      "vious": 3235,
      "ĠDis": 3236,
      "rav": 3237,
      "ĠPrem": 3238,
      "Ġtemple": 3239,
      "ĠSawyer": 3240,
      "Ġdiamonds": 3241,
      "Ġfreak": 3242,
      "Ġgar": 3243,
      "ĠWal": 3244,
      "Ġthr": 3245,
      "Ġpsy": 3246,
      "lebr": 3247,
      "Ġrese": 3248,
      "eared": 3249,
      "ends": 3250,
      "ero": 3251,
      "dden": 3252,
      "ĠSelect": 3253,
      "hood": 3254,
      "Ġwaste": 3255,
      "Ġduring": 3256,
      "Ġcause": 3257,
      "arch": 3258,
      "ĠAir": 3259,
      "ĠRay": 3260,
      "Ġspot": 3261,
      "rench": 3262,
      "Ġperform": 3263,
      "mond": 3264,
      "ishing": 3265,
      "ĠTalk": 3266,
      "ashed": 3267,
      "alent": 3268,
      "ĠCor": 3269,
      "riff": 3270,
      "ĠPull": 3271,
      "ĠJim": 3272,
      "Ġguard": 3273,
      "co": 3274,
      "ĠAf": 3275,
      "ĠCity": 3276,
      "Ġsudden": 3277,
      "aith": 3278,
      "gn": 3279,
      "Ġwitness": 3280,
      "Ġgreen": 3281,
      "Ġant": 3282,
      "gel": 3283,
      "aint": 3284,
      "Ġsky": 3285,
      "Ġcollect": 3286,
      "Ġweapons": 3287,
      "face": 3288,
      "Ġfat": 3289,
      "ĠWind": 3290,
      "ĠSl": 3291,
      "ĠStand": 3292,
      "place": 3293,
      "Ġ24": 3294,
      "gress": 3295,
      "nes": 3296,
      "icate": 3297,
      "Ġbloody": 3298,
      "Oh": 3299,
      "Ġmap": 3300,
      "stood": 3301,
      "ĠAw": 3302,
      "ellig": 3303,
      "ĠNik": 3304,
      "iling": 3305,
      "Ġorgan": 3306,
      "Ġfeels": 3307,
      "IS": 3308,
      "itions": 3309,
      "ĠDu": 3310,
      "arlier": 3311,
      "Ġriver": 3312,
      "Ġfurther": 3313,
      "Ġtun": 3314,
      "Ġnorth": 3315,
      "Ġscrew": 3316,
      "Ġpassed": 3317,
      "Ġfailed": 3318,
      "Ġtea": 3319,
      "erv": 3320,
      "Ġduty": 3321,
      "ett": 3322,
      "ĠJe": 3323,
      "ĠStart": 3324,
      "Ġdecide": 3325,
      "ĠMartin": 3326,
      "ĠGre": 3327,
      "Ġsleeping": 3328,
      "do": 3329,
      "Ġauthor": 3330,
      "ĠInt": 3331,
      "ĠRah": 3332,
      "ĠEnough": 3333,
      "ĠEll": 3334,
      "Ġpulled": 3335,
      "Ġdestroyed": 3336,
      "It": 3337,
      "ners": 3338,
      "inct": 3339,
      "Ġitself": 3340,
      "Ġfort": 3341,
      "Ġcommon": 3342,
      "gest": 3343,
      "Ġliked": 3344,
      "ĠFin": 3345,
      "ĠInst": 3346,
      "Ġmedic": 3347,
      "mer": 3348,
      "ĠSher": 3349,
      "ĠAna": 3350,
      "iced": 3351,
      "Ġjour": 3352,
      "ppie": 3353,
      "Ġsoft": 3354,
      "Ġsuff": 3355,
      "Ġrelax": 3356,
      "Ġleader": 3357,
      "Ġtotally": 3358,
      "da": 3359,
      "pose": 3360,
      "Ġcaptain": 3361,
      "Ġcreate": 3362,
      "alf": 3363,
      "Ġupon": 3364,
      "itten": 3365,
      "Ġmilitary": 3366,
      "Ġcelebr": 3367,
      "Ġinvolved": 3368,
      "ktop": 3369,
      "Ġsite": 3370,
      "otion": 3371,
      "ĠRep": 3372,
      "ĠKat": 3373,
      "Ġbigger": 3374,
      "Ġterrible": 3375,
      "ĠPolice": 3376,
      "Ġhy": 3377,
      "fety": 3378,
      "ĠCopy": 3379,
      "ĠToo": 3380,
      "Ġsepar": 3381,
      "ints": 3382,
      "Ġdriver": 3383,
      "ĠAtt": 3384,
      "ĠQue": 3385,
      "Ġ#": 3386,
      "ĠWithout": 3387,
      "ker": 3388,
      "Ġmut": 3389,
      "Ġmountain": 3390,
      "Ġnecess": 3391,
      "Ġfinished": 3392,
      "Ġcoun": 3393,
      "ĠDoesn": 3394,
      "aven": 3395,
      "Ġdata": 3396,
      "lder": 3397,
      "ĠMod": 3398,
      "Ġstorm": 3399,
      "ortun": 3400,
      "Ġapplic": 3401,
      "Ġempty": 3402,
      "ĠShaw": 3403,
      "gy": 3404,
      "Ġplant": 3405,
      "Ġorig": 3406,
      "ĠChlo": 3407,
      "ĠMommy": 3408,
      "ĠSarah": 3409,
      "ĠChloe": 3410,
      "will": 3411,
      "Ġnote": 3412,
      "ĠFour": 3413,
      "rag": 3414,
      "ĠThom": 3415,
      "Ġclaim": 3416,
      "Ġpract": 3417,
      "rength": 3418,
      "Ġ0": 3419,
      "..\"": 3420,
      "ĠWar": 3421,
      "Ġ--": 3422,
      "ĠAdd": 3423,
      "ĠRad": 3424,
      "Ġgate": 3425,
      "Ġheal": 3426,
      "amb": 3427,
      "ĠPick": 3428,
      "ceed": 3429,
      "ĠDoctor": 3430,
      "Ġgives": 3431,
      "Ġkeeping": 3432,
      "Ġlived": 3433,
      "Ġfinger": 3434,
      "rish": 3435,
      "ĠTO": 3436,
      "Ġwilling": 3437,
      "Ġlosing": 3438,
      "Ġprice": 3439,
      "Ġmoved": 3440,
      "ĠBrit": 3441,
      "Ġskin": 3442,
      "Ġdrag": 3443,
      "then": 3444,
      "anda": 3445,
      "iel": 3446,
      "venge": 3447,
      "ipe": 3448,
      "Ġsmile": 3449,
      "Ġboyfriend": 3450,
      "Ġassist": 3451,
      "Ġattempt": 3452,
      "Ġmoon": 3453,
      "ergy": 3454,
      "ĠSweet": 3455,
      "Ġallowed": 3456,
      "Ġcast": 3457,
      "ĠNor": 3458,
      "ĠKDE": 3459,
      "Ġspir": 3460,
      "Ġjoke": 3461,
      "Ġpicked": 3462,
      "Ġyell": 3463,
      "arty": 3464,
      "ruct": 3465,
      "his": 3466,
      "yal": 3467,
      "ills": 3468,
      "urch": 3469,
      "Ġvac": 3470,
      "Ġemergency": 3471,
      "ĠChappie": 3472,
      "oid": 3473,
      "Ġgodd": 3474,
      "ĠSteve": 3475,
      "ĠâĢĵ": 3476,
      "Ġsize": 3477,
      "itude": 3478,
      "ira": 3479,
      "ĠLau": 3480,
      "Ġsoc": 3481,
      "Ġarms": 3482,
      "Ġphoto": 3483,
      "Ġ~": 3484,
      "Ġsens": 3485,
      "esome": 3486,
      "aly": 3487,
      "Ġeating": 3488,
      "Ġview": 3489,
      "Ġhadn": 3490,
      "Ġmedical": 3491,
      "ĠRoger": 3492,
      "And": 3493,
      "let": 3494,
      "ĠSame": 3495,
      "Ġstat": 3496,
      "Ġknock": 3497,
      "olen": 3498,
      "ptions": 3499,
      "Ġunless": 3500,
      "Ġstarting": 3501,
      "Ġcopy": 3502,
      "ĠKevin": 3503,
      "than": 3504,
      "âĢ": 3505,
      "Ġcave": 3506,
      "ened": 3507,
      "Ġrich": 3508,
      "Ġconvers": 3509,
      "Ġexcept": 3510,
      "Ġways": 3511,
      "Ġ18": 3512,
      "Ġteacher": 3513,
      "iff": 3514,
      "ĠFollow": 3515,
      "Ġcomb": 3516,
      "Ġ16": 3517,
      "ĠShh": 3518,
      "Ġfinal": 3519,
      "Ġcolor": 3520,
      "Ġbuck": 3521,
      "iment": 3522,
      "Ġlikes": 3523,
      "ĠRes": 3524,
      "aul": 3525,
      "ement": 3526,
      "Ġdrunk": 3527,
      "Ġapartment": 3528,
      "idden": 3529,
      "ĠSur": 3530,
      "ĠCongratulations": 3531,
      "geant": 3532,
      "uit": 3533,
      "Ġ?": 3534,
      "Ġcab": 3535,
      "Ġfaith": 3536,
      "Ġkit": 3537,
      "ĠMil": 3538,
      "ĠBoy": 3539,
      "Ġfilm": 3540,
      "oman": 3541,
      "Ġreb": 3542,
      "ibly": 3543,
      "ĠMet": 3544,
      "ĠRon": 3545,
      "ĠJason": 3546,
      "Ġourselves": 3547,
      "ĠVas": 3548,
      "ĠAnj": 3549,
      "ising": 3550,
      "icide": 3551,
      "Ġstore": 3552,
      "ives": 3553,
      "Ġsuck": 3554,
      "Ġplanning": 3555,
      "ĠAnyway": 3556,
      "Ġproperty": 3557,
      "father": 3558,
      "Ġlunch": 3559,
      "ĠMal": 3560,
      "ĠCent": 3561,
      "Ġabove": 3562,
      "Ġpartner": 3563,
      "Ġpoison": 3564,
      "Ġbrave": 3565,
      "rel": 3566,
      "Ġsake": 3567,
      "esides": 3568,
      "Ġrepe": 3569,
      "Ġstrength": 3570,
      "ording": 3571,
      "Ġleaves": 3572,
      "xy": 3573,
      "Ġmask": 3574,
      "Ġfit": 3575,
      "ĠOl": 3576,
      "Ġcrack": 3577,
      "can": 3578,
      "ji": 3579,
      "yl": 3580,
      "Ġlanguage": 3581,
      "omes": 3582,
      "ĠMost": 3583,
      "Ġspl": 3584,
      "ĠAren": 3585,
      "Ġkeeps": 3586,
      "Ġdaddy": 3587,
      "Ġtransfer": 3588,
      "Ġprivate": 3589,
      "OT": 3590,
      "ns": 3591,
      "ids": 3592,
      "icy": 3593,
      "ĠMo": 3594,
      "rodu": 3595,
      "Ġsafety": 3596,
      "Ġthemselves": 3597,
      "Ġexec": 3598,
      "ĠAnother": 3599,
      "Ġresult": 3600,
      "Ġwonderful": 3601,
      "OW": 3602,
      "oned": 3603,
      "ĠAnt": 3604,
      "ĠMama": 3605,
      "ĠBri": 3606,
      "ĠDou": 3607,
      "ĠOoh": 3608,
      "Ġexcuse": 3609,
      "Ġchanges": 3610,
      "Ġtowards": 3611,
      "Ġresponsible": 3612,
      "Ġhoping": 3613,
      "ĠThomas": 3614,
      "Ġbattle": 3615,
      "Ġearlier": 3616,
      "rif": 3617,
      "Ġplans": 3618,
      "Ġaction": 3619,
      "Ġshowed": 3620,
      "ĠAsk": 3621,
      "ances": 3622,
      "ĠConf": 3623,
      "gen": 3624,
      "Ġtaught": 3625,
      "rer": 3626,
      "Ġladies": 3627,
      "Ġund": 3628,
      "ĠOb": 3629,
      "ĠLa": 3630,
      "Ġcondition": 3631,
      "Ġpan": 3632,
      "Ġneigh": 3633,
      "Ġswim": 3634,
      "Ġinteresting": 3635,
      "LE": 3636,
      "phan": 3637,
      "rate": 3638,
      "ued": 3639,
      "Ġdarling": 3640,
      "Ġfake": 3641,
      "ĠTen": 3642,
      "ĠCare": 3643,
      "ĠVel": 3644,
      "Ġpolit": 3645,
      "ology": 3646,
      "ju": 3647,
      "Ġhuge": 3648,
      "ĠHand": 3649,
      "ĠDor": 3650,
      "ĠDown": 3651,
      "Ġheaded": 3652,
      "ĠClose": 3653,
      "Ġmurdered": 3654,
      "ees": 3655,
      "fuck": 3656,
      "Ġtab": 3657,
      "ises": 3658,
      "Ġdoors": 3659,
      "ĠDelhi": 3660,
      "ĠHead": 3661,
      "arden": 3662,
      "fast": 3663,
      "pect": 3664,
      "yn": 3665,
      "Ġfate": 3666,
      "Ġthief": 3667,
      "ĠTheir": 3668,
      "Ġletter": 3669,
      "down": 3670,
      "eat": 3671,
      "oad": 3672,
      "ĠLuc": 3673,
      "Ġupset": 3674,
      "Ġarrived": 3675,
      "ĠHolmes": 3676,
      "cher": 3677,
      "word": 3678,
      "Ġls": 3679,
      "asc": 3680,
      "ĠRemove": 3681,
      "Ġopportun": 3682,
      "bing": 3683,
      "well": 3684,
      "ĠWay": 3685,
      "osh": 3686,
      "Ġfavorite": 3687,
      "Ġnu": 3688,
      "Ġhunt": 3689,
      "ĠCur": 3690,
      "Ġknife": 3691,
      "Ġenc": 3692,
      "Ġscream": 3693,
      "Ġtele": 3694,
      "Ġshock": 3695,
      "Ġcrap": 3696,
      "Ġreading": 3697,
      "Ġsnow": 3698,
      "ĠHoly": 3699,
      "noon": 3700,
      "uro": 3701,
      "het": 3702,
      "Ġwound": 3703,
      "Ġbab": 3704,
      "ĠTed": 3705,
      "Ġoption": 3706,
      "Ġlearned": 3707,
      "Ġcreated": 3708,
      "ĠPriya": 3709,
      "ining": 3710,
      "Ġhi": 3711,
      "Ġsusp": 3712,
      "Ġapart": 3713,
      "Ġescap": 3714,
      "Ġrelationship": 3715,
      "ĠRahul": 3716,
      "Ġsource": 3717,
      "Ġconst": 3718,
      "Ġvol": 3719,
      "Ġqueen": 3720,
      "ĠAbsolutely": 3721,
      "Ġcorner": 3722,
      "Ġbeginning": 3723,
      "Ġtort": 3724,
      "ĠHenry": 3725,
      "ivers": 3726,
      "Ġill": 3727,
      "ech": 3728,
      "hik": 3729,
      "Ġincl": 3730,
      "xic": 3731,
      "Ġtough": 3732,
      "Ġhig": 3733,
      "ays": 3734,
      "ĠMac": 3735,
      "Ġdevelop": 3736,
      "earch": 3737,
      "Ġfollowed": 3738,
      "Ġtrip": 3739,
      "Ġtwice": 3740,
      "gin": 3741,
      "gre": 3742,
      "Ġsouth": 3743,
      "Ġghost": 3744,
      "ĠAut": 3745,
      "Ġworst": 3746,
      "Ġsaving": 3747,
      "Ġimm": 3748,
      "Ġbelieved": 3749,
      "ival": 3750,
      "ĠAnyone": 3751,
      "Ġconsider": 3752,
      "ites": 3753,
      "Ġreact": 3754,
      "Ġacting": 3755,
      "Ġpowerful": 3756,
      "Ġflying": 3757,
      "ĠSuper": 3758,
      "Ġvalue": 3759,
      "Ġterrorist": 3760,
      "known": 3761,
      "yond": 3762,
      "Ġchat": 3763,
      "Ġpowers": 3764,
      "Ġbell": 3765,
      "Ġreached": 3766,
      "Ġplaces": 3767,
      "Ġ14": 3768,
      "Ġinstall": 3769,
      "Ġvehicle": 3770,
      "back": 3771,
      "lu": 3772,
      "Ġbene": 3773,
      "Ġcup": 3774,
      "Ġfresh": 3775,
      "Ġpil": 3776,
      "ĠSet": 3777,
      "ĠCalm": 3778,
      "Ġstolen": 3779,
      "ĠLong": 3780,
      "Ġlovely": 3781,
      "Ġdepartment": 3782,
      "Ġwoods": 3783,
      "NA": 3784,
      "cho": 3785,
      "off": 3786,
      "ism": 3787,
      "enn": 3788,
      "ĠSouth": 3789,
      "Ġbeyond": 3790,
      "Ġneg": 3791,
      "Ġamb": 3792,
      "Ġhello": 3793,
      "Ġfellow": 3794,
      "rief": 3795,
      "Ġcontinue": 3796,
      "ĠQueen": 3797,
      "Ġphys": 3798,
      "ĠRic": 3799,
      "Ġrule": 3800,
      "astic": 3801,
      "Ġanswers": 3802,
      "Ġairport": 3803,
      "war": 3804,
      "Ġbast": 3805,
      "Ġbought": 3806,
      "Ġnatur": 3807,
      "ĠNorm": 3808,
      "Ġgotten": 3809,
      "onsense": 3810,
      "Ġpainting": 3811,
      "Ġexperience": 3812,
      "Ġpressure": 3813,
      "Ġoften": 3814,
      "ĠDom": 3815,
      "ĠLight": 3816,
      "Ġnose": 3817,
      "Ġharm": 3818,
      "ĠGuess": 3819,
      "Ġspeaking": 3820,
      "CK": 3821,
      "ased": 3822,
      "Ġamong": 3823,
      "ailed": 3824,
      "Ġsmoke": 3825,
      "Ġanimals": 3826,
      "chen": 3827,
      "Ġwild": 3828,
      "Ġden": 3829,
      "Ġfocus": 3830,
      "ĠCal": 3831,
      "ĠBel": 3832,
      "Ġdevice": 3833,
      "Ġspades": 3834,
      "Ġends": 3835,
      "ension": 3836,
      "attoo": 3837,
      "ĠRelax": 3838,
      "ĠMill": 3839,
      "ĠCr": 3840,
      "ĠDri": 3841,
      "Ġaware": 3842,
      "Ġbathroom": 3843,
      "Ġfreed": 3844,
      "ĠShan": 3845,
      "Ġhall": 3846,
      "icense": 3847,
      "ĠLady": 3848,
      "odies": 3849,
      "Ġraise": 3850,
      "Ġinsane": 3851,
      "Ġpleasure": 3852,
      "Ġciv": 3853,
      "Ġgas": 3854,
      "oring": 3855,
      "Ġlord": 3856,
      "ĠHit": 3857,
      "ĠHunt": 3858,
      "Ġbless": 3859,
      "ailable": 3860,
      "Ġcute": 3861,
      "Ġsweetheart": 3862,
      "ĠWhit": 3863,
      "Ġsetting": 3864,
      "ĠSmall": 3865,
      "ipp": 3866,
      "Ġwast": 3867,
      "hai": 3868,
      "ĠThing": 3869,
      "ĠFree": 3870,
      "ĠJac": 3871,
      "Ġintellig": 3872,
      "Ġarrange": 3873,
      "ĠTomorrow": 3874,
      "Ġnecessary": 3875,
      "Ġdue": 3876,
      "ĠWH": 3877,
      "ĠHon": 3878,
      "Ġdocum": 3879,
      "ĠBill": 3880,
      "Ġcapt": 3881,
      "My": 3882,
      "Ġpus": 3883,
      "ĠCole": 3884,
      "Ġlift": 3885,
      "ĠJa": 3886,
      "Ġwritten": 3887,
      "Ġdescri": 3888,
      "Ġdeserve": 3889,
      "Ġinterview": 3890,
      "ĠHurley": 3891,
      "ĠBetter": 3892,
      "Ġpock": 3893,
      "ĠMorning": 3894,
      "olution": 3895,
      "Ġstaying": 3896,
      "ĠProbably": 3897,
      "Ġcustom": 3898,
      "Ġgoddamn": 3899,
      "Ġpiss": 3900,
      "Ġegg": 3901,
      "Ġknowing": 3902,
      "ference": 3903,
      "Ġintrodu": 3904,
      "Ġprincess": 3905,
      "Ġpartic": 3906,
      "Ġrealized": 3907,
      "Ġshad": 3908,
      "Ġsuccess": 3909,
      "Ġtunnel": 3910,
      "chan": 3911,
      "ĠHug": 3912,
      "Ġlies": 3913,
      "Ġbetray": 3914,
      "ĠWalter": 3915,
      "Ġbug": 3916,
      "ĠAah": 3917,
      "ĠBea": 3918,
      "ĠBoth": 3919,
      "ĠJane": 3920,
      "aker": 3921,
      "Ġtells": 3922,
      "Ġspare": 3923,
      "Ġenergy": 3924,
      "Ġdestiny": 3925,
      "ĠPlay": 3926,
      "Ġrecognize": 3927,
      "Ġresearch": 3928,
      "Ġopportunity": 3929,
      "Ġheavy": 3930,
      "Ġswitch": 3931,
      "Ġdropped": 3932,
      "nal": 3933,
      "ino": 3934,
      "arter": 3935,
      "ĠCIA": 3936,
      "Ġroof": 3937,
      "ĠVis": 3938,
      "Ġasshole": 3939,
      "Ġbreathe": 3940,
      "ĠSingh": 3941,
      "vey": 3942,
      "achel": 3943,
      "ĠLog": 3944,
      "Ġwrote": 3945,
      "Ġplayed": 3946,
      "ĠEmily": 3947,
      "GH": 3948,
      "ique": 3949,
      "ox": 3950,
      "va": 3951,
      "Ġbunch": 3952,
      "Ġpred": 3953,
      "Ġweight": 3954,
      "ĠAnna": 3955,
      "Ġafternoon": 3956,
      "Ġshoes": 3957,
      "ĠDef": 3958,
      "Ġdouble": 3959,
      "ĠBarry": 3960,
      "fortun": 3961,
      "ĠDetective": 3962,
      "ĠLiz": 3963,
      "Ġproof": 3964,
      "Ġopened": 3965,
      "Ġbooks": 3966,
      "spector": 3967,
      "Ġmarket": 3968,
      "Ġmor": 3969,
      "Ġbare": 3970,
      "ecially": 3971,
      "Ġcontract": 3972,
      "Ġhearing": 3973,
      "otten": 3974,
      "Ġshooting": 3975,
      "Ġsurprised": 3976,
      "Ġpurpose": 3977,
      "iculous": 3978,
      "ĠRichard": 3979,
      "Ġign": 3980,
      "Ġcred": 3981,
      "ĠPret": 3982,
      "ĠFar": 3983,
      "ĠEthan": 3984,
      "ender": 3985,
      "Ġlocal": 3986,
      "ĠBritish": 3987,
      "EA": 3988,
      "ELL": 3989,
      "mine": 3990,
      "sa": 3991,
      "reme": 3992,
      "ĠCy": 3993,
      "Ġshirt": 3994,
      "Ġadvice": 3995,
      "âĢ¦": 3996,
      "eal": 3997,
      "net": 3998,
      "Ġmid": 3999,
      "Ġquit": 4000,
      "Ġheads": 4001,
      "arently": 4002,
      "Ġhorse": 4003,
      "ĠAND": 4004,
      "Ġconversation": 4005,
      "Ġsam": 4006,
      "Ġbodies": 4007,
      "Ġhol": 4008,
      "Ġletting": 4009,
      "Ġappear": 4010,
      "Ġdetails": 4011,
      "Ġcamer": 4012,
      "Ġphotog": 4013,
      "omed": 4014,
      "ĠHank": 4015,
      "ĠMag": 4016,
      "ĠBur": 4017,
      "Ġstars": 4018,
      "ĠWere": 4019,
      "Ġloss": 4020,
      "Ġclock": 4021,
      "Ġscare": 4022,
      "Ġenter": 4023,
      "Ġexplos": 4024,
      "Ġattacked": 4025,
      "Ġbullshit": 4026,
      "OO": 4027,
      "ipped": 4028,
      "Ġpu": 4029,
      "ĠSounds": 4030,
      "ĠCut": 4031,
      "ĠFrench": 4032,
      "Ġabsolutely": 4033,
      "Ġusually": 4034,
      "ulation": 4035,
      "Ġspoke": 4036,
      "this": 4037,
      "ĠSean": 4038,
      "ledge": 4039,
      "Ġfalling": 4040,
      "ĠClear": 4041,
      "Ġsand": 4042,
      "ĠSix": 4043,
      "ĠCap": 4044,
      "ĠJin": 4045,
      "Ġours": 4046,
      "iction": 4047,
      "Ġconnection": 4048,
      "ĠProfessor": 4049,
      "Ġfan": 4050,
      "Ġodd": 4051,
      "ĠSus": 4052,
      "ĠAust": 4053,
      "Ġfeelings": 4054,
      "Ġseriously": 4055,
      "Ġbleed": 4056,
      "Ġtour": 4057,
      "llen": 4058,
      "imp": 4059,
      "ĠDep": 4060,
      "Ġserv": 4061,
      "Ġsending": 4062,
      "Ġcriminal": 4063,
      "ĠSherlock": 4064,
      "Yes": 4065,
      "Ġnon": 4066,
      "ĠCass": 4067,
      "ĠDam": 4068,
      "Ġsever": 4069,
      "Ġtrigg": 4070,
      "Ġdisappear": 4071,
      "Ġroute": 4072,
      "iers": 4073,
      "ium": 4074,
      "like": 4075,
      "Ġtax": 4076,
      "Ġtattoo": 4077,
      "Ġcau": 4078,
      "ĠWhe": 4079,
      "ĠWalk": 4080,
      "oming": 4081,
      "ĠSend": 4082,
      "ĠSub": 4083,
      "Ġnoticed": 4084,
      "Ġmanager": 4085,
      "Ġwhose": 4086,
      "Ġtraining": 4087,
      "Ġlawyer": 4088,
      "ĠGrandpa": 4089,
      "Ġdollars": 4090,
      "ET": 4091,
      "book": 4092,
      "itz": 4093,
      "Ġgames": 4094,
      "Ġhired": 4095,
      "ĠMary": 4096,
      "ĠColl": 4097,
      "ential": 4098,
      "Ġagreed": 4099,
      "older": 4100,
      "Ġimage": 4101,
      "Ġaccom": 4102,
      "ĠExactly": 4103,
      "Ġwarm": 4104,
      "Ġissue": 4105,
      "Ġclubs": 4106,
      "15": 4107,
      "cing": 4108,
      "ration": 4109,
      "yan": 4110,
      "reck": 4111,
      "Ġcro": 4112,
      "Ġfle": 4113,
      "ĠWest": 4114,
      "Ġstarts": 4115,
      "Ġpermission": 4116,
      "ĠUnless": 4117,
      "ĠId": 4118,
      "Ġcal": 4119,
      "ĠSa": 4120,
      "ĠRec": 4121,
      "raph": 4122,
      "ĠEver": 4123,
      "fered": 4124,
      "Ġfinding": 4125,
      "ĠVeer": 4126,
      "Ġwarri": 4127,
      "ancy": 4128,
      "ĠSecurity": 4129,
      "Ġselected": 4130,
      "Ġbreaking": 4131,
      "uly": 4132,
      "rem": 4133,
      "ĠHor": 4134,
      "hod": 4135,
      "ĠJan": 4136,
      "Ġround": 4137,
      "Ġ17": 4138,
      "Ġsecure": 4139,
      "ĠAss": 4140,
      "Ġbreakfast": 4141,
      "ĠChand": 4142,
      "ĠYo": 4143,
      "Ġhack": 4144,
      "aching": 4145,
      "ĠFile": 4146,
      "akh": 4147,
      "Ġmonster": 4148,
      "Ġconfirm": 4149,
      "Ġticket": 4150,
      "ki": 4151,
      "ona": 4152,
      "Ġmaj": 4153,
      "Ġfed": 4154,
      "ĠMust": 4155,
      "usion": 4156,
      "Ġserve": 4157,
      "Ġchecked": 4158,
      "ĠSimon": 4159,
      "Ġdial": 4160,
      "Ġitem": 4161,
      "...!": 4162,
      "onel": 4163,
      "Ġblame": 4164,
      "Ġbrothers": 4165,
      "Ġjudge": 4166,
      "eg": 4167,
      "hand": 4168,
      "Ġdumb": 4169,
      "ĠDrop": 4170,
      "Ġneither": 4171,
      "antic": 4172,
      "agement": 4173,
      "Ġunit": 4174,
      "Ġremote": 4175,
      "Ġbirds": 4176,
      "Ġspirit": 4177,
      "Ġaffect": 4178,
      "Ġdirty": 4179,
      "Ġloose": 4180,
      "asure": 4181,
      "inese": 4182,
      "Ġdrugs": 4183,
      "Ġrescue": 4184,
      "eez": 4185,
      "ĠKent": 4186,
      "ĠAlways": 4187,
      "Ġraised": 4188,
      "ĠSpec": 4189,
      "Ġdeliver": 4190,
      "ware": 4191,
      "zen": 4192,
      "ĠSol": 4193,
      "aled": 4194,
      "roe": 4195,
      "unny": 4196,
      "aren": 4197,
      "Ġspread": 4198,
      "Ġtrick": 4199,
      "Ġbridge": 4200,
      "order": 4201,
      "Ġdisplay": 4202,
      "Ġwarning": 4203,
      "Ġwondering": 4204,
      "Ġanimal": 4205,
      "Ġnur": 4206,
      "Ġlog": 4207,
      "ĠComp": 4208,
      "Ġfixed": 4209,
      "ED": 4210,
      "mark": 4211,
      "Ġcock": 4212,
      "ayud": 4213,
      "Ġaside": 4214,
      "Ġupstairs": 4215,
      "Ġcomfort": 4216,
      "ĠUntil": 4217,
      "Ġruns": 4218,
      "Ġteeth": 4219,
      "Ġobject": 4220,
      "Ġpriest": 4221,
      "cellent": 4222,
      "ĠÂ": 4223,
      "ĠIT": 4224,
      "veill": 4225,
      "arant": 4226,
      "Ġpregn": 4227,
      "Ġemploy": 4228,
      "ĠSpeak": 4229,
      "Ġhatch": 4230,
      "ĠGeorge": 4231,
      "Ġest": 4232,
      "ĠWake": 4233,
      "Ġinfect": 4234,
      "imate": 4235,
      "ĠOffic": 4236,
      "ummy": 4237,
      "izing": 4238,
      "Ġsettle": 4239,
      "ĠMinister": 4240,
      "Ġkitchen": 4241,
      "Ġfol": 4242,
      "ĠWall": 4243,
      "Ġnature": 4244,
      "ĠHope": 4245,
      "ĠNone": 4246,
      "ĠDec": 4247,
      "ection": 4248,
      "Ġbelow": 4249,
      "Ġfired": 4250,
      "reetings": 4251,
      "Ġpapa": 4252,
      "Ġpictures": 4253,
      "Ġavailable": 4254,
      "Ġridiculous": 4255,
      "date": 4256,
      "Ġocean": 4257,
      "Ġheld": 4258,
      "Ġrev": 4259,
      "ĠMonroe": 4260,
      "In": 4261,
      "Let": 4262,
      "vir": 4263,
      "Ġtail": 4264,
      "hary": 4265,
      "iday": 4266,
      "ĠLou": 4267,
      "ĠLock": 4268,
      "ika": 4269,
      "Ġclearly": 4270,
      "ĠIndian": 4271,
      "ounce": 4272,
      "Ġoriginal": 4273,
      "house": 4274,
      "ko": 4275,
      "Ġdies": 4276,
      "acle": 4277,
      "ada": 4278,
      "ĠPo": 4279,
      "Ġjustice": 4280,
      "Ġsuicide": 4281,
      "olly": 4282,
      "ruction": 4283,
      "Ġcharac": 4284,
      "Ġpapers": 4285,
      "Ġoperation": 4286,
      "ĠShoot": 4287,
      "ĠWor": 4288,
      "ĠNorth": 4289,
      "Ġtrap": 4290,
      "Ġgreatest": 4291,
      "ĠChinese": 4292,
      "gging": 4293,
      "Ġwalked": 4294,
      "Ġstrike": 4295,
      "ayudham": 4296,
      "VE": 4297,
      "boy": 4298,
      "za": 4299,
      "Ġtaste": 4300,
      "ĠAcc": 4301,
      "icted": 4302,
      "ocol": 4303,
      "gged": 4304,
      "Ġmatters": 4305,
      "Ġofficial": 4306,
      "Ġapologize": 4307,
      "Ġmer": 4308,
      "eng": 4309,
      "ĠWon": 4310,
      "Ġpet": 4311,
      "Ġhidden": 4312,
      "ĠSnow": 4313,
      "aked": 4314,
      "ĠBlue": 4315,
      "Ġobviously": 4316,
      "Ġgenius": 4317,
      "Ġarrested": 4318,
      "Ġcameras": 4319,
      "Ġbeer": 4320,
      "ulf": 4321,
      "Ġsees": 4322,
      "Ġprefer": 4323,
      "Ġmeters": 4324,
      "Ġwhom": 4325,
      "Ġchicken": 4326,
      "Ġseveral": 4327,
      "gal": 4328,
      "lies": 4329,
      "rit": 4330,
      "Ġnet": 4331,
      "ĠSeen": 4332,
      "Ġtrad": 4333,
      "Ġperhaps": 4334,
      "Ġturns": 4335,
      "otte": 4336,
      "Ġlights": 4337,
      "Ġsearching": 4338,
      "ĠPhil": 4339,
      "ĠWindow": 4340,
      "30": 4341,
      "50": 4342,
      "cus": 4343,
      "ĠGreen": 4344,
      "Ġunderstood": 4345,
      "Ġmadam": 4346,
      "Your": 4347,
      "ishes": 4348,
      "Ġcrying": 4349,
      "Ġfund": 4350,
      "ĠSearch": 4351,
      "ĠMind": 4352,
      "ĠName": 4353,
      "Ġstories": 4354,
      "ressed": 4355,
      "Ġbringing": 4356,
      "ĠThings": 4357,
      "BAR": 4358,
      "aa": 4359,
      "van": 4360,
      "zing": 4361,
      "Ġled": 4362,
      "Ġnonsense": 4363,
      "ĠLadies": 4364,
      "Ġassume": 4365,
      "Ġforest": 4366,
      "Ġdogs": 4367,
      "ITT": 4368,
      "ĠHugo": 4369,
      "born": 4370,
      "ga": 4371,
      "non": 4372,
      "Ġ)": 4373,
      "Ġmass": 4374,
      "iled": 4375,
      "Ġrat": 4376,
      "Ġnowhere": 4377,
      "Ġassign": 4378,
      "clear": 4379,
      "Ġsecrets": 4380,
      "ĠVelayudham": 4381,
      "bec": 4382,
      "Ġlicense": 4383,
      "ĠNight": 4384,
      "unior": 4385,
      "ĠStates": 4386,
      "Ġscient": 4387,
      "Ġwalls": 4388,
      "ĠBella": 4389,
      "Ġtrigger": 4390,
      "hem": 4391,
      "Ġnor": 4392,
      "ĠHome": 4393,
      "andu": 4394,
      "ĠKab": 4395,
      "ĠUnited": 4396,
      "Ġincred": 4397,
      "Ġpackage": 4398,
      "Ġdisappeared": 4399,
      "Ġbottle": 4400,
      "Ġreceived": 4401,
      "Ġvirus": 4402,
      "11": 4403,
      "ply": 4404,
      "rica": 4405,
      "Ġdanc": 4406,
      "Ġloud": 4407,
      "ara": 4408,
      "Ġstaring": 4409,
      "ĠRain": 4410,
      "ils": 4411,
      "Ġbiggest": 4412,
      "Ġrecently": 4413,
      "Ġchallen": 4414,
      "Ġsubject": 4415,
      "Ġsurvived": 4416,
      "Ġbattery": 4417,
      "Don": 4418,
      "col": 4419,
      "Ġmix": 4420,
      "ĠBesides": 4421,
      "Ġsched": 4422,
      "Ġadmit": 4423,
      "Ġdirectory": 4424,
      "Ġresponsibility": 4425,
      "Ġescaped": 4426,
      "Ġfreedom": 4427,
      "Ġide": 4428,
      "Ġcous": 4429,
      "Ġpage": 4430,
      "uman": 4431,
      "Ġterm": 4432,
      "Ġdrinking": 4433,
      "Ġextreme": 4434,
      "à·Ĭ": 4435,
      "Ġkingdom": 4436,
      "Ġbottom": 4437,
      "ĠRussian": 4438,
      "Ġbastard": 4439,
      "con": 4440,
      "pes": 4441,
      "Ġsna": 4442,
      "ena": 4443,
      "ĠSal": 4444,
      "icious": 4445,
      "Ġstock": 4446,
      "ĠPark": 4447,
      "unty": 4448,
      "using": 4449,
      "Ġamount": 4450,
      "Ġ'%": 4451,
      "ization": 4452,
      "Ġchem": 4453,
      "Ġstranger": 4454,
      "Ġgrandpa": 4455,
      "Ġexcited": 4456,
      "Ġeasily": 4457,
      "ĠAfrica": 4458,
      "Ġpilot": 4459,
      "ĠBad": 4460,
      "adin": 4461,
      "cel": 4462,
      "Ġherself": 4463,
      "esty": 4464,
      "Ġfamous": 4465,
      "Ġincident": 4466,
      "ĠQuick": 4467,
      "ĠAgain": 4468,
      "Ġvictims": 4469,
      "Ġjourney": 4470,
      "Ġnatural": 4471,
      "ĠPretty": 4472,
      "Ġaunt": 4473,
      "Ġpants": 4474,
      "ĠSand": 4475,
      "ĠMer": 4476,
      "rib": 4477,
      "ĠRoy": 4478,
      "ander": 4479,
      "Ġsomehow": 4480,
      "ector": 4481,
      "Ġscreen": 4482,
      "Ġtrapped": 4483,
      "Ġfamili": 4484,
      "Ġawesome": 4485,
      "Ġstudy": 4486,
      "urious": 4487,
      "This": 4488,
      "rass": 4489,
      "Ġdry": 4490,
      "Ġcart": 4491,
      "ĠWork": 4492,
      "ĠTra": 4493,
      "Ġprogress": 4494,
      "Ġhunting": 4495,
      "give": 4496,
      "Ġtall": 4497,
      "asons": 4498,
      "ĠDay": 4499,
      "ĠEuro": 4500,
      "Ġchurch": 4501,
      "ĠScott": 4502,
      "ĠMexic": 4503,
      "Ġpresident": 4504,
      "Ġdirectly": 4505,
      "Ġmilk": 4506,
      "ĠGreg": 4507,
      "mber": 4508,
      "ĠDNA": 4509,
      "iring": 4510,
      "ĠLi": 4511,
      "ĠLinc": 4512,
      "ppy": 4513,
      "Ġprec": 4514,
      "ĠGoodbye": 4515,
      "Ġsurveill": 4516,
      "ped": 4517,
      "wood": 4518,
      "Ġ*": 4519,
      "ĠCra": 4520,
      "ĠBra": 4521,
      "ĠNia": 4522,
      "Ġreve": 4523,
      "ĠGodd": 4524,
      "Ġappears": 4525,
      "ĠChief": 4526,
      "Ġshame": 4527,
      "Ġevac": 4528,
      "Ġpieces": 4529,
      "den": 4530,
      "Ġtank": 4531,
      "Ġcovered": 4532,
      "ĠTony": 4533,
      "ĠSister": 4534,
      "iform": 4535,
      "Ġpercent": 4536,
      "ĠJohnny": 4537,
      "Ġhumans": 4538,
      "licop": 4539,
      "Ġbeauty": 4540,
      "Ġlegs": 4541,
      "Ġthousands": 4542,
      "Ġsatell": 4543,
      "Ġsuddenly": 4544,
      "Ġpregnant": 4545,
      "mail": 4546,
      "ni": 4547,
      "uce": 4548,
      "itle": 4549,
      "Ġlines": 4550,
      "eted": 4551,
      "Ġho": 4552,
      "ĠHard": 4553,
      "ĠAp": 4554,
      "Ġeff": 4555,
      "Ġscience": 4556,
      "Ġshows": 4557,
      "Ġpaying": 4558,
      "Ġmemories": 4559,
      "Ġrecords": 4560,
      "barrass": 4561,
      "Ġeasier": 4562,
      "Ġlarge": 4563,
      "Ġapplication": 4564,
      "ux": 4565,
      "ĠDire": 4566,
      "ĠJai": 4567,
      "ources": 4568,
      "iger": 4569,
      "Ġremem": 4570,
      "ĠAladin": 4571,
      "ĠBlood": 4572,
      "Ġturning": 4573,
      "Ġmajor": 4574,
      "ĠSeenu": 4575,
      "Ġbow": 4576,
      "itiz": 4577,
      "ĠNick": 4578,
      "Ġnotice": 4579,
      "olis": 4580,
      "ples": 4581,
      "ava": 4582,
      "Ġcompan": 4583,
      "Ġchair": 4584,
      "Ġchamp": 4585,
      "ĠJuliet": 4586,
      "Ġver": 4587,
      "Ġop": 4588,
      "ĠSant": 4589,
      "ĠDear": 4590,
      "ĠLuthor": 4591,
      "Ġnearly": 4592,
      "Ġrub": 4593,
      "ĠComing": 4594,
      "Ġsoldier": 4595,
      "ĠDaniel": 4596,
      "rilliant": 4597,
      "lor": 4598,
      "Ġband": 4599,
      "ĠWil": 4600,
      "alley": 4601,
      "acks": 4602,
      "Ġshift": 4603,
      "Ġspy": 4604,
      "ĠState": 4605,
      "Ġmeaning": 4606,
      "Ġfinds": 4607,
      "Ġstayed": 4608,
      "Ġstrugg": 4609,
      "Ġdistance": 4610,
      "ĠWhite": 4611,
      "ervous": 4612,
      "Ġinclud": 4613,
      "ĠWhitney": 4614,
      "Ġfamiliar": 4615,
      "Ġcrow": 4616,
      "ication": 4617,
      "ality": 4618,
      "ĠGreetings": 4619,
      "Ġlover": 4620,
      "Ġscan": 4621,
      "ĠGrace": 4622,
      "Ġforgotten": 4623,
      "ĠControl": 4624,
      "ĠOtherwise": 4625,
      "Ġpocket": 4626,
      "ca": 4627,
      "iarty": 4628,
      "ĠSat": 4629,
      "imum": 4630,
      "ĠOld": 4631,
      "ĠIts": 4632,
      "Ġaband": 4633,
      "Ġpoints": 4634,
      "Ġprofile": 4635,
      "Ġfilled": 4636,
      "Ġfont": 4637,
      "Ġinit": 4638,
      "ĠRachel": 4639,
      "ĠFeel": 4640,
      "ĠKnow": 4641,
      "Ġclick": 4642,
      "Ġ500": 4643,
      "Ġ60": 4644,
      "Ġsimply": 4645,
      "ĠRobert": 4646,
      "Ġbelongs": 4647,
      "CH": 4648,
      "How": 4649,
      "That": 4650,
      "US": 4651,
      "ford": 4652,
      "iance": 4653,
      "mar": 4654,
      "ted": 4655,
      "Ġsle": 4656,
      "Ġhelicop": 4657,
      "Ġstaff": 4658,
      "ĠGar": 4659,
      "Ġdemand": 4660,
      "ĠStar": 4661,
      "Ġflowers": 4662,
      "Ġadm": 4663,
      "ĠTrans": 4664,
      "Ġdistur": 4665,
      "ĠTommy": 4666,
      "Ġvers": 4667,
      "Ġnervous": 4668,
      "ĠTur": 4669,
      "Ġhook": 4670,
      "ĠHad": 4671,
      "ĠMos": 4672,
      "Ġdont": 4673,
      "ctors": 4674,
      "Ġcompet": 4675,
      "ĠWilliam": 4676,
      "Ġkidnapped": 4677,
      "hh": 4678,
      "year": 4679,
      "hew": 4680,
      "ĠAc": 4681,
      "eech": 4682,
      "Ġ\"%": 4683,
      "Ġunits": 4684,
      "pens": 4685,
      "Ġembarrass": 4686,
      "Ġfarm": 4687,
      "Ġchain": 4688,
      "Ġrespond": 4689,
      "Ġcapable": 4690,
      "Ġprofession": 4691,
      "ĠMoriarty": 4692,
      "ĠDuke": 4693,
      "AY": 4694,
      "fit": 4695,
      "Ġtape": 4696,
      "Ġunt": 4697,
      "ĠRal": 4698,
      "ĠThought": 4699,
      "ĠKITT": 4700,
      "Ġenemies": 4701,
      "Ġsummer": 4702,
      "Ġstatus": 4703,
      "Ġsin": 4704,
      "Ġbust": 4705,
      "sters": 4706,
      "ĠRos": 4707,
      "ĠJer": 4708,
      "inda": 4709,
      "ĠUS": 4710,
      "Ġeffort": 4711,
      "ĠWater": 4712,
      "ĠHanna": 4713,
      "ĠCa": 4714,
      "ĠBat": 4715,
      "ilities": 4716,
      "umber": 4717,
      "ĠWhoever": 4718,
      "ĠIntern": 4719,
      "ips": 4720,
      "Ġshowing": 4721,
      "Ġcommit": 4722,
      "Ġbrings": 4723,
      "Ġbreathing": 4724,
      "vior": 4725,
      "Ġwheel": 4726,
      "Ġcases": 4727,
      "ĠCommander": 4728,
      "ĠCareful": 4729,
      "Ġcivil": 4730,
      "ĠOfficer": 4731,
      "Ġille": 4732,
      "Ġaud": 4733,
      "ĠSum": 4734,
      "ĠON": 4735,
      "Ġstab": 4736,
      "ĠGirl": 4737,
      "ĠPint": 4738,
      "Ġoutta": 4739,
      "tering": 4740,
      "ĠEnd": 4741,
      "ĠEither": 4742,
      "Ġunc": 4743,
      "Ġgrad": 4744,
      "Ġdesert": 4745,
      "Ġprotocol": 4746,
      "Ġtracking": 4747,
      "Ġdamage": 4748,
      "ĠBuild": 4749,
      "ĠZoe": 4750,
      "Ġcousin": 4751,
      "UT": 4752,
      "bur": 4753,
      "bel": 4754,
      "uf": 4755,
      "Ġoil": 4756,
      "ĠOff": 4757,
      "Ġprodu": 4758,
      "Ġseason": 4759,
      "ĠAnn": 4760,
      "Ġminister": 4761,
      "Ġflat": 4762,
      "Ġburied": 4763,
      "Ġattract": 4764,
      "Ġmillions": 4765,
      "ĠCharlotte": 4766,
      "ĠSeriously": 4767,
      "derer": 4768,
      "Ġmedicine": 4769,
      "fucker": 4770,
      "20": 4771,
      "Ġà¶": 4772,
      "ĠID": 4773,
      "athan": 4774,
      "Ġears": 4775,
      "ĠME": 4776,
      "ĠMand": 4777,
      "ĠMess": 4778,
      "bered": 4779,
      "Ġemotion": 4780,
      "iety": 4781,
      "Ġdirection": 4782,
      "ĠEurope": 4783,
      "Ġwave": 4784,
      "ĠIN": 4785,
      "Ġtool": 4786,
      "Ġstage": 4787,
      "Ġstyle": 4788,
      "Ġanger": 4789,
      "ĠRedding": 4790,
      "ilty": 4791,
      "Ġgrandfather": 4792,
      "iverse": 4793,
      "Ġsteps": 4794,
      "Ġhanging": 4795,
      "Ġconvince": 4796,
      "But": 4797,
      "RI": 4798,
      "put": 4799,
      "rant": 4800,
      "Ġmob": 4801,
      "Ġmile": 4802,
      "ĠBE": 4803,
      "Ġgrown": 4804,
      "Ġdeli": 4805,
      "Ġbarely": 4806,
      "ĠRalph": 4807,
      "mas": 4808,
      "Ġborrow": 4809,
      "Ġheaven": 4810,
      "ĠHy": 4811,
      "ĠDar": 4812,
      "amm": 4813,
      "ĠPaul": 4814,
      "ĠEast": 4815,
      "Ġwhoever": 4816,
      "Ġowner": 4817,
      "Ġpossibly": 4818,
      "Ġincre": 4819,
      "Ġwindows": 4820,
      "Ġwallet": 4821,
      "ĠBobby": 4822,
      "Ġintelligence": 4823,
      "hin": 4824,
      "la": 4825,
      "omm": 4826,
      "Ġthro": 4827,
      "ĠJosh": 4828,
      "ĠSheriff": 4829,
      "Ġtruly": 4830,
      "Ġuniform": 4831,
      "rows": 4832,
      "Ġcomplicated": 4833,
      "ĠProgram": 4834,
      "Ġcertainly": 4835,
      "Ġprepared": 4836,
      "10": 4837,
      "Ġwet": 4838,
      "ĠIS": 4839,
      "Ġcarefully": 4840,
      "Ġspecific": 4841,
      "ĠColonel": 4842,
      "Ġtrees": 4843,
      "ĠMetrop": 4844,
      "AM": 4845,
      "cut": 4846,
      "Ġsilly": 4847,
      "Ġfought": 4848,
      "ĠTre": 4849,
      "ĠMAN": 4850,
      "antage": 4851,
      "romise": 4852,
      "ĠStreet": 4853,
      "Ġchest": 4854,
      "Ġchose": 4855,
      "ĠGuy": 4856,
      "Ġblew": 4857,
      "Ġplugins": 4858,
      "Ġneighbor": 4859,
      "Ġnuclear": 4860,
      "Ġsurveillance": 4861,
      "ĠReddington": 4862,
      "OL": 4863,
      "iod": 4864,
      "haw": 4865,
      "Ġmic": 4866,
      "ĠWr": 4867,
      "ĠTri": 4868,
      "Ġinj": 4869,
      "ĠHim": 4870,
      "ida": 4871,
      "ĠFair": 4872,
      "ĠAndrew": 4873,
      "ĠDoc": 4874,
      "Ġsolve": 4875,
      "Ġoccur": 4876,
      "rifice": 4877,
      "Ġcredit": 4878,
      "All": 4879,
      "with": 4880,
      "Ġpig": 4881,
      "ĠLuck": 4882,
      "Ġknowledge": 4883,
      "ĠRock": 4884,
      "Ġhappiness": 4885,
      "Ġcares": 4886,
      "Ġdetective": 4887,
      "Ġexpected": 4888,
      "ĠMetropolis": 4889,
      "Ġdom": 4890,
      "Ġdump": 4891,
      "ĠSen": 4892,
      "ĠSel": 4893,
      "ĠSund": 4894,
      "Ġelder": 4895,
      "ĠBer": 4896,
      "Ġseemed": 4897,
      "Ġbutt": 4898,
      "ulate": 4899,
      "Ġshell": 4900,
      "Ġguards": 4901,
      "Ġtrade": 4902,
      "awn": 4903,
      "ĠClass": 4904,
      "ĠWhoo": 4905,
      "Ġtie": 4906,
      "Ġheat": 4907,
      "ĠHouse": 4908,
      "ĠCons": 4909,
      "ĠHel": 4910,
      "ĠRome": 4911,
      "ĠRyan": 4912,
      "raft": 4913,
      "ĠKal": 4914,
      "ĠVer": 4915,
      "ĠForgive": 4916,
      "Ġhandsome": 4917,
      "Ġconfused": 4918,
      "ĠFucking": 4919,
      "Ġclosing": 4920,
      "Ġinvestigation": 4921,
      "ties": 4922,
      "Ġfuel": 4923,
      "ĠShar": 4924,
      "Ġinvent": 4925,
      "Ġrepl": 4926,
      "Ġshout": 4927,
      "Ġspo": 4928,
      "Ġassoc": 4929,
      "Ġlots": 4930,
      "Ġsurround": 4931,
      "ĠReg": 4932,
      "Ġdrill": 4933,
      "ĠOliver": 4934,
      "Ġfolks": 4935,
      "Ġlap": 4936,
      "ĠAz": 4937,
      "imeter": 4938,
      "ĠMars": 4939,
      "ĠBoss": 4940,
      "Ġforced": 4941,
      "asty": 4942,
      "Ġblast": 4943,
      "ĠShre": 4944,
      "Ġnights": 4945,
      "Ġfucked": 4946,
      "ĠDeath": 4947,
      "Ġpassport": 4948,
      "Ġfully": 4949,
      "Ġproperly": 4950,
      "Ġdisappoint": 4951,
      "Ġlaughing": 4952,
      "Ġsacrifice": 4953,
      "Ġbucks": 4954,
      "uct": 4955,
      "Ġbright": 4956,
      "Ġgiant": 4957,
      "Ġlink": 4958,
      "Ġlakh": 4959,
      "ĠSil": 4960,
      "ĠAye": 4961,
      "ila": 4962,
      "Ġgoodbye": 4963,
      "ĠAlice": 4964,
      "Ġrare": 4965,
      "Ġended": 4966,
      "Ġcommitted": 4967,
      "Ġchief": 4968,
      "Ġdefense": 4969,
      "prints": 4970,
      "Ġpulling": 4971,
      "ĠChristmas": 4972,
      "Ġrocks": 4973,
      "Ġavoid": 4974,
      "Ġconcerned": 4975,
      "Ġdivor": 4976,
      "ĠSlow": 4977,
      "Ġ=": 4978,
      "Ġtalent": 4979,
      "Ġlat": 4980,
      "ĠMen": 4981,
      "rik": 4982,
      "lyn": 4983,
      "allow": 4984,
      "ĠPop": 4985,
      "elly": 4986,
      "Ġloyal": 4987,
      "udhe": 4988,
      "ĠForce": 4989,
      "ĠExcept": 4990,
      "Ġconvinc": 4991,
      "Ġexample": 4992,
      "IM": 4993,
      "kin": 4994,
      "Ġtear": 4995,
      "Ġmood": 4996,
      "Ġbal": 4997,
      "Ġport": 4998,
      "esp": 4999,
      "ental": 5000,
      "ĠThough": 5001,
      "Ġwatched": 5002,
      "Ġmoves": 5003,
      "ĠAlmost": 5004,
      "itional": 5005,
      "Ġdressed": 5006,
      "Ġruined": 5007,
      "ĠMajesty": 5008,
      "Ġdesigned": 5009,
      "Ġbleeding": 5010,
      "Ġhelicopter": 5011,
      "iya": 5012,
      "Ġwire": 5013,
      "Ġbike": 5014,
      "ita": 5015,
      "Ġfaces": 5016,
      "etch": 5017,
      "asion": 5018,
      "ĠCount": 5019,
      "ĠLife": 5020,
      "urance": 5021,
      "Ġlikely": 5022,
      "Ġexit": 5023,
      "ardon": 5024,
      "apt": 5025,
      "Ġtalks": 5026,
      "ĠAnnie": 5027,
      "ression": 5028,
      "Ġthoughts": 5029,
      "ĠSeven": 5030,
      "Ġrobot": 5031,
      "Ġballs": 5032,
      "Ġidentity": 5033,
      "Ġrepeat": 5034,
      "ĠWayne": 5035,
      "fortunately": 5036,
      "ĠTay": 5037,
      "ĠBa": 5038,
      "ĠJay": 5039,
      "Ġalert": 5040,
      "igare": 5041,
      "ĠBrand": 5042,
      "Ġpattern": 5043,
      "Ġmarks": 5044,
      "Ġlaunch": 5045,
      "ĠJacob": 5046,
      "igarett": 5047,
      "Why": 5048,
      "Yeah": 5049,
      "don": 5050,
      "vat": 5051,
      "Ġ,": 5052,
      "rend": 5053,
      "Ġbrief": 5054,
      "Ġhug": 5055,
      "ĠDem": 5056,
      "ĠGun": 5057,
      "Ġasleep": 5058,
      "ĠSoon": 5059,
      "Ġuniverse": 5060,
      "angers": 5061,
      "Ġactive": 5062,
      "umbai": 5063,
      "Ġcelebrate": 5064,
      "Ġwarrior": 5065,
      "ĠPintu": 5066,
      "ID": 5067,
      "IR": 5068,
      "rey": 5069,
      "Ġcake": 5070,
      "esh": 5071,
      "ston": 5072,
      "Ġrevenge": 5073,
      "raw": 5074,
      "Ġrush": 5075,
      "Ġbutter": 5076,
      "oln": 5077,
      "ipment": 5078,
      "Ġmurderer": 5079,
      "Ġdirector": 5080,
      "Ġsoldiers": 5081,
      "Ġcenter": 5082,
      "Ġerror": 5083,
      "Ġhigher": 5084,
      "ĠSusan": 5085,
      "ĠWhether": 5086,
      "itation": 5087,
      "Ġfem": 5088,
      "rible": 5089,
      "ĠNic": 5090,
      "illed": 5091,
      "alli": 5092,
      "ĠEat": 5093,
      "Ġexact": 5094,
      "ago": 5095,
      "ĠVik": 5096,
      "Ġcareer": 5097,
      "Ġuseless": 5098,
      "Ġrelative": 5099,
      "ĠHaven": 5100,
      "Ġplugin": 5101,
      "iest": 5102,
      "wards": 5103,
      "Ġrom": 5104,
      "Ġtim": 5105,
      "Ġsen": 5106,
      "Ġboo": 5107,
      "anny": 5108,
      "Ġpool": 5109,
      "Ġonline": 5110,
      "ĠDa": 5111,
      "ĠLor": 5112,
      "Ġrac": 5113,
      "Ġspeech": 5114,
      "Ġcarrying": 5115,
      "Ġrestaur": 5116,
      "Ġmessages": 5117,
      "Ġregret": 5118,
      "mbol": 5119,
      "ĠShannon": 5120,
      "12": 5121,
      "lim": 5122,
      "vies": 5123,
      "Ġwha": 5124,
      "Ġtheory": 5125,
      "Ġhitting": 5126,
      "uten": 5127,
      "Ġep": 5128,
      "irmed": 5129,
      "ĠJune": 5130,
      "Ġleads": 5131,
      "Ġdistract": 5132,
      "Ġreturned": 5133,
      "ĠDesktop": 5134,
      "Ġassistant": 5135,
      "Ġyellow": 5136,
      "rated": 5137,
      "reets": 5138,
      "Ġpill": 5139,
      "ĠHot": 5140,
      "ĠBro": 5141,
      "Ġrelease": 5142,
      "Ġplenty": 5143,
      "Ġvault": 5144,
      "onder": 5145,
      "Ġtraffic": 5146,
      "Ġcourage": 5147,
      "Ġdeck": 5148,
      "oyd": 5149,
      "Ġcomplain": 5150,
      "anya": 5151,
      "Ġmember": 5152,
      "Ġreports": 5153,
      "Ġfacility": 5154,
      "ĠDoug": 5155,
      "ĠSpecial": 5156,
      "ĠÂ¶": 5157,
      "cil": 5158,
      "Ġbite": 5159,
      "Ġcards": 5160,
      "Ġcitiz": 5161,
      "ĠYÃ¶": 5162,
      "ĠMed": 5163,
      "ĠGand": 5164,
      "ĠLos": 5165,
      "ĠKn": 5166,
      "Ġdisk": 5167,
      "Ġplanned": 5168,
      "Ġpolicy": 5169,
      "Ġmovies": 5170,
      "Ġwhis": 5171,
      "Ġexchan": 5172,
      "Ġzero": 5173,
      "ĠLucy": 5174,
      "ĠSmallville": 5175,
      "ĠTaylor": 5176,
      "who": 5177,
      "hest": 5178,
      "Ġban": 5179,
      "Ġcy": 5180,
      "acon": 5181,
      "ĠMumbai": 5182,
      "ĠBilly": 5183,
      "ĠGrab": 5184,
      "Ġanc": 5185,
      "hern": 5186,
      "ĠPete": 5187,
      "uru": 5188,
      "Ġdisp": 5189,
      "Ġappoint": 5190,
      "Ġgrade": 5191,
      "Ġwarn": 5192,
      "Ġtower": 5193,
      "Ġpassword": 5194,
      "aze": 5195,
      "Ġimpro": 5196,
      "ĠChange": 5197,
      "isco": 5198,
      "Ġiron": 5199,
      "Ġequipment": 5200,
      "Ġbillion": 5201,
      "xygen": 5202,
      "Ġsplit": 5203,
      "ras": 5204,
      "shi": 5205,
      "ĠChi": 5206,
      "aming": 5207,
      "ĠPet": 5208,
      "ĠFel": 5209,
      "ĠEdd": 5210,
      "essed": 5211,
      "abled": 5212,
      "aper": 5213,
      "Ġadop": 5214,
      "Ġopening": 5215,
      "Ġchecking": 5216,
      "Ġdeter": 5217,
      "ĠPrince": 5218,
      "ĠPreviously": 5219,
      "ĠChristian": 5220,
      "Ġconnected": 5221,
      "Ġtickets": 5222,
      "ĠVasu": 5223,
      "Come": 5224,
      "Ġcream": 5225,
      "Ġfant": 5226,
      "ĠEach": 5227,
      "Ġspell": 5228,
      "Ġ22": 5229,
      "Ġtrail": 5230,
      "Ġcoinc": 5231,
      "Ġpicking": 5232,
      "ĠQuiet": 5233,
      "Ġexpert": 5234,
      "ĠParis": 5235,
      "Ġmiracle": 5236,
      "ĠGerman": 5237,
      "ĠLincoln": 5238,
      "AD": 5239,
      "Ġtap": 5240,
      "Ġda": 5241,
      "eds": 5242,
      "Ġeast": 5243,
      "Ġliar": 5244,
      "ĠFort": 5245,
      "ĠFiles": 5246,
      "Ġrange": 5247,
      "Ġguilty": 5248,
      "quer": 5249,
      "Ġlets": 5250,
      "Ġwriting": 5251,
      "Ġparts": 5252,
      "Ġshower": 5253,
      "Ġfallen": 5254,
      "Ġcurse": 5255,
      "ĠMaya": 5256,
      "ĠTex": 5257,
      "Ġclimb": 5258,
      "ĠVictoria": 5259,
      "hetic": 5260,
      "Ġillegal": 5261,
      "Ġwest": 5262,
      "hab": 5263,
      "onment": 5264,
      "Ġcorn": 5265,
      "Ġlf": 5266,
      "ĠCatch": 5267,
      "Ġreasons": 5268,
      "Ġstreets": 5269,
      "ĠPort": 5270,
      "ĠRick": 5271,
      "chieve": 5272,
      "ĠJud": 5273,
      "olf": 5274,
      "agg": 5275,
      "Ġprint": 5276,
      "ĠAnge": 5277,
      "ordin": 5278,
      "Ġuseful": 5279,
      "Ġhurts": 5280,
      "Ġofficers": 5281,
      "Ġstopping": 5282,
      "Ġkicked": 5283,
      "ĠCaes": 5284,
      "LA": 5285,
      "iation": 5286,
      "Ġbrilliant": 5287,
      "ĠYet": 5288,
      "ĠBas": 5289,
      "Ġrent": 5290,
      "ilar": 5291,
      "hered": 5292,
      "Ġshel": 5293,
      "though": 5294,
      "Ġfunction": 5295,
      "Ġtests": 5296,
      "Ġtotal": 5297,
      "Ġpalace": 5298,
      "ĠHands": 5299,
      "ĠEddie": 5300,
      ".,": 5301,
      "PD": 5302,
      "af": 5303,
      "gie": 5304,
      "Ġbi": 5305,
      "ences": 5306,
      "Ġeh": 5307,
      "ĠCour": 5308,
      "Ġjoy": 5309,
      "ĠKnight": 5310,
      "emo": 5311,
      "Ġarmed": 5312,
      "Ġreality": 5313,
      "Ġattend": 5314,
      "ighs": 5315,
      "Ġentered": 5316,
      "Ġafford": 5317,
      "Ġintroduce": 5318,
      "Ġfulf": 5319,
      "ĠHob": 5320,
      "amil": 5321,
      "ĠVan": 5322,
      "Ġterms": 5323,
      "ĠGuard": 5324,
      "Ġtrained": 5325,
      "Ġhighly": 5326,
      "Ġmembers": 5327,
      "Ġsweetie": 5328,
      "Ġprior": 5329,
      "ification": 5330,
      "Ġexpecting": 5331,
      "Ġrobber": 5332,
      "ĠMadam": 5333,
      "ofield": 5334,
      "Ġparking": 5335,
      "Ġtechnology": 5336,
      "vironment": 5337,
      "Ġincredible": 5338,
      "Ġdick": 5339,
      "Ġnuts": 5340,
      "Ġbeating": 5341,
      "outs": 5342,
      "ĠGentle": 5343,
      "ĠFull": 5344,
      "ĠJon": 5345,
      "ĠKeen": 5346,
      "Ġagre": 5347,
      "ĠGoa": 5348,
      "Ġflash": 5349,
      "iple": 5350,
      "Ġdesk": 5351,
      "Ġentr": 5352,
      "ĠDead": 5353,
      "ĠApple": 5354,
      "Ġcabin": 5355,
      "ĠWorld": 5356,
      "Hey": 5357,
      "cast": 5358,
      "Ġmail": 5359,
      "ĠWhile": 5360,
      "ashing": 5361,
      "aches": 5362,
      "alse": 5363,
      "ĠMeen": 5364,
      "ĠMatt": 5365,
      "rier": 5366,
      "Ġwhenever": 5367,
      "Ġbye": 5368,
      "Ġdesper": 5369,
      "Ġthreaten": 5370,
      "Ġcharacter": 5371,
      "Ġthroat": 5372,
      "ev": 5373,
      "Ġtask": 5374,
      "Ġtiny": 5375,
      "Ġcigarett": 5376,
      "Ġpin": 5377,
      "Ġpers": 5378,
      "Ġthrew": 5379,
      "Ġyourselves": 5380,
      "ĠLoad": 5381,
      "udhary": 5382,
      "rene": 5383,
      "Ġassass": 5384,
      "Ġweekend": 5385,
      "Ġgeneral": 5386,
      "Ġpaint": 5387,
      "Ġfavour": 5388,
      "ĠFlash": 5389,
      "Ġautom": 5390,
      "ĠCentral": 5391,
      "Ġachieve": 5392,
      "Ġsomet": 5393,
      "ano": 5394,
      "ĠMir": 5395,
      "ĠBank": 5396,
      "Ġnoise": 5397,
      "ĠWhose": 5398,
      "Ġsurface": 5399,
      "ĠSeems": 5400,
      "Ġtemper": 5401,
      "ĠMajor": 5402,
      "Ġmentioned": 5403,
      "ĠBelieve": 5404,
      "ĠCaesar": 5405,
      "Ġoptions": 5406,
      "etic": 5407,
      "ĠSuch": 5408,
      "ĠHE": 5409,
      "ĠHail": 5410,
      "ĠCho": 5411,
      "ĠOF": 5412,
      "ĠLie": 5413,
      "hold": 5414,
      "ĠRose": 5415,
      "ĠFish": 5416,
      "ĠJas": 5417,
      "Ġsail": 5418,
      "Ġguarant": 5419,
      "ĠUs": 5420,
      "Ġcontroll": 5421,
      "Ġcrashed": 5422,
      "ĠDrink": 5423,
      "ĠArmy": 5424,
      "ĠChaudhary": 5425,
      "Ġordered": 5426,
      "Ġruin": 5427,
      "Ġgarage": 5428,
      "VER": 5429,
      "bug": 5430,
      "uate": 5431,
      "win": 5432,
      "erial": 5433,
      "ĠSH": 5434,
      "Ġdefe": 5435,
      "rences": 5436,
      "gery": 5437,
      "ĠProject": 5438,
      "oken": 5439,
      "Ġprisoner": 5440,
      "Ġadvantage": 5441,
      "Ġissues": 5442,
      "grees": 5443,
      "ĠLogan": 5444,
      "omeday": 5445,
      "Ġaccompl": 5446,
      "OS": 5447,
      "clock": 5448,
      "gly": 5449,
      "kins": 5450,
      "isions": 5451,
      "ĠWid": 5452,
      "ĠCool": 5453,
      "ĠNar": 5454,
      "ĠDun": 5455,
      "ĠEight": 5456,
      "ĠKitt": 5457,
      "Ġmanaged": 5458,
      "Ġagents": 5459,
      "Ġolder": 5460,
      "Ġaccording": 5461,
      "Ġfuneral": 5462,
      "Ġconsult": 5463,
      "Ġbags": 5464,
      "Ġformer": 5465,
      "ĠTeam": 5466,
      "Ġstronger": 5467,
      "ĠSergeant": 5468,
      "EM": 5469,
      "Ġtitle": 5470,
      "ĠImp": 5471,
      "Ġmult": 5472,
      "Ġgrew": 5473,
      "Ġlake": 5474,
      "Ġbeast": 5475,
      "ĠLy": 5476,
      "ĠPass": 5477,
      "uled": 5478,
      "aret": 5479,
      "Ġjobs": 5480,
      "Ġmoments": 5481,
      "Ġraft": 5482,
      "Ġentirely": 5483,
      "Ġpositive": 5484,
      "Ġselling": 5485,
      "ĠAmericans": 5486,
      "Ġcircum": 5487,
      "Ġdemon": 5488,
      "Ġparticular": 5489,
      "Ġremembered": 5490,
      "Ġcrowd": 5491,
      "utenant": 5492,
      "rink": 5493,
      "ĠTill": 5494,
      "Ġpee": 5495,
      "ĠCamp": 5496,
      "ĠDark": 5497,
      "ĠAndy": 5498,
      "Ġuser": 5499,
      "Ġrough": 5500,
      "ables": 5501,
      "ula": 5502,
      "Ġflood": 5503,
      "Ġpersonally": 5504,
      "Ġsurviv": 5505,
      "Ġlesson": 5506,
      "ĠRohan": 5507,
      "ĠApparently": 5508,
      "Ġcounter": 5509,
      "iated": 5510,
      "Ġtent": 5511,
      "Ġkil": 5512,
      "ĠNah": 5513,
      "Ġreleas": 5514,
      "ĠEaster": 5515,
      "Ġbackup": 5516,
      "Ġmanage": 5517,
      "anged": 5518,
      "Ġdeser": 5519,
      "Ġwarned": 5520,
      "Ġpretend": 5521,
      "Ġdelay": 5522,
      "Ġbehavior": 5523,
      "Ġnetwork": 5524,
      "Ġexchange": 5525,
      "mare": 5526,
      "mother": 5527,
      "ooth": 5528,
      "Ġbound": 5529,
      "Ġgarden": 5530,
      "orter": 5531,
      "ĠWin": 5532,
      "ĠTonight": 5533,
      "ĠSqu": 5534,
      "ĠAlp": 5535,
      "ĠMine": 5536,
      "ĠBus": 5537,
      "ĠBest": 5538,
      "uration": 5539,
      "ryan": 5540,
      "ushed": 5541,
      "Ġalarm": 5542,
      "ĠKey": 5543,
      "Ġblank": 5544,
      "ĠVinc": 5545,
      "Ġtrusted": 5546,
      "they": 5547,
      "iece": 5548,
      "Ġgrav": 5549,
      "Ġbury": 5550,
      "Ġstealing": 5551,
      "Ġelectric": 5552,
      "ĠMcC": 5553,
      "Ġscrewed": 5554,
      "Ġshadow": 5555,
      "Ġopin": 5556,
      "AL": 5557,
      "St": 5558,
      "rison": 5559,
      "Ġwid": 5560,
      "Ġsou": 5561,
      "Ġgear": 5562,
      "ĠTor": 5563,
      "ĠShi": 5564,
      "ĠBor": 5565,
      "ads": 5566,
      "ĠDeep": 5567,
      "ĠFriend": 5568,
      "arthik": 5569,
      "Ġdegrees": 5570,
      "ĠKrish": 5571,
      "Ġscar": 5572,
      "ĠInter": 5573,
      "Ġwaited": 5574,
      "Ġfamil": 5575,
      "Ġsigned": 5576,
      "Ġdetail": 5577,
      "ĠEliz": 5578,
      "addi": 5579,
      "ĠZoom": 5580,
      "ĠAnjali": 5581,
      "Ġphotograph": 5582,
      "ĠYÃ¶u": 5583,
      "isa": 5584,
      "Ġguts": 5585,
      "ĠMem": 5586,
      "Ġwash": 5587,
      "ĠJunior": 5588,
      "Ġshown": 5589,
      "abeth": 5590,
      "Ġshoulder": 5591,
      "Ġkills": 5592,
      "ĠVir": 5593,
      "ĠIsland": 5594,
      "Ġ23": 5595,
      "Ġassum": 5596,
      "Ġdrown": 5597,
      "Ġconfirmed": 5598,
      "Ġdrinks": 5599,
      "Ġremains": 5600,
      "Ġpunish": 5601,
      "Ġrestaurant": 5602,
      "bass": 5603,
      "case": 5604,
      "ef": 5605,
      "Ġtears": 5606,
      "Ġwine": 5607,
      "ache": 5608,
      "keys": 5609,
      "ĠMeet": 5610,
      "ĠNeed": 5611,
      "ops": 5612,
      "Ġrights": 5613,
      "Ġflo": 5614,
      "Ġserved": 5615,
      "ĠMarg": 5616,
      "They": 5617,
      "Ġstudent": 5618,
      "Ġfootage": 5619,
      "Ġdarkness": 5620,
      "ĠOthers": 5621,
      "ĠKabaddi": 5622,
      "Ġsatellite": 5623,
      "IL": 5624,
      "lan": 5625,
      "Ġesp": 5626,
      "has": 5627,
      "Ġju": 5628,
      "ĠFro": 5629,
      "Ġotherwise": 5630,
      "Ġdesktop": 5631,
      "Ġgrandma": 5632,
      "Ġsneak": 5633,
      "Ġtracks": 5634,
      "ĠSuri": 5635,
      "Ġpractice": 5636,
      "Ġcastle": 5637,
      "ĠYep": 5638,
      "Ġweather": 5639,
      "ĠNa": 5640,
      "Ġreward": 5641,
      "Ġstood": 5642,
      "usting": 5643,
      "ĠPenny": 5644,
      "ĠRey": 5645,
      "Ġprevent": 5646,
      "Ġflower": 5647,
      "aughty": 5648,
      "Ġkinda": 5649,
      "Ġmonkey": 5650,
      "Ġgods": 5651,
      "Ġeduc": 5652,
      "Ġprovide": 5653,
      "ĠBrian": 5654,
      "Ġdocument": 5655,
      "',": 5656,
      "RA": 5657,
      "She": 5658,
      "bie": 5659,
      "mate": 5660,
      "tr": 5661,
      "ua": 5662,
      "Ġwreck": 5663,
      "Ġborder": 5664,
      "Ġdoctors": 5665,
      "illa": 5666,
      "ĠGru": 5667,
      "Ġcand": 5668,
      "ĠFore": 5669,
      "ĠForm": 5670,
      "Ġproduct": 5671,
      "Ġvote": 5672,
      "Ġsmok": 5673,
      "ĠBeck": 5674,
      "Ġrecomm": 5675,
      "Ġsergeant": 5676,
      "Ġsooner": 5677,
      "Ġsyn": 5678,
      "Ġshots": 5679,
      "ĠGray": 5680,
      "ĠDesmond": 5681,
      "zzle": 5682,
      "Ġhealth": 5683,
      "Ġcomfortable": 5684,
      "gle": 5685,
      "rum": 5686,
      "ï¬": 5687,
      "Ġtag": 5688,
      "Ġtied": 5689,
      "Ġast": 5690,
      "inting": 5691,
      "Ġcree": 5692,
      "Ġgain": 5693,
      "Ġgather": 5694,
      "Ġoxygen": 5695,
      "atab": 5696,
      "ators": 5697,
      "sey": 5698,
      "ĠDave": 5699,
      "urt": 5700,
      "Ġrate": 5701,
      "aine": 5702,
      "ĠUnable": 5703,
      "thur": 5704,
      "Ġbecoming": 5705,
      "ĠInit": 5706,
      "spir": 5707,
      "Ġshake": 5708,
      "useum": 5709,
      "Ġtransport": 5710,
      "Ġtroub": 5711,
      "althy": 5712,
      "ĠRamona": 5713,
      "ĠSecond": 5714,
      "Ġcirc": 5715,
      "Ġurg": 5716,
      "ĠInstead": 5717,
      "Ġtorture": 5718,
      "Ġwasting": 5719,
      "Ġextremely": 5720,
      "ĠTexas": 5721,
      "Ġfamilies": 5722,
      "PS": 5723,
      "Ġtong": 5724,
      "Ġmouse": 5725,
      "athi": 5726,
      "ĠSn": 5727,
      "Ġmechan": 5728,
      "ĠCam": 5729,
      "ĠBud": 5730,
      "Ġstone": 5731,
      "ifty": 5732,
      "Ġunique": 5733,
      "onscious": 5734,
      "ĠAnybody": 5735,
      "ancho": 5736,
      "Ġdefend": 5737,
      "Ġinterrupt": 5738,
      "ĠCheers": 5739,
      "ĠNeither": 5740,
      "Ġordinary": 5741,
      "ĠSystem": 5742,
      "Ġmotor": 5743,
      "Ġdancing": 5744,
      "Ġcircumst": 5745,
      "Ġpir": 5746,
      "ĠST": 5747,
      "ĠCob": 5748,
      "ĠLing": 5749,
      "Ġjam": 5750,
      "unction": 5751,
      "ĠEgg": 5752,
      "Ġens": 5753,
      "Ġprecious": 5754,
      "mmy": 5755,
      "iva": 5756,
      "ĠChoose": 5757,
      "Ġhardly": 5758,
      "ikant": 5759,
      "ĠScofield": 5760,
      "Ġobs": 5761,
      "Ġcoward": 5762,
      "ĠCurrent": 5763,
      "Ġ==": 5764,
      "Ġaim": 5765,
      "ĠTem": 5766,
      "oms": 5767,
      "aries": 5768,
      "ĠBull": 5769,
      "amin": 5770,
      "ĠAmanda": 5771,
      "Ġobvious": 5772,
      "ĠFranc": 5773,
      "Ġpurs": 5774,
      "ĠRaju": 5775,
      "ĠBoone": 5776,
      "Ġelev": 5777,
      "ĠDrive": 5778,
      "pensive": 5779,
      "ĠGentlemen": 5780,
      "craft": 5781,
      "Ġliter": 5782,
      "ato": 5783,
      "ooja": 5784,
      "Ġstom": 5785,
      "Ġstret": 5786,
      "ĠLab": 5787,
      "Ġcancer": 5788,
      "Ġjew": 5789,
      "geon": 5790,
      "ĠKar": 5791,
      "Ġsupply": 5792,
      "Ġmonitor": 5793,
      "Ġmetal": 5794,
      "Ġfriendship": 5795,
      "Ġforeign": 5796,
      "ĠTHAT": 5797,
      "Ġbullets": 5798,
      "Ġexecut": 5799,
      "Ġambul": 5800,
      "ĠAustral": 5801,
      "Ġcoincidence": 5802,
      "gs": 5803,
      "rick": 5804,
      "Ġsection": 5805,
      "Ġbones": 5806,
      "itches": 5807,
      "ĠAri": 5808,
      "ĠCH": 5809,
      "adem": 5810,
      "amma": 5811,
      "ĠFall": 5812,
      "ĠErik": 5813,
      "Ġalien": 5814,
      "oved": 5815,
      "Ġwherever": 5816,
      "ĠAngel": 5817,
      "Ġbelt": 5818,
      "Ġarch": 5819,
      "Ġnightmare": 5820,
      "sidered": 5821,
      "Ġcrown": 5822,
      "Ġharder": 5823,
      "Ġslave": 5824,
      "ĠExcellent": 5825,
      "Ġchosen": 5826,
      "ĠEngland": 5827,
      "Ġburned": 5828,
      "Ġpropos": 5829,
      "Ġbased": 5830,
      "Ġcrores": 5831,
      "Ġnurse": 5832,
      "met": 5833,
      "your": 5834,
      "Ġdome": 5835,
      "Ġpair": 5836,
      "ĠChen": 5837,
      "rific": 5838,
      "ĠBang": 5839,
      "ĠPush": 5840,
      "Ġorphan": 5841,
      "Ġscore": 5842,
      "Ġbecomes": 5843,
      "Ġmotherfucker": 5844,
      "ĠLevel": 5845,
      "Ġvision": 5846,
      "Ġbegan": 5847,
      "ERE": 5848,
      "ĠSteven": 5849,
      "Ġsolution": 5850,
      "ĠAarush": 5851,
      "Ġdevil": 5852,
      "Ġconcern": 5853,
      "Ġresults": 5854,
      "Ġconvinced": 5855,
      "iots": 5856,
      "ĠTot": 5857,
      "arily": 5858,
      "ĠSign": 5859,
      "ĠMat": 5860,
      "ĠMus": 5861,
      "ĠLaw": 5862,
      "Ġlibr": 5863,
      "Ġrot": 5864,
      "Ġloser": 5865,
      "ĠJustin": 5866,
      "Ġuns": 5867,
      "Ġunknown": 5868,
      "Ġfuckin": 5869,
      "Ġphones": 5870,
      "aju": 5871,
      "Ġjoined": 5872,
      "Ġbombs": 5873,
      "Ġmodel": 5874,
      "Ġartist": 5875,
      "Ġcurrently": 5876,
      "ĠUnderstand": 5877,
      "ĠTeddy": 5878,
      "ĠVishal": 5879,
      "ube": 5880,
      "Ġnation": 5881,
      "ĠNina": 5882,
      "Ġlips": 5883,
      "ĠRiz": 5884,
      "Ġabs": 5885,
      "ĠJap": 5886,
      "Ġrise": 5887,
      "icked": 5888,
      "Ġvamp": 5889,
      "Ġprince": 5890,
      "Ġchannel": 5891,
      "Ġsurely": 5892,
      "Ġpassing": 5893,
      "Ġbedroom": 5894,
      "Ġrepres": 5895,
      "Ġperfectly": 5896,
      "ĠSingham": 5897,
      "ĠJaikant": 5898,
      "Ġopinion": 5899,
      "ĠMargaret": 5900,
      "CE": 5901,
      "IGH": 5902,
      "jo": 5903,
      "ym": 5904,
      "inals": 5905,
      "Ġwoke": 5906,
      "ĠIrene": 5907,
      "Ġcooper": 5908,
      "orge": 5909,
      "othy": 5910,
      "icon": 5911,
      "acher": 5912,
      "ĠGal": 5913,
      "ĠRet": 5914,
      "ĠEsp": 5915,
      "Ġmaterial": 5916,
      "Ġ300": 5917,
      "Ġchip": 5918,
      "Ġ42": 5919,
      "Ġbroad": 5920,
      "Ġtouched": 5921,
      "Ġprotection": 5922,
      "Ġinvited": 5923,
      "Ġlegal": 5924,
      "Ġhundreds": 5925,
      "Ġprepare": 5926,
      "Ġearn": 5927,
      "Ġsharp": 5928,
      "Ġdialog": 5929,
      "ĠLouis": 5930,
      "ĠBloody": 5931,
      "Ġrobbery": 5932,
      "ship": 5933,
      "Ġwishes": 5934,
      "anish": 5935,
      "Ġgroom": 5936,
      "arrow": 5937,
      "Ġhomes": 5938,
      "ĠChic": 5939,
      "ĠBase": 5940,
      "ĠDest": 5941,
      "ura": 5942,
      "ilet": 5943,
      "agn": 5944,
      "Ġunp": 5945,
      "Ġstops": 5946,
      "Ġcrimes": 5947,
      "Ġgreater": 5948,
      "Ġdesp": 5949,
      "formation": 5950,
      "Ġchopper": 5951,
      "ĠLeft": 5952,
      "ĠEnjoy": 5953,
      "aturday": 5954,
      "ealous": 5955,
      "There": 5956,
      "there": 5957,
      "Ġoffered": 5958,
      "ĠAin": 5959,
      "ĠGuru": 5960,
      "ĠLar": 5961,
      "Ġrum": 5962,
      "Ġscr": 5963,
      "Ġarr": 5964,
      "Ġ21": 5965,
      "Ġgrid": 5966,
      "ĠPlan": 5967,
      "ĠText": 5968,
      "holog": 5969,
      "ylan": 5970,
      "ĠJanet": 5971,
      "ĠElizabeth": 5972,
      "ls": 5973,
      "Ġfishing": 5974,
      "Ġfolder": 5975,
      "Ġfalse": 5976,
      "ĠWonder": 5977,
      "Ġpunch": 5978,
      "oted": 5979,
      "lev": 5980,
      "ĠNard": 5981,
      "ĠDylan": 5982,
      "Ġstairs": 5983,
      "ĠRan": 5984,
      "ĠRoman": 5985,
      "Ġalt": 5986,
      "Ġscary": 5987,
      "Ġleading": 5988,
      "Ġmedal": 5989,
      "Ġinsist": 5990,
      "Ġyounger": 5991,
      "ĠCouldn": 5992,
      "Ġburning": 5993,
      "Ġfairy": 5994,
      "Ġguests": 5995,
      "ĠLauda": 5996,
      "Ġbabies": 5997,
      "Ġlakhs": 5998,
      "loyd": 5999,
      "nam": 6000,
      "rict": 6001,
      "Ġsession": 6002,
      "Ġbone": 6003,
      "ora": 6004,
      "Ġmeal": 6005,
      "ales": 6006,
      "oops": 6007,
      "Ġmyst": 6008,
      "rypt": 6009,
      "Ġrup": 6010,
      "uses": 6011,
      "Ġconc": 6012,
      "Ġconsidered": 6013,
      "Ġvirt": 6014,
      "Ġsweat": 6015,
      "Ġdecl": 6016,
      "Ġspecies": 6017,
      "Ġinstinct": 6018,
      "Ġintern": 6019,
      "Ġengaged": 6020,
      "Ġhorrible": 6021,
      "Ġmisunder": 6022,
      "OME": 6023,
      "Ġcustody": 6024,
      "Ġimpressed": 6025,
      "ĠFinally": 6026,
      "Ġseparate": 6027,
      "Ġexplosion": 6028,
      "Ġincluding": 6029,
      "Ġabandoned": 6030,
      "Ġcompetition": 6031,
      "hav": 6032,
      "Ġmum": 6033,
      "ingham": 6034,
      "Ġut": 6035,
      "Ġugly": 6036,
      "ĠBook": 6037,
      "ĠBreak": 6038,
      "Ġjealous": 6039,
      "Ġability": 6040,
      "ĠEric": 6041,
      "ateful": 6042,
      "ĠKap": 6043,
      "Ġpartners": 6044,
      "Ġactions": 6045,
      "Ġcomplex": 6046,
      "anced": 6047,
      "Ġsigns": 6048,
      "ĠArthur": 6049,
      "Ġmedia": 6050,
      "Ġphotos": 6051,
      "Ġmachines": 6052,
      "Ġengineer": 6053,
      "Ġmurders": 6054,
      "ĠInstall": 6055,
      "Ġprofessional": 6056,
      "Ġambulance": 6057,
      "dney": 6058,
      "gree": 6059,
      "mo": 6060,
      "ping": 6061,
      "uild": 6062,
      "ĠWood": 6063,
      "Ġdozen": 6064,
      "urs": 6065,
      "Ġrow": 6066,
      "Ġexpensive": 6067,
      "orted": 6068,
      "Ġtrace": 6069,
      "Ġbrand": 6070,
      "Ġchanging": 6071,
      "Ġassure": 6072,
      "ĠReal": 6073,
      "Ġcoordin": 6074,
      "arsing": 6075,
      "Ġcorrupt": 6076,
      "ĠPrime": 6077,
      "Ġawake": 6078,
      "box": 6079,
      "Ġgrowing": 6080,
      "Ġfingers": 6081,
      "ĠCassie": 6082,
      "ĠMexico": 6083,
      "ez": 6084,
      "oom": 6085,
      "uable": 6086,
      "Ġ{": 6087,
      "Ġmort": 6088,
      "Ġfro": 6089,
      "Ġpit": 6090,
      "Ġhabit": 6091,
      "Ġkitt": 6092,
      "antly": 6093,
      "ĠRud": 6094,
      "Ġbackground": 6095,
      "Ġflag": 6096,
      "ĠRead": 6097,
      "Ġcoast": 6098,
      "Ġmole": 6099,
      "Ġjoking": 6100,
      "phone": 6101,
      "Ġengagement": 6102,
      "ĠRoom": 6103,
      "Ġsmells": 6104,
      "Ġidentify": 6105,
      "ĠAccording": 6106,
      "colate": 6107,
      "Ġdelivery": 6108,
      "Ġtongue": 6109,
      "pass": 6110,
      "Ġcage": 6111,
      "Ġnaughty": 6112,
      "Ġpub": 6113,
      "athy": 6114,
      "ĠHind": 6115,
      "ĠMach": 6116,
      "ĠLA": 6117,
      "Ġangel": 6118,
      "ĠJones": 6119,
      "Ġloan": 6120,
      "Ġseek": 6121,
      "osit": 6122,
      "Ġsheriff": 6123,
      "ĠLooking": 6124,
      "Ġcoat": 6125,
      "otted": 6126,
      "Ġtrial": 6127,
      "Ġpresence": 6128,
      "ĠPrep": 6129,
      "à¶±": 6130,
      "Ġfootball": 6131,
      "Ġremoved": 6132,
      "Ġloaded": 6133,
      "Ġcaused": 6134,
      "ĠAzhar": 6135,
      "gum": 6136,
      "Ġ****": 6137,
      "Ġlone": 6138,
      "Ġlower": 6139,
      "arian": 6140,
      "imus": 6141,
      "eau": 6142,
      "rah": 6143,
      "Ġshy": 6144,
      "istan": 6145,
      "ctory": 6146,
      "Ġletters": 6147,
      "istence": 6148,
      "Ġsons": 6149,
      "ĠAlso": 6150,
      "ivid": 6151,
      "Ġdecisions": 6152,
      "Ġhurting": 6153,
      "Ġregular": 6154,
      "ĠSanjay": 6155,
      "ĠNiki": 6156,
      "ĠJasmine": 6157,
      "atabase": 6158,
      "ĠJapan": 6159,
      "Ġet": 6160,
      "Ġbri": 6161,
      "Ġfe": 6162,
      "Ġlack": 6163,
      "ĠTal": 6164,
      "Ġheight": 6165,
      "stit": 6166,
      "imin": 6167,
      "ĠNope": 6168,
      "ĠLand": 6169,
      "ĠRom": 6170,
      "rain": 6171,
      "abad": 6172,
      "Ġspoken": 6173,
      "ission": 6174,
      "standing": 6175,
      "Ġdesire": 6176,
      "Ġchasing": 6177,
      "venture": 6178,
      "Ġfalls": 6179,
      "Ġdetect": 6180,
      "Ġsystems": 6181,
      "Ġgrave": 6182,
      "Ġtwist": 6183,
      "Ġcells": 6184,
      "Ġpotential": 6185,
      "ĠTwenty": 6186,
      "ĠObviously": 6187,
      "Ġchemical": 6188,
      "Ġagreement": 6189,
      ").": 6190,
      "bl": 6191,
      "bage": 6192,
      "ipping": 6193,
      "Ġtip": 6194,
      "render": 6195,
      "isible": 6196,
      "Ġcurious": 6197,
      "Ġnandu": 6198,
      "uta": 6199,
      "utter": 6200,
      "acc": 6201,
      "ĠLloyd": 6202,
      "Ġliqu": 6203,
      "ĠFound": 6204,
      "Ġshed": 6205,
      "Ġhowever": 6206,
      "Ġbride": 6207,
      "ĠView": 6208,
      "plete": 6209,
      "Ġrole": 6210,
      "ĠGoing": 6211,
      "Ġbadly": 6212,
      "Ġsurgery": 6213,
      "Ġdecent": 6214,
      "ĠMarudhe": 6215,
      "Ġwinter": 6216,
      "Ġsinging": 6217,
      "Ġmodule": 6218,
      "Ġstatement": 6219,
      "ĠSydney": 6220,
      "ĠEllis": 6221,
      "ĠGoddamn": 6222,
      "ĠChicago": 6223,
      "ĠMarudheera": 6224,
      "jana": 6225,
      "vable": 6226,
      "Ġsed": 6227,
      "Ġdust": 6228,
      "ann": 6229,
      "omen": 6230,
      "ĠShank": 6231,
      "ĠHall": 6232,
      "ĠMond": 6233,
      "ĠMoney": 6234,
      "ĠCode": 6235,
      "ĠCarly": 6236,
      "ĠDiv": 6237,
      "amy": 6238,
      "ĠLost": 6239,
      "andom": 6240,
      "Ġusual": 6241,
      "Ġproced": 6242,
      "agers": 6243,
      "Ġboot": 6244,
      "Ġguessing": 6245,
      "Ġarrive": 6246,
      "Ġsuffer": 6247,
      "Ġversion": 6248,
      "ĠChild": 6249,
      "Thank": 6250,
      "fl": 6251,
      "Ġought": 6252,
      "onquer": 6253,
      "Ġdise": 6254,
      "ĠSaturday": 6255,
      "ĠCover": 6256,
      "ĠNemo": 6257,
      "Ġplat": 6258,
      "ureau": 6259,
      "agle": 6260,
      "ĠVard": 6261,
      "Ġchances": 6262,
      "iley": 6263,
      "Ġbelieves": 6264,
      "Ġcrit": 6265,
      "Ġcleared": 6266,
      "Ġframe": 6267,
      "Ġfruit": 6268,
      "ĠSwitch": 6269,
      "Ġcleaning": 6270,
      "Ġ90": 6271,
      "ĠGrandma": 6272,
      "Ġsoftware": 6273,
      "ĠModule": 6274,
      "iversity": 6275,
      "Ġentrance": 6276,
      "Ġstomach": 6277,
      "hil": 6278,
      "name": 6279,
      "town": 6280,
      "rell": 6281,
      "Ġmax": 6282,
      "Ġcoc": 6283,
      "Ġlamp": 6284,
      "ĠAunt": 6285,
      "ĠMu": 6286,
      "ĠJose": 6287,
      "Ġperimeter": 6288,
      "Ġattitude": 6289,
      "Ġrecru": 6290,
      "ĠBeing": 6291,
      "Ġentry": 6292,
      "Ġdealing": 6293,
      "Ġrelig": 6294,
      "Ġinstruct": 6295,
      "Ġideas": 6296,
      "Ġshelter": 6297,
      "ĠEspecially": 6298,
      "vision": 6299,
      "Ġtiger": 6300,
      "Ġbid": 6301,
      "hatt": 6302,
      "Ġweb": 6303,
      "iments": 6304,
      "ĠDick": 6305,
      "ĠPay": 6306,
      "Ġate": 6307,
      "Ġplate": 6308,
      "Ġrope": 6309,
      "Ġgrant": 6310,
      "ĠChitt": 6311,
      "Ġdece": 6312,
      "Ġpolic": 6313,
      "ĠChang": 6314,
      "Ġfortune": 6315,
      "Ġmountains": 6316,
      "Ġmixed": 6317,
      "ĠMessage": 6318,
      "Ġreleased": 6319,
      "Ġcircumstances": 6320,
      "apped": 6321,
      "dog": 6322,
      "Ġmale": 6323,
      "ste": 6324,
      "ĠAjay": 6325,
      "ĠNine": 6326,
      "ĠNort": 6327,
      "Ġreject": 6328,
      "ĠOptions": 6329,
      "Ġstress": 6330,
      "Ġjunk": 6331,
      "istic": 6332,
      "Ġdelic": 6333,
      "ĠHoward": 6334,
      "ĠWells": 6335,
      "Ġenvironment": 6336,
      "Ġqual": 6337,
      "Ġroyal": 6338,
      "Ġrab": 6339,
      "ĠPrincess": 6340,
      "Ġinsurance": 6341,
      "Ġcreature": 6342,
      "Ġslowly": 6343,
      "Ġlimit": 6344,
      "ĠDorothy": 6345,
      "Ġchallenge": 6346,
      "Ġfemale": 6347,
      "rid": 6348,
      "Ġsink": 6349,
      "Ġboring": 6350,
      "Ġfright": 6351,
      "ĠSP": 6352,
      "ĠAryan": 6353,
      "sequ": 6354,
      "ĠCas": 6355,
      "ĠNO": 6356,
      "ĠDen": 6357,
      "ĠLane": 6358,
      "ĠFace": 6359,
      "ĠEmm": 6360,
      "Ġshield": 6361,
      "iguration": 6362,
      "Ġconcent": 6363,
      "Ġspin": 6364,
      "ĠGetting": 6365,
      "ĠBrun": 6366,
      "ĠBruce": 6367,
      "ĠUnfortunately": 6368,
      "Ġcharges": 6369,
      "ĠFriday": 6370,
      "Ġawful": 6371,
      "Ġdrove": 6372,
      "Ġthreatened": 6373,
      "Ġcentury": 6374,
      "Ġtreasure": 6375,
      "ĠBablu": 6376,
      "coming": 6377,
      "alentine": 6378,
      "Ġdragon": 6379,
      "Ġnegot": 6380,
      "Ġeggs": 6381,
      "kar": 6382,
      "vere": 6383,
      "ĠMight": 6384,
      "Ġdoc": 6385,
      "ĠBon": 6386,
      "ĠPart": 6387,
      "ĠPoor": 6388,
      "ĠPromise": 6389,
      "ĠJed": 6390,
      "ĠKarl": 6391,
      "ctic": 6392,
      "Ġproceed": 6393,
      "agger": 6394,
      "Ġunderground": 6395,
      "ĠInspector": 6396,
      "Ġimages": 6397,
      "Ġswing": 6398,
      "Ġbuying": 6399,
      "iana": 6400,
      "Ġshape": 6401,
      "Ġmonsters": 6402,
      "ashion": 6403,
      "Ġconfident": 6404,
      "Ġcorpor": 6405,
      "Ġbrains": 6406,
      "Ġsnake": 6407,
      "ĠEnter": 6408,
      "Ġregist": 6409,
      "Ġ199": 6410,
      "Ġapproach": 6411,
      "force": 6412,
      "Ġcriminals": 6413,
      "ĠMurph": 6414,
      "Ġviolence": 6415,
      "Ġhyp": 6416,
      "ĠAnjuta": 6417,
      "Ġsettings": 6418,
      "ĠLucky": 6419,
      "ĠHelen": 6420,
      "Ġespecially": 6421,
      "ĠMonday": 6422,
      "\",": 6423,
      "hm": 6424,
      "overy": 6425,
      "Ġbunk": 6426,
      "Ġlam": 6427,
      "Ġnational": 6428,
      "Ġpink": 6429,
      "ĠSch": 6430,
      "ĠSeth": 6431,
      "ĠMany": 6432,
      "Ġdoin": 6433,
      "ĠBern": 6434,
      "Ġgoin": 6435,
      "ĠLo": 6436,
      "ĠPan": 6437,
      "ĠPooja": 6438,
      "icket": 6439,
      "Ġtrunk": 6440,
      "Ġunderw": 6441,
      "Ġwaters": 6442,
      "Ġflow": 6443,
      "Ġminds": 6444,
      "Ġchildhood": 6445,
      "Ġhits": 6446,
      "ĠComm": 6447,
      "Ġtransl": 6448,
      "Ġlands": 6449,
      "Ġfactory": 6450,
      "Ġfailure": 6451,
      "Ġedge": 6452,
      "Ġsilent": 6453,
      "Ġjacket": 6454,
      "ĠStephen": 6455,
      "ĠJean": 6456,
      "Ġsociety": 6457,
      "Ġpanic": 6458,
      "Ġdescription": 6459,
      "ĠSunday": 6460,
      "Ġappointment": 6461,
      "Ġmystery": 6462,
      "Ġwand": 6463,
      "Ġcult": 6464,
      "Ġlaid": 6465,
      "Ġnaked": 6466,
      "Ġpure": 6467,
      "Ġthirst": 6468,
      "Ġmeat": 6469,
      "ĠBomb": 6470,
      "ĠLib": 6471,
      "Ġcandy": 6472,
      "hington": 6473,
      "ĠRiver": 6474,
      "hant": 6475,
      "Ġrit": 6476,
      "Ġ\"..": 6477,
      "Ġtricks": 6478,
      "Ġquarter": 6479,
      "ĠAmy": 6480,
      "Ġresources": 6481,
      "Ġcounting": 6482,
      "Ġdiscovered": 6483,
      "Ġindeed": 6484,
      "Ġvaluable": 6485,
      "Ġtreated": 6486,
      "Ġconditions": 6487,
      "Ġlevels": 6488,
      "ĠImag": 6489,
      "Ġviolent": 6490,
      "Ġperformance": 6491,
      "Ġcalc": 6492,
      "Ġfederal": 6493,
      "Ġguarantee": 6494,
      "Ġsurvivors": 6495,
      "ĠChitti": 6496,
      "Man": 6497,
      "inic": 6498,
      "Ġsomeday": 6499,
      "Ġmode": 6500,
      "Ġdawn": 6501,
      "Ġtoilet": 6502,
      "Ġhous": 6503,
      "aya": 6504,
      "idering": 6505,
      "ĠNarsing": 6506,
      "ĠExt": 6507,
      "Ġconference": 6508,
      "elia": 6509,
      "ague": 6510,
      "Ġunf": 6511,
      "iped": 6512,
      "ĠBeat": 6513,
      "Ġcollea": 6514,
      "Ġclassified": 6515,
      "Ġcircle": 6516,
      "Ġdigging": 6517,
      "Ġpsycho": 6518,
      "Ġsuffering": 6519,
      "Ġphysical": 6520,
      "Ġitems": 6521,
      "ĠDirector": 6522,
      "Ġdesperate": 6523,
      "Ġlibrary": 6524,
      "onqueror": 6525,
      "fire": 6526,
      "Ġcore": 6527,
      "ĠTab": 6528,
      "Ġpy": 6529,
      "Ġpounds": 6530,
      "Ġhob": 6531,
      "ĠNY": 6532,
      "ĠLake": 6533,
      "ĠPalm": 6534,
      "ifer": 6535,
      "Ġsugar": 6536,
      "ĠThrow": 6537,
      "ability": 6538,
      "Ġintend": 6539,
      "bey": 6540,
      "ĠAnsw": 6541,
      "Ġbeloved": 6542,
      "Ġflu": 6543,
      "Ġperiod": 6544,
      "Ġwarrant": 6545,
      "ĠUnknown": 6546,
      "Ġretire": 6547,
      "Ġdefault": 6548,
      "Ġprotecting": 6549,
      "à·ı": 6550,
      "ĠWashington": 6551,
      "Ġtreatment": 6552,
      "ĠShouldn": 6553,
      "Ġjumped": 6554,
      "Ġpatients": 6555,
      "Ġannounce": 6556,
      "ĠAngeles": 6557,
      "Ġelevator": 6558,
      "break": 6559,
      "ext": 6560,
      "jack": 6561,
      "ww": 6562,
      "Ġwings": 6563,
      "Ġder": 6564,
      "Ġfirm": 6565,
      "Ġhtt": 6566,
      "ĠHalf": 6567,
      "Ġbegging": 6568,
      "Ġunable": 6569,
      "sec": 6570,
      "ĠBil": 6571,
      "ĠDrag": 6572,
      "Ġforces": 6573,
      "ĠLisa": 6574,
      "Ġnotes": 6575,
      "ĠFitz": 6576,
      "elle": 6577,
      "usual": 6578,
      "ĠKid": 6579,
      "Ġguide": 6580,
      "ĠHowever": 6581,
      "aging": 6582,
      "Ġcheek": 6583,
      "ĠChina": 6584,
      "Ġmethod": 6585,
      "iko": 6586,
      "ĠShashi": 6587,
      "ĠMean": 6588,
      "ĠMarcus": 6589,
      "ĠProt": 6590,
      "Ġfreaking": 6591,
      "Ġactivated": 6592,
      "Ġgarbage": 6593,
      "ynam": 6594,
      "Ġdocuments": 6595,
      "Ġschedule": 6596,
      "ĠLieutenant": 6597,
      "LD": 6598,
      "wich": 6599,
      "Ġmama": 6600,
      "ĠTha": 6601,
      "ĠTop": 6602,
      "Ġpiz": 6603,
      "Ġhel": 6604,
      "storm": 6605,
      "Ġmelt": 6606,
      "verse": 6607,
      "ĠBrav": 6608,
      "hop": 6609,
      "celer": 6610,
      "ĠKaren": 6611,
      "Ġclue": 6612,
      "ograp": 6613,
      "Ġkidney": 6614,
      "Ġactual": 6615,
      "Ġchef": 6616,
      "Ġcraw": 6617,
      "Ġchase": 6618,
      "Ġskills": 6619,
      "Ġobser": 6620,
      "ĠNeg": 6621,
      "Ġdepends": 6622,
      "Ġrequire": 6623,
      "Ġblowing": 6624,
      "Ġmaintain": 6625,
      "Ġyaar": 6626,
      "Ġcommunity": 6627,
      "Ġevents": 6628,
      "Ġmirror": 6629,
      "ĠRenu": 6630,
      "Ġcaves": 6631,
      "Ġscientist": 6632,
      "RL": 6633,
      "eb": 6634,
      "Ġwa": 6635,
      "isf": 6636,
      "Ġded": 6637,
      "itors": 6638,
      "Ġcod": 6639,
      "ĠNumber": 6640,
      "ĠOri": 6641,
      "Ġjer": 6642,
      "urning": 6643,
      "ĠKind": 6644,
      "osaur": 6645,
      "Ġtheme": 6646,
      "Ġdownstairs": 6647,
      "Ġadult": 6648,
      "Ġslight": 6649,
      "Ġdeton": 6650,
      "Ġmistakes": 6651,
      "Ġwhist": 6652,
      "Ġgentleman": 6653,
      "Ġthrowing": 6654,
      "Ġinfected": 6655,
      "Ġancient": 6656,
      "Ġsync": 6657,
      "ĠVarda": 6658,
      "gun": 6659,
      "gard": 6660,
      "gusting": 6661,
      "huh": 6662,
      "tell": 6663,
      "Ġwing": 6664,
      "Ġtherap": 6665,
      "vell": 6666,
      "atically": 6667,
      "Ġhors": 6668,
      "ĠSk": 6669,
      "ĠNat": 6670,
      "ĠDate": 6671,
      "ĠOcean": 6672,
      "ĠLinda": 6673,
      "ĠPower": 6674,
      "Ġupdate": 6675,
      "Ġriding": 6676,
      "Ġali": 6677,
      "ĠKen": 6678,
      "Ġnewsp": 6679,
      "Ġacqu": 6680,
      "Ġcheat": 6681,
      "ĠAlthough": 6682,
      "Ġemp": 6683,
      "Ġresist": 6684,
      "ĠTracy": 6685,
      "Ġeaten": 6686,
      "ĠSupp": 6687,
      "Ġrequired": 6688,
      "Ġoppos": 6689,
      "ĠOwen": 6690,
      "ĠErica": 6691,
      "Ġbabe": 6692,
      "Ġvolunt": 6693,
      "ĠFreeze": 6694,
      "ĠWHAT": 6695,
      "Ġpushing": 6696,
      "Ġbetrayed": 6697,
      "ĠGregson": 6698,
      "Ġslept": 6699,
      "ĠShrek": 6700,
      "ĠCourt": 6701,
      "ĠVincent": 6702,
      "ĠBernard": 6703,
      "ĠBravo": 6704,
      "Ġmerc": 6705,
      "ĠSky": 6706,
      "Ġmere": 6707,
      "ript": 6708,
      "riots": 6709,
      "ĠBee": 6710,
      "ĠGra": 6711,
      "Ġanaly": 6712,
      "ĠRing": 6713,
      "unz": 6714,
      "oret": 6715,
      "Ġexists": 6716,
      "Ġsew": 6717,
      "ĠShort": 6718,
      "Ġstays": 6719,
      "Ġbuff": 6720,
      "Ġrecover": 6721,
      "Ġsett": 6722,
      "Ġmenu": 6723,
      "Ġlegend": 6724,
      "ĠConnie": 6725,
      "Ġsucceed": 6726,
      "Ġpsych": 6727,
      "ĠAttention": 6728,
      "ĠCrazy": 6729,
      "ĠInternet": 6730,
      "When": 6731,
      "egr": 6732,
      "sit": 6733,
      "Ġtech": 6734,
      "hamed": 6735,
      "Ġmaid": 6736,
      "Ġfancy": 6737,
      "ĠCreate": 6738,
      "ĠBreat": 6739,
      "Ġstink": 6740,
      "ĠGroup": 6741,
      "ĠGhost": 6742,
      "ĠLies": 6743,
      "Ġlifet": 6744,
      "ivered": 6745,
      "Ġconduct": 6746,
      "icking": 6747,
      "agon": 6748,
      "Ġputs": 6749,
      "Ġsmooth": 6750,
      "Ġunderstanding": 6751,
      "ĠAlb": 6752,
      "ianc": 6753,
      "Ġrecent": 6754,
      "Ġsafely": 6755,
      "Ġlaws": 6756,
      "Ġvillain": 6757,
      "Ġexperien": 6758,
      "Ġelephan": 6759,
      "Ġeventually": 6760,
      "ĠRaymond": 6761,
      "Ġlatest": 6762,
      "Ġsoup": 6763,
      "Ġhttp": 6764,
      "AP": 6765,
      "hot": 6766,
      "ĠSaid": 6767,
      "ĠMia": 6768,
      "ĠDhar": 6769,
      "ĠFisc": 6770,
      "ĠEle": 6771,
      "ained": 6772,
      "ĠKN": 6773,
      "elp": 6774,
      "Ġintention": 6775,
      "ordinary": 6776,
      "ipal": 6777,
      "Ġclever": 6778,
      "ĠDevi": 6779,
      "Ġmeteor": 6780,
      "Ġ45": 6781,
      "ĠManager": 6782,
      "Ġinvite": 6783,
      "ĠHarris": 6784,
      "Ġsimilar": 6785,
      "ĠSecret": 6786,
      "ĠLovely": 6787,
      "Ġimpressive": 6788,
      "Ġscreaming": 6789,
      "Ġmidnight": 6790,
      "Ġservices": 6791,
      "Ġbalance": 6792,
      "Ġliterally": 6793,
      "Ġarranged": 6794,
      "ĠImagine": 6795,
      "ĠFischer": 6796,
      "Where": 6797,
      "Ġwide": 6798,
      "Ġbang": 6799,
      "Ġinspector": 6800,
      "Ġult": 6801,
      "alth": 6802,
      "verton": 6803,
      "ĠDur": 6804,
      "ĠPac": 6805,
      "ĠPur": 6806,
      "ĠFight": 6807,
      "ĠFaster": 6808,
      "Ġalco": 6809,
      "Ġdegree": 6810,
      "Ġexistence": 6811,
      "Ġgrateful": 6812,
      "Ġchocolate": 6813,
      "Ġanswering": 6814,
      "Ġlately": 6815,
      "Ġrig": 6816,
      "Ġrobbed": 6817,
      "Ġeditor": 6818,
      "Ġbasement": 6819,
      "OOD": 6820,
      "Ġodds": 6821,
      "ĠShankar": 6822,
      "Ġdisease": 6823,
      "UN": 6824,
      "cholog": 6825,
      "nis": 6826,
      "pse": 6827,
      "ĠIra": 6828,
      "Ġfra": 6829,
      "Ġpages": 6830,
      "omi": 6831,
      "ĠNOT": 6832,
      "ĠDone": 6833,
      "ĠPleas": 6834,
      "ĠKonqueror": 6835,
      "Ġspring": 6836,
      "Ġcloud": 6837,
      "Ġroot": 6838,
      "ĠGovern": 6839,
      "Ġimpl": 6840,
      "Ġflesh": 6841,
      "ĠJoan": 6842,
      "Ġtouching": 6843,
      "Ġsurvival": 6844,
      "ertific": 6845,
      "Ġcrossed": 6846,
      "ĠMilverton": 6847,
      "ĠConfigure": 6848,
      "Ġwounded": 6849,
      "Ġpissed": 6850,
      "ĠLizzy": 6851,
      "Ġpriority": 6852,
      "Ġassassin": 6853,
      "fall": 6854,
      "field": 6855,
      "gment": 6856,
      "nu": 6857,
      "Ġwise": 6858,
      "Ġben": 6859,
      "stable": 6860,
      "imal": 6861,
      "iry": 6862,
      "Ġashes": 6863,
      "Ġashamed": 6864,
      "rak": 6865,
      "ĠEgy": 6866,
      "nai": 6867,
      "Ġsuits": 6868,
      "aina": 6869,
      "Ġgoodness": 6870,
      "Ġoffering": 6871,
      "Ġhelps": 6872,
      "Ġprinc": 6873,
      "ieves": 6874,
      "avi": 6875,
      "Ġdrum": 6876,
      "ĠBrook": 6877,
      "Ġplayer": 6878,
      "Ġcommission": 6879,
      "Ġpersonnel": 6880,
      "ensive": 6881,
      "Ġstandard": 6882,
      "Ġexpress": 6883,
      "Ġvisual": 6884,
      "Ġwinning": 6885,
      "Ġblackmail": 6886,
      "Ġindivid": 6887,
      "Ġexperiment": 6888,
      "Ġcooking": 6889,
      "Ġaccepted": 6890,
      "Ġactivity": 6891,
      "Ġvacation": 6892,
      "Ġinjured": 6893,
      "Ġrupees": 6894,
      "ĠEgypt": 6895,
      "Just": 6896,
      "five": 6897,
      "nec": 6898,
      "tor": 6899,
      "when": 6900,
      "Ġthin": 6901,
      "ĠHans": 6902,
      "lead": 6903,
      "asing": 6904,
      "ĠCou": 6905,
      "ĠDist": 6906,
      "ĠRour": 6907,
      "ĠFailed": 6908,
      "Ġsafer": 6909,
      "olves": 6910,
      "ĠStu": 6911,
      "ĠStark": 6912,
      "ĠUgh": 6913,
      "ĠVal": 6914,
      "obal": 6915,
      "ĠAtl": 6916,
      "ĠSpider": 6917,
      "Ġimpact": 6918,
      "Ġfreezing": 6919,
      "Ġlanding": 6920,
      "Ġbeaten": 6921,
      "Ġtempor": 6922,
      "Ġzone": 6923,
      "ĠFranklin": 6924,
      "\\\\{": 6925,
      "Ġselection": 6926,
      "Ġpushed": 6927,
      "Ġsample": 6928,
      "ĠDamu": 6929,
      "bassy": 6930,
      "ĠPrepare": 6931,
      "ĠIraq": 6932,
      "ĠRourke": 6933,
      "Who": 6934,
      "vor": 6935,
      "zed": 6936,
      "onse": 6937,
      "Ġdirt": 6938,
      "ito": 6939,
      "Ġcub": 6940,
      "arters": 6941,
      "ĠYa": 6942,
      "Ġreview": 6943,
      "ĠRest": 6944,
      "Ġrandom": 6945,
      "estival": 6946,
      "Ġexerc": 6947,
      "Ġtrash": 6948,
      "ĠValentine": 6949,
      "ĠIsab": 6950,
      "Ġelop": 6951,
      "ception": 6952,
      "ARS": 6953,
      "ĠPercy": 6954,
      "ĠPerfect": 6955,
      "Ġcreatures": 6956,
      "ĠDelete": 6957,
      "Ġhostage": 6958,
      "cript": 6959,
      "Ġpopular": 6960,
      "engers": 6961,
      "ĠEggsy": 6962,
      "ĠAustralia": 6963,
      "ĠChennai": 6964,
      "ĠNYPD": 6965,
      "ĠAnswer": 6966,
      "IP": 6967,
      "sm": 6968,
      "ÂĿ": 6969,
      "inter": 6970,
      "Ġsan": 6971,
      "ĠIran": 6972,
      "Ġyouth": 6973,
      "Ġdim": 6974,
      "Ġfold": 6975,
      "Ġfianc": 6976,
      "Ġnest": 6977,
      "Ġhealthy": 6978,
      "Ġinqu": 6979,
      "utala": 6980,
      "ĠDin": 6981,
      "Ġredu": 6982,
      "ecil": 6983,
      "ĠJen": 6984,
      "alking": 6985,
      "Ġagency": 6986,
      "ĠStupid": 6987,
      "active": 6988,
      "ango": 6989,
      "Ġidiots": 6990,
      "Ġgrass": 6991,
      "Ġrecall": 6992,
      "ĠShad": 6993,
      "Ġinterrog": 6994,
      "ĠChautala": 6995,
      "ĠHarold": 6996,
      "Ġdelivered": 6997,
      "Ġescort": 6998,
      "Ġteaching": 6999,
      "Ġrequested": 7000,
      "Ġfrequ": 7001,
      "Ġrevolution": 7002,
      "Ġdisturb": 7003,
      "Ġneighborhood": 7004,
      "Ġromantic": 7005,
      "40": 7006,
      "KE": 7007,
      "cow": 7008,
      "pet": 7009,
      "ront": 7010,
      "Ġtrop": 7011,
      "Ġcure": 7012,
      "orage": 7013,
      "ĠTa": 7014,
      "ĠYas": 7015,
      "Ġhmm": 7016,
      "ĠNag": 7017,
      "Ġrefer": 7018,
      "Ġreplace": 7019,
      "ĠGe": 7020,
      "ĠRat": 7021,
      "Ġsober": 7022,
      "ĠThirty": 7023,
      "Ġdebt": 7024,
      "elve": 7025,
      "Ġscen": 7026,
      "peror": 7027,
      "epend": 7028,
      "Ġacceler": 7029,
      "Ġcheating": 7030,
      "Ġcheese": 7031,
      "Ġdrama": 7032,
      "Ġsisters": 7033,
      "ĠQuite": 7034,
      "Ġwinner": 7035,
      "ĠAlexander": 7036,
      "Ġweakness": 7037,
      "Ġrescued": 7038,
      "Ġjournal": 7039,
      "Ġsocial": 7040,
      "Ġhighest": 7041,
      "ĠIdiot": 7042,
      "Ġrepresent": 7043,
      "Con": 7044,
      "Get": 7045,
      "TER": 7046,
      "iper": 7047,
      "niss": 7048,
      "heme": 7049,
      "inja": 7050,
      "had": 7051,
      "Ġdive": 7052,
      "Ġfart": 7053,
      "ĠTrying": 7054,
      "icons": 7055,
      "Ġeld": 7056,
      "ador": 7057,
      "Ġstations": 7058,
      "ĠGold": 7059,
      "ĠLat": 7060,
      "ours": 7061,
      "Ġrude": 7062,
      "ĠThor": 7063,
      "igning": 7064,
      "ferences": 7065,
      "Ġunusual": 7066,
      "Ġsmugg": 7067,
      "Ġsupplies": 7068,
      "Ġappl": 7069,
      "Ġslip": 7070,
      "Ġsymbol": 7071,
      "Ġteams": 7072,
      "Ġobl": 7073,
      "Ġgenetic": 7074,
      "Ġinsult": 7075,
      "Ġ70": 7076,
      "ĠDanny": 7077,
      "ĠContact": 7078,
      "Ġcommunication": 7079,
      "Ġglasses": 7080,
      "ĠKatniss": 7081,
      "ĠRonnie": 7082,
      "Ġneighb": 7083,
      "Ġbeneath": 7084,
      "Ġignore": 7085,
      "Ġcigarette": 7086,
      "ĠPalmer": 7087,
      "away": 7088,
      "hoo": 7089,
      "nome": 7090,
      "rr": 7091,
      "te": 7092,
      "vy": 7093,
      "Ġgay": 7094,
      "ĠTower": 7095,
      "ĠTarget": 7096,
      "Ġthieves": 7097,
      "ĠSleep": 7098,
      "ĠMum": 7099,
      "verage": 7100,
      "ĠBeen": 7101,
      "ĠDO": 7102,
      "ĠGonna": 7103,
      "ĠLaur": 7104,
      "ĠPak": 7105,
      "ĠJar": 7106,
      "Ġeveryday": 7107,
      "Ġasks": 7108,
      "Ġ26": 7109,
      "Ġsurrender": 7110,
      "Ġslap": 7111,
      "Ġprotected": 7112,
      "Ġveget": 7113,
      "Ġships": 7114,
      "Ġbaseball": 7115,
      "Ġoccasion": 7116,
      "ĠEvan": 7117,
      "Ġswimming": 7118,
      "ĠAutob": 7119,
      "Ġinstalled": 7120,
      "Ġamongst": 7121,
      "ĠMiller": 7122,
      "ĠHonest": 7123,
      "Ġmobile": 7124,
      "Ġlonely": 7125,
      "ĠLaura": 7126,
      "RO": 7127,
      "bound": 7128,
      "oye": 7129,
      "Ġton": 7130,
      "Ġaunty": 7131,
      "itched": 7132,
      "Ġlad": 7133,
      "ĠTel": 7134,
      "Ġkarthik": 7135,
      "aling": 7136,
      "ĠMont": 7137,
      "ĠCat": 7138,
      "ĠNavy": 7139,
      "ĠPink": 7140,
      "essa": 7141,
      "Ġlob": 7142,
      "ateg": 7143,
      "ola": 7144,
      "ĠOhh": 7145,
      "ĠStation": 7146,
      "ensed": 7147,
      "Ġchoices": 7148,
      "Ġsentence": 7149,
      "ĠWouldn": 7150,
      "ĠWasn": 7151,
      "ĠError": 7152,
      "Ġblocks": 7153,
      "Ġprayers": 7154,
      "Ġcontains": 7155,
      "Ġextraordinary": 7156,
      "Ġauthority": 7157,
      "fle": 7158,
      "gl": 7159,
      "iy": 7160,
      "Ġdu": 7161,
      "Ġdatabase": 7162,
      "orp": 7163,
      "imb": 7164,
      "ications": 7165,
      "utiful": 7166,
      "ĠCir": 7167,
      "ĠBeet": 7168,
      "Ġlif": 7169,
      "ĠJew": 7170,
      "eland": 7171,
      "ously": 7172,
      "action": 7173,
      "Ġmissile": 7174,
      "Ġstruct": 7175,
      "orney": 7176,
      "Ġrelated": 7177,
      "Ġconscious": 7178,
      "Ġrip": 7179,
      "Ġdepth": 7180,
      "Ġstudents": 7181,
      "Ġ120": 7182,
      "Ġdinosaur": 7183,
      "Ġroads": 7184,
      "ĠGenius": 7185,
      "Ġvictory": 7186,
      "Ġrefused": 7187,
      "Ġsquare": 7188,
      "Ġsuspects": 7189,
      "Ġplanted": 7190,
      "ĠBoys": 7191,
      "Ġpolitic": 7192,
      "ĠWrong": 7193,
      "Ġlaptop": 7194,
      "Ġcitizens": 7195,
      "Ġpizza": 7196,
      "Cl": 7197,
      "oard": 7198,
      "Ġmuseum": 7199,
      "Ġcities": 7200,
      "Ġgates": 7201,
      "Ġhom": 7202,
      "imately": 7203,
      "ĠMel": 7204,
      "ĠCross": 7205,
      "Ġdock": 7206,
      "ĠBay": 7207,
      "Ġstake": 7208,
      "ĠGab": 7209,
      "ĠRand": 7210,
      "Ġwhore": 7211,
      "Ġbrown": 7212,
      "udes": 7213,
      "ĠVol": 7214,
      "Ġsealed": 7215,
      "ĠNote": 7216,
      "Ġcomprom": 7217,
      "ĠExpl": 7218,
      "Ġmessed": 7219,
      "Ġreturning": 7220,
      "Ġcommander": 7221,
      "ĠJulia": 7222,
      "Ġaffair": 7223,
      "Ġholes": 7224,
      "Ġemotional": 7225,
      "Ġsurrounded": 7226,
      "Ġdivorce": 7227,
      "ĠRizvan": 7228,
      "ĠKapoor": 7229,
      "TS": 7230,
      "look": 7231,
      "list": 7232,
      "point": 7233,
      "uj": 7234,
      "ĠÃ": 7235,
      "iner": 7236,
      "ĠWanna": 7237,
      "Ġpatch": 7238,
      "stone": 7239,
      "ĠSO": 7240,
      "ĠSud": 7241,
      "ĠHm": 7242,
      "acing": 7243,
      "see": 7244,
      "ĠMain": 7245,
      "ĠCab": 7246,
      "ĠCong": 7247,
      "rip": 7248,
      "ĠBhar": 7249,
      "ĠGust": 7250,
      "ĠGene": 7251,
      "Ġaboard": 7252,
      "ĠEnable": 7253,
      "Ġnoble": 7254,
      "ĠThunder": 7255,
      "Ġaltern": 7256,
      "ĠKelly": 7257,
      "venue": 7258,
      "Ġargum": 7259,
      "Ġdrone": 7260,
      "Ġplays": 7261,
      "ĠAsia": 7262,
      "Ġpassengers": 7263,
      "Ġdealer": 7264,
      "ĠTrue": 7265,
      "ĠGotta": 7266,
      "Ġattacks": 7267,
      "Ġextract": 7268,
      "Ġregard": 7269,
      "Ġgolden": 7270,
      "\\\\\\\\{": 7271,
      "Ġlargest": 7272,
      "ĠCorrect": 7273,
      "ette": 7274,
      "Ġauthorities": 7275,
      "Ġpolitics": 7276,
      "pected": 7277,
      "iac": 7278,
      "inating": 7279,
      "Ġsides": 7280,
      "Ġdea": 7281,
      "ĠWade": 7282,
      "Ġpul": 7283,
      "ester": 7284,
      "otions": 7285,
      "ĠAS": 7286,
      "ĠMister": 7287,
      "ĠCrew": 7288,
      "ĠJump": 7289,
      "Ġloving": 7290,
      "olved": 7291,
      "ulting": 7292,
      "Ġconsequ": 7293,
      "ĠStick": 7294,
      "Ġscent": 7295,
      "Ġprim": 7296,
      "Ġapply": 7297,
      "Ġserver": 7298,
      "Ġ(%": 7299,
      "Ġ48": 7300,
      "ruption": 7301,
      "ĠArm": 7302,
      "ĠChamp": 7303,
      "ĠEmp": 7304,
      "Ġofficially": 7305,
      "Ġexciting": 7306,
      "Ġoperating": 7307,
      "Ġsolved": 7308,
      "Ġquietly": 7309,
      "Ġinflu": 7310,
      "Ġsilver": 7311,
      "Ġpsycholog": 7312,
      "Ġcombat": 7313,
      "Ġgravity": 7314,
      "Ġhorses": 7315,
      "hra": 7316,
      "lace": 7317,
      "rs": 7318,
      "zo": 7319,
      "hall": 7320,
      "Ġdating": 7321,
      "Ġpier": 7322,
      "Ġheir": 7323,
      "ĠNational": 7324,
      "ĠDory": 7325,
      "ami": 7326,
      "ĠOd": 7327,
      "ĠHeavy": 7328,
      "ĠGib": 7329,
      "iona": 7330,
      "ĠPa": 7331,
      "ĠJess": 7332,
      "ĠEarl": 7333,
      "Ġplain": 7334,
      "astian": 7335,
      "ulated": 7336,
      "hia": 7337,
      "Ġsequ": 7338,
      "Ġleak": 7339,
      "Ġdrones": 7340,
      "akesh": 7341,
      "Ġleaders": 7342,
      "Ġlearning": 7343,
      "Ġbegun": 7344,
      "Ġformal": 7345,
      "uesday": 7346,
      "Ġshortly": 7347,
      "Ġsquad": 7348,
      "Ġsatisf": 7349,
      "Ġeffective": 7350,
      "ĠType": 7351,
      "Ġbenefit": 7352,
      "Ġcompanion": 7353,
      "ĠSanta": 7354,
      "Ġfonts": 7355,
      "belie": 7356,
      "Ġdefeat": 7357,
      "Ġjewel": 7358,
      "ĠBreathe": 7359,
      "ertificate": 7360,
      "Singham": 7361,
      "bits": 7362,
      "Ġwolf": 7363,
      "hase": 7364,
      "Ġdynam": 7365,
      "Ġtoast": 7366,
      "ĠWild": 7367,
      "Ġpump": 7368,
      "ĠNad": 7369,
      "ĠOct": 7370,
      "ĠGame": 7371,
      "ĠRakesh": 7372,
      "ĠNoah": 7373,
      "ĠKore": 7374,
      "ĠInformation": 7375,
      "ĠWhenever": 7376,
      "Ġcheap": 7377,
      "ivity": 7378,
      "ĠChurch": 7379,
      "Ġkinds": 7380,
      "Ġstrangers": 7381,
      "Ġtoward": 7382,
      "Ġresponse": 7383,
      "apping": 7384,
      "Ġsweets": 7385,
      "Ġcollap": 7386,
      "Ġfoolish": 7387,
      "ĠClean": 7388,
      "Ġpopulation": 7389,
      "Ġtransferred": 7390,
      "Ġnegative": 7391,
      "Ġtaxi": 7392,
      "ĠMoscow": 7393,
      "burg": 7394,
      "ĠMandira": 7395,
      "Ġpolicem": 7396,
      "ĠBruno": 7397,
      "Ġlifetime": 7398,
      "UCK": 7399,
      "jamin": 7400,
      "vation": 7401,
      "Ġwra": 7402,
      "Ġmug": 7403,
      "Ġhid": 7404,
      "ĠArab": 7405,
      "ĠWeb": 7406,
      "ifth": 7407,
      "ĠRoll": 7408,
      "ĠFont": 7409,
      "ĠFiona": 7410,
      "Ġsport": 7411,
      "ĠStat": 7412,
      "ĠUday": 7413,
      "Ġintent": 7414,
      "Ġclan": 7415,
      "ĠYesterday": 7416,
      "Ġscript": 7417,
      "oster": 7418,
      "Ġuncom": 7419,
      "Ġunex": 7420,
      "Ġbelie": 7421,
      "ubborn": 7422,
      "ĠSpir": 7423,
      "Ġmistaken": 7424,
      "Ġvisiting": 7425,
      "Ġseats": 7426,
      "Ġearned": 7427,
      "ĠHighness": 7428,
      "Ġsacrific": 7429,
      "Ġtablet": 7430,
      "Ġghosts": 7431,
      "ennifer": 7432,
      "ĠBurrows": 7433,
      "Ġassignment": 7434,
      "Ġstruggle": 7435,
      "Ġoccurred": 7436,
      "TH": 7437,
      "Ġbars": 7438,
      "Ġfever": 7439,
      "Ġlit": 7440,
      "ĠTob": 7441,
      "ĠTuesday": 7442,
      "ĠNaina": 7443,
      "Ġcant": 7444,
      "ĠPress": 7445,
      "ookie": 7446,
      "raise": 7447,
      "ĠKyle": 7448,
      "Ġplaced": 7449,
      "ĠStig": 7450,
      "Ġblown": 7451,
      "Ġpride": 7452,
      "Ġcarried": 7453,
      "Ġprey": 7454,
      "Ġsmarter": 7455,
      "Ġmommy": 7456,
      "Ġstruck": 7457,
      "Ġslipped": 7458,
      "Ġentering": 7459,
      "Ġentertain": 7460,
      "ĠOrder": 7461,
      "ggy": 7462,
      "Ġchap": 7463,
      "Ġinvisible": 7464,
      "Ġgrandmother": 7465,
      "ĠColor": 7466,
      "Ġbasically": 7467,
      "Ġthrown": 7468,
      "Ġapplications": 7469,
      "ĠDorian": 7470,
      "Ġreaction": 7471,
      "ĠSetting": 7472,
      "ĠHonor": 7473,
      "Ġphotograp": 7474,
      "Ġestab": 7475,
      "Ġterminal": 7476,
      "Ġdisappointed": 7477,
      "ĠNichol": 7478,
      "Ġhouses": 7479,
      "ĠLiesel": 7480,
      "49": 7481,
      "Do": 7482,
      "Sp": 7483,
      "why": 7484,
      "inity": 7485,
      "Ġwow": 7486,
      "hara": 7487,
      "Ġfrag": 7488,
      "Ġgut": 7489,
      "Ġnut": 7490,
      "Ġpills": 7491,
      "ĠSound": 7492,
      "ĠHill": 7493,
      "ĠDie": 7494,
      "ĠGard": 7495,
      "Ġmyster": 7496,
      "ĠLin": 7497,
      "ural": 7498,
      "ĠEagle": 7499,
      "ived": 7500,
      "istry": 7501,
      "Ġcomin": 7502,
      "ĠStone": 7503,
      "Ġboots": 7504,
      "ploye": 7505,
      "Ġunlike": 7506,
      "Ġcargo": 7507,
      "aval": 7508,
      "eeta": 7509,
      "ĠDeal": 7510,
      "Ġstands": 7511,
      "Ġexplan": 7512,
      "Ġdestruction": 7513,
      "Ġhumanity": 7514,
      "Ġfools": 7515,
      "ĠCarter": 7516,
      "Ġapproaching": 7517,
      "ĠGlad": 7518,
      "Ġeffects": 7519,
      "ĠTyler": 7520,
      "ĠBeautiful": 7521,
      "ployees": 7522,
      "ipl": 7523,
      "lers": 7524,
      "rot": 7525,
      "she": 7526,
      "wr": 7527,
      "hero": 7528,
      "ouch": 7529,
      "Ġwins": 7530,
      "Ġmental": 7531,
      "Ġbump": 7532,
      "Ġbask": 7533,
      "Ġbread": 7534,
      "ĠTit": 7535,
      "ĠSource": 7536,
      "ĠAud": 7537,
      "ĠCecil": 7538,
      "riot": 7539,
      "ĠBal": 7540,
      "ĠDugg": 7541,
      "Ġsteel": 7542,
      "ĠPath": 7543,
      "ĠFed": 7544,
      "ĠEve": 7545,
      "aus": 7546,
      "Ġoffense": 7547,
      "Ġclown": 7548,
      "izard": 7549,
      "Ġhomework": 7550,
      "Ġprevious": 7551,
      "Ġsmiling": 7552,
      "Ġassault": 7553,
      "Ġapparently": 7554,
      "ivate": 7555,
      "Ġseries": 7556,
      "Ġpassion": 7557,
      "Ġbegins": 7558,
      "Ġlanded": 7559,
      "ĠSwan": 7560,
      "Ġgifts": 7561,
      "Ġdropping": 7562,
      "ĠEdward": 7563,
      "Ġlimits": 7564,
      "Ġbehalf": 7565,
      "ascal": 7566,
      "Ġdeny": 7567,
      "Ġsuccessful": 7568,
      "ĠTrevor": 7569,
      "ĠWidmore": 7570,
      "ĠNaomi": 7571,
      "ĠNardo": 7572,
      "Ar": 7573,
      "As": 7574,
      "EC": 7575,
      "If": 7576,
      "So": 7577,
      "cover": 7578,
      "iative": 7579,
      "mons": 7580,
      "rad": 7581,
      "run": 7582,
      "take": 7583,
      "uits": 7584,
      "Ġtub": 7585,
      "Ġwipe": 7586,
      "Ġmal": 7587,
      "Ġmud": 7588,
      "Ġbhai": 7589,
      "Ġlion": 7590,
      "ĠAT": 7591,
      "ĠAvat": 7592,
      "ĠBurn": 7593,
      "ĠLine": 7594,
      "ĠLance": 7595,
      "ĠPen": 7596,
      "ĠFox": 7597,
      "ĠEnder": 7598,
      "Ġsav": 7599,
      "Ġmanip": 7600,
      "ĠUser": 7601,
      "agne": 7602,
      "ĠVen": 7603,
      "izes": 7604,
      "ĠCannot": 7605,
      "Ġcris": 7606,
      "aws": 7607,
      "Ġpointing": 7608,
      "ĠChris": 7609,
      "Ġrail": 7610,
      "Ġrooms": 7611,
      "Ġmostly": 7612,
      "Ġpayment": 7613,
      "Ġpossibility": 7614,
      "Ġsteady": 7615,
      "brace": 7616,
      "Ġrepair": 7617,
      "Ġheroes": 7618,
      "ĠService": 7619,
      "Ġrefuse": 7620,
      "Ġhostile": 7621,
      "ĠRussians": 7622,
      "ĠFreddy": 7623,
      "Ġorganization": 7624,
      "Ġtattoos": 7625,
      "lynn": 7626,
      "ĠGandalf": 7627,
      "Ġeloped": 7628,
      "EE": 7629,
      "ffered": 7630,
      "mi": 7631,
      "pana": 7632,
      "uing": 7633,
      "Ġace": 7634,
      "ĠWoman": 7635,
      "Ġnasty": 7636,
      "ĠCast": 7637,
      "ĠNell": 7638,
      "holes": 7639,
      "ĠPal": 7640,
      "ĠPun": 7641,
      "Ġupload": 7642,
      "eless": 7643,
      "Ġtroops": 7644,
      "hips": 7645,
      "mann": 7646,
      "uffs": 7647,
      "ĠScan": 7648,
      "Ġ64": 7649,
      "ĠBenjamin": 7650,
      "ĠGirls": 7651,
      "ĠKalpana": 7652,
      "Ġfantastic": 7653,
      "Ġinternational": 7654,
      "ĠGusteau": 7655,
      "ĠNicholas": 7656,
      "AA": 7657,
      "Th": 7658,
      "ded": 7659,
      "job": 7660,
      "tin": 7661,
      "Ġess": 7662,
      "Ġï¬": 7663,
      "isher": 7664,
      "Ġbail": 7665,
      "itol": 7666,
      "enc": 7667,
      "enger": 7668,
      "ĠTamil": 7669,
      "ota": 7670,
      "Ġheck": 7671,
      "ĠAlf": 7672,
      "asha": 7673,
      "ĠYoung": 7674,
      "ĠCisco": 7675,
      "ĠNash": 7676,
      "ĠNaz": 7677,
      "ĠNAS": 7678,
      "Ġforb": 7679,
      "Ġrear": 7680,
      "Ġnep": 7681,
      "ĠJennifer": 7682,
      "ĠEh": 7683,
      "Ġsuffered": 7684,
      "Ġ\"...": 7685,
      "Ġspotted": 7686,
      "ĠAllow": 7687,
      "Ġblade": 7688,
      "ocking": 7689,
      "Ġplanes": 7690,
      "Ġdecor": 7691,
      "ĠJohnson": 7692,
      "erald": 7693,
      "Ġindust": 7694,
      "Ġprofessor": 7695,
      "ĠBarnes": 7696,
      "ĠNora": 7697,
      "Ġvacc": 7698,
      "Ġcapture": 7699,
      "Ġcaptured": 7700,
      "ĠBatman": 7701,
      "Ġshouting": 7702,
      "Ġwhale": 7703,
      "Ġdaily": 7704,
      "IGHT": 7705,
      "ĠLarry": 7706,
      "Ġinstructions": 7707,
      "believable": 7708,
      "bro": 7709,
      "fish": 7710,
      "know": 7711,
      "Ġsorrow": 7712,
      "itable": 7713,
      "Ġtoy": 7714,
      "Ġfilt": 7715,
      "ĠTook": 7716,
      "Ġthumb": 7717,
      "Ġinsp": 7718,
      "ĠHan": 7719,
      "ĠAL": 7720,
      "ĠAuthor": 7721,
      "ashes": 7722,
      "ĠMason": 7723,
      "aday": 7724,
      "iraju": 7725,
      "ĠPack": 7726,
      "ĠRod": 7727,
      "ĠFunny": 7728,
      "Ġhers": 7729,
      "usive": 7730,
      "Ġplus": 7731,
      "Ġexha": 7732,
      "Ġhappily": 7733,
      "Ġbrush": 7734,
      "ĠVar": 7735,
      "Ġtravell": 7736,
      "ĠClub": 7737,
      "Ġperf": 7738,
      "anks": 7739,
      "Ġemotions": 7740,
      "ĠDebug": 7741,
      "peed": 7742,
      "Ġwalks": 7743,
      "Ġpasses": 7744,
      "Ġconsidering": 7745,
      "Ġpatrol": 7746,
      "Ġstudying": 7747,
      "Ġvalues": 7748,
      "ĠSimran": 7749,
      "Ġhoped": 7750,
      "Ġcosts": 7751,
      "Ġcostume": 7752,
      "Ġenjoying": 7753,
      "Ġpleased": 7754,
      "ĠSanjana": 7755,
      "ĠFinish": 7756,
      "ĠRonan": 7757,
      "ĠLucia": 7758,
      "Ġdeserves": 7759,
      "Ġurgent": 7760,
      "ĠMachiraju": 7761,
      "Ġcompromised": 7762,
      "For": 7763,
      "Is": 7764,
      "lord": 7765,
      "mans": 7766,
      "vis": 7767,
      "vate": 7768,
      "was": 7769,
      "Ġtend": 7770,
      "onent": 7771,
      "vember": 7772,
      "estern": 7773,
      "ati": 7774,
      "Ġhire": 7775,
      "utch": 7776,
      "adam": 7777,
      "ĠDance": 7778,
      "Ġreck": 7779,
      "Ġstubborn": 7780,
      "usted": 7781,
      "ĠPK": 7782,
      "Ġallows": 7783,
      "unting": 7784,
      "ello": 7785,
      "inder": 7786,
      "arts": 7787,
      "ĠKick": 7788,
      "ĠStaff": 7789,
      "Ġrose": 7790,
      "Ġcompass": 7791,
      "Ġpoet": 7792,
      "ĠTogether": 7793,
      "Ġsets": 7794,
      "Ġmessing": 7795,
      "ropri": 7796,
      "Ġretrie": 7797,
      "Ġbreaks": 7798,
      "ĠBlu": 7799,
      "Ġprize": 7800,
      "ANK": 7801,
      "à·Ģ": 7802,
      "Ġheroin": 7803,
      "Ġpacked": 7804,
      "Ġprivacy": 7805,
      "Ġjudgment": 7806,
      "Ġkidnap": 7807,
      "Ġlaun": 7808,
      "Ġhunter": 7809,
      "Ġshark": 7810,
      "Ġpunished": 7811,
      "ĠAwesome": 7812,
      "ĠNormal": 7813,
      "ufact": 7814,
      "Ġspoil": 7815,
      "ĠAlpha": 7816,
      "Ġrecommend": 7817,
      "Ġprocedure": 7818,
      "Ġexplanation": 7819,
      "Ġnephew": 7820,
      "16": 7821,
      "=\\\\\\\\{": 7822,
      "IF": 7823,
      "With": 7824,
      "ginal": 7825,
      "mon": 7826,
      "ti": 7827,
      "uction": 7828,
      "Ġtast": 7829,
      "ĠIce": 7830,
      "anch": 7831,
      "Ġpipe": 7832,
      "stick": 7833,
      "ĠAle": 7834,
      "ases": 7835,
      "sect": 7836,
      "ĠMid": 7837,
      "ĠCD": 7838,
      "ĠDarling": 7839,
      "ĠOpt": 7840,
      "ĠFolder": 7841,
      "ĠJO": 7842,
      "Ġshrink": 7843,
      "Ġrounds": 7844,
      "ĠKel": 7845,
      "Ġmanif": 7846,
      "aki": 7847,
      "Ġexcellent": 7848,
      "Ġvar": 7849,
      "ĠURL": 7850,
      "Ġ'...": 7851,
      "ĠVic": 7852,
      "reek": 7853,
      "Ġdisgusting": 7854,
      "ĠBehind": 7855,
      "Ġpretending": 7856,
      "azz": 7857,
      "ĠSeb": 7858,
      "ĠSays": 7859,
      "Ġlegacy": 7860,
      "ussy": 7861,
      "Ġzomb": 7862,
      "Ġ197": 7863,
      "Ġhostages": 7864,
      "Ġequal": 7865,
      "Ġmotion": 7866,
      "Ġfreight": 7867,
      "ĠModi": 7868,
      "Ġcombination": 7869,
      "Ġsuspicious": 7870,
      "ĠCapitol": 7871,
      "Ġadopt": 7872,
      "Ġsometime": 7873,
      "Ġmultiple": 7874,
      "Ġopposite": 7875,
      "ĠDuggal": 7876,
      "ĠAvatar": 7877,
      "Go": 7878,
      "On": 7879,
      "life": 7880,
      "mitted": 7881,
      "uary": 7882,
      "Ġax": 7883,
      "Ġbait": 7884,
      "ĠTag": 7885,
      "ĠSent": 7886,
      "ĠHorn": 7887,
      "ĠMoon": 7888,
      "ĠMummy": 7889,
      "ĠCoop": 7890,
      "Ġreverse": 7891,
      "ĠGro": 7892,
      "ĠFer": 7893,
      "ĠFix": 7894,
      "ĠNovember": 7895,
      "umn": 7896,
      "umes": 7897,
      "icken": 7898,
      "irectory": 7899,
      "Ġmovement": 7900,
      "Ġasset": 7901,
      "ĠAli": 7902,
      "Ġemployees": 7903,
      "ĠScreen": 7904,
      "Ġcutting": 7905,
      "Ġtransmission": 7906,
      "Ġpathetic": 7907,
      "Ġadded": 7908,
      "Ġaddict": 7909,
      "Ġgrandson": 7910,
      "Ġsubway": 7911,
      "Ġreported": 7912,
      "Ġengines": 7913,
      "ĠPlus": 7914,
      "onym": 7915,
      "Ġrequires": 7916,
      "Ġoperations": 7917,
      "ĠFlor": 7918,
      "ĠSara": 7919,
      "fficient": 7920,
      "Ġadvance": 7921,
      "Ġsouls": 7922,
      "Ġbills": 7923,
      "ĠCarlos": 7924,
      "Ġhyd": 7925,
      "Ġseparated": 7926,
      "Ġreactor": 7927,
      "ĠDepartment": 7928,
      "Ġtiming": 7929,
      "Ġthreatening": 7930,
      "Ġstretch": 7931,
      "Ġexercise": 7932,
      "ĠHonestly": 7933,
      "100": 7934,
      "TA": 7935,
      "ba": 7936,
      "gain": 7937,
      "pai": 7938,
      "yard": 7939,
      "Ġmath": 7940,
      "Ġfetch": 7941,
      "stop": 7942,
      "ĠAmm": 7943,
      "Ġmeasure": 7944,
      "ĠBall": 7945,
      "ĠBhai": 7946,
      "Ġknees": 7947,
      "ĠFocus": 7948,
      "ĠEyes": 7949,
      "aps": 7950,
      "ĠDocum": 7951,
      "ĠAllen": 7952,
      "Ġmustn": 7953,
      "Ġcheer": 7954,
      "Ġattorney": 7955,
      "Ġserial": 7956,
      "Ġ35": 7957,
      "ĠBeans": 7958,
      "Ġchill": 7959,
      "Ġexposed": 7960,
      "Ġdifferently": 7961,
      "ĠChester": 7962,
      "Ġmeds": 7963,
      "Ġconsc": 7964,
      "Ġinformed": 7965,
      "à·ĥ": 7966,
      "Ġcreating": 7967,
      "Ġtargets": 7968,
      "Ġsticks": 7969,
      "ĠRajat": 7970,
      "Ġspending": 7971,
      "ounter": 7972,
      "ĠEdit": 7973,
      "Ġcorrected": 7974,
      "Ġpropose": 7975,
      "Ġbreach": 7976,
      "Ġgeneration": 7977,
      "Ġnecklace": 7978,
      "minist": 7979,
      "ĠReport": 7980,
      "Ġpolitical": 7981,
      "Ġwasted": 7982,
      "ĠDeputy": 7983,
      "ĠCollector": 7984,
      "ĠHorse": 7985,
      "ĠHyder": 7986,
      "Ġritual": 7987,
      "Ġhelmet": 7988,
      "necess": 7989,
      "ĠSebastian": 7990,
      "bly": 7991,
      "bles": 7992,
      "gues": 7993,
      "kind": 7994,
      "py": 7995,
      "wa": 7996,
      "ĠIris": 7997,
      "ĠIrish": 7998,
      "Ġbond": 7999,
      "Ġbatt": 8000,
      "Ġduck": 8001,
      "Ġcre": 8002,
      "Ġgreed": 8003,
      "ĠTold": 8004,
      "ĠTechn": 8005,
      "Ġpow": 8006,
      "ĠAk": 8007,
      "ĠGaj": 8008,
      "ĠEko": 8009,
      "oded": 8010,
      "estion": 8011,
      "ĠKiss": 8012,
      "roups": 8013,
      "uma": 8014,
      "Ġdownload": 8015,
      "Ġintegr": 8016,
      "Ġhanded": 8017,
      "Ġfriendly": 8018,
      "Ġdisaster": 8019,
      "Ġparticul": 8020,
      "ugs": 8021,
      "Ġcrush": 8022,
      "ĠAsh": 8023,
      "Ġraid": 8024,
      "ĠSomewhere": 8025,
      "aution": 8026,
      "Ġsites": 8027,
      "Ġlightning": 8028,
      "Ġfourth": 8029,
      "ĠConnect": 8030,
      "ĠMission": 8031,
      "Ġrecorded": 8032,
      "Ġsuperhero": 8033,
      "ĠBabu": 8034,
      "Ġaccounts": 8035,
      "Ġcowboy": 8036,
      "Ġsexy": 8037,
      "Ġswords": 8038,
      "garh": 8039,
      "Ġservant": 8040,
      "Ġproposal": 8041,
      "Ġliquor": 8042,
      "ĠPacific": 8043,
      "ĠNASA": 8044,
      "di": 8045,
      "ipper": 8046,
      "lay": 8047,
      "mates": 8048,
      "rand": 8049,
      "hay": 8050,
      "Ġfoc": 8051,
      "Ġgest": 8052,
      "Ġgamb": 8053,
      "Ġlect": 8054,
      "ength": 8055,
      "Ġnig": 8056,
      "ĠTool": 8057,
      "ĠToret": 8058,
      "ĠSpeed": 8059,
      "acles": 8060,
      "ĠNE": 8061,
      "ĠOz": 8062,
      "Ġknee": 8063,
      "roke": 8064,
      "ĠRiya": 8065,
      "ĠFOR": 8066,
      "eller": 8067,
      "Ġmanufact": 8068,
      "Ġblond": 8069,
      "Ġundercover": 8070,
      "Ġadventure": 8071,
      "Ġteen": 8072,
      "Ġchess": 8073,
      "Ġcheque": 8074,
      "Ġtraitor": 8075,
      "Ġcompound": 8076,
      "ĠReed": 8077,
      "ĠJackson": 8078,
      "ĠBeera": 8079,
      "Ġfrust": 8080,
      "Ġfights": 8081,
      "ĠBlock": 8082,
      "Ġcorpse": 8083,
      "Ġhonour": 8084,
      "escri": 8085,
      "à¶Ń": 8086,
      "à·Ĵ": 8087,
      "Ġmagn": 8088,
      "Ġstudied": 8089,
      "Ġnearby": 8090,
      "Ġcerem": 8091,
      "Ġelection": 8092,
      "Ġbehave": 8093,
      "Ġhonestly": 8094,
      "Ġoccup": 8095,
      "Ġclients": 8096,
      "ĠRepublic": 8097,
      "ĠAddress": 8098,
      "ĠAnth": 8099,
      "ĠWallace": 8100,
      "ĠQuickly": 8101,
      "ĠSandy": 8102,
      "Ġreveal": 8103,
      "Ġinvented": 8104,
      "Ġjuice": 8105,
      "Ġscratch": 8106,
      "ĠRudy": 8107,
      "Ġwhistle": 8108,
      "ĠKNOW": 8109,
      "Ġalcohol": 8110,
      "ĠPleasure": 8111,
      "ĠToretto": 8112,
      "@}": 8113,
      "Are": 8114,
      "bon": 8115,
      "low": 8116,
      "mosp": 8117,
      "Ã±": 8118,
      "ÃŃ": 8119,
      "Ġtact": 8120,
      "iser": 8121,
      "eration": 8122,
      "Ġfence": 8123,
      "orable": 8124,
      "ĠTaking": 8125,
      "ĠSea": 8126,
      "ĠHay": 8127,
      "ĠALL": 8128,
      "icing": 8129,
      "uther": 8130,
      "utation": 8131,
      "aded": 8132,
      "ĠGO": 8133,
      "ĠGnome": 8134,
      "Ġgoal": 8135,
      "ĠPot": 8136,
      "ĠPear": 8137,
      "ĠFra": 8138,
      "oph": 8139,
      "Ġuses": 8140,
      "Ġanytime": 8141,
      "Ġorg": 8142,
      "Ġconce": 8143,
      "Ġspons": 8144,
      "respect": 8145,
      "Ġprints": 8146,
      "ĠInf": 8147,
      "ĠAng": 8148,
      "izer": 8149,
      "ups": 8150,
      "Ġgrace": 8151,
      "ĠAmen": 8152,
      "ĠProblem": 8153,
      "Ġintercept": 8154,
      "Ġrifle": 8155,
      "Ġ911": 8156,
      "Ġprisoners": 8157,
      "Ġpurse": 8158,
      "fortable": 8159,
      "Ġmodern": 8160,
      "ONE": 8161,
      "Ġinvolve": 8162,
      "Ġrolling": 8163,
      "Ġroutine": 8164,
      "ĠGeorg": 8165,
      "Ġcouncil": 8166,
      "Ġdescribe": 8167,
      "ĠDefinitely": 8168,
      "ĠJerry": 8169,
      "ĠBerlin": 8170,
      "ĠHotel": 8171,
      "ĠJonathan": 8172,
      "stein": 8173,
      "Ġconsequences": 8174,
      "13": 8175,
      "IE": 8176,
      "bal": 8177,
      "hend": 8178,
      "Ġwitch": 8179,
      "Ġtoss": 8180,
      "oty": 8181,
      "Ġhen": 8182,
      "atory": 8183,
      "ĠSutter": 8184,
      "ĠHud": 8185,
      "ĠHaw": 8186,
      "ĠAunty": 8187,
      "icia": 8188,
      "ĠCase": 8189,
      "ĠLater": 8190,
      "ĠPy": 8191,
      "ĠPind": 8192,
      "hania": 8193,
      "ĠEN": 8194,
      "Ġdeb": 8195,
      "ĠKas": 8196,
      "Ġcomment": 8197,
      "Ġbrows": 8198,
      "Ġseal": 8199,
      "Ġbelief": 8200,
      "Ġparties": 8201,
      "Ġcheated": 8202,
      "Ġperman": 8203,
      "Ġrecon": 8204,
      "Ġ32": 8205,
      "Ġdreaming": 8206,
      "vention": 8207,
      "ĠGotya": 8208,
      "ĠAhh": 8209,
      "Ġclosest": 8210,
      "Ġsolid": 8211,
      "ĠSinghania": 8212,
      "Ġcookies": 8213,
      "Ġkissed": 8214,
      "Ġnormally": 8215,
      "Ġgenerator": 8216,
      "ĠErdog": 8217,
      "ĠInto": 8218,
      "Ġknocked": 8219,
      "Ġholiday": 8220,
      "Ġmercy": 8221,
      "Ġsenior": 8222,
      "ĠShiva": 8223,
      "ĠReyes": 8224,
      "ĠCobb": 8225,
      "Ġunderwear": 8226,
      "ĠDragon": 8227,
      "ĠCrewes": 8228,
      "ĠSettings": 8229,
      "ĠErdogan": 8230,
      "500": 8231,
      "80": 8232,
      "EO": 8233,
      "Okay": 8234,
      "To": 8235,
      "UR": 8236,
      "ias": 8237,
      "two": 8238,
      "Ġeter": 8239,
      "rep": 8240,
      "ishi": 8241,
      "Ġbesides": 8242,
      "inger": 8243,
      "Ġfashion": 8244,
      "oraj": 8245,
      "Ġthrill": 8246,
      "ĠMolly": 8247,
      "ĠBA": 8248,
      "ĠBunny": 8249,
      "ĠNand": 8250,
      "Ġrein": 8251,
      "ĠLiam": 8252,
      "road": 8253,
      "Ġcancell": 8254,
      "ĠFlynn": 8255,
      "unning": 8256,
      "ieur": 8257,
      "ĠKenny": 8258,
      "ĠSooraj": 8259,
      "ĠStorm": 8260,
      "uckles": 8261,
      "ĠUng": 8262,
      "onsieur": 8263,
      "ĠJoey": 8264,
      "Ġbeings": 8265,
      "Ġchamber": 8266,
      "Ġincom": 8267,
      "Ġinvitation": 8268,
      "ysis": 8269,
      "à¶»": 8270,
      "Ġindepend": 8271,
      "Ġtwins": 8272,
      "Ġtwenty": 8273,
      "Ġbeats": 8274,
      "Ġthreats": 8275,
      "ĠPrivate": 8276,
      "Ġcasino": 8277,
      "ĠTeri": 8278,
      "Ġfacing": 8279,
      "Ġtelevision": 8280,
      "iversary": 8281,
      "Ġpredict": 8282,
      "ĠWilson": 8283,
      "UST": 8284,
      "Ġembarrassed": 8285,
      "Ġensure": 8286,
      "ĠJoseph": 8287,
      "Ġelders": 8288,
      "Ġmysterious": 8289,
      "gi": 8290,
      "iat": 8291,
      "oja": 8292,
      "Ġtension": 8293,
      "Ġwiped": 8294,
      "Ġyards": 8295,
      "Ġfrog": 8296,
      "Ġfasc": 8297,
      "Ġgal": 8298,
      "eni": 8299,
      "Ġogre": 8300,
      "aris": 8301,
      "ĠShik": 8302,
      "ĠAC": 8303,
      "ĠNate": 8304,
      "ĠDol": 8305,
      "ams": 8306,
      "ĠHeard": 8307,
      "ĠLily": 8308,
      "lymp": 8309,
      "Ġcancel": 8310,
      "alled": 8311,
      "ĠPos": 8312,
      "ĠPeeta": 8313,
      "urai": 8314,
      "ĠFog": 8315,
      "Ġdeer": 8316,
      "ĠStra": 8317,
      "Ġpean": 8318,
      "Ġactor": 8319,
      "ĠAlison": 8320,
      "Ġattached": 8321,
      "Ġshore": 8322,
      "Ġshared": 8323,
      "ikes": 8324,
      "Ġretired": 8325,
      "ĠSpanish": 8326,
      "Ġhated": 8327,
      "ĠChef": 8328,
      "Ġconsum": 8329,
      "Ġpatience": 8330,
      "Ġfixing": 8331,
      "Ġfella": 8332,
      "Ġcapital": 8333,
      "Ġmeantime": 8334,
      "ĠFlight": 8335,
      "Ġimagination": 8336,
      "Ġcontinues": 8337,
      "ĠRussia": 8338,
      "Ġsucks": 8339,
      "Ġdeveloped": 8340,
      "marks": 8341,
      "Ġemployee": 8342,
      "Ġassigned": 8343,
      "Ġinitial": 8344,
      "Ġfulfill": 8345,
      "ĠMeenamma": 8346,
      "ĠFrodo": 8347,
      "Ġsmoking": 8348,
      "Ġ********": 8349,
      "Ġmanifest": 8350,
      "ĠAnthony": 8351,
      "ĠGnomeo": 8352,
      "\"...": 8353,
      "bot": 8354,
      "master": 8355,
      "onica": 8356,
      "Ġment": 8357,
      "ĠThan": 8358,
      "Ġopt": 8359,
      "Ġoath": 8360,
      "arn": 8361,
      "Ġthunder": 8362,
      "Ġhorn": 8363,
      "ĠHam": 8364,
      "ĠNep": 8365,
      "ĠThea": 8366,
      "Ġren": 8367,
      "Ġjet": 8368,
      "ĠPu": 8369,
      "ĠPho": 8370,
      "iforn": 8371,
      "teries": 8372,
      "Ġabduct": 8373,
      "ĠEvent": 8374,
      "ĠShep": 8375,
      "Ġboar": 8376,
      "ĠVet": 8377,
      "oston": 8378,
      "Ġargue": 8379,
      "Ġadjust": 8380,
      "ĠClick": 8381,
      "ĠBrad": 8382,
      "Ġcommerc": 8383,
      "Ġspeaks": 8384,
      "Ġanswered": 8385,
      "Ġcharged": 8386,
      "Ġvisited": 8387,
      "Ġcursed": 8388,
      "shot": 8389,
      "ĠNeha": 8390,
      "Ġreporter": 8391,
      "Ġ80": 8392,
      "Ġpurcha": 8393,
      "ĠChance": 8394,
      "Ġmuscle": 8395,
      "Ġarmor": 8396,
      "Ġtraveling": 8397,
      "Ġsummit": 8398,
      "Ġexecute": 8399,
      "Ġsuspended": 8400,
      "fortunate": 8401,
      "Ġfleet": 8402,
      "Ġpassports": 8403,
      "Ġkilomet": 8404,
      "ĠBusiness": 8405,
      "ĠBuddy": 8406,
      "ademy": 8407,
      "forcement": 8408,
      "Ġfraud": 8409,
      "Ġfocused": 8410,
      ".?": 8411,
      "Al": 8412,
      "ebe": 8413,
      "moon": 8414,
      "uals": 8415,
      "Ġwrap": 8416,
      "Ġbon": 8417,
      "Ġfu": 8418,
      "Ġfestival": 8419,
      "Ġpie": 8420,
      "ĠHA": 8421,
      "ĠHart": 8422,
      "aser": 8423,
      "Ġuna": 8424,
      "icle": 8425,
      "rial": 8426,
      "ribut": 8427,
      "ĠBass": 8428,
      "ĠBrend": 8429,
      "Ġstorage": 8430,
      "ĠFool": 8431,
      "Ġallerg": 8432,
      "Ġcoma": 8433,
      "emon": 8434,
      "Ġconcept": 8435,
      "Ġvari": 8436,
      "hib": 8437,
      "Ġclip": 8438,
      "Ġboom": 8439,
      "Ġquant": 8440,
      "Ġrogue": 8441,
      "Ġunite": 8442,
      "ords": 8443,
      "ugust": 8444,
      "Ġelimin": 8445,
      "Ġphil": 8446,
      "Ġtrusting": 8447,
      "ĠPrison": 8448,
      "ĠEnnis": 8449,
      "Ġboxes": 8450,
      "Ġtypes": 8451,
      "ĠCarrie": 8452,
      "ĠRamse": 8453,
      "Ġgenerous": 8454,
      "Ġringing": 8455,
      "Ġsharing": 8456,
      "ĠInterest": 8457,
      "Ġrelatives": 8458,
      "Ġcoordinates": 8459,
      "Ġfrozen": 8460,
      "ĠDharma": 8461,
      "ĠHyderabad": 8462,
      "ĠShikre": 8463,
      "Dear": 8464,
      "nic": 8465,
      "thy": 8466,
      "Ġairl": 8467,
      "Ġwore": 8468,
      "have": 8469,
      "Ġyard": 8470,
      "Ġbot": 8471,
      "itar": 8472,
      "Ġfans": 8473,
      "Ġfox": 8474,
      "orious": 8475,
      "..'": 8476,
      "atre": 8477,
      "ĠSC": 8478,
      "ĠHuman": 8479,
      "ĠAM": 8480,
      "Ġbee": 8481,
      "Ġbees": 8482,
      "Ġbeard": 8483,
      "ĠBane": 8484,
      "ĠNet": 8485,
      "ĠDig": 8486,
      "ĠDiana": 8487,
      "ĠOlymp": 8488,
      "ĠGren": 8489,
      "entation": 8490,
      "eck": 8491,
      "ĠFab": 8492,
      "hent": 8493,
      "ĠKub": 8494,
      "Ġconspir": 8495,
      "Ġspark": 8496,
      "icky": 8497,
      "apers": 8498,
      "ucker": 8499,
      "ĠVeg": 8500,
      "Ġunnecess": 8501,
      "ĠInside": 8502,
      "Ġtheirs": 8503,
      "Ġflies": 8504,
      "Ġmatches": 8505,
      "Ġconfusion": 8506,
      "ĠMeera": 8507,
      "Ġskull": 8508,
      "Ġbuildings": 8509,
      "Ġcharm": 8510,
      "ĠEmperor": 8511,
      "ĠElise": 8512,
      "guard": 8513,
      "ĠContin": 8514,
      "ilians": 8515,
      "Ġelement": 8516,
      "Ġsales": 8517,
      "Ġdemons": 8518,
      "ĠCaliforn": 8519,
      "Ġtunnels": 8520,
      "conom": 8521,
      "Ġautomatically": 8522,
      "Ġcandid": 8523,
      "Ġbroadcast": 8524,
      "Ġbribe": 8525,
      "Ġrabbit": 8526,
      "ĠAutobots": 8527,
      "Ġinfluence": 8528,
      "Ġuncomfortable": 8529,
      "200": 8530,
      "EP": 8531,
      "bott": 8532,
      "hu": 8533,
      "lot": 8534,
      "power": 8535,
      "rical": 8536,
      "sion": 8537,
      "zard": 8538,
      "Ġing": 8539,
      "remy": 8540,
      "Ġbum": 8541,
      "Ġlmmy": 8542,
      "eside": 8543,
      "Ġthread": 8544,
      "ĠAP": 8545,
      "Ġmeas": 8546,
      "Ġbeans": 8547,
      "Ġbears": 8548,
      "...'": 8549,
      "acity": 8550,
      "ĠMA": 8551,
      "ĠMY": 8552,
      "ĠMakes": 8553,
      "ĠLeland": 8554,
      "ifying": 8555,
      "ĠKurt": 8556,
      "Ġplastic": 8557,
      "Ġbru": 8558,
      "berg": 8559,
      "oundrel": 8560,
      "ĠVo": 8561,
      "iah": 8562,
      "Ġ27": 8563,
      "igned": 8564,
      "Ġapple": 8565,
      "Ġfinanc": 8566,
      "ĠDeon": 8567,
      "ĠDevelop": 8568,
      "Ġconfidence": 8569,
      "Ġconfiguration": 8570,
      "ĠPrint": 8571,
      "ĠQuit": 8572,
      "Ġrobots": 8573,
      "Ġburnt": 8574,
      "Ġangle": 8575,
      "ĠSimmons": 8576,
      "ĠSynd": 8577,
      "Ġhoneymoon": 8578,
      "Ġremaining": 8579,
      "Ġjoining": 8580,
      "ITH": 8581,
      "Ġparked": 8582,
      "ĠUnderstood": 8583,
      "ĠRayna": 8584,
      "Ġintelligent": 8585,
      "Ġefforts": 8586,
      "Ġwaves": 8587,
      "Ġincrease": 8588,
      "ĠViktor": 8589,
      "Ġwhisper": 8590,
      "Ġimprove": 8591,
      "ĠGermany": 8592,
      "ĠMeena": 8593,
      "Ġpunishment": 8594,
      "ĠOriginal": 8595,
      "Am": 8596,
      "ILL": 8597,
      "Sh": 8598,
      "even": 8599,
      "nold": 8600,
      "oe": 8601,
      "sor": 8602,
      "tra": 8603,
      "want": 8604,
      "water": 8605,
      "help": 8606,
      "Ġsalt": 8607,
      "Ġbored": 8608,
      "itect": 8609,
      "Ġtooth": 8610,
      "Ġfaint": 8611,
      "ĠTim": 8612,
      "eters": 8613,
      "ĠMoose": 8614,
      "ĠDi": 8615,
      "ĠDON": 8616,
      "ĠGL": 8617,
      "ĠLang": 8618,
      "ĠPam": 8619,
      "ĠPand": 8620,
      "ĠFle": 8621,
      "odi": 8622,
      "istics": 8623,
      "Ġplot": 8624,
      "Ġplants": 8625,
      "Ġaggress": 8626,
      "Ġquality": 8627,
      "Ġunstable": 8628,
      "Ġdisgu": 8629,
      "Ġcruel": 8630,
      "Ġtraged": 8631,
      "Ġstrang": 8632,
      "Ġstrict": 8633,
      "Ġcompleted": 8634,
      "Ġpossess": 8635,
      "Ġskill": 8636,
      "ĠManny": 8637,
      "ifteen": 8638,
      "Ġreputation": 8639,
      "ĠSmith": 8640,
      "ĠMarty": 8641,
      "Ġcommunicate": 8642,
      "ĠRao": 8643,
      "Ġtechnically": 8644,
      "ĠJimmy": 8645,
      "Ġpoisoned": 8646,
      "Ġdevelopment": 8647,
      "Ġrevealed": 8648,
      "Ġtools": 8649,
      "ĠFairy": 8650,
      "ĠKnock": 8651,
      "ĠMatthew": 8652,
      "Ġpyram": 8653,
      "Ġaliens": 8654,
      "Ġsettled": 8655,
      "ĠHudson": 8656,
      "Ex": 8657,
      "LES": 8658,
      "ML": 8659,
      "cles": 8660,
      "dad": 8661,
      "hus": 8662,
      "yers": 8663,
      "Ġdign": 8664,
      "ingo": 8665,
      "itching": 8666,
      "Ġnap": 8667,
      "ĠTA": 8668,
      "Ġpanc": 8669,
      "ĠSid": 8670,
      "Ġofthe": 8671,
      "ĠAj": 8672,
      "ĠCP": 8673,
      "riel": 8674,
      "ĠBi": 8675,
      "ĠGaur": 8676,
      "Ġgoons": 8677,
      "ĠLear": 8678,
      "Ġliber": 8679,
      "roc": 8680,
      "ppers": 8681,
      "ĠRess": 8682,
      "ĠFun": 8683,
      "ĠFord": 8684,
      "chid": 8685,
      "ĠJava": 8686,
      "ĠEsc": 8687,
      "Ġatmosp": 8688,
      "ights": 8689,
      "Ġdeploy": 8690,
      "Ġsomeplace": 8691,
      "ulu": 8692,
      "Ġdowntown": 8693,
      "ĠStrange": 8694,
      "resp": 8695,
      "issa": 8696,
      "Ġscheme": 8697,
      "Ġunfortunate": 8698,
      "Ġcared": 8699,
      "aughters": 8700,
      "ocate": 8701,
      "Ġsurgeon": 8702,
      "Ġaccused": 8703,
      "Ġending": 8704,
      "ĠCharu": 8705,
      "Ġsymp": 8706,
      "prise": 8707,
      "ĠFran": 8708,
      "Ġcontrols": 8709,
      "ĠIndeed": 8710,
      "Ġdepart": 8711,
      "Ġfacts": 8712,
      "Ġlocate": 8713,
      "atives": 8714,
      "Ġregister": 8715,
      "boat": 8716,
      "Ġprofit": 8717,
      "Ġradiation": 8718,
      "ĠSaroja": 8719,
      "Ġimagined": 8720,
      "Ġarrival": 8721,
      "ĠReddy": 8722,
      "Ġadvanced": 8723,
      "Ġmiser": 8724,
      "Ġterrorists": 8725,
      "Ġdrawn": 8726,
      "Ġselfish": 8727,
      "Ġimpression": 8728,
      "Ġclaims": 8729,
      "Ġfingerprints": 8730,
      "Ġarrangement": 8731,
      "Ġofficials": 8732,
      "Ġevacuate": 8733,
      "ĠSelvi": 8734,
      "Ġloyalty": 8735,
      "ĠKrishna": 8736,
      "ĠWonderful": 8737,
      "Ġmisunderstanding": 8738,
      "ĠJapanese": 8739,
      "ĠJedi": 8740,
      "Ġtherapy": 8741,
      "Ġtemporary": 8742,
      "ĠfiancÃ©": 8743,
      "Ġargument": 8744,
      "ĠAlfred": 8745,
      "Ġceremony": 8746,
      "ĠUngli": 8747,
      "ĠRessler": 8748,
      "Not": 8749,
      "lished": 8750,
      "vo": 8751,
      "Ã¨": 8752,
      "Ġicon": 8753,
      "Ġties": 8754,
      "Ġtale": 8755,
      "Ġfiring": 8756,
      "Ġgym": 8757,
      "Ġgroups": 8758,
      "Ġloop": 8759,
      "Ġpa": 8760,
      "ety": 8761,
      "step": 8762,
      "Ġhamm": 8763,
      "ĠAy": 8764,
      "ĠMud": 8765,
      "ĠMade": 8766,
      "ĠMaking": 8767,
      "ĠMath": 8768,
      "ĠCreat": 8769,
      "iro": 8770,
      "ĠGone": 8771,
      "ĠLower": 8772,
      "eeze": 8773,
      "ĠRag": 8774,
      "andra": 8775,
      "Ġrack": 8776,
      "igu": 8777,
      "aka": 8778,
      "umps": 8779,
      "Ġsayin": 8780,
      "Ġguilt": 8781,
      "Ġunlock": 8782,
      "ĠCanada": 8783,
      "Ġswallow": 8784,
      "Ġplayers": 8785,
      "Ġlistened": 8786,
      "Ġdrivers": 8787,
      "ensions": 8788,
      "ĠMariko": 8789,
      "ĠRaja": 8790,
      "Ġlaund": 8791,
      "Ġidentified": 8792,
      "ĠPriest": 8793,
      "ĠBoom": 8794,
      "uko": 8795,
      "Ġsilence": 8796,
      "Ġpotato": 8797,
      "ĠHighlight": 8798,
      "Ġsensitive": 8799,
      "Ġunderest": 8800,
      "Ġshocked": 8801,
      "ĠMexican": 8802,
      "Ġcompanies": 8803,
      "marine": 8804,
      "Ġdivorced": 8805,
      "Ġdetermine": 8806,
      "Ġtemperature": 8807,
      "Ġelectricity": 8808,
      "ĠFriends": 8809,
      "levant": 8810,
      "Ġthirsty": 8811,
      "ĠBombay": 8812,
      "ĠGardner": 8813,
      "Ġcommercial": 8814,
      "Good": 8815,
      "Look": 8816,
      "bled": 8817,
      "hour": 8818,
      "ku": 8819,
      "mir": 8820,
      "phy": 8821,
      "pol": 8822,
      "Ġsem": 8823,
      "Ġbureau": 8824,
      "orough": 8825,
      "Ġlun": 8826,
      "ĠWol": 8827,
      "Ġnar": 8828,
      "Ġheav": 8829,
      "stall": 8830,
      "ĠYell": 8831,
      "Ġthick": 8832,
      "ĠSana": 8833,
      "ĠSully": 8834,
      "Ġwears": 8835,
      "ĠBeez": 8836,
      "ĠDEA": 8837,
      "Ġforth": 8838,
      "Ġwashed": 8839,
      "hore": 8840,
      "ĠPardon": 8841,
      "ĠRub": 8842,
      "ĠRavi": 8843,
      "Ġrats": 8844,
      "istent": 8845,
      "ĠKim": 8846,
      "aksh": 8847,
      "Ġconven": 8848,
      "ĠStud": 8849,
      "ĠDog": 8850,
      "udd": 8851,
      "ĠAnanya": 8852,
      "Ġswe": 8853,
      "Ġowns": 8854,
      "Ġshoe": 8855,
      "Ġrecovered": 8856,
      "Ġdesc": 8857,
      "ĠExp": 8858,
      "Ġ400": 8859,
      "Ġresort": 8860,
      "Ġtowel": 8861,
      "Ġsignature": 8862,
      "ĠAbhay": 8863,
      "Ġinternal": 8864,
      "Ġdestro": 8865,
      "Ġdepend": 8866,
      "Ġdeposit": 8867,
      "ANS": 8868,
      "neath": 8869,
      "ĠHero": 8870,
      "Ġpositions": 8871,
      "ĠTej": 8872,
      "Ġtyp": 8873,
      "Ġrocket": 8874,
      "Ġterrif": 8875,
      "ĠMadhav": 8876,
      "Ġdrawing": 8877,
      "Ġkidnapping": 8878,
      "Ġinvestigate": 8879,
      "ĠCorpor": 8880,
      "Ġanti": 8881,
      "ĠJeremy": 8882,
      "Ġsandwich": 8883,
      "ĠWalker": 8884,
      "ritory": 8885,
      "ĠMindy": 8886,
      "Ġholy": 8887,
      "Ġunconscious": 8888,
      "Ġdomin": 8889,
      "ĠConsider": 8890,
      "Ġvampire": 8891,
      "ĠHindi": 8892,
      "Ġindividual": 8893,
      "Ġbelieving": 8894,
      "ropriate": 8895,
      "ĠNandini": 8896,
      "ĠVegas": 8897,
      "ĠCalifornia": 8898,
      "ĠGaurav": 8899,
      "SE": 8900,
      "conscious": 8901,
      "gers": 8902,
      "ride": 8903,
      "uated": 8904,
      "viet": 8905,
      "while": 8906,
      "Ġdiss": 8907,
      "Ġfare": 8908,
      "ĠWed": 8909,
      "ĠWitch": 8910,
      "athered": 8911,
      "ĠAugust": 8912,
      "Ġmel": 8913,
      "Ġisol": 8914,
      "Ġego": 8915,
      "ĠChat": 8916,
      "ril": 8917,
      "ĠTheme": 8918,
      "ĠPerson": 8919,
      "ĠFigure": 8920,
      "ĠJob": 8921,
      "ĠJup": 8922,
      "Ġash": 8923,
      "Ġrings": 8924,
      "ĠKings": 8925,
      "Ġproved": 8926,
      "ĠDoyle": 8927,
      "ĠVill": 8928,
      "Ġunderneath": 8929,
      "Ġ28": 8930,
      "ocks": 8931,
      "inton": 8932,
      "Ġworlds": 8933,
      "Ġshopping": 8934,
      "Ġserving": 8935,
      "ĠJackie": 8936,
      "Ġdrives": 8937,
      "Ġchoo": 8938,
      "Ġchaos": 8939,
      "ĠProper": 8940,
      "ĠMehra": 8941,
      "ĠLeon": 8942,
      "Ġdeaths": 8943,
      "Ġaircraft": 8944,
      "Ġhighway": 8945,
      "Ġlocker": 8946,
      "Ġdragged": 8947,
      "Ġtracked": 8948,
      "ĠBenny": 8949,
      "ĠBenji": 8950,
      "Ġ75": 8951,
      "Ġsearched": 8952,
      "Ġ815": 8953,
      "Ġparole": 8954,
      "ronic": 8955,
      "Ġprivile": 8956,
      "ĠBaba": 8957,
      "Ġmotive": 8958,
      "Ġannoy": 8959,
      "ĠDisplay": 8960,
      "ĠRadha": 8961,
      "ĠCenter": 8962,
      "Ġcustomer": 8963,
      "Ġshadows": 8964,
      "Ġflew": 8965,
      "ĠSafe": 8966,
      "Ġdeterm": 8967,
      "Ġassumed": 8968,
      "Ġarchitect": 8969,
      "Ġjewelry": 8970,
      "Ġfilthy": 8971,
      "Ġparticularly": 8972,
      "Ass": 8973,
      "directory": 8974,
      "kok": 8975,
      "nik": 8976,
      "uum": 8977,
      "reaking": 8978,
      "Ġfifty": 8979,
      "Ġgall": 8980,
      "ening": 8981,
      "ĠWAS": 8982,
      "ĠWOM": 8983,
      "Ġnail": 8984,
      "owing": 8985,
      "ĠTrent": 8986,
      "otic": 8987,
      "armed": 8988,
      "Ġhill": 8989,
      "ĠHolly": 8990,
      "ĠMountain": 8991,
      "ĠBoston": 8992,
      "hoven": 8993,
      "ĠFil": 8994,
      "Ġabuse": 8995,
      "Ġshh": 8996,
      "odka": 8997,
      "Ġrice": 8998,
      "ushing": 8999,
      "istol": 9000,
      "ĠSoviet": 9001,
      "itty": 9002,
      "Ġintel": 9003,
      "Ġshoulders": 9004,
      "Ġcliff": 9005,
      "Ġsevere": 9006,
      "ĠInc": 9007,
      "ĠIncoming": 9008,
      "ugu": 9009,
      "Ġpolite": 9010,
      "Ġslapped": 9011,
      "autas": 9012,
      "Ġconfess": 9013,
      "Ġcompliment": 9014,
      "aza": 9015,
      "Ġcorruption": 9016,
      "ĠCommission": 9017,
      "ĠMaria": 9018,
      "ĠPrinc": 9019,
      "ĠFrance": 9020,
      "Ġlearnt": 9021,
      "Ġhalfway": 9022,
      "Ġdistress": 9023,
      "ANT": 9024,
      "OULD": 9025,
      "Ġdiary": 9026,
      "Ġbargain": 9027,
      "Ġradar": 9028,
      "ĠSyl": 9029,
      "Ġcentral": 9030,
      "Ġtreating": 9031,
      "Ġpreparing": 9032,
      "ĠDevon": 9033,
      "ĠImport": 9034,
      "Ġgrabbed": 9035,
      "Ġreminds": 9036,
      "check": 9037,
      "ĠRenautas": 9038,
      "Ġthrone": 9039,
      "ĠRepeat": 9040,
      "Ġorigin": 9041,
      "ĠFaraday": 9042,
      "Ġprecise": 9043,
      "Ġchampagne": 9044,
      "Ġadopted": 9045,
      "Ġpirate": 9046,
      "ĠLabs": 9047,
      "Ġmaximum": 9048,
      "Ġapplied": 9049,
      "ĠBeethoven": 9050,
      "Ġdeaf": 9051,
      "ĠAleya": 9052,
      "Ġcancelled": 9053,
      "ĠMadhavgarh": 9054,
      "ORE": 9055,
      "Please": 9056,
      "Ġtensed": 9057,
      "Ġdish": 9058,
      "Ġgig": 9059,
      "ĠTina": 9060,
      "Ġpant": 9061,
      "sto": 9062,
      "Ġhood": 9063,
      "ĠSens": 9064,
      "ĠAha": 9065,
      "ria": 9066,
      "ĠHear": 9067,
      "ĠGang": 9068,
      "ĠLO": 9069,
      "ĠPoint": 9070,
      "ĠFountain": 9071,
      "ĠKu": 9072,
      "ĠKai": 9073,
      "ĠKids": 9074,
      "abouts": 9075,
      "Ġbranch": 9076,
      "avor": 9077,
      "uba": 9078,
      "Ġshares": 9079,
      "Ġmighty": 9080,
      "Ġrap": 9081,
      "Ġrape": 9082,
      "Ġfinest": 9083,
      "ĠUniversity": 9084,
      "Ġhates": 9085,
      "ĠGotham": 9086,
      "Ġtries": 9087,
      "ĠHari": 9088,
      "ĠQuill": 9089,
      "ĠQuestion": 9090,
      "Ġawait": 9091,
      "Ġinterests": 9092,
      "ĠPreview": 9093,
      "Ġmagaz": 9094,
      "Ġstudies": 9095,
      "Ġfiled": 9096,
      "Ġadvised": 9097,
      "Ġposted": 9098,
      "Ġblocked": 9099,
      "ĠHasn": 9100,
      "ĠSweetheart": 9101,
      "Ġflee": 9102,
      "ĠLiar": 9103,
      "ĠLiqu": 9104,
      "Ġelderman": 9105,
      "ĠVeronica": 9106,
      "Ġassociate": 9107,
      "aggins": 9108,
      "Ġsomethin": 9109,
      "Ġeducation": 9110,
      "orgeous": 9111,
      "Ġdeclared": 9112,
      "Ġplatform": 9113,
      "Ġdelicious": 9114,
      "Ġcolleague": 9115,
      "Ġjerk": 9116,
      "ĠIsabel": 9117,
      "ĠGabriel": 9118,
      "encies": 9119,
      "Ġconscience": 9120,
      "'!": 9121,
      "99": 9122,
      "Can": 9123,
      "Cle": 9124,
      "__": 9125,
      "aign": 9126,
      "rd": 9127,
      "wait": 9128,
      "Ðµ": 9129,
      "ĠIp": 9130,
      "ĠIgn": 9131,
      "Ġcertificate": 9132,
      "Ġfug": 9133,
      "Ġgrief": 9134,
      "ĠTown": 9135,
      "ĠTang": 9136,
      "Ġpip": 9137,
      "ario": 9138,
      "ĠYash": 9139,
      "ĠSom": 9140,
      "ĠSad": 9141,
      "ĠShen": 9142,
      "ĠSach": 9143,
      "Ġinch": 9144,
      "Ġease": 9145,
      "ĠMith": 9146,
      "ĠBha": 9147,
      "ĠGam": 9148,
      "ĠLay": 9149,
      "lying": 9150,
      "Ġwithd": 9151,
      "ĠRancho": 9152,
      "ĠRiley": 9153,
      "ĠFib": 9154,
      "Ġherd": 9155,
      "Ġric": 9156,
      "Ġsale": 9157,
      "abor": 9158,
      "abber": 9159,
      "ĠStri": 9160,
      "Ġvul": 9161,
      "eping": 9162,
      "Ġflare": 9163,
      "Ġdisgr": 9164,
      "Ġgray": 9165,
      "Ġglo": 9166,
      "unts": 9167,
      "Ġsentiment": 9168,
      "maan": 9169,
      "Ġsecretary": 9170,
      "Ġdistrict": 9171,
      "Ġvest": 9172,
      "Ġdivers": 9173,
      "Ġtesting": 9174,
      "Ġtested": 9175,
      "ĠEmergency": 9176,
      "ĠPlug": 9177,
      "ĠSmart": 9178,
      "going": 9179,
      "Ġdeeper": 9180,
      "Ġenjoyed": 9181,
      "Ġcasual": 9182,
      "Ġdevices": 9183,
      "Ġexisted": 9184,
      "Ġcontainment": 9185,
      "Ġanniversary": 9186,
      "ĠGerry": 9187,
      "ĠWindows": 9188,
      "ĠCollins": 9189,
      "Ġconfirmation": 9190,
      "ĠDecept": 9191,
      "ĠAnnunz": 9192,
      "Ġreplaced": 9193,
      "Ġtalented": 9194,
      "Ġmechanic": 9195,
      "Ġstructure": 9196,
      "Ġ1206": 9197,
      "=\\\\\\\\{@}": 9198,
      "ĠBeezus": 9199,
      "ĠAnnunzio": 9200,
      "14": 9201,
      "DER": 9202,
      "ghan": 9203,
      "hor": 9204,
      "iating": 9205,
      "sir": 9206,
      "wide": 9207,
      "hell": 9208,
      "heast": 9209,
      "reg": 9210,
      "Ġdent": 9211,
      "itals": 9212,
      "Ġge": 9213,
      "omatic": 9214,
      "ĠHun": 9215,
      "ĠHook": 9216,
      "ĠHide": 9217,
      "Ġbeacon": 9218,
      "ĠMP": 9219,
      "ĠMun": 9220,
      "ĠMist": 9221,
      "ĠMuch": 9222,
      "ĠMult": 9223,
      "ĠCand": 9224,
      "ĠBless": 9225,
      "ĠNathan": 9226,
      "ĠDV": 9227,
      "Ġreaching": 9228,
      "ĠGPS": 9229,
      "ĠPage": 9230,
      "eable": 9231,
      "ĠEOL": 9232,
      "Ġworries": 9233,
      "umble": 9234,
      "Ġsheep": 9235,
      "quis": 9236,
      "ques": 9237,
      "apa": 9238,
      "three": 9239,
      "Ġblows": 9240,
      "aved": 9241,
      "harge": 9242,
      "Ġwrist": 9243,
      "Ġ2000": 9244,
      "Ġrealise": 9245,
      "ĠBrown": 9246,
      "ivated": 9247,
      "Ġopens": 9248,
      "Ġpainful": 9249,
      "Ġlocated": 9250,
      "à¶¸": 9251,
      "Ġformat": 9252,
      "Ġcolors": 9253,
      "Ġproperties": 9254,
      "ĠMonkeys": 9255,
      "ĠHaving": 9256,
      "uggage": 9257,
      "Ġreflect": 9258,
      "Ġstarving": 9259,
      "Ġterribly": 9260,
      "Ġdamaged": 9261,
      "Ġpaperwork": 9262,
      "ASE": 9263,
      "Ġpaths": 9264,
      "ĠJeff": 9265,
      "Ġrebuild": 9266,
      "warf": 9267,
      "netic": 9268,
      "because": 9269,
      "ĠMoses": 9270,
      "Ġaudience": 9271,
      "Ġcitizen": 9272,
      "ĠMuslim": 9273,
      "ĠLibby": 9274,
      "Ġretirement": 9275,
      "ĠOceanic": 9276,
      "Ġnewspaper": 9277,
      "ĠToby": 9278,
      "ĠInteresting": 9279,
      "ĠWOMAN": 9280,
      "An": 9281,
      "after": 9282,
      "brew": 9283,
      "cr": 9284,
      "eper": 9285,
      "minal": 9286,
      "ober": 9287,
      "ricted": 9288,
      "won": 9289,
      "Ã¼": 9290,
      "ouille": 9291,
      "Ġsari": 9292,
      "Ġmr": 9293,
      "Ġbind": 9294,
      "Ġbald": 9295,
      "Ġbeside": 9296,
      "Ġfert": 9297,
      "Ġfifth": 9298,
      "Ġlength": 9299,
      "Ġnerve": 9300,
      "ĠTar": 9301,
      "ĠSort": 9302,
      "Ġbearing": 9303,
      "ĠMount": 9304,
      "outhern": 9305,
      "ĠBoo": 9306,
      "ĠBrow": 9307,
      "ado": 9308,
      "ĠDenn": 9309,
      "Ġjury": 9310,
      "ĠPsy": 9311,
      "urd": 9312,
      "ĠRiva": 9313,
      "ĠAndre": 9314,
      "Ġwanting": 9315,
      "Ġworn": 9316,
      "Ġworthy": 9317,
      "ĠThrough": 9318,
      "Ġspect": 9319,
      "Ġvital": 9320,
      "Ġvalley": 9321,
      "ousse": 9322,
      "ĠWherever": 9323,
      "Ġremark": 9324,
      "Ġprem": 9325,
      "Ġkiddo": 9326,
      "Ġcompared": 9327,
      "iano": 9328,
      "Ġstrate": 9329,
      "Ġhumili": 9330,
      "Ġglobal": 9331,
      "Ġconfigure": 9332,
      "Ġconfession": 9333,
      "ĠScot": 9334,
      "ĠScrew": 9335,
      "Ġpossession": 9336,
      "Ġshooter": 9337,
      "ĠNews": 9338,
      "Ġlawyers": 9339,
      "Ġboats": 9340,
[...]
