{
  "0": "[PAD]",
  "1": "[UNK]",
  "2": "[BOS]",
  "3": "[EOS]",
  "4": "!",
  "5": "\"",
  "6": "#",
  "7": "$",
  "8": "%",
  "9": "&",
  "10": "'",
  "11": "(",
  "12": ")",
  "13": "*",
  "14": "+",
  "15": ",",
  "16": "-",
  "17": ".",
  "18": "/",
  "19": "0",
  "20": "1",
  "21": "1ி",
  "22": "2",
  "23": "3",
  "24": "4",
  "25": "5",
  "26": "6",
  "27": "7",
  "28": "8",
  "29": "9",
  "30": ":",
  "31": ";",
  "32": "<",
  "33": "=",
  "34": ">",
  "35": "?",
  "36": "@",
  "37": "A",
  "38": "B",
  "39": "C",
  "40": "Ĉ",
  "41": "D",
  "42": "E",
  "43": "Eை",
  "44": "F",
  "45": "G",
  "46": "H",
  "47": "I",
  "48": "J",
  "49": "K",
  "50": "L",
  "51": "M",
  "52": "N",
  "53": "O",
  "54": "P",
  "55": "Q",
  "56": "R",
  "57": "S",
  "58": "Ś",
  "59": "T",
  "60": "U",
  "61": "V",
  "62": "W",
  "63": "X",
  "64": "Y",
  "65": "Z",
  "66": "[",
  "67": "\\",
  "68": "]",
  "69": "^",
  "70": "_",
  "71": "`",
  "72": "a",
  "73": "aை",
  "74": "b",
  "75": "c",
  "76": "d",
  "77": "e",
  "78": "f",
  "79": "g",
  "80": "h",
  "81": "i",
  "82": "j",
  "83": "k",
  "84": "l",
  "85": "m",
  "86": "n",
  "87": "o",
  "88": "p",
  "89": "q",
  "90": "r",
  "91": "r்",
  "92": "s",
  "93": "t",
  "94": "u",
  "95": "v",
  "96": "w",
  "97": "x",
  "98": "y",
  "99": "z",
  "100": "{",
  "101": "}",
  "102": "~",
  "103": "",
  "104": "",
  "105": "",
  "106": "¡",
  "107": "¢",
  "108": "£",
  "109": "¤",
  "110": "¥",
  "111": "¦",
  "112": "§",
  "113": "¨",
  "114": "©",
  "115": "«",
  "116": "¬",
  "117": "®",
  "118": "¯",
  "119": "°",
  "120": "±",
  "121": "²",
  "122": "³",
  "123": "´",
  "124": "µ",
  "125": "¶",
  "126": "·",
  "127": "¸",
  "128": "¹",
  "129": "º",
  "130": "»",
  "131": "¼",
  "132": "½",
  "133": "¾",
  "134": "¿",
  "135": "À",
  "136": "Á",
  "137": "Â",
  "138": "Ã",
  "139": "Ä",
  "140": "Å",
  "141": "Æ",
  "142": "Ç",
  "143": "È",
  "144": "É",
  "145": "Ê",
  "146": "Ë",
  "147": "Ì",
  "148": "Ìு",
  "149": "Í",
  "150": "Î",
  "151": "Ï",
  "152": "Ð",
  "153": "Ñ",
  "154": "Ò",
  "155": "Ó",
  "156": "Ô",
  "157": "Õ",
  "158": "Ö",
  "159": "×",
  "160": "Ø",
  "161": "Ù",
  "162": "Ú",
  "163": "Û",
  "164": "Ü",
  "165": "Ý",
  "166": "Þ",
  "167": "ß",
  "168": "à",
  "169": "á",
  "170": "â",
  "171": "ã",
  "172": "ä",
  "173": "å",
  "174": "æ",
  "175": "ç",
  "176": "è",
  "177": "é",
  "178": "ê",
  "179": "ì",
  "180": "í",
  "181": "î",
  "182": "ï",
  "183": "ð",
  "184": "ñ",
  "185": "ò",
  "186": "ó",
  "187": "ô",
  "188": "õ",
  "189": "ö",
  "190": "÷",
  "191": "ø",
  "192": "ù",
  "193": "ú",
  "194": "û",
  "195": "ü",
  "196": "ý",
  "197": "þ",
  "198": "ÿ",
  "199": "θ",
  "200": "ஃ",
  "201": "ஃொ",
  "202": "அ",
  "203": "ஆ",
  "204": "இ",
  "205": "இி",
  "206": "ஈ",
  "207": "ஈா",
  "208": "உ",
  "209": "ஊ",
  "210": "எ",
  "211": "ஏ",
  "212": "ஐ",
  "213": "ஒ",
  "214": "ஒொ",
  "215": "ஓ",
  "216": "ஔ",
  "217": "க",
  "218": "கா",
  "219": "கி",
  "220": "கீ",
  "221": "கு",
  "222": "கூ",
  "223": "கெ",
  "224": "கொ",
  "225": "கௌ",
  "226": "கே",
  "227": "கோ",
  "228": "கை",
  "229": "கை்",
  "230": "கொ",
  "231": "கோ",
  "232": "கௌ",
  "233": "க்",
  "234": "க்்",
  "235": "ங",
  "236": "ஙி",
  "237": "ங்",
  "238": "ங்ே",
  "239": "ச",
  "240": "சா",
  "241": "சி",
  "242": "சிா",
  "243": "சீ",
  "244": "சீ்",
  "245": "சு",
  "246": "சூ",
  "247": "செ",
  "248": "சொ",
  "249": "சே",
  "250": "சோ",
  "251": "சை",
  "252": "சைா",
  "253": "சைு",
  "254": "சைை",
  "255": "சை்",
  "256": "சொ",
  "257": "சோ",
  "258": "சௌ",
  "259": "ச்",
  "260": "ச்ை",
  "261": "ஜ",
  "262": "ஜா",
  "263": "ஜி",
  "264": "ஜீ",
  "265": "ஜு",
  "266": "ஜூ",
  "267": "ஜெ",
  "268": "ஜொ",
  "269": "ஜே",
  "270": "ஜோ",
  "271": "ஜை",
  "272": "ஜொ",
  "273": "ஜொா",
  "274": "ஜோ",
  "275": "ஜ்",
  "276": "ஞ",
  "277": "ஞா",
  "278": "ஞி",
  "279": "ஞை",
  "280": "ஞ்",
  "281": "ட",
  "282": "டா",
  "283": "டி",
  "284": "டீ",
  "285": "டு",
  "286": "டு்",
  "287": "டூ",
  "288": "டெ",
  "289": "டொ",
  "290": "டே",
  "291": "டோ",
  "292": "டை",
  "293": "டொ",
  "294": "டோ",
  "295": "டௌ",
  "296": "ட்",
  "297": "஡",
  "298": "ண",
  "299": "ணா",
  "300": "ணி",
  "301": "ணிி",
  "302": "ணீ",
  "303": "ணு",
  "304": "ணூ",
  "305": "ணெ",
  "306": "ணே",
  "307": "ணை",
  "308": "ணொ",
  "309": "ணோ",
  "310": "ண்",
  "311": "த",
  "312": "தா",
  "313": "தி",
  "314": "திு",
  "315": "தி்",
  "316": "தீ",
  "317": "து",
  "318": "துு",
  "319": "தூ",
  "320": "தெ",
  "321": "தொ",
  "322": "தே",
  "323": "தோ",
  "324": "தை",
  "325": "தொ",
  "326": "தோ",
  "327": "தௌ",
  "328": "த்",
  "329": "த்ு",
  "330": "த்ை",
  "331": "஦",
  "332": "ந",
  "333": "நா",
  "334": "நி",
  "335": "நீ",
  "336": "நு",
  "337": "நூ",
  "338": "நெ",
  "339": "நொ",
  "340": "நே",
  "341": "நோ",
  "342": "நை",
  "343": "நொ",
  "344": "நோ",
  "345": "நௌ",
  "346": "நௌௗ",
  "347": "ந்",
  "348": "ன",
  "349": "னா",
  "350": "னா்",
  "351": "னி",
  "352": "னீ",
  "353": "னு",
  "354": "னுா",
  "355": "னூ",
  "356": "னெ",
  "357": "னொ",
  "358": "னே",
  "359": "னோ",
  "360": "னே்",
  "361": "னை",
  "362": "னைை",
  "363": "னொ",
  "364": "னோ",
  "365": "னௌ",
  "366": "ன்",
  "367": "ன்ி",
  "368": "ன்ெ",
  "369": "ன்்",
  "370": "ப",
  "371": "பா",
  "372": "பி",
  "373": "பி்",
  "374": "பீ",
  "375": "பு",
  "376": "பூ",
  "377": "பெ",
  "378": "பொ",
  "379": "பே",
  "380": "போ",
  "381": "பை",
  "382": "பொ",
  "383": "போ",
  "384": "பௌ",
  "385": "ப்",
  "386": "ப்்",
  "387": "ம",
  "388": "மா",
  "389": "மாு",
  "390": "மி",
  "391": "மீ",
  "392": "மு",
  "393": "மு்",
  "394": "மூ",
  "395": "மெ",
  "396": "மொ",
  "397": "மே",
  "398": "மோ",
  "399": "மை",
  "400": "மைை",
  "401": "மொ",
  "402": "மோ",
  "403": "மௌ",
  "404": "ம்",
  "405": "ம்ு",
  "406": "ம்்",
  "407": "ய",
  "408": "யா",
  "409": "யாா",
  "410": "யி",
  "411": "யீ",
  "412": "யு",
  "413": "யூ",
  "414": "யெ",
  "415": "யொ",
  "416": "யே",
  "417": "யோ",
  "418": "யை",
  "419": "யைா",
  "420": "யொ",
  "421": "யோ",
  "422": "ய்",
  "423": "ய்ா",
  "424": "ர",
  "425": "ரா",
  "426": "ரி",
  "427": "ரிி",
  "428": "ரி்",
  "429": "ரீ",
  "430": "ரு",
  "431": "ரூ",
  "432": "ரெ",
  "433": "ரொ",
  "434": "ரே",
  "435": "ரோ",
  "436": "ரை",
  "437": "ரொ",
  "438": "ரோ",
  "439": "ரௌ",
  "440": "ர்",
  "441": "ர்்",
  "442": "ற",
  "443": "றா",
  "444": "றி",
  "445": "றீ",
  "446": "று",
  "447": "றுை",
  "448": "றூ",
  "449": "றெ",
  "450": "றொ",
  "451": "றே",
  "452": "றோ",
  "453": "றை",
  "454": "றொ",
  "455": "றோ",
  "456": "ற்",
  "457": "ல",
  "458": "லா",
  "459": "லா்்",
  "460": "லி",
  "461": "லீ",
  "462": "லு",
  "463": "லூ",
  "464": "லெ",
  "465": "லொ",
  "466": "லே",
  "467": "லோ",
  "468": "லே்",
  "469": "லை",
  "470": "லை்",
  "471": "லொ",
  "472": "லோ",
  "473": "லௌ",
  "474": "ல்",
  "475": "ல்ி",
  "476": "ல்ே",
  "477": "ல்ை",
  "478": "ல்்",
  "479": "ள",
  "480": "ளா",
  "481": "ளி",
  "482": "ளி்",
  "483": "ளீ",
  "484": "ளு",
  "485": "ளூ",
  "486": "ளெ",
  "487": "ளே",
  "488": "ளோ",
  "489": "ளை",
  "490": "ளொ",
  "491": "ளோ",
  "492": "ள்",
  "493": "ள்ு",
  "494": "ழ",
  "495": "ழா",
  "496": "ழி",
  "497": "ழு",
  "498": "ழூ",
  "499": "ழெ",
  "500": "ழே",
  "501": "ழோ",
  "502": "ழை",
  "503": "ழைு",
  "504": "ழொ",
  "505": "ழ்",
  "506": "வ",
  "507": "வா",
  "508": "வி",
  "509": "வி்",
  "510": "வீ",
  "511": "வு",
  "512": "வுு",
  "513": "வூ",
  "514": "வெ",
  "515": "வொ",
  "516": "வே",
  "517": "வோ",
  "518": "வேை",
  "519": "வை",
  "520": "வொ",
  "521": "வோ",
  "522": "வௌ",
  "523": "வ்",
  "524": "ஷ",
  "525": "ஷா",
  "526": "ஷி",
  "527": "ஷீ",
  "528": "ஷு",
  "529": "ஷூ",
  "530": "ஷெ",
  "531": "ஷே",
  "532": "ஷோ",
  "533": "ஷை",
  "534": "ஷோ",
  "535": "ஷ்",
  "536": "ஸ",
  "537": "ஸா",
  "538": "ஸி",
  "539": "ஸீ",
  "540": "ஸு",
  "541": "ஸூ",
  "542": "ஸெ",
  "543": "ஸே",
  "544": "ஸை",
  "545": "ஸொ",
  "546": "ஸோ",
  "547": "ஸ்",
  "548": "ஹ",
  "549": "ஹா",
  "550": "ஹி",
  "551": "ஹீ",
  "552": "ஹு",
  "553": "ஹூ",
  "554": "ஹெ",
  "555": "ஹே",
  "556": "ஹோ",
  "557": "ஹை",
  "558": "ஹொ",
  "559": "ஹோ",
  "560": "ஹௌ",
  "561": "ஹ்",
  "562": "௾",
  "563": "‐",
  "564": "–",
  "565": "—",
  "566": "‘",
  "567": "’",
  "568": "“",
  "569": "”",
  "570": "„",
  "571": "†",
  "572": "‡",
  "573": "•",
  "574": "‫",
  "575": "‬",
  "576": "‰",
  "577": "⁄",
  "578": "₣",
  "579": "₪",
  "580": "₫",
  "581": "€",
  "582": "™",
  "583": "→",
  "584": "▁",
  "585": "▁ா",
  "586": "▁ி",
  "587": "▁ீ",
  "588": "▁ு",
  "589": "▁ெ",
  "590": "▁ே",
  "591": "▁ை",
  "592": "▁்",
  "593": "♪",
  "594": "�",
  "595": "▁அ",
  "596": "கள்",
  "597": "▁இ",
  "598": "▁(",
  "599": "வர்",
  "600": "▁எ",
  "601": "க்கு",
  "602": "▁உ",
  "603": "▁அவர்",
  "604": "ங்கள்",
  "605": "ப்ப",
  "606": "க்க",
  "607": "களு",
  "608": "▁செ",
  "609": "▁கொ",
  "610": "களை",
  "611": "▁நீ",
  "612": "▁ப",
  "613": "ல்லா",
  "614": "▁நா",
  "615": "க்கி",
  "616": "▁நி",
  "617": "▁வ",
  "618": "▁வி",
  "619": "யும்",
  "620": "▁த",
  "621": "▁என்",
  "622": "த்து",
  "623": "▁ம",
  "624": "▁இரு",
  "625": "▁அவ",
  "626": "த்தி",
  "627": "▁ந",
  "628": "ர்கள்",
  "629": "▁செய்",
  "630": "மாக",
  "631": "ந்த",
  "632": "ல்லாஹ்",
  "633": "▁ஆ",
  "634": "களி",
  "635": "▁மு",
  "636": "ந்து",
  "637": "▁அல்லாஹ்",
  "638": "▁கூ",
  "639": "களுக்கு",
  "640": "ச்ச",
  "641": "ட்ட",
  "642": "▁அவர்கள்",
  "643": "டைய",
  "644": "▁ஒ",
  "645": "▁க",
  "646": "▁\"",
  "647": "யமாக",
  "648": "▁நீங்கள்",
  "649": "ட்டு",
  "650": "ண்டு",
  "651": "▁பி",
  "652": "த்த",
  "653": "வும்",
  "654": "னும்",
  "655": "ச்சயமாக",
  "656": "லும்",
  "657": "ல்லை",
  "658": "▁ச",
  "659": "▁வே",
  "660": "▁நிச்சயமாக",
  "661": "▁கா",
  "662": "▁என்று",
  "663": "▁-",
  "664": "▁உங்",
  "665": "ள்ள",
  "666": "ரும்",
  "667": "ற்றி",
  "668": "ப்பு",
  "669": "த்தா",
  "670": "▁பா",
  "671": "▁ஒரு",
  "672": "த்தை",
  "673": "வன்",
  "674": "க்கும்",
  "675": "▁மீ",
  "676": "▁மே",
  "677": "களா",
  "678": "▁பெ",
  "679": "ல்ல",
  "680": "▁நாம்",
  "681": "▁இன்",
  "682": "▁கு",
  "683": "▁போ",
  "684": "ராக",
  "685": "னால்",
  "686": "▁வா",
  "687": "▁மா",
  "688": "▁இருக்கி",
  "689": "▁கொண்",
  "690": "யில்",
  "691": "ட்டா",
  "692": "▁இன்னும்",
  "693": "டம்",
  "694": "ப்பி",
  "695": "▁தி",
  "696": "ருந்து",
  "697": "னர்",
  "698": "▁நான்",
  "699": "▁ஏ",
  "700": "களில்",
  "701": "ப்படு",
  "702": "தற்",
  "703": "ட்டி",
  "704": "ற்று",
  "705": "▁இறை",
  "706": "வர்கள்",
  "707": "▁பொ",
  "708": "கிறா",
  "709": "கவும்",
  "710": "க்கா",
  "711": "..",
  "712": "▁அவன்",
  "713": "▁மி",
  "714": "ன்று",
  "715": "▁தா",
  "716": "▁மீது",
  "717": "▁பு",
  "718": "▁அறி",
  "719": "ன்றி",
  "720": "▁சி",
  "721": "▁கூறு",
  "722": "யாக",
  "723": "▁பின்",
  "724": "ங்களை",
  "725": "ப்பா",
  "726": "ற்ற",
  "727": "தனை",
  "728": "▁நீர்",
  "729": "▁வெ",
  "730": "கும்",
  "731": "▁கொண்டு",
  "732": "ன்றா",
  "733": "▁கூறி",
  "734": "▁மேலும்",
  "735": "ன்ற",
  "736": "▁என",
  "737": "▁கொள்",
  "738": "me",
  "739": "▁அவர்களுக்கு",
  "740": "வில்லை",
  "741": "on",
  "742": "ப்பட்ட",
  "743": "களுடைய",
  "744": "லிருந்து",
  "745": "▁நம்",
  "746": "▁கே",
  "747": "▁உங்களுக்கு",
  "748": "த்தில்",
  "749": "▁n",
  "750": "றது",
  "751": "▁அல்லாஹ்வி",
  "752": "▁உங்கள்",
  "753": "த்துக்",
  "754": "கவே",
  "755": "▁தே",
  "756": "டன்",
  "757": "மான",
  "758": "க்கை",
  "759": "டிய",
  "760": "ரிய",
  "761": "▁உம்",
  "762": "▁சா",
  "763": "ற்றை",
  "764": "ந்தா",
  "765": "ti",
  "766": "▁நே",
  "767": "▁வழி",
  "768": "▁கொடு",
  "769": "பியே",
  "770": "▁முன்",
  "771": "▁செய்து",
  "772": "▁இறைவ",
  "773": "▁அல்ல",
  "774": "!)",
  "775": "▁பய",
  "776": "▁கி",
  "777": "▁அவர்களை",
  "778": "களும்",
  "779": "ங்கு",
  "780": "▁தூ",
  "781": ";.",
  "782": "ந்தி",
  "783": "ப்போ",
  "784": "ர்க",
  "785": "▁சு",
  "786": "▁நன்",
  "787": "நபியே",
  "788": "தற்கு",
  "789": "ருக்கு",
  "790": "ர்களா",
  "791": "ame",
  "792": "வ்வா",
  "793": "▁யா",
  "794": "களின்",
  "795": "▁ஆனால்",
  "796": "▁கூறினா",
  "797": "▁உள்ள",
  "798": "▁இல்லை",
  "799": "▁வை",
  "800": "▁உண்",
  "801": "▁t",
  "802": "ட்சி",
  "803": "▁மூ",
  "804": "படு",
  "805": "▁முடி",
  "806": "டிரு",
  "807": "an",
  "808": "▁அதி",
  "809": "tion",
  "810": "ரம்",
  "811": "▁விட்டு",
  "812": "▁தீ",
  "813": "▁பூ",
  "814": "▁தெ",
  "815": "யான",
  "816": "வனா",
  "817": "ங்கி",
  "818": "▁அல்லது",
  "819": "▁சே",
  "820": "▁1",
  "821": "▁செய்ய",
  "822": "▁சொ",
  "823": "▁அது",
  "824": "▁அல்லாஹ்வின்",
  "825": "னுடைய",
  "826": "வற்றை",
  "827": "▁ஈ",
  "828": "▁விடு",
  "829": "தன்",
  "830": "in",
  "831": "▁ஓ",
  "832": "ண்டும்",
  "833": "▁அதை",
  "834": "ன்றான்",
  "835": "வார்கள்",
  "836": "யின்",
  "837": "▁பார்",
  "838": "▁இந்த",
  "839": "▁கொண்டிரு",
  "840": "▁ஆகவே",
  "841": "யம்",
  "842": "▁பற்றி",
  "843": "▁இது",
  "844": "▁அனு",
  "845": "...",
  "846": "ங்க",
  "847": "றுதி",
  "848": ").",
  "849": "களையும்",
  "850": "▁பூமி",
  "851": "▁து",
  "852": "களிடம்",
  "853": "▁தான்",
  "854": "வரை",
  "855": "▁வேதனை",
  "856": "▁கோ",
  "857": "ருக்கி",
  "858": "ன்னி",
  "859": "▁மனி",
  "860": "▁அவர்களுடைய",
  "861": "es",
  "862": "மான்",
  "863": "▁இற",
  "864": "▁பொரு",
  "865": "றேன்",
  "866": "▁உங்களை",
  "867": "தற்கா",
  "868": "விர",
  "869": "▁அன்றி",
  "870": "யல்",
  "871": "வது",
  "872": "▁என்ப",
  "873": "▁வெளி",
  "874": "வீராக",
  "875": "▁நிலை",
  "876": "it",
  "877": "வர்களா",
  "878": "ர்களோ",
  "879": "றோம்",
  "880": "க்கப்ப",
  "881": "ரண",
  "882": "தர்",
  "883": "▁எழு",
  "884": "er",
  "885": "▁a",
  "886": "▁பே",
  "887": "தோம்",
  "888": "க்கப்பட்ட",
  "889": "▁இறைவன்",
  "890": "▁நாங்கள்",
  "891": "ட்டார்கள்",
  "892": "▁இர",
  "893": "முடைய",
  "894": "வர்களை",
  "895": "▁தேர்",
  "896": "▁ஈமான்",
  "897": "தான்",
  "898": "▁k",
  "899": "றுமை",
  "900": "▁தம்",
  "901": "ருக்கும்",
  "902": "தும்",
  "903": "வர்களுக்கு",
  "904": "ற்ப",
  "905": "ராகரி",
  "906": "ஃபி",
  "907": "▁கொண்ட",
  "908": "▁அரு",
  "909": "▁பொய்",
  "910": "▁தன்",
  "911": "▁அன்றியும்",
  "912": "ண்டா",
  "913": "al",
  "914": "தில்",
  "915": "கிறான்",
  "916": "ங்களுக்கு",
  "917": "▁படை",
  "918": "▁அல்லாஹ்வு",
  "919": "la",
  "920": "ப்படும்",
  "921": "▁நெ",
  "922": "கிறார்கள்",
  "923": "வான்",
  "924": "▁உண்மை",
  "925": "▁எனவே",
  "926": "க்காக",
  "927": "ல்லாம்",
  "928": "▁நேர்",
  "929": "னுக்கு",
  "930": "ற்கு",
  "931": "அல்லாஹ்",
  "932": "▁தவிர",
  "933": "▁நிராகரி",
  "934": "ப்படி",
  "935": "▁குறி",
  "936": "▁பின்னர்",
  "937": "▁போது",
  "938": "▁மன்னி",
  "939": "▁என்ன",
  "940": "▁வேண்டும்",
  "941": "▁வான",
  "942": "▁இறைவனி",
  "943": "ed",
  "944": "▁என்பதை",
  "945": "▁p",
  "946": "or",
  "947": "கிறது",
  "948": "▁கூறினார்",
  "949": "▁d",
  "950": "வ்வாறு",
  "951": "▁நோ",
  "952": "வரும்",
  "953": "யர்",
  "954": "மக்கு",
  "955": "▁அமை",
  "956": "என்று",
  "957": "▁திரு",
  "958": "ந்தால்",
  "959": "ரக",
  "960": "ஃமி",
  "961": "மூக",
  "962": "▁இருக்கின்றான்",
  "963": "▁கேட்",
  "964": "▁நட",
  "965": "▁சில",
  "966": "▁பல",
  "967": "gm",
  "968": "Name",
  "969": "▁kgm",
  "970": "▁&",
  "971": "தீர்கள்",
  "972": "வழி",
  "973": "ro",
  "974": "▁தொ",
  "975": "த்தான்",
  "976": "தவி",
  "977": "வான",
  "978": "டமி",
  "979": "என்",
  "980": "த்தின்",
  "981": "ன்றனர்",
  "982": "ளில்",
  "983": "▁சமூக",
  "984": "மல்",
  "985": "▁நினை",
  "986": "ற்றும்",
  "987": "யிரு",
  "988": "ran",
  "989": "ப்பை",
  "990": "op",
  "991": "▁சரி",
  "992": "▁விரும்",
  "993": "டும்",
  "994": "த்தோம்",
  "995": "▁அவனை",
  "996": "?\"",
  "997": "▁வரை",
  "998": "▁அடை",
  "999": "▁மிக்க",
  "1000": "க்கே",
  "1001": "த்தாட்சி",
  "1002": "▁செல்",
  "1003": "க்கம்",
  "1004": "▁எண்",
  "1005": "▁எந்த",
  "1006": "வதை",
  "1007": "ட்டும்",
  "1008": "▁name",
  "1009": "டமிருந்து",
  "1010": "▁கண்",
  "1011": "ட்டால்",
  "1012": "▁மிகவும்",
  "1013": "▁எனக்கு",
  "1014": "கிய",
  "1015": "▁அத்தாட்சி",
  "1016": "▁வச",
  "1017": "▁சேர்",
  "1018": "▁அடி",
  "1019": "தற்காக",
  "1020": "▁கொள்ள",
  "1021": "க்கவும்",
  "1022": "▁கொள்ளு",
  "1023": "ot",
  "1024": "▁வீ",
  "1025": "ட்டை",
  "1026": "▁வரு",
  "1027": "னினும்",
  "1028": "▁அழை",
  "1029": "▁அந்த",
  "1030": "களே",
  "1031": "▁சூ",
  "1032": "▁மீதும்",
  "1033": "▁இருந்த",
  "1034": "தல்",
  "1035": "மும்",
  "1036": "▁முஃமி",
  "1037": "▁என்னை",
  "1038": "லாம்",
  "1039": "னோம்",
  "1040": "▁பெண்",
  "1041": "▁இணை",
  "1042": "▁பயன்",
  "1043": "▁நம்பி",
  "1044": "▁உதவி",
  "1045": "▁கை",
  "1046": "▁கட்ட",
  "1047": "வனாகவும்",
  "1048": "▁கோப்பு",
  "1049": "ity",
  "1050": "▁s",
  "1051": "▁இருக்கிறது",
  "1052": "க்கிறா",
  "1053": "படி",
  "1054": "▁இய",
  "1055": "விட",
  "1056": "▁எடு",
  "1057": "த்தகை",
  "1058": "ச்சி",
  "1059": "▁செயல்",
  "1060": "லம்",
  "1061": "யாது",
  "1062": "▁தொ",
  "1063": "rans",
  "1064": "▁வந்த",
  "1065": "ருடைய",
  "1066": "City",
  "1067": "ransla",
  "1068": "▁'",
  "1069": "▁தூத",
  "1070": "நியா",
  "1071": "▁இருக்கும்",
  "1072": "▁transla",
  "1073": "▁இவர்கள்",
  "1074": "option",
  "1075": "▁எனினும்",
  "1076": "▁நெரு",
  "1077": "த்தையும்",
  "1078": "கம்",
  "1079": "▁நன்மை",
  "1080": "▁பொ",
  "1081": "க்கவில்லை",
  "1082": "▁கெ",
  "1083": "▁மற்றும்",
  "1084": "▁தெளி",
  "1085": "யாகும்",
  "1086": "▁மறை",
  "1087": "▁நம்பிக்கை",
  "1088": "யாள",
  "1089": "த்திய",
  "1090": "கிறேன்",
  "1091": "ly",
  "1092": "▁அல்லாஹ்வை",
  "1093": "▁யார்",
  "1094": "ருப்ப",
  "1095": "▁இட",
  "1096": "ட்டான்",
  "1097": "மதி",
  "1098": "▁செய்த",
  "1099": "வர்களாக",
  "1100": "▁இவ்",
  "1101": "▁வேத",
  "1102": "optional",
  "1103": "வரையும்",
  "1104": "யுடைய",
  "1105": "▁விட்டும்",
  "1106": "▁அநியா",
  "1107": "ஃபிர்",
  "1108": "நீங்கள்",
  "1109": "யைக்",
  "1110": "னம்",
  "1111": "▁அறிவி",
  "1112": "▁உரு",
  "1113": "▁ஒவ்",
  "1114": "▁அழி",
  "1115": "▁pro",
  "1116": "ப்போது",
  "1117": "க்தி",
  "1118": "▁நல்ல",
  "1119": "▁அவரை",
  "1120": "ba",
  "1121": "en",
  "1122": "அவ",
  "1123": ".\"",
  "1124": "▁கீ",
  "1125": "த்திற்கு",
  "1126": "▁கூட்ட",
  "1127": "▁உறுதி",
  "1128": "▁2",
  "1129": "▁திரும்",
  "1130": "யுங்கள்",
  "1131": "▁நேர்வழி",
  "1132": "க்கொ",
  "1133": "▁வண",
  "1134": "▁எவர்",
  "1135": "▁ne",
  "1136": "ன்றன",
  "1137": "▁அள",
  "1138": "▁தீர்",
  "1139": "வரி",
  "1140": "யையும்",
  "1141": "▁மாட்டார்கள்",
  "1142": "▁not",
  "1143": "▁அவனே",
  "1144": "▁கட",
  "1145": "வற்றையும்",
  "1146": "தையும்",
  "1147": "▁C",
  "1148": "▁அனை",
  "1149": "ங்களில்",
  "1150": "ண்ட",
  "1151": "ண்டி",
  "1152": "நிச்சயமாக",
  "1153": "▁காண்",
  "1154": "▁வேறு",
  "1155": "▁உமக்கு",
  "1156": "▁வேண்டா",
  "1157": "▁தவ",
  "1158": "▁do",
  "1159": "▁அறிந்து",
  "1160": "▁நக",
  "1161": "ஞ்ச",
  "1162": "தெடு",
  "1163": "கிறீ",
  "1164": "▁c",
  "1165": "ப்பீ",
  "1166": "ந்தை",
  "1167": "வோம்",
  "1168": "▁செய்ப",
  "1169": "த்தும்",
  "1170": "▁அவர்களில்",
  "1171": "▁மிக",
  "1172": "▁முஃமின்",
  "1173": "▁ஞா",
  "1174": "▁கொண்டா",
  "1175": "வின்",
  "1176": "▁பிடி",
  "1177": "▁இருக்கிறா",
  "1178": "வனாக",
  "1179": "ற்படு",
  "1180": "▁தெரி",
  "1181": "▁need",
  "1182": "▁சமூகத்தா",
  "1183": "க்கார",
  "1184": "யன்றி",
  "1185": "▁கரு",
  "1186": "திய",
  "1187": "▁translation",
  "1188": "▁%",
  "1189": "ந்தெடு",
  "1190": "▁தங்கள்",
  "1191": "▁அளி",
  "1192": "▁பெரும்",
  "1193": "▁உண",
  "1194": "bab",
  "1195": "க்கிய",
  "1196": "▁உண்டா",
  "1197": "ங்களி",
  "1198": "re",
  "1199": "ர்களே",
  "1200": "டையே",
  "1201": "▁வசன",
  "1202": "▁தேர்ந்தெடு",
  "1203": "ப்பார்கள்",
  "1204": "▁விட",
  "1205": "▁அவனுடைய",
  "1206": "▁கட்டளை",
  "1207": "▁in",
  "1208": "he",
  "1209": "ங்களையும்",
  "1210": "க்கூ",
  "1211": "▁does",
  "1212": "▁கூறுவீராக",
  "1213": "வில்",
  "1214": "கறி",
  "1215": "▁அதில்",
  "1216": "▁நன்கறி",
  "1217": "▁probab",
  "1218": "▁நரக",
  "1219": "▁probably",
  "1220": "தாக",
  "1221": "▁கொள்ளுங்கள்",
  "1222": "னில்",
  "1223": "▁அதன்",
  "1224": "விடு",
  "1225": "▁எவ",
  "1226": "▁கிடை",
  "1227": "▁எதி",
  "1228": "▁அவர்களிடம்",
  "1229": "றக்க",
  "1230": "▁பதி",
  "1231": "வீர்கள்",
  "1232": "▁பயன்படு",
  "1233": "லுள்ள",
  "1234": "தம்",
  "1235": "ங்கே",
  "1236": "▁எல்லா",
  "1237": "▁பரி",
  "1238": "யிலும்",
  "1239": "லக",
  "1240": "வராக",
  "1241": "டர்",
  "1242": "▁இருப்ப",
  "1243": "▁பாது",
  "1244": "போது",
  "1245": "▁முறை",
  "1246": "ப்பட",
  "1247": "▁உண்டு",
  "1248": "▁.",
  "1249": "▁அவ்",
  "1250": "▁வந்து",
  "1251": "▁ஆக்கி",
  "1252": "▁செய்தி",
  "1253": "▁சொல்",
  "1254": "ந்தே",
  "1255": "ன்றும்",
  "1256": "nt",
  "1257": "தில்லை",
  "1258": "▁ஓர்",
  "1259": "▁பாதை",
  "1260": "▁அதிக",
  "1261": "▁தடு",
  "1262": "▁உள்",
  "1263": "▁உம்மை",
  "1264": "டோம்",
  "1265": "மில்லை",
  "1266": "▁பாவ",
  "1267": "வ்வாறே",
  "1268": "▁பிர",
  "1269": "ல்லாத",
  "1270": "▁தலை",
  "1271": "▁மனிதர்",
  "1272": "▁எவர்கள்",
  "1273": "▁பாதுகா",
  "1274": "▁அதற்கு",
  "1275": "▁மனித",
  "1276": "▁வெளியே",
  "1277": "ரார்",
  "1278": "த்தகைய",
  "1279": "▁வர",
  "1280": "▁கூறும்",
  "1281": "▁ஐ",
  "1282": "ச்சரி",
  "1283": "▁தாம்",
  "1284": "ar",
  "1285": "▁அவருக்கு",
  "1286": "ங்களும்",
  "1287": "▁நற்",
  "1288": "▁உன்",
  "1289": "▁பின்ப",
  "1290": "▁கொ",
  "1291": "வற்றி",
  "1292": "டையோ",
  "1293": "om",
  "1294": "▁அவனுக்கு",
  "1295": "!\"",
  "1296": "▁முடியாது",
  "1297": "▁அழ",
  "1298": "ரில்",
  "1299": "▁விட்ட",
  "1300": "ர்க்க",
  "1301": "▁வெற்றி",
  "1302": "▁கூற",
  "1303": "ம்ப",
  "1304": "▁அவற்றி",
  "1305": "at",
  "1306": "களுக்காக",
  "1307": "▁மக்க",
  "1308": "▁அச்ச",
  "1309": "களுடன்",
  "1310": "▁ஒவ்வொ",
  "1311": "ou",
  "1312": "இறை",
  "1313": "▁செலு",
  "1314": "த்திலிருந்து",
  "1315": "▁இருக்க",
  "1316": "▁கோ",
  "1317": "▁போ",
  "1318": "▁உள்ளது",
  "1319": "▁எச்சரி",
  "1320": "▁கவ",
  "1321": "▁பிரி",
  "1322": "▁வாழ்",
  "1323": "சம்",
  "1324": "ணம்",
  "1325": "ட்டீ",
  "1326": "கின்றனர்",
  "1327": "தய",
  "1328": "▁ஊ",
  "1329": "▁விரும்பு",
  "1330": "▁காரண",
  "1331": "▁உயி",
  "1332": "▁விளை",
  "1333": "▁உம்முடைய",
  "1334": "▁பிற",
  "1335": "▁திட்ட",
  "1336": "ic",
  "1337": "is",
  "1338": "▁எங்கள்",
  "1339": "▁செய்யும்",
  "1340": "▁மெ",
  "1341": "▁கூலி",
  "1342": "le",
  "1343": "யன்",
  "1344": "லகி",
  "1345": "ழுது",
  "1346": "தைப்",
  "1347": "லில்",
  "1348": "ந்நா",
  "1349": "▁அனுப்பி",
  "1350": "ர்களாக",
  "1351": "▁மறுமை",
  "1352": "மையான",
  "1353": "ன்ன",
  "1354": "▁இருந்து",
  "1355": "▁கொண்டிருந்த",
  "1356": "▁வாக்கு",
  "1357": "▁S",
  "1358": "மிடம்",
  "1359": "▁ஒவ்வொரு",
  "1360": "யாத",
  "1361": "▁படி",
  "1362": "▁ஏனெ",
  "1363": "இது",
  "1364": "ருங்கள்",
  "1365": "▁ர",
  "1366": "தர",
  "1367": "▁இப்",
  "1368": "▁மேல்",
  "1369": "▁கூறினார்கள்",
  "1370": "▁தேர்வு",
  "1371": "▁பட்டி",
  "1372": "▁குற்ற",
  "1373": "னான்",
  "1374": "வேறு",
  "1375": "▁பெரு",
  "1376": "▁மூஸா",
  "1377": "குதி",
  "1378": "த்தால்",
  "1379": "களாக",
  "1380": "▁அதனை",
  "1381": "▁தூதர்",
  "1382": "அவ்",
  "1383": "நம்",
  "1384": "▁நாடி",
  "1385": "வர்களில்",
  "1386": "▁போன்ற",
  "1387": "ப்பின்",
  "1388": "▁வடி",
  "1389": "▁தெளிவான",
  "1390": "ருந்த",
  "1391": "▁என்றும்",
  "1392": "லான",
  "1393": "▁செவி",
  "1394": "▁இறக்கி",
  "1395": "▁b",
  "1396": "யார்",
  "1397": "றிய",
  "1398": "ருபை",
  "1399": "ப்போம்",
  "1400": "▁உருவா",
  "1401": "னாக",
  "1402": "▁அஞ்",
  "1403": "▁சோ",
  "1404": "லக்கு",
  "1405": "▁இருந்தால்",
  "1406": "▁செய்தா",
  "1407": "▁வேண்டாம்",
  "1408": "▁மக",
  "1409": "ப்படுத்தி",
  "1410": "▁நிறு",
  "1411": "ப்பட்டு",
  "1412": "ருக்க",
  "1413": "▁உங்களுடைய",
  "1414": "களைக்",
  "1415": "▁வழ",
  "1416": "ப்பான்",
  "1417": "க்கூடிய",
  "1418": "▁இறைவனின்",
  "1419": "▁முக",
  "1420": "ள்ளது",
  "1421": "▁அனுமதி",
  "1422": "▁சீ",
  "1423": "லேயே",
  "1424": "▁பிரார்",
  "1425": "ரையும்",
  "1426": "கிறோம்",
  "1427": "வையும்",
  "1428": "▁ஏற்படு",
  "1429": "ர்ஆ",
  "1430": "▁வகை",
  "1431": "▁கண",
  "1432": "வாக",
  "1433": "▁காட்டு",
  "1434": "▁கிருபை",
  "1435": "▁f",
  "1436": "▁குழ",
  "1437": "ந்நாளில்",
  "1438": "களைப்",
  "1439": "ச்சு",
  "1440": "▁காண்பி",
  "1441": "ment",
  "1442": "▁பொருட்",
  "1443": "கிறார்களோ",
  "1444": "▁எண்ணி",
  "1445": "னிடம்",
  "1446": "▁குறை",
  "1447": "▁போல்",
  "1448": "யிலிருந்து",
  "1449": "டத்தில்",
  "1450": "வதற்காக",
  "1451": "▁அல்லாஹ்வுக்கு",
  "1452": "▁பூமியில்",
  "1453": "ப்பொ",
  "1454": "il",
  "1455": "▁அவருடைய",
  "1456": "பக்தி",
  "1457": "▁விஷ",
  "1458": "ரின்",
  "1459": "▁உயிர்",
  "1460": "▁ஒன்று",
  "1461": "▁புதிய",
  "1462": "ங்களுடைய",
  "1463": "ங்கா",
  "1464": "▁இதை",
  "1465": "▁நாளில்",
  "1466": "விரு",
  "1467": "ட்டோம்",
  "1468": "ன்ப",
  "1469": "▁சாட்சி",
  "1470": "▁the",
  "1471": "▁நினைவு",
  "1472": "▁சத்தி",
  "1473": "செய்",
  "1474": "▁உங்களில்",
  "1475": "▁w",
  "1476": "▁K",
  "1477": "00",
  "1478": "டியவில்லை",
  "1479": "▁இவர்",
  "1480": "க்கப்பட்டு",
  "1481": "ற்றுக்",
  "1482": "▁M",
  "1483": "▁வசனங்களை",
  "1484": "▁உரை",
  "1485": "ருள்",
  "1486": "னக்கு",
  "1487": "▁ஷை",
  "1488": "▁அவற்றை",
  "1489": "▁உங்களிடம்",
  "1490": "▁பக்க",
  "1491": "அவர்",
  "1492": "▁அளவு",
  "1493": "▁பொய்ப்பி",
  "1494": "என்றும்",
  "1495": "ன்றோம்",
  "1496": "றக்கணி",
  "1497": "▁நாள்",
  "1498": "▁தோ",
  "1499": "ப்படுத்து",
  "1500": "▁நன்றி",
  "1501": "களிலிருந்து",
  "1502": "தாகும்",
  "1503": "ஒரு",
  "1504": "▁எங்களுக்கு",
  "1505": "பதே",
  "1506": "▁விள",
  "1507": "▁சம",
  "1508": "ண்டிய",
  "1509": "த்திருக்கி",
  "1510": "▁நு",
  "1511": "ol",
  "1512": "▁பெறு",
  "1513": "▁எது",
  "1514": "வன",
  "1515": "▁முடியவில்லை",
  "1516": "த்துப்",
  "1517": "▁எடுத்துக்",
  "1518": "▁நோக்கி",
  "1519": "னைவி",
  "1520": "கிறீர்கள்",
  "1521": "▁புரி",
  "1522": "▁காரிய",
  "1523": "ட்டில்",
  "1524": "மாறு",
  "1525": "▁வரும்",
  "1526": "க்கப்படு",
  "1527": "▁புறக்கணி",
  "1528": "▁சேமி",
  "1529": "▁குறிப்பி",
  "1530": "▁சகோ",
  "1531": "▁ஏற்ப",
  "1532": "▁கொண்டே",
  "1533": "▁மாறு",
  "1534": "▁இருந்தா",
  "1535": "▁பெயர்",
  "1536": "▁அநியாயம்",
  "1537": "▁கெட்ட",
  "1538": "▁பயபக்தி",
  "1539": "▁வேண்டு",
  "1540": "னின்",
  "1541": "▁\"(",
  "1542": "தனால்",
  "1543": "▁ஆகி",
  "1544": "டமே",
  "1545": "▁ஏனெனில்",
  "1546": "▁வாக்குறுதி",
  "1547": "▁பிறகு",
  "1548": "னிய",
  "1549": "வேத",
  "1550": "▁மாற்ற",
  "1551": "▁புக",
  "1552": "▁சொ",
  "1553": "முறை",
  "1554": "ங்களின்",
  "1555": "கவ",
  "1556": "▁படு",
  "1557": "பதி",
  "1558": "▁கூறினான்",
  "1559": "அவர்கள்",
  "1560": "க்கான",
  "1561": "▁சந்தி",
  "1562": "▁மூலம்",
  "1563": "ற்றிலும்",
  "1564": "▁நாடிய",
  "1565": "வாயாக",
  "1566": "க்கள்",
  "1567": "▁காஃபிர்",
  "1568": "▁மனைவி",
  "1569": "யுடன்",
  "1570": "யைப்",
  "1571": "யெல்லாம்",
  "1572": "▁கூட்டத்தா",
  "1573": "ந்தது",
  "1574": "▁மிகை",
  "1575": "ரிடம்",
  "1576": "ரங்க",
  "1577": "omment",
  "1578": "அதற்கு",
  "1579": "▁கொள்ளா",
  "1580": "▁நல்",
  "1581": ".)",
  "1582": "ற்கா",
  "1583": "▁விளையா",
  "1584": "அது",
  "1585": "▁தீமை",
  "1586": "▁A",
  "1587": "வினை",
  "1588": "க்கப்பட",
  "1589": "முள்ள",
  "1590": "விட்ட",
  "1591": "▁காண",
  "1592": "▁அந்நாளில்",
  "1593": "▁பணி",
  "1594": "வுக்கு",
  "1595": "மாகும்",
  "1596": "ரத்தை",
  "1597": "▁ஸ்",
  "1598": "▁பெற",
  "1599": "எங்கள்",
  "1600": "▁நகர்",
  "1601": "ப்பீராக",
  "1602": "வதில்லை",
  "1603": "▁எதிர்",
  "1604": "▁நிர",
  "1605": "▁T",
  "1606": "▁சூழ்",
  "1607": "▁நிறை",
  "1608": "▁எச்சரிக்கை",
  "1609": "ப்பெ",
  "1610": "▁பொறுமை",
  "1611": "ஷ்ட",
  "1612": "வர்களே",
  "1613": "ஃபிர்அவ்",
  "1614": "▁தேவை",
  "1615": "தீர்",
  "1616": "▁வணங்கு",
  "1617": "▁அவை",
  "1618": "▁தீர்ப்பு",
  "1619": "▁அப்போது",
  "1620": "▁இருக்கின்றன",
  "1621": "தாவது",
  "1622": "▁திரும்பி",
  "1623": "▁எப்படி",
  "1624": "ஃப்",
  "1625": "▁இவ்வு",
  "1626": "▁D",
  "1627": "▁கூறுகிறார்கள்",
  "1628": "▁செய",
  "1629": "▁வரம்",
  "1630": "▁முடியும்",
  "1631": "ளும்",
  "1632": "▁...",
  "1633": "ing",
  "1634": "கொடை",
  "1635": "ள்ளி",
  "1636": "ன்றீ",
  "1637": "ன்றால்",
  "1638": "னாகவும்",
  "1639": "ங்கும்",
  "1640": "▁மதி",
  "1641": "பின்",
  "1642": "ழுகை",
  "1643": "யிருக்கி",
  "1644": "ந்தோ",
  "1645": "த்தனை",
  "1646": "▁சாள",
  "1647": "▁எங்களை",
  "1648": "▁ஞான",
  "1649": "▁கீழ்",
  "1650": "வதற்கு",
  "1651": "களுக்கும்",
  "1652": "யாகவும்",
  "1653": "▁முற்றிலும்",
  "1654": "▁பிழை",
  "1655": "ப்பவன்",
  "1656": "▁கூறுவார்கள்",
  "1657": "க்கப்படும்",
  "1658": "▁மறு",
  "1659": "▁இவர்களுக்கு",
  "1660": "▁விரை",
  "1661": "வேன்",
  "1662": "▁கவனி",
  "1663": "▁முன்னர்",
  "1664": "▁மாற்று",
  "1665": "▁திட",
  "1666": "Comment",
  "1667": "▁தகவ",
  "1668": "பவன்",
  "1669": "வர்களும்",
  "1670": "▁அருட்",
  "1671": "▁அழகா",
  "1672": "த்தைக்",
  "1673": "▁அநியாய",
  "1674": "▁வடிவ",
  "1675": "வர",
  "1676": "▁டி",
  "1677": "▁நுழை",
  "1678": "ரம",
  "1679": "ந்தவன்",
  "1680": "த்தல்",
  "1681": "▁மற்ற",
  "1682": "▁இதற்கு",
  "1683": "வோர்",
  "1684": "▁உரிய",
  "1685": "▁மலக்கு",
  "1686": "),",
  "1687": "▁முழு",
  "1688": "▁ஹா",
  "1689": "▁தந்தை",
  "1690": "▁ஆண்",
  "1691": "▁வரி",
  "1692": "ரான",
  "1693": "▁விஷய",
  "1694": "▁முன்னி",
  "1695": "▁காப்பா",
  "1696": "▁பார்க்க",
  "1697": "▁தர",
  "1698": "▁3",
  "1699": "லோர்",
  "1700": "▁கொடுத்து",
  "1701": "ப்பட்டது",
  "1702": "▁நன்கு",
  "1703": "▁வேண்டிய",
  "1704": "▁நிலையில்",
  "1705": "றில்லை",
  "1706": "▁மார்க்க",
  "1707": "▁சந்த",
  "1708": "▁விருப்ப",
  "1709": "▁சகோதர",
  "1710": "▁வாழ்க்கை",
  "1711": "▁எழுத",
  "1712": "ளுக்கு",
  "1713": "ia",
  "1714": "க்களி",
  "1715": "ஸாலி",
  "1716": "ள்ளா",
  "1717": "▁எனக்",
  "1718": "▁பெரும்பா",
  "1719": "▁பின்ன",
  "1720": "விட்டு",
  "1721": "▁இஸ்",
  "1722": "பாடு",
  "1723": "st",
  "1724": "▁திற",
  "1725": "▁உயர்",
  "1726": "க்கிறான்",
  "1727": "▁தொழுகை",
  "1728": "▁m",
  "1729": "▁அனைத்து",
  "1730": "▁அறிய",
  "1731": "வதற்கா",
  "1732": "ப்பற்றி",
  "1733": "வல",
  "1734": "▁ஜி",
  "1735": "▁செல",
  "1736": "▁கீழே",
  "1737": "▁இறைவனே",
  "1738": "▁கேட்க",
  "1739": "▁அல்லாஹ்வுக்கே",
  "1740": "▁அவ்விரு",
  "1741": "ச்சை",
  "1742": "▁இவ்வாறு",
  "1743": "▁பொருட்டு",
  "1744": "▁எவ்",
  "1745": "▁,",
  "1746": "ப்பட்டி",
  "1747": "▁பயன்படுத்த",
  "1748": "தைக்",
  "1749": "த்திலும்",
  "1750": "▁மீண்டும்",
  "1751": "▁வண்",
  "1752": "நான்",
  "1753": ":%",
  "1754": ");",
  "1755": "மாட்டார்கள்",
  "1756": "▁அவர்களைப்",
  "1757": "▁வல",
  "1758": "▁கட்டு",
  "1759": ";)",
  "1760": "▁மெய்",
  "1761": "▁பக்கம்",
  "1762": "▁ஃபிர்அவ்",
  "1763": "▁இருக்கின்றனர்",
  "1764": "▁பாதையில்",
  "1765": "▁பகி",
  "1766": "▁வெறு",
  "1767": "▁I",
  "1768": "▁நபி",
  "1769": "▁அருட்கொடை",
  "1770": "▁இருப்பார்கள்",
  "1771": "▁கொண்டும்",
  "1772": "▁வரம்பு",
  "1773": "ட்டார்",
  "1774": "மூட்டி",
  "1775": "▁யூ",
  "1776": "▁மேலான",
  "1777": "வர்க்க",
  "1778": "விடும்",
  "1779": "▁ஏன்",
  "1780": "▁ஞானம்",
  "1781": "▁கூறிய",
  "1782": "▁இறைவனிடமிருந்து",
  "1783": "▁இவ்வாறே",
  "1784": "தாரண",
  "1785": "▁அவர்களின்",
  "1786": "▁துவ",
  "1787": "▁இங்கே",
  "1788": "▁சென்று",
  "1789": "▁அனுப்ப",
  "1790": "வரு",
  "1791": "க்கிறது",
  "1792": "▁கடி",
  "1793": "நரக",
  "1794": "▁சக்தி",
  "1795": "▁P",
  "1796": "▁to",
  "1797": "et",
  "1798": "▁குர்ஆ",
  "1799": "▁அர்",
  "1800": "ளர்",
  "1801": "▁என்றா",
  "1802": "டாது",
  "1803": "லின்",
  "1804": "▁போர்",
  "1805": "ற்சி",
  "1806": "▁அச்சமூட்டி",
  "1807": "▁தர்",
  "1808": "▁x",
  "1809": "ck",
  "1810": "யுடையோ",
  "1811": "த்தான",
  "1812": "▁சாரா",
  "1813": "க்கெ",
  "1814": "▁கால",
  "1815": "மறுமை",
  "1816": "▁கால்",
  "1817": "▁பெய",
  "1818": "த்தோ",
  "1819": "▁பின்பற்று",
  "1820": "இவ்வாறு",
  "1821": "▁என்னுடைய",
  "1822": "றென்றும்",
  "1823": "யாக்கி",
  "1824": "▁வேதனையை",
  "1825": "ம்பா",
  "1826": "▁ஹ",
  "1827": "யாம",
  "1828": "கூலி",
  "1829": "▁அவனு",
  "1830": "▁நேர",
  "1831": "▁செல்ல",
  "1832": "த்தது",
  "1833": "▁ஆயி",
  "1834": "▁h",
  "1835": "டேன்",
  "1836": "\\\\",
  "1837": "ன்மை",
  "1838": "▁விரும்பி",
  "1839": "▁இருந்தது",
  "1840": "உங்கள்",
  "1841": "▁இரண்டு",
  "1842": "▁நல்லு",
  "1843": "க்கப்",
  "1844": "▁நேரம்",
  "1845": "▁பட",
  "1846": "▁வேறில்லை",
  "1847": "▁தேடு",
  "1848": "ட்டீர்கள்",
  "1849": "▁மன்னிப்பு",
  "1850": "▁பெருமை",
  "1851": "▁பிம்ப",
  "1852": "▁கூடிய",
  "1853": "வித",
  "1854": "▁எவன்",
  "1855": "▁நீக்கு",
  "1856": "▁சொல்ல",
  "1857": "யாகவே",
  "1858": "▁F",
  "1859": "ய்வ",
  "1860": "திலும்",
  "1861": "▁சத்தியமாக",
  "1862": "▁சந்தே",
  "1863": "கார",
  "1864": "ர்ந்து",
  "1865": "யுள்ள",
  "1866": "▁நிற",
  "1867": "ற்க",
  "1868": "▁பிரார்த்தி",
  "1869": "▁காஃபி",
  "1870": "ட்டுக்",
  "1871": "பார்",
  "1872": "▁அஞ்சி",
  "1873": "▁நம்முடைய",
  "1874": "னையும்",
  "1875": "▁அங்கு",
  "1876": "▁அடியார்",
  "1877": "கிற",
  "1878": "▁ஜ",
  "1879": "ப்பொழுது",
  "1880": "▁விலகி",
  "1881": "ப்படை",
  "1882": "▁தங்கி",
  "1883": "▁அவள்",
  "1884": "ஹான",
  "1885": "▁செலுத்து",
  "1886": "▁ரஹ்",
  "1887": "▁அவற்றின்",
  "1888": "▁பை",
  "1889": "▁நடந்து",
  "1890": "ப்பில்",
  "1891": "▁அநியாயக்கார",
  "1892": "▁சந்ததி",
  "1893": "▁பகுதி",
  "1894": "க்களை",
  "1895": "ப்படுத்த",
  "1896": "வண",
  "1897": "ல்லாமல்",
  "1898": "க்கவில்லையா",
  "1899": "அல்லாஹ்வின்",
  "1900": "ஸாலிஹான",
  "1901": "இவ்",
  "1902": "▁நூ",
  "1903": "ர்களானால்",
  "1904": "ளின்",
  "1905": "us",
  "1906": "மது",
  "1907": "ப்பது",
  "1908": "▁ஒருவர்",
  "1909": "▁வட்டு",
  "1910": "▁என்றென்றும்",
  "1911": "▁வாக்களி",
  "1912": "▁நோவினை",
  "1913": "▁இறுதி",
  "1914": "ண்டனை",
  "1915": "▁விதி",
  "1916": "▁இருதய",
  "1917": "வார்",
  "1918": "▁சத்திய",
  "1919": "▁க்",
  "1920": "த்தார்",
  "1921": "▁முன்ன",
  "1922": "▁இதில்",
  "1923": "ec",
  "1924": "▁உங்களைப்",
  "1925": "▁தகவல்",
  "1926": "▁கண்டு",
  "1927": "▁அடு",
  "1928": "நிலை",
  "1929": "ள்ளோ",
  "1930": "▁மகத்தான",
  "1931": "களைச்",
  "1932": "▁வைத்து",
  "1933": "யாக்கு",
  "1934": "▁B",
  "1935": "ளவு",
  "1936": "ra",
  "1937": "விட்டால்",
  "1938": "▁நேசி",
  "1939": "▁பெரிய",
  "1940": "▁சிறி",
  "1941": "ருந்தால்",
  "1942": "களிலும்",
  "1943": "த்தகையோ",
  "1944": "▁பொருள்",
  "1945": "▁பக",
  "1946": "▁திரும்ப",
  "1947": "▁இருக்கின்றா",
  "1948": "உம்",
  "1949": "▁மலை",
  "1950": "▁அவர்களி",
  "1951": "▁ஸு",
  "1952": "▁அருள்",
  "1953": "▁கடை",
  "1954": "▁ஷைத்தான்",
  "1955": "▁மரண",
  "1956": "▁வீடு",
  "1957": "கசி",
  "1958": "▁திருப்பி",
  "1959": "கிறாரோ",
  "1960": "▁எல்லாப்",
  "1961": "▁கடு",
  "1962": "▁பகிரங்க",
  "1963": "▁\"%",
  "1964": "▁..",
  "1965": "வாளி",
  "1966": "▁ஒளி",
  "1967": "▁முடிவு",
  "1968": "ர்வு",
  "1969": "▁மனிதன்",
  "1970": "el",
  "1971": "ப்பவனாகவும்",
  "1972": "▁பெரும்பாலோர்",
  "1973": "▁நிக",
  "1974": "▁0",
  "1975": "▁நற்கூலி",
  "1976": "ப்படா",
  "1977": "▁விசை",
  "1978": "▁நகர்த்து",
  "1979": "வனை",
  "1980": "ன்றை",
  "1981": "▁இருக்கிறார்கள்",
  "1982": "மையாக",
  "1983": "▁காரணமாக",
  "1984": "▁பொறு",
  "1985": "ன்னும்",
  "1986": "▁இடை",
  "1987": "யால்",
  "1988": "களால்",
  "1989": "நாங்கள்",
  "1990": "னார்",
  "1991": "▁இருக்கிறான்",
  "1992": "▁பூமியி",
  "1993": "ட்ச",
  "1994": "ந்தார்கள்",
  "1995": "தெல்லாம்",
  "1996": "▁விசா",
  "1997": "▁நன்மா",
  "1998": "▁o",
  "1999": "கின்றா",
  "2000": "▁நஷ்ட",
  "2001": "▁எவரும்",
  "2002": "▁எழுது",
  "2003": "டும்ப",
  "2004": "▁இதய",
  "2005": "ணிய",
  "2006": "▁ஒலி",
  "2007": "▁தய",
  "2008": "▁இழி",
  "2009": "▁அமைப்பு",
  "2010": "▁இவ்வுலக",
  "2011": "▁மர",
  "2012": "மீது",
  "2013": "யாவற்றையும்",
  "2014": "கிறானோ",
  "2015": "▁நன்மாரா",
  "2016": "▁குடும்ப",
  "2017": "டல்",
  "2018": "ப்பே",
  "2019": "▁எழுத்து",
  "2020": "த்தே",
  "2021": "▁எதுவும்",
  "2022": "இதை",
  "2023": "ங்களிலும்",
  "2024": "▁பால்",
  "2025": "திலிருந்து",
  "2026": "ag",
  "2027": "▁பொரு",
  "2028": "ங்கிய",
  "2029": "▁ரஹ்ம",
  "2030": "▁தெய்வ",
  "2031": "க்கச்",
  "2032": "▁உதாரண",
  "2033": "▁செலவு",
  "2034": "▁தனி",
  "2035": "த்மா",
  "2036": "▁சும",
  "2037": "கின்றன",
  "2038": "களைத்",
  "2039": "▁சொன்",
  "2040": "க்கப்பட்டது",
  "2041": "கர்",
  "2042": "▁சிலர்",
  "2043": "▁ஆறு",
  "2044": "▁அவர்களுக்குக்",
  "2045": "▁ஒரே",
  "2046": "▁நாயன்",
  "2047": "▁சிற",
  "2048": "தான",
  "2049": "ட்டேன்",
  "2050": "மையை",
  "2051": "வருக்கும்",
  "2052": "ன்பு",
  "2053": "வனபதி",
  "2054": "▁_",
  "2055": "▁உண்டாக்கி",
  "2056": "போது",
  "2057": "▁வேண்டாமா",
  "2058": "▁செய்வோ",
  "2059": "வில்லையா",
  "2060": "▁தங்களுக்கு",
  "2061": "▁ஆத",
  "2062": "டிக்",
  "2063": "▁தூய்",
  "2064": "த்துடன்",
  "2065": "ut",
  "2066": "▁ஸ",
  "2067": "தைய",
  "2068": "க்குரிய",
  "2069": "▁தயவு",
  "2070": "க்கிரம",
  "2071": "▁சம்பா",
  "2072": "▁மிகைத்த",
  "2073": "ற்கும்",
  "2074": "▁உம்மிடம்",
  "2075": "▁இறைவனிடம்",
  "2076": "ள்வி",
  "2077": "▁இறைவனை",
  "2078": "ப்பினை",
  "2079": "ருடன்",
  "2080": "ளையும்",
  "2081": "▁சொந்த",
  "2082": "▁உள்ளி",
  "2083": "வனும்",
  "2084": "▁எதை",
  "2085": "ad",
  "2086": "▁அக",
  "2087": "ரமாக",
  "2088": "மிட",
  "2089": "த்தம்",
  "2090": "▁நேர்வழியில்",
  "2091": "த்தைப்",
  "2092": "க்கோ",
  "2093": "க்கிறேன்",
  "2094": "▁விட்டது",
  "2095": "▁கொள்ளும்",
  "2096": "▁நிராகரிப்ப",
  "2097": "னான",
  "2098": "வேதனை",
  "2099": "லாக",
  "2100": "▁ஆத்மா",
  "2101": "வற்றின்",
  "2102": "▁அவனுக்கே",
  "2103": "நாம்",
  "2104": "▁வேலை",
  "2105": "▁@",
  "2106": "▁இப்போது",
  "2107": "▁ஏற்படுத்தி",
  "2108": "▁அக்கிரம",
  "2109": "ண்ப",
  "2110": "▁வார்",
  "2111": "▁பாதுகாவல",
  "2112": "▁கொடுத்தோம்",
  "2113": "தொரு",
  "2114": "ங்கிக்",
  "2115": "▁மற",
  "2116": "▁அர",
  "2117": "▁பெற்ற",
  "2118": "ur",
  "2119": "▁செல்வ",
  "2120": "▁அல்லாஹ்விடம்",
  "2121": "▁முய",
  "2122": "▁குழந்தை",
  "2123": "▁அல",
  "2124": "▁அடைவு",
  "2125": "இரு",
  "2126": "▁குழப்ப",
  "2127": "▁தெரியும்",
  "2128": "யைத்",
  "2129": "▁ஏதாவது",
  "2130": "▁மற்",
  "2131": "▁என்ற",
  "2132": "தாம்",
  "2133": "▁பார்வை",
  "2134": "▁அவர்களும்",
  "2135": "▁இவை",
  "2136": "மானவன்",
  "2137": "▁மக்கள்",
  "2138": "▁செய்தால்",
  "2139": "▁உன்னை",
  "2140": "சுத்த",
  "2141": "▁சம்பாதி",
  "2142": "விடி",
  "2143": "▁இயலா",
  "2144": "▁கருவி",
  "2145": "ர்ட்",
  "2146": "வாசி",
  "2147": "▁புற",
  "2148": "▁மாட்டான்",
  "2149": "▁சென்ற",
  "2150": "▁விடுங்கள்",
  "2151": "▁உங்களி",
  "2152": "ள்ளோம்",
  "2153": "▁அஞ்ச",
  "2154": "▁மாற்றி",
  "2155": "▁பர",
  "2156": "க்கின்றான்",
  "2157": "உங்களுக்கு",
  "2158": "▁ஏற்று",
  "2159": "மாக்கி",
  "2160": "மூஸா",
  "2161": "▁O",
  "2162": "▁கொண்டிருக்கும்",
  "2163": "▁சிலரை",
  "2164": "▁விழு",
  "2165": "▁அணு",
  "2166": "கின்றான்",
  "2167": "▁விரி",
  "2168": "▁சுவர்க்க",
  "2169": "ண்டிரு",
  "2170": "வர்களாகவும்",
  "2171": "▁திரை",
  "2172": "▁புறக்கணித்து",
  "2173": "▁தவ்",
  "2174": "▁தொடர்",
  "2175": "▁உடைய",
  "2176": "▁வழியில்",
  "2177": "வருக்கு",
  "2178": "▁ஆகிய",
  "2179": "▁நாடு",
  "2180": "னாலும்",
  "2181": "முன்",
  "2182": "▁பகை",
  "2183": "ற்றா",
  "2184": "▁வஹீ",
  "2185": "▁கடின",
  "2186": "▁நம்பு",
  "2187": "நல்ல",
  "2188": "▁எடுத்து",
  "2189": "▁சிந்தி",
  "2190": "▁விட்டால்",
  "2191": "▁துன்ப",
  "2192": "▁ப்",
  "2193": "▁கூறப்படும்",
  "2194": "▁N",
  "2195": "▁நிர்",
  "2196": "▁G",
  "2197": "னித",
  "2198": "ரிமை",
  "2199": "▁செய்யுங்கள்",
  "2200": "▁L",
  "2201": "களுக்கி",
  "2202": "இன்னும்",
  "2203": "▁கெடு",
  "2204": "ன்றேன்",
  "2205": "▁கொலை",
  "2206": "▁காட்சி",
  "2207": "யாகக்",
  "2208": "அவர்களுக்கு",
  "2209": "▁என்பதையும்",
  "2210": "▁அவனி",
  "2211": "கிழ்",
  "2212": "மற்ற",
  "2213": "▁திடமாக",
  "2214": "▁/",
  "2215": "▁R",
  "2216": "அவர்களை",
  "2217": "▁மட்டும்",
  "2218": "▁அதனால்",
  "2219": "▁of",
  "2220": "▁l",
  "2221": "த்திரு",
  "2222": "▁உலக",
  "2223": "ந்தோம்",
  "2224": "க்கப்பட்டி",
  "2225": "▁எறி",
  "2226": "ப்புற",
  "2227": "ஸின்",
  "2228": "என",
  "2229": "▁சார்",
  "2230": "▁தொகு",
  "2231": "▁அவற்றில்",
  "2232": "▁அப்படி",
  "2233": "and",
  "2234": "ld",
  "2235": "ண்ட்",
  "2236": "முக",
  "2237": "▁நல்லுபதே",
  "2238": "பம்",
  "2239": "▁ஓதி",
  "2240": "த்தின",
  "2241": "▁கண்ணிய",
  "2242": "பவர்",
  "2243": "யடை",
  "2244": "▁அல்லாஹ்வுடைய",
  "2245": "ப்பாக",
  "2246": "வதற்காகவும்",
  "2247": "▁அச்சு",
  "2248": "▁தவணை",
  "2249": "▁வடிவமை",
  "2250": "▁சந்தேக",
  "2251": "▁g",
  "2252": "▁மை",
  "2253": "▁செய்கிறான்",
  "2254": "யுமா",
  "2255": "▁தங்கு",
  "2256": "வராகவும்",
  "2257": "▁செயல்படு",
  "2258": "AN",
  "2259": "கில",
  "2260": "ப்பதை",
  "2261": "▁கிடைக்கும்",
  "2262": "▁விட்டான்",
  "2263": "ருப்பு",
  "2264": "▁ஆகும்",
  "2265": "முடி",
  "2266": "▁மன",
  "2267": "பூமி",
  "2268": "▁என்றால்",
  "2269": "▁காட்டி",
  "2270": "▁அல்லாஹ்வே",
  "2271": "▁பேச",
  "2272": "▁கொண்டவர்களே",
  "2273": "ற்பனை",
  "2274": "▁உருவாக்கு",
  "2275": "▁தற்",
  "2276": "▁வாருங்கள்",
  "2277": "enc",
  "2278": "▁விடும்",
  "2279": "▁நண்ப",
  "2280": "▁தரும்",
  "2281": "ல்வி",
  "2282": "களோ",
  "2283": "அதை",
  "2284": "கிறீர்களா",
  "2285": "ந்திருக்கி",
  "2286": "▁மதிப்பு",
  "2287": "வர்களையும்",
  "2288": "அவன்",
  "2289": "அந்த",
  "2290": "▁5",
  "2291": "▁எண்ணிக்கை",
  "2292": "▁நம்மி",
  "2293": "▁குறிப்பிட்ட",
  "2294": "▁பேசு",
  "2295": "வதில்",
  "2296": "▁st",
  "2297": "ன்றாக",
  "2298": "▁கேடு",
  "2299": "▁எல்லாம்",
  "2300": "▁இழ",
  "2301": "அவ்வாறு",
  "2302": "▁வண்ண",
  "2303": "▁ஆயினும்",
  "2304": "▁பற்றிய",
  "2305": "▁அழகான",
  "2306": "▁செய்வதை",
  "2307": "▁இதன்",
  "2308": "▁பிடித்துக்",
  "2309": "▁ஸாலிஹான",
  "2310": "▁மக்களுக்கு",
  "2311": "▁தூதர்கள்",
  "2312": "▁வழிகே",
  "2313": "▁நீங்களும்",
  "2314": "▁தண்டனை",
  "2315": "▁உண்மையான",
  "2316": "▁பூமியையும்",
  "2317": "▁அப்பா",
  "2318": "▁கொள்வார்கள்",
  "2319": "வர்களின்",
  "2320": "பவி",
  "2321": "▁பட்ட",
  "2322": "த்தீ",
  "2323": "றொரு",
  "2324": "மாகவும்",
  "2325": "▁அதிலிருந்து",
  "2326": "திரி",
  "2327": "▁சூழ்ச்சி",
  "2328": "▁புள்ளி",
  "2329": "▁கணி",
  "2330": "இறைவ",
  "2331": "▁கட்டளையி",
  "2332": "வினர்",
  "2333": "▁பிரார்த்தனை",
  "2334": "▁4",
  "2335": "▁மொ",
  "2336": "▁அல்லாஹ்விடமிருந்து",
  "2337": "▁நாட்",
  "2338": "▁அவர்களுக்குப்",
  "2339": "▁பின்பற்றி",
  "2340": "ப்பளி",
  "2341": "▁நபியே",
  "2342": "▁நியா",
  "2343": "வெளி",
  "2344": "▁சிறு",
  "2345": "▁மரி",
  "2346": "▁U",
  "2347": "▁கேள்வி",
  "2348": "▁அம்",
  "2349": "ன்றது",
  "2350": "டாதீர்கள்",
  "2351": "▁முதல்",
  "2352": "▁சாளர",
  "2353": "▁உடன்",
  "2354": "▁உண்மையாள",
  "2355": "▁அம",
  "2356": "olor",
  "2357": "▁எவ்வித",
  "2358": "▁உபதே",
  "2359": "▁வில",
  "2360": "டனும்",
  "2361": "▁வரையில்",
  "2362": "▁ஏற்றுக்",
  "2363": "ப்பார்",
  "2364": "ப்பட்டால்",
  "2365": "▁இறைவா",
  "2366": "▁உயிர்ப்பி",
  "2367": "னார்கள்",
  "2368": "▁ஜா",
  "2369": "un",
  "2370": "▁நாடினால்",
  "2371": "காரம்",
  "2372": "▁மூல",
  "2373": "இந்த",
  "2374": "லையும்",
  "2375": "▁உனக்கு",
  "2376": "▁தொட",
  "2377": "▁வேதத்தை",
  "2378": "மையில்",
  "2379": "ப்பதற்காக",
  "2380": "னது",
  "2381": "▁உங்களுக்காக",
  "2382": "▁நேரான",
  "2383": "மானது",
  "2384": "மாட்டான்",
  "2385": "▁செய்யவும்",
  "2386": "திரு",
  "2387": "▁கடவு",
  "2388": "ow",
  "2389": "▁இதனை",
  "2390": "▁காட்ட",
  "2391": "லிரு",
  "2392": "ப்பாயாக",
  "2393": "க்காது",
  "2394": "▁திட்டமாக",
  "2395": "▁முடியாத",
  "2396": "▁சூனிய",
  "2397": "▁inf",
  "2398": "▁இரகசி",
  "2399": "ந்திரு",
  "2400": "த்திர",
  "2401": "▁நாமே",
  "2402": "ரேனும்",
  "2403": "▁th",
  "2404": "ri",
  "2405": "வதாக",
  "2406": "▁அழு",
  "2407": "பவனாகவும்",
  "2408": "▁பட்டிய",
  "2409": "முஃமி",
  "2410": "▁படைத்த",
  "2411": "▁நிறைவே",
  "2412": "ண்டை",
  "2413": "▁உணவு",
  "2414": "▁அறிந்த",
  "2415": "மானால்",
  "2416": "▁குறு",
  "2417": "▁கடுமையான",
  "2418": "வரா",
  "2419": "▁�",
  "2420": "▁பரிசுத்த",
  "2421": "▁அஞ்சு",
  "2422": "▁ஆவண",
  "2423": "பிடி",
  "2424": "க்ஸ்",
  "2425": "▁இணைப்பு",
  "2426": "ளம்",
  "2427": "▁பின்னரும்",
  "2428": "தின்",
  "2429": "▁H",
  "2430": "மார்",
  "2431": "க்கொள்",
  "2432": "▁கொண்டார்கள்",
  "2433": "கரு",
  "2434": "▁மூதா",
  "2435": "நீர்",
  "2436": "▁முயற்சி",
  "2437": "யிருந்தால்",
  "2438": "▁ஷைத்தா",
  "2439": "பால்",
  "2440": "▁சுவனபதி",
  "2441": "▁நாளை",
  "2442": "றாஹீ",
  "2443": "▁பாருங்கள்",
  "2444": ",)",
  "2445": "▁வானத்திலிருந்து",
  "2446": "முதா",
  "2447": "▁அழகிய",
  "2448": "▁அதற்",
  "2449": "▁பயன்படுத்து",
  "2450": "▁அமல்",
  "2451": "▁தட",
  "2452": "em",
  "2453": "▁ஒழு",
  "2454": "மாம்",
  "2455": "▁கியாம",
  "2456": "▁அகில",
  "2457": "▁வார்த்தை",
  "2458": "▁என்னும்",
  "2459": "age",
  "2460": "▁எவரேனும்",
  "2461": "னியா",
  "2462": "▁கொண்டோ",
  "2463": "▁சோதி",
  "2464": "டனே",
  "2465": "ருகு",
  "2466": "▁ஆதா",
  "2467": "▁வானங்களையும்",
  "2468": "முஃமின்",
  "2469": "ந்திய",
  "2470": "▁�\\",
  "2471": "▁புகு",
  "2472": "▁எதையும்",
  "2473": "▁அடையாள",
  "2474": "▁குழு",
  "2475": "▁கனி",
  "2476": "▁அனுபவி",
  "2477": "▁சோ",
  "2478": "▁பயபக்தியுடைய",
  "2479": "▁பகிரங்கமான",
  "2480": "யின",
  "2481": "▁re",
  "2482": "க்கிறோம்",
  "2483": "பாவ",
  "2484": "▁ஆட்சி",
  "2485": "ப்படிய",
  "2486": "▁மனிதர்கள்",
  "2487": "▁இறக்கு",
  "2488": "▁சேவை",
  "2489": "▁வாசி",
  "2490": "▁தவறா",
  "2491": "ils",
  "2492": "▁புசி",
  "2493": "▁உள்ளன",
  "2494": "▁குற்றவாளி",
  "2495": "க்கின்றா",
  "2496": "த்திருப்ப",
  "2497": "காசம்",
  "2498": "▁வேண்டுமா",
  "2499": "▁மிக்கவன்",
  "2500": "ce",
  "2501": "▁எதைப்",
  "2502": "▁சூரிய",
  "2503": "வதும்",
  "2504": "வதையும்",
  "2505": "▁உறுதியாக",
  "2506": "▁தங்களை",
  "2507": "ல்லோ",
  "2508": "▁தக்க",
  "2509": "▁கொடுத்த",
  "2510": "ல்கள்",
  "2511": "நற்",
  "2512": "▁அறியாத",
  "2513": "▁விட்டோம்",
  "2514": "த்திக்",
  "2515": "மங்கள்",
  "2516": "▁மகிழ்",
  "2517": "▁இல்லா",
  "2518": "கிறார்",
  "2519": "▁கூறுங்கள்",
  "2520": "▁info",
  "2521": "▁எதிராக",
  "2522": "▁பேரா",
  "2523": "ப்பொ",
  "2524": "த்தைத்",
  "2525": "வற்றில்",
  "2526": "க்கிறீ",
  "2527": "ப்போர்",
  "2528": "ப்படியல்ல",
  "2529": "யாவரையும்",
  "2530": "▁இடம்",
  "2531": "▁இறைவனுடைய",
  "2532": "▁வைத்துக்",
  "2533": "▁[",
  "2534": "▁இணைவை",
  "2535": "▁அவனிடம்",
  "2536": "▁கண்ட",
  "2537": "▁செய்கிறார்களோ",
  "2538": "▁எங்கே",
  "2539": "th",
  "2540": "தேனும்",
  "2541": "▁இவர்களை",
  "2542": "▁மெய்யாகவே",
  "2543": "▁எவரையும்",
  "2544": "▁X",
  "2545": "▁அனுப்பு",
  "2546": "▁காலம்",
  "2547": "▁பட்டியல்",
  "2548": "▁சுற்றி",
  "2549": "▁தங்களுடைய",
  "2550": "ங்களா",
  "2551": "▁மன்னிப்பவனாகவும்",
  "2552": "யில்லை",
  "2553": "▁எவ்வாறு",
  "2554": "▁இடத்தில்",
  "2555": "▁சத்தியம்",
  "2556": "▁தாங்கள்",
  "2557": "▁இதுவே",
  "2558": "ட்டின்",
  "2559": "▁மீதே",
  "2560": "லகில்",
  "2561": "▁யாவரையும்",
  "2562": "▁நிகழ்",
  "2563": "தாகவும்",
  "2564": "▁காஃபிர்கள்",
  "2565": "▁தொடர்",
  "2566": "க்காரர்",
  "2567": "tenc",
  "2568": "▁இங்கு",
  "2569": "as",
  "2570": "▁அறிவு",
  "2571": "▁நம்மை",
  "2572": "▁எவரு",
  "2573": "தவ",
  "2574": "▁திருப்",
  "2575": "ரஹ்",
  "2576": "▁தவறு",
  "2577": "▁ஃ",
  "2578": "நினை",
  "2579": "▁செய்தான்",
  "2580": "▁முத",
  "2581": "▁நம்ப",
  "2582": "டமும்",
  "2583": "▁ஆமாம்",
  "2584": "tencils",
  "2585": "▁சமுதா",
  "2586": "▁அழித்து",
  "2587": "▁போன்று",
  "2588": "▁எங்",
  "2589": "▁செவியே",
  "2590": "▁சாய்",
  "2591": "வாறு",
  "2592": "▁செய்யப்பட",
  "2593": "▁வெகு",
  "2594": "▁கல",
  "2595": "மொழி",
  "2596": "பட",
  "2597": "ள்ளே",
  "2598": "அல்லாஹ்வை",
  "2599": "▁வாய்",
  "2600": "▁செய்தோம்",
  "2601": "▁முகவரி",
  "2602": "▁மனிதர்களுக்கு",
  "2603": "▁படைத்தான்",
  "2604": "விட்டது",
  "2605": "யுடையவன்",
  "2606": "▁உங்களுக்குக்",
  "2607": "▁தரவு",
  "2608": "யாளர்",
  "2609": "▁அவ்வா",
  "2610": "▁அவர்களுக்காக",
  "2611": "▁translat",
  "2612": "▁லூ",
  "2613": "color",
  "2614": "▁செல்லு",
  "2615": "▁எளி",
  "2616": "▁சோதனை",
  "2617": "▁இருவரும்",
  "2618": "▁நடு",
  "2619": "ட்டம்",
  "2620": "ட்டாது",
  "2621": "▁வழங்கு",
  "2622": "தலை",
  "2623": "யத்",
  "2624": "வேண்டும்",
  "2625": "யங்",
  "2626": "வளவு",
  "2627": "▁பொய்யாக்கு",
  "2628": "மாகக்",
  "2629": "க்கிறார்கள்",
  "2630": "▁மறந்து",
  "2631": "▁செலுத்த",
  "2632": "ருந்தும்",
  "2633": "▁ஒட்ட",
  "2634": "என்னுடைய",
  "2635": "▁கூறுகின்றனர்",
  "2636": "பல",
  "2637": "த்திரை",
  "2638": "ஜூது",
  "2639": "▁நன்கறிந்தவன்",
  "2640": "▁y",
  "2641": "▁மாட்டோம்",
  "2642": "றான்",
  "2643": "▁பார்க்கவில்லையா",
  "2644": "ணும்",
  "2645": "▁அப்பொழுது",
  "2646": "▁இருக்கிறேன்",
  "2647": "யடி",
  "2648": "▁அத்தாட்சிகள்",
  "2649": "ண்ணீ",
  "2650": "▁என்னிடம்",
  "2651": "▁தலைப்பு",
  "2652": "▁பெற்",
  "2653": "DE",
  "2654": "ராஹீ",
  "2655": "ழும்",
  "2656": "ர்களாயின்",
  "2657": "ருவர்",
  "2658": "▁அருளி",
  "2659": "▁6",
  "2660": "▁மூன்று",
  "2661": "▁இறந்து",
  "2662": "▁இருக்கவில்லை",
  "2663": "▁வட்டை",
  "2664": "▁it",
  "2665": "▁என்பது",
  "2666": "▁செய்யா",
  "2667": "▁உரிமை",
  "2668": "ள்ளான்",
  "2669": "ver",
  "2670": "▁செல்லும்",
  "2671": "ராயீ",
  "2672": "ஆனால்",
  "2673": "▁பாக்கிய",
  "2674": "ch",
  "2675": "▁மீறி",
  "2676": "▁கொண்டான்",
  "2677": "▁மிகைத்தவன்",
  "2678": "▁ரா",
  "2679": "த்துச்",
  "2680": "▁நீங்க",
  "2681": "வனாகவே",
  "2682": "▁ஸுஜூது",
  "2683": "▁இல்லாத",
  "2684": "▁கண்டுபிடி",
  "2685": "▁கணக்கி",
  "2686": "▁யாதொரு",
  "2687": "▁பதில்",
  "2688": "▁உப",
  "2689": "▁டிவிடி",
  "2690": "▁கேட்பா",
  "2691": "க்கிறார்களோ",
  "2692": "அல்லாஹ்வுக்கு",
  "2693": "▁வீணா",
  "2694": "மறுமையில்",
  "2695": "▁இப்றாஹீ",
  "2696": "▁be",
  "2697": "▁மற்றொரு",
  "2698": "▁விர",
  "2699": "ts",
  "2700": "அப்படி",
  "2701": "▁போய்",
  "2702": "▁பின்பு",
  "2703": "வளி",
  "2704": "▁இழு",
  "2705": "▁காப்பாற்றி",
  "2706": "ங்கை",
  "2707": "▁கருணை",
  "2708": "வேறெ",
  "2709": "▁இம்",
  "2710": "▁ஆக",
  "2711": "யத்தில்",
  "2712": "pp",
  "2713": "மடை",
  "2714": "▁பண்",
  "2715": "▁காட்டும்",
  "2716": "▁அடைய",
  "2717": "வேசி",
  "2718": "நேர்",
  "2719": "▁கிட",
  "2720": "றுத்து",
  "2721": "▁அவன்தான்",
  "2722": "▁அத்தாட்சிகளை",
  "2723": "▁அவ்வாறு",
  "2724": "▁வேண்டுமெ",
  "2725": "?)",
  "2726": "தமான",
  "2727": "▁நிச்ச",
  "2728": "▁ஜின்",
  "2729": "▁அல்லாஹ்வுக்கும்",
  "2730": "▁முஃமினான",
  "2731": "▁முனை",
  "2732": "▁மாறி",
  "2733": "▁நின்று",
  "2734": "▁அல்லர்",
  "2735": "ன்மா",
  "2736": "▁பயப்படு",
  "2737": "▁எழுப்ப",
  "2738": "▁ஓடி",
  "2739": "de",
  "2740": "▁மழை",
  "2741": "ess",
  "2742": "ss",
  "2743": "▁கொடுக்க",
  "2744": "▁அதைப்",
  "2745": "▁தெளிவாக",
  "2746": "▁செய்வான்",
  "2747": "▁தேடி",
  "2748": "டையில்",
  "2749": "▁மோ",
  "2750": "▁உற",
  "2751": "த்திற்கா",
  "2752": "▁போதிலும்",
  "2753": "▁வரைய",
  "2754": "பட்ட",
  "2755": "▁முஸ்",
  "2756": "▁விட்டா",
  "2757": "▁கோப்பினை",
  "2758": "▁மூழ்",
  "2759": "▁நமக்கு",
  "2760": "▁குடி",
  "2761": "▁அல்லாத",
  "2762": "ப்படுகிறது",
  "2763": "ந்தான்",
  "2764": "ன்றீர்கள்",
  "2765": "▁காலை",
  "2766": "▁பிரவேசி",
  "2767": "▁E",
  "2768": "▁தோ",
  "2769": "▁சொல்லி",
  "2770": "களான",
  "2771": "▁நிராகரித்து",
  "2772": "▁கற்பனை",
  "2773": "▁சிறிது",
  "2774": "▁சுழ",
  "2775": "▁வசதி",
  "2776": "ப்படுவீர்கள்",
  "2777": "▁அவர்களைத்",
  "2778": "▁சிடி",
  "2779": "காட்டி",
  "2780": "▁தொழுகையை",
  "2781": "▁உட்",
  "2782": "ந்தீர்கள்",
  "2783": "வணை",
  "2784": "▁சுவை",
  "2785": "▁இறந்த",
  "2786": "▁ஒது",
  "2787": "▁சொற்ப",
  "2788": "▁காஃபிர்களுக்கு",
  "2789": "ரிக்கு",
  "2790": "▁வேதனையும்",
  "2791": "▁திறக்க",
  "2792": "குர்ஆ",
  "2793": "▁ஒன்றை",
  "2794": "▁விளையாட்டு",
  "2795": "▁பேராற்ற",
  "2796": "டியோ",
  "2797": "▁தீர்ப்பளி",
  "2798": "▁கடமை",
  "2799": "னாகிய",
  "2800": "வச",
  "2801": "வேதத்",
  "2802": "▁மிகக்",
  "2803": "▁திரும்பு",
  "2804": "▁துணை",
  "2805": "▁சாராரும்",
  "2806": "▁எதிர்பார்",
  "2807": "▁இஸ்ராயீ",
  "2808": "▁போது",
  "2809": "▁பதிவு",
  "2810": "▁போல",
  "2811": "ter",
  "2812": "த்தார்கள்",
  "2813": "▁காண்பீ",
  "2814": "ex",
  "2815": "இறுதி",
  "2816": "▁சாத",
  "2817": "த்தேன்",
  "2818": "▁அப்பால்",
  "2819": "க்குப்",
  "2820": "▁இருக்கிற",
  "2821": "▁தமக்கு",
  "2822": "▁அவனைத்",
  "2823": "▁குர்ஆனை",
  "2824": "ர்ய",
  "2825": "▁சிறந்த",
  "2826": "▁நாய",
  "2827": "▁விவரி",
  "2828": "▁தங்கியிரு",
  "2829": "வரின்",
  "2830": "அப்போது",
  "2831": "▁அல்லாஹ்விடமே",
  "2832": "▁அர்ரஹ்",
  "2833": "கக்",
  "2834": "லால்",
  "2835": "▁வானங்களிலும்",
  "2836": "▁பூமியிலும்",
  "2837": "▁மேலா",
  "2838": "▁பிரா",
  "2839": "▁கொண்டோம்",
  "2840": "IN",
  "2841": "க்காதீர்கள்",
  "2842": "யிருக்கும்",
  "2843": "▁இப்ராஹீ",
  "2844": "uck",
  "2845": "ate",
  "2846": "▁ஏதேனும்",
  "2847": "▁கூறினர்",
  "2848": "▁அவர்களைக்",
  "2849": "▁மலக்குகள்",
  "2850": "▁வாரி",
  "2851": "▁ஸ்பே",
  "2852": "வற்றிலிருந்து",
  "2853": "▁தண்ணீ",
  "2854": "யினால்",
  "2855": "▁பொருள்",
  "2856": "ப்பேன்",
  "2857": "▁வலது",
  "2858": "▁இயல",
  "2859": "க்கொண்டிரு",
  "2860": "▁பழி",
  "2861": "▁W",
  "2862": "▁கப்ப",
  "2863": "▁~",
  "2864": "ப்புக்",
  "2865": "நன்மை",
  "2866": "எல்லா",
  "2867": "▁எத்தனை",
  "2868": "▁தடுத்து",
  "2869": "ion",
  "2870": "Stencils",
  "2871": "▁அவச",
  "2872": "றும்",
  "2873": "▁முன்னோ",
  "2874": "▁அவர்களைச்",
  "2875": "▁நிலையான",
  "2876": "▁உறுதியான",
  "2877": "ப்பதில்",
  "2878": "▁கணக்கு",
  "2879": "▁ஆக்கினோம்",
  "2880": "▁கூடாது",
  "2881": "▁கூறுவான்",
  "2882": "▁இழிவு",
  "2883": "காச",
  "2884": "ட்டோ",
  "2885": "உண்",
  "2886": "▁இறைவனுக்கு",
  "2887": "▁இவற்றை",
  "2888": "▁மறுமையில்",
  "2889": "▁கவலை",
  "2890": "ட்டீர்",
  "2891": "ராகவும்",
  "2892": "▁சகோதரர்",
  "2893": "am",
  "2894": "▁தஸ்",
  "2895": "▁விலகிக்",
  "2896": "▁கிடைத்தது",
  "2897": "▁தவி",
  "2898": "▁கேடுதான்",
  "2899": "▁வேண்டி",
  "2900": "▁சமீ",
  "2901": "▁புதல்",
  "2902": "க்கலாம்",
  "2903": "கொள்",
  "2904": "▁எழுத்துரு",
  "2905": "யுண்டு",
  "2906": "▁கன",
  "2907": "▁நாளின்",
  "2908": "▁போக",
  "2909": "▁மறைத்து",
  "2910": "▁மண்",
  "2911": "ங்களிலிருந்து",
  "2912": "▁பெண்கள்",
  "2913": "▁தீய",
  "2914": "▁8",
  "2915": "த்திருக்க",
  "2916": "▁பற்றியும்",
  "2917": "▁முன்னால்",
  "2918": "▁or",
  "2919": "ளப்",
  "2920": "▁உள்ளீ",
  "2921": "▁சாராருடைய",
  "2922": "▁அருட்கொடைகளில்",
  "2923": "▁பொய்யாக்குவீர்கள்",
  "2924": "க்குறி",
  "2925": "▁ஏற்பட்ட",
  "2926": "கத்தை",
  "2927": "▁ஒவ்வோர்",
  "2928": "▁நன்றாக",
  "2929": "▁கொடை",
  "2930": "யைச்",
  "2931": "▁நிழ",
  "2932": "▁குறித்து",
  "2933": "பவர்கள்",
  "2934": "▁உரியது",
  "2935": "▁செய்வீராக",
  "2936": "▁கொண்டு",
  "2937": "▁அவ்வாறே",
  "2938": "▁இத்தகைய",
  "2939": "▁இல",
  "2940": "ரது",
  "2941": "▁தவ்பா",
  "2942": "▁உங்களுடன்",
  "2943": "மிடையே",
  "2944": "அதன்",
  "2945": "▁கொல்ல",
  "2946": "▁பயன",
  "2947": "▁7",
  "2948": "ந்தார்",
  "2949": "ada",
  "2950": "▁கோப்புகளை",
  "2951": "▁அதைக்",
  "2952": "▁அடுத்த",
  "2953": "ப்பிடி",
  "2954": "▁ஆதர",
  "2955": "▁சமூகத்த",
  "2956": "▁எண்ணிக்",
  "2957": "இதற்கு",
  "2958": "anada",
  "2959": "▁வைத்தோம்",
  "2960": "▁ஆரம்",
  "2961": "▁அல்லாஹ்வையன்றி",
  "2962": "▁தூதருக்கும்",
  "2963": "▁போதும்",
  "2964": "▁அவர்களுடன்",
  "2965": "ist",
  "2966": "▁கொண்டது",
  "2967": "▁யூஸு",
  "2968": "ஷ்ரிக்கு",
  "2969": "இறைவன்",
  "2970": "க்கக்",
  "2971": "ருக்காக",
  "2972": "▁பாவி",
  "2973": "▁தஸ்பீ",
  "2974": "▁நன்மாராயங்",
  "2975": "ப்பதற்கா",
  "2976": "▁முறையில்",
  "2977": "▁புத்த",
  "2978": "ப்பான",
  "2979": "▁டை",
  "2980": "ருக்கிறது",
  "2981": "▁அங்கே",
  "2982": "▁பெருமையடி",
  "2983": "வம்",
  "2984": "ation",
  "2985": "▁போகிறேன்",
  "2986": "▁தொட",
  "2987": "▁முன்னிருப்பு",
  "2988": "▁கார்",
  "2989": "▁வில்லை",
  "2990": "ஆகவே",
  "2991": "ay",
  "2992": "▁கூர்",
  "2993": "▁இயலவில்லை",
  "2994": "▁அலா",
  "2995": "▁எண்ண",
  "2996": "வகை",
  "2997": "▁மாட்டீர்கள்",
  "2998": "னுடன்",
  "2999": "▁is",
  "3000": "த்திருக்கும்",
  "3001": "வுமில்லை",
  "3002": "▁காரணம்",
  "3003": "▁கொடு",
  "3004": "▁பெற்று",
  "3005": "▁ஜோ",
  "3006": "லர்",
  "3007": "வாய்",
  "3008": "ப்படுத்திக்",
  "3009": "சத்திய",
  "3010": "▁கடைசி",
  "3011": "▁முற்படு",
  "3012": "▁?",
  "3013": "▁வழிபடு",
  "3014": "ட்டவணை",
  "3015": "யற்ற",
  "3016": "▁ஏற்ற",
  "3017": "வீர்",
  "3018": "டையவன்",
  "3019": "ந்தீ",
  "3020": "▁ஈமா",
  "3021": "▁வரிசை",
  "3022": "டின்",
  "3023": "லிருந்தே",
  "3024": "▁பலஹீ",
  "3025": "த்தினால்",
  "3026": "▁Name",
  "3027": "▁அவனிடமே",
  "3028": "ன்றியும்",
  "3029": "மிக்க",
  "3030": "▁Y",
  "3031": "இவ்வு",
  "3032": "▁எண்ணு",
  "3033": "▁ஏழு",
  "3034": "முஃமின்களே",
  "3035": "றாக",
  "3036": "▁>",
  "3037": "▁கொள்ளாத",
  "3038": "ங்களைப்",
  "3039": "ள்ளை",
  "3040": "டப்பட்ட",
  "3041": "▁சிறிய",
  "3042": "▁வெற்று",
  "3043": "▁கணினி",
  "3044": "கொண்டு",
  "3045": "▁மேற்கு",
  "3046": "▁சூழ்ந்து",
  "3047": "க்கத்திற்கு",
  "3048": "தால்",
  "3049": "த்தூ",
  "3050": "▁குறிப்பு",
  "3051": "க்கத்தை",
  "3052": "வேளை",
  "3053": "லிம்",
  "3054": "ரைக்",
  "3055": "▁தன்னுடைய",
  "3056": "▁க்கு",
  "3057": "▁நினைவூ",
  "3058": "▁இருந்தனர்",
  "3059": "▁நானும்",
  "3060": "▁நிராகரிப்போ",
  "3061": "ப்படுவார்கள்",
  "3062": "▁மனிதர்களில்",
  "3063": "ரமான",
  "3064": "▁Canada",
  "3065": "▁உணவளி",
  "3066": "▁தொலை",
  "3067": "ங்களு",
  "3068": "▁பெரி",
  "3069": "wor",
  "3070": "▁டெ",
  "3071": "பூமியில்",
  "3072": "கடி",
  "3073": "▁இயக்கி",
  "3074": "▁கூறினோம்",
  "3075": "▁விடுவார்கள்",
  "3076": "படிச்",
  "3077": "▁அவர்களுக்குத்",
  "3078": "▁ஏனென்றால்",
  "3079": "ல்லி",
  "3080": "▁சந்திர",
  "3081": "▁ஹார்ட்",
  "3082": "ener",
  "3083": "ரர்",
  "3084": "▁சமா",
  "3085": "த்தாலும்",
  "3086": "▁ஹரா",
  "3087": "தனையும்",
  "3088": "ட்டுமே",
  "3089": "▁விரும்பிய",
  "3090": "ப்பதில்லை",
  "3091": "ன்ட்",
  "3092": "▁வலி",
  "3093": "▁தவறான",
  "3094": "▁அட்டவணை",
  "3095": "▁நிராகரித்துக்",
  "3096": "▁படைத்து",
  "3097": "அவர்களுடைய",
  "3098": "▁me",
  "3099": "▁சமீப",
  "3100": "மாகவே",
  "3101": "▁சரியான",
  "3102": "▁வண்ணம்",
  "3103": "யாகி",
  "3104": "▁கர்",
  "3105": "கல்",
  "3106": "▁அத",
  "3107": "▁ப்ரா",
  "3108": "▁சேர்ந்து",
  "3109": "▁விரோ",
  "3110": "▁ஏழை",
  "3111": ";,",
  "3112": "▁தரு",
  "3113": "▁தேதி",
  "3114": "yp",
  "3115": "▁(%",
  "3116": "▁வடிக",
  "3117": "இப்",
  "3118": "ங்களைக்",
  "3119": "ப்பதற்கு",
  "3120": "▁விரும்ப",
  "3121": "▁முற்ப",
  "3122": "▁பெட்டி",
  "3123": "▁விட்டார்கள்",
  "3124": "▁உருவாக்க",
  "3125": "ig",
  "3126": "க்கமான",
  "3127": "▁அட",
  "3128": "▁மறைவான",
  "3129": "விரண்டி",
  "3130": "▁அவ்விருவரும்",
  "3131": "▁நாடியிருந்தால்",
  "3132": "▁பொருளை",
  "3133": "▁சம்பாதித்த",
  "3134": "▁கொண்டால்",
  "3135": "ஏனெ",
  "3136": "ul",
  "3137": "▁அழிந்து",
  "3138": "▁அவனையன்றி",
  "3139": "▁நீக்க",
  "3140": "▁அச்சி",
  "3141": "▁மன்னிப்பவன்",
  "3142": "▁எவருமில்லை",
  "3143": "▁துதி",
  "3144": "▁சேர்த்து",
  "3145": "▁ஆவார்கள்",
  "3146": "ரத்தில்",
  "3147": "▁நிராகரிப்பவர்கள்",
  "3148": "▁காலி",
  "3149": "▁அறிவான்",
  "3150": "▁விடுவோம்",
  "3151": "நிராகரி",
  "3152": "▁வேறெ",
  "3153": "▁அதற்க",
  "3154": "▁பார்த்து",
  "3155": "▁நல்லடி",
  "3156": "▁முன்னே",
  "3157": "▁எத்தகைய",
  "3158": "▁தஸ்பீஹு",
  "3159": "▁குழப்பம்",
  "3160": "▁டா",
  "3161": "த்தைச்",
  "3162": "▁வைக்க",
  "3163": "▁பொழி",
  "3164": "▁வணங்குங்கள்",
  "3165": "▁நற்கரு",
  "3166": "களுக்கிடையே",
  "3167": "அன்றியும்",
  "3168": "க்கப்பட்டுள்ளது",
  "3169": "▁முஃமின்களே",
  "3170": "ளுங்கள்",
  "3171": "▁கூட",
  "3172": "ச்சா",
  "3173": "▁விசால",
  "3174": "▁பூமியை",
  "3175": "ச்சொ",
  "3176": "▁அடியா",
  "3177": "▁மின்ன",
  "3178": "க்கொண்டு",
  "3179": "▁வாங்கி",
  "3180": "▁அதுவே",
  "3181": "க்கியம்",
  "3182": "▁செய்யப்பட்ட",
  "3183": "▁வெளிப்படுத்து",
  "3184": "என்ப",
  "3185": "வல்",
  "3186": "▁200",
  "3187": "மைப்பு",
  "3188": "▁தூய்மையான",
  "3189": "▁தர்க்கம்",
  "3190": "▁செய்வ",
  "3191": "க்கின்றனர்",
  "3192": "யது",
  "3193": "க்கப்பட்டுள்ள",
  "3194": "▁கோப்புகள்",
  "3195": "ort",
  "3196": "▁குற்றம்",
  "3197": "▁கேட்பீ",
  "3198": "னவே",
  "3199": "▁லி",
  "3200": "▁முஃமின்களுக்கு",
  "3201": "அவ்வாறே",
  "3202": "▁சப்",
  "3203": "வஞ்ச",
  "3204": "▁நல்லுபதேசம்",
  "3205": "▁இத்தகையோ",
  "3206": "▁பொய்ய",
  "3207": "▁இனி",
  "3208": "டுத்து",
  "3209": "▁அணி",
  "3210": "▁தாமே",
  "3211": "▁இரவு",
  "3212": "▁வல்ல",
  "3213": "▁செய்பவற்றை",
  "3214": "குறி",
  "3215": "சனை",
  "3216": "um",
  "3217": "▁கொண்டவர்கள்",
  "3218": "▁ஓதிக்",
  "3219": "பய",
  "3220": "▁போன",
  "3221": "▁கூறுகிறான்",
  "3222": "இவை",
  "3223": "இவர்",
  "3224": "▁தூய்மை",
  "3225": "▁நிரல்",
  "3226": "இணை",
  "3227": "▁பற",
  "3228": "▁பேசி",
  "3229": "▁வசி",
  "3230": "ain",
  "3231": "ப்பவர்",
  "3232": "▁படுத்து",
  "3233": "tle",
  "3234": "▁வழிகெ",
  "3235": "▁உங்களைக்",
  "3236": "லுக்கு",
  "3237": "பட்டு",
  "3238": "தற்கும்",
  "3239": "▁வரலா",
  "3240": "ve",
  "3241": "▁இருக்கிறோம்",
  "3242": "▁பெயரை",
  "3243": "க்கப்பட்டால்",
  "3244": "▁நடி",
  "3245": "கரி",
  "3246": "ey",
  "3247": "▁உயிரு",
  "3248": "மானி",
  "3249": "த்தனர்",
  "3250": "டான",
  "3251": "▁உண்டாக்கு",
  "3252": "▁ti",
  "3253": "▁பயன்பாடு",
  "3254": "▁பதிலாக",
  "3255": "▁உமது",
  "3256": "▁நெருப்பு",
  "3257": "க்கிக்",
  "3258": "▁சாட்சியாக",
  "3259": "டாத",
  "3260": "▁உங்களு",
  "3261": "தைத்",
  "3262": "அவனை",
  "3263": "▁குரு",
  "3264": "▁மிக்கோ",
  "3265": "▁ஆண்டு",
  "3266": "த்தினர்",
  "3267": "▁அவரது",
  "3268": "▁சமுதாய",
  "3269": "▁அப்படியல்ல",
  "3270": "ற்றம்",
  "3271": "ப்பீர்கள்",
  "3272": "▁சபி",
  "3273": "▁அழைத்து",
  "3274": "ரங்கள்",
  "3275": "if",
  "3276": "▁மனைவிய",
  "3277": "▁com",
  "3278": "▁KDE",
  "3279": "ரைப்",
  "3280": "▁நன்கறிவான்",
  "3281": "▁ஆகிவி",
  "3282": "நடை",
  "3283": "த்திருக்கின்றோம்",
  "3284": "ட்டீர்களா",
  "3285": "▁முஃமின்கள்",
  "3286": "ப்போதும்",
  "3287": "eg",
  "3288": "▁பெற்றோ",
  "3289": "▁முஷ்ரிக்கு",
  "3290": "▁அல்",
  "3291": "யுள்ளோம்",
  "3292": "க்கோ",
  "3293": "ர்க்",
  "3294": "மூஸாவே",
  "3295": "ந்தாலும்",
  "3296": "மம்",
  "3297": "▁தீங்கி",
  "3298": "▁பூமியிலுள்ள",
  "3299": "▁டைம",
  "3300": "▁நெருப்பை",
  "3301": "▁அவசர",
  "3302": "▁நிறுத்த",
  "3303": "▁அலங்கா",
  "3304": "AR",
  "3305": "வர்களாகவே",
  "3306": "▁வசனங்களைப்",
  "3307": "▁மேன்மை",
  "3308": "▁ac",
  "3309": "▁இருக்கிறீ",
  "3310": "▁கட்டி",
  "3311": "▁அன்பு",
  "3312": "த்திலேயே",
  "3313": "▁ய",
  "3314": "▁போதுமானவன்",
  "3315": "▁வலை",
  "3316": "▁for",
  "3317": "ளிக்",
  "3318": "qu",
  "3319": "கள",
  "3320": "▁கீழ்படி",
  "3321": "▁ட",
  "3322": "▁விரைவில்",
  "3323": "▁அலை",
  "3324": "▁நடப்பு",
  "3325": "im",
  "3326": "ம்பு",
  "3327": "▁தன்னி",
  "3328": "▁இருப்பி",
  "3329": "▁நேரத்தில்",
  "3330": "டவும்",
  "3331": "க்காரர்கள்",
  "3332": "▁you",
  "3333": "▁வழியை",
  "3334": "▁வேளை",
  "3335": "▁கழு",
  "3336": "▁நட்ச",
  "3337": "▁தற்போ",
  "3338": "ண்டின்",
  "3339": "செயல்",
  "3340": "▁on",
  "3341": "▁ஏய்",
  "3342": "▁'%",
  "3343": "▁வந்தது",
  "3344": "▁கண்டா",
  "3345": "வருக்கொ",
  "3346": "வருக்கொருவர்",
  "3347": "▁சேவைய",
  "3348": "▁பயனர்",
  "3349": "▁போரி",
  "3350": "▁சோலை",
  "3351": "▁மாதிரி",
  "3352": "▁மணி",
  "3353": "▁ஏமா",
  "3354": "கமாக",
  "3355": "▁பார்த்துக்",
  "3356": "▁வைத்தான்",
  "3357": "▁பாதையை",
  "3358": "வர்களைப்",
  "3359": "ர்ச்சி",
  "3360": "ang",
  "3361": "ன்ஸ்",
  "3362": "▁இடது",
  "3363": "▁நடை",
  "3364": "▁இயலாது",
  "3365": "▁உங்களுக்குத்",
  "3366": "▁r",
  "3367": "▁கேட்டு",
  "3368": "க்காத",
  "3369": "▁தூய",
  "3370": "▁இருந்தார்",
  "3371": "▁செய்திருக்கி",
  "3372": "▁மூதாதைய",
  "3373": "யவஞ்ச",
  "3374": "வுடன்",
  "3375": "▁புகழ்",
  "3376": "▁கூர்வீராக",
  "3377": "▁எங்களுடைய",
  "3378": "ஆர்",
  "3379": "வடை",
  "3380": "eneric",
  "3381": "▁அளித்த",
  "3382": "▁விடாதீர்கள்",
  "3383": "▁தன்னை",
  "3384": "▁இருப்பின்",
  "3385": "பவர்களாக",
  "3386": "படிக்கை",
  "3387": "▁காரணத்தால்",
  "3388": "▁கல்வி",
  "3389": "▁ஜோடி",
  "3390": "▁தாய்",
  "3391": "ount",
  "3392": "▁ஆக்கிக்",
  "3393": "▁திசை",
  "3394": "உன்",
  "3395": "ங்களைச்",
  "3396": "▁பக்கத்தில்",
  "3397": "▁இல்",
  "3398": "▁பொருட்களையும்",
  "3399": "▁அல்லாஹ்தான்",
  "3400": "▁நெருங்கிய",
  "3401": "▁தீங்கிழை",
  "3402": "▁மாத",
  "3403": "▁பரிந்து",
  "3404": "▁பொய்ப்பிக்க",
  "3405": "▁விற்",
  "3406": "▁யாவரும்",
  "3407": "▁மக்களை",
  "3408": "▁அவருடன்",
  "3409": "▁wh",
  "3410": "▁மேலே",
  "3411": "▁தவிர்",
  "3412": "▁கோப்பை",
  "3413": "▁la",
  "3414": "▁செய்வோம்",
  "3415": "அவனே",
  "3416": "▁மாலை",
  "3417": "▁இச்சை",
  "3418": "▁திடனாக",
  "3419": "வுகள்",
  "3420": "த்துக்கு",
  "3421": "▁தேர்ந்தெடுக்கப்பட்ட",
  "3422": "▁ஒருவராக",
  "3423": "▁ஏற்க",
  "3424": "▁மட்டுமே",
  "3425": "▁உய",
  "3426": "▁வடிகட்டி",
  "3427": "▁12",
  "3428": "▁செவியு",
  "3429": "ஞ்சல்",
  "3430": "▁sh",
  "3431": "▁தோட்ட",
  "3432": "▁உள்ளட",
  "3433": "▁முன்பு",
  "3434": "▁பொது",
  "3435": "மனித",
  "3436": "▁நன்கறிபவன்",
  "3437": "▁ஏற்பட்டு",
  "3438": "ரியா",
  "3439": "▁விட்டன",
  "3440": "▁இல்லையா",
  "3441": "OR",
  "3442": "லெடு",
  "3443": "se",
  "3444": "▁குளி",
  "3445": "▁தப்பி",
  "3446": "மலி",
  "3447": "மெரி",
  "3448": "▁வைத்த",
  "3449": "▁மொழி",
  "3450": "▁உங்களுக்குப்",
  "3451": "▁ஒருவ",
  "3452": "▁திட்டம்",
  "3453": "▁தற்போதைய",
  "3454": "மேலும்",
  "3455": "▁ஜகா",
  "3456": "▁ஆறுகள்",
  "3457": "டிக்கை",
  "3458": "▁மன்னிப்புக்",
  "3459": "▁விரைந்து",
  "3460": "▁அனுப்பினோம்",
  "3461": "▁இடைவெளி",
  "3462": "அவ்வா",
  "3463": "▁இடையே",
  "3464": "▁அருள",
  "3465": "ME",
  "3466": "▁பொருளையும்",
  "3467": "▁நான்கு",
  "3468": "▁கூட்டத்தார்",
  "3469": "▁உன்னி",
  "3470": "க்கத்திற்குரிய",
  "3471": "▁கடினமான",
  "3472": "ராய்",
  "3473": "▁இவர்களுடைய",
  "3474": "▁மர்ய",
  "3475": "▁இவ்வேத",
  "3476": "▁பிரிவினர்",
  "3477": "எனக்கு",
  "3478": "▁கொள்ளாதீர்கள்",
  "3479": "ச்சரிய",
  "3480": "▁ஒருவரை",
  "3481": "▁குறைந்த",
  "3482": "▁உரையா",
  "3483": "▁ஹார்ட்ஸின்",
  "3484": "▁இருந்தார்கள்",
  "3485": "▁நீரும்",
  "3486": "▁விவ",
  "3487": "▁அல்லாஹ்வும்",
  "3488": "செல்",
  "3489": "▁(\"",
  "3490": "ரைத்",
  "3491": "▁()",
  "3492": "▁உதவியாள",
  "3493": "ச்செய்",
  "3494": "▁அருளை",
  "3495": "ங்களிலுள்ள",
  "3496": "▁தடுத்துக்",
  "3497": "விய",
  "3498": "▁பின்னால்",
  "3499": "▁இருதயங்கள்",
  "3500": "▁எரி",
  "3501": "▁ஈஸா",
  "3502": "▁விடுகிறான்",
  "3503": "ப்போ",
  "3504": "▁பக்கமே",
  "3505": "▁நீதி",
  "3506": "nu",
  "3507": "ராள",
  "3508": "▁ஆகிவிடு",
  "3509": "ப்பவர்கள்",
  "3510": "▁மொழி",
  "3511": "மக்களை",
  "3512": "▁உணர்",
  "3513": "▁காப்பாற்று",
  "3514": "▁இறக்கிய",
  "3515": "▁நின்றும்",
  "3516": "க்கப்படவில்லை",
  "3517": "▁பொழுது",
  "3518": "▁யாரும்",
  "3519": "▁இறக்குமதி",
  "3520": "▁சுட்டி",
  "3521": "▁செயல்கள்",
  "3522": "▁and",
  "3523": "டுக",
  "3524": "▁நீண்ட",
  "3525": "ent",
  "3526": "ப்படவில்லை",
  "3527": "க்கின்றன",
  "3528": "▁எவ்வளவு",
  "3529": "▁மீறிய",
  "3530": "திக்கும்",
  "3531": "▁சதி",
  "3532": "▁மேற்",
  "3533": "▁நிறம்",
  "3534": "ண்டாம்",
  "3535": "▁விரும்புகிறீர்களா",
  "3536": "ளாக",
  "3537": "▁தொடர்பு",
  "3538": "▁பரா",
  "3539": "AT",
  "3540": "வர்களைத்",
  "3541": "▁செய்தாலும்",
  "3542": "▁மகிழ்ச்சி",
  "3543": "க்காமல்",
  "3544": "முடன்",
  "3545": "vi",
  "3546": "▁மண",
  "3547": "▁கொண்டார்",
  "3548": "▁நிறுத்து",
  "3549": "▁ஆதலால்",
  "3550": "மின்",
  "3551": "▁அநியாயக்காரர்",
  "3552": "▁நரகத்தில்",
  "3553": "▁மரணம்",
  "3554": "▁அறியா",
  "3555": "▁யாவற்றையும்",
  "3556": "▁பாவம்",
  "3557": "▁உம்மீது",
  "3558": "▁பீ",
  "3559": "▁எந்தப்",
  "3560": "▁பாவங்களை",
  "3561": "க்கிறீர்கள்",
  "3562": "▁யாவும்",
  "3563": "▁கொண்டிருந்தா",
  "3564": "▁நல்லுபதேச",
  "3565": "▁காண்பீர்",
  "3566": "அவனுக்கு",
  "3567": "லாண்ட்",
  "3568": "SL",
  "3569": "▁தகுதி",
  "3570": "▁உமக்குக்",
  "3571": "▁எல்லோ",
  "3572": "▁அவளை",
  "3573": "▁இரகசிய",
  "3574": "▁con",
  "3575": "▁திருப்தி",
  "3576": "▁எத்தனையோ",
  "3577": "▁முக்கிய",
  "3578": "▁தண்டி",
  "3579": "▁வழங்க",
  "3580": "▁தொலை",
  "3581": "▁உதாரணம்",
  "3582": "மையும்",
  "3583": "▁சமூகத்தாரை",
  "3584": "▁கொள்கிறார்கள்",
  "3585": "▁தள",
  "3586": "▁சேமிக்க",
  "3587": "▁கூட்டா",
  "3588": "வீர்களாக",
  "3589": "லத்தில்",
  "3590": "▁ஆச்சரிய",
  "3591": "▁பயந்து",
  "3592": "▁தடை",
  "3593": "▁வேதனையைக்",
  "3594": "▁முறி",
  "3595": "▁அல்லாஹ்வையும்",
  "3596": "யிலேயே",
  "3597": "▁நகலெடு",
  "3598": "▁சோதி",
  "3599": "▁இன்று",
  "3600": "▁வேதம்",
  "3601": "enericName",
  "3602": "களாகவும்",
  "3603": "▁முடியுமா",
  "3604": "▁மாட்டாது",
  "3605": "▁but",
  "3606": "▁கோப",
  "3607": "▁திர",
  "3608": "▁துவக்க",
  "3609": "▁தங்க",
  "3610": "ஸ்த",
  "3611": "விஷ",
  "3612": "வக",
  "3613": "▁பிம்பத்தை",
  "3614": "▁குறியீ",
  "3615": "▁முது",
  "3616": "▁கேட்டார்",
  "3617": "டக்கு",
  "3618": "▁V",
  "3619": "▁பொருட்கள்",
  "3620": "▁நிறுவ",
  "3621": "மலும்",
  "3622": "ub",
  "3623": "ஏனெனில்",
  "3624": "▁கொடிய",
  "3625": "▁கடவுச்சொ",
  "3626": "தரி",
  "3627": "▁கற்றுக்",
  "3628": "▁அதிகார",
  "3629": "நினைவு",
  "3630": "art",
  "3631": "▁அஞ்சல்",
  "3632": "இம்",
  "3633": "▁ஏவு",
  "3634": "▁தண்ணீர்",
  "3635": "க்கெல்லாம்",
  "3636": "னக்கே",
  "3637": "மின்றி",
  "3638": "▁பங்கு",
  "3639": "மூது",
  "3640": "யாகப்",
  "3641": "▁அல்லாஹ்வைத்",
  "3642": "▁இறக்கப்பட்ட",
  "3643": "▁கொடுக்கப்பட்ட",
  "3644": "ஜினியா",
  "3645": "▁விவர",
  "3646": "▁வெளியேற்றி",
  "3647": "▁அளவை",
  "3648": "▁செயல்படுத்து",
  "3649": "யிருக்க",
  "3650": "▁விற்ஜினியா",
  "3651": "▁தமக்குத்",
  "3652": "மாட்டீர்",
  "3653": "▁குர்ஆன்",
  "3654": "▁உண்மையை",
  "3655": "மன்",
  "3656": "▁காணவில்லை",
  "3657": "▁மூழ்கடி",
  "3658": "oo",
  "3659": "▁திருப்ப",
  "3660": "▁ஒருவன்",
  "3661": "▁வழிகேட்டில்",
  "3662": "▁விட்டுச்",
  "3663": "▁இருங்கள்",
  "3664": "▁அமல்கள்",
  "3665": "▁இருக்கின்றோம்",
  "3666": "▁அவரிடம்",
  "3667": "▁பேராற்றலு",
  "3668": "▁உடன்படிக்கை",
  "3669": "▁மூஸாவுக்கு",
  "3670": "▁அவகாசம்",
  "3671": "▁அறிகிறான்",
  "3672": "▁கதை",
  "3673": "▁இருப்பீராக",
  "3674": "யிர்",
  "3675": "▁யு",
  "3676": "▁நபிமார்",
  "3677": "▁விவா",
  "3678": "▁கொள்ளவில்லை",
  "3679": "பவனாக",
  "3680": "▁முன்னரே",
  "3681": "▁தானிய",
  "3682": "▁செய்வது",
  "3683": "▁பெற்றுக்",
  "3684": "▁தூதரும்",
  "3685": "▁மாட்டேன்",
  "3686": "▁மின்",
  "3687": "ப்பொரு",
  "3688": "▁ஸ்பேடின்",
  "3689": "▁வசனங்கள்",
  "3690": "GenericName",
  "3691": "ங்கிருந்து",
  "3692": "ucking",
  "3693": "▁அத்தகைய",
  "3694": "அவற்றை",
  "3695": "ன்றோ",
  "3696": "▁சமூகத்தாரிடம்",
  "3697": "ட்டுப்",
  "3698": "ன்City",
  "3699": "▁வாக்களிக்கப்பட்ட",
  "3700": "▁தனக்கு",
  "3701": "▁கற்",
  "3702": "▁இறைவனிடத்தில்",
  "3703": "தக்க",
  "3704": "▁ஃபிர்அவ்ன்",
  "3705": "ன்றித",
  "3706": "▁குடும்பத்தா",
  "3707": "▁க்ளப்",
  "3708": "அவரை",
  "3709": "▁சாளரம்",
  "3710": "▁வெளிப்படை",
  "3711": "▁மய",
  "3712": "▁கொழு",
  "3713": "▁புது",
  "3714": "▁முந்திய",
  "3715": "▁us",
  "3716": "▁பழை",
  "3717": "கூறு",
  "3718": "▁நரகம்",
  "3719": "▁இடத்தை",
  "3720": "மாக்கு",
  "3721": "த்தீர்களா",
  "3722": "▁மகன்",
  "3723": "▁பிள",
  "3724": "வுக்கும்",
  "3725": "▁நமது",
  "3726": "கையில்",
  "3727": "▁நீக்கி",
  "3728": "ile",
  "3729": "▁நெருங்கி",
  "3730": "வையாக",
  "3731": "▁அறை",
  "3732": "யுமாறு",
  "3733": "▁சீக்கி",
  "3734": ")\"",
  "3735": "▁சீட்டு",
  "3736": "▁இயல்",
  "3737": "▁வந்தார்கள்",
  "3738": "▁திரும்பிச்",
  "3739": "▁கொள்",
  "3740": "பான",
  "3741": "▁இதுதான்",
  "3742": "ஸ்ஜி",
  "3743": "▁நியாய",
  "3744": "இதனை",
  "3745": "யுடையவனாகவும்",
  "3746": "▁சித்த",
  "3747": "ழுதும்",
  "3748": "▁டைமண்டின்",
  "3749": "▁வெளியேற்ற",
  "3750": "▁வந்திருக்கி",
  "3751": "யாவும்",
  "3752": "▁அணுக",
  "3753": "▁நிறைவேற்று",
  "3754": "வரிசை",
  "3755": "▁உண்மையைக்",
  "3756": "▁வழு",
  "3757": "வர்களுக்கும்",
  "3758": "▁முஃமின்களாக",
  "3759": "▁தூதரை",
  "3760": "முண்டு",
  "3761": "க்கின்றோம்",
  "3762": "இல்லை",
  "3763": "▁அவர்களோ",
  "3764": "▁தெய்வங்களை",
  "3765": "▁முழ",
  "3766": "அனை",
  "3767": "▁பிரயா",
  "3768": "▁சுக",
  "3769": "▁பின்னணி",
  "3770": "▁9",
  "3771": "ங்களே",
  "3772": "▁தெரியாது",
  "3773": "▁இவ்விரு",
  "3774": "▁கடைப்பிடி",
  "3775": "▁சான்றித",
  "3776": "▁உங்களுக்குச்",
  "3777": "▁சை",
  "3778": "ers",
  "3779": "சிய",
  "3780": "▁un",
  "3781": "▁தலைமுறை",
  "3782": "▁அதிகமாக",
  "3783": "▁சொல்லு",
  "3784": "▁நல்லடியார்",
  "3785": "▁அந்தரங்க",
  "3786": "▁ஜாக்",
  "3787": "▁இல்ல",
  "3788": "▁வானங்கள்",
  "3789": "▁தாழ்",
  "3790": "▁சமூகத்தாரே",
  "3791": "ia_",
  "3792": "▁அமெரி",
  "3793": "tt",
  "3794": "ராது",
  "3795": "வேண்டு",
  "3796": "ind",
  "3797": "வாரா",
  "3798": "▁ஆடை",
  "3799": "▁Q",
  "3800": "▁இருக்கின்றேன்",
  "3801": "▁பாக",
  "3802": "▁பழைய",
  "3803": "▁மனிதர்களே",
  "3804": "ப்பொறி",
  "3805": "▁சப்த",
  "3806": "▁செய்கிறார்கள்",
  "3807": "டுகள்",
  "3808": "▁அமர்",
  "3809": "▁ஒழுங்கு",
  "3810": "யினர்",
  "3811": "ந்திருப்ப",
  "3812": "வுமே",
  "3813": "▁தவறி",
  "3814": "க்குள்",
  "3815": "▁காணும்",
  "3816": "ph",
  "3817": "▁அடிப்படை",
  "3818": "▁10",
  "3819": "▁நீயே",
  "3820": "யினும்",
  "3821": "ன்பது",
  "3822": "விலிருந்து",
  "3823": "▁ஆணை",
  "3824": "▁துடை",
  "3825": "▁அதைத்",
  "3826": "▁நாட்களில்",
  "3827": "▁செய்தார்கள்",
  "3828": "▁தெரியாத",
  "3829": "யச்",
  "3830": "▁கண்கா",
  "3831": "லேசா",
  "3832": "நாதை",
  "3833": "▁சாதன",
  "3834": "▁தோழ",
  "3835": "jec",
  "3836": "tin",
  "3837": "▁சீர்",
  "3838": "▁கேட்டான்",
  "3839": "▁சொடு",
  "3840": "▁இயலாத",
  "3841": "▁இருக்கின்றது",
  "3842": "▁அநே",
  "3843": "▁உடனே",
  "3844": "▁கேட்பீராக",
  "3845": "▁விடுவான்",
  "3846": "▁முஸ்லிம்",
  "3847": "▁உள்ளே",
  "3848": "▁அறிக்கை",
  "3849": "க்குமாறு",
  "3850": "▁புத்தக",
  "3851": "▁தர்க்கி",
  "3852": "ப்படாதீர்",
  "3853": "▁நட்சத்திர",
  "3854": "ரல்",
  "3855": "▁இஸ்ராயீலின்",
  "3856": "ந்திக்",
  "3857": "▁சுமந்து",
  "3858": "ருள்வாயாக",
  "3859": "oun",
  "3860": "▁அல்லாஹ்வையே",
  "3861": "▁வேதனையைச்",
  "3862": "▁மார்க்கத்தை",
  "3863": "▁பறவை",
  "3864": "▁ஆவான்",
  "3865": "உம்மை",
  "3866": "▁அவர்களிடையே",
  "3867": "ப்பும்",
  "3868": "அதனை",
  "3869": "வற்று",
  "3870": "▁உண்மையில்",
  "3871": "▁முளை",
  "3872": "▁கூலியை",
  "3873": "▁போக்கி",
  "3874": "▁மறுமையிலும்",
  "3875": "ராத",
  "3876": "ராகவே",
  "3877": "▁se",
  "3878": "id",
  "3879": "▁அவர்களுக்கும்",
  "3880": "▁இருந்தி",
  "3881": "▁பூரண",
  "3882": "உங்களுடைய",
  "3883": "▁கண்டுபிடிக்க",
  "3884": "▁ஆசி",
  "3885": "▁நன்மாராயம்",
  "3886": "▁பலன்",
  "3887": "த்திலுள்ள",
  "3888": "▁இருள்",
  "3889": "▁விஷயத்தில்",
  "3890": "▁ஸுலை",
  "3891": "▁உம்மைப்",
  "3892": "ருக்குச்",
  "3893": "ப்பட்டிருக்கி",
  "3894": "செய்ய",
  "3895": "கின்ற",
  "3896": "▁நெஞ்ச",
  "3897": "அதி",
  "3898": "▁நல்லது",
  "3899": "▁நற்கருமங்கள்",
  "3900": "த்தவிர",
  "3901": "▁ஏவ",
  "3902": "லையில்",
  "3903": "ould",
  "3904": "▁முன்னிருந்த",
  "3905": "▁படைத்தோம்",
  "3906": "up",
  "3907": "▁ஏற்கனவே",
  "3908": "டாமல்",
  "3909": "மாகிய",
  "3910": "▁நன்கறிந்த",
  "3911": "வேண்டிய",
  "3912": "▁அவனையே",
  "3913": "வர்களி",
  "3914": "படுத்து",
  "3915": "டைந்து",
  "3916": "ஃகூ",
  "3917": "ன்றே",
  "3918": "▁கொன்று",
  "3919": "ML",
  "3920": "கார்",
  "3921": "▁ஏற்படும்",
  "3922": "▁கேட்கிறார்கள்",
  "3923": "கட",
  "3924": "▁உங்களைத்",
  "3925": "▁வேதத்தையும்",
  "3926": "யென",
  "3927": "க்கப்படுவார்கள்",
  "3928": "▁♪",
  "3929": "விடம்",
  "3930": "▁நெடு",
  "3931": "▁ஆதரவு",
  "3932": "ற்காலி",
  "3933": "▁சம்ப",
  "3934": "ct",
  "3935": "ங்க்",
  "3936": "▁கார",
  "3937": "மெய்",
  "3938": "டச்",
  "3939": "▁கொடுங்கள்",
  "3940": "▁வாழ",
  "3941": "▁செல்லுங்கள்",
  "3942": "▁செய்தது",
  "3943": "▁de",
  "3944": "▁நிராகரித்த",
  "3945": "▁உத",
  "3946": "▁செயலை",
  "3947": "▁பூமியின்",
  "3948": "ப்பாளர்",
  "3949": "▁கொள்கிறார்களோ",
  "3950": "வர்களிடம்",
  "3951": "▁இயக்க",
  "3952": "ங்களாக",
  "3953": "▁இல்லாமல்",
  "3954": "த்தப்பட்ட",
  "3955": "பிக்கை",
  "3956": "▁ஒருவருக்கொருவர்",
  "3957": "யில்லாத",
  "3958": "▁ஆல்",
  "3959": "அழி",
  "3960": "ளிகை",
  "3961": "த்திருக்கிறோம்",
  "3962": "▁ஆக்கு",
  "3963": "▁மன்னித்து",
  "3964": "ப்பெண்",
  "3965": "ப்பட்டா",
  "3966": "▁அனுப்பிய",
  "3967": "ப்புகள்",
  "3968": "அந்நாளில்",
  "3969": "எனவே",
  "3970": "னுப்பி",
  "3971": "▁பேரீ",
  "3972": "த்திருந்த",
  "3973": "▁மிகப்",
  "3974": "▁பிராணி",
  "3975": "மல்ல",
  "3976": "த்திற்காக",
  "3977": "▁உயர்த்தி",
  "3978": "▁தற்காலி",
  "3979": "▁அவர்களே",
  "3980": "▁பெற்றி",
  "3981": "▁அமைதி",
  "3982": "கின்றார்களோ",
  "3983": "னாஃபி",
  "3984": "தையே",
  "3985": "▁கால்நடை",
  "3986": "▁கண்காணி",
  "3987": "▁title",
  "3988": "விட்டான்",
  "3989": "▁நகல்",
  "3990": "▁நெருப்பி",
  "3991": "▁அடியார்களில்",
  "3992": "துவும்",
  "3993": "இத்தகைய",
  "3994": "த்தள",
  "3995": "▁பெறும்",
  "3996": "▁கட்டுப்பா",
  "3997": "▁செய்வார்கள்",
  "3998": "களிலிருந்தும்",
  "3999": "▁கூட்டத்தின",
  "4000": "▁இரவில்",
  "4001": "▁நின்றுமுள்ள",
  "4002": "▁இலேசா",
  "4003": "கல",
  "4004": "▁கேட்பார்கள்",
  "4005": "▁ஞானமுடைய",
  "4006": "▁செய்கிறாரோ",
  "4007": "றாயின்",
  "4008": "▁சமூகத்தார்",
  "4009": "த்தவும்",
  "4010": "ந்தவர்களாக",
  "4011": "▁அளித்து",
  "4012": "▁உறு",
  "4013": "இவ்வாறே",
  "4014": "மாக்கிக்",
  "4015": "▁translate",
  "4016": "வொரு",
  "4017": "▁அறிந்தவன்",
  "4018": "▁கிருபையுடையவன்",
  "4019": "நாள்",
  "4020": "ல்லாது",
  "4021": "ப்பட்டுள்ளது",
  "4022": "▁கொள்வீராக",
  "4023": "▁ஐந்து",
  "4024": "his",
  "4025": "▁குமா",
  "4026": "ரவு",
  "4027": "ள்ளேன்",
  "4028": "▁பயபக்தியுடையோ",
  "4029": "தையர்",
  "4030": "ல்லு",
  "4031": "▁தெளிவா",
  "4032": "▁உம",
  "4033": "▁அறு",
  "4034": "▁துண்டு",
  "4035": "▁எனக்கும்",
  "4036": "ற்றில்",
  "4037": "▁உறவினர்",
  "4038": "▁கொள்வதற்காக",
  "4039": "வீரா",
  "4040": "▁மறுமையை",
  "4041": "ர்பா",
  "4042": "▁சட்ட",
  "4043": "▁பலஹீன",
  "4044": "ர்த்தி",
  "4045": "▁கூட்டாளி",
  "4046": "▁செய்யவில்லை",
  "4047": "க்குத்",
  "4048": "ir",
  "4049": "▁விடியோ",
  "4050": "▁சகோதரி",
  "4051": "யூஸு",
  "4052": "▁திரி",
  "4053": "▁நஷ்டமடை",
  "4054": "▁விரும்பும்",
  "4055": "▁மனிதனை",
  "4056": "மன்னி",
  "4057": "பட்ச",
  "4058": "உங்களை",
  "4059": "▁வெறும்",
  "4060": "▁செய்க",
  "4061": "பின்னர்",
  "4062": "bel",
  "4063": "▁தெரியுமா",
  "4064": "▁விலை",
  "4065": "▁கிறி",
  "4066": "▁நம்மிடம்",
  "4067": "▁செய்யாதீர்கள்",
  "4068": "▁அனைத்தையும்",
  "4069": "tur",
  "4070": "▁வயி",
  "4071": "பவ",
  "4072": "▁சொன்னார்",
  "4073": "▁ப்ராஸ",
  "4074": "▁ப்ராஸரோ",
  "4075": "ரணை",
  "4076": "னுக்கும்",
  "4077": "▁செவிம",
  "4078": "▁புல",
  "4079": "▁காது",
  "4080": "▁இறங்கு",
  "4081": "களையே",
  "4082": "▁பிம்பம்",
  "4083": "og",
  "4084": "லளி",
  "4085": "கிறாய்",
  "4086": "▁விட்டீர்கள்",
  "4087": "▁முன்னரும்",
  "4088": "▁பிணை",
  "4089": "▁கொள்ளவும்",
  "4090": "ணர்",
  "4091": "▁=",
  "4092": "▁லா",
  "4093": "த்தலை",
  "4094": "ங்களிடம்",
  "4095": "▁சிறிதும்",
  "4096": "▁உள்ளவையும்",
  "4097": "யாளி",
  "4098": "த்தியம்",
  "4099": "வோமா",
  "4100": "▁தாம",
  "4101": "▁நெருப்பின்",
  "4102": "ப்பையும்",
  "4103": "வருடைய",
  "4104": "▁வைப்ப",
  "4105": "ணர்வு",
  "4106": "என்பதை",
  "4107": "▁வடிவமைப்பு",
  "4108": "▁கஷ்ட",
  "4109": "▁புரிந்து",
  "4110": "▁மூடு",
  "4111": "▁முறைப்படி",
  "4112": "▁இறக்கிவை",
  "4113": "▁முனாஃபி",
  "4114": "▁சுல",
  "4115": "▁பதிப்பு",
  "4116": "ண்ணி",
  "4117": "▁இந்தப்",
  "4118": "▁நன்மையை",
  "4119": "▁செய்வோர்",
  "4120": "▁பிடிக்க",
  "4121": "▁ஏற்",
  "4122": "பெரும்",
  "4123": "▁மானக்கே",
  "4124": "கில்",
  "4125": "▁திட்டத்தை",
  "4126": "▁கொண்டிருப்ப",
  "4127": "rance",
  "4128": "▁சொல்லை",
  "4129": "ராகிய",
  "4130": "▁பாகம்",
  "4131": "▁ஓடிக்கொண்டிரு",
  "4132": "▁பேராற்றலுடையவன்",
  "4133": "▁நாடியவர்களை",
  "4134": "▁வல்லமை",
  "4135": "▁மஸ்ஜி",
  "4136": "ப்பவனாக",
  "4137": "▁செருகு",
  "4138": "▁பராமுக",
  "4139": "▁வாக்குறுதியை",
  "4140": "▁கொடுப்பான்",
  "4141": "னிடமிருந்து",
  "4142": "க்கின்றீ",
  "4143": "▁குஃப்",
  "4144": "▁மேலானவன்",
  "4145": "வேண்டாம்",
  "4146": "அவனுடைய",
  "4147": "▁எட்டு",
  "4148": "▁ஈமானை",
  "4149": "▁உபயோ",
  "4150": "குர்ஆனை",
  "4151": "▁அச்சுப்பொறி",
  "4152": "▁தீர்ப்புச்",
  "4153": "▁வீண்",
  "4154": "▁பயபக்தியுடன்",
  "4155": "▁நயவஞ்ச",
  "4156": "▁எப்போதும்",
  "4157": "▁இறைவனாகிய",
  "4158": "▁சாளரத்தை",
  "4159": "▁கொள்வதில்லை",
  "4160": "▁அசை",
  "4161": "யானால்",
  "4162": "▁மன்னிப்போ",
  "4163": "க்கிறார்",
  "4164": "▁விட்டுவிடு",
  "4165": "▁மூதாதையர்",
  "4166": "▁this",
  "4167": "மாகி",
  "4168": "முமில்லை",
  "4169": "தாகவே",
  "4170": "மறை",
  "4171": "▁குறிப்பிட",
  "4172": "▁இப்ராஹீம்",
  "4173": "▁கட்டளையை",
  "4174": "▁செவியுறு",
  "4175": "ட்க",
  "4176": "▁உள்ளமை",
  "4177": "▁எவர்களை",
  "4178": "அவருக்கு",
  "4179": "லிலும்",
  "4180": "rip",
  "4181": "▁பாதுகாப்பு",
  "4182": "▁வந்தபோது",
  "4183": "தங்கள்",
  "4184": "▁பெண்களை",
  "4185": "▁விட்",
  "4186": "▁ஹாரூ",
  "4187": "▁இப்படி",
  "4188": "ங்களுக்கும்",
  "4189": "▁உம்மைக்",
  "4190": "▁வேதனையுண்டு",
  "4191": "▁தங்குமிடம்",
  "4192": "த்தானை",
  "4193": "▁உருவ",
  "4194": "ue",
  "4195": "▁எழுதுதல்",
  "4196": "▁ஏற்றுமதி",
  "4197": "க்கமாக",
  "4198": "▁e",
  "4199": "▁மீட்ட",
  "4200": "▁இசை",
  "4201": "▁உயர்ந்த",
  "4202": "▁தெரிய",
  "4203": "லன்றி",
  "4204": "▁அல்லாஹ்விடத்தில்",
  "4205": "▁எல்லை",
  "4206": "▁வர்",
  "4207": "▁நினைக்கிறேன்",
  "4208": "▁க்ளப்ஸின்",
  "4209": "▁தயா",
  "4210": "▁புனித",
  "4211": "▁கேட்ப",
  "4212": "▁செவியேற்ப",
  "4213": "த்திற்கும்",
  "4214": "▁அனைத்தும்",
  "4215": "▁அதற்குரிய",
  "4216": "▁கொள்வீர்கள்",
  "4217": "▁உண்மையாளர்களாக",
  "4218": "▁பாக்கியம்",
  "4219": "▁விரும்பினால்",
  "4220": "▁பேர",
  "4221": "ric",
  "4222": "RL",
  "4223": "காது",
  "4224": "▁xA",
  "4225": "▁மிகத்",
  "4226": "▁பதிலளி",
  "4227": "▁புகுத்து",
  "4228": "▁விளக்கு",
  "4229": "பிர",
  "4230": "▁தெளிவு",
  "4231": "▁கூடு",
  "4232": "▁ஊர்",
  "4233": "▁அநாதை",
  "4234": "யிருக்கிறது",
  "4235": "▁துன்பம்",
  "4236": "சரி",
  "4237": "த்திற்குப்",
  "4238": "▁விஷயம்",
  "4239": "▁சுமை",
  "4240": "நம்பிக்கை",
  "4241": "▁முந்தை",
  "4242": "▁தங்குமிட",
  "4243": "தண்டனை",
  "4244": "▁ஆண்களும்",
  "4245": "ry",
  "4246": "▁உங்களுக்கும்",
  "4247": "di",
  "4248": "சன",
  "4249": "▁செய்கி",
  "4250": "▁விரோதி",
  "4251": "இதன்",
  "4252": "படியும்",
  "4253": "▁ஆசை",
  "4254": "▁சொந்தம்",
  "4255": "ith",
  "4256": "▁ஆதார",
  "4257": "▁பெண்களும்",
  "4258": "▁விரும்பவில்லை",
  "4259": "▁அவனைப்",
  "4260": "▁கொண்டனர்",
  "4261": "▁திருத்து",
  "4262": "▁காற்று",
  "4263": "▁கேளும்",
  "4264": "▁ஊரை",
  "4265": "▁பணம்",
  "4266": "▁உபதேச",
  "4267": "▁கொண்டுவர",
  "4268": "ப்பணி",
  "4269": "▁அடைந்த",
  "4270": "▁பூர்த்தி",
  "4271": "▁செங்கு",
  "4272": "வாசிகள்",
  "4273": "▁அதிகாரம்",
  "4274": "▁அனைவரையும்",
  "4275": "▁செய்பவர்கள்",
  "4276": "▁எழுதக்கூடிய",
  "4277": "▁கண்ணியமான",
  "4278": "▁இருந்தோம்",
  "4279": "ன்றார்",
  "4280": "▁கொடுப்போம்",
  "4281": "▁கொள்கிறான்",
  "4282": "▁பொறுமையுடன்",
  "4283": "▁வீடுகளில்",
  "4284": "▁அம்மா",
  "4285": "▁மீள",
  "4286": "ext",
  "4287": "▁இந்",
  "4288": "கியாம",
  "4289": "▁இருக்கின்றார்கள்",
  "4290": "▁ஆன்மா",
  "4291": "ர்களாகவும்",
  "4292": "த்திருக்கின்றான்",
  "4293": "திர்",
  "4294": "▁விப",
  "4295": "▁சரியாக",
  "4296": "▁--",
  "4297": "ber",
  "4298": "▁கேட்கும்",
  "4299": "▁உள்ளீடு",
  "4300": "அவர்களிடம்",
  "4301": "யத்தை",
  "4302": "▁item",
  "4303": "▁முத்திரை",
  "4304": "▁பின்னும்",
  "4305": "▁கூறா",
  "4306": "எனினும்",
  "4307": "▁//",
  "4308": "த்துவ",
  "4309": "angu",
  "4310": "பர்",
  "4311": "▁உற்ற",
  "4312": "▁நம்மிடமிருந்து",
  "4313": "ப்பதற்காகவும்",
  "4314": "ப்படாத",
  "4315": "▁ஆர்",
  "4316": "▁யூஸுஃ",
  "4317": "▁அமைப்புகள்",
  "4318": "▁உள்ளங்களில்",
  "4319": "world",
  "4320": "▁தேர்ந்தெடுக்கவும்",
  "4321": "கையால்",
  "4322": "lic",
  "4323": "வீர்களானால்",
  "4324": "அறி",
  "4325": "▁புகை",
  "4326": "▁அவரைப்",
  "4327": "ட்டிலேயே",
  "4328": "▁சமூகத்தாருக்கு",
  "4329": "crip",
  "4330": "மேசை",
  "4331": "▁சேர்க்க",
  "4332": "ஸ்ட்",
  "4333": "▁தவ்ரா",
  "4334": "▁பயபக்தியுடையவர்களுக்கு",
  "4335": "▁வழிகாட்டி",
  "4336": "▁மனிதனுக்கு",
  "4337": "▁வீணான",
  "4338": "ab",
  "4339": "நபி",
  "4340": "▁அறிவித்தோம்",
  "4341": "அல்ல",
  "4342": "அங்கு",
  "4343": "யளி",
  "4344": "▁அடிமை",
  "4345": "▁மின்னஞ்சல்",
  "4346": "▁சேர்ந்த",
  "4347": "▁சின்ன",
  "4348": "▁அவர்களுக்குச்",
  "4349": "▁முந்தைய",
  "4350": "▁அர்ரஹ்மா",
  "4351": "▁அருளா",
  "4352": "லும்பு",
  "4353": "▁பரிசுத்தமான",
  "4354": "▁இட்டுக்",
  "4355": "▁உடையோ",
  "4356": "நேர்வழி",
  "4357": "▁அனைவரும்",
  "4358": "▁எஸ்",
  "4359": "▁களை",
  "4360": "▁விட்டார்",
  "4361": "▁வணங்க",
  "4362": "rit",
  "4363": "▁தற்காலிக",
  "4364": "கரமாக",
  "4365": "▁அடைந்து",
  "4366": "▁ரஸூ",
  "4367": "▁எங்களுக்காக",
  "4368": "▁சுலப",
  "4369": "▁அன்",
  "4370": "மேயாகும்",
  "4371": "▁கூறுவது",
  "4372": "லெல்லாம்",
  "4373": "▁கேட்ட",
  "4374": "▁ஞானத்தையும்",
  "4375": "▁களி",
  "4376": "க்கத்",
  "4377": "▁கோபம்",
  "4378": "▁சொருகு",
  "4379": "▁நோக்கு",
  "4380": "பிற",
  "4381": "ப்பந்த",
  "4382": "▁*",
  "4383": "ப்ர",
  "4384": "ப்பைத்",
  "4385": "▁சந்ததியின",
  "4386": "த்தத்தை",
  "4387": "மனி",
  "4388": "▁ஒவ்வொரு",
  "4389": "ew",
  "4390": "▁என்னைப்",
  "4391": "▁தொடர்ந்து",
  "4392": "▁விடவும்",
  "4393": "▁label",
  "4394": "▁The",
  "4395": "ப்பாக்கி",
  "4396": "லீஸ்",
  "4397": "▁ஆம்",
  "4398": "▁உன்னுடைய",
  "4399": "▁பிரிந்து",
  "4400": "▁வழங்கி",
  "4401": "▁பிள்ளை",
  "4402": "▁ஓடிக்",
  "4403": "▁வானம்",
  "4404": "▁போதுமான",
  "4405": "▁செவிமடு",
  "4406": "கச்",
  "4407": "▁பொருட்களின்",
  "4408": "▁கிழ",
  "4409": "▁விதமான",
  "4410": "▁மல",
  "4411": "▁!",
  "4412": "est",
  "4413": "ரித்து",
  "4414": "▁அவர்களு",
  "4415": "▁இன",
  "4416": "▁<",
  "4417": "bo",
  "4418": "▁தினம்",
  "4419": "anguage",
  "4420": "▁action",
  "4421": "னொரு",
  "4422": "▁மாற்றுக",
  "4423": "▁அற்ப",
  "4424": "▁பத்து",
  "4425": "ரிலிருந்து",
  "4426": "▁பண்பு",
  "4427": "மணம்",
  "4428": "வோருக்கு",
  "4429": "மரண",
  "4430": "▁அத்தாட்சிகளைக்",
  "4431": "▁நிச்சயமாகக்",
  "4432": "▁காத்துக்",
  "4433": "▁மார்",
  "4434": "செய்து",
  "4435": "▁எறிய",
  "4436": "out",
  "4437": "ail",
  "4438": "உயிர்",
  "4439": "ப்படுத்தும்",
  "4440": "▁சித்தம்",
  "4441": "▁தேடிக்",
  "4442": "னுள்ள",
  "4443": "▁மனிதர்களி",
  "4444": "▁சொன்ன",
  "4445": "மேல்",
  "4446": "▁மானக்கேடான",
  "4447": "▁முறைமை",
  "4448": "▁உங்களைச்",
  "4449": "▁தான",
  "4450": "▁உம்மைத்",
  "4451": "ப்பதும்",
  "4452": "த்திலிருந்தும்",
  "4453": "ரிட",
  "4454": "▁நிறைய",
  "4455": "க்கிற",
  "4456": "▁பிரதி",
  "4457": "▁நிரந்த",
  "4458": "▁இல்லாதி",
  "4459": "யிலுள்ள",
  "4460": "▁விளங்கிக்",
  "4461": "▁மறுமையின்",
  "4462": "ac",
  "4463": "▁இரவின்",
  "4464": "▁ஏற்படுத்து",
  "4465": "▁நிச்சம",
  "4466": "▁பயன்பா",
  "4467": "போர்",
  "4468": "▁குற்றமில்லை",
  "4469": "▁யஃகூ",
  "4470": "▁ஆக்கினான்",
  "4471": "oc",
  "4472": "▁வித",
  "4473": "▁சூழ",
  "4474": "ரென்றால்",
  "4475": "த்தமான",
  "4476": "▁இருப்பது",
  "4477": "▁அரச",
  "4478": "ங்களைத்",
  "4479": "▁இருந்தீர்கள்",
  "4480": "▁கெட்டது",
  "4481": "▁சிறை",
  "4482": "▁வெளியீ",
  "4483": "▁கொடுக்கப்படு",
  "4484": "க்கெதி",
  "4485": "எல்லாவற்றையும்",
  "4486": "▁கடந்து",
  "4487": "▁பரிகசி",
  "4488": "ஸ்City",
  "4489": "▁சமாதான",
  "4490": "யிட்டு",
  "4491": "▁தீங்கு",
  "4492": "▁தூதர்களை",
  "4493": "▁இதயங்களில்",
  "4494": "▁கூறுவர்",
  "4495": "க்கப்படவும்",
  "4496": "▁எடுக்க",
  "4497": "வேதம்",
  "4498": "▁முதலில்",
  "4499": "▁நல்லுணர்வு",
  "4500": "யாவது",
  "4501": "▁நாடியவர்களுக்கு",
  "4502": "போல்",
  "4503": "ஆத",
  "4504": "▁ஏரி",
  "4505": "ளன்",
  "4506": "▁வியா",
  "4507": "ட்டிய",
  "4508": "▁கேட்பான்",
  "4509": "▁நெருப்பில்",
  "4510": "ந்தனர்",
  "4511": "வைப்",
  "4512": "க்கர்",
  "4513": "▁உற்று",
  "4514": "▁இருந்தன",
  "4515": "▁ரஹ்மத்தை",
  "4516": "வோனாகவும்",
  "4517": "▁செயல்பாடு",
  "4518": "▁கொண்டிருந்தீ",
  "4519": "▁பைத்திய",
  "4520": "▁சொல்",
  "4521": "க்கல்",
  "4522": "த்துத்",
  "4523": "▁எவருடைய",
  "4524": "கொடு",
  "4525": "▁சித்தப்படுத்தி",
  "4526": "ப்பல",
  "4527": "ன்மார்க்க",
  "4528": "▁வகு",
  "4529": "▁ஆண",
  "4530": "int",
  "4531": "▁செய்யலாம்",
  "4532": "▁முடியா",
  "4533": "▁மூடி",
  "4534": "▁இருந்தாலும்",
  "4535": "▁என்னுடன்",
  "4536": "▁சமமாக",
  "4537": "▁தனது",
  "4538": "ண்ண",
  "4539": "▁யை",
  "4540": "▁எவர்களுக்கு",
  "4541": "▁அகலம்",
  "4542": "விலும்",
  "4543": "▁are",
  "4544": "ill",
  "4545": "▁அதாவது",
  "4546": "ER",
  "4547": "ட்டிக்",
  "4548": "▁அதற்காக",
  "4549": "ட்டளை",
  "4550": "▁அமெரிக்கா",
  "4551": "▁#",
  "4552": "▁அதே",
  "4553": "கூட்ட",
  "4554": "▁பையன்",
  "4555": "▁சக்",
  "4556": "▁விலக்கு",
  "4557": "▁கிரா",
  "4558": "ரியும்",
  "4559": "அவை",
  "4560": "தங்களுக்கு",
  "4561": "யுமே",
  "4562": "▁கோரு",
  "4563": "ஹம்",
  "4564": "▁இதயங்கள்",
  "4565": "▁மாளிகை",
  "4566": "▁கண்டி",
  "4567": "▁மோ",
  "4568": "▁முதன்",
  "4569": "ள்ளன",
  "4570": "▁விழுந்து",
  "4571": "▁ஓடு",
  "4572": "பேசி",
  "4573": "▁மேசை",
  "4574": "ஞ்சம்",
  "4575": "▁தட்டு",
  "4576": "▁பொருட்களை",
  "4577": "▁அந்",
  "4578": "▁இருப்பார்",
  "4579": "▁புர",
  "4580": "வனே",
  "4581": "▁உண்டாவதாக",
  "4582": "▁CO",
  "4583": "▁செலுத்தி",
  "4584": "▁பதவி",
  "4585": "ING",
  "4586": "▁அவனது",
  "4587": "ந்திருக்கும்",
  "4588": "▁இழந்து",
  "4589": "பொய்",
  "4590": "▁ட்",
  "4591": "▁வாங்க",
  "4592": "▁சுழற்சி",
  "4593": "▁வலப்புற",
  "4594": "▁பட்டு",
  "4595": "தல்ல",
  "4596": "▁இஸ்ஹா",
  "4597": "வீர்களா",
  "4598": "▁அவற்றைப்",
  "4599": "▁தீங்கும்",
  "4600": "her",
  "4601": "களுக்கிடையில்",
  "4602": "▁கூறியதை",
  "4603": "▁சரிபார்",
  "4604": "▁கிளை",
  "4605": "▁தந்தைய",
  "4606": "மளி",
  "4607": "பற்றி",
  "4608": "▁J",
  "4609": "▁இப்றாஹீம்",
  "4610": "▁எங்கு",
  "4611": "▁ஸமூது",
  "4612": "▁அழைக்கும்",
  "4613": "ங்களாகும்",
  "4614": "▁மாடு",
  "4615": "ங்களிரு",
  "4616": "▁நியாயத்",
  "4617": "▁கொண்டிருந்தவை",
  "4618": "ties",
  "4619": "த்தையே",
  "4620": "▁இதைக்",
  "4621": "▁ஓடிக்கொண்டிருக்கும்",
  "4622": "▁திருப்பிக்",
  "4623": "நொடி",
  "4624": "▁சகி",
  "4625": "தைச்",
  "4626": "முடையோ",
  "4627": "▁ஒப்பு",
  "4628": "ங்களுக்காக",
  "4629": "ளுடைய",
  "4630": "▁பூமியிலிருந்து",
  "4631": "▁நீங்களே",
  "4632": "▁நோன்பு",
  "4633": "படை",
  "4634": "▁உட",
  "4635": "▁பொய்யாக்கி",
  "4636": "▁உபதேசம்",
  "4637": "ந்தீர்",
  "4638": "▁எனக்குக்",
  "4639": "▁உங்களிடையே",
  "4640": "▁விசாரி",
  "4641": "▁உம்முடன்",
  "4642": "▁அத்தாட்சிகளில்",
  "4643": "▁எவரை",
  "4644": "▁அத்தகையோ",
  "4645": "▁அறிந்தவனாக",
  "4646": "றைய",
  "4647": "▁செய்தியை",
  "4648": "▁சங்கை",
  "4649": "னீர்கள்",
  "4650": "▁அவ்விரண்டி",
  "4651": "erver",
  "4652": "மார்க்க",
  "4653": "என்னும்",
  "4654": "▁அறிபவனாகவும்",
  "4655": "▁நீக்கவும்",
  "4656": "மீன்",
  "4657": "▁கூறுவதை",
  "4658": "▁கருத்து",
  "4659": "மேயன்றி",
  "4660": "▁மென்",
  "4661": "▁நம்பா",
  "4662": "▁கொண்டீ",
  "4663": "▁செய்வோரை",
  "4664": "▁நேசிப்பதில்லை",
  "4665": "▁மூஸாவின்",
  "4666": "ap",
  "4667": "த்துடைய",
  "4668": "▁வந்தால்",
  "4669": "காத",
  "4670": "▁நோய்",
  "4671": "▁கொள்வது",
  "4672": "யிருக்கிறான்",
  "4673": "▁கூட்டத்தினர்",
  "4674": "▁வெற்றியடை",
  "4675": "▁அஞ்சிக்",
  "4676": "▁அழைப்பு",
  "4677": "▁மட",
  "4678": "▁வாரிசு",
  "4679": "▁ஆகார",
  "4680": "▁நல",
  "4681": "▁வருந்து",
  "4682": "▁ஆகு",
  "4683": "▁காஃபிர்களை",
  "4684": "▁கொள்ள",
  "4685": "வற்றையெல்லாம்",
  "4686": "அதில்",
  "4687": "▁கொதிக்கும்",
  "4688": "எல்லாம்",
  "4689": "▁கொண்டார்களோ",
  "4690": "வார்களானால்",
  "4691": "▁அதிகா",
  "4692": "னுமாகிய",
  "4693": "▁இட்டு",
  "4694": "ttp",
  "4695": "▁மீறு",
  "4696": "எஸ்",
  "4697": "▁அதிகரி",
  "4698": "என்னை",
  "4699": "▁ஆரம்பி",
  "4700": "▁இருக்கின்றீ",
  "4701": "▁உடை",
  "4702": "▁சிஸ்",
  "4703": "▁பின்பற்றுங்கள்",
  "4704": "▁வெளியேறி",
  "4705": "▁தற்போது",
  "4706": "▁புசியுங்கள்",
  "4707": "▁அல்லாஹ்வுடன்",
  "4708": "▁ஸலாம்",
  "4709": "▁பாணி",
  "4710": "▁கடன்",
  "4711": "▁ஆகையால்",
  "4712": "யிற்று",
  "4713": "▁விட்டனர்",
  "4714": "▁உலா",
  "4715": "▁எலும்பு",
  "4716": "ine",
  "4717": "▁வானங்களில்",
  "4718": "▁கைப்ப",
  "4719": "தேயாகும்",
  "4720": "▁வீட்டை",
  "4721": "ல்களை",
  "4722": "வாழ்",
  "4723": "▁சேவையக",
  "4724": "▁பறி",
  "4725": "எந்த",
  "4726": "▁பாதி",
  "4727": "▁சிரம",
  "4728": "▁வடிவம்",
  "4729": "▁செயல்கூறு",
  "4730": "▁முயல்",
  "4731": "TS",
  "4732": "ந்தேன்",
  "4733": "▁உள்ளிடவும்",
  "4734": "▁தானா",
  "4735": "▁போரில்",
  "4736": "▁சக்ஸோ",
  "4737": "▁சக்ஸோனி",
  "4738": "▁அனுப்பப்பட்ட",
  "4739": "▁கருதி",
  "4740": "▁பொத்தானை",
  "4741": "▁கெட்டதாகும்",
  "4742": "▁பரு",
  "4743": "▁இருக்கின்ற",
  "4744": "▁கொடுக்கப்படும்",
  "4745": "▁ரோ",
  "4746": "▁போலவே",
  "4747": "பரி",
  "4748": "▁ஏதும்",
  "4749": "ட்டாள்",
  "4750": "யிட",
  "4751": "▁ஹி",
  "4752": "▁சோதனை",
  "4753": "▁TR",
  "4754": "▁தொகை",
  "4755": "▁தேவையான",
  "4756": "▁எதனையும்",
  "4757": "▁இருக்கு",
  "4758": "▁நெறி",
  "4759": "▁இதனால்",
  "4760": "▁பின்பற்ற",
  "4761": "பிரார்",
  "4762": "▁பல்",
  "4763": "▁நடக்க",
  "4764": "▁அடைவை",
  "4765": "▁வணக்கம்",
  "4766": "ஃபா",
  "4767": "▁விரு",
  "4768": "இற",
  "4769": "▁கள",
  "4770": "▁யோ",
  "4771": "▁ஐயா",
  "4772": "▁கூட்டு",
  "4773": "ll",
  "4774": "▁ஓது",
  "4775": "▁அப்",
  "4776": "லிருப்ப",
  "4777": "▁கான்",
  "4778": "மாகப்",
  "4779": "ton",
  "4780": "▁நிலைநி",
  "4781": "▁படிப்பினை",
  "4782": "▁நினைவூட்டு",
  "4783": "▁நாளி",
  "4784": "▁தொகுதி",
  "4785": "▁அநேக",
  "4786": "வதற்கான",
  "4787": "க்கின்றார்களோ",
  "4788": "▁பிட்",
  "4789": "த்தன",
  "4790": "od",
  "4791": "▁தீர்மானி",
  "4792": "▁உணர்ந்து",
  "4793": "▁விடா",
  "4794": "▁வலிமை",
  "4795": "▁ஏற்பட்டால்",
  "4796": "▁ஃபிர்அவ்னின்",
  "4797": "ல்லன்",
  "4798": "லிருந்தும்",
  "4799": "வின",
  "4800": "▁மக்களில்",
  "4801": "▁போகும்",
  "4802": "யுள்ளது",
  "4803": "▁ஆத்மாவும்",
  "4804": "▁அவர்கள்தாம்",
  "4805": "▁முன்னிரு",
  "4806": "▁விரிவா",
  "4807": "▁வளர்",
  "4808": "▁அரபி",
  "4809": "▁mon",
  "4810": "uss",
  "4811": "▁நேர்வழியை",
  "4812": "▁உள்ளவை",
  "4813": "ணத்தை",
  "4814": "க்கப்படாத",
  "4815": "மன",
  "4816": "▁ஏற்படுத்திக்",
  "4817": "▁கிடைம",
  "4818": "▁ரி",
  "4819": "▁வெளியா",
  "4820": "▁ஒன்பது",
  "4821": "மாய்",
  "4822": "▁மறைந்து",
  "4823": "▁ஆற்ற",
  "4824": "▁சாய்ந்து",
  "4825": "▁இருதயங்களில்",
  "4826": "▁அவரையும்",
  "4827": "▁வானங்களிலுள்ள",
  "4828": "▁என்னையும்",
  "4829": "க்கீ",
  "4830": "▁வெற்றிகரமாக",
  "4831": "ட்டப்பட்ட",
  "4832": "▁மீள்",
  "4833": "▁பராமுகமாக",
  "4834": "▁எலி",
  "4835": "▁மூட",
  "4836": "▁வணங்கி",
  "4837": "▁வழிபடுங்கள்",
  "4838": "▁ஞானமுடையவனாகவும்",
  "4839": "▁http",
  "4840": "போதனை",
  "4841": "ல்ஸ்",
  "4842": "▁அவ்வூ",
  "4843": "▁தந்தையே",
  "4844": "▁சமமா",
  "4845": "ug",
  "4846": "▁கொடுத்தான்",
  "4847": "▁பலனை",
  "4848": "▁அநியாயக்காரர்கள்",
  "4849": "க்கப்படுகிறது",
  "4850": "▁சிஸ்கொ",
  "4851": "▁தவறிய",
  "4852": "▁மஸ்ஜிது",
  "4853": "▁ஒருவேளை",
  "4854": "▁v",
  "4855": "▁திடீ",
  "4856": "sh",
  "4857": "▁மன்னிப்பும்",
  "4858": "▁செவ்",
  "4859": "வனுக்கு",
  "4860": "▁பயன்படுத்தி",
  "4861": "▁நிச்சமயாக",
  "4862": "▁கேட்கின்றனர்",
  "4863": "▁அவற்றைக்",
  "4864": "யிருப்போம்",
  "4865": "▁மிகைத்தோ",
  "4866": "கழ்",
  "4867": "பவர்களில்",
  "4868": "▁செய்வோருக்கு",
  "4869": "யிருக்கிறோம்",
  "4870": "பெய",
  "4871": "யிருந்த",
  "4872": "▁வேதனையிலிருந்து",
  "4873": "வள",
  "4874": "▁இருந்தான்",
  "4875": "▁பிளந்து",
  "4876": "அப்படியல்ல",
  "4877": "விடுவான்",
  "4878": "▁வருவார்கள்",
  "4879": "▁தேட",
  "4880": "▁கனவு",
  "4881": "▁திருப்திய",
  "4882": "இவ்வுலகில்",
  "4883": "▁சேவக",
  "4884": "▁அடையும்",
  "4885": "▁நம்மிடமே",
  "4886": "▁translated",
  "4887": "க்கெதிராக",
  "4888": "▁இந்தி",
  "4889": "star",
  "4890": "▁வசப்படுத்திக்",
  "4891": "இறைவனுக்கு",
  "4892": "▁படிக்க",
  "4893": "▁நூஹ்",
  "4894": "▁ஜெ",
  "4895": "▁காணமாட்டீர்",
  "4896": "ain_",
  "4897": "▁அத்தாட்சிகளுடன்",
  "4898": "▁சுவர்க்கத்தில்",
  "4899": "அதாவது",
  "4900": "▁வருந்துகிறேன்",
  "4901": "▁பேணி",
  "4902": "அல்லாஹ்விடம்",
  "4903": "நெரு",
  "4904": "▁அக்கிரமம்",
  "4905": "▁தாவூ",
  "4906": "▁எதிரி",
  "4907": "▁கூறப்பட்டால்",
  "4908": "லாக்",
  "4909": "▁காப்பாற்றினோம்",
  "4910": "னேன்",
  "4911": "வந்து",
  "4912": "▁சமூகத்தின",
  "4913": "▁உருவாக்குக",
  "4914": "ப்பெயர்",
  "4915": "▁கொழுந்து",
  "4916": "வர்களுடன்",
  "4917": "▁புதுப்பி",
  "4918": "ருளை",
  "4919": "▁தாள்",
  "4920": "▁அனைத்துப்",
  "4921": "▁க்ளிக்",
  "4922": "▁பெருமையடித்துக்",
  "4923": "▁நில",
  "4924": "▁செய்கிறேன்",
  "4925": "▁ஒப்படை",
  "4926": "▁உண்டாக்கினான்",
  "4927": "▁இதைப்",
  "4928": "வர்களாகி",
  "4929": "▁எறிந்து",
  "4930": "▁கெடுதி",
  "4931": "▁படைத்தவன்",
  "4932": "▁பேர்",
  "4933": "▁துடைக்க",
  "4934": "▁எம்",
  "4935": "▁வெளியேற்று",
  "4936": "▁URL",
  "4937": "ந்திர",
  "4938": "▁மரு",
  "4939": "▁காலத்தில்",
  "4940": "▁நின்ற",
  "4941": "▁சான்றிதழ்",
  "4942": "ந்ததும்",
  "4943": "எனக்",
  "4944": "▁அடியார்களை",
  "4945": "ATOR",
  "4946": "மாட்டாது",
  "4947": "றிவு",
  "4948": "▁இருப்பதை",
  "4949": "▁Sh",
  "4950": "▁கர்ப்ப",
  "4951": "▁இருக்கலாம்",
  "4952": "லாமுன்",
  "4953": "▁கேட்டுக்",
  "4954": "escrip",
  "4955": "▁பாடல்",
  "4956": "▁கற்று",
  "4957": "▁பழ",
  "4958": "வாரி",
  "4959": "▁சாப்பி",
  "4960": "▁மனிதர்களை",
  "4961": "▁முகம்",
  "4962": "முடியாது",
  "4963": "த்தியா",
  "4964": "▁அணுகக்கூடிய",
  "4965": "தமாக",
  "4966": "▁xE",
  "4967": "▁xE0",
  "4968": "▁stat",
  "4969": "▁கத",
  "4970": "▁விடுவேன்",
  "4971": "▁நிமிட",
  "4972": "▁அமர்வு",
  "4973": "▁இணைய",
  "4974": "▁சேரும்",
  "4975": "▁எழுதி",
  "4976": "egion",
  "4977": "▁கடவுச்சொல்",
  "4978": "▁தகவலை",
  "4979": "▁அதனைக்",
  "4980": "▁பொத்தான்",
  "4981": "▁ஏறி",
  "4982": "த்துக்கள்",
  "4983": "▁நிற்",
  "4984": "▁வருட",
  "4985": "▁மீளு",
  "4986": "▁கைகள்",
  "4987": "ஆம்",
  "4988": "த்ததை",
  "4989": "▁மிஸ்",
  "4990": "▁விண்",
  "4991": "IS",
  "4992": "முன்ன",
  "4993": "அம்",
  "4994": "▁நொடி",
  "4995": "▁கடலில்",
  "4996": "புற",
  "4997": "தாக்கி",
  "4998": "▁ஜீ",
  "4999": "▁மோசம்",
  "5000": "ome",
  "5001": "▁வெளியேறு",
  "5002": "▁அடையாளம்",
  "5003": "▁துக்க",
  "5004": "▁யாரை",
  "5005": "▁மிகு",
  "5006": "யிடு",
  "5007": "றுத்தி",
  "5008": "▁அல்லாமல்",
  "5009": "▁கோப்பின்",
  "5010": "▁மேலாளர்",
  "5011": "▁தட்ட",
  "5012": "▁பட்டியலை",
  "5013": "▁காரியத்தை",
  "5014": "▁செலுத்துகிறான்",
  "5015": "நக",
  "5016": "▁விளக்க",
  "5017": "தீய",
  "5018": "▁வளை",
  "5019": "கின்றோம்",
  "5020": "வாகும்",
  "5021": "▁19",
  "5022": "கப்",
  "5023": "▁நுழைய",
  "5024": "மக்க",
  "5025": "மில்லாத",
  "5026": "யுடனும்",
  "5027": "மக்கா",
  "5028": "▁புகலி",
  "5029": "எங்களுக்கு",
  "5030": "▁பற்றிக்",
  "5031": "▁கொண்டவர்களை",
  "5032": "▁நாடியவரை",
  "5033": "▁உருப்படி",
  "5034": "ந்தனை",
  "5035": "▁இவ்வுலகி",
  "5036": "▁குதி",
  "5037": "▁வலு",
  "5038": "அதைப்",
  "5039": "▁நாங்களும்",
  "5040": "▁பிரிய",
  "5041": "▁உள்ளிடு",
  "5042": "▁முழுமையாக",
  "5043": "▁பரிகாசம்",
  "5044": "வதைத்",
  "5045": "ப்போல்",
  "5046": "▁செல்லுபடி",
  "5047": "வதற்கும்",
  "5048": "▁அவர்களிலிருந்து",
  "5049": "அதனால்",
  "5050": "end",
  "5051": "களெ",
  "5052": "ype",
  "5053": "▁ஆயு",
  "5054": "த்ததும்",
  "5055": "ராளமான",
  "5056": "▁வேதத்தைக்",
  "5057": "▁ல்",
  "5058": "▁ஆப",
  "5059": "ஷுஐ",
  "5060": "▁மாட்டீர்களா",
  "5061": "மழை",
  "5062": "▁இவர்களில்",
  "5063": "ting",
  "5064": "▁அருளிய",
  "5065": "▁உபதேசி",
  "5066": "▁சார்ந்த",
  "5067": "▁அதைப்பற்றி",
  "5068": "▁நாளா",
  "5069": "▁இறக்கியரு",
  "5070": "▁அவர்களையும்",
  "5071": "▁பிரவேசிக்கச்",
  "5072": "▁வில்லையா",
  "5073": "▁சிந்தித்து",
  "5074": "▁வேதனையில்",
  "5075": "வதி",
  "5076": "RO",
  "5077": "▁வட்டி",
  "5078": "▁மார்க்கத்தில்",
  "5079": "யமாகவும்",
  "5080": "▁நிலைமை",
  "5081": "▁ஒன்றும்",
  "5082": "▁இட்டுக்க",
  "5083": "▁அனுப்பிவை",
  "5084": "வுடைய",
  "5085": "வரே",
  "5086": "▁அகிலத்தா",
  "5087": "▁கொண்டிருந்தீர்கள்",
  "5088": "▁உயிருள்ள",
  "5089": "▁செலுத்தும்",
  "5090": "▁எதனை",
  "5091": "▁தூதர்களைப்",
  "5092": "▁CD",
  "5093": "▁அமைக்கவும்",
  "5094": "▁சத்தியத்தை",
  "5095": "ங்களுக்கெல்லாம்",
  "5096": "▁அறிவுடையோ",
  "5097": "▁கேடி",
  "5098": "மனிதர்",
  "5099": "▁தடம்",
  "5100": "பட்டி",
  "5101": "▁பாவமன்னி",
  "5102": "யின்றி",
  "5103": "த்திசை",
  "5104": "▁தூய்மையானவன்",
  "5105": "▁தூதராக",
  "5106": "▁பிரார்த்தித்தார்",
  "5107": "▁உத்த",
  "5108": "ட்டோ",
  "5109": "ப்பவர்களுக்கு",
  "5110": "▁கூட்டத்தாரை",
  "5111": "▁வேதத்தின்",
  "5112": "▁மைய",
  "5113": "▁நுழையுங்கள்",
  "5114": "▁ஒட்டகம்",
  "5115": "ப்ரயீ",
  "5116": "▁செய்வாயாக",
  "5117": "க்கிறாரோ",
  "5118": "▁நிச்சயமாகப்",
  "5119": "reat",
  "5120": "▁கிறிஸ்த",
  "5121": "▁மன்னிப்போனாகவும்",
  "5122": "▁செயல்களைச்",
  "5123": "▁என்பதைப்",
  "5124": "▁இருக்கின்றீர்கள்",
  "5125": "▁வலக்க",
  "5126": "▁களிம",
  "5127": "களாகி",
  "5128": "யோருக்கு",
  "5129": "▁HT",
  "5130": "▁TRAN",
  "5131": "▁TRANSL",
  "5132": "▁TRANSLATOR",
  "5133": "▁TRANSLATORS",
  "5134": "ப்பைக்",
  "5135": "▁கிருபையுடையவனாகவும்",
  "5136": "▁நன்கறிகிறான்",
  "5137": "▁தொகுப்பு",
  "5138": "டையிலும்",
  "5139": "▁should",
  "5140": "VD",
  "5141": "▁நஷ்டவாளி",
  "5142": "எழு",
  "5143": "யாய்",
  "5144": "▁எழுப்பு",
  "5145": "போரில்",
  "5146": "▁அதற்குப்",
  "5147": "ob",
  "5148": "▁org",
  "5149": "விடுங்கள்",
  "5150": "▁செவியுறுவோனாகவும்",
  "5151": "▁தம்முடைய",
  "5152": "ப்போரில்",
  "5153": "▁மாலையிலும்",
  "5154": "▁பட்டியலில்",
  "5155": "▁துக்கப்படவும்",
  "5156": "▁OF",
  "5157": "▁தேர்வுகள்",
  "5158": "▁அலி",
  "5159": "▁மேல்மேசை",
  "5160": "வைக்",
  "5161": "ட்டத்தை",
  "5162": "▁பொருள்களையும்",
  "5163": "▁இரட்டி",
  "5164": "▁செய்கிறானோ",
  "5165": "இதுவே",
  "5166": "▁மாறாக",
  "5167": "▁அவருக்குக்",
  "5168": "உண்மை",
  "5169": "▁பிடித்து",
  "5170": "▁காப்பாற்ற",
  "5171": "▁கவனித்தீர்களா",
  "5172": "▁மண்ணா",
  "5173": "▁அனுப்பவில்லை",
  "5174": "▁கைசே",
  "5175": "தாக்கு",
  "5176": "விகள்",
  "5177": "▁kde",
  "5178": "க்கொள்ள",
  "5179": "▁Z",
  "5180": "vin",
  "5181": "▁லாம்",
  "5182": "ஆடு",
  "5183": "▁விரும்புகிறேன்",
  "5184": "ப்பவர்களாக",
  "5185": "▁தேர்ந்தெடுத்துக்",
  "5186": "▁வாழ்க்கையில்",
  "5187": "▁நன்மையான",
  "5188": "▁வேடிக்கை",
  "5189": "▁கொண்டிருந்தீர்களோ",
  "5190": "▁ஷைத்தானை",
  "5191": "▁பகலை",
  "5192": "▁எல்லாவற்றையும்",
  "5193": "escription",
  "5194": "▁செயல்படுத்த",
  "5195": "▁வெள்ளை",
  "5196": "▁நேர்ந்தது",
  "5197": "▁sp",
  "5198": "▁ஆவ",
  "5199": "▁இத",
  "5200": "ரென",
  "5201": "வாக்கு",
  "5202": "த்துல்",
  "5203": "▁பெறுவதற்காக",
  "5204": "▁இருந்தும்",
  "5205": "▁sy",
  "5206": "ற்பட்ட",
  "5207": "▁விசாலமான",
  "5208": "க்குக்",
  "5209": "▁குற்றவாளிகள்",
  "5210": "▁நெருக்க",
  "5211": "▁கேளுங்கள்",
  "5212": "▁குர",
  "5213": "▁நிலையை",
  "5214": "யென்றால்",
  "5215": "▁தீவிர",
  "5216": "ங்களுடன்",
  "5217": "வரில்",
  "5218": "லோசனை",
  "5219": "▁சித",
  "5220": "▁வைத்திருப்ப",
  "5221": "▁பார்க்கவும்",
  "5222": "▁விசாரணை",
  "5223": "rom",
  "5224": "சன்",
  "5225": "AME",
  "5226": "▁அலார",
  "5227": "▁நிறுத்தி",
  "5228": "▁செய்பவர்",
  "5229": "▁முதுகு",
  "5230": "▁கடல்",
  "5231": "▁தேர்ந்தெடுத்த",
  "5232": "▁உரி",
  "5233": "▁மாட்டா",
  "5234": "▁நாட",
  "5235": "ருகி",
  "5236": "▁தெரிந்து",
  "5237": "ல்லர்",
  "5238": "▁செயலா",
  "5239": "வொரு",
  "5240": "▁வியாபா",
  "5241": "▁நிர்ண",
  "5242": "▁கட்டளைகளை",
  "5243": "▁அழைத்துக்",
  "5244": "▁விட்டேன்",
  "5245": "▁அவனைக்",
  "5246": "uer",
  "5247": "▁உள்ளடக்க",
  "5248": "ரோடு",
  "5249": "60",
  "5250": "▁சிரி",
  "5251": "தலில்",
  "5252": "த்திற்கான",
  "5253": "▁முழுவதும்",
  "5254": "▁வீடியோ",
  "5255": "▁எங்களிடம்",
  "5256": "▁சொத்து",
  "5257": "என்ன",
  "5258": "▁பலகை",
  "5259": "திருக்க",
  "5260": "▁ரூ",
  "5261": "▁அட்டை",
  "5262": "▁அமைக்க",
  "5263": "அல்லது",
  "5264": "▁எடை",
  "5265": "▁பசி",
  "5266": "▁{",
  "5267": "▁மலைகளை",
  "5268": "ப்பைப்",
  "5269": "▁கொள்கிறோம்",
  "5270": "▁கண்கள்",
  "5271": "▁coun",
  "5272": "ரத்",
  "5273": "தர்கள்",
  "5274": "ன்கள்",
  "5275": "மைய",
  "5276": "▁கொடுத்திரு",
  "5277": "▁பலன",
  "5278": "▁இன்றைய",
  "5279": "▁செங்குத்து",
  "5280": "ase",
  "5281": "கின்றீ",
  "5282": "கால",
  "5283": "▁கண்டார்",
  "5284": "▁செவிட",
  "5285": "▁கொண்டிருந்தது",
  "5286": "ம்பி",
  "5287": "க்கிறானோ",
  "5288": "▁ஜூ",
  "5289": "▁தானாக",
  "5290": "▁அலங்கார",
  "5291": "ong",
  "5292": "▁தர்ம",
  "5293": "▁கூர்ந்து",
  "5294": "lass",
  "5295": "ountry",
  "5296": "▁அஞ்சுங்கள்",
  "5297": "னன்றி",
  "5298": "▁படுத்தி",
  "5299": "▁மீண்டு",
  "5300": "▁கடமையாகும்",
  "5301": "▁உரையாடல்",
  "5302": "▁வேண்டுமே",
  "5303": "▁இயக்கு",
  "5304": "▁இவ்விரண்டி",
  "5305": "▁வாரிசா",
  "5306": "விடுவார்கள்",
  "5307": "▁கட்டளையிட",
  "5308": "▁அருளப்பட்ட",
  "5309": "▁செய்யுமாறு",
  "5310": "பவராக",
  "5311": "▁நூஹு",
  "5312": "▁குழப்பத்தை",
  "5313": "கிறார்களா",
  "5314": "▁இருப்பீ",
  "5315": "க்கப்படுவீர்கள்",
  "5316": "▁தூயவன்",
  "5317": "▁திரா",
  "5318": "LE",
  "5319": "▁இரக்க",
  "5320": "▁வணக்கத்திற்குரிய",
  "5321": "▁இவ்வா",
  "5322": "▁நிச்சயமாகத்",
  "5323": "ந்திருந்தால்",
  "5324": "▁விளக்கம்",
  "5325": "டனேயே",
  "5326": "விட்டனர்",
  "5327": "▁பொழியச்",
  "5328": "▁புகழும்",
  "5329": "▁கேட்டார்கள்",
  "5330": "▁fucking",
  "5331": "▁குருட",
  "5332": "▁counties",
  "5333": "▁இத்தூ",
  "5334": "▁முர",
  "5335": "அவர்களில்",
  "5336": "▁செய்பவன்",
  "5337": "▁கொண்டிருந்தோ",
  "5338": "விட்டும்",
  "5339": "▁நரகத்தின்",
  "5340": "மண",
  "5341": "மாட்டீர்கள்",
  "5342": "▁கைகளை",
  "5343": "▁இவர்களின்",
  "5344": "உலக",
  "5345": "▁இவரை",
  "5346": "▁அறிவிக்க",
  "5347": "மெல்லாம்",
  "5348": "▁அவ்வாற",
  "5349": "க்கென",
  "5350": "▁உதவியும்",
  "5351": "▁யூதர்",
  "5352": "▁அர்ரஹ்மான்",
  "5353": "▁டே",
  "5354": "செய்தி",
  "5355": "▁கூறுப",
  "5356": "▁தீர்ப்புக்குரிய",
  "5357": "ஞ்சி",
  "5358": "ந்தவும்",
  "5359": "▁கொண்டிருந்தார்கள்",
  "5360": "▁விளைவு",
  "5361": "ப்போரை",
  "5362": "▁சந்ததிய",
  "5363": "▁unit",
  "5364": "▁தீண்டு",
  "5365": "ire",
  "5366": "▁மன்னிப்பான்",
  "5367": "▁பொய்ப்பித்தனர்",
  "5368": "ர்களான",
  "5369": "துதி",
  "5370": "▁இத்தகையோர்",
  "5371": "▁state",
  "5372": "மெய்யாகவே",
  "5373": "▁துவக்கு",
  "5374": "தவ்",
  "5375": "னுமாக",
  "5376": "▁உயர்ந்தவன்",
  "5377": "▁தீமையை",
  "5378": "▁முகங்கள்",
  "5379": "▁தூதரையும்",
  "5380": "ற்றுக்கு",
  "5381": "▁நன்மையாகும்",
  "5382": "▁ஷைத்தானின்",
  "5383": "▁வண்ணத்தை",
  "5384": "▁உங்களுக்கே",
  "5385": "▁சிரம்",
  "5386": "இவ்வா",
  "5387": "▁ஓதிக்கா",
  "5388": "ard",
  "5389": "▁பூமிக்கும்",
  "5390": "▁அப்பெண்",
  "5391": "▁வந்ததும்",
  "5392": "உறுதி",
  "5393": "▁நர",
  "5394": "▁பெண்களையும்",
  "5395": "▁இந்திரிய",
  "5396": "lo",
  "5397": "▁அல்லாஹ்வைப்",
  "5398": "▁அகிலங்களின்",
  "5399": "▁திருப்பப்படு",
  "5400": "மனிதர்களே",
  "5401": "▁தலைவர்கள்",
  "5402": "பொழுது",
  "5403": "▁அறியவில்லையா",
  "5404": "▁சேகரி",
  "5405": "▁month",
  "5406": "வதெல்லாம்",
  "5407": "வில்லையோ",
  "5408": "எங்களுடைய",
  "5409": "▁செயல்களை",
  "5410": "▁மோச",
  "5411": "▁wor",
  "5412": "முடையவன்",
  "5413": "▁வழிப்பட்ட",
  "5414": "▁சிறுமை",
  "5415": "▁எச்சரிப்ப",
  "5416": "சல்",
  "5417": "ரற்ற",
  "5418": "▁அறிந்தவனாகவும்",
  "5419": "▁அதற்கவர்",
  "5420": "50",
  "5421": "வணக்கத்திற்குரிய",
  "5422": "▁will",
  "5423": "▁சுவன",
  "5424": "▁அலிஃப்",
  "5425": "▁ஸுலைமா",
  "5426": "▁வீட்டில்",
  "5427": "▁திருப்பொரு",
  "5428": "▁ஆது",
  "5429": "▁பயி",
  "5430": "▁கொள்ளட்டும்",
  "5431": "கட்டளை",
  "5432": "▁வைக்கும்",
  "5433": "ட்டிற்கு",
  "5434": "▁காலையிலும்",
  "5435": "மாற்ற",
  "5436": "▁தொடர",
  "5437": "▁அதற்கவர்கள்",
  "5438": "▁பயன்படும்",
  "5439": "▁இருப்பவர்கள்",
  "5440": "▁கைசேத",
  "5441": "▁செய்யாத",
  "5442": "▁மூலமாக",
  "5443": "▁தெரிவி",
  "5444": "யிருக்கின்றான்",
  "5445": "மற்றும்",
  "5446": "றான",
  "5447": "▁எழுப்பப்படு",
  "5448": "▁கழி",
  "5449": "▁இருப்பர்",
  "5450": "வாகி",
  "5451": "ines",
  "5452": "▁செய்திரு",
  "5453": "▁பாதுகாவலன்",
  "5454": "யூஸுஃ",
  "5455": "கன்",
  "5456": "▁சொல்லிக்",
  "5457": "▁ஆழ",
  "5458": "▁கொண்டேன்",
  "5459": "ட்டுமா",
  "5460": "▁முஃமின்களை",
  "5461": "▁சூரியன்",
  "5462": "▁பேசிக்",
  "5463": "▁அத்தாட்சியை",
  "5464": "02",
  "5465": "▁உள்ளவற்றை",
  "5466": "கொள்",
  "5467": ",%",
  "5468": "▁வின்",
  "5469": "▁கையை",
  "5470": "டையும்",
  "5471": "▁இடங்களில்",
  "5472": "▁உங்களையும்",
  "5473": "புரி",
  "5474": "▁கேட்கவில்லை",
  "5475": "யுள்ளான்",
  "5476": "ப்பொழுதும்",
  "5477": "we",
  "5478": "▁ஆழ்",
  "5479": "▁செயற்",
  "5480": "இதிலிருந்து",
  "5481": "▁குறைவாக",
  "5482": "▁ஹஜ்",
  "5483": "▁வாங்கு",
  "5484": "▁உரையை",
  "5485": "▁ஒவ்வொருவருக்கும்",
  "5486": "▁பேச்சு",
  "5487": "▁நிர்ணயி",
  "5488": "ப்பர்",
  "5489": "ழந்தை",
  "5490": "▁அலட்சி",
  "5491": "பத்",
  "5492": "PI",
  "5493": "கின்றது",
  "5494": "▁நடத்து",
  "5495": "ங்காட்டி",
  "5496": "▁வருகிறது",
  "5497": "▁மிகப்பெ",
  "5498": "▁அடர்",
  "5499": "▁வெட்டு",
  "5500": "▁பயப்படுகிறேன்",
  "5501": "▁என்பதைத்",
  "5502": "னியம்",
  "5503": "▁ராஜா",
  "5504": "மாட்டா",
  "5505": "▁தோல்வி",
  "5506": "▁ஒத்திசை",
  "5507": "▁ஒன்றாக",
  "5508": "▁இருக்கிறீர்கள்",
  "5509": "விட்டன",
  "5510": "▁an",
  "5511": "ஃபொ",
  "5512": "▁ஆகியவற்றின்",
  "5513": "▁அம்ம",
  "5514": "▁சுரு",
  "5515": "▁நிறைந்த",
  "5516": "ய்வு",
  "5517": "ப்பெற்ற",
  "5518": "_C",
  "5519": "க்கிட",
  "5520": "க்கில்",
  "5521": "▁இருக்கிறதா",
  "5522": "▁ஃப",
  "5523": "▁உயரம்",
  "5524": "▁நடக்கும்",
  "5525": "▁ஈடு",
  "5526": "▁வாயில்",
  "5527": "முக்கு",
  "5528": "ஸலாமுன்",
  "5529": "▁உணர்வு",
  "5530": "ice",
  "5531": "க்குகள்",
  "5532": "▁அறிவிப்பு",
  "5533": "▁இரண்டா",
  "5534": "▁வெண்",
  "5535": "தானம்",
  "5536": "னில்லை",
  "5537": "▁பிரகாச",
  "5538": "ஆண்",
  "5539": "ari",
  "5540": "▁file",
  "5541": "▁le",
  "5542": "▁அறிவிக்கப்பட்ட",
  "5543": "▁dist",
  "5544": "▁யாரா",
  "5545": "▁அழைப்ப",
  "5546": "▁சொல்கிறார்கள்",
  "5547": "ரிடமும்",
  "5548": "▁விடுவி",
  "5549": "▁பொருளை",
  "5550": "▁வைப்போம்",
  "5551": "மர்",
  "5552": "▁வின",
  "5553": "▁கொள்ளலாம்",
  "5554": "ராயின்",
  "5555": "▁அவரு",
  "5556": "▁நிறைவேற்றி",
  "5557": "ipp",
  "5558": "மைத்",
  "5559": "▁துன்பு",
  "5560": "அவர்களின்",
  "5561": "▁சர",
  "5562": "ப்பலகை",
  "5563": "▁பந்து",
  "5564": "ont",
  "5565": "வரம்",
  "5566": "▁மேக",
  "5567": "▁அழைக்க",
  "5568": "▁cont",
  "5569": "▁மூழ்கி",
  "5570": "ணர்கிறேன்",
  "5571": "▁கல்",
  "5572": "க்வா",
  "5573": "▁ஆவணம்",
  "5574": "▁எல்லோரும்",
  "5575": "வடு",
  "5576": "▁மது",
  "5577": "▁நடப்ப",
  "5578": "▁சிலவற்றை",
  "5579": "▁உறுதிப்படுத்து",
  "5580": "▁மறக்க",
  "5581": "வற்ற",
  "5582": "▁வெற்றியாள",
  "5583": "வதற்காகவே",
  "5584": "▁ஒருவரா",
  "5585": "பவர்களுக்கு",
  "5586": "▁வரம்பை",
  "5587": "▁தாயா",
  "5588": "னாதி",
  "5589": "னாதிபதி",
  "5590": "▁லே",
  "5591": "▁வட்டில்",
  "5592": "அரு",
  "5593": "னைப்",
  "5594": "▁மையம்",
  "5595": "▁இருக்கிறாய்",
  "5596": ".%",
  "5597": "▁நிகழ்வு",
  "5598": "▁எங்களைப்",
  "5599": "ஞ்சு",
  "5600": "▁பொய்யான",
  "5601": "▁அடியார்களுக்கு",
  "5602": "▁ch",
  "5603": "▁செய்வதற்காக",
  "5604": "க்கும்போது",
  "5605": "tic",
  "5606": "▁ரு",
  "5607": "யானா",
  "5608": "▁ஏராளமான",
  "5609": "▁ஃபா",
  "5610": "களுடனும்",
  "5611": "ளிலிருந்து",
  "5612": "பிய",
  "5613": "▁எதன்",
  "5614": "களாகவே",
  "5615": "க்கினோம்",
  "5616": "▁ரஹ்மத்தா",
  "5617": "▁எனக்கே",
  "5618": "▁அவற்றிலிருந்து",
  "5619": "▁சமயம்",
  "5620": "▁ஈடே",
  "5621": "த்தேர்வு",
  "5622": "▁விரும்புகிறார்கள்",
  "5623": "▁வணங்கிக்",
  "5624": "▁விடுவீராக",
  "5625": "வர்களான",
  "5626": "▁பயனளி",
  "5627": "▁brit",
  "5628": "▁britain_",
  "5629": "போருக்கு",
  "5630": "▁சமூகத்தவர்களே",
  "5631": "நேரான",
  "5632": "க்கொண்",
  "5633": "▁விடுவீர்கள்",
  "5634": "▁நஷ்",
  "5635": "▁ஞானமுடையோ",
  "5636": "கென்",
  "5637": "▁அறியமாட்டார்கள்",
  "5638": "▁மரிக்கச்",
  "5639": "வர்களு",
  "5640": "ற்பு",
  "5641": "▁வழியாகும்",
  "5642": "▁உண்டாக்கினோம்",
  "5643": "▁வேதத்தில்",
  "5644": "க்கினான்",
  "5645": "▁சந்தேகம்",
  "5646": "▁வானத்தை",
  "5647": "▁முடிந்தது",
  "5648": "▁ex",
  "5649": "இதைக்",
  "5650": "▁விட்டுத்",
  "5651": "▁how",
  "5652": "▁இரவையும்",
  "5653": "▁சிந்தித்துப்",
  "5654": "த்தவர்களாக",
  "5655": "▁அநியாயக்காரன்",
  "5656": "▁கொண்டிருந்தார்களோ",
  "5657": "▁செய்திகளை",
  "5658": "க்காதே",
  "5659": "▁ph",
  "5660": "▁கவனிப்பீராக",
  "5661": "▁யாருக்கு",
  "5662": "▁மீதுள்ள",
  "5663": "அல்லாஹ்வையன்றி",
  "5664": "ங்காதீர்கள்",
  "5665": "▁சொன்னார்கள்",
  "5666": "▁சுவனபதிகளில்",
  "5667": "த்தாரிடம்",
  "5668": "▁நோக்கிய",
  "5669": "உலகில்",
  "5670": "▁விவாகம்",
  "5671": "▁கொண்டிருங்கள்",
  "5672": "▁வானங்களிலுள்ளவையும்",
  "5673": "▁பூமியிலுள்ளவையும்",
  "5674": "▁நற்கூலியை",
  "5675": "▁அநியாயக்காரர்களுக்கு",
  "5676": "இதைப்",
  "5677": "▁அவர்களிடமிருந்து",
  "5678": "▁எத்தகையோ",
  "5679": "▁திராட்",
  "5680": "▁திராட்சை",
  "5681": "▁சொந்தமாக்கிக்",
  "5682": "▁பிரச்ச",
  "5683": "▁தன்மை",
  "5684": "▁இருக்கின்றாய்",
  "5685": "▁கூடா",
  "5686": "▁பணிந்து",
  "5687": "▁உன்னிடம்",
  "5688": "000",
  "5689": "▁உண்மையானது",
  "5690": "▁வழிகெடு",
  "5691": "▁சாலி",
  "5692": "▁அவ்வாறல்ல",
  "5693": "▁வழியைக்",
  "5694": "▁can",
  "5695": "சியம்",
  "5696": "▁திடு",
  "5697": "CK",
  "5698": "▁தேர்வை",
  "5699": "லுமுள்ள",
  "5700": "திரும்",
  "5701": "களாகும்",
  "5702": "ik",
  "5703": "▁மன்னிப்புத்",
  "5704": "▁நோயாளி",
  "5705": "▁பொறுப்பே",
  "5706": "▁கொண்டவர்களுக்கு",
  "5707": "▁அவர்களிடத்தில்",
  "5708": "▁This",
  "5709": "னுடையவும்",
  "5710": "▁சுலபமான",
  "5711": "▁துறை",
  "5712": "▁சொல்லா",
  "5713": "▁குற்றங்களை",
  "5714": "▁இவ்வேதத்தை",
  "5715": "▁பொறுமையைக்",
  "5716": "▁விட்டுப்",
  "5717": "▁தெய்வங்கள்",
  "5718": "நல்",
  "5719": "▁எப்போ",
  "5720": "▁மாற்றம்",
  "5721": "▁ஸி",
  "5722": "மையிலும்",
  "5723": "ப்பட்டாலும்",
  "5724": "பிரார்த்தி",
  "5725": "விடுவோம்",
  "5726": "▁கிளி",
  "5727": "ஹுல்",
  "5728": "▁கிடைமட்ட",
  "5729": "▁எவருக்கு",
  "5730": "▁class",
  "5731": "Country",
  "5732": "▁Al",
  "5733": "▁புகழை",
  "5734": "▁ம்",
  "5735": "▁இயல்பான",
  "5736": "▁வழிகேட்டிலேயே",
  "5737": "▁இதி",
  "5738": "▁தேடுகிறேன்",
  "5739": "▁செய்கின்றனர்",
  "5740": "வில",
  "5741": "தற்கான",
  "5742": "▁அவர்களுக்கிடையே",
  "5743": "மையினால்",
  "5744": "வேதனையை",
  "5745": "ந்தவர்கள்",
  "5746": "வீர்களாயின்",
  "5747": "▁கொள்க",
  "5748": "▁ஆகிவிட",
  "5749": "▁ஊத",
  "5750": "▁button",
  "5751": "▁he",
  "5752": "▁திறந்து",
  "5753": "▁key",
  "5754": "வசதி",
  "5755": "▁ஞாப",
  "5756": "▁முளைப்பி",
  "5757": "▁உரையாட",
  "5758": "▁மகா",
  "5759": "▁தங்கியிருப்பார்கள்",
  "5760": "▁சாந்தி",
  "5761": "▁இவ்வுலகில்",
  "5762": "ரம்ப",
  "5763": "▁அக்கிரமக்காரர்",
  "5764": "▁with",
  "5765": "▁கூறப்பட்டது",
  "5766": "▁காவல்",
  "5767": "அனு",
  "5768": "▁மாற்றிக்",
  "5769": "▁கொண்டோரே",
  "5770": "▁அபி",
  "5771": "▁இருக்கின்றீர்",
  "5772": "▁மரித்த",
  "5773": "▁அதைச்",
  "5774": "▁இன்ஜீ",
  "5775": "▁கடந்த",
  "5776": "ject",
  "5777": "அப்பொழுது",
  "5778": "இம்மையில்",
  "5779": "னுள்",
  "5780": "▁வெளிப்படுத்தி",
  "5781": "▁பயன்படுத்தப்படும்",
  "5782": "▁பிரயாணம்",
  "5783": "▁மொத்த",
  "5784": "களிலெல்லாம்",
  "5785": "▁பெருங்",
  "5786": "▁ஓத",
  "5787": "▁முன்னோர்",
  "5788": "▁இடி",
  "5789": "▁u",
  "5790": "மாட்டேன்",
  "5791": "▁விட்டெ",
  "5792": "ஒவ்",
  "5793": "▁தீங்கிழைத்துக்",
  "5794": "▁sub",
  "5795": "▁நிராகரிப்போர்",
  "5796": "இந்",
  "5797": "▁வயது",
  "5798": "அவர்களுக்குக்",
  "5799": "▁காரணி",
  "5800": "▁மிச்சி",
  "5801": "▁மிச்சிகென்",
  "5802": "ந்திருக்க",
  "5803": "▁பத்தி",
  "5804": "▁கொண்டிருக்கிறார்களோ",
  "5805": "▁காஃபிர்களாக",
  "5806": "▁தரை",
  "5807": "▁தயார்",
  "5808": "அருள்",
  "5809": "த்தீர்கள்",
  "5810": "▁ஒட்டகை",
  "5811": "▁குர்பா",
  "5812": "▁என்னைக்",
  "5813": "▁இண",
  "5814": "க்கூடும்",
  "5815": "▁ஆவணத்தை",
  "5816": "▁சமயத்தில்",
  "5817": "▁மறையா",
  "5818": "▁பயன்படுத்தவும்",
  "5819": "▁எப்பொழுது",
  "5820": "கிப்",
  "5821": "லைப்",
  "5822": "னைத்",
  "5823": "த்திருக்கிறான்",
  "5824": "▁துவங்கு",
  "5825": "▁உபயோகி",
  "5826": "▁கேப",
  "5827": "▁நம",
  "5828": "▁உங்களால்",
  "5829": "ult",
  "5830": "ப்பாகும்",
  "5831": "▁அநியாயமாக",
  "5832": "▁விருப்பங்கள்",
  "5833": "▁நிரப்பு",
  "5834": "எல்லோ",
  "5835": "▁ஏடு",
  "5836": "வேண்டுமா",
  "5837": "▁கிரக",
  "5838": "▁செயலி",
  "5839": "க்காகவும்",
  "5840": "▁சொல்வதை",
  "5841": "ions",
  "5842": "OP",
  "5843": "டமிரு",
  "5844": "▁இறைவனும்",
  "5845": "▁தாங்களே",
  "5846": "▁that",
  "5847": "▁அமைத்துக்",
  "5848": "யென்று",
  "5849": "▁குறியீடு",
  "5850": "▁கட்டளைக்கு",
  "5851": "▁வேகமாக",
  "5852": "▁முடக்கு",
  "5853": "▁செய்கிறோம்",
  "5854": "Region",
  "5855": "யிருக்கிறா",
  "5856": "▁நிழல்",
  "5857": "▁மன்னிக்கவும்",
  "5858": "▁உயிருடன்",
  "5859": "▁வழிகா",
  "5860": "▁அளிக்க",
  "5861": "த்திருங்கள்",
  "5862": "▁வட்டுக்கு",
  "5863": "▁கொடி",
  "5864": "▁நண்பர்",
  "5865": "▁புணர்கிறேன்",
  "5866": "டாக",
  "5867": "▁முதலா",
  "5868": "ary",
  "5869": "▁பேசும்",
  "5870": "IG",
  "5871": "▁அரசா",
  "5872": "▁கையில்",
  "5873": "▁j",
  "5874": "▁திடீரென",
  "5875": "ரிடமிருந்து",
  "5876": "க்City",
  "5877": "▁ஆண்டுகள்",
  "5878": "▁எழுப்பி",
  "5879": "புடைய",
  "5880": "▁கொடுக்கும்",
  "5881": "▁வரும்போது",
  "5882": "வதா",
  "5883": "▁கண்டிப்பாக",
  "5884": "▁போரிடு",
  "5885": "சேர்",
  "5886": "முழு",
  "5887": "▁நாட்கள்",
  "5888": "▁ஜனாதிபதி",
  "5889": "ost",
  "5890": "▁நோ",
  "5891": "▁ஆதரி",
  "5892": "▁நடமா",
  "5893": "களுக்கான",
  "5894": "▁ஆயிற்று",
  "5895": "க்கப்பட்டிருக்கிறது",
  "5896": "▁வரலாற்றை",
  "5897": "▁அடக்கி",
  "5898": "▁விடுதலை",
  "5899": "▁முத்திரையிட்டு",
  "5900": "▁அழிக்க",
  "5901": "லாமா",
  "5902": "▁ஃபி",
  "5903": "ere",
  "5904": "▁எல்லாக்",
  "5905": "▁கட்டமை",
  "5906": "▁சொல்லும்",
  "5907": "▁அண்",
  "5908": "ழுத்து",
  "5909": "த்தடி",
  "5910": "▁முன்னு",
  "5911": "றுத்தும்",
  "5912": "▁தேவையற்ற",
  "5913": "▁தேர்ந்தெடுத்து",
  "5914": "▁விளையாட்டை",
  "5915": "▁சாதாரண",
  "5916": "வழியில்",
  "5917": "▁நேச",
  "5918": "▁கிராம",
  "5919": "▁கடவுள்",
  "5920": "தன",
  "5921": "▁கடினமாக",
  "5922": "டாகும்",
  "5923": "விலேயே",
  "5924": "os",
  "5925": "▁சுமையை",
  "5926": "யடைய",
  "5927": "▁கோரி",
  "5928": "▁குறைத்து",
  "5929": "ilipp",
  "5930": "ilippines",
  "5931": "▁நினைவில்",
  "5932": "▁கருது",
  "5933": "இவர்கள்",
  "5934": "▁வெளிப்படையான",
  "5935": "▁உன்ன",
  "5936": "▁IS",
  "5937": "▁இதோ",
  "5938": "▁வினை",
  "5939": "▁தடுக்க",
  "5940": "நன்",
  "5941": "ds",
  "5942": "ருந்தது",
  "5943": "▁அளித்தான்",
  "5944": "▁மத்",
  "5945": "பவனை",
  "5946": "த்தபோது",
  "5947": "க்கும்படி",
  "5948": "▁நகர",
  "5949": "▁காற்றை",
  "5950": "கொள்ள",
  "5951": "னாலன்றி",
  "5952": ")!",
  "5953": "▁நடப்பீ",
  "5954": "▁வேக",
  "5955": "நம்முடைய",
  "5956": "▁as",
  "5957": "▁கோண",
  "5958": "இதில்",
  "5959": "▁பெற்றோர்",
  "5960": "▁செய்தே",
  "5961": "வேறெதையும்",
  "5962": "indow",
  "5963": "▁மிக்கோன்",
  "5964": "▁கேபசூ",
  "5965": "▁தலாக்",
  "5966": "▁திருமணம்",
  "5967": "▁சந்திக்கும்",
  "5968": "▁பள்ளி",
  "5969": "▁பேரீத்த",
  "5970": "▁ஆசிரிய",
  "5971": "▁பொறா",
  "5972": "▁இருக்கிறீர்களா",
  "5973": "▁வெளியாக்கி",
  "5974": "கின்றாரோ",
  "5975": "▁உவ",
  "5976": "▁துண்டி",
  "5977": "▁விசையை",
  "5978": "▁பேச்சை",
  "5979": "▁அச்சம",
  "5980": "20",
  "5981": "சத்தியத்தை",
  "5982": "▁பிரச்சனை",
  "5983": "▁அதைவிட",
  "5984": "னாய்",
  "5985": "▁சாட்சியம்",
  "5986": "ழில்",
  "5987": "▁பற்றித்",
  "5988": "▁அதனைப்",
  "5989": "யாவரும்",
  "5990": "▁விளையாட்டா",
  "5991": "AS",
  "5992": "▁இவர்களும்",
  "5993": "▁நேரத்தை",
  "5994": "தாகக்",
  "5995": "ak",
  "5996": "எல்",
  "5997": "▁உறுதிமொழி",
  "5998": "க்கொண்ட",
  "5999": "▁விடிய",
  "6000": "▁பெண்களுக்கு",
  "6001": "வதையோ",
  "6002": "▁தூதர்களையும்",
  "6003": "▁பொருட்டும்",
  "6004": "▁பூமியிலோ",
  "6005": "▁பகலையும்",
  "6006": "பவர்களை",
  "6007": "▁நாளிலும்",
  "6008": "▁கணக்குக்",
  "6009": "▁செய்பவனாக",
  "6010": "முஸ்",
  "6011": "▁மிகைத்தவனாகவும்",
  "6012": "த்தினை",
  "6013": "▁சூனியக்காரர்கள்",
  "6014": "க்கையில்",
  "6015": "ற்றுமை",
  "6016": "நிலையில்",
  "6017": "▁பெய்",
  "6018": "▁மர்யமின்",
  "6019": "▁நேரி",
  "6020": "▁சமூகத்தாரும்",
  "6021": "▁போலா",
  "6022": "▁விலைக்கு",
  "6023": "▁காஃபிர்களின்",
  "6024": "▁வழிபட்டு",
  "6025": "▁சிலரைவிட",
  "6026": "▁ra",
  "6027": "பாவச்",
  "6028": "▁வானங்களுடைய",
  "6029": "▁வானங்களுடையவும்",
  "6030": "ஸிய்",
  "6031": "இஸ்",
  "6032": "▁கூறிக்",
  "6033": "▁பதிவே",
  "6034": "▁வேதத்தையுடையோ",
  "6035": "▁எவருக்கும்",
  "6036": "யோடு",
  "6037": "சாலி",
  "6038": "▁கவன",
  "6039": "MM",
  "6040": "▁துற",
  "6041": "▁சொன்னோம்",
  "6042": "▁அத்தாட்சிகளையும்",
  "6043": "▁ஹலா",
  "6044": "▁செய்பவர்களை",
  "6045": "ளன",
  "6046": "பொருள்",
  "6047": "▁மழையை",
  "6048": "வதைப்",
  "6049": "யானது",
  "6050": "▁பொய்யென",
  "6051": "▁கொண்டவர்களாக",
  "6052": "▁பற்றிப்",
  "6053": "▁நீள்",
  "6054": "ஈமான்",
  "6055": "▁அசத்திய",
  "6056": "▁லூத்துடைய",
  "6057": "▁கொண்டுள்ள",
  "6058": "தோர்",
  "6059": "▁வழிப",
  "6060": "▁நாள்வரை",
  "6061": "▁அவரைத்",
  "6062": "▁அக்கிரமக்கார",
  "6063": "▁விடுகிறார்கள்",
  "6064": "▁உண்மையே",
  "6065": "▁நிலைநிறுத்து",
  "6066": "▁வைப்பாயாக",
  "6067": "▁அறிவில்லாத",
  "6068": "▁மறைக்க",
  "6069": "▁தூதர்களில்",
  "6070": "▁ஷைத்தான்கள்",
  "6071": "▁நற்போதனை",
  "6072": "▁வழிதவ",
  "6073": "▁சந்திரனையும்",
  "6074": "▁நிற்க",
  "6075": "▁படைக்கவில்லை",
  "6076": "▁வெற்றியாகும்",
  "6077": "▁இங்கிருந்து",
  "6078": "ங்களிருவரும்",
  "6079": "▁ஒருவனாக",
  "6080": "ஹ்ரா",
  "6081": "▁ல",
  "6082": "யிருப்பான்",
  "6083": "▁கடைப்பிடித்து",
  "6084": "யோர்",
  "6085": "▁முற்படுத்தி",
  "6086": "அல்லாஹ்வே",
  "6087": "▁மாமி",
  "6088": "யினை",
  "6089": "▁தன",
  "6090": "▁மஞ்ச",
  "6091": "பவர்களும்",
  "6092": "▁அல்லாஹ்வுக்காக",
  "6093": "யுடையோனாகவும்",
  "6094": "▁Server",
  "6095": "▁கூறப்பட்ட",
  "6096": "அதற்",
  "6097": "குஃப்",
  "6098": "▁நாளையும்",
  "6099": "மர",
  "6100": "▁உயிர்களையும்",
  "6101": "▁பெயரி",
  "6102": "▁என்னவெ",
  "6103": "▁ஏற்றி",
  "6104": "▁தானே",
  "6105": "▁பின்பற்றுகிறார்கள்",
  "6106": "▁கொள்ளாமல்",
  "6107": "▁காளை",
  "6108": "பெண்",
  "6109": "▁அசைவூ",
  "6110": "▁நிரப்ப",
  "6111": "கிறதோ",
  "6112": "per",
  "6113": "யுரை",
  "6114": "விக்கும்",
  "6115": "லாண்ட்ஸ்",
  "6116": "ப்பவர்களில்",
  "6117": "▁இரட்டை",
  "6118": "▁அமையும்",
  "6119": "▁தாவூது",
  "6120": "▁மர்யமுடைய",
  "6121": "▁பரிகார",
  "6122": "▁சொல்லப்படும்",
  "6123": "▁மதிப்பை",
  "6124": "▁குடும்பத்தாரையும்",
  "6125": "▁தெரிகிறது",
  "6126": "▁வாங்கிக்",
  "6127": "▁அளித்துள்ள",
  "6128": "▁கீழ்படியுங்கள்",
  "6129": "▁நன்கறிபவனாகவும்",
  "6130": "▁வெளிச்ச",
  "6131": "சூனிய",
  "6132": "▁நாளாகும்",
  "6133": "▁மடி",
  "6134": "▁குண",
  "6135": "▁ஜிம்",
  "6136": "mage",
  "6137": "▁பொய்யர்",
  "6138": "▁திருநா",
  "6139": "▁இறைவனைப்",
  "6140": "▁வசப்படுத்தி",
  "6141": ";\"",
  "6142": "த்தீரா",
  "6143": "க்கெடு",
  "6144": "▁option",
  "6145": "கிரி",
  "6146": "த்திலோ",
  "6147": "யிடம்",
  "6148": "▁பத்தை",
  "6149": "▁வயிறு",
  "6150": "▁அடியார்கள்",
  "6151": "▁திக்",
  "6152": "land",
  "6153": "ராசை",
  "6154": "_B",
  "6155": "வோரில்",
  "6156": "▁வைத்துள்ளோம்",
  "6157": "அடி",
  "6158": "▁அழகாக",
  "6159": "▁கோப்பில்",
  "6160": "ரேயன்றி",
  "6161": "உங்களில்",
  "6162": "ந்திருந்த",
  "6163": "▁விளையாடு",
  "6164": "▁எப்போதும்",
  "6165": "▁அவ்வாறாயின்",
  "6166": "▁தவற",
  "6167": "▁நாடியவருக்கு",
  "6168": "▁விலக்கி",
  "6169": "▁தூதருக்கு",
  "6170": "▁காட்டுக",
  "6171": "குர்ஆன்",
  "6172": "▁பாரும்",
  "6173": "▁சட்டை",
  "6174": "அர்",
  "6175": "▁சேர்க்கும்",
  "6176": "▁விடலாம்",
  "6177": "▁கழுதை",
  "6178": "க்கொ",
  "6179": "▁இறங்கி",
  "6180": "▁பிறந்த",
  "6181": "▁சண்டை",
  "6182": "▁நிராகரிக்க",
  "6183": "▁பகுதியை",
  "6184": "tor",
  "6185": "▁பெண்ணை",
  "6186": "▁அழுத்தவும்",
  "6187": "▁உறுப்பு",
  "6188": "▁DPI",
  "6189": "▁அழித்தோம்",
  "6190": "our",
  "6191": "போதும்",
  "6192": "▁எனும்",
  "6193": "பார்வை",
  "6194": "பயபக்தி",
  "6195": "▁பாதுகாத்துக்",
  "6196": "ress",
  "6197": "▁by",
  "6198": "▁துப்பாக்கி",
  "6199": "ன்றல்",
  "6200": "▁சரியா",
  "6201": "▁அந்நா",
  "6202": "லிருக்கும்",
  "6203": "▁எனது",
  "6204": "▁தக்வா",
  "6205": "pi",
  "6206": "▁வட்ட",
  "6207": "▁சுவர்க்கச்",
  "6208": "▁வர்ணி",
  "6209": "▁வாழ்வில்",
  "6210": "▁அதிகப்படுத்து",
  "6211": "▁செய்கிறீர்கள்",
  "6212": "▁கூடுதல்",
  "6213": "▁status",
  "6214": "▁ஏவி",
  "6215": "ico",
  "6216": "▁உலோ",
  "6217": "▁கலந்து",
  "6218": "தாய்",
  "6219": "ep",
  "6220": "▁புரிந்த",
  "6221": "▁HTML",
  "6222": "▁கிடைத்து",
  "6223": "வரிடம்",
  "6224": "▁பிரித்த",
  "6225": "கன",
  "6226": "மாயின்",
  "6227": "▁xAE",
  "6228": "லைக்",
  "6229": "கிதம்",
  "6230": "ப்புல",
  "6231": "▁செவியேற்பவன்",
  "6232": "ட்ஸ்",
  "6233": "▁ரத்து",
  "6234": "னின்றும்",
  "6235": "▁கப்",
  "6236": "▁Comment",
  "6237": "ங்களால்",
  "6238": "▁மண்ணி",
  "6239": "▁பிரிவு",
  "6240": "▁அறிபவன்",
  "6241": "துவாக",
  "6242": "IL",
  "6243": "▁வானத்தின்",
  "6244": "▁00",
  "6245": "ழுதி",
  "6246": "ப்பொருள்",
  "6247": "▁அழையுங்கள்",
  "6248": "▁இருப்பினும்",
  "6249": "▁அஞ்சங்கள்",
  "6250": "அமை",
  "6251": "box",
  "6252": "▁அதிகபட்ச",
  "6253": "ஹர்",
  "6254": "▁நானே",
  "6255": "ns",
  "6256": "ments",
  "6257": "▁நாச",
  "6258": "லகம்",
  "6259": "▁ஹூ",
  "6260": "▁வெற்றா",
  "6261": "ces",
  "6262": "ஞர்",
  "6263": "UN",
  "6264": "வையே",
  "6265": "▁mess",
  "6266": "ட்டர்",
  "6267": "▁கையே",
  "6268": "▁மின்னெ",
  "6269": "▁தொடர",
  "6270": "\")",
  "6271": "▁நம்பிக்கைக்குரிய",
  "6272": "ராகி",
  "6273": "▁மாமிச",
  "6274": "▁சொல்லுங்கள்",
  "6275": "▁ஏமாற்றி",
  "6276": "▁கட்டுரை",
  "6277": "▁செக்",
  "6278": "▁நடக்கிறது",
  "6279": "பிரி",
  "6280": "த்தக்க",
  "6281": "▁பயணம்",
  "6282": "▁இரத்த",
  "6283": "▁சுத்தி",
  "6284": "விட்",
  "6285": "வாறே",
  "6286": "▁ஆண்கள்",
  "6287": "▁நடிக",
  "6288": "▁காரணத்தினால்",
  "6289": "▁குறும்ப",
  "6290": "▁வரலாறு",
  "6291": "▁நடந்தது",
  "6292": "நிரல்",
  "6293": "▁தூது",
  "6294": "ற்றின்",
  "6295": "▁ஆலோசனை",
  "6296": "▁மலைகள்",
  "6297": "பும்",
  "6298": "▁வேறுபாடு",
  "6299": "▁ஆட",
  "6300": "படுத்தி",
  "6301": "▁குளிர்ச்சி",
  "6302": "▁கூட்டம்",
  "6303": "▁விருப்பம்",
  "6304": "▁மனம்",
  "6305": "▁ஒற்றை",
  "6306": "▁பச்சை",
  "6307": "▁மனைவியை",
  "6308": "ண்பி",
  "6309": "க்கத்தில்",
  "6310": "▁தூரம்",
  "6311": "னின்று",
  "6312": "ust",
  "6313": "▁கிடையாது",
  "6314": "றுத்த",
  "6315": "▁வெளியேற",
  "6316": "ரால்",
  "6317": "▁அமைத்து",
  "6318": "▁சாம்ப",
  "6319": "▁அகல",
  "6320": "▁20",
  "6321": "▁அருகே",
  "6322": "▁உறை",
  "6323": "▁சமாதானம்",
  "6324": "▁கட்டா",
  "6325": "டித்",
  "6326": "ella",
  "6327": "மக்கள்",
  "6328": "▁சென்றா",
  "6329": "▁வாழ்க்கையின்",
  "6330": "▁இன்பம்",
  "6331": "▁வள",
  "6332": "▁நியாயமான",
  "6333": "த்தாய்",
  "6334": "▁குறுக்கு",
  "6335": "▁menu",
  "6336": "▁வெள்ளி",
  "6337": "▁வந்தார்",
  "6338": "▁வேகம்",
  "6339": "▁நினைத்தேன்",
  "6340": "▁வந்தாலும்",
  "6341": "ore",
  "6342": "▁உத்தர",
  "6343": "▁type",
  "6344": "bia",
  "6345": "ள்ளத்தா",
  "6346": "▁கப்பல்",
  "6347": "வானா",
  "6348": "ர்வ",
  "6349": "▁பாரா",
  "6350": "▁ஆரம்ப",
  "6351": "▁செய்கிறது",
  "6352": "ப்பதையும்",
  "6353": "இப்போது",
  "6354": "ஷின்",
  "6355": "தாங்கள்",
  "6356": "▁யாரு",
  "6357": "ற்றே",
  "6358": "▁அவருக்காக",
  "6359": "▁பலனளி",
  "6360": "▁வய",
  "6361": "படுத்தும்",
  "6362": "iB",
  "6363": "▁நேர்மையான",
  "6364": "களிலுள்ள",
  "6365": "கையை",
  "6366": "orm",
  "6367": "▁சேவகன்",
  "6368": "▁கெலி",
  "6369": "▁கெலிஃபொ",
  "6370": "▁கெலிஃபொனியா",
  "6371": "ட்டப்படும்",
  "6372": "▁அவளுக்கு",
  "6373": "▁நிரந்தரமாக",
  "6374": "றாத",
  "6375": "▁போட்டோ",
  "6376": "▁சுற்று",
  "6377": "▁கூறுவார்",
  "6378": "த்தனம்",
  "6379": "▁சேர்ப்பான்",
  "6380": "▁வகையான",
  "6381": "▁ஆல",
  "6382": "▁எதிர்பா",
  "6383": "▁அடித்துக்",
  "6384": "▁நேசிக்கின்றான்",
  "6385": "வுட்",
  "6386": "▁இறைவனால்",
  "6387": "அவ்வாறாயின்",
  "6388": "▁நண்பர்கள்",
  "6389": "▁வருகிறேன்",
  "6390": "▁புதி",
  "6391": "▁முன்னோக்கி",
  "6392": "▁ஒருவனா",
  "6393": "▁விடுகிறானோ",
  "6394": "▁போதெல்லாம்",
  "6395": "மேயே",
  "6396": "நன்றி",
  "6397": "▁யாகும்",
  "6398": "▁மன்ன",
  "6399": "▁நாடினாலன்றி",
  "6400": "சில",
  "6401": "▁தனிப்ப",
  "6402": "ஸர்",
  "6403": "▁வெளிப்பட்டு",
  "6404": "ஜ்ரத்",
  "6405": "யிருந்தது",
  "6406": "அழை",
  "6407": "▁திறந்த",
  "6408": "▁நீரை",
  "6409": "ய்ந்து",
  "6410": "பதில்",
  "6411": "ஸல்",
  "6412": "ஆது",
  "6413": "▁சேமித்து",
  "6414": "மலக்கு",
  "6415": "▁அவனன்றி",
  "6416": "▁இருக்கின்றார்",
  "6417": "▁ருகூ",
  "6418": "▁ருகூஃ",
  "6419": "▁சவனபதி",
  "6420": "க்கின்றீர்கள்",
  "6421": "விட்டேன்",
  "6422": "▁செய்வதில்",
  "6423": "ங்கியது",
  "6424": "▁அவரைக்",
  "6425": "▁வெளியாக்கு",
  "6426": "▁என்றாலும்",
  "6427": "யறி",
  "6428": "▁மகனே",
  "6429": "யிருப்பின்",
  "6430": "▁தங்களிடம்",
  "6431": "வோரும்",
  "6432": "▁பிக்",
  "6433": "மில்",
  "6434": "▁வெளிப்படுத்த",
  "6435": "▁வீழ்",
  "6436": "வற்றுக்கும்",
  "6437": "ற்படுத்து",
  "6438": "▁பெண்களுக்கும்",
  "6439": "▁வழியாக",
  "6440": "யாயின்",
  "6441": "ப்பினும்",
  "6442": "▁பொறுமையாக",
  "6443": "வனல்லன்",
  "6444": "▁மயக்கி",
  "6445": "▁குமாரர்",
  "6446": "▁மாட்டார்",
  "6447": "ல்லாதீர்கள்",
  "6448": "▁ஒட்டு",
  "6449": "▁பின்பற்றா",
  "6450": "ர்களாகவே",
  "6451": "இறைவனின்",
  "6452": "▁இளை",
  "6453": "▁விருப்பத்தேர்வு",
  "6454": "▁திரும்பும்",
  "6455": "▁அகிலங்களுக்கெல்லாம்",
  "6456": "\".",
  "6457": "▁வழக்கமான",
  "6458": "▁செய்தவர்கள்",
  "6459": "▁எதைக்",
  "6460": "▁உபகாரம்",
  "6461": "▁நாயனில்லை",
  "6462": "▁இரட்சி",
  "6463": "▁அளித்தோம்",
  "6464": "▁சக்தியற்ற",
  "6465": "min",
  "6466": "▁என்றே",
  "6467": "▁கொடுக்கப்பட",
  "6468": "▁பொய்யெனக்",
  "6469": "▁காப்பு",
  "6470": "யினரை",
  "6471": "ரமே",
  "6472": "▁கண்டேன்",
  "6473": "▁விடுகின்றனர்",
  "6474": "க்கொண்டா",
  "6475": "▁செய்யாது",
  "6476": "▁கூறினாள்",
  "6477": "▁இத்தகையோருக்கு",
  "6478": "ப்பட்டை",
  "6479": "ரிலும்",
  "6480": "தூதர்",
  "6481": "▁வாங்கினோம்",
  "6482": "▁கைகளையும்",
  "6483": "▁அக்கிரமக்காரர்கள்",
  "6484": "▁நரகமே",
  "6485": "▁வசனங்களையும்",
  "6486": "▁சதா",
  "6487": "பணி",
  "6488": "▁பாலோர்",
  "6489": "▁மறைத்துக்",
  "6490": "▁பேரொ",
  "6491": "▁கொண்டிரு",
  "6492": "எல்லாப்",
  "6493": "▁தட்டழி",
  "6494": "க்காகவே",
  "6495": "லீம்",
  "6496": "இறைவனே",
  "6497": "▁முஃமின்களான",
  "6498": "▁நம்மிடத்தில்",
  "6499": "▁வேண்டுமென",
  "6500": "ror",
  "6501": "▁வெடி",
  "6502": "கங்கள்",
  "6503": "▁உண்ணு",
  "6504": "தெய்வ",
  "6505": "▁விளைச்ச",
  "6506": "▁பொய்யாகக்",
  "6507": "▁எக்ஸ்",
  "6508": "▁வழிகாட்டியாகவும்",
  "6509": "▁அதிகப்படுத்தி",
  "6510": "▁சொல்வீராக",
  "6511": "சமூக",
  "6512": "▁மேலானது",
  "6513": "நேரம்",
  "6514": "▁மெய்ப்பி",
  "6515": "▁முன்னா",
  "6516": "AP",
  "6517": "▁வேதத்",
  "6518": "▁அவ்விருவருக்கும்",
  "6519": "இறைவா",
  "6520": "னிடமே",
  "6521": "ஸூர்",
  "6522": "▁இம்மையிலும்",
  "6523": "▁இல்லாதிருந்தால்",
  "6524": "ஜ்தா",
  "6525": "டனி",
  "6526": "▁மேன்மையாக்கி",
  "6527": "▁சாதனம்",
  "6528": "▁நித்திய",
  "6529": "எம்",
  "6530": "▁உழை",
  "6531": "▁அதிலுள்ள",
  "6532": "▁சுகம்",
  "6533": "▁ஹு",
  "6534": "▁எங்களுக்குக்",
  "6535": "பவர்களாகவும்",
  "6536": "▁போன்றது",
  "6537": "▁கொடுக்கிறோம்",
  "6538": "▁பொய்யர்கள்",
  "6539": "யிருந்தும்",
  "6540": "▁அருட்கொடையை",
  "6541": "▁துன்பத்தை",
  "6542": "▁நன்மையைக்",
  "6543": "றிருந்தும்",
  "6544": "▁நிற்ப",
  "6545": "▁போன்றே",
  "6546": "▁அமைப்பை",
  "6547": "▁தள்ள",
  "6548": "heck",
  "6549": "▁ஏற்படுத்த",
  "6550": "▁சூரியனையும்",
  "6551": "▁அவசரப்படு",
  "6552": "வேனா",
  "6553": "றப்போர்",
  "6554": "zer",
  "6555": "தற்காகவும்",
  "6556": "▁விட்டெரியும்",
  "6557": "▁மாற்றங்கள்",
  "6558": "▁செய்பவர்களுக்கு",
  "6559": "▁உள்ளா",
  "6560": "▁ஏழைகளுக்கும்",
  "6561": "▁மீம்",
  "6562": "▁மூழ்கடித்தோம்",
  "6563": "▁கூப்பி",
  "6564": "▁செவிப்புல",
  "6565": "▁யாராவது",
  "6566": "▁எஜ",
  "6567": "பார்கள்",
  "6568": "▁இஸ்மா",
  "6569": "▁இஸ்மாயீ",
  "6570": "▁கேட்கப்படும்",
  "6571": "▁கைத்தடி",
  "6572": "▁சமூகத்திற்கு",
  "6573": "பகை",
  "6574": "▁IM",
  "6575": "▁தேர்ந்தெடுக்க",
  "6576": "▁தீண்டி",
  "6577": "ஒருவனாக",
  "6578": "▁வேதனைக்கு",
  "6579": "▁சம்பந்த",
  "6580": "ளவில்",
  "6581": "சாந்தி",
  "6582": "▁முறையாக",
  "6583": "▁கொண்டீர்கள்",
  "6584": "நிறை",
  "6585": "▁சகித்துக்",
  "6586": "▁pre",
  "6587": "டத்திலும்",
  "6588": "▁மக்களே",
  "6589": "▁படைத்திருப்ப",
  "6590": "ஃபூ",
  "6591": "ஹம்து",
  "6592": "டமிருந்தே",
  "6593": "\";",
  "6594": "▁ஆதலின்",
  "6595": "▁பொருந்திக்",
  "6596": "▁விசைப்பலகை",
  "6597": "▁இணைப்பை",
  "6598": "ந்திரம்",
  "6599": "▁விடுகிறோம்",
  "6600": "▁குறைந்தபட்ச",
  "6601": "▁பொய்யை",
  "6602": "▁நினைவூட்டுவீராக",
  "6603": "இப்பொழுது",
  "6604": "பது",
  "6605": "யுடையவர்கள்",
  "6606": "▁முட",
  "6607": "▁இதிலே",
  "6608": "lease",
  "6609": "▁இரவிலும்",
  "6610": "▁எந்தத்",
  "6611": "▁பாதுகாவலனாக",
  "6612": "▁ஹராமாக்கி",
  "6613": "ந்நரக",
  "6614": "ப்படாமல்",
  "6615": "▁தந்த",
  "6616": "▁பார்ப்பீ",
  "6617": "▁அல்லாதவற்றை",
  "6618": "▁முஃமின்களில்",
  "6619": "விடத்தில்",
  "6620": "வோடு",
  "6621": "▁யூஸுஃப்",
  "6622": "▁குமார",
  "6623": "▁அணை",
  "6624": "▁உள்ளச்ச",
  "6625": "▁அநியாயக்",
  "6626": "▁இருக்கிறார்களோ",
  "6627": "மர்ய",
  "6628": "சம",
  "6629": "யிருப்பார்கள்",
  "6630": "ets",
  "6631": "கண்",
  "6632": "இருக்கி",
  "6633": "▁சுவர்",
  "6634": "▁உண்மையாளராக",
  "6635": "▁கண்ணி",
  "6636": "▁இணையா",
  "6637": "▁மிகைத்து",
  "6638": "jects",
  "6639": "▁மனிதனும்",
  "6640": "▁செயல்களின்",
  "6641": "ரிடையே",
  "6642": "▁நரகவாசி",
  "6643": "▁அருட்கொடைகளை",
  "6644": "உதவி",
  "6645": "இர",
  "6646": "ளுக்கும்",
  "6647": "▁புரியுங்கள்",
  "6648": "▁பாதுகாவலர்களாக",
  "6649": "▁பார்க்கும்",
  "6650": "ure",
  "6651": "▁பொருள்களை",
  "6652": "வந்த",
  "6653": "▁St",
  "6654": "கிறார்களே",
  "6655": "க்கின்றார்கள்",
  "6656": "மிகவும்",
  "6657": "விட்டா",
  "6658": "ON",
  "6659": "வர்களாய்",
  "6660": "விதமான",
  "6661": "ப்போருக்கு",
  "6662": "▁வேதனையு",
  "6663": "▁உண்மையாக",
  "6664": "▁வகையை",
  "6665": "▁சிறப்பு",
  "6666": "▁கூடாதா",
  "6667": "▁கொடுக்கிறான்",
  "6668": "▁பொலாண்ட்",
  "6669": "▁விழுங்க",
  "6670": "பாக்கிய",
  "6671": "▁அலு",
  "6672": "▁நிலையிலேயே",
  "6673": "▁மலக்குகளும்",
  "6674": "▁ஆயிரம்",
  "6675": "ml",
  "6676": "▁முகங்களை",
  "6677": "வால்",
  "6678": "விட்டோம்",
  "6679": "▁குறிப்பிடு",
  "6680": "ப்பிட்ட",
  "6681": "▁some",
  "6682": "▁நெதர்",
  "6683": "▁செல்லாத",
  "6684": "▁இஸ்ராயீல்",
  "6685": "வெற்றி",
  "6686": "▁மீட்டு",
  "6687": "▁தூண்டி",
  "6688": "▁மறுத்து",
  "6689": "▁உணவும்",
  "6690": "▁கொடுக்கப்ப",
  "6691": "திகள்",
  "6692": "படுத்த",
  "6693": "DVD",
  "6694": "▁ஏற்பட்டது",
  "6695": "onst",
  "6696": "▁செய்திகள்",
  "6697": "▁சமமானது",
  "6698": "▁சொல்ல",
  "6699": "▁முறித்து",
  "6700": "▁உள்ளிடுக",
  "6701": "விட்டார்கள்",
  "6702": "▁ஏஸ்",
  "6703": "▁பகலில்",
  "6704": "▁அவனோ",
  "6705": "▁அனுமதியின்றி",
  "6706": "▁அறிவித்தது",
  "6707": "▁இரண்டி",
  "6708": "▁குறித்த",
  "6709": "▁உட்கா",
  "6710": "▁புகழு",
  "6711": "▁அமைத்தான்",
  "6712": "▁fil",
  "6713": "▁வரவில்லை",
  "6714": "▁முட்டாள்",
  "6715": "▁இராது",
  "6716": "மிரா",
  "6717": "▁கையொ",
  "6718": "▁வாய்ப்பு",
  "6719": "▁நினைவ",
  "6720": "▁வந்துள்ளது",
  "6721": "▁ஊட",
  "6722": "▁பங்கி",
  "6723": "▁செய்வதற்கு",
  "6724": "சுவர்க்க",
  "6725": "வில்லையானால்",
  "6726": "வாத",
  "6727": "▁வெட்க",
  "6728": "▁இன்ப",
  "6729": "▁பரிச",
  "6730": "▁புரிய",
  "6731": "▁கேட்டி",
  "6732": "▁தை",
  "6733": "▁உருவாக்குகிறது",
  "6734": "▁reg",
  "6735": ",\"",
  "6736": "Language",
  "6737": "ற்றால்",
  "6738": "▁கலை",
  "6739": "விட்டார்",
  "6740": "எதிரி",
  "6741": "ப்படுத்திய",
  "6742": "▁இருக்கிறார்",
  "6743": "▁எல்",
  "6744": "▁இரண்டாவது",
  "6745": "▁இன்னொரு",
  "6746": "கடு",
  "6747": "▁கேடியி",
  "6748": "ellation",
  "6749": "▁மஞ்சள்",
  "6750": "port",
  "6751": "▁விவரம்",
  "6752": "▁மாபெரும்",
  "6753": "▁புறங்காட்டி",
  "6754": "மட்டும்",
  "6755": "▁இயங்கும்",
  "6756": "ussia_",
  "6757": "▁சட்டம்",
  "6758": "தலும்",
  "6759": "ப்பட்டிருக்கும்",
  "6760": "▁ba",
  "6761": "கால்",
  "6762": "ன்பதை",
  "6763": "வளை",
  "6764": "லுடன்",
  "6765": "▁நெருக்கடி",
  "6766": "france",
  "6767": "நிகழ்",
  "6768": "இன்",
  "6769": "▁கையொப்ப",
  "6770": "▁செய்தல்",
  "6771": "▁வரவே",
  "6772": "கர்கள்",
  "6773": "முற்றிலும்",
  "6774": "மத்தை",
  "6775": "▁பவு",
  "6776": "▁வழிப்படு",
  "6777": "▁பாவனை",
  "6778": "▁தவிர்த்து",
  "6779": "▁பார்த்த",
  "6780": "onstellation",
  "6781": "மறி",
  "6782": "க்டர்",
  "6783": "▁அளபு",
  "6784": "கண",
  "6785": "உனக்கு",
  "6786": "▁சேரு",
  "6787": "▁உருவாக்கி",
  "6788": ")?",
  "6789": "▁கவலைப்பட",
  "6790": "▁எழுதும்",
  "6791": "▁இருந்திருக்க",
  "6792": "ப்பிரி",
  "6793": "▁கருவிப்பட்டி",
  "6794": "▁அரி",
  "6795": "▁அவளுடைய",
  "6796": "▁நிறங்கள்",
  "6797": "▁சிந்திக்க",
  "6798": "மில்லா",
  "6799": "களுக்குப்",
  "6800": "ண்டையும்",
  "6801": "▁அறிவிப்பான்",
  "6802": "தவறான",
  "6803": "▁செய்கை",
  "6804": "sp",
  "6805": "▁11",
  "6806": "other",
  "6807": "▁காரியம்",
  "6808": "▁அரசாங்க",
  "6809": "நில",
  "6810": "மீண்டும்",
  "6811": "ன்றையும்",
  "6812": "▁கண்ணா",
  "6813": "▁வையுங்கள்",
  "6814": "நர்",
  "6815": "▁எண்ணை",
  "6816": "க்கப்பட்டனர்",
  "6817": "தீனா",
  "6818": "▁அட்",
  "6819": "▁அடுக்கு",
  "6820": "▁கிளிக்",
  "6821": "ரய",
  "6822": "▁மீதி",
  "6823": "மாவது",
  "6824": "der",
  "6825": "▁கொண்டிருக்க",
  "6826": "நிர",
  "6827": "▁உள்ளதா",
  "6828": "யானி",
  "6829": "ப்பதாக",
  "6830": "வாழ்க்கை",
  "6831": "▁துண்டா",
  "6832": "▁இரா",
  "6833": "▁வாலி",
  "6834": "▁கொண்ட",
  "6835": "isc",
  "6836": "▁செய்யப்படும்",
  "6837": "▁போன்ற",
  "6838": "▁அவர்கள",
  "6839": "▁பயப்பட",
  "6840": "▁பற்று",
  "6841": "ண்மை",
  "6842": "க்கிழ",
  "6843": "▁நகற்று",
  "6844": "▁ab",
  "6845": "▁பெரும்பாலான",
  "6846": "ricts",
  "6847": "பெயர்",
  "6848": "▁கரை",
  "6849": "menu",
  "6850": "▁துளி",
  "6851": "விக்",
  "6852": "▁சாத்திய",
  "6853": "▁அதுதான்",
  "6854": "ப்புறம்",
  "6855": "▁மூன்றா",
  "6856": "▁கயி",
  "6857": "▁மக்களின்",
  "6858": "▁பைத்தியம்",
  "6859": "▁தடத்தை",
  "6860": "▁text",
  "6861": "▁பசு",
  "6862": "▁தோல்வி",
  "6863": "வியல்",
  "6864": "▁விசு",
  "6865": "▁MAN",
  "6866": "▁தேடும்",
  "6867": "▁districts",
  "6868": "நமக்கு",
  "6869": "▁கையெ",
  "6870": "▁*.",
  "6871": "▁மில்லி",
  "6872": "▁MB",
  "6873": "ற்கடி",
  "6874": "▁விஷயங்களை",
  "6875": "▁அவனைச்",
  "6876": "குக",
  "6877": "ப்படுத்தப்பட்ட",
  "6878": "மானம்",
  "6879": "▁மெய்யாக",
  "6880": "▁அன்று",
  "6881": "ரான்",
  "6882": "முதலில்",
  "6883": "▁இருப்போம்",
  "6884": "▁You",
  "6885": "▁ஜோ",
  "6886": "▁கொள்வோம்",
  "6887": "க்கால",
  "6888": "▁your",
  "6889": "காரண",
  "6890": "▁விடுகிறது",
  "6891": "▁பாவத்தின்",
  "6892": "▁)",
  "6893": "ல்லுங்கள்",
  "6894": "▁இப்போது",
  "6895": "▁provin",
  "6896": "▁provinces",
  "6897": "▁சைமன்",
  "6898": "are",
  "6899": "ff",
  "6900": "▁நடிகர்",
  "6901": "க்கிறாய்",
  "6902": "ந்தர",
  "6903": "▁மறுபெய",
  "6904": "▁வெறுத்த",
  "6905": "▁காரியங்களை",
  "6906": "▁என்றார்",
  "6907": "▁வார்ப்பு",
  "6908": "▁இருப்பவை",
  "6909": "▁மாற்றிய",
  "6910": "ree",
  "6911": "▁அவனுக்குப்",
  "6912": "க்கமாட்டான்",
  "6913": "▁பாதுகாப்பான",
  "6914": "▁செய்தனர்",
  "6915": "பர",
  "6916": "▁பொறாமை",
  "6917": "▁ஆணவம்",
  "6918": "▁ஒப்புக்",
  "6919": "வார்களா",
  "6920": "அள",
  "6921": "▁பிறி",
  "6922": "▁உண்டாகும்",
  "6923": "▁அறிவோம்",
  "6924": "▁புள்ளிகள்",
  "6925": "▁வருவோம்",
  "6926": "▁காண்பிக்க",
  "6927": "▁ஆற்றலு",
  "6928": "▁inmenu",
  "6929": "▁இவ்விருவரும்",
  "6930": "▁நிராகரிக்கின்றார்களோ",
  "6931": "ங்களிலிருந்தும்",
  "6932": "▁மத்யன்",
  "6933": "▁தீர்ப்புக்",
  "6934": "வேறெவரையும்",
  "6935": "அவருடைய",
  "6936": "▁பயிற்சி",
  "6937": "▁காரியங்கள்",
  "6938": "கீழ்",
  "6939": "▁தியானி",
  "6940": "▁கூலியாக",
  "6941": "▁முந்தி",
  "6942": "எதையும்",
  "6943": "▁நிர்ப்ப",
  "6944": "▁நிர்ப்பந்தி",
  "6945": "▁உணர",
  "6946": "ப்படாதீர்கள்",
  "6947": "key",
  "6948": "▁அர்ஷின்",
  "6949": "▁எழுப்பப்படும்",
  "6950": "lect",
  "6951": "கிறீர்",
  "6952": "▁செருகுவாய்",
  "6953": "ஆகிய",
  "6954": "▁ஏவப்பட்டு",
  "6955": "▁முடிவில்",
  "6956": "▁உதவ",
  "6957": "▁subjects",
  "6958": "▁வெற்றியாளர்கள்",
  "6959": "▁கொடுத்திருந்தோம்",
  "6960": "▁கூறுகின்றான்",
  "6961": "▁(#",
  "6962": "▁கனிவகை",
  "6963": "விற்கு",
  "6964": "▁In",
  "6965": "▁window",
  "6966": "▁அவதூ",
  "6967": "க்கொள்ளும்",
  "6968": "களுக்குக்",
  "6969": "▁கருத",
  "6970": "▁மரங்களும்",
  "6971": "தனி",
  "6972": "தொழுகை",
  "6973": "▁வேதனையின்",
  "6974": "வதற்",
  "6975": "சத்தியம்",
  "6976": "றோர்",
  "6977": "கின்றார்கள்",
  "6978": "▁கேட்டால்",
  "6979": "▁எச்சரிக்கையாக",
  "6980": "▁கூறுவ",
  "6981": "களெல்லாம்",
  "6982": "வற்றைப்",
  "6983": "▁நாடுகிறான்",
  "6984": "வசன",
  "6985": "▁அத்தாட்சிகளைப்",
  "6986": "▁சொடுக்கவும்",
  "6987": "▁கான்கொ",
  "6988": "▁கண்டோம்",
  "6989": "▁நெதர்லாண்ட்ஸ்",
  "6990": "▁வரவில்லையா",
  "6991": "▁தொழுது",
  "6992": "▁இலவச",
  "6993": "▁அவனிட",
  "6994": "▁ஸா",
  "6995": "ப்பட்டுள்ள",
  "6996": "▁முழக்கம்",
  "6997": "▁உள்ளவர்களும்",
  "6998": "கத்",
  "6999": "▁முன்பும்",
  "7000": "▁அதனைச்",
  "7001": "▁புயல்",
  "7002": "▁ரஹ்மத்தாகவும்",
  "7003": "▁நல்லறிவு",
  "7004": "னுக்கே",
  "7005": "▁தொழுகையைக்",
  "7006": "▁ஷுஐ",
  "7007": "▁கூறியபோது",
  "7008": "▁உறுதியுடன்",
  "7009": "▁பாதையிலிருந்து",
  "7010": "▁குடும்பத்தின",
  "7011": "▁தோற்கடி",
  "7012": "க்கப்பட்டிருக்கி",
  "7013": "▁சுருக்கி",
  "7014": "▁இத்தூத",
  "7015": "வாக்கி",
  "7016": "ண்மையை",
  "7017": "▁கப்பலில்",
  "7018": "ht",
  "7019": "▁கொண்டவர்களையும்",
  "7020": "▁தர்க்கித்துக்",
  "7021": "▁இப்பூமி",
  "7022": "▁ஆத்மாவுக்கும்",
  "7023": "▁திருத்தி",
  "7024": "கின்றானோ",
  "7025": "▁கூலியாகக்",
  "7026": "▁செவ்வை",
  "7027": "▁எனக்காக",
  "7028": "▁சீக்கிரம்",
  "7029": "▁அல்லாஹ்வோ",
  "7030": "▁வரைபட",
  "7031": "▁வழிபட்ட",
  "7032": "டையச்",
  "7033": "▁கட்டளையிடு",
  "7034": "▁நற்செய்தி",
  "7035": "தாழ்",
  "7036": "▁கூலியாகும்",
  "7037": "▁பொக்கி",
  "7038": "▁பொக்கிஷ",
  "7039": "அவர்களைப்",
  "7040": "▁சிலரைத்",
  "7041": "▁சாஸ",
  "7042": "இறைவனை",
  "7043": "▁பகிரங்கமாக",
  "7044": "\\\\\\\\",
  "7045": "▁மாற்றங்களை",
  "7046": "▁அளிக்காது",
  "7047": "▁மனிதர்களுக்காக",
  "7048": "▁எழுந்து",
  "7049": "▁ஒருவராகி",
  "7050": "iz",
  "7051": "▁பலஹீனர்",
  "7052": "எதுவும்",
  "7053": "▁குழந்தைகள்",
  "7054": "பட்",
  "7055": "▁வகைகள்",
  "7056": "ஸலாம்",
  "7057": "▁என்னைச்",
  "7058": "மக்களுக்கு",
  "7059": "▁விற்று",
  "7060": "▁எதைச்",
  "7061": "▁பாவங்களின்",
  "7062": "றன்",
  "7063": "அதற்காக",
  "7064": "▁சமூகத்தாரின்",
  "7065": "▁சுவைத்துப்",
  "7066": "▁தன்னிடமிருந்து",
  "7067": "மேலான",
  "7068": "▁விரைவிலேயே",
  "7069": "▁நகர்த்த",
  "7070": "▁சொற்",
  "7071": "▁ஃபிர்அவ்னும்",
  "7072": "அப்படிச்",
  "7073": "▁உண்ணுங்கள்",
  "7074": "▁ஜகாத்தும்",
  "7075": "சாய்",
  "7076": "ட்டார்களோ",
  "7077": "▁நன்கறிவோம்",
  "7078": "▁புகலிடம்",
  "7079": "▁கூட்டத்தாருக்கு",
  "7080": "▁கெட்டவர்கள்",
  "7081": "▁மேலானதாகும்",
  "7082": "roup",
  "7083": "ania",
  "7084": "▁உரியன",
  "7085": "▁சம்பாதித்துக்",
  "7086": "தூத",
  "7087": "வார்களாயின்",
  "7088": "உமக்கு",
  "7089": "▁வழியைப்",
  "7090": "▁ரஹ்மத்தும்",
  "7091": "▁ஸஜ்தா",
  "7092": "▁உயிர்ப்பிக்கிறான்",
  "7093": "போதெல்லாம்",
  "7094": "▁மஹ்",
  "7095": "▁கொள்ளமாட்டார்கள்",
  "7096": "▁நிராகரிப்பவர்களுக்கு",
  "7097": "▁விட்டுக்",
  "7098": "அதற்க",
  "7099": "▁நுழைந்து",
  "7100": "வங்",
  "7101": "▁கொண்டி",
  "7102": "முன்னர்",
  "7103": "▁எவர்களுடைய",
  "7104": "▁வைப்பீராக",
  "7105": "▁விலா",
  "7106": "க்கின்றேன்",
  "7107": "▁விரும்புகிறாரோ",
  "7108": "▁தூர்",
  "7109": "த்திற்குத்",
  "7110": "யிலிருந்தும்",
  "7111": "▁அப்படியிருந்தும்",
  "7112": "▁அறிவித்து",
  "7113": "▁பலஹீனமான",
  "7114": "▁வேதனையையும்",
  "7115": "ற்றது",
  "7116": "▁தீங்கை",
  "7117": "cess",
  "7118": "▁இறைவனாக",
  "7119": "▁உட்கார்",
  "7120": "▁வீடுகளை",
  "7121": "CT",
  "7122": "▁விசன",
  "7123": "▁குஃப்ரை",
  "7124": "▁அறப்போர்",
  "7125": "▁வடக்கு",
  "7126": "▁பளு",
  "7127": "▁காண்பிக்கப்பட்டால்",
  "7128": "வற்றைச்",
  "7129": "▁உயிர்ப்பித்து",
  "7130": "ட்ப",
  "7131": "▁கடுமையானவன்",
  "7132": "▁எண்ணிக்கையை",
  "7133": "வராகவே",
  "7134": "▁படைக்கிறான்",
  "7135": "▁இணைவைப்ப",
  "7136": "கித",
  "7137": "க்காலும்",
  "7138": "▁ஆசிரியர்",
  "7139": "டமுள்ள",
  "7140": "▁எந்தக்",
  "7141": "கிறவன்",
  "7142": "▁நற்செயல்",
  "7143": "தெளி",
  "7144": "▁நூஹை",
  "7145": "ற்குமிடையே",
  "7146": "ஜிப்ரயீ",
  "7147": "▁மலக்குகளை",
  "7148": "த்திற்",
  "7149": "▁மனதில்",
  "7150": "▁கொடுக்கப்",
  "7151": "▁தேர்வுசெய்",
  "7152": "▁புள்ளியை",
  "7153": "▁ராணி",
  "7154": "▁ரஹ்மத்தில்",
  "7155": "▁வஸிய்",
  "7156": "▁அம்பு",
  "7157": "எவரி",
  "7158": "ங்களோ",
  "7159": "▁கைப்பற்றி",
  "7160": "▁போகலாம்",
  "7161": "▁செக்சம்",
  "7162": "▁மஸ்ஜிதுல்",
  "7163": "யிருக்கின்றோம்",
  "7164": "▁கூட்டத்தாரும்",
  "7165": "▁நரகத்தை",
  "7166": "▁ஏட்டில்",
  "7167": "▁அளவற்ற",
  "7168": "▁நன்மையும்",
  "7169": "▁உங்களிரு",
  "7170": "▁பரிசுத்தமானவன்",
  "7171": "வடி",
  "7172": "ite",
  "7173": "▁குறைந்தது",
  "7174": "▁உமக்காக",
  "7175": "▁பார்வைகளையும்",
  "7176": "▁கோடு",
  "7177": "▁சந்தேகத்திலேயே",
  "7178": "லீஸை",
  "7179": "க்கூடாது",
  "7180": "▁உள்ளவற்றையும்",
  "7181": "▁கூலியும்",
  "7182": "▁இவர்களே",
  "7183": "▁ரே",
  "7184": "▁பூமியும்",
  "7185": "தினால்",
  "7186": "▁நிகரற்ற",
  "7187": "▁வானங்களுக்கும்",
  "7188": "▁நிந்தி",
  "7189": "▁நிர்வ",
  "7190": "▁நிர்வகி",
  "7191": "இறுதித்",
  "7192": "▁செய்துவிட",
  "7193": "▁கொள்வாயாக",
  "7194": "ஃபிர்அவ்ன்",
  "7195": "காஃபி",
  "7196": "▁திருத்த",
  "7197": "▁தலத்தில்",
  "7198": "வர்களாவார்கள்",
  "7199": "சிறி",
  "7200": "02i",
  "7201": "டமாக",
  "7202": "▁ஆண்களையும்",
  "7203": "▁நம்பாத",
  "7204": "▁வாசிகள்",
  "7205": "▁ஆயத்",
  "7206": "▁கேட்பவனாகவும்",
  "7207": "ஸன்",
  "7208": "▁குர்பானி",
  "7209": "மனை",
  "7210": "▁இரட்டிப்பா",
  "7211": "▁விபசா",
  "7212": "....",
  "7213": "▁நீங்கி",
  "7214": "லஸ்",
  "7215": "▁மக்களையும்",
  "7216": "▁வேதனையுமுண்டு",
  "7217": "சன்மார்க்க",
  "7218": "▁நன்மையாக",
  "7219": "தமக்கு",
  "7220": "யனை",
  "7221": "க்சி",
  "7222": "Ad",
  "7223": "▁மக்களும்",
  "7224": "▁units",
  "7225": "பெத்",
  "7226": "▁சகல",
  "7227": "▁நற்கரும",
  "7228": "▁மிகைத்தவனும்",
  "7229": "▁மாற்றப்பட்ட",
  "7230": "▁அன்புடையோ",
  "7231": "▁ஒதுங்கு",
  "7232": "ப்புக்கு",
  "7233": "▁ஆதமுடைய",
  "7234": "▁புகழைக்",
  "7235": "▁அவ்வேளை",
  "7236": "▁வரப்படும்",
  "7237": "▁சோலைகளில்",
  "7238": "▁ஆணையாக",
  "7239": "▁தவ்பாவை",
  "7240": "▁நம்புகிறேன்",
  "7241": "▁அடித்தள",
  "7242": "▁திக்ரு",
  "7243": "வடிக்கை",
  "7244": "▁சான்று",
  "7245": "▁தீரும்",
  "7246": "▁அவருக்குப்",
  "7247": "▁தங்களுக்குள்",
  "7248": "▁ஆதாரம்",
  "7249": "▁சமுதாயம்",
  "7250": "இய",
  "7251": "▁நியாயமாக",
  "7252": "▁அதிகாரமும்",
  "7253": "▁பார்ப்பவனாகவும்",
  "7254": "ய்யூ",
  "7255": "▁அதிகம்",
  "7256": "▁சன்மார்க்க",
  "7257": "▁மரணி",
  "7258": "ன்னல்",
  "7259": "▁முஷ்ரிக்குகளில்",
  "7260": "▁அடைவில்",
  "7261": "▁செல்வமும்",
  "7262": "கொள்ள",
  "7263": "▁1ஐ",
  "7264": "ring",
  "7265": "▁எலிச",
  "7266": "▁இருக்கிறதோ",
  "7267": "▁கோணம்",
  "7268": "▁அர்ஷு",
  "7269": "▁கொடுப்பதில்",
  "7270": "ர்ந்த",
  "7271": "திசை",
  "7272": "▁இடத்திற்கு",
  "7273": "▁பண்புகள்",
  "7274": "மில்லாமல்",
  "7275": "▁தூதரின்",
  "7276": "all",
  "7277": "▁லூய்",
  "7278": "▁லூய்ஸி",
  "7279": "▁லூய்ஸியானா",
  "7280": "▁வரையறை",
  "7281": "ory",
  "7282": "வைத்",
  "7283": "▁டக்கொ",
  "7284": "▁டக்கொட",
  "7285": "மகிழ்",
  "7286": "தார",
  "7287": "▁நிச்சயம்",
  "7288": "▁நிறுவு",
  "7289": "த்தாமல்",
  "7290": "க்கப்பட்டுள்ளன",
  "7291": "வீராக்",
  "7292": "▁சந்திக்க",
  "7293": "▁மாரி",
  "7294": "▁பிரித்து",
  "7295": "▁மன்னிப்பளி",
  "7296": "▁வடிகட்டிName",
  "7297": "சர்",
  "7298": "▁vi",
  "7299": "▁வைத்திருந்த",
  "7300": "▁எலிசபெத்",
  "7301": "அத்தகைய",
  "7302": "▁நிமி",
  "7303": "ண்டுகள்",
  "7304": "ட்டே",
  "7305": "▁காரியத்தில்",
  "7306": "ற்காக",
  "7307": "ற்றுப்",
  "7308": "▁சந்தேகி",
  "7309": "த்திரம்",
  "7310": "ah",
  "7311": "▁அர்த்தம்",
  "7312": "▁நீள",
  "7313": "▁கூடும்",
  "7314": "▁உதவு",
  "7315": "▁தூதன்",
  "7316": "▁இறக்க",
  "7317": "▁உணவை",
  "7318": "▁what",
  "7319": "க்கையை",
  "7320": "▁இருக்காது",
  "7321": "யையோ",
  "7322": "யாகிய",
  "7323": "மாற்று",
  "7324": "umber",
  "7325": "ஈஸா",
  "7326": "li",
  "7327": "▁மகள்",
  "7328": "▁சுற்றியுள்ள",
  "7329": "av",
  "7330": "ft",
  "7331": "▁அத்தியா",
  "7332": "▁அக்க",
  "7333": "ant",
  "7334": "▁திட்டப்பணி",
  "7335": "னிக்கிழ",
  "7336": "▁தானாகவே",
  "7337": "arch",
  "7338": "களாகிய",
  "7339": "▁சகோதரர்கள்",
  "7340": "▁எழுதப்பட்டது",
  "7341": "▁விருந்தி",
  "7342": "வாங்கி",
  "7343": "AR_",
  "7344": "▁ஜே",
  "7345": "▁திட்டமி",
  "7346": "▁மஸீ",
  "7347": "▁வேட்டை",
  "7348": "தங்களை",
  "7349": "டார்",
  "7350": "▁சிபா",
  "7351": "▁அளபுரு",
  "7352": "விளை",
  "7353": "▁ஃபிர்அவ்னுடைய",
  "7354": "11",
  "7355": "▁சாளரத்தின்",
  "7356": "▁world",
  "7357": "▁ஒப்பந்த",
  "7358": "▁செரு",
  "7359": "▁பெரிதும்",
  "7360": "▁வெட்டி",
  "7361": "த்தவர்கள்",
  "7362": "▁பான",
  "7363": "ளுடன்",
  "7364": "▁கேள்",
  "7365": "டுவது",
  "7366": "▁தரவுத்தள",
  "7367": "▁கிடைத்த",
  "7368": "▁:",
  "7369": "▁சாபம்",
  "7370": "ற்படுத்த",
  "7371": "▁ஃப்",
  "7372": "object",
  "7373": "த்தாக",
  "7374": "▁உதய",
  "7375": "mb",
  "7376": "▁கீழி",
  "7377": "ata",
  "7378": "ப்படம்",
  "7379": "▁வரையறு",
  "7380": "மாற்றி",
  "7381": "▁இரகசியம்",
  "7382": "▁தாராள",
  "7383": "▁பின்புற",
  "7384": "▁கவனிக்க",
  "7385": "▁மீட்க",
  "7386": "▁பார்த்தேன்",
  "7387": "ப்பாள",
  "7388": "அனுப்பி",
  "7389": "ராக்",
  "7390": "ராய",
  "7391": "ட்டுக்கு",
  "7392": "▁தகு",
  "7393": "▁சொருகுப்பொருள்",
  "7394": "▁நிற்கும்",
  "7395": "▁இரகசியமாக",
  "7396": "▁எழுதிய",
  "7397": "▁கொடுமை",
  "7398": "▁தூண்டு",
  "7399": "▁சாக்",
  "7400": "▁மைக்",
  "7401": "aters",
  "7402": "aters_",
  "7403": "▁உங்க",
  "7404": "amero",
  "7405": "ameroon",
  "7406": "ப்பகுதி",
  "7407": "▁ரெ",
  "7408": "ற்றப்படும்",
  "7409": "குற்ற",
  "7410": "▁அச்சிடு",
  "7411": "▁ஹார்",
  "7412": "காலம்",
  "7413": "▁வருவதற்கு",
  "7414": "ட்கள்",
  "7415": "ages",
  "7416": "▁தெரியவில்லை",
  "7417": "▁புதிதாக",
  "7418": "வேண்டுமெ",
  "7419": "▁முகத்தை",
  "7420": "▁விளி",
  "7421": "ஃப",
  "7422": "▁பேரி",
  "7423": "▁எளிதாக",
  "7424": "▁காவல",
  "7425": "▁செய்யாம",
  "7426": "வரையில்",
  "7427": "▁பட்டியலி",
  "7428": "NAME",
  "7429": "▁வைத்திருக்க",
  "7430": "▁ஒழுங்கா",
  "7431": "▁பளி",
  "7432": "TP",
  "7433": "▁அசுத்த",
  "7434": "இனி",
  "7435": "▁தோற்ற",
  "7436": "▁check",
  "7437": "▁பொதி",
  "7438": "யடைந்த",
  "7439": "கப்ப",
  "7440": "▁கண்களை",
  "7441": "சென்ட்",
  "7442": "ook",
  "7443": "▁et",
  "7444": "▁நீயும்",
  "7445": "▁பாதுகாவலர்",
  "7446": "▁இறு",
  "7447": "▁பொருளின்",
  "7448": "ட்டல்",
  "7449": "Constellation",
  "7450": "ty",
  "7451": "▁வருவான்",
  "7452": "ல்லவா",
  "7453": "வனின்",
  "7454": "▁இவற்றின்",
  "7455": "எங்களை",
  "7456": "மதிப்பு",
  "7457": "▁புகைப்பட",
  "7458": "▁அலாரம்",
  "7459": "_R",
  "7460": "மரி",
  "7461": "ப்பட்டிருந்த",
  "7462": "ameroon_",
  "7463": "ட்டிரு",
  "7464": "▁மக்களி",
  "7465": "▁பகுதியில்",
  "7466": "▁பரவ",
  "7467": "தள",
  "7468": "▁அசைவூட்ட",
  "7469": "▁regions",
  "7470": "மத்",
  "7471": "ன்றில்",
  "7472": "க்கையும்",
  "7473": "▁அறிவிக்கும்",
  "7474": "▁வார்த்தைகள்",
  "7475": "▁வந்துள்ள",
  "7476": "த்திலே",
  "7477": "▁கூடி",
  "7478": "மாண",
  "7479": "யத்து",
  "7480": "IGH",
  "7481": "▁சிபாரி",
  "7482": "▁சிபாரிசு",
  "7483": "ப்புத்",
  "7484": "▁இருப்பதாக",
  "7485": "olum",
  "7486": "யாகச்",
  "7487": "ublic",
  "7488": "▁நஷ்டம்",
  "7489": "_S",
  "7490": "▁விழ",
  "7491": "▁நீலம்",
  "7492": "▁நெருக்கமான",
  "7493": "▁போதனை",
  "7494": "மென",
  "7495": "யாக்கிய",
  "7496": "part",
  "7497": "▁கவனித்துக்",
  "7498": "▁வார",
  "7499": "▁கணவன்",
  "7500": "▁வேண்டுமென்று",
  "7501": "▁காத்திரு",
  "7502": "ட்டனர்",
  "7503": "▁தங்களி",
  "7504": "▁ரோ",
  "7505": "▁காலையில்",
  "7506": "▁அவரும்",
  "7507": "க்குவ",
  "7508": "▁பயன்படுத்தும்",
  "7509": "வில்லாத",
  "7510": "▁இனிய",
  "7511": "ஒவ்வொரு",
  "7512": "டன்City",
  "7513": "▁பள்ளத்தா",
  "7514": "▁தரம்",
  "7515": "▁தேடுங்கள்",
  "7516": "பையும்",
  "7517": "▁தீர்ந்து",
  "7518": "▁etc",
  "7519": "ற்கான",
  "7520": "▁உண்ண",
  "7521": "▁நிமிடங்கள்",
  "7522": "▁விடை",
  "7523": "தானி",
  "7524": "றிச்",
  "7525": "ளுக்காக",
  "7526": "ஸ்டர்",
  "7527": "▁சிலை",
  "7528": "▁ஜூடித்",
  "7529": "▁நிர்வாகி",
  "7530": "▁சூனியக்கார",
  "7531": "▁திரும்பக்",
  "7532": "வுன்",
  "7533": "▁சாப",
  "7534": "▁இவற்றில்",
  "7535": "▁கடவுச்சொல்லை",
  "7536": "philippines",
  "7537": "rack",
  "7538": "ick",
  "7539": "லவ்",
  "7540": "▁மலையின்",
  "7541": "மாகச்",
  "7542": "▁14",
  "7543": "▁சேவையகம்",
  "7544": "க்கூட்ட",
  "7545": "▁போவதில்லை",
  "7546": "▁முன்னிலையில்",
  "7547": "▁வற்பு",
  "7548": "யுமாகும்",
  "7549": "▁உரியதாகும்",
  "7550": "னிடத்தில்",
  "7551": "▁தயாரி",
  "7552": "▁நிகழ்ச்சி",
  "7553": "▁பார்ப்பார்கள்",
  "7554": "▁போட்டு",
  "7555": ")-",
  "7556": "▁அதைவிட்டு",
  "7557": "உள்ள",
  "7558": "ound",
  "7559": "▁நிலையிலும்",
  "7560": "வித்து",
  "7561": "▁கதிர்",
  "7562": "▁நிரம்",
  "7563": "▁போட",
  "7564": "ப்பட்டுக்",
  "7565": "▁படைக்க",
  "7566": "▁காட்டவும்",
  "7567": "▁வெளிப்படையாக",
  "7568": "▁ஆகியோ",
  "7569": "▁மீற",
  "7570": "▁விவசா",
  "7571": "களாக்கி",
  "7572": "▁மூடிக்",
  "7573": "மாட்டோம்",
  "7574": "▁நூஹுடைய",
  "7575": "▁நஷ்டத்தை",
  "7576": "▁rare",
  "7577": "▁படைப்பு",
  "7578": "▁கொண்டிருப்பார்கள்",
  "7579": "▁தொழ",
  "7580": "ink",
  "7581": "▁நாட்டை",
  "7582": "ள்ளீ",
  "7583": "▁பக்கமும்",
  "7584": "▁ஹிஜ்ரத்",
  "7585": "▁மிக்கோனாகவும்",
  "7586": "▁புத்தகம்",
  "7587": "▁z",
  "7588": "▁சூழ்ந்த",
  "7589": "▁காட்டுகிறான்",
  "7590": "▁அனுப்பியுள்ளோம்",
  "7591": "▁நிராகரிப்போரின்",
  "7592": "யில்லா",
  "7593": "நினைவூ",
  "7594": "▁செய்பவை",
  "7595": "AND",
  "7596": "▁வானங்களி",
  "7597": "▁நன்மைகள்",
  "7598": "▁ஜோடியாக",
  "7599": "ற்றோ",
  "7600": "▁தீர்க்க",
  "7601": "உம்முடைய",
  "7602": "▁நினைவூட்டும்",
  "7603": "▁அவ்விருவரையும்",
  "7604": "▁செய்கின்றன",
  "7605": "மற்றவர்களை",
  "7606": "சீக்கி",
  "7607": "கடலில்",
  "7608": "நயவஞ்ச",
  "7609": "▁உதவும்",
  "7610": "▁அவருக்கே",
  "7611": "ஏழை",
  "7612": "ரகசிய",
  "7613": "மேடை",
  "7614": "த்தார்களே",
  "7615": "மாகாது",
  "7616": "▁உரியவை",
  "7617": "▁மற்றோர்",
  "7618": "▁ed",
  "7619": "▁காண்பீர்கள்",
  "7620": "▁அமைத்தோம்",
  "7621": "▁வைத்திருக்கின்றான்",
  "7622": "▁செல்ப",
  "7623": "CD",
  "7624": "▁முன்னும்",
  "7625": "இவ்வாறாக",
  "7626": "▁குர்ஆனில்",
  "7627": "▁தந்தையர்",
  "7628": "டத்திலிருந்து",
  "7629": "▁அநேகரை",
  "7630": "ters",
  "7631": "துன்ப",
  "7632": "▁தத்தல்",
  "7633": "ருக்கெல்லாம்",
  "7634": "▁கேமிரா",
  "7635": "▁அனைவருக்கும்",
  "7636": "▁விஷயத்",
  "7637": "▁தீர்ப்பளிப்பான்",
  "7638": "கர்ப்ப",
  "7639": "▁whatst",
  "7640": "▁whatsthis",
  "7641": "▁பிரார்த்தனையை",
  "7642": "▁அதிகமாக்கு",
  "7643": "▁முன்னுரிமை",
  "7644": "▁சொல்லப்பட்டால்",
  "7645": "ib",
  "7646": "▁கைப்பற்று",
  "7647": "▁இதற்காக",
  "7648": "உங்களிடம்",
  "7649": "▁முஷ்ரிக்குகள்",
  "7650": "▁யூஸுஃபு",
  "7651": "▁அச்சம்",
  "7652": "▁அனுபவியுங்கள்",
  "7653": "▁கட்டுப்பாடு",
  "7654": "க்காளம்",
  "7655": "▁இரவும்",
  "7656": "வதாகவும்",
  "7657": "▁படைத்துள்ள",
  "7658": "▁இவ்வுலகிலும்",
  "7659": "▁அறிவீர்கள்",
  "7660": "அதிலிருந்து",
  "7661": "ந்தார்களோ",
  "7662": "▁மணந்து",
  "7663": "▁வலக்கரங்கள்",
  "7664": "திருக்கும்",
  "7665": "▁அவ்விர",
  "7666": "▁அவர்களிலிருந்தே",
  "7667": "ROAN",
  "7668": "த்தூதர்",
  "7669": "▁எங்களில்",
  "7670": "கின்றேன்",
  "7671": "வேதத்தை",
  "7672": "க்காதிரு",
  "7673": "▁Fucking",
  "7674": "▁கொள்வதற்காகவும்",
  "7675": "arn",
  "7676": "▁கனிவர்க்க",
  "7677": "▁தனிப்பட்ட",
  "7678": "▁யாது",
  "7679": "▁தொழுகையையும்",
  "7680": "ஸமூது",
  "7681": "டமோ",
  "7682": "▁செய்யப்படு",
  "7683": "▁என்னையே",
  "7684": "வோராகவும்",
  "7685": "▁பார்த்தீரா",
  "7686": "▁நிராகரிக்கும்",
  "7687": "▁யாதோர்",
  "7688": "யோரை",
  "7689": "▁மார்க்கமாகும்",
  "7690": "▁மீட்டப்படுவீர்கள்",
  "7691": "வனிடம்",
  "7692": "ளாகவும்",
  "7693": "▁பெற்றெ",
  "7694": "▁அவனும்",
  "7695": "▁பருகு",
  "7696": "வேதனையான",
  "7697": "▁கூறுபவராகவும்",
  "7698": "▁யாருடைய",
  "7699": "▁சீக்கிரமே",
  "7700": "▁இந்தக்",
  "7701": "▁சாஸன",
  "7702": "▁கூட்டத்தாரிடம்",
  "7703": "▁சதோ",
  "7704": "▁நன்கறிந்தோ",
  "7705": "▁ஸாலி",
  "7706": "▁பொய்ப்பிப்பவர்களுக்கு",
  "7707": "▁செய்பவற்றையெல்லாம்",
  "7708": "▁எடுத்துரை",
  "7709": "▁வாழ்க்கையை",
  "7710": "ந்திருக்கின்றான்",
  "7711": "நியாயத்",
  "7712": "நட",
  "7713": "▁சிம்",
  "7714": "▁பெண்களின்",
  "7715": "▁பலகோ",
  "7716": "▁பாக்கியமுள்ள",
  "7717": "தப்பி",
  "7718": "▁எண்ணா",
  "7719": "டாதீர்",
  "7720": "நீங்களும்",
  "7721": "▁வழிப்போ",
  "7722": "யாகவோ",
  "7723": "▁கால்சியம்",
  "7724": "▁தங்களுக்குத்",
  "7725": "▁இப்பூமியில்",
  "7726": "▁ஒருவனை",
  "7727": "▁பொய்யுரை",
  "7728": "▁நீரூ",
  "7729": "வராலும்",
  "7730": "ய்யா",
  "7731": "▁பிரித்தறி",
  "7732": "டியாக",
  "7733": "▁இருக்கின்றார்களா",
  "7734": "கூட்டத்தா",
  "7735": "▁வரம்புகளை",
  "7736": "▁மேம்",
  "7737": "லுமா",
  "7738": "▁தரவை",
  "7739": "▁பிரயாண",
  "7740": "▁சிலரைச்",
  "7741": "▁ஒருக்காலும்",
  "7742": "▁மனிதர்களிடையே",
  "7743": "ரானால்",
  "7744": "▁முஸ்லீம்",
  "7745": "▁சந்தேகத்தில்",
  "7746": "யேயன்றி",
  "7747": "▁பைத்தியக்காரர்",
  "7748": "▁முழுமை",
  "7749": "▁list",
  "7750": "▁பட்டோ",
  "7751": "தனக்கு",
  "7752": "▁உண்ப",
  "7753": "முஸ்லிம்",
  "7754": "▁நல்லடியா",
  "7755": "▁கையா",
  "7756": "முது",
  "7757": "▁ஆளா",
  "7758": "▁சேர்க்கவும்",
  "7759": "▁கவனிக்கவில்லையா",
  "7760": "▁கண்ணியமிக்க",
  "7761": "▁அனுப்பப்பட்டிருக்கி",
  "7762": "▁அடிச்சு",
  "7763": "▁பொய்யாக்கிக்",
  "7764": "▁வாரும்",
  "7765": "▁வந்தடை",
  "7766": "▁rarely",
  "7767": "▁needs",
  "7768": "▁அவர்களுக்குரிய",
  "7769": "▁புவி",
  "7770": "▁தனியாக",
  "7771": "▁தீமையோ",
  "7772": "▁நீங்கள",
  "7773": "க்கொண்டே",
  "7774": "ud",
  "7775": "▁வாயி",
  "7776": "▁சுட்டு",
  "7777": "▁நிராகரிப்போருக்கு",
  "7778": "▁ஸூர்",
  "7779": "▁எத்தகையோரென்றால்",
  "7780": "றதோ",
  "7781": "த்துள்ளான்",
  "7782": "able",
  "7783": "▁தம்மிடம்",
  "7784": "▁அடக்கியா",
  "7785": "வையாகவும்",
  "7786": "▁கிருபையாள",
  "7787": "▁செய்யவேண்டிய",
  "7788": "▁உனக்குக்",
  "7789": "▁களிமண்",
  "7790": "▁காண்பித்து",
  "7791": "லவ்ஹுல்",
  "7792": "▁மஹ்ஃபூ",
  "7793": "▁லில்லாஹ்",
  "7794": "ர்களாகிய",
  "7795": "▁சுவனபதியில்",
  "7796": "▁Image",
  "7797": "▁வறுமை",
  "7798": "▁எங்களுக்கும்",
  "7799": "▁வழிகாட்டு",
  "7800": "▁நல்லடியார்களில்",
  "7801": "ங்களுக்குச்",
  "7802": "▁உண்டாக்கிய",
  "7803": "▁வைக்கிறான்",
  "7804": "கத்தில்",
  "7805": "▁பொய்ப்பித்துக்",
  "7806": "▁சமூகத்தாராகவே",
  "7807": "▁அரியா",
  "7808": "▁பெண்களில்",
  "7809": "களில்லை",
  "7810": "▁அழகாகக்",
  "7811": "▁அளவுக்கு",
  "7812": "▁வைத்திரு",
  "7813": "▁பிரிவின",
  "7814": "▁பொருள்கள்",
  "7815": "▁வசனங்களாகும்",
  "7816": "▁வைப்பதையும்",
  "7817": "▁அனுப்பிவைத்தோம்",
  "7818": "▁விடாதீர்",
  "7819": "▁இக்கா",
  "7820": "▁விழுங்கி",
  "7821": "க்கும்படிச்",
  "7822": "▁இருக்கின்றானா",
  "7823": "▁உலாவி",
  "7824": "▁ஒருவனே",
  "7825": "▁பொழுது",
  "7826": "▁கறு",
  "7827": "▁பின்தோ",
  "7828": "▁பின்தோன்றல்",
  "7829": "▁நரகத்",
  "7830": "▁நீரூற்று",
  "7831": "▁அழித்திருக்கிறோம்",
  "7832": "▁செய்யப்படவும்",
  "7833": "▁குறும்பட",
  "7834": "▁முனைய",
  "7835": "▁மன்னித்தான்",
  "7836": "▁நாமும்",
  "7837": "▁நிலைத்திருக்கும்",
  "7838": "▁வால்",
  "7839": "▁if",
  "7840": "▁நன்மையுடைய",
  "7841": "▁செல்வந்த",
  "7842": "▁உள்ளிட்ட",
  "7843": "▁அறிவுடையோருக்கு",
  "7844": "சொல்",
  "7845": "▁வாலிப",
  "7846": "▁மூன்றில்",
  "7847": "▁வின்சென்ட்",
  "7848": "▁பூமியினுடையவும்",
  "7849": "▁றா",
  "7850": "▁சோதிப்பதற்காக",
  "7851": "▁ஸுலைமான்",
  "7852": "▁Cog",
  "7853": "▁Cogl",
  "7854": "▁சொற்பமாகவே",
  "7855": "▁திருப்பொருத்தத்தை",
  "7856": "▁காண்பித்தோம்",
  "7857": "ம்பை",
  "7858": "▁வழிகளில்",
  "7859": "▁அல்லன்",
  "7860": "▁புறத்திலிருந்து",
  "7861": "▁காரர்",
  "7862": "▁அவ்விருவரின்",
  "7863": "▁சூனியம்",
  "7864": "▁குப்பை",
  "7865": "இப்றாஹீ",
  "7866": "விடுவீராக",
  "7867": "பிள்",
  "7868": "▁புத்தகத்தில்",
  "7869": "▁பட்டிருப்ப",
  "7870": "▁திருப்பு",
  "7871": "▁அப்புறம்",
  "7872": "oss",
  "7873": "▁அருளாளன்",
  "7874": "▁அல்லாஹ்விடமிருந்தே",
  "7875": "▁தப்பித்துக்",
  "7876": "▁தடி",
  "7877": "ப்பட்டோ",
  "7878": "▁கூறிவிடும்",
  "7879": "▁சோதித்தோம்",
  "7880": "த்தருள்வாயாக",
  "7881": "▁சிக",
  "7882": "▁ஹெ",
  "7883": "▁சீர்திரு",
  "7884": "▁தூதை",
  "7885": "▁MiB",
  "7886": "▁தவிர்த்துக்",
  "7887": "பெற",
  "7888": "▁அவற்றுக்கு",
  "7889": "▁வார்ப்புரு",
  "7890": "▁எப்பொரு",
  "7891": "தீர்ப்பு",
  "7892": "▁இப்லீஸை",
  "7893": "▁100",
  "7894": "▁விட்டோ",
  "7895": "▁அர்ரஹ்மானுக்கு",
  "7896": "▁ஃபாஸி",
  "7897": "▁பகலின்",
  "7898": "சிந்தி",
  "7899": "▁அநாதைகளுக்கும்",
  "7900": "▁எலும்புகளாகவும்",
  "7901": "விடப்",
  "7902": "▁அக்",
  "7903": "கரிய்யா",
  "7904": "▁பண",
  "7905": "▁நன்கறிந்தவனாக",
  "7906": "▁app",
  "7907": "த்தார்களோ",
  "7908": "▁படைத்துள்ளான்",
  "7909": "▁செய்கின்றான்",
  "7910": "▁பேராற்றல்",
  "7911": "▁நேரங்களில்",
  "7912": "▁சுவனச்",
  "7913": "▁நகரம்",
  "7914": "▁இச்சைகளை",
  "7915": "▁அலுவ",
  "7916": "▁ar",
  "7917": "▁குறிப்பை",
  "7918": "ற்பூ",
  "7919": "▁பரிந்துரை",
  "7920": "▁பாரி",
  "7921": "▁நிஃ",
  "7922": "▁தளம்",
  "7923": "▁ஒப்படைத்து",
  "7924": "ங்கிலி",
  "7925": "▁சத்தியத்தைக்",
  "7926": "▁ஊதப்படும்",
  "7927": "▁கீழா",
  "7928": "▁பிந்திய",
  "7929": "fa",
  "7930": "▁பரிகாச",
  "7931": "▁அதுவும்",
  "7932": "▁காலா",
  "7933": "▁நினைத்துப்",
  "7934": "uery",
  "7935": "▁செய்யவோ",
  "7936": "ப்பார்களானால்",
  "7937": "▁வேண்டியிருக்கிறது",
  "7938": "▁இருக்கட்டும்",
  "7939": "▁செய்தார்களோ",
  "7940": "▁மூஸாவுக்கும்",
  "7941": "▁அவருக்குத்",
  "7942": "ack",
  "7943": "▁பயமு",
  "7944": "கொண்ட",
  "7945": "கிறீரா",
  "7946": "▁கூட்டமாக",
  "7947": "ன்றின்",
  "7948": "ழியம்",
  "7949": "▁காலியான",
  "7950": "▁சேனை",
  "7951": "வானவர்கள்",
  "7952": "▁உடையவன்",
  "7953": "▁செல்கிறேன்",
  "7954": "இவையெல்லாம்",
  "7955": "▁im",
  "7956": "▁இறுதியில்",
  "7957": "▁கொள்ளாது",
  "7958": "ப்பதற்கான",
  "7959": "த்தாள்",
  "7960": "▁கோப்புறை",
  "7961": "லாக்கி",
  "7962": "▁பிரச்சி",
  "7963": "▁பிரச்சினை",
  "7964": "ட்City",
  "7965": "▁மேன்",
  "7966": "▁தம்மை",
  "7967": "):",
  "7968": "▁நயவஞ்சகர்",
  "7969": "மென்",
  "7970": "ich",
  "7971": "ive",
  "7972": "▁A1",
  "7973": "லுக்கான",
  "7974": "▁விதித்த",
  "7975": "▁மேலோ",
  "7976": "▁உருவரை",
  "7977": "ஸ்து",
  "7978": "CH",
  "7979": "வதே",
  "7980": "க்கப்பட்டிருந்தால்",
  "7981": "யானம்",
  "7982": "மத்து",
  "7983": "▁கொண்டிருக்கிறார்கள்",
  "7984": "க்கின்றானோ",
  "7985": "▁ப்ராஸா",
  "7986": "▁ப்ராஸாரோ",
  "7987": "யர்கள்",
  "7988": "nam",
  "7989": "▁காரியங்களும்",
  "7990": "லிய",
  "7991": "▁நினைக்கவில்லை",
  "7992": "▁காட்சியை",
  "7993": "வ்வேதத்",
  "7994": "▁செய்வதற்காகவும்",
  "7995": "▁சவாரி",
  "7996": "▁தோழர்களே",
  "7997": "▁கொள்ளாவிட்டால்",
  "7998": "▁அருளும்",
  "7999": "▁கிடைக்கவில்லை",
  "8000": "▁கடுமையாக",
  "8001": "கொண்டிரு",
  "8002": "ரத்தைக்",
  "8003": "படவில்லை",
  "8004": "▁பொருத்து",
  "8005": "சென்று",
  "8006": "▁தானியங்கி",
  "8007": "\",",
  "8008": "▁தர்மம்",
  "8009": "முடியும்",
  "8010": "▁சிம்லி",
  "8011": "▁அழைப்பை",
  "8012": "ப்பட்டுள்ளன",
  "8013": "PS",
  "8014": "க்கியது",
  "8015": "ணுக்கு",
  "8016": "ப்படுத்தல்",
  "8017": "▁மாற்றும்",
  "8018": "▁பச",
  "8019": "_D",
  "8020": "▁இழுத்துச்",
  "8021": "▁இருப்பு",
  "8022": "▁இக்",
  "8023": "ங்கீ",
  "8024": "▁கொள்கிறீர்கள்",
  "8025": "▁ஏற்பட",
  "8026": "▁ஆகியவற்றை",
  "8027": "ப்பட்டார்",
  "8028": "▁நினைவகம்",
  "8029": "▁ஆய்",
  "8030": "உட",
  "8031": "ப்பிற்கு",
  "8032": "▁செயலிழ",
  "8033": "▁Do",
  "8034": "▁கெட்டி",
  "8035": "▁தலைவர்",
  "8036": "▁கடும்",
  "8037": "▁er",
  "8038": "▁செல்லுபடியா",
  "8039": "ரிப்",
  "8040": "படும்",
  "8041": "▁about",
  "8042": "த்தியாக",
  "8043": "டுக்க",
  "8044": "குழந்தை",
  "8045": "வஹீ",
  "8046": "▁25",
  "8047": "▁அண்மையில்",
  "8048": "▁சீட்டை",
  "8049": "▁அன",
  "8050": "▁am",
  "8051": "ட்டுத்",
  "8052": "▁நாடா",
  "8053": "▁இருப்பீர்கள்",
  "8054": "▁ஊடக",
  "8055": "▁360",
  "8056": "ஆர்ஐ",
  "8057": "ix",
  "8058": "AL",
  "8059": "▁சுருக்கு",
  "8060": "▁மாதம்",
  "8061": "▁போலி",
  "8062": "▁இப்றாஹீமின்",
  "8063": "மிஸ்",
  "8064": "ரிக்",
  "8065": "▁காலியாக",
  "8066": "▁முழுத்திரை",
  "8067": "▁எளிதாக்கி",
  "8068": "▁பணிமேடை",
  "8069": "▁தொலைபேசி",
  "8070": "▁தள்ளி",
  "8071": "▁யாரோ",
  "8072": "=\\\\\\\\",
  "8073": "எல்லோரும்",
  "8074": "▁தாமத",
  "8075": "குறிப்பிட்ட",
  "8076": "ன்னம்",
  "8077": "▁மாறுபாடு",
  "8078": "▁நெடுவரிசை",
  "8079": "▁மறுபெயரி",
  "8080": "தலையும்",
  "8081": "▁அகற்றி",
  "8082": "▁கழ",
  "8083": "▁தனிப்பயன்",
  "8084": "▁பெறவில்லை",
  "8085": "▁new",
  "8086": "ண்டல",
  "8087": "▁பரவா",
  "8088": "▁விற்க",
  "8089": "▁தொட்டி",
  "8090": "கண்ட",
  "8091": "▁பகல்",
  "8092": "▁இடையில்",
  "8093": "ov",
  "8094": "காற்று",
  "8095": "iff",
  "8096": "யிரம்",
  "8097": "▁இலக்கு",
  "8098": "▁en",
  "8099": "▁அழகு",
  "8100": "▁வருமாறு",
  "8101": "▁நாய்",
  "8102": "▁சீட்டுகளை",
  "8103": "நிற",
  "8104": "▁செய்ததை",
  "8105": "▁கன்னி",
  "8106": "▁எடுத்துச்",
  "8107": "▁சொருகி",
  "8108": "▁Short",
  "8109": "▁Long",
  "8110": "▁பார்த்தீர்களா",
  "8111": "▁இறங்கும்",
  "8112": "▁பணத்தை",
  "8113": "▁சேர",
  "8114": "படம்",
  "8115": "▁அல்லவா",
  "8116": "இன்று",
  "8117": "▁நிலைநா",
  "8118": "ங்காது",
  "8119": "▁depart",
  "8120": "▁departments",
  "8121": "▁கழுத்து",
  "8122": "▁அழிவு",
  "8123": "இப்படி",
  "8124": "▁பதிவி",
  "8125": "▁தடவை",
  "8126": "டிகள்",
  "8127": "ction",
  "8128": "▁இஸ்லா",
  "8129": "யாமல்",
  "8130": "▁Co",
  "8131": "▁from",
  "8132": "▁எழுதுகிறது",
  "8133": "▁சிவ",
  "8134": "த்தானே",
  "8135": "▁பொது",
  "8136": "நீக்கு",
  "8137": "பான்",
  "8138": "வாயில்",
  "8139": "▁சேகரித்து",
  "8140": "லிருந்த",
  "8141": "▁காட்டுகிறது",
  "8142": "▁வானத்தில்",
  "8143": "வழ",
  "8144": "▁US",
  "8145": "pla",
  "8146": "▁ஒருபோதும்",
  "8147": "▁கள்",
  "8148": "▁30",
  "8149": "▁error",
  "8150": "▁Ont",
  "8151": "ario",
  "8152": "▁திரையை",
  "8153": "▁சிக்கல்",
  "8154": "▁ஆக்க",
  "8155": "▁முன்பே",
  "8156": "▁கருவிப்பட்டை",
  "8157": "▁செய்யக்",
  "8158": "▁உட்கார்ந்து",
  "8159": "▁கிடைக்க",
  "8160": "etnam",
  "8161": "ital",
  "8162": "▁சான்றிதழை",
  "8163": "விலகி",
  "8164": "நமது",
  "8165": "▁கவர்",
  "8166": "இங்கு",
  "8167": "க்கோடு",
  "8168": "டியா",
  "8169": "▁மீட்",
  "8170": "▁வரா",
  "8171": "Description",
  "8172": "▁சென்றி",
  "8173": "▁வேற்றுமை",
  "8174": "▁யாரையும்",
  "8175": "ஞர்கள்",
  "8176": "▁நூலக",
  "8177": "▁ad",
  "8178": "ங்குகிறது",
  "8179": "▁வழியையும்",
  "8180": "▁கொடுக்கப்பட்ட",
  "8181": "▁அப்ப",
  "8182": "விதி",
  "8183": "▁விளக்கத்தை",
  "8184": "ron",
  "8185": "▁எளிய",
  "8186": "செய்த",
  "8187": "▁string",
  "8188": "▁Ontario",
  "8189": "▁பரவாயில்லை",
  "8190": "▁கூறவில்லை",
  "8191": "LES",
  "8192": "▁படம்",
  "8193": "▁விஷயங்கள்",
  "8194": "▁தவறாக",
  "8195": "யாலும்",
  "8196": "▁காணா",
  "8197": "▁அவனுடன்",
  "8198": "முறையாக",
  "8199": "இத்தா",
  "8200": "ப்பக்க",
  "8201": "லியன்",
  "8202": "ள்ளார்கள்",
  "8203": "க்களையும்",
  "8204": "idg",
  "8205": "▁நடிகரின்",
  "8206": "றொரு",
  "8207": "▁உள்ளடக்கங்களை",
  "8208": "களுக்குத்",
  "8209": "_A",
  "8210": "▁நடிகரு",
  "8211": "ற்கை",
  "8212": "▁நாம",
  "8213": "வரைப்",
  "8214": "▁சொற்",
  "8215": "▁அமைக்கிறது",
  "8216": "▁Stencils",
  "8217": "▁உங்களிடமிருந்து",
  "8218": "▁Op",
  "8219": "▁ஆற",
  "8220": "▁என்னவா",
  "8221": "12",
  "8222": "▁விருப்பப்படி",
  "8223": "ன்களை",
  "8224": "▁பாதுகாக்க",
  "8225": "▁வெறுப்பு",
  "8226": "▁நிச்சய",
  "8227": "ave",
  "8228": "▁பரிசுத்தமா",
  "8229": "▁pref",
  "8230": "▁வியாபாரத்தை",
  "8231": "▁உடல்",
  "8232": "விடாதீர்கள்",
  "8233": "மனு",
  "8234": "MB",
  "8235": "▁\"-",
  "8236": "க்குறிப்பு",
  "8237": "▁நேர்ந்து",
  "8238": "அவற்றில்",
  "8239": "ரமாகவும்",
  "8240": "ப்பின",
  "8241": "▁அவர்களால்",
  "8242": "விருப்ப",
  "8243": "▁இணையான",
  "8244": "னாள்",
  "8245": "ப்பால்",
  "8246": "ID",
  "8247": "▁ஆசியா",
  "8248": "▁சாம்பல்",
  "8249": "▁உண்டான",
  "8250": "▁எதில்",
  "8251": "மிடு",
  "8252": "த்தியதை",
  "8253": "இறந்து",
  "8254": "▁கொஞ்சம்",
  "8255": "▁உயிர்களை",
  "8256": "மிரு",
  "8257": "▁உள்ளதாகும்",
  "8258": "றியும்",
  "8259": "▁மாற்றியமை",
  "8260": "▁விரும்பா",
  "8261": "தற்குரிய",
  "8262": "▁உள்ளனர்",
  "8263": "GROAN",
  "8264": "▁கெட்டு",
  "8265": "▁சிலருக்கு",
  "8266": "▁செயலில்",
  "8267": "பன்",
  "8268": "▁அஞ்சுகிறேன்",
  "8269": "▁சப்தம்",
  "8270": "▁பிளா",
  "8271": "க்கரு",
  "8272": "▁பிளவு",
  "8273": "▁ஏற்படாது",
  "8274": "க்கொடு",
  "8275": "வெளியே",
  "8276": "த்திருக்கிறேன்",
  "8277": "▁கட்டட",
  "8278": "த்தோடும்",
  "8279": "ட்டிருக்கி",
  "8280": "ட்டது",
  "8281": "டிவிடி",
  "8282": "▁கண்ணியம்",
  "8283": "▁{@",
  "8284": "▁{@}",
  "8285": "▁போடு",
  "8286": "▁புலம்",
  "8287": "▁there",
  "8288": "▁நடவடிக்கை",
  "8289": "▁செலுத்துவதில்லை",
  "8290": "ர்களை",
  "8291": "▁கூறினால்",
  "8292": "▁வழக்க",
  "8293": "▁use",
  "8294": "▁மட்ட",
  "8295": "ற்றிலிருந்து",
  "8296": "தவை",
  "8297": "▁காட்டிய",
  "8298": "▁மேலாள",
  "8299": "EX",
  "8300": "▁ஒவ்வொருவரையும்",
  "8301": "▁மனோ",
  "8302": "▁நாள",
  "8303": "▁தீவிரமானவன்",
  "8304": "▁கருணையுடையவனாகவும்",
  "8305": "▁சந்ததியினர்",
  "8306": "▁முனாஃபிக்கு",
  "8307": "▁போல",
  "8308": "னார்களோ",
  "8309": "ப்பட்டார்களோ",
  "8310": "▁அவனிடத்தில்",
  "8311": "▁ஆவோம்",
  "8312": "▁செய்கின்றார்களோ",
  "8313": "▁சார்ந்து",
  "8314": "▁பார்வைகள்",
  "8315": "▁உவமை",
  "8316": "ரன்",
  "8317": "▁சென்றனர்",
  "8318": "யினா",
  "8319": "மாதிரி",
  "8320": "னிந்து",
  "8321": "▁அஞ்சா",
  "8322": "▁குப்புற",
  "8323": "▁அமல்களைச்",
  "8324": "ங்களுக்கே",
  "8325": "▁செய்பவர்களாக",
  "8326": "▁பூமியுடைய",
  "8327": "▁பூமியுடையவும்",
  "8328": "▁அளிக்கின்றான்",
  "8329": "▁பொறுமையாளர்",
  "8330": "▁என்னைத்",
  "8331": "▁குறிப்புகள்",
  "8332": "▁படிச்",
  "8333": "▁வேதனையைத்",
  "8334": "தற்காகவே",
  "8335": "▁நல்லோர்",
  "8336": "▁குறைவு",
  "8337": "▁உங்களுக்குமிடையே",
  "8338": "▁சீக்க",
  "8339": "▁சந்திரனும்",
  "8340": "▁வரியில்",
  "8341": "▁உரோ",
  "8342": "வதுமில்லை",
  "8343": "▁கொண்டார்களே",
  "8344": "▁பாய்",
  "8345": "▁பொருட்டே",
  "8346": "▁பிடித்தோம்",
  "8347": "வானாக",
  "8348": "▁சமூகத்தார்களே",
  "8349": "Query",
  "8350": "க்கதை",
  "8351": "கமான",
  "8352": "▁ஆராய்",
  "8353": "த்தானோ",
  "8354": "▁ஆதி",
  "8355": "யாக்கினான்",
  "8356": "▁கொள்வதில்",
  "8357": "▁ஏவப்பட்டுள்ளேன்",
  "8358": "▁ஆஸ்",
  "8359": "ப்பதெல்லாம்",
  "8360": "▁நின்றுமுள்ளவர்",
  "8361": "▁திருப்தியடை",
  "8362": "▁சுகி",
  "8363": "arac",
  "8364": "ப்பாடு",
  "8365": "▁செய்தேன்",
  "8366": "▁வணங்குகிறீர்கள்",
  "8367": "யுமில்லை",
  "8368": "▁பந்த",
  "8369": "▁நாடுகிறானோ",
  "8370": "▁அணிவி",
  "8371": "▁காற்றுகளை",
  "8372": "▁அரை",
  "8373": "▁பெயர்கள்",
  "8374": "▁பிரிவா",
  "8375": "▁கூறுகிறோம்",
  "8376": "▁அவகாச",
  "8377": "▁அவ்வாறில்லை",
  "8378": "▁வெறுக்க",
  "8379": "ans",
  "8380": "▁உங்களிலிருந்து",
  "8381": "ock",
  "8382": "▁சுற்றிக்",
  "8383": "லுக்கும்",
  "8384": "சிலர்",
  "8385": "▁ஆகிவிட்டனர்",
  "8386": "▁பயனும்",
  "8387": "▁குற்றவாளிகளின்",
  "8388": "▁தலைவர்களை",
  "8389": "▁இறக்கினோம்",
  "8390": "▁செய்பவராக",
  "8391": "▁நபிமார்களை",
  "8392": "▁ஆச்சரியப்படு",
  "8393": "▁பேணிக்",
  "8394": "▁பாவத்தையும்",
  "8395": "▁சதோதர",
  "8396": "▁நாள்காட்டி",
  "8397": "▁ஷுஐபை",
  "8398": "▁உள்ளங்கள்",
  "8399": "oper",
  "8400": "கோள்",
  "8401": "▁விவரங்கள்",
  "8402": "அல்லாஹ்வு",
  "8403": "▁அறிந்துகொள்",
  "8404": "இதோ",
  "8405": "▁இருந்தார்களே",
  "8406": "▁அவ்வூர்",
  "8407": "▁கொள்ளக்கூடிய",
  "8408": "▁பெறுவார்கள்",
  "8409": "▁பூமியிலுமுள்ள",
  "8410": "▁அமைவு",
  "8411": "▁சிந்திக்கும்",
  "8412": "▁வருவ",
  "8413": "▁பார்க்கலாம்",
  "8414": "விலோ",
  "8415": "▁புகட்டு",
  "8416": "▁திடுக்கி",
  "8417": "யிருந்தோம்",
  "8418": "▁செய்வதையும்",
  "8419": "▁அவனிடத்திலேயே",
  "8420": "▁ஒருவரையும்",
  "8421": "▁பந்துக்க",
  "8422": "▁நிலைத்து",
  "8423": "ந்நரகத்",
  "8424": "▁நாளன்று",
  "8425": "▁அடிமையை",
  "8426": "▁அகிலத்தாருக்கெல்லாம்",
  "8427": "ப்பவனும்",
  "8428": "▁தூரமான",
  "8429": "▁மன்னிப்பாயாக",
  "8430": "▁பாவிகளாகவே",
  "8431": "▁சக்தியுடையவன்",
  "8432": "▁புதல்வர்களையும்",
  "8433": "▁என்றோ",
  "8434": "▁தேடுவீராக",
  "8435": "▁மத்திய",
  "8436": "▁விரும்புப",
  "8437": "▁அதிகமதி",
  "8438": "▁அழித்திருக்கின்றோம்",
  "8439": "▁இவர்களிடம்",
  "8440": "▁பின்பற்றாதீர்கள்",
  "8441": "நம்மிடம்",
  "8442": "▁சேர்ப்பி",
  "8443": "கலை",
  "8444": "▁சிதற",
  "8445": "யுடையவனாக",
  "8446": "▁வைப்பான்",
  "8447": "▁இன்ஜீலையும்",
  "8448": "▁பாவங்களையும்",
  "8449": "▁ஒவ்வொருவரும்",
  "8450": "வோர்",
  "8451": "▁எறியும்",
  "8452": "▁பண்ணி",
  "8453": "▁தோற்கடிக்க",
  "8454": "▁சேர்ப்போம்",
  "8455": "அந்",
  "8456": "▁ஒருவரையொ",
  "8457": "▁ஒருவரையொருவர்",
  "8458": "வற்றையே",
  "8459": "▁வசனங்களைக்",
  "8460": "▁ஞானத்தைக்",
  "8461": "▁தேவையற்றவன்",
  "8462": "▁கொள்வான்",
  "8463": "▁சுமையைச்",
  "8464": "▁group",
  "8465": "▁மன்னப்பவன்",
  "8466": "த்துடனும்",
  "8467": "▁பொய்ப்பித்தார்கள்",
  "8468": "▁கொண்டிருப்பது",
  "8469": "▁கொண்டாலும்",
  "8470": "▁சந்திரன்",
  "8471": "ial",
  "8472": "▁வழிப்பட்டு",
  "8473": "ப்பதைப்",
  "8474": "▁இவற்றைப்",
  "8475": "▁சரிபார்க்கவும்",
  "8476": "க்கின்றீர்களா",
  "8477": "பிரார்த்தித்துக்",
  "8478": "▁கட்டமைப்பு",
  "8479": "ஹரை",
  "8480": "▁ஏற்பட்டி",
  "8481": "▁உங்களிலிருந்தே",
  "8482": "▁ஞானமுடையோனாகவும்",
  "8483": "யடைந்து",
  "8484": "▁இருப்பதில்லை",
  "8485": "▁அவனிடமிருந்து",
  "8486": "ஆயினும்",
  "8487": "▁பறவைகள்",
  "8488": "80",
  "8489": "தானிய",
  "8490": "போருக்குச்",
  "8491": "▁படைக்கப்பட்ட",
  "8492": "▁செய்யமாட்டான்",
  "8493": "▁வைப்பதை",
  "8494": "▁திரும்பச்",
  "8495": "▁அளிப்பாயாக",
  "8496": "▁முஃமின்களும்",
  "8497": "▁வசனங்களின்",
  "8498": "▁அமர்வை",
  "8499": "▁பொருளும்",
  "8500": "▁முன்னோர்களின்",
  "8501": "▁படவில்லை",
  "8502": "▁வணக்கத்திற்குரியவன்",
  "8503": "▁உண்மையாளர்",
  "8504": "▁வரக்கூடிய",
  "8505": "▁பிரார்த்தித்துக்",
  "8506": "lar",
  "8507": "▁அறிந்தோ",
  "8508": "னுமாகவும்",
  "8509": "▁பருகுங்கள்",
  "8510": "த்தோடு",
  "8511": "ode",
  "8512": "வானங்களையும்",
  "8513": "▁எங்களுக்குத்",
  "8514": "▁உலோபி",
  "8515": "வரம்பு",
  "8516": "கின்",
  "8517": "▁சோதனைக்கு",
  "8518": "▁கண்டபோது",
  "8519": "ப்பீர்களானால்",
  "8520": "ப்பொருள்",
  "8521": "▁இறைவனைத்",
  "8522": "▁வாச",
  "8523": "▁வாசிகளும்",
  "8524": "▁செய்வதெல்லாம்",
  "8525": "வாகவும்",
  "8526": "▁விட்டதோ",
  "8527": "▁முன்னமேயே",
  "8528": "▁வழியைத்",
  "8529": "▁நிலைபெ",
  "8530": "களையுடைய",
  "8531": "▁முந்தவும்",
  "8532": "▁பிந்தவும்",
  "8533": "▁உண்மையாகும்",
  "8534": "▁தொகையின",
  "8535": "க்கொள்ளுங்கள்",
  "8536": "டமிருந்தும்",
  "8537": "▁இரவை",
  "8538": "▁முற்பட்டனர்",
  "8539": "க்கப்பட்டவராகவும்",
  "8540": "▁உண்டாக்கிக்",
  "8541": "▁ஒலித்தோ",
  "8542": "▁வழிப்போக்கர்",
  "8543": "▁மனிதர்களின்",
  "8544": "▁பேரொளி",
  "8545": "▁எழுதப்பட்ட",
  "8546": "த்தவனாக",
  "8547": "▁இறக்கியருள",
  "8548": "பவை",
  "8549": "▁திருப்பப்படுகிறீர்கள்",
  "8550": "▁கொண்டுவரப்படுவார்கள்",
  "8551": "வனோ",
  "8552": "ங்கல்",
  "8553": "▁வீதி",
  "8554": "▁அருமைத்",
  "8555": "▁கொண்டார்களா",
  "8556": "▁வாங்கிய",
  "8557": "எவரையும்",
  "8558": "இணைவை",
  "8559": "▁கொண்டபின்",
  "8560": "காட்சி",
  "8561": "▁அமல்களை",
  "8562": "▁சந்தேகமில்லை",
  "8563": "யாதீர்கள்",
  "8564": "▁$",
  "8565": "▁உண்மையையே",
  "8566": "▁இதயம்",
  "8567": "▁மிகைத்தோனும்",
  "8568": "போதிலும்",
  "8569": "மார்களும்",
  "8570": "▁அநீ",
  "8571": "▁எவ்விதத்",
  "8572": "க்கிறீர்களோ",
  "8573": "திடமாக",
  "8574": "▁விரும்புகிறான்",
  "8575": "▁ஆகிவிடாதீர்கள்",
  "8576": "▁கருப்பு",
  "8577": "▁நிராசை",
  "8578": "▁புனிதமான",
  "8579": "▁அல்ஹம்து",
  "8580": "▁ஊற்று",
  "8581": "▁எனக்குச்",
  "8582": "மாற",
  "8583": "▁உடையவனாகவும்",
  "8584": "▁இட்டுக்கட்டிக்",
  "8585": "▁உடன்படிக்கையை",
  "8586": "▁பட்டோலை",
  "8587": "▁நிராகரிக்கிறார்களோ",
  "8588": "▁pla",
  "8589": "▁பழு",
  "8590": "அகில",
  "8591": "▁இவருடைய",
  "8592": "▁புற்பூ",
  "8593": "▁உமக்கும்",
  "8594": "▁வணங்காதீர்கள்",
  "8595": "▁உள்ளவர்",
  "8596": "▁யஃகூப்",
  "8597": "▁சரண",
  "8598": "▁போக",
  "8599": "▁அலட்சியமாக",
  "8600": "சமூகத்தா",
  "8601": "▁பயபக்தியுடையோருக்கு",
  "8602": "▁அருந்து",
  "8603": "னாகவே",
  "8604": "▁நாவு",
  "8605": "▁அருளினான்",
  "8606": "▁தீமையும்",
  "8607": "▁கவனித்து",
  "8608": "urr",
  "8609": "▁number",
  "8610": "▁முழமையாக",
  "8611": "▁அச்சந்தீர்",
  "8612": "▁இருப்பதே",
  "8613": "▁இதற்குக்",
  "8614": "▁எங்களைத்",
  "8615": "▁தீண்டா",
  "8616": "▁என்னிடமே",
  "8617": "எக்காளம்",
  "8618": "▁எச்சரிக்கப்பட்ட",
  "8619": "▁bet",
  "8620": "▁இருந்தவர்களின்",
  "8621": "ண்பா",
  "8622": "▁தீவினை",
  "8623": "▁விடுகிறீர்கள்",
  "8624": "▁பின்பற்றிய",
  "8625": "வல்ல",
  "8626": "▁ஹராம்",
  "8627": "▁அன்புடையவன்",
  "8628": "▁இவ்வாறுதான்",
  "8629": "▁வாண்ட்",
  "8630": "▁அபய",
  "8631": "▁முற்பட்டார்கள்",
  "8632": "▁கிளா",
  "8633": "▁செய்திருக்கின்றான்",
  "8634": "▁தலைமுறையினரை",
  "8635": "யேனும்",
  "8636": "▁மரணத்தை",
  "8637": "▁கட்டுக்கதை",
  "8638": "கங்களை",
  "8639": "▁நிகழும்",
  "8640": "▁ரஹ்மா",
  "8641": "▁தரி",
  "8642": "தாலும்",
  "8643": "▁அதிகாலையில்",
  "8644": "▁விஷயத்தைப்",
  "8645": "▁இல்லாமலி",
  "8646": "▁என்னிடமிருந்து",
  "8647": "ஹம்மது",
  "8648": "▁எதைப்பற்றி",
  "8649": "பூரண",
  "8650": "▁அமைவுகள்",
  "8651": "UCK",
  "8652": "▁தொழு",
  "8653": "▁யெல்லாம்",
  "8654": "▁பெற்றவர்கள்",
  "8655": "களேயன்றி",
  "8656": "▁வழியிலிருந்து",
  "8657": "பவனும்",
  "8658": "▁set",
  "8659": "ரியம்",
  "8660": "▁வந்ததா",
  "8661": "▁தாழ்த்திக்",
  "8662": "▁முறையாகக்",
  "8663": "▁விடாது",
  "8664": "▁பெறச்",
  "8665": "▁இருள்களில்",
  "8666": "▁நற்பாக்கிய",
  "8667": "வாகவே",
  "8668": "▁கூறியதையும்",
  "8669": "▁ஓதிக்காண்பி",
  "8670": "ஒருவருக்கொருவர்",
  "8671": "▁தூதராகிய",
  "8672": "▁குடும்பத்தார்",
  "8673": "▁நெடிய",
  "8674": "▁15",
  "8675": "▁துல்",
  "8676": "▁தயாராக",
  "8677": "▁ஏற்படுத்தினோம்",
  "8678": "இவ்வுண்மையை",
  "8679": "▁தூள்",
  "8680": "▁உறவினர்களுக்கும்",
  "8681": "▁இருப்பதற்காக",
  "8682": "▁அதிகமாகக்",
  "8683": "▁Please",
  "8684": "▁ஒருத்தியாக",
  "8685": "▁முஃமின்களையும்",
  "8686": "▁மண்ணாகவும்",
  "8687": "னக்",
  "8688": "▁நரகவாசிகள்",
  "8689": "வியா",
  "8690": "க்கிடையிலும்",
  "8691": "களுக்கிடையிலும்",
  "8692": "▁பனூ",
  "8693": "▁ஏறிச்",
  "8694": "▁ஏற்கெ",
  "8695": "ம்மதி",
  "8696": "▁வேதனையைப்",
  "8697": "▁இறைவனான",
  "8698": "▁ரொ",
  "8699": "▁இவ்வேதம்",
  "8700": "வீராயின்",
  "8701": "அவற்றைப்",
  "8702": "▁இவ்விர",
  "8703": "▁தவ்ராத்தையும்",
  "8704": "ப்பட்டோம்",
  "8705": "க்கப்பட்டிருந்த",
  "8706": "▁விவரிக்கின்றோம்",
  "8707": "▁களிமண்ணி",
  "8708": "இசை",
  "8709": "மானித",
  "8710": "ப்பதற்காகவே",
  "8711": "▁தங்களையே",
  "8712": "▁குற்றமாகாது",
  "8713": "ஃஜூ",
  "8714": "வர்களோ",
  "8715": "மைப்",
  "8716": "▁அவ்விரண்டிற்கும்",
  "8717": "▁சந்திப்பை",
  "8718": "▁கேட்டில்",
  "8719": "▁வெரு",
  "8720": "▁தவணையை",
  "8721": "த்திற்குள்ளா",
  "8722": "▁கொண்டிருந்ததை",
  "8723": "▁எவனுடைய",
  "8724": "▁செய்கின்றேன்",
  "8725": "▁குகை",
  "8726": "▁இறைவனுக்குப்",
  "8727": "னானோ",
  "8728": "▁தந்தையா",
  "8729": "▁நண்பர்களாக",
  "8730": "த்தோமோ",
  "8731": "▁ஏதா",
  "8732": "மரணத்திற்குப்",
  "8733": "உயிர்ப்பி",
  "8734": "▁ஆடு",
  "8735": "▁குறிப்பிட்டு",
  "8736": "ப்பரி",
  "8737": "சத்தி",
  "8738": "ரிக்கை",
  "8739": "மறுமையை",
  "8740": "▁சுருக்கியும்",
  "8741": "▁குற்றவாளிகளை",
  "8742": "▁சுவனபதிகள்",
  "8743": "▁கேடே",
  "8744": "தவ்பா",
  "8745": "▁பயபக்தியுடையவர்கள்",
  "8746": "▁அழைக்கின்றீ",
  "8747": "இதற்காக",
  "8748": "▁நற்கூலியும்",
  "8749": "▁அச்சமற்ற",
  "8750": "▁செல்லலாம்",
  "8751": "ப்படமாட்டாது",
  "8752": "▁ஷைத்தான்களை",
  "8753": "▁நஷ்டமடைந்த",
  "8754": "▁மூஸாவை",
  "8755": "▁வந்திரு",
  "8756": "▁தங்குவார்கள்",
  "8757": "▁விருப்பமா",
  "8758": "PP",
  "8759": "▁பிராணிகள்",
  "8760": "▁வெளியீடு",
  "8761": "▁வெளிப்படுத்துவதையும்",
  "8762": "▁இவர்களையும்",
  "8763": "▁தருவாயாக",
  "8764": "▁இறக்கப்பட",
  "8765": "அதைத்",
  "8766": "▁நாயனை",
  "8767": "▁வெளிப்படுத்துகிறான்",
  "8768": "▁php",
  "8769": "கேள்வி",
  "8770": "▁பயனற்ற",
  "8771": "▁இவ்வூ",
  "8772": "▁பகலிலும்",
  "8773": "றிருக்க",
  "8774": "விசா",
  "8775": "விசாரணை",
  "8776": "இக்",
  "8777": "▁நபியாக",
  "8778": "▁ஆச்சரியமான",
  "8779": "▁தங்கியிருந்த",
  "8780": "▁நெறிமுறை",
  "8781": "▁பிணைய",
  "8782": "▁நரகவாசிகளே",
  "8783": "டோஸ்",
  "8784": "▁எவருமே",
  "8785": "▁வணங்கும்",
  "8786": "▁பருவ",
  "8787": "▁தேவையு",
  "8788": "▁ஆவேன்",
  "8789": "▁குரல்",
  "8790": "▁படங்கள்",
  "8791": "▁கருணையுடையோனாகவும்",
  "8792": "▁கையெழு",
  "8793": "▁நரகில்",
  "8794": "▁மனிதர்களிடம்",
  "8795": "▁சமுதாயத்த",
  "8796": "வட்டு",
  "8797": "▁இவருக்கு",
  "8798": "▁செல்வத்தை",
  "8799": "பெரு",
  "8800": "ஹ்ராம்",
  "8801": "▁பரிகாரமாக",
  "8802": "சலா",
  "8803": "▁நெருப்புக்",
  "8804": "▁மூச்சு",
  "8805": "▁செய்வோரின்",
  "8806": "▁என்பதில்",
  "8807": "▁we",
  "8808": "▁லு",
  "8809": "▁கைப்பற்றிக்",
  "8810": "▁பெயர்களை",
  "8811": "என்றார்",
  "8812": "றிந்து",
  "8813": "▁எப்படியிருந்தது",
  "8814": "வாங்கு",
  "8815": "▁இருப்பிட",
  "8816": "ween",
  "8817": "▁இஸ்ர",
  "8818": "▁இஸ்ரவே",
  "8819": "▁கொள்ளவில்லையா",
  "8820": "▁கொடுத்திருக்கி",
  "8821": "▁வருகின்றனர்",
  "8822": "▁கூறாதீர்கள்",
  "8823": "▁ஆப்",
  "8824": "▁அறியாமல்",
  "8825": "▁கிடக்கின்றன",
  "8826": "▁ஐரோ",
  "8827": "▁மற்றவர்கள்",
  "8828": "ப்பதற்",
  "8829": "▁அக்கா",
  "8830": "▁ஹே",
  "8831": "▁காதுகளில்",
  "8832": "▁போதி",
  "8833": "சக்தி",
  "8834": "னோர்",
  "8835": "கின்றார்களா",
  "8836": "▁வெப்ப",
  "8837": "ரைகள்",
  "8838": "val",
  "8839": "▁காண்கிறோம்",
  "8840": "டென்று",
  "8841": "▁பெறுவோர்",
  "8842": "▁கொண்டிருப்பீராக",
  "8843": "அல்லாஹ்வுக்குப்",
  "8844": "ரூன்",
  "8845": "▁per",
  "8846": "▁proper",
  "8847": "பில்",
  "8848": "▁great",
  "8849": "▁தலைப்பை",
  "8850": "ணங்கி",
  "8851": "▁நாடியோருக்கு",
  "8852": "▁பின்னே",
  "8853": "▁வேறெதையும்",
  "8854": "▁நரகத்திற்கு",
  "8855": "▁ஆன்மாவும்",
  "8856": "▁வெளியி",
  "8857": "▁இறுதிநாள்",
  "8858": "▁time",
  "8859": "▁சுத",
  "8860": "ங்களாகவும்",
  "8861": "▁தேடல்",
  "8862": "விஷயத்தில்",
  "8863": "▁அங்கீ",
  "8864": "▁கண்ணாடி",
  "8865": "அத்",
  "8866": "▁கிழி",
  "8867": "▁வேண்டியது",
  "8868": "▁அமர்ந்து",
  "8869": "▁உறவு",
  "8870": "▁கையாள",
  "8871": "▁i",
  "8872": "▁சொல்லவில்லை",
  "8873": "▁மொழியில்",
  "8874": "▁720",
  "8875": "ரையா",
  "8876": "▁மறைந்த",
  "8877": "▁al",
  "8878": "▁between",
  "8879": "இவ்வுலக",
  "8880": "ஏனென்றால்",
  "8881": "▁16",
  "8882": "▁சிறுவன்",
  "8883": "ற்கள்",
  "8884": "சொந்த",
  "8885": "▁ஆதாரங்கள்",
  "8886": "▁ஒதுங்குமிடம்",
  "8887": "▁கோப்புகளுக்கு",
  "8888": "▁நெஞ்சங்களில்",
  "8889": "▁ஓட",
  "8890": "▁வைத்திருக்கின்றோம்",
  "8891": "▁description",
  "8892": "▁கூட்டத்தாருக்கும்",
  "8893": "▁ஸ்பேட்",
  "8894": "உரு",
  "8895": "▁யோசனை",
  "8896": "சிடி",
  "8897": "ple",
  "8898": "ப்பிலிருந்து",
  "8899": "க்கின்றது",
  "8900": "பிஐ",
  "8901": "▁தளர்",
  "8902": "▁பரிசத்த",
  "8903": "கிறாயா",
  "8904": "▁படுத்திக்",
  "8905": "PG",
  "8906": "ராதி",
  "8907": "▁fol",
  "8908": "▁13",
  "8909": "றார்கள்",
  "8910": "▁இயற்கை",
  "8911": "▁விழும்",
  "8912": "▁கடைசியாக",
  "8913": "▁பெரிதா",
  "8914": "ek",
  "8915": "mbol",
  "8916": "esk",
  "8917": "▁தயவுசெய்து",
  "8918": "▁உல",
  "8919": "▁முன்பார்வை",
  "8920": "▁உயர்த்து",
  "8921": "▁விளையாட",
  "8922": "▁இறைவனாகவும்",
  "8923": "▁எவனொரு",
  "8924": "▁எவனொருவன்",
  "8925": "▁என்பதற்கு",
  "8926": "யிஸ்",
  "8927": "▁அழுத்த",
  "8928": "▁—",
  "8929": "இறுதியில்",
  "8930": "▁சனிக்கிழ",
  "8931": "அழ",
  "8932": "▁அதிர்ச்சி",
  "8933": "▁விளக்கி",
  "8934": "▁(-",
  "8935": "என்றுங்",
  "8936": "ப்படுத்துகிறது",
  "8937": "▁போர்",
  "8938": "▁குவா",
  "8939": "▁சாளரத்தில்",
  "8940": "▁ஆனா",
  "8941": "▁அளிக்கும்",
  "8942": "பதிவு",
  "8943": "▁பகலும்",
  "8944": "▁Open",
  "8945": "fault",
  "8946": "▁Mur",
  "8947": "▁பாப்",
  "8948": "▁select",
  "8949": "ற்கால",
  "8950": "தலி",
  "8951": "▁முடிவடை",
  "8952": "▁எதுவுமில்லை",
  "8953": "▁சுழற்று",
  "8954": "▁சிந்தனை",
  "8955": "▁எங்கி",
  "8956": "▁படுத்த",
  "8957": "ன்னா",
  "8958": "▁சோதிக்கப்பட்டிருந்தால்",
  "8959": "▁கர",
  "8960": "▁அடுக்க",
  "8961": "lp",
  "8962": "ப்பற்ற",
  "8963": "▁retur",
  "8964": "▁அற்ற",
  "8965": "▁see",
  "8966": "▁எதிர்மறை",
  "8967": "▁விருப்பத்தை",
  "8968": "OM",
  "8969": "நாளில்",
  "8970": "▁செய்யக்கூடிய",
  "8971": "ப்பெட்டி",
  "8972": "tr",
  "8973": "▁ஆங்கி",
  "8974": "▁படைகள்",
  "8975": "▁ஒருங்கி",
  "8976": "▁பட்டுள்ளது",
  "8977": "ச்சியாக",
  "8978": "▁பென்",
  "8979": "றையில்",
  "8980": "வதையே",
  "8981": "▁பாழா",
  "8982": "▁விடுகிறேன்",
  "8983": "great",
  "8984": "▁சங்கிலி",
  "8985": "otherf",
  "8986": "▁வழிப்படுங்கள்",
  "8987": "SIGH",
  "8988": "▁செய்வேன்",
  "8989": "▁வணி",
  "8990": "▁Murph",
  "8991": "public",
  "8992": "AY",
  "8993": "▁கற்பி",
  "8994": "▁விரல்",
  "8995": "▁பின்வரும்",
  "8996": "▁இணைக்க",
  "8997": "▁1ல்",
  "8998": "யிலான",
  "8999": "40",
  "9000": "லாளி",
  "9001": "ப்லா",
  "9002": "அங்கே",
  "9003": "ij",
  "9004": "▁மாற்றவும்",
  "9005": "ho",
  "9006": "னிலிருந்து",
  "9007": "▁நினைத்து",
  "9008": "▁முன்னுள்ள",
  "9009": "ones",
  "9010": "▁மேய்",
  "9011": "▁கிடைக்கு",
  "9012": "ote",
  "9013": "▁இருக்கா",
  "9014": "க்கப்பட்டிருக்கும்",
  "9015": "லிக்",
  "9016": "▁சோதிக்கவும்",
  "9017": "▁ராஜாவை",
  "9018": "கிச்சை",
  "9019": "▁கிரி",
  "9020": "▁உதவியை",
  "9021": "▁கொள்வேன்",
  "9022": "▁symbol",
  "9023": "▁சாக்ர",
  "9024": "ண்டொ",
  "9025": "▁விளையாடி",
  "9026": "te",
  "9027": "▁துரு",
  "9028": "▁உதவியாளர்",
  "9029": "▁அளவுரு",
  "9030": "▁எண்ணெ",
  "9031": "கள்Name",
  "9032": "▁செடி",
  "9033": "▁என்பதைக்",
  "9034": "உண்மையான",
  "9035": "EE",
  "9036": "பியா",
  "9037": "OS",
  "9038": "ப்பட்டனர்",
  "9039": "▁உருவாக்கும்",
  "9040": "▁கப்பல்கள்",
  "9041": "▁வேட்டையா",
  "9042": "▁பைத்தியக்கார",
  "9043": "▁அறுவடை",
  "9044": "க்கண",
  "9045": "▁பரப்பு",
  "9046": "ற்பல",
  "9047": "கிடை",
  "9048": "▁இல்லையென்றால்",
  "9049": "த்தரும்",
  "9050": "▁விரைவாக",
  "9051": "nn",
  "9052": "ப்படுதல்",
  "9053": "▁ஒதுக்கீ",
  "9054": "lot",
  "9055": "முகம்",
  "9056": "ques",
  "9057": "▁வீசு",
  "9058": "மால்",
  "9059": "▁நடுநிலை",
  "9060": "▁கூம்பு",
  "9061": "▁சமமான",
  "9062": "வதைக்",
  "9063": "▁இருப்பா",
  "9064": "▁சர்",
  "9065": "▁டிவிடிவ",
  "9066": "▁போலீஸ்",
  "9067": "▁தல",
  "9068": "ர்க்City",
  "9069": "▁சாக்ரமெ",
  "9070": "▁சாக்ரமெண்டொ",
  "9071": "word",
  "9072": "OT",
  "9073": "▁காலாவதி",
  "9074": "▁காப்ப",
  "9075": "DI",
  "9076": "▁குடும்பம்",
  "9077": "திரை",
  "9078": "▁val",
  "9079": "▁தொண்டை",
  "9080": "களோடு",
  "9081": "வட்ட",
  "9082": "▁செல்லுபடியாகாத",
  "9083": "உண",
  "9084": "கிவிடும்",
  "9085": "லிட",
  "9086": "▁ஓர",
  "9087": "சமாக",
  "9088": "▁நம்பவில்லை",
  "9089": "க்கூறு",
  "9090": "▁முதன்மை",
  "9091": "▁தூக்கி",
  "9092": "னீர்",
  "9093": "...)",
  "9094": "▁மகனை",
  "9095": "யப்",
  "9096": "▁ஏற்பட்டுள்ளது",
  "9097": "▁returns",
  "9098": "▁கறுப்பு",
  "9099": "ங்கமைப்பு",
  "9100": "▁ம்ம்",
  "9101": "கவலை",
  "9102": "sw",
  "9103": "▁அருகில்",
  "9104": "ord",
  "9105": "▁முதன்மையான",
  "9106": "▁பிரெ",
  "9107": "▁ஒருங்கிணை",
  "9108": "▁திருடி",
  "9109": "▁பொய்",
  "9110": "யாக்கம்",
  "9111": "▁அடித்து",
  "9112": "ப்பெய",
  "9113": "▁மில்லியன்",
  "9114": "▁துர்",
  "9115": "▁GL",
  "9116": "▁ங்கள்",
  "9117": "ஒழு",
  "9118": "▁பிடிப்பு",
  "9119": "ப்புகளை",
  "9120": "▁மறுபெயரிடு",
  "9121": "ge",
  "9122": "யுறு",
  "9123": "▁அமைக்கும்",
  "9124": "▁ஆவார்",
  "9125": "▁களத்தில்",
  "9126": "அறு",
  "9127": "▁கூறவும்",
  "9128": "▁பெறவும்",
  "9129": "டான்",
  "9130": "▁இலகு",
  "9131": "▁விவாக",
  "9132": "ian",
  "9133": "▁குணங்கள்",
  "9134": "நாய",
  "9135": "▁அங்கேயே",
  "9136": "க்கப்பட்டார்கள்",
  "9137": "▁நெடுக்கை",
  "9138": "▁இருந்திரு",
  "9139": "ta",
  "9140": "▁தொட்டு",
  "9141": "▁வெளியில்",
  "9142": "▁அடுக்கை",
  "9143": "▁காயம்",
  "9144": "ப்பட்டிரு",
  "9145": "▁XML",
  "9146": "fig",
  "9147": "ர்கள",
  "9148": "▁அமைப்புகளை",
  "9149": "ற்றெ",
  "9150": "▁கலவை",
  "9151": "▁கிண",
  "9152": "▁படைப்பா",
  "9153": "▁இழப்பு",
  "9154": "▁விண்டோஸ்",
  "9155": "சிரி",
  "9156": "▁ஓய்வு",
  "9157": "▁வித்தியா",
  "9158": "▁விளிம்பு",
  "9159": "▁இழுக்க",
  "9160": "af",
  "9161": "▁சின்னம்",
  "9162": "uertor",
  "9163": "uertorico",
  "9164": "ட்களை",
  "9165": "▁குழி",
  "9166": "▁தந்து",
  "9167": "▁மின்னெழுத்து",
  "9168": "▁சீரா",
  "9169": "▁விகிதம்",
  "9170": "▁Russ",
  "9171": "▁Russia",
  "9172": "ip",
  "9173": "▁சிறப்பான",
  "9174": "மூழ்",
  "9175": "▁ஏக",
  "9176": "▁தகவல்கள்",
  "9177": "▁head",
  "9178": "▁உருவத்தை",
  "9179": "வில்லி",
  "9180": ":)",
  "9181": "▁துவங்கும்",
  "9182": "முடியாத",
  "9183": "▁தின",
  "9184": "▁பார்த்தால்",
  "9185": "▁60",
  "9186": "▁விளக்கமான",
  "9187": "▁நீட்டி",
  "9188": "யுட்",
  "9189": "ஒளி",
  "9190": "▁பாகத்தை",
  "9191": "▁-(",
  "9192": "▁பொருத்தமான",
  "9193": "▁கணினியில்",
  "9194": "விவரம்",
  "9195": "▁எண்ணிய",
  "9196": "▁துரி",
  "9197": "வருடன்",
  "9198": "▁தேர்ந்தெடுப்பு",
  "9199": "த்தனி",
  "9200": "யக்",
  "9201": "▁நம்மில்",
  "9202": "▁சொடுக்கு",
  "9203": "டியன்",
  "9204": "▁எனக்குப்",
  "9205": "▁கண்டால்",
  "9206": "▁இயக்கம்",
  "9207": "▁எடுக்கும்",
  "9208": "▁புதை",
  "9209": "zerba",
  "9210": "zerbaij",
  "9211": "zerbaijan",
  "9212": "▁வசதிகளை",
  "9213": "ast",
  "9214": "rol",
  "9215": "ted",
  "9216": "▁ஒருங்கமைப்பு",
  "9217": "பட்சம்",
  "9218": "▁இருந்திருந்தால்",
  "9219": "RI",
  "9220": "ரண்டு",
  "9221": "1color",
  "9222": "▁தப்ப",
  "9223": "▁பரிசோ",
  "9224": "▁சொந்தமான",
  "9225": "▁பெருங்க",
  "9226": "▁பொதுவான",
  "9227": "▁பதிவை",
  "9228": "யில",
  "9229": "▁பிடிக்கும்",
  "9230": "▁உன்னைப்",
  "9231": "திலேயே",
  "9232": "▁ஏமாற்று",
  "9233": "▁தூர",
  "9234": "ஞ்சை",
  "9235": "ueb",
  "9236": "முடியவில்லை",
  "9237": "▁மருந்து",
  "9238": "▁அதனைத்",
  "9239": "ரியை",
  "9240": "▁தொலைபேசி",
  "9241": "▁திரட்டி",
  "9242": "▁கட்டப்பட்ட",
  "9243": "உன்னுடைய",
  "9244": "▁வகையில்",
  "9245": "▁கொள்கை",
  "9246": "த்தகு",
  "9247": "Disc",
  "9248": "▁விடவில்லை",
  "9249": "▁உறுதியாகக்",
  "9250": "▁செய்கிற",
  "9251": "▁ஷெ",
  "9252": "▁பாங்கு",
  "9253": "▁அமெரிக்க",
  "9254": "▁முன்னதாகவே",
  "9255": "▁அடர்ந்த",
  "9256": "ச்செய்து",
  "9257": "▁என்னவென்று",
  "9258": "சமான",
  "9259": "▁ஸீ",
  "9260": "ன்றைய",
  "9261": "▁வெற்றியடைய",
  "9262": "▁சிம்லிங்க்",
  "9263": "நன்கு",
  "9264": "▁பேச்சி",
  "9265": "▁நகரும்",
  "9266": "▁வரட்டும்",
  "9267": "▁சுத்தம்",
  "9268": "கின்றீர்களா",
  "9269": "▁செய்யும்படி",
  "9270": "▁வைத்தல்",
  "9271": "▁தொடர்ந்து",
  "9272": "▁நாட்ட",
  "9273": "▁நட்சத்திரங்கள்",
  "9274": "TD",
  "9275": "த்திறன்",
  "9276": "gra",
  "9277": "▁வன்",
  "9278": "▁அங்கீகரி",
  "9279": "ப்பூ",
  "9280": "▁தியாக",
  "9281": "▁கொண்டுள்ளது",
  "9282": "கிறாள்",
  "9283": "க்கித்",
  "9284": "னல்",
  "9285": "ser",
  "9286": "▁loc",
  "9287": "விஷய",
  "9288": "▁என்பதைச்",
  "9289": "▁சென்றார்",
  "9290": "▁வந்துவிடு",
  "9291": "▁நிரந்தரமான",
  "9292": "top",
  "9293": "▁அத்துடன்",
  "9294": "▁கோப்புக்களை",
  "9295": "▁படுத்துகிறது",
  "9296": "நிறம்",
  "9297": "▁குடியே",
  "9298": "eger",
  "9299": "தரும்",
  "9300": "▁விரித்து",
  "9301": "▁சபை",
  "9302": "▁ஐரோப்பா",
  "9303": "னாடி",
  "9304": "ள்ளார்",
  "9305": "என்னி",
  "9306": "▁இப்ப",
  "9307": "ங்களுக்கிடையே",
  "9308": "▁ht",
  "9309": "▁தன்னிடம்",
  "9310": "▁இருக்கின்றன்",
  "9311": "▁எங்களுடன்",
  "9312": "வலாளி",
  "9313": "காரிய",
  "9314": "▁உடன",
  "9315": "▁கைப்பற்றும்",
  "9316": "▁மிகுந்த",
  "9317": "▁தக்கவாறு",
  "9318": "யிர",
  "9319": "கின்றீர்கள்",
  "9320": "சோதி",
  "9321": "▁போகிறார்",
  "9322": "▁மாதங்கள்",
  "9323": "▁கொடுத்தால்",
  "9324": "வையில்",
  "9325": "▁விருப்பு",
  "9326": "▁விசைகள்",
  "9327": "க்காட்டி",
  "9328": "▁நீல்ஸ்",
  "9329": "▁பெற்றிருக்கி",
  "9330": "ச்செய்தி",
  "9331": "பைப்",
  "9332": "▁பெட்டியை",
  "9333": "▁வெற்றாக்கு",
  "9334": "▁குறிமுறை",
  "9335": "அனுமதி",
  "9336": "விருக்கும்",
  "9337": "▁தாமதி",
  "9338": "க்குவர",
  "9339": "டையளி",
  "9340": "lication",
  "9341": "▁வடிவத்தை",
  "9342": "விடமிருந்து",
  "9343": "▁அழைத்துச்",
  "9344": "இதனால்",
  "9345": "▁சோர்",
  "9346": "▁செல்லாதீர்கள்",
  "9347": "▁ஒன்றி",
  "9348": "உறுதியாக",
  "9349": "▁வெறுத்து",
  "9350": "▁நரம்",
  "9351": "▁sc",
  "9352": "▁விழி",
  "9353": "▁தகவல்களை",
  "9354": "atal",
  "9355": "▁சந்தித்த",
  "9356": "gre",
  "9357": "▁மேற்பட்ட",
  "9358": "யிலே",
  "9359": "▁ஒப்பா",
  "9360": "▁அளிப்பான்",
  "9361": "▁வலைப்பி",
  "9362": "▁தியாகம்",
  "9363": "▁சரியே",
  "9364": "_BAR_",
  "9365": "தற்குக்",
  "9366": "▁res",
  "9367": "▁லிருந்து",
  "9368": "▁இஸ்ஹாக்கையும்",
  "9369": "▁முனாஃபிக்குகள்",
  "9370": "▁கோள",
  "9371": "▁கூள",
  "9372": "▁தோட்டங்களை",
  "9373": "எவரும்",
  "9374": "▁அத்தாட்சியாகவும்",
  "9375": "▁விதிக்கப்பட்ட",
  "9376": "▁ஹோ",
  "9377": "ஜின்",
  "9378": "த்தருள்",
  "9379": "ப்போருக்கும்",
  "9380": "▁பொய்க்",
  "9381": "அச்ச",
  "9382": "நரகத்தின்",
  "9383": "ஏற்படு",
  "9384": "▁கொள்ளுமாறு",
  "9385": "▁வீடுகளிலிருந்து",
  "9386": "▁தீமைகளை",
  "9387": "▁அந்தச்",
  "9388": "▁ஈடேற்றி",
  "9389": "களிலேயே",
  "9390": "▁கொள்கின்றனர்",
  "9391": "▁2002",
  "9392": "▁நாளுக்காக",
  "9393": "▁குனிந்து",
  "9394": "▁தங்களுக்கே",
  "9395": "ww",
  "9396": "▁அந்தப்",
  "9397": "வையாகும்",
  "9398": "வனாகிய",
  "9399": "▁விளக்கிக்",
  "9400": "▁சுமக்க",
  "9401": "▁நாடியவர்களைத்",
  "9402": "▁யாவருக்கும்",
  "9403": "▁நன்மையோ",
  "9404": "▁அறிபவனாக",
  "9405": "▁காப்பாற்றுவாயாக",
  "9406": "நல்லோ",
  "9407": "▁அறிவேன்",
  "9408": "▁சிகிச்சை",
  "9409": "▁உதாரணமாக",
  "9410": "▁வேதத்தையுடையோரில்",
  "9411": "▁உமக்குத்",
  "9412": "2color",
  "9413": "▁கூறுகிறீர்கள்",
  "9414": "▁உண்மையுடன்",
  "9415": "▁நிலைக்கு",
  "9416": "▁நயவஞ்சக",
  "9417": "▁சூரியனும்",
  "9418": "▁இறக்கியருளி",
  "9419": "▁மனைவிமார்",
  "9420": "▁சமூகத்தாராக",
  "9421": "மற்றவர்கள்",
  "9422": "▁நிலைத்திருப்ப",
  "9423": "▁கிருபையாளர்",
  "9424": "▁இதற்குப்",
  "9425": "▁விரைவான",
  "9426": "▁இறந்தவர்களை",
  "9427": "▁வகுப்பு",
  "9428": "▁அச்சில்",
  "9429": "▁குருடர்",
  "9430": "ந்தோரையும்",
  "9431": "ர்ப்பு",
  "9432": "▁அனுபவிக்க",
  "9433": "வர்களுக்குத்",
  "9434": "ட்டுவீராக",
  "9435": "▁ஒருவனாகி",
  "9436": "றோமா",
  "9437": "▁காட்டியாகவும்",
  "9438": "▁நன்மாராயமாகவும்",
  "9439": "3color",
  "9440": "இப்லீஸ்",
  "9441": "▁ஒவ்வொன்றும்",
  "9442": "▁அடைவுகளை",
  "9443": "▁விதத்தில்",
  "9444": "▁நெருப்பிலிருந்து",
  "9445": "நிறைவே",
  "9446": "▁charac",
  "9447": "▁அவர்களுக்கே",
  "9448": "இழி",
  "9449": "▁DC",
  "9450": "▁வேளையில்",
  "9451": "▁சமூகத்தாரையும்",
  "9452": "▁அநியாயக்காரர்களை",
  "9453": "▁ஆன்",
  "9454": "▁இழிவான",
  "9455": "▁தண்டனையை",
  "9456": "▁மனிதர்களையும்",
  "9457": "▁நெருங்காதீர்கள்",
  "9458": "றொன்றும்",
  "9459": "▁போரா",
  "9460": "▁கொள்ளவில்லையோ",
  "9461": "▁ஆறகள்",
  "9462": "▁ஆபரண",
  "9463": "நல்லு",
  "9464": "பதேச",
  "9465": "▁இன்ன",
  "9466": "usa",
  "9467": "▁பொய்ப்பிப்ப",
  "9468": "▁அறிவிக்கட்டுமா",
  "9469": "▁காரியங்களைச்",
  "9470": "வற்றிலும்",
  "9471": "▁இப்லீஸ்",
  "9472": "▁விடப்",
  "9473": "லிருக்கி",
  "9474": "வேறெதுவும்",
  "9475": "▁அவதூறு",
  "9476": "▁அதன்பின்",
  "9477": "▁வீட்டிற்கு",
  "9478": "▁இரகசியமாகவும்",
  "9479": "▁ஏவப்பட்ட",
  "9480": "மலிருக்க",
  "9481": "களிடமிருந்து",
  "9482": "▁வழங்கும்",
  "9483": "விழ்",
  "9484": "▁கோண",
  "9485": "read",
  "9486": "▁தோல்வியு",
  "9487": "யிழ",
  "9488": "▁உன்னதமான",
  "9489": "▁கிப்லா",
  "9490": "உண்மையில்",
  "9491": "▁கெடுத்து",
  "9492": "▁மாட்டீர்",
  "9493": "உண்டா",
  "9494": "▁அறிந்திருந்தால்",
  "9495": "அதைக்",
  "9496": "நயவஞ்சகர்கள்",
  "9497": "▁வழங்குவான்",
  "9498": "▁தாங்களும்",
  "9499": "றோம்",
  "9500": "▁ஆண்களுக்கு",
  "9501": "யும்படி",
  "9502": "▁அடைவினை",
  "9503": "டர்கள்",
  "9504": "▁பரப்பி",
  "9505": "▁பரக்க",
  "9506": "▁மனிதனே",
  "9507": "▁அளித்தவற்றிலிருந்து",
  "9508": "▁கடலை",
  "9509": "ங்கில்",
  "9510": "▁வழியு",
  "9511": "மனுபவி",
  "9512": "வாசிகளை",
  "9513": "▁அடிபணி",
  "9514": "ற்பட",
  "9515": "▁இருப்பதற்காகவும்",
  "9516": "▁இறைவனா",
  "9517": "▁முஃமினாக",
  "9518": "▁ver",
  "9519": "▁பொய்ப்பித்து",
  "9520": "▁இனத்தாரிடம்",
  "9521": "▁கொண்டிருந்தோம்",
  "9522": "யிலோ",
  "9523": "▁விரோதம்",
  "9524": "▁லெ",
  "9525": "▁நாழி",
  "9526": "▁நாழிகை",
  "9527": "மாட்டீர்களா",
  "9528": "▁எழுப்பப்படுவீர்கள்",
  "9529": "எவராலும்",
  "9530": "▁பாக்கியமுடையவன்",
  "9531": "▁மிகைப்பவனாகவும்",
  "9532": "▁நித்திரை",
  "9533": "▁உங்களிலுள்ள",
  "9534": "மிக்கவன்",
  "9535": "▁உண்மையாகி",
  "9536": "▁கிட்ட",
  "9537": "▁பயமுறுத்து",
  "9538": "▁மரக்க",
  "9539": "இத்தகையோ",
  "9540": "▁நமக்கும்",
  "9541": "▁விரோதமாக",
  "9542": "போதே",
  "9543": "▁நாடியதை",
  "9544": "▁எறிந்த",
  "9545": "▁நன்மையே",
  "9546": "தென்று",
  "9547": "▁சங்கையான",
  "9548": "▁மருட்டி",
  "9549": "யாம்",
  "9550": "▁பொறுக்கத்",
  "9551": "▁அமைந்தான்",
  "9552": "▁உண்மையாகவே",
  "9553": "▁வருவதையோ",
  "9554": "னுக்குடன்",
  "9555": "▁செல்வார்கள்",
  "9556": "டையவனாக",
  "9557": "▁மேலாக",
  "9558": "பொலி",
  "9559": "▁கொள்வதைத்",
  "9560": "வோமானால்",
  "9561": "▁நபிக்கும்",
  "9562": "தினா",
  "9563": "▁அவ்விரண்டிலும்",
  "9564": "▁பின்த",
  "9565": "▁மனைவியர்",
  "9566": "இப்லீ",
  "9567": "▁கொண்டானோ",
  "9568": "▁பூமிக்கு",
  "9569": "▁இவ்விரண்டிற்கும்",
  "9570": "▁மாதவி",
  "9571": "▁மாதவிடா",
  "9572": "▁அறிவுடைய",
  "9573": "▁அணுவள",
  "9574": "▁அணுவளவும்",
  "9575": "குறை",
  "9576": "▁எஜமான",
  "9577": "▁Language",
  "9578": "▁இச்சைகளையே",
  "9579": "▁செய்திருக்கிறோம்",
  "9580": "▁தந்தருள்வாயாக",
  "9581": "▁கொள்வீர்களாக",
  "9582": "உரிய",
  "9583": "▁மண்ணிலிருந்து",
  "9584": "▁இவர்களைப்",
  "9585": "வர்களுடைய",
  "9586": "▁இறைவனைச்",
  "9587": "▁அப்படியாயின்",
  "9588": "▁சூனியக்காரர்",
  "9589": "▁அளந்து",
  "9590": "▁சீக்கிரத்தில்",
  "9591": "▁வருவீராக",
  "9592": "பாக்கியம்",
  "9593": "▁மற்றெ",
  "9594": "கற்பனை",
  "9595": "முமின்றி",
  "9596": "புகழ்",
  "9597": "▁கேள்விகள்",
  "9598": "▁இருக்கின்றார்களோ",
  "9599": "ர்களையும்",
  "9600": "▁பெரும்பாலோ",
  "9601": "▁யாருமில்லை",
  "9602": "▁அநியாயக்காரர்களில்",
  "9603": "▁கூறுவீராக்",
  "9604": "▁இஸ்லாம்",
  "9605": "▁மீள்வி",
  "9606": "▁கொண்டவர்களும்",
  "9607": "ev",
  "9608": "▁உறவின",
  "9609": "▁சமூகத்தாருக்கும்",
  "9610": "▁அருளையும்",
  "9611": "▁நற்பே",
  "9612": "▁City",
  "9613": "டையோம்",
  "9614": "▁நபியின்",
  "9615": "▁நன்மையையும்",
  "9616": "▁நோற்ப",
  "9617": "வோருக்கும்",
  "9618": "▁இருப்பதைக்",
  "9619": "▁செல்லவும்",
  "9620": "▁அதிகமதிகம்",
  "9621": "▁அல்லஹ்",
  "9622": "▁பரிகசித்துக்",
  "9623": "▁இஸ்ஹாக்",
  "9624": "ந்தாகும்",
  "9625": "▁போதுமானது",
  "9626": "▁செய்வதையெல்லாம்",
  "9627": "▁செய்வதில்லை",
  "9628": "செல்வ",
  "9629": "▁திரும்பிப்",
  "9630": "▁தடுக்கப்பட்ட",
  "9631": "▁தீமைகள்",
  "9632": "▁வணங்குப",
  "9633": "▁பெண்டி",
  "9634": "▁ஃபிர்அவ்னிடம்",
  "9635": "▁நிராகரிப்பு",
  "9636": "▁செய்கின்றாரோ",
  "9637": "▁விசாலமாக்கு",
  "9638": "▁சந்தேகமே",
  "9639": "▁மலக்குகளிடம்",
  "9640": "▁அளிக்கிறான்",
  "9641": "▁விரட்டி",
  "9642": "▁இருக்கின்றனவா",
  "9643": "▁மறைந்திருப்ப",
  "9644": "▁செய்பவனும்",
  "9645": "▁அவர்களுக்கிடையில்",
  "9646": "▁யூத",
  "9647": "▁அவரி",
  "9648": "▁புகழ",
  "9649": "ப்படுபவன்",
  "9650": "அவனிடம்",
  "9651": "▁சந்ததியா",
  "9652": "▁அவங்க",
  "9653": "▁சூனியத்தைக்",
  "9654": "▁அறிவார்கள்",
  "9655": "▁நோக்கியவனாகவே",
  "9656": "▁வைக்கிறோம்",
  "9657": "▁கூறுவோம்",
  "9658": "▁ஹார்ட்ஸ்",
  "9659": "SIGHS",
  "9660": "▁வாக்களித்துள்ளான்",
  "9661": "யாகத்",
  "9662": "▁ஜிப்ரயீ",
  "9663": "▁இள",
  "9664": "▁எவனை",
  "9665": "▁அதனுடைய",
  "9666": "esktop",
  "9667": "▁பேரீச்சை",
  "9668": "ந்திருந்தி",
  "9669": "▁மஹரை",
  "9670": "ப்படுத்தினோம்",
  "9671": "▁உங்களுக்கிடையே",
  "9672": "அதற்கவர்",
  "9673": "▁நுழைவார்கள்",
  "9674": "▁அவ்விருவரில்",
  "9675": "▁கணக்கின்றி",
  "9676": "▁பங்குண்டு",
  "9677": "▁பரிபா",
  "9678": "▁மகத்தான்",
  "9679": "▁வாரம்",
  "9680": "ல்City",
  "9681": "▁தூதர்களும்",
  "9682": "▁பிரச",
  "9683": "▁ஆக்கிய",
  "9684": "▁பெறமாட்டார்கள்",
[...]
