{
  "version": "1.0",
  "truncation": null,
  "padding": null,
  "added_tokens": [
    {
      "id": 0,
      "content": "[PAD]",
      "single_word": false,
      "lstrip": false,
      "rstrip": false,
      "normalized": false,
      "special": true
    },
    {
      "id": 1,
      "content": "[UNK]",
      "single_word": false,
      "lstrip": false,
      "rstrip": false,
      "normalized": false,
      "special": true
    },
    {
      "id": 2,
      "content": "[BOS]",
      "single_word": false,
      "lstrip": false,
      "rstrip": false,
      "normalized": false,
      "special": true
    },
    {
      "id": 3,
      "content": "[EOS]",
      "single_word": false,
      "lstrip": false,
      "rstrip": false,
      "normalized": false,
      "special": true
    }
  ],
  "normalizer": null,
  "pre_tokenizer": {
    "type": "Whitespace"
  },
  "post_processor": null,
  "decoder": null,
  "model": {
    "type": "BPE",
    "dropout": null,
    "unk_token": "[UNK]",
    "continuing_subword_prefix": null,
    "end_of_word_suffix": null,
    "fuse_unk": false,
    "byte_fallback": false,
    "ignore_merges": false,
    "vocab": {
      "[PAD]": 0,
      "[UNK]": 1,
      "[BOS]": 2,
      "[EOS]": 3,
      "!": 4,
      "\"": 5,
      "#": 6,
      "$": 7,
      "%": 8,
      "&": 9,
      "'": 10,
      "(": 11,
      ")": 12,
      "*": 13,
      "+": 14,
      ",": 15,
      "-": 16,
      ".": 17,
      "/": 18,
      "0": 19,
      "1": 20,
      "2": 21,
      "3": 22,
      "4": 23,
      "5": 24,
      "6": 25,
      "7": 26,
      "8": 27,
      "9": 28,
      ":": 29,
      ";": 30,
      "<": 31,
      "=": 32,
      ">": 33,
      "?": 34,
      "@": 35,
      "A": 36,
      "B": 37,
      "C": 38,
      "D": 39,
      "E": 40,
      "F": 41,
      "G": 42,
      "H": 43,
      "I": 44,
      "J": 45,
      "K": 46,
      "L": 47,
      "M": 48,
      "N": 49,
      "O": 50,
      "P": 51,
      "Q": 52,
      "R": 53,
      "S": 54,
      "T": 55,
      "U": 56,
      "V": 57,
      "W": 58,
      "X": 59,
      "Y": 60,
      "Z": 61,
      "[": 62,
      "\\": 63,
      "]": 64,
      "^": 65,
      "_": 66,
      "`": 67,
      "a": 68,
      "b": 69,
      "c": 70,
      "d": 71,
      "e": 72,
      "f": 73,
      "g": 74,
      "h": 75,
      "i": 76,
      "j": 77,
      "k": 78,
      "l": 79,
      "m": 80,
      "n": 81,
      "o": 82,
      "p": 83,
      "q": 84,
      "r": 85,
      "s": 86,
      "t": 87,
      "u": 88,
      "v": 89,
      "w": 90,
      "x": 91,
      "y": 92,
      "z": 93,
      "{": 94,
      "}": 95,
      "~": 96,
      "": 97,
      "": 98,
      "": 99,
      "¡": 100,
      "¢": 101,
      "£": 102,
      "¦": 103,
      "¨": 104,
      "©": 105,
      "ª": 106,
      "¬": 107,
      "­": 108,
      "®": 109,
      "¯": 110,
      "°": 111,
      "²": 112,
      "³": 113,
      "´": 114,
      "µ": 115,
      "¶": 116,
      "·": 117,
      "¹": 118,
      "º": 119,
      "¼": 120,
      "½": 121,
      "¾": 122,
      "¿": 123,
      "À": 124,
      "Á": 125,
      "Â": 126,
      "Ã": 127,
      "Ä": 128,
      "Å": 129,
      "Æ": 130,
      "Ç": 131,
      "È": 132,
      "É": 133,
      "Ê": 134,
      "Ë": 135,
      "Ì": 136,
      "Í": 137,
      "Î": 138,
      "Ï": 139,
      "Ð": 140,
      "Ñ": 141,
      "Ò": 142,
      "Ó": 143,
      "Ô": 144,
      "Õ": 145,
      "Ö": 146,
      "×": 147,
      "Ø": 148,
      "Ú": 149,
      "Ý": 150,
      "Þ": 151,
      "ß": 152,
      "à": 153,
      "á": 154,
      "â": 155,
      "ã": 156,
      "ä": 157,
      "å": 158,
      "æ": 159,
      "ç": 160,
      "è": 161,
      "é": 162,
      "ê": 163,
      "ë": 164,
      "ì": 165,
      "í": 166,
      "î": 167,
      "ï": 168,
      "ð": 169,
      "ñ": 170,
      "ò": 171,
      "ó": 172,
      "ô": 173,
      "õ": 174,
      "ö": 175,
      "÷": 176,
      "ø": 177,
      "ù": 178,
      "ú": 179,
      "û": 180,
      "ü": 181,
      "ý": 182,
      "þ": 183,
      "ÿ": 184,
      "Ā": 185,
      "ā": 186,
      "ă": 187,
      "Č": 188,
      "č": 189,
      "ē": 190,
      "ė": 191,
      "ę": 192,
      "ě": 193,
      "ğ": 194,
      "ī": 195,
      "ĭ": 196,
      "İ": 197,
      "ı": 198,
      "ļ": 199,
      "Ł": 200,
      "ł": 201,
      "ń": 202,
      "ň": 203,
      "ŏ": 204,
      "ő": 205,
      "Ś": 206,
      "Ş": 207,
      "ş": 208,
      "Š": 209,
      "š": 210,
      "ţ": 211,
      "ū": 212,
      "ŭ": 213,
      "ź": 214,
      "Ž": 215,
      "ž": 216,
      "˚": 217,
      "Β": 218,
      "Ε": 219,
      "Ι": 220,
      "Μ": 221,
      "Ν": 222,
      "Τ": 223,
      "Χ": 224,
      "ε": 225,
      "μ": 226,
      "Џ": 227,
      "А": 228,
      "В": 229,
      "Д": 230,
      "К": 231,
      "Л": 232,
      "М": 233,
      "Н": 234,
      "О": 235,
      "П": 236,
      "С": 237,
      "Х": 238,
      "Ч": 239,
      "а": 240,
      "б": 241,
      "в": 242,
      "г": 243,
      "д": 244,
      "е": 245,
      "ж": 246,
      "з": 247,
      "и": 248,
      "к": 249,
      "л": 250,
      "м": 251,
      "н": 252,
      "о": 253,
      "п": 254,
      "р": 255,
      "с": 256,
      "т": 257,
      "у": 258,
      "х": 259,
      "ц": 260,
      "ч": 261,
      "ш": 262,
      "ѕ": 263,
      "і": 264,
      "ј": 265,
      "њ": 266,
      "ћ": 267,
      "ං": 268,
      "අ": 269,
      "ආ": 270,
      "ඇ": 271,
      "ඉ": 272,
      "උ": 273,
      "එ": 274,
      "ඒ": 275,
      "ඔ": 276,
      "ඕ": 277,
      "ක": 278,
      "ග": 279,
      "ඝ": 280,
      "ඟ": 281,
      "ච": 282,
      "ජ": 283,
      "ට": 284,
      "ඩ": 285,
      "ණ": 286,
      "ඬ": 287,
      "ත": 288,
      "ථ": 289,
      "ද": 290,
      "ධ": 291,
      "න": 292,
      "ඳ": 293,
      "ප": 294,
      "බ": 295,
      "භ": 296,
      "ම": 297,
      "ය": 298,
      "ර": 299,
      "ල": 300,
      "ව": 301,
      "ශ": 302,
      "ෂ": 303,
      "ස": 304,
      "හ": 305,
      "ළ": 306,
      "ෆ": 307,
      "්": 308,
      "ා": 309,
      "ැ": 310,
      "ෑ": 311,
      "ි": 312,
      "ී": 313,
      "ු": 314,
      "ූ": 315,
      "ෘ": 316,
      "ෙ": 317,
      "ේ": 318,
      "ො": 319,
      "ෝ": 320,
      "ෞ": 321,
      "​": 322,
      "–": 323,
      "—": 324,
      "‘": 325,
      "’": 326,
      "“": 327,
      "”": 328,
      "‟": 329,
      "•": 330,
      "…": 331,
      "⁻": 332,
      "€": 333,
      "™": 334,
      "→": 335,
      "⇒": 336,
      "∆": 337,
      "│": 338,
      "☹": 339,
      "☻": 340,
      "♥": 341,
      "♪": 342,
      "♫": 343,
      "眉": 344,
      "碈": 345,
      "羘": 346,
      "醤": 347,
      "韆": 348,
      "鷓": 349,
      "ﬁ": 350,
      "ﬂ": 351,
      "th": 352,
      "ou": 353,
      "in": 354,
      "re": 355,
      "an": 356,
      "the": 357,
      "on": 358,
      "you": 359,
      "at": 360,
      "he": 361,
      "to": 362,
      "me": 363,
      "is": 364,
      "ll": 365,
      "ve": 366,
      "ing": 367,
      "it": 368,
      "or": 369,
      "..": 370,
      "st": 371,
      "er": 372,
      "se": 373,
      "le": 374,
      "ar": 375,
      "ow": 376,
      "en": 377,
      "ed": 378,
      "as": 379,
      "be": 380,
      "ay": 381,
      "of": 382,
      "ot": 383,
      "hat": 384,
      "and": 385,
      "ha": 386,
      "You": 387,
      "al": 388,
      "es": 389,
      "et": 390,
      "id": 391,
      "ac": 392,
      "we": 393,
      "gh": 394,
      "that": 395,
      "ome": 396,
      "ke": 397,
      "...": 398,
      "li": 399,
      "ld": 400,
      "ro": 401,
      "wi": 402,
      "ri": 403,
      "all": 404,
      "here": 405,
      "do": 406,
      "ut": 407,
      "ght": 408,
      "go": 409,
      "are": 410,
      "ver": 411,
      "ad": 412,
      "now": 413,
      "for": 414,
      "out": 415,
      "nd": 416,
      "hi": 417,
      "your": 418,
      "one": 419,
      "this": 420,
      "lo": 421,
      "ne": 422,
      "ho": 423,
      "He": 424,
      "my": 425,
      "ic": 426,
      "ir": 427,
      "have": 428,
      "We": 429,
      "The": 430,
      "ust": 431,
      "ab": 432,
      "od": 433,
      "ion": 434,
      "ly": 435,
      "not": 436,
      "ch": 437,
      "know": 438,
      "was": 439,
      "What": 440,
      "am": 441,
      "thing": 442,
      "can": 443,
      "with": 444,
      "ould": 445,
      "It": 446,
      "ok": 447,
      "us": 448,
      "ant": 449,
      "up": 450,
      "get": 451,
      "un": 452,
      "om": 453,
      "ce": 454,
      "ur": 455,
      "ther": 456,
      "what": 457,
      "ti": 458,
      "fe": 459,
      "his": 460,
      "don": 461,
      "ter": 462,
      "na": 463,
      "him": 464,
      "te": 465,
      "ry": 466,
      "ag": 467,
      "ake": 468,
      "pe": 469,
      "ack": 470,
      "de": 471,
      "mo": 472,
      "ill": 473,
      "ck": 474,
      "no": 475,
      "No": 476,
      "some": 477,
      "just": 478,
      "nt": 479,
      "so": 480,
      "And": 481,
      "if": 482,
      "our": 483,
      "ca": 484,
      "right": 485,
      "sh": 486,
      "any": 487,
      "like": 488,
      "want": 489,
      "got": 490,
      "ain": 491,
      "did": 492,
      "will": 493,
      "wor": 494,
      "ink": 495,
      "ind": 496,
      "way": 497,
      "pp": 498,
      "her": 499,
      "sa": 500,
      "about": 501,
      "there": 502,
      "very": 503,
      "rom": 504,
      "ple": 505,
      "hy": 506,
      "That": 507,
      "tr": 508,
      "ive": 509,
      "pl": 510,
      "use": 511,
      "ct": 512,
      "ight": 513,
      "po": 514,
      "they": 515,
      "come": 516,
      "ea": 517,
      "think": 518,
      "man": 519,
      "art": 520,
      "gu": 521,
      "ent": 522,
      "su": 523,
      "con": 524,
      "ate": 525,
      "see": 526,
      "el": 527,
      "ak": 528,
      "but": 529,
      "own": 530,
      "from": 531,
      "But": 532,
      "ast": 533,
      "ss": 534,
      "back": 535,
      "time": 536,
      "bo": 537,
      "need": 538,
      "com": 539,
      "ally": 540,
      "who": 541,
      "hen": 542,
      "ation": 543,
      "ex": 544,
      "them": 545,
      "ge": 546,
      "going": 547,
      "ard": 548,
      "co": 549,
      "il": 550,
      "ist": 551,
      "onna": 552,
      "ra": 553,
      "Oh": 554,
      "fo": 555,
      "gonna": 556,
      "end": 557,
      "ers": 558,
      "So": 559,
      "This": 560,
      "ong": 561,
      "ine": 562,
      "say": 563,
      "she": 564,
      "ound": 565,
      "day": 566,
      "ep": 567,
      "ul": 568,
      "ie": 569,
      "ase": 570,
      "would": 571,
      "They": 572,
      "How": 573,
      "eve": 574,
      "eah": 575,
      "qu": 576,
      "alk": 577,
      "tell": 578,
      "ig": 579,
      "Hey": 580,
      "were": 581,
      "look": 582,
      "im": 583,
      "has": 584,
      "pro": 585,
      "ank": 586,
      "been": 587,
      "Come": 588,
      "ave": 589,
      "happ": 590,
      "ace": 591,
      "by": 592,
      "off": 593,
      "She": 594,
      "red": 595,
      "down": 596,
      "Go": 597,
      "take": 598,
      "If": 599,
      "how": 600,
      "good": 601,
      "ess": 602,
      "Do": 603,
      "ide": 604,
      "um": 605,
      "had": 606,
      "Why": 607,
      "ble": 608,
      "every": 609,
      "ap": 610,
      "Well": 611,
      "could": 612,
      "Yeah": 613,
      "uck": 614,
      "Lo": 615,
      "ye": 616,
      "act": 617,
      "sp": 618,
      "sto": 619,
      "let": 620,
      "There": 621,
      "where": 622,
      "lp": 623,
      "lf": 624,
      "itt": 625,
      "fa": 626,
      "Don": 627,
      "work": 628,
      "when": 629,
      "ough": 630,
      "kill": 631,
      "ice": 632,
      "more": 633,
      "sc": 634,
      "und": 635,
      "other": 636,
      "talk": 637,
      "should": 638,
      "cause": 639,
      "call": 640,
      "ous": 641,
      "Th": 642,
      "wo": 643,
      "didn": 644,
      "too": 645,
      "ople": 646,
      "age": 647,
      "happen": 648,
      "per": 649,
      "something": 650,
      "All": 651,
      "ity": 652,
      "ick": 653,
      "pre": 654,
      "ort": 655,
      "Let": 656,
      "ment": 657,
      "guy": 658,
      "ang": 659,
      "My": 660,
      "fi": 661,
      "love": 662,
      "Who": 663,
      "Ok": 664,
      "make": 665,
      "only": 666,
      "gr": 667,
      "over": 668,
      "Be": 669,
      "Where": 670,
      "ure": 671,
      "mean": 672,
      "ars": 673,
      "br": 674,
      "never": 675,
      "ever": 676,
      "af": 677,
      "ber": 678,
      "ait": 679,
      "people": 680,
      "give": 681,
      "find": 682,
      "Okay": 683,
      "di": 684,
      "pr": 685,
      "ol": 686,
      "ody": 687,
      "help": 688,
      "ree": 689,
      "new": 690,
      "ving": 691,
      "la": 692,
      "Yes": 693,
      "does": 694,
      "why": 695,
      "then": 696,
      "said": 697,
      "ass": 698,
      ".\"": 699,
      "read": 700,
      "orry": 701,
      "Just": 702,
      "Now": 703,
      "ning": 704,
      "fore": 705,
      "ought": 706,
      "em": 707,
      "ask": 708,
      "okay": 709,
      "ting": 710,
      "body": 711,
      "Look": 712,
      "Get": 713,
      "che": 714,
      "doing": 715,
      "name": 716,
      "bu": 717,
      "reat": 718,
      "under": 719,
      "self": 720,
      "ittle": 721,
      "sir": 722,
      "really": 723,
      "pt": 724,
      "ob": 725,
      "In": 726,
      "ish": 727,
      "Are": 728,
      "able": 729,
      "riend": 730,
      "sed": 731,
      "min": 732,
      "Is": 733,
      "won": 734,
      "stand": 735,
      "life": 736,
      "mu": 737,
      "little": 738,
      "ite": 739,
      "tor": 740,
      "again": 741,
      "son": 742,
      "into": 743,
      "irst": 744,
      "ance": 745,
      "spe": 746,
      "two": 747,
      "Mr": 748,
      "hand": 749,
      "ade": 750,
      "les": 751,
      "bet": 752,
      "est": 753,
      "even": 754,
      "iss": 755,
      "ord": 756,
      "friend": 757,
      "An": 758,
      "Your": 759,
      "ty": 760,
      "sure": 761,
      "ach": 762,
      "long": 763,
      "side": 764,
      "atch": 765,
      "ark": 766,
      "much": 767,
      "gir": 768,
      "than": 769,
      "cle": 770,
      "ta": 771,
      "head": 772,
      "ose": 773,
      "lease": 774,
      "urn": 775,
      "Thank": 776,
      "away": 777,
      "00": 778,
      "Ch": 779,
      "ci": 780,
      "ue": 781,
      "old": 782,
      "these": 783,
      "anything": 784,
      "try": 785,
      "Not": 786,
      "mor": 787,
      "ft": 788,
      "put": 789,
      "Se": 790,
      "car": 791,
      "God": 792,
      "bro": 793,
      "home": 794,
      "ru": 795,
      "their": 796,
      "ans": 797,
      "still": 798,
      "keep": 799,
      "ull": 800,
      "au": 801,
      "girl": 802,
      "Please": 803,
      "wr": 804,
      "St": 805,
      "op": 806,
      "before": 807,
      "night": 808,
      "ise": 809,
      "oney": 810,
      "sorry": 811,
      "iz": 812,
      "mon": 813,
      "Re": 814,
      "first": 815,
      "Sh": 816,
      "told": 817,
      "feel": 818,
      "int": 819,
      "came": 820,
      "ies": 821,
      "ready": 822,
      "isten": 823,
      "bl": 824,
      "run": 825,
      "Can": 826,
      "please": 827,
      "dis": 828,
      "thr": 829,
      "father": 830,
      "after": 831,
      "wait": 832,
      "coming": 833,
      "place": 834,
      "aybe": 835,
      "move": 836,
      "ser": 837,
      "Did": 838,
      "part": 839,
      "rest": 840,
      "cou": 841,
      "uh": 842,
      "care": 843,
      "thought": 844,
      "must": 845,
      "whi": 846,
      "last": 847,
      "ater": 848,
      "clo": 849,
      "well": 850,
      "because": 851,
      "aking": 852,
      "happened": 853,
      "Good": 854,
      "ath": 855,
      "years": 856,
      "kid": 857,
      "beli": 858,
      "boy": 859,
      "plan": 860,
      "ways": 861,
      "fuck": 862,
      "leave": 863,
      "ph": 864,
      "ret": 865,
      "vi": 866,
      "mar": 867,
      "live": 868,
      "ma": 869,
      "made": 870,
      "start": 871,
      "ouse": 872,
      "stop": 873,
      "When": 874,
      "ions": 875,
      "guys": 876,
      "hell": 877,
      "sup": 878,
      "port": 879,
      "ily": 880,
      "top": 881,
      "real": 882,
      "bab": 883,
      "world": 884,
      "understand": 885,
      "mem": 886,
      "done": 887,
      "believe": 888,
      "Some": 889,
      "chi": 890,
      "ect": 891,
      "lot": 892,
      "ff": 893,
      "For": 894,
      "Then": 895,
      "men": 896,
      "around": 897,
      "dy": 898,
      "ile": 899,
      "ame": 900,
      "row": 901,
      "ary": 902,
      "app": 903,
      "Mo": 904,
      "minut": 905,
      "doesn": 906,
      "ign": 907,
      "To": 908,
      "ell": 909,
      "ried": 910,
      "ren": 911,
      "stay": 912,
      "bre": 913,
      "cont": 914,
      "ia": 915,
      "ange": 916,
      "yes": 917,
      "better": 918,
      "left": 919,
      "everything": 920,
      "things": 921,
      "money": 922,
      "play": 923,
      "those": 924,
      "land": 925,
      "ton": 926,
      "sur": 927,
      "found": 928,
      "cl": 929,
      "show": 930,
      "Every": 931,
      "hear": 932,
      "member": 933,
      "bit": 934,
      "through": 935,
      "dead": 936,
      "fam": 937,
      "ps": 938,
      "sit": 939,
      "house": 940,
      "ful": 941,
      "someone": 942,
      "ated": 943,
      "miss": 944,
      "always": 945,
      "Jo": 946,
      "cour": 947,
      "res": 948,
      "big": 949,
      "wrong": 950,
      "bad": 951,
      "att": 952,
      "nothing": 953,
      "ud": 954,
      "De": 955,
      "cho": 956,
      "sho": 957,
      "brother": 958,
      "room": 959,
      "else": 960,
      "talking": 961,
      "fin": 962,
      "meet": 963,
      "--": 964,
      "cond": 965,
      "mat": 966,
      "set": 967,
      "ister": 968,
      "med": 969,
      "its": 970,
      "less": 971,
      "ven": 972,
      "most": 973,
      "xt": 974,
      "Dad": 975,
      "ny": 976,
      "ms": 977,
      "getting": 978,
      "looking": 979,
      "die": 980,
      "kind": 981,
      "wanted": 982,
      "dr": 983,
      "mother": 984,
      "Because": 985,
      "ence": 986,
      "mind": 987,
      "word": 988,
      "great": 989,
      "On": 990,
      "ually": 991,
      "anna": 992,
      "light": 993,
      "shi": 994,
      "job": 995,
      "ash": 996,
      "fine": 997,
      "comp": 998,
      "sec": 999,
      "Here": 1000,
      "many": 1001,
      "Al": 1002,
      "der": 1003,
      "might": 1004,
      "isn": 1005,
      "One": 1006,
      "used": 1007,
      "sen": 1008,
      "trying": 1009,
      "llow": 1010,
      "sha": 1011,
      "quest": 1012,
      "pers": 1013,
      "As": 1014,
      "proble": 1015,
      "low": 1016,
      "Tell": 1017,
      "air": 1018,
      "war": 1019,
      "ince": 1020,
      "ike": 1021,
      "si": 1022,
      "lice": 1023,
      "av": 1024,
      "ctor": 1025,
      "dre": 1026,
      "three": 1027,
      "being": 1028,
      "Take": 1029,
      "ner": 1030,
      "Sir": 1031,
      "Ne": 1032,
      "today": 1033,
      "dad": 1034,
      "ith": 1035,
      "Un": 1036,
      "bus": 1037,
      "sm": 1038,
      "same": 1039,
      "hed": 1040,
      "saw": 1041,
      "killed": 1042,
      "enough": 1043,
      "family": 1044,
      "des": 1045,
      "str": 1046,
      "save": 1047,
      "Hell": 1048,
      "Ex": 1049,
      "gotta": 1050,
      "Maybe": 1051,
      "wee": 1052,
      "may": 1053,
      "gg": 1054,
      "took": 1055,
      "Hi": 1056,
      "turn": 1057,
      "count": 1058,
      "mm": 1059,
      "seen": 1060,
      "remember": 1061,
      "another": 1062,
      "person": 1063,
      "ub": 1064,
      "akes": 1065,
      "form": 1066,
      "heart": 1067,
      "yourself": 1068,
      "blo": 1069,
      "dif": 1070,
      "mer": 1071,
      "went": 1072,
      "aw": 1073,
      "Jack": 1074,
      "gun": 1075,
      "ings": 1076,
      "ah": 1077,
      "hur": 1078,
      "Wait": 1079,
      "open": 1080,
      "hour": 1081,
      "hard": 1082,
      "days": 1083,
      "jo": 1084,
      "ious": 1085,
      "without": 1086,
      "rent": 1087,
      "lic": 1088,
      "ire": 1089,
      "shit": 1090,
      "anyone": 1091,
      "ason": 1092,
      "next": 1093,
      "cr": 1094,
      "fun": 1095,
      "listen": 1096,
      "lost": 1097,
      "sy": 1098,
      "gen": 1099,
      "gone": 1100,
      "ghter": 1101,
      "cess": 1102,
      "problem": 1103,
      "ction": 1104,
      "wanna": 1105,
      "course": 1106,
      "hold": 1107,
      "Ke": 1108,
      "Stop": 1109,
      "ont": 1110,
      "ating": 1111,
      "lt": 1112,
      "Hello": 1113,
      "dri": 1114,
      "ared": 1115,
      "bring": 1116,
      "ail": 1117,
      "led": 1118,
      "dam": 1119,
      "which": 1120,
      "second": 1121,
      "already": 1122,
      "hit": 1123,
      "ago": 1124,
      "face": 1125,
      "ste": 1126,
      "dau": 1127,
      "ins": 1128,
      "gether": 1129,
      "saying": 1130,
      "Or": 1131,
      "baby": 1132,
      "cra": 1133,
      "ible": 1134,
      "cut": 1135,
      "ses": 1136,
      "knew": 1137,
      "ident": 1138,
      "pow": 1139,
      "cha": 1140,
      "idea": 1141,
      "tain": 1142,
      "Ro": 1143,
      "sent": 1144,
      "watch": 1145,
      "Give": 1146,
      "hu": 1147,
      "ear": 1148,
      "yö": 1149,
      "lie": 1150,
      "child": 1151,
      "ves": 1152,
      "dec": 1153,
      "Have": 1154,
      "OK": 1155,
      "ult": 1156,
      "week": 1157,
      "daughter": 1158,
      "times": 1159,
      "sing": 1160,
      "phone": 1161,
      "together": 1162,
      "Co": 1163,
      "best": 1164,
      "door": 1165,
      "matter": 1166,
      "ations": 1167,
      "Right": 1168,
      "Any": 1169,
      "ten": 1170,
      "pped": 1171,
      "water": 1172,
      "vis": 1173,
      "enti": 1174,
      "far": 1175,
      "thank": 1176,
      "ger": 1177,
      "few": 1178,
      "ian": 1179,
      "pen": 1180,
      "wasn": 1181,
      "tow": 1182,
      "called": 1183,
      "ster": 1184,
      "stu": 1185,
      "cy": 1186,
      "heard": 1187,
      "Sorry": 1188,
      "leep": 1189,
      "Char": 1190,
      "til": 1191,
      "inside": 1192,
      "wife": 1193,
      "Ma": 1194,
      "num": 1195,
      "uth": 1196,
      "fr": 1197,
      "full": 1198,
      "walk": 1199,
      "minutes": 1200,
      "police": 1201,
      "pri": 1202,
      "ild": 1203,
      "late": 1204,
      "fight": 1205,
      "Cl": 1206,
      "suppo": 1207,
      "law": 1208,
      "gl": 1209,
      "cor": 1210,
      "Will": 1211,
      "Uh": 1212,
      "also": 1213,
      "See": 1214,
      "Listen": 1215,
      "cer": 1216,
      "safe": 1217,
      "check": 1218,
      "diffe": 1219,
      "nice": 1220,
      "whole": 1221,
      "wouldn": 1222,
      "ris": 1223,
      "Bo": 1224,
      "change": 1225,
      "En": 1226,
      "morning": 1227,
      "ai": 1228,
      "At": 1229,
      "prom": 1230,
      "once": 1231,
      "yet": 1232,
      "sister": 1233,
      "zy": 1234,
      "ize": 1235,
      "cre": 1236,
      "comm": 1237,
      "friends": 1238,
      "ces": 1239,
      "Joh": 1240,
      "als": 1241,
      "aster": 1242,
      "pret": 1243,
      "ya": 1244,
      "yeah": 1245,
      "key": 1246,
      "sign": 1247,
      "Me": 1248,
      "poss": 1249,
      "rec": 1250,
      "du": 1251,
      "both": 1252,
      "alone": 1253,
      "everyone": 1254,
      "such": 1255,
      "John": 1256,
      "pay": 1257,
      "fucking": 1258,
      "eyes": 1259,
      "ev": 1260,
      "case": 1261,
      "Mom": 1262,
      "aut": 1263,
      "iness": 1264,
      "soon": 1265,
      "ef": 1266,
      "inter": 1267,
      "Gr": 1268,
      "trust": 1269,
      "swe": 1270,
      "while": 1271,
      "met": 1272,
      "ird": 1273,
      "gre": 1274,
      "guess": 1275,
      "Br": 1276,
      "cri": 1277,
      "cur": 1278,
      "ical": 1279,
      "anger": 1280,
      "hurt": 1281,
      "Dr": 1282,
      "bed": 1283,
      "deal": 1284,
      "gave": 1285,
      "line": 1286,
      "tri": 1287,
      "With": 1288,
      "lock": 1289,
      "ding": 1290,
      "break": 1291,
      "maybe": 1292,
      "asy": 1293,
      "shot": 1294,
      "oman": 1295,
      "knows": 1296,
      "power": 1297,
      "follow": 1298,
      "clear": 1299,
      "close": 1300,
      "yöu": 1301,
      "Ar": 1302,
      "fect": 1303,
      "Like": 1304,
      "bor": 1305,
      "Move": 1306,
      "worry": 1307,
      "point": 1308,
      "hind": 1309,
      "sleep": 1310,
      "ush": 1311,
      "pect": 1312,
      "ject": 1313,
      "10": 1314,
      "ict": 1315,
      "ls": 1316,
      "cus": 1317,
      "cept": 1318,
      "fire": 1319,
      "says": 1320,
      "actly": 1321,
      "Of": 1322,
      "par": 1323,
      "means": 1324,
      "wants": 1325,
      "Mar": 1326,
      "month": 1327,
      "tomor": 1328,
      "tomorrow": 1329,
      "ons": 1330,
      "until": 1331,
      "happy": 1332,
      "ady": 1333,
      "myself": 1334,
      "ness": 1335,
      "haven": 1336,
      "Nothing": 1337,
      "Gu": 1338,
      "cuse": 1339,
      "reason": 1340,
      "book": 1341,
      "working": 1342,
      "five": 1343,
      "lear": 1344,
      "alive": 1345,
      "bar": 1346,
      "mess": 1347,
      "arch": 1348,
      "log": 1349,
      "sol": 1350,
      "mine": 1351,
      "game": 1352,
      "taking": 1353,
      "minute": 1354,
      "Com": 1355,
      "beaut": 1356,
      "couldn": 1357,
      "asked": 1358,
      "ship": 1359,
      "Af": 1360,
      "ran": 1361,
      "dest": 1362,
      "luck": 1363,
      "wind": 1364,
      "val": 1365,
      "ones": 1366,
      "behind": 1367,
      "huh": 1368,
      "since": 1369,
      "ond": 1370,
      "year": 1371,
      "rem": 1372,
      "supposed": 1373,
      "ouble": 1374,
      "truth": 1375,
      "hope": 1376,
      "conf": 1377,
      "chance": 1378,
      "thinking": 1379,
      "sk": 1380,
      "rol": 1381,
      "pretty": 1382,
      "His": 1383,
      "cal": 1384,
      "possible": 1385,
      "fl": 1386,
      "tory": 1387,
      "king": 1388,
      "ned": 1389,
      "actually": 1390,
      "ither": 1391,
      "nor": 1392,
      "iles": 1393,
      "train": 1394,
      "pa": 1395,
      "pick": 1396,
      "char": 1397,
      "hands": 1398,
      "Thanks": 1399,
      "prot": 1400,
      "dro": 1401,
      "shoot": 1402,
      "ved": 1403,
      "build": 1404,
      "TH": 1405,
      "Man": 1406,
      "figu": 1407,
      "gent": 1408,
      "mur": 1409,
      "Help": 1410,
      "gin": 1411,
      "send": 1412,
      "each": 1413,
      "AN": 1414,
      "ling": 1415,
      "tive": 1416,
      "human": 1417,
      "fall": 1418,
      "fre": 1419,
      "number": 1420,
      "Po": 1421,
      "oper": 1422,
      "ama": 1423,
      "lead": 1424,
      "Keep": 1425,
      "woman": 1426,
      "Hold": 1427,
      "fast": 1428,
      "vie": 1429,
      "true": 1430,
      "mist": 1431,
      "omb": 1432,
      "tou": 1433,
      "four": 1434,
      "wer": 1435,
      "hours": 1436,
      "iful": 1437,
      "cial": 1438,
      "ards": 1439,
      "lcome": 1440,
      "sound": 1441,
      "ane": 1442,
      "mill": 1443,
      "Pr": 1444,
      "business": 1445,
      "blood": 1446,
      "mom": 1447,
      "cli": 1448,
      "ik": 1449,
      "ced": 1450,
      "lect": 1451,
      "lose": 1452,
      "drink": 1453,
      "Ste": 1454,
      "vers": 1455,
      "least": 1456,
      "died": 1457,
      "ates": 1458,
      "unt": 1459,
      "New": 1460,
      "stem": 1461,
      "file": 1462,
      "question": 1463,
      "Whi": 1464,
      "ump": 1465,
      "ison": 1466,
      "exactly": 1467,
      "Ab": 1468,
      "Sha": 1469,
      "cent": 1470,
      "oment": 1471,
      "damn": 1472,
      "ets": 1473,
      "Che": 1474,
      "amp": 1475,
      "arent": 1476,
      "crazy": 1477,
      "ung": 1478,
      "comes": 1479,
      "gets": 1480,
      "mis": 1481,
      "20": 1482,
      "Mic": 1483,
      "cell": 1484,
      "death": 1485,
      "dream": 1486,
      "band": 1487,
      "free": 1488,
      "inte": 1489,
      "plain": 1490,
      "different": 1491,
      "Pro": 1492,
      "pain": 1493,
      "These": 1494,
      "scho": 1495,
      "team": 1496,
      "telling": 1497,
      "har": 1498,
      "ather": 1499,
      "hot": 1500,
      "aren": 1501,
      "yours": 1502,
      "pull": 1503,
      "moment": 1504,
      "city": 1505,
      "leg": 1506,
      "Our": 1507,
      "Say": 1508,
      "bably": 1509,
      "ator": 1510,
      "wish": 1511,
      "Tr": 1512,
      "waiting": 1513,
      "det": 1514,
      "vor": 1515,
      "qui": 1516,
      "eat": 1517,
      "Ho": 1518,
      "den": 1519,
      "kids": 1520,
      "Got": 1521,
      "protect": 1522,
      "ween": 1523,
      "ught": 1524,
      "tem": 1525,
      "IN": 1526,
      "io": 1527,
      "vill": 1528,
      "high": 1529,
      "ross": 1530,
      "aj": 1531,
      "later": 1532,
      "story": 1533,
      "Car": 1534,
      "win": 1535,
      "beautiful": 1536,
      "school": 1537,
      "fic": 1538,
      "makes": 1539,
      "ual": 1540,
      "dog": 1541,
      "till": 1542,
      "town": 1543,
      "wit": 1544,
      "stuff": 1545,
      "Bro": 1546,
      "ised": 1547,
      "Har": 1548,
      "ana": 1549,
      "speak": 1550,
      "Cap": 1551,
      "ground": 1552,
      "brought": 1553,
      "vo": 1554,
      "outh": 1555,
      "order": 1556,
      "making": 1557,
      "chang": 1558,
      "Sam": 1559,
      "Con": 1560,
      "ition": 1561,
      "half": 1562,
      "raid": 1563,
      "aring": 1564,
      "comple": 1565,
      "coll": 1566,
      "Qu": 1567,
      "god": 1568,
      "mission": 1569,
      "gi": 1570,
      "ital": 1571,
      "unch": 1572,
      "col": 1573,
      "pat": 1574,
      "started": 1575,
      "ER": 1576,
      "aken": 1577,
      "**": 1578,
      "Am": 1579,
      "front": 1580,
      "tonight": 1581,
      "import": 1582,
      "between": 1583,
      "hael": 1584,
      "Pe": 1585,
      "grand": 1586,
      "fort": 1587,
      "vice": 1588,
      "cop": 1589,
      "become": 1590,
      "appe": 1591,
      "Ame": 1592,
      "island": 1593,
      "test": 1594,
      "aving": 1595,
      "plo": 1596,
      "sel": 1597,
      "looks": 1598,
      "food": 1599,
      "attack": 1600,
      "eng": 1601,
      "wall": 1602,
      "having": 1603,
      "Excuse": 1604,
      "ime": 1605,
      "system": 1606,
      "rel": 1607,
      "secret": 1608,
      "touch": 1609,
      "roy": 1610,
      "ode": 1611,
      "against": 1612,
      "Michael": 1613,
      "running": 1614,
      "scared": 1615,
      "ount": 1616,
      "ward": 1617,
      "ug": 1618,
      "acc": 1619,
      "easy": 1620,
      "Ind": 1621,
      "asking": 1622,
      "Stay": 1623,
      "ters": 1624,
      "Two": 1625,
      "married": 1626,
      "hus": 1627,
      "outside": 1628,
      "sub": 1629,
      "rect": 1630,
      "inv": 1631,
      "months": 1632,
      "ery": 1633,
      "ball": 1634,
      "gest": 1635,
      "six": 1636,
      "000": 1637,
      "ney": 1638,
      "mark": 1639,
      "entire": 1640,
      "rid": 1641,
      "important": 1642,
      "cannot": 1643,
      "whatever": 1644,
      "trouble": 1645,
      "Does": 1646,
      "danger": 1647,
      "ng": 1648,
      "interest": 1649,
      "anymore": 1650,
      "OU": 1651,
      "news": 1652,
      "answer": 1653,
      "Tho": 1654,
      "tried": 1655,
      "control": 1656,
      "ham": 1657,
      "Shut": 1658,
      "ni": 1659,
      "doctor": 1660,
      "Which": 1661,
      "ages": 1662,
      "After": 1663,
      "inform": 1664,
      "promise": 1665,
      "pap": 1666,
      "Clark": 1667,
      "ments": 1668,
      "ited": 1669,
      "ror": 1670,
      "search": 1671,
      "Fo": 1672,
      "dress": 1673,
      "bot": 1674,
      "fer": 1675,
      "husband": 1676,
      "ene": 1677,
      "Ameri": 1678,
      "report": 1679,
      "Even": 1680,
      "cu": 1681,
      "ext": 1682,
      "needs": 1683,
      "Bl": 1684,
      "fix": 1685,
      "Only": 1686,
      "sim": 1687,
      "sense": 1688,
      "press": 1689,
      "lives": 1690,
      "resp": 1691,
      "party": 1692,
      "Fuck": 1693,
      "cover": 1694,
      "forget": 1695,
      "ali": 1696,
      "bag": 1697,
      "posit": 1698,
      "Everything": 1699,
      "eral": 1700,
      "pass": 1701,
      "ped": 1702,
      "inst": 1703,
      "ahead": 1704,
      "Lord": 1705,
      "Put": 1706,
      "ier": 1707,
      "hey": 1708,
      "itting": 1709,
      "ient": 1710,
      "pie": 1711,
      "girls": 1712,
      "vic": 1713,
      "lying": 1714,
      "Tom": 1715,
      "wonder": 1716,
      "van": 1717,
      "Ca": 1718,
      "ote": 1719,
      "15": 1720,
      "goes": 1721,
      "ility": 1722,
      "bomb": 1723,
      "han": 1724,
      "mes": 1725,
      "May": 1726,
      "ately": 1727,
      "offic": 1728,
      "probably": 1729,
      "window": 1730,
      "plane": 1731,
      "track": 1732,
      "ched": 1733,
      "AR": 1734,
      "ude": 1735,
      "black": 1736,
      "taken": 1737,
      "quite": 1738,
      "gra": 1739,
      "ys": 1740,
      "Sure": 1741,
      "boat": 1742,
      "serious": 1743,
      "leaving": 1744,
      "return": 1745,
      "ze": 1746,
      "small": 1747,
      "Em": 1748,
      "cks": 1749,
      "oud": 1750,
      "afraid": 1751,
      "mad": 1752,
      "though": 1753,
      "Ben": 1754,
      "Wow": 1755,
      "mag": 1756,
      "million": 1757,
      "step": 1758,
      "urity": 1759,
      "scre": 1760,
      "bull": 1761,
      "vious": 1762,
      "catch": 1763,
      "weap": 1764,
      "known": 1765,
      "que": 1766,
      "company": 1767,
      "Le": 1768,
      "parent": 1769,
      "ute": 1770,
      "Her": 1771,
      "Nor": 1772,
      "reg": 1773,
      "wed": 1774,
      "trans": 1775,
      "past": 1776,
      "fact": 1777,
      "ib": 1778,
      "lay": 1779,
      "couple": 1780,
      "Would": 1781,
      "pping": 1782,
      "Captain": 1783,
      "security": 1784,
      "Open": 1785,
      "Per": 1786,
      "idence": 1787,
      "clean": 1788,
      "figure": 1789,
      "gan": 1790,
      "uni": 1791,
      "bur": 1792,
      "Shit": 1793,
      "ative": 1794,
      "ries": 1795,
      "bir": 1796,
      "lan": 1797,
      "whe": 1798,
      "oh": 1799,
      "mistake": 1800,
      "ctive": 1801,
      "hor": 1802,
      "lin": 1803,
      "gn": 1804,
      "using": 1805,
      "spect": 1806,
      "hero": 1807,
      "upid": 1808,
      "office": 1809,
      "country": 1810,
      "ics": 1811,
      "pres": 1812,
      "ial": 1813,
      "happening": 1814,
      "12": 1815,
      "gram": 1816,
      "complete": 1817,
      "rence": 1818,
      "ler": 1819,
      "beat": 1820,
      "expect": 1821,
      "spital": 1822,
      "shut": 1823,
      ".'": 1824,
      "reet": 1825,
      "ens": 1826,
      "Dam": 1827,
      "eye": 1828,
      "din": 1829,
      "ield": 1830,
      "By": 1831,
      "feeling": 1832,
      "load": 1833,
      "Brother": 1834,
      "along": 1835,
      "worth": 1836,
      "Nice": 1837,
      "box": 1838,
      "happens": 1839,
      "allow": 1840,
      "Charlie": 1841,
      "list": 1842,
      "special": 1843,
      "parents": 1844,
      "...?": 1845,
      "moving": 1846,
      "zing": 1847,
      "seems": 1848,
      "From": 1849,
      "fac": 1850,
      "ically": 1851,
      "Bye": 1852,
      "First": 1853,
      "flo": 1854,
      "buy": 1855,
      "inc": 1856,
      "Call": 1857,
      "Whoa": 1858,
      "quick": 1859,
      "iled": 1860,
      "Ah": 1861,
      "Miss": 1862,
      "riage": 1863,
      "birth": 1864,
      "Could": 1865,
      "almost": 1866,
      "roll": 1867,
      "bud": 1868,
      "ider": 1869,
      "ures": 1870,
      "fault": 1871,
      "Lea": 1872,
      "dear": 1873,
      "bitch": 1874,
      "near": 1875,
      "foot": 1876,
      "Great": 1877,
      "Wal": 1878,
      "30": 1879,
      "Mon": 1880,
      "tle": 1881,
      "young": 1882,
      "ants": 1883,
      "mid": 1884,
      "cool": 1885,
      "fully": 1886,
      "Pre": 1887,
      "Ale": 1888,
      "road": 1889,
      "boys": 1890,
      "pas": 1891,
      "sick": 1892,
      "hospital": 1893,
      "information": 1894,
      "dist": 1895,
      "ished": 1896,
      "choice": 1897,
      "len": 1898,
      "ches": 1899,
      "drive": 1900,
      "board": 1901,
      "calling": 1902,
      "bers": 1903,
      "rad": 1904,
      "Red": 1905,
      "bye": 1906,
      "ina": 1907,
      "destroy": 1908,
      "explain": 1909,
      "others": 1910,
      "Something": 1911,
      "Fr": 1912,
      "pack": 1913,
      "either": 1914,
      "view": 1915,
      "fil": 1916,
      "ted": 1917,
      "hes": 1918,
      "somebody": 1919,
      "boss": 1920,
      "Bab": 1921,
      "pict": 1922,
      "ix": 1923,
      "ili": 1924,
      "sus": 1925,
      "Pet": 1926,
      "esca": 1927,
      "Pri": 1928,
      "mal": 1929,
      "pho": 1930,
      "ities": 1931,
      "selves": 1932,
      "Show": 1933,
      "strong": 1934,
      "date": 1935,
      "words": 1936,
      "station": 1937,
      "himself": 1938,
      "prof": 1939,
      "saved": 1940,
      "mit": 1941,
      "lar": 1942,
      "everybody": 1943,
      "Ju": 1944,
      "fut": 1945,
      "Very": 1946,
      "hite": 1947,
      "given": 1948,
      "joy": 1949,
      "sweet": 1950,
      "ring": 1951,
      "hole": 1952,
      "class": 1953,
      "Everyone": 1954,
      "Hur": 1955,
      "hate": 1956,
      "ony": 1957,
      "stupid": 1958,
      "perfect": 1959,
      "Sing": 1960,
      "Act": 1961,
      "Welcome": 1962,
      "memor": 1963,
      "ized": 1964,
      "Bar": 1965,
      "Lu": 1966,
      "Mor": 1967,
      "Chi": 1968,
      "tar": 1969,
      "shouldn": 1970,
      "hon": 1971,
      "rain": 1972,
      "50": 1973,
      "exper": 1974,
      "marriage": 1975,
      "gy": 1976,
      "born": 1977,
      "building": 1978,
      "creat": 1979,
      "respect": 1980,
      "vent": 1981,
      "fair": 1982,
      "va": 1983,
      "ON": 1984,
      "Um": 1985,
      "dle": 1986,
      "respon": 1987,
      "offe": 1988,
      "rat": 1989,
      "os": 1990,
      "\"?": 1991,
      "children": 1992,
      "future": 1993,
      "loc": 1994,
      "funny": 1995,
      "sun": 1996,
      "stra": 1997,
      "Ser": 1998,
      "hang": 1999,
      "medi": 2000,
      "vest": 2001,
      "arm": 2002,
      "ption": 2003,
      "Someone": 2004,
      "Run": 2005,
      "weeks": 2006,
      "enny": 2007,
      "hair": 2008,
      "fool": 2009,
      "ele": 2010,
      "kes": 2011,
      "living": 2012,
      "hid": 2013,
      "caught": 2014,
      "gar": 2015,
      "surpr": 2016,
      "base": 2017,
      "People": 2018,
      "Was": 2019,
      "cry": 2020,
      "yer": 2021,
      "short": 2022,
      "pur": 2023,
      "Make": 2024,
      "iot": 2025,
      "ience": 2026,
      "loved": 2027,
      "prison": 2028,
      "enter": 2029,
      "ied": 2030,
      "ided": 2031,
      "fish": 2032,
      "uation": 2033,
      "proper": 2034,
      "non": 2035,
      "vin": 2036,
      "vir": 2037,
      "aste": 2038,
      "photo": 2039,
      "dark": 2040,
      "ense": 2041,
      "stick": 2042,
      "seem": 2043,
      "sort": 2044,
      "....": 2045,
      "blow": 2046,
      "Alex": 2047,
      "umb": 2048,
      "contact": 2049,
      "Cla": 2050,
      "arri": 2051,
      "tract": 2052,
      "mach": 2053,
      "Sc": 2054,
      "ors": 2055,
      "bank": 2056,
      "mate": 2057,
      "playing": 2058,
      "Ad": 2059,
      "Li": 2060,
      "record": 2061,
      "fill": 2062,
      "meant": 2063,
      "?\"": 2064,
      "needed": 2065,
      "message": 2066,
      "oup": 2067,
      "ju": 2068,
      "changed": 2069,
      "Never": 2070,
      "ork": 2071,
      "giving": 2072,
      "join": 2073,
      "Leave": 2074,
      "mand": 2075,
      "Hmm": 2076,
      "conne": 2077,
      "works": 2078,
      "Sp": 2079,
      "ax": 2080,
      "ift": 2081,
      "command": 2082,
      "uncle": 2083,
      "ilt": 2084,
      "bri": 2085,
      "ley": 2086,
      "Back": 2087,
      "Spe": 2088,
      "apo": 2089,
      "Fine": 2090,
      "Sar": 2091,
      "Whatever": 2092,
      "Nobody": 2093,
      "IT": 2094,
      "accident": 2095,
      "Those": 2096,
      "mil": 2097,
      "sold": 2098,
      "learn": 2099,
      "Aar": 2100,
      "bird": 2101,
      "drop": 2102,
      "murder": 2103,
      "host": 2104,
      "stead": 2105,
      "path": 2106,
      "meeting": 2107,
      "slow": 2108,
      "add": 2109,
      "shall": 2110,
      "Over": 2111,
      "bat": 2112,
      "favor": 2113,
      "questions": 2114,
      "AT": 2115,
      "rup": 2116,
      "pol": 2117,
      "dangerous": 2118,
      "Watch": 2119,
      "nie": 2120,
      "present": 2121,
      "piece": 2122,
      "missing": 2123,
      "mod": 2124,
      "buddy": 2125,
      "19": 2126,
      "Gen": 2127,
      "nat": 2128,
      "mus": 2129,
      "vive": 2130,
      "certain": 2131,
      "throw": 2132,
      "Huh": 2133,
      "ani": 2134,
      "somewhere": 2135,
      "watching": 2136,
      "ention": 2137,
      "anywhere": 2138,
      "ains": 2139,
      "net": 2140,
      "je": 2141,
      "ents": 2142,
      "kept": 2143,
      "code": 2144,
      "Father": 2145,
      "Te": 2146,
      "ken": 2147,
      "feet": 2148,
      "Three": 2149,
      "seeing": 2150,
      "gentle": 2151,
      "tra": 2152,
      "super": 2153,
      "Time": 2154,
      "ution": 2155,
      "wear": 2156,
      "sell": 2157,
      "uring": 2158,
      "sl": 2159,
      "bt": 2160,
      "Mrs": 2161,
      "arr": 2162,
      "ides": 2163,
      "imag": 2164,
      "steal": 2165,
      "lad": 2166,
      "arth": 2167,
      "raw": 2168,
      "worked": 2169,
      "marry": 2170,
      "lies": 2171,
      "longer": 2172,
      "Sy": 2173,
      "aged": 2174,
      "survive": 2175,
      "state": 2176,
      "ering": 2177,
      "haps": 2178,
      "field": 2179,
      "ip": 2180,
      "por": 2181,
      "vel": 2182,
      "forgot": 2183,
      "ends": 2184,
      "risk": 2185,
      "burn": 2186,
      "Actually": 2187,
      "Jes": 2188,
      "Su": 2189,
      "arrest": 2190,
      "vern": 2191,
      "anybody": 2192,
      "program": 2193,
      "reco": 2194,
      "EN": 2195,
      "YOU": 2196,
      "undred": 2197,
      "straight": 2198,
      "deser": 2199,
      "mell": 2200,
      "begin": 2201,
      "Sim": 2202,
      "Frank": 2203,
      "terri": 2204,
      "ory": 2205,
      "Claire": 2206,
      "az": 2207,
      "quiet": 2208,
      "100": 2209,
      "stri": 2210,
      "appro": 2211,
      "Damn": 2212,
      "suit": 2213,
      "anyway": 2214,
      "project": 2215,
      "handle": 2216,
      "ale": 2217,
      "ming": 2218,
      "cook": 2219,
      "King": 2220,
      "Raj": 2221,
      "threat": 2222,
      "careful": 2223,
      "support": 2224,
      "finish": 2225,
      "Ed": 2226,
      "ety": 2227,
      "position": 2228,
      "turned": 2229,
      "Looks": 2230,
      "fell": 2231,
      "lady": 2232,
      "ress": 2233,
      "wood": 2234,
      "Bell": 2235,
      "Kate": 2236,
      "Ram": 2237,
      "solute": 2238,
      "gift": 2239,
      "asure": 2240,
      "vide": 2241,
      "iny": 2242,
      "ping": 2243,
      "star": 2244,
      "Des": 2245,
      "takes": 2246,
      "accept": 2247,
      "thanks": 2248,
      "agree": 2249,
      "ounds": 2250,
      "LL": 2251,
      "ational": 2252,
      "apart": 2253,
      "Sm": 2254,
      "Try": 2255,
      "nder": 2256,
      "felt": 2257,
      "carry": 2258,
      "fly": 2259,
      "grow": 2260,
      "ots": 2261,
      "Pap": 2262,
      "rist": 2263,
      "App": 2264,
      "sion": 2265,
      "weren": 2266,
      "weapon": 2267,
      "worried": 2268,
      "offee": 2269,
      "dou": 2270,
      "Think": 2271,
      "cons": 2272,
      "Col": 2273,
      "pal": 2274,
      "cked": 2275,
      "tiv": 2276,
      "Didn": 2277,
      "wedding": 2278,
      "kick": 2279,
      "sult": 2280,
      "seat": 2281,
      "idiot": 2282,
      "unk": 2283,
      "dance": 2284,
      "gold": 2285,
      "colle": 2286,
      "sal": 2287,
      "cap": 2288,
      "Daddy": 2289,
      "Mike": 2290,
      "belong": 2291,
      "omen": 2292,
      "ousand": 2293,
      "evidence": 2294,
      "THE": 2295,
      "files": 2296,
      "hundred": 2297,
      "rug": 2298,
      "Fe": 2299,
      "rop": 2300,
      "fear": 2301,
      "Cause": 2302,
      "main": 2303,
      "ines": 2304,
      "reach": 2305,
      "peace": 2306,
      "missed": 2307,
      "Ge": 2308,
      "\\\\": 2309,
      "ublic": 2310,
      "ked": 2311,
      "tom": 2312,
      "Im": 2313,
      "Vic": 2314,
      "oc": 2315,
      "def": 2316,
      "lucky": 2317,
      "treat": 2318,
      "seconds": 2319,
      "dinner": 2320,
      "honey": 2321,
      "reci": 2322,
      "anim": 2323,
      "ari": 2324,
      "mouth": 2325,
      "ager": 2326,
      "Alright": 2327,
      "birthday": 2328,
      "flight": 2329,
      "itor": 2330,
      "responsi": 2331,
      "DE": 2332,
      "ular": 2333,
      "space": 2334,
      "airs": 2335,
      "Jesus": 2336,
      "vernment": 2337,
      "fle": 2338,
      "iting": 2339,
      "Find": 2340,
      "hide": 2341,
      "AS": 2342,
      "sou": 2343,
      "Remember": 2344,
      "finally": 2345,
      "personal": 2346,
      "Mother": 2347,
      "Out": 2348,
      "ride": 2349,
      "viously": 2350,
      "standing": 2351,
      "Son": 2352,
      "trave": 2353,
      "Je": 2354,
      "pose": 2355,
      "11": 2356,
      "mas": 2357,
      "smell": 2358,
      "onest": 2359,
      "Should": 2360,
      "Ac": 2361,
      "card": 2362,
      "target": 2363,
      "entr": 2364,
      "exist": 2365,
      "single": 2366,
      "Ra": 2367,
      "Everybody": 2368,
      "Grand": 2369,
      "rew": 2370,
      "welcome": 2371,
      "tered": 2372,
      "defin": 2373,
      "comput": 2374,
      "Once": 2375,
      "ING": 2376,
      "seven": 2377,
      "truck": 2378,
      "spo": 2379,
      "killing": 2380,
      "smart": 2381,
      "acy": 2382,
      "dered": 2383,
      "RE": 2384,
      "village": 2385,
      "Sit": 2386,
      "flow": 2387,
      "igh": 2388,
      "wise": 2389,
      "thousand": 2390,
      "invest": 2391,
      "stopped": 2392,
      "La": 2393,
      "issu": 2394,
      "ames": 2395,
      "Check": 2396,
      "witch": 2397,
      "eld": 2398,
      "deep": 2399,
      "solutely": 2400,
      "Kill": 2401,
      "jump": 2402,
      "Really": 2403,
      "kidding": 2404,
      "dare": 2405,
      "Love": 2406,
      "opp": 2407,
      "forever": 2408,
      "capt": 2409,
      "wake": 2410,
      "keys": 2411,
      "picture": 2412,
      "ended": 2413,
      "crash": 2414,
      "dude": 2415,
      "rock": 2416,
      "teach": 2417,
      "Loc": 2418,
      "broke": 2419,
      "Turn": 2420,
      "illy": 2421,
      "lau": 2422,
      "thes": 2423,
      "nel": 2424,
      "coffee": 2425,
      "ged": 2426,
      "ific": 2427,
      "spend": 2428,
      "white": 2429,
      "across": 2430,
      "address": 2431,
      "contin": 2432,
      "IS": 2433,
      "American": 2434,
      "tech": 2435,
      "cold": 2436,
      "Pres": 2437,
      "decis": 2438,
      "deli": 2439,
      "tick": 2440,
      "bal": 2441,
      "onto": 2442,
      "Mm": 2443,
      "Par": 2444,
      "share": 2445,
      "ka": 2446,
      "aces": 2447,
      "paper": 2448,
      "San": 2449,
      "post": 2450,
      "decided": 2451,
      "force": 2452,
      "About": 2453,
      "fing": 2454,
      "itely": 2455,
      "mir": 2456,
      "sitting": 2457,
      "vol": 2458,
      "nobody": 2459,
      "Max": 2460,
      "Mad": 2461,
      "weird": 2462,
      "situation": 2463,
      "immedi": 2464,
      "Bob": 2465,
      "Lex": 2466,
      "signal": 2467,
      "stairs": 2468,
      "button": 2469,
      "'.": 2470,
      "Bet": 2471,
      "stru": 2472,
      "Tod": 2473,
      "tot": 2474,
      "looked": 2475,
      "gue": 2476,
      "built": 2477,
      "government": 2478,
      "brain": 2479,
      "Isn": 2480,
      "within": 2481,
      "stor": 2482,
      "Christ": 2483,
      "dying": 2484,
      "El": 2485,
      "middle": 2486,
      "200": 2487,
      "ached": 2488,
      "Uncle": 2489,
      "Other": 2490,
      "eight": 2491,
      "engine": 2492,
      "sea": 2493,
      "floor": 2494,
      "Aaron": 2495,
      "ey": 2496,
      "drug": 2497,
      "doubt": 2498,
      "Cha": 2499,
      "jack": 2500,
      "ras": 2501,
      "type": 2502,
      "court": 2503,
      "locked": 2504,
      "ja": 2505,
      "phy": 2506,
      "lim": 2507,
      "rob": 2508,
      "thinks": 2509,
      "rece": 2510,
      "disappe": 2511,
      "Min": 2512,
      "cir": 2513,
      "sounds": 2514,
      "Sayid": 2515,
      "instead": 2516,
      "fu": 2517,
      "ule": 2518,
      "gener": 2519,
      "lied": 2520,
      "area": 2521,
      "Cor": 2522,
      "bra": 2523,
      "uty": 2524,
      "Guys": 2525,
      "40": 2526,
      "account": 2527,
      "prove": 2528,
      "honor": 2529,
      "ric": 2530,
      "explo": 2531,
      "escape": 2532,
      "kiss": 2533,
      "iv": 2534,
      "vered": 2535,
      "text": 2536,
      "Papa": 2537,
      "camp": 2538,
      "ata": 2539,
      "hel": 2540,
      "planet": 2541,
      "brea": 2542,
      "invol": 2543,
      "evening": 2544,
      "spir": 2545,
      "avy": 2546,
      "President": 2547,
      "Cont": 2548,
      "cas": 2549,
      "cops": 2550,
      "correct": 2551,
      "simple": 2552,
      "LE": 2553,
      "ME": 2554,
      "Mart": 2555,
      "match": 2556,
      "computer": 2557,
      "NO": 2558,
      "Pl": 2559,
      "cro": 2560,
      "hmm": 2561,
      "Bu": 2562,
      "master": 2563,
      "thy": 2564,
      "era": 2565,
      "cast": 2566,
      "push": 2567,
      "sug": 2568,
      "suspect": 2569,
      "Save": 2570,
      "action": 2571,
      "hasn": 2572,
      "Dis": 2573,
      "oun": 2574,
      "worse": 2575,
      "sport": 2576,
      "calm": 2577,
      "Ve": 2578,
      "ined": 2579,
      "ances": 2580,
      "ified": 2581,
      "following": 2582,
      "suggest": 2583,
      "terror": 2584,
      "cking": 2585,
      "ource": 2586,
      "difference": 2587,
      "ues": 2588,
      "cross": 2589,
      "wat": 2590,
      "abo": 2591,
      "orders": 2592,
      "club": 2593,
      "Happ": 2594,
      "calls": 2595,
      "busy": 2596,
      "history": 2597,
      "angry": 2598,
      "crime": 2599,
      "round": 2600,
      "bear": 2601,
      "cted": 2602,
      "offer": 2603,
      "Bring": 2604,
      "ective": 2605,
      "pan": 2606,
      "table": 2607,
      "print": 2608,
      "charge": 2609,
      "attle": 2610,
      "apolog": 2611,
      "cow": 2612,
      "tight": 2613,
      "glad": 2614,
      "memory": 2615,
      "Jenny": 2616,
      "nu": 2617,
      "forward": 2618,
      "broken": 2619,
      "early": 2620,
      "miles": 2621,
      "enjoy": 2622,
      "ordin": 2623,
      "gentlemen": 2624,
      "Sup": 2625,
      "bs": 2626,
      "cing": 2627,
      "access": 2628,
      "Charles": 2629,
      "\".": 2630,
      "Cal": 2631,
      "cat": 2632,
      "ns": 2633,
      "nes": 2634,
      "tre": 2635,
      "paid": 2636,
      "Mmm": 2637,
      "street": 2638,
      "jud": 2639,
      "ks": 2640,
      "tree": 2641,
      "sess": 2642,
      "proud": 2643,
      "moved": 2644,
      "itary": 2645,
      "alright": 2646,
      "exam": 2647,
      "appreci": 2648,
      "diffic": 2649,
      "draw": 2650,
      "ties": 2651,
      "fail": 2652,
      "Du": 2653,
      "mail": 2654,
      "strange": 2655,
      "Bri": 2656,
      "Fl": 2657,
      "pop": 2658,
      "event": 2659,
      "spot": 2660,
      "patient": 2661,
      "ply": 2662,
      "amazing": 2663,
      "recogn": 2664,
      "Today": 2665,
      "Since": 2666,
      "bill": 2667,
      "da": 2668,
      "eas": 2669,
      "coun": 2670,
      "India": 2671,
      "magic": 2672,
      "radio": 2673,
      "Saw": 2674,
      "women": 2675,
      "guns": 2676,
      "swear": 2677,
      "current": 2678,
      "IC": 2679,
      "ades": 2680,
      "commun": 2681,
      "America": 2682,
      "victi": 2683,
      "Cong": 2684,
      "hung": 2685,
      "race": 2686,
      "BI": 2687,
      "hun": 2688,
      "army": 2689,
      "direct": 2690,
      "Dude": 2691,
      "park": 2692,
      "public": 2693,
      "doll": 2694,
      "ulations": 2695,
      "Agent": 2696,
      "Rus": 2697,
      "Hu": 2698,
      "squ": 2699,
      "identi": 2700,
      "group": 2701,
      "hotel": 2702,
      "thor": 2703,
      "Locke": 2704,
      "Earth": 2705,
      "York": 2706,
      "gain": 2707,
      "closed": 2708,
      "13": 2709,
      "Cop": 2710,
      "Ow": 2711,
      "lab": 2712,
      "Peter": 2713,
      "level": 2714,
      "pper": 2715,
      "rather": 2716,
      "completely": 2717,
      "pot": 2718,
      "za": 2719,
      "Off": 2720,
      "ging": 2721,
      "lly": 2722,
      "activ": 2723,
      "voice": 2724,
      "Del": 2725,
      "write": 2726,
      "gency": 2727,
      "Ha": 2728,
      "yle": 2729,
      "acher": 2730,
      "neck": 2731,
      "tired": 2732,
      "drag": 2733,
      "Last": 2734,
      "amond": 2735,
      "Lana": 2736,
      "Ms": 2737,
      "honest": 2738,
      "suc": 2739,
      "sum": 2740,
      "talked": 2741,
      "inno": 2742,
      "priv": 2743,
      "Next": 2744,
      "dig": 2745,
      "mp": 2746,
      "normal": 2747,
      ",\"": 2748,
      "Dav": 2749,
      "fur": 2750,
      "yester": 2751,
      "choose": 2752,
      "crew": 2753,
      "Wat": 2754,
      "cher": 2755,
      "lent": 2756,
      "Maj": 2757,
      "yesterday": 2758,
      "Mark": 2759,
      "Master": 2760,
      "Mac": 2761,
      "une": 2762,
      "spent": 2763,
      "More": 2764,
      "smo": 2765,
      "Bre": 2766,
      "TV": 2767,
      "uts": 2768,
      "guard": 2769,
      "ending": 2770,
      "impossible": 2771,
      "minal": 2772,
      "machine": 2773,
      "'?": 2774,
      "Jake": 2775,
      "Miles": 2776,
      "cup": 2777,
      "hearts": 2778,
      "confir": 2779,
      "Happy": 2780,
      "Shi": 2781,
      "Lon": 2782,
      "Ter": 2783,
      "thie": 2784,
      "bey": 2785,
      "feed": 2786,
      "cket": 2787,
      "ists": 2788,
      "immediately": 2789,
      "Up": 2790,
      "numbers": 2791,
      "location": 2792,
      "concer": 2793,
      "Hurry": 2794,
      "OR": 2795,
      "ts": 2796,
      "sex": 2797,
      "loves": 2798,
      "Cooper": 2799,
      "Trust": 2800,
      "emer": 2801,
      "clothes": 2802,
      "heal": 2803,
      "movie": 2804,
      "kidna": 2805,
      "Command": 2806,
      "quickly": 2807,
      "James": 2808,
      "resc": 2809,
      "otion": 2810,
      "grab": 2811,
      "mention": 2812,
      "consider": 2813,
      "stuck": 2814,
      "dep": 2815,
      "named": 2816,
      "Shall": 2817,
      "bla": 2818,
      "rout": 2819,
      "tw": 2820,
      "aff": 2821,
      "Joe": 2822,
      "Dev": 2823,
      "design": 2824,
      "fighting": 2825,
      "laugh": 2826,
      "Fred": 2827,
      "enu": 2828,
      "itch": 2829,
      "spec": 2830,
      "earth": 2831,
      "remain": 2832,
      "jail": 2833,
      "song": 2834,
      "request": 2835,
      "closer": 2836,
      "officer": 2837,
      "idge": 2838,
      "tery": 2839,
      "Sun": 2840,
      "ying": 2841,
      "cost": 2842,
      "camera": 2843,
      "High": 2844,
      "****": 2845,
      "enemy": 2846,
      "whoa": 2847,
      "prin": 2848,
      "walking": 2849,
      "ius": 2850,
      "weak": 2851,
      "pray": 2852,
      "Ready": 2853,
      "detail": 2854,
      "investig": 2855,
      "necess": 2856,
      "Has": 2857,
      "cash": 2858,
      "sometimes": 2859,
      "rules": 2860,
      "wearing": 2861,
      "Before": 2862,
      "Black": 2863,
      "16": 2864,
      "oo": 2865,
      "tern": 2866,
      "Somebody": 2867,
      "Five": 2868,
      "ben": 2869,
      "killer": 2870,
      "sad": 2871,
      "speed": 2872,
      "hood": 2873,
      "vision": 2874,
      "orge": 2875,
      "arling": 2876,
      "chick": 2877,
      "Jai": 2878,
      "US": 2879,
      "iter": 2880,
      "moon": 2881,
      "stole": 2882,
      "diamond": 2883,
      "Easy": 2884,
      "Sho": 2885,
      "gas": 2886,
      "zz": 2887,
      "dreams": 2888,
      "24": 2889,
      "nine": 2890,
      "sli": 2891,
      "agent": 2892,
      "plant": 2893,
      "Harry": 2894,
      "fan": 2895,
      "none": 2896,
      "tur": 2897,
      "blind": 2898,
      "Walt": 2899,
      "music": 2900,
      "David": 2901,
      "stat": 2902,
      "forgive": 2903,
      "relation": 2904,
      "Won": 2905,
      "cla": 2906,
      "gang": 2907,
      "assu": 2908,
      "service": 2909,
      "Perhaps": 2910,
      "fit": 2911,
      "sight": 2912,
      "shop": 2913,
      "definitely": 2914,
      "Ber": 2915,
      "Hang": 2916,
      "Use": 2917,
      "Zo": 2918,
      "beach": 2919,
      "pty": 2920,
      "ford": 2921,
      "guest": 2922,
      "heading": 2923,
      "visit": 2924,
      "ko": 2925,
      "listening": 2926,
      "gate": 2927,
      "remind": 2928,
      "soci": 2929,
      "exc": 2930,
      "yöur": 2931,
      "TO": 2932,
      "scene": 2933,
      "attention": 2934,
      "whether": 2935,
      "eth": 2936,
      "pet": 2937,
      "select": 2938,
      "realize": 2939,
      "Det": 2940,
      "river": 2941,
      "Anything": 2942,
      "figured": 2943,
      "hiding": 2944,
      "sof": 2945,
      "produ": 2946,
      "pun": 2947,
      "decision": 2948,
      "Ty": 2949,
      "cute": 2950,
      "suppose": 2951,
      "Rad": 2952,
      "ination": 2953,
      "helping": 2954,
      "glish": 2955,
      "prep": 2956,
      "Baby": 2957,
      "difficult": 2958,
      "25": 2959,
      "tu": 2960,
      "vant": 2961,
      "lfriend": 2962,
      "interested": 2963,
      "imagine": 2964,
      "innocent": 2965,
      "velo": 2966,
      "clock": 2967,
      "breath": 2968,
      "sky": 2969,
      "General": 2970,
      "bath": 2971,
      "loy": 2972,
      "Sometimes": 2973,
      "Au": 2974,
      "Fire": 2975,
      "mount": 2976,
      "imp": 2977,
      "Watson": 2978,
      "swi": 2979,
      "ref": 2980,
      "orrow": 2981,
      "appo": 2982,
      "holding": 2983,
      "promised": 2984,
      "Big": 2985,
      "Whe": 2986,
      "college": 2987,
      "ID": 2988,
      "names": 2989,
      "soul": 2990,
      "Mur": 2991,
      "Pat": 2992,
      "bother": 2993,
      "extra": 2994,
      "famili": 2995,
      "hurry": 2996,
      "appreciate": 2997,
      "Forget": 2998,
      "London": 2999,
      "Gre": 3000,
      "map": 3001,
      "third": 3002,
      "poor": 3003,
      "serve": 3004,
      "!\"": 3005,
      "sac": 3006,
      "...\"": 3007,
      "process": 3008,
      "itted": 3009,
      "girlfriend": 3010,
      "psy": 3011,
      "temple": 3012,
      "Ger": 3013,
      "Mc": 3014,
      "became": 3015,
      "ours": 3016,
      "Hen": 3017,
      "Little": 3018,
      "jour": 3019,
      "ala": 3020,
      "rich": 3021,
      "Hol": 3022,
      "ners": 3023,
      "zer": 3024,
      "owe": 3025,
      "raise": 3026,
      "Prof": 3027,
      "Ray": 3028,
      "Want": 3029,
      "jung": 3030,
      "ba": 3031,
      "og": 3032,
      "ost": 3033,
      "hal": 3034,
      "lier": 3035,
      "FBI": 3036,
      "Ri": 3037,
      "bast": 3038,
      "dir": 3039,
      "Air": 3040,
      "essor": 3041,
      "Juli": 3042,
      "receive": 3043,
      "covered": 3044,
      "Doctor": 3045,
      "problems": 3046,
      "evil": 3047,
      "ji": 3048,
      "depart": 3049,
      "driving": 3050,
      "bullet": 3051,
      "Honey": 3052,
      "wing": 3053,
      "vehi": 3054,
      "Without": 3055,
      "video": 3056,
      "Pa": 3057,
      "Phi": 3058,
      "lord": 3059,
      "mic": 3060,
      "ini": 3061,
      "els": 3062,
      "everywhere": 3063,
      "ville": 3064,
      "Copy": 3065,
      "IA": 3066,
      "Rs": 3067,
      "logy": 3068,
      "skin": 3069,
      "Wind": 3070,
      "site": 3071,
      "ury": 3072,
      "guage": 3073,
      "cars": 3074,
      "organ": 3075,
      "ural": 3076,
      "discus": 3077,
      "gress": 3078,
      "hungry": 3079,
      "appoint": 3080,
      "Rob": 3081,
      "Sa": 3082,
      "fat": 3083,
      "kno": 3084,
      "arms": 3085,
      "Step": 3086,
      "Congrat": 3087,
      "Dan": 3088,
      "Fin": 3089,
      "Prem": 3090,
      "unders": 3091,
      "English": 3092,
      "Sawyer": 3093,
      "Still": 3094,
      "jay": 3095,
      "excuse": 3096,
      "mond": 3097,
      "faster": 3098,
      "blue": 3099,
      "gger": 3100,
      "sive": 3101,
      "dev": 3102,
      "partic": 3103,
      "jungle": 3104,
      "bell": 3105,
      "active": 3106,
      "cean": 3107,
      "dire": 3108,
      "putting": 3109,
      "create": 3110,
      "tempt": 3111,
      "surprise": 3112,
      "sud": 3113,
      "Start": 3114,
      "leader": 3115,
      "Wor": 3116,
      "duty": 3117,
      "noon": 3118,
      "helped": 3119,
      "City": 3120,
      "ashed": 3121,
      "dom": 3122,
      "consc": 3123,
      "fold": 3124,
      "reading": 3125,
      "author": 3126,
      "green": 3127,
      "military": 3128,
      "diamonds": 3129,
      "Hor": 3130,
      "theart": 3131,
      "direc": 3132,
      "keeping": 3133,
      "Too": 3134,
      "freak": 3135,
      "passed": 3136,
      "weetheart": 3137,
      "Pull": 3138,
      "Talk": 3139,
      "ky": 3140,
      "lu": 3141,
      "suff": 3142,
      "Stand": 3143,
      "CH": 3144,
      "Ric": 3145,
      "buck": 3146,
      "during": 3147,
      "waste": 3148,
      "lax": 3149,
      "rench": 3150,
      "Jim": 3151,
      "tood": 3152,
      "riff": 3153,
      "tea": 3154,
      "qual": 3155,
      "weapons": 3156,
      "ron": 3157,
      "rica": 3158,
      "sudden": 3159,
      "elect": 3160,
      "Thi": 3161,
      "rt": 3162,
      "tun": 3163,
      "separ": 3164,
      "rope": 3165,
      "iling": 3166,
      "aven": 3167,
      "happie": 3168,
      "feels": 3169,
      "reng": 3170,
      "finished": 3171,
      "bloody": 3172,
      "Nik": 3173,
      "ee": 3174,
      "losing": 3175,
      "headed": 3176,
      "Enough": 3177,
      "ges": 3178,
      "wel": 3179,
      "tellig": 3180,
      "Martin": 3181,
      "14": 3182,
      "ert": 3183,
      "aret": 3184,
      "Sarah": 3185,
      "Cho": 3186,
      "Que": 3187,
      "ott": 3188,
      "failed": 3189,
      "dies": 3190,
      "further": 3191,
      "18": 3192,
      "Rah": 3193,
      "ram": 3194,
      "conv": 3195,
      "pract": 3196,
      "Select": 3197,
      "driver": 3198,
      "decide": 3199,
      "north": 3200,
      "Police": 3201,
      "ES": 3202,
      "hol": 3203,
      "chan": 3204,
      "quar": 3205,
      "bert": 3206,
      "liked": 3207,
      "medic": 3208,
      "sleeping": 3209,
      "pulled": 3210,
      "destroyed": 3211,
      "Ana": 3212,
      "Ell": 3213,
      "sna": 3214,
      "sake": 3215,
      "size": 3216,
      "rer": 3217,
      "relax": 3218,
      "itself": 3219,
      "andy": 3220,
      "upon": 3221,
      "fied": 3222,
      "crack": 3223,
      "finger": 3224,
      "involved": 3225,
      "Aw": 3226,
      "Clear": 3227,
      "fir": 3228,
      "oid": 3229,
      "ower": 3230,
      "hall": 3231,
      "hip": 3232,
      "cele": 3233,
      "urch": 3234,
      "recent": 3235,
      "LA": 3236,
      "Mommy": 3237,
      "totally": 3238,
      "Sher": 3239,
      "willing": 3240,
      "ession": 3241,
      "Pick": 3242,
      "fra": 3243,
      "ga": 3244,
      "mut": 3245,
      "itten": 3246,
      "joke": 3247,
      "terrible": 3248,
      "celebr": 3249,
      "Dor": 3250,
      "Khan": 3251,
      "ktop": 3252,
      "acting": 3253,
      "bigger": 3254,
      "color": 3255,
      "tat": 3256,
      "ona": 3257,
      "note": 3258,
      "auto": 3259,
      "lived": 3260,
      "Brit": 3261,
      "Doesn": 3262,
      "Russi": 3263,
      "ows": 3264,
      "teacher": 3265,
      "Four": 3266,
      "tit": 3267,
      "orig": 3268,
      "store": 3269,
      "empty": 3270,
      "Chris": 3271,
      "Mod": 3272,
      "pes": 3273,
      "loe": 3274,
      "amb": 3275,
      "teen": 3276,
      "emplo": 3277,
      "fresh": 3278,
      "captain": 3279,
      "KDE": 3280,
      "bing": 3281,
      "data": 3282,
      "streng": 3283,
      "aced": 3284,
      "wice": 3285,
      "hadn": 3286,
      "ortun": 3287,
      "Mal": 3288,
      "Rel": 3289,
      "repe": 3290,
      "..\"": 3291,
      "tail": 3292,
      "Chloe": 3293,
      "Roger": 3294,
      "picked": 3295,
      "jam": 3296,
      "price": 3297,
      "possib": 3298,
      "custo": 3299,
      "AND": 3300,
      "pressed": 3301,
      "Shaw": 3302,
      "copy": 3303,
      "allowed": 3304,
      "emergency": 3305,
      "Close": 3306,
      "reed": 3307,
      "rif": 3308,
      "ceed": 3309,
      "saf": 3310,
      "common": 3311,
      "except": 3312,
      "proof": 3313,
      "gives": 3314,
      "smile": 3315,
      "verse": 3316,
      "tray": 3317,
      "partner": 3318,
      "eating": 3319,
      "ergy": 3320,
      "esome": 3321,
      "rie": 3322,
      "assist": 3323,
      "survi": 3324,
      "Chappie": 3325,
      "lli": 3326,
      "faith": 3327,
      "ptions": 3328,
      "rupt": 3329,
      "Yo": 3330,
      "likes": 3331,
      "aming": 3332,
      "runk": 3333,
      "cab": 3334,
      "release": 3335,
      "anda": 3336,
      "iced": 3337,
      "comfort": 3338,
      "cious": 3339,
      "starting": 3340,
      "final": 3341,
      "medical": 3342,
      "aware": 3343,
      "client": 3344,
      "Head": 3345,
      "tie": 3346,
      "ille": 3347,
      "Shh": 3348,
      "Steve": 3349,
      "responsible": 3350,
      "Ron": 3351,
      "aur": 3352,
      "kit": 3353,
      "applic": 3354,
      "Kevin": 3355,
      "Follow": 3356,
      "Hand": 3357,
      "Same": 3358,
      "unless": 3359,
      "nother": 3360,
      "ulous": 3361,
      "film": 3362,
      "Ran": 3363,
      "fellow": 3364,
      "doors": 3365,
      "necessary": 3366,
      "origin": 3367,
      "Sur": 3368,
      "ira": 3369,
      "speci": 3370,
      "boyfriend": 3371,
      "whis": 3372,
      "convers": 3373,
      "condition": 3374,
      "Congratulations": 3375,
      "Jason": 3376,
      "ann": 3377,
      "ems": 3378,
      "nife": 3379,
      "Met": 3380,
      "hunt": 3381,
      "wers": 3382,
      "poison": 3383,
      "geant": 3384,
      "fortun": 3385,
      "exe": 3386,
      "Anyway": 3387,
      "Down": 3388,
      "pu": 3389,
      "Remove": 3390,
      "leaves": 3391,
      "daddy": 3392,
      "uthor": 3393,
      "property": 3394,
      "strength": 3395,
      "Res": 3396,
      "Ten": 3397,
      "lunch": 3398,
      "tori": 3399,
      "ourselves": 3400,
      "rap": 3401,
      "Most": 3402,
      "Ask": 3403,
      "clim": 3404,
      "polit": 3405,
      "brave": 3406,
      "above": 3407,
      "planning": 3408,
      "towards": 3409,
      "changes": 3410,
      "language": 3411,
      "Another": 3412,
      "MAN": 3413,
      "Vel": 3414,
      "pi": 3415,
      "oking": 3416,
      "eath": 3417,
      "played": 3418,
      "collect": 3419,
      "communic": 3420,
      "private": 3421,
      "Kat": 3422,
      "Ob": 3423,
      "Ooh": 3424,
      "hum": 3425,
      "ording": 3426,
      "travel": 3427,
      "Care": 3428,
      "due": 3429,
      "gal": 3430,
      "source": 3431,
      "wis": 3432,
      "tran": 3433,
      "Aren": 3434,
      "Thomas": 3435,
      "wonderful": 3436,
      "transfer": 3437,
      "Mama": 3438,
      "War": 3439,
      "battle": 3440,
      "remove": 3441,
      "Their": 3442,
      "upset": 3443,
      "heads": 3444,
      "interesting": 3445,
      "cred": 3446,
      "drunk": 3447,
      "plans": 3448,
      "themselves": 3449,
      "safety": 3450,
      "spl": 3451,
      "result": 3452,
      "hoping": 3453,
      "letter": 3454,
      "showed": 3455,
      "ladies": 3456,
      "apartment": 3457,
      "justice": 3458,
      "earlier": 3459,
      "threaten": 3460,
      "issue": 3461,
      "chat": 3462,
      "darling": 3463,
      "fate": 3464,
      "gard": 3465,
      "knife": 3466,
      "aly": 3467,
      "taught": 3468,
      "value": 3469,
      "Cur": 3470,
      "Swe": 3471,
      "fake": 3472,
      "neigh": 3473,
      "Search": 3474,
      "contain": 3475,
      "bridge": 3476,
      "ressed": 3477,
      "crap": 3478,
      "huge": 3479,
      "storm": 3480,
      "Way": 3481,
      "pil": 3482,
      "snow": 3483,
      "sco": 3484,
      "arty": 3485,
      "keeps": 3486,
      "hello": 3487,
      "murdered": 3488,
      "Delhi": 3489,
      "500": 3490,
      "ency": 3491,
      "actor": 3492,
      "clud": 3493,
      "trip": 3494,
      "Holy": 3495,
      "Priya": 3496,
      "thief": 3497,
      "WH": 3498,
      "ded": 3499,
      "inct": 3500,
      "iti": 3501,
      "weight": 3502,
      "antic": 3503,
      "develo": 3504,
      "trap": 3505,
      "success": 3506,
      "Ted": 3507,
      "Under": 3508,
      "roof": 3509,
      "rodu": 3510,
      "ify": 3511,
      "gging": 3512,
      "ledge": 3513,
      "install": 3514,
      "created": 3515,
      "woods": 3516,
      "17": 3517,
      "Wo": 3518,
      "double": 3519,
      "pred": 3520,
      "sword": 3521,
      "oned": 3522,
      "asses": 3523,
      "abad": 3524,
      "tele": 3525,
      "saving": 3526,
      "experi": 3527,
      "arrived": 3528,
      "beginning": 3529,
      "Holmes": 3530,
      "directory": 3531,
      "Mil": 3532,
      "Set": 3533,
      "option": 3534,
      "powers": 3535,
      "opportun": 3536,
      "Henry": 3537,
      "File": 3538,
      "ature": 3539,
      "Ang": 3540,
      "compet": 3541,
      "Absolutely": 3542,
      "favorite": 3543,
      "terrorist": 3544,
      "AL": 3545,
      "wound": 3546,
      "Er": 3547,
      "Free": 3548,
      "bas": 3549,
      "vac": 3550,
      "ids": 3551,
      "Anyone": 3552,
      "corner": 3553,
      "Eng": 3554,
      "learned": 3555,
      "Super": 3556,
      "Long": 3557,
      "bod": 3558,
      "south": 3559,
      "switch": 3560,
      "uc": 3561,
      "ising": 3562,
      "bug": 3563,
      "rule": 3564,
      "Calm": 3565,
      "relationship": 3566,
      "Rahul": 3567,
      "tough": 3568,
      "twice": 3569,
      "aker": 3570,
      "Anna": 3571,
      "followed": 3572,
      "ez": 3573,
      "reached": 3574,
      "vio": 3575,
      "lines": 3576,
      "vehicle": 3577,
      "NA": 3578,
      "SE": 3579,
      "bought": 3580,
      "chen": 3581,
      "ghost": 3582,
      "hig": 3583,
      "worst": 3584,
      "powerful": 3585,
      "market": 3586,
      "Queen": 3587,
      "Bill": 3588,
      "Sal": 3589,
      "tic": 3590,
      "ino": 3591,
      "research": 3592,
      "rog": 3593,
      "wild": 3594,
      "places": 3595,
      "astic": 3596,
      "ulti": 3597,
      "believed": 3598,
      "pressure": 3599,
      "Bra": 3600,
      "CO": 3601,
      "South": 3602,
      "flying": 3603,
      "xy": 3604,
      "knowing": 3605,
      "nose": 3606,
      "Anj": 3607,
      "stolen": 3608,
      "speaking": 3609,
      "continue": 3610,
      "beyond": 3611,
      "gotten": 3612,
      "lovely": 3613,
      "Small": 3614,
      "Light": 3615,
      "Mer": 3616,
      "stone": 3617,
      "pleasure": 3618,
      "ops": 3619,
      "introdu": 3620,
      "shirt": 3621,
      "painting": 3622,
      "arrange": 3623,
      "Aah": 3624,
      "Kar": 3625,
      "ado": 3626,
      "pment": 3627,
      "sam": 3628,
      "often": 3629,
      "answers": 3630,
      "written": 3631,
      "airport": 3632,
      "Guess": 3633,
      "horse": 3634,
      "claim": 3635,
      "Bea": 3636,
      "Cle": 3637,
      "Di": 3638,
      "Mill": 3639,
      "mask": 3640,
      "hai": 3641,
      "lift": 3642,
      "glass": 3643,
      "screen": 3644,
      "experience": 3645,
      "filled": 3646,
      "smoke": 3647,
      "BE": 3648,
      "loose": 3649,
      "among": 3650,
      "Morning": 3651,
      "Relax": 3652,
      "CK": 3653,
      "Hunt": 3654,
      "Lady": 3655,
      "ians": 3656,
      "pill": 3657,
      "intellig": 3658,
      "attempt": 3659,
      "energy": 3660,
      "onel": 3661,
      "user": 3662,
      "ague": 3663,
      "device": 3664,
      "tru": 3665,
      "Always": 3666,
      "freed": 3667,
      "animals": 3668,
      "Dom": 3669,
      "Hit": 3670,
      "Jane": 3671,
      "Play": 3672,
      "Six": 3673,
      "cil": 3674,
      "thin": 3675,
      "reme": 3676,
      "spades": 3677,
      "kills": 3678,
      "operation": 3679,
      "shad": 3680,
      "sweetheart": 3681,
      "asing": 3682,
      "docu": 3683,
      "lights": 3684,
      "Hurley": 3685,
      "session": 3686,
      "bathroom": 3687,
      "CIA": 3688,
      "nal": 3689,
      "tab": 3690,
      "beg": 3691,
      "vert": 3692,
      "focus": 3693,
      "gged": 3694,
      "insane": 3695,
      "Cole": 3696,
      "effect": 3697,
      "harm": 3698,
      "Tomorrow": 3699,
      "Jac": 3700,
      "Lie": 3701,
      "Ru": 3702,
      "wast": 3703,
      "lling": 3704,
      "stre": 3705,
      "pos": 3706,
      "Dear": 3707,
      "Better": 3708,
      "Ethan": 3709,
      "dan": 3710,
      "loss": 3711,
      "trad": 3712,
      "setting": 3713,
      "warm": 3714,
      "ailable": 3715,
      "books": 3716,
      "purpose": 3717,
      "Dep": 3718,
      "Sat": 3719,
      "Whit": 3720,
      "bow": 3721,
      "oth": 3722,
      "Inter": 3723,
      "opened": 3724,
      "phys": 3725,
      "Vis": 3726,
      "pair": 3727,
      "ured": 3728,
      "heavy": 3729,
      "lets": 3730,
      "destiny": 3731,
      "egg": 3732,
      "stud": 3733,
      "betray": 3734,
      "Were": 3735,
      "unit": 3736,
      "quit": 3737,
      "tells": 3738,
      "descri": 3739,
      "Both": 3740,
      "Walter": 3741,
      "deserve": 3742,
      "department": 3743,
      "Cy": 3744,
      "iam": 3745,
      "pic": 3746,
      "arely": 3747,
      "usually": 3748,
      "realized": 3749,
      "staying": 3750,
      "Probably": 3751,
      "queen": 3752,
      "breathe": 3753,
      "princess": 3754,
      "Pret": 3755,
      "ference": 3756,
      "dropped": 3757,
      "rish": 3758,
      "sca": 3759,
      "ises": 3760,
      "60": 3761,
      "fed": 3762,
      "local": 3763,
      "spare": 3764,
      "wrote": 3765,
      "breaking": 3766,
      "flu": 3767,
      "Emily": 3768,
      "recognize": 3769,
      "opportunity": 3770,
      "GH": 3771,
      "Jan": 3772,
      "robot": 3773,
      "alley": 3774,
      "ctions": 3775,
      "shoes": 3776,
      "Exactly": 3777,
      "birds": 3778,
      "bound": 3779,
      "icide": 3780,
      "noticed": 3781,
      "proto": 3782,
      "asshole": 3783,
      "spector": 3784,
      "afternoon": 3785,
      "hearing": 3786,
      "vices": 3787,
      "Singh": 3788,
      "Auto": 3789,
      "Send": 3790,
      "bunch": 3791,
      "stall": 3792,
      "tort": 3793,
      "older": 3794,
      "shooting": 3795,
      "Richard": 3796,
      "Ever": 3797,
      "odd": 3798,
      "complic": 3799,
      "Barry": 3800,
      "ordinary": 3801,
      "Detective": 3802,
      "British": 3803,
      "Lin": 3804,
      "Ren": 3805,
      "Rep": 3806,
      "lor": 3807,
      "reck": 3808,
      "ica": 3809,
      "marks": 3810,
      "understood": 3811,
      "bodies": 3812,
      "Lad": 3813,
      "iculous": 3814,
      "whose": 3815,
      "raised": 3816,
      "checked": 3817,
      "appear": 3818,
      "surprised": 3819,
      "George": 3820,
      "Blo": 3821,
      "Bur": 3822,
      "apped": 3823,
      "Aust": 3824,
      "Ba": 3825,
      "Cut": 3826,
      "Walk": 3827,
      "ban": 3828,
      "crow": 3829,
      "stars": 3830,
      "sever": 3831,
      "achel": 3832,
      "advice": 3833,
      "image": 3834,
      "bleed": 3835,
      "letting": 3836,
      "secure": 3837,
      "falling": 3838,
      "witness": 3839,
      "spoke": 3840,
      "Professor": 3841,
      "conscious": 3842,
      "Far": 3843,
      "French": 3844,
      "Liz": 3845,
      "Mag": 3846,
      "Name": 3847,
      "sile": 3848,
      "arently": 3849,
      "goddamn": 3850,
      "Add": 3851,
      "route": 3852,
      "conversation": 3853,
      "Jin": 3854,
      "Sus": 3855,
      "Sounds": 3856,
      "ese": 3857,
      "iet": 3858,
      "ki": 3859,
      "sand": 3860,
      "itude": 3861,
      "scare": 3862,
      "tax": 3863,
      "attacked": 3864,
      "connection": 3865,
      "details": 3866,
      "Hank": 3867,
      "Lau": 3868,
      "Nar": 3869,
      "vous": 3870,
      "inde": 3871,
      "games": 3872,
      "bullshit": 3873,
      "clubs": 3874,
      "rit": 3875,
      "sn": 3876,
      "absolutely": 3877,
      "Sean": 3878,
      "male": 3879,
      "surve": 3880,
      "training": 3881,
      "bi": 3882,
      "dick": 3883,
      "pus": 3884,
      "warri": 3885,
      "Unless": 3886,
      "Coll": 3887,
      "tattoo": 3888,
      "Dou": 3889,
      "style": 3890,
      "formed": 3891,
      "West": 3892,
      "impress": 3893,
      "feelings": 3894,
      "criminal": 3895,
      "seriously": 3896,
      "Grandpa": 3897,
      "...!": 3898,
      "agreed": 3899,
      "manager": 3900,
      "permission": 3901,
      "available": 3902,
      "sending": 3903,
      "photogra": 3904,
      "responsib": 3905,
      "Sherlock": 3906,
      "Cass": 3907,
      "Mary": 3908,
      "Sub": 3909,
      "Wall": 3910,
      "ald": 3911,
      "plug": 3912,
      "finding": 3913,
      "Secur": 3914,
      "starts": 3915,
      "Indian": 3916,
      "Simon": 3917,
      "Veer": 3918,
      "HE": 3919,
      "ears": 3920,
      "ior": 3921,
      "jor": 3922,
      "ray": 3923,
      "lawyer": 3924,
      "dollars": 3925,
      "bes": 3926,
      "hired": 3927,
      "usual": 3928,
      "atest": 3929,
      "nights": 3930,
      "chair": 3931,
      "selected": 3932,
      "Chand": 3933,
      "UR": 3934,
      "fet": 3935,
      "ability": 3936,
      "fucker": 3937,
      "Drop": 3938,
      "None": 3939,
      "VE": 3940,
      "phi": 3941,
      "beer": 3942,
      "monster": 3943,
      "Security": 3944,
      "Day": 3945,
      "Home": 3946,
      "Must": 3947,
      "held": 3948,
      "neither": 3949,
      "cock": 3950,
      "breakfast": 3951,
      "Blue": 3952,
      "natural": 3953,
      "Vas": 3954,
      "ered": 3955,
      "py": 3956,
      "yan": 3957,
      "bel": 3958,
      "havi": 3959,
      "atell": 3960,
      "forest": 3961,
      "brothers": 3962,
      "commit": 3963,
      "ticket": 3964,
      "judge": 3965,
      "White": 3966,
      "ism": 3967,
      "hatch": 3968,
      "ada": 3969,
      "usion": 3970,
      "pregn": 3971,
      "fixed": 3972,
      "spirit": 3973,
      "Kent": 3974,
      "akh": 3975,
      "fired": 3976,
      "assign": 3977,
      "shame": 3978,
      "warning": 3979,
      "blame": 3980,
      "RO": 3981,
      "teeth": 3982,
      "complain": 3983,
      "fol": 3984,
      "agement": 3985,
      "remote": 3986,
      "aniel": 3987,
      "drugs": 3988,
      "Build": 3989,
      "dirty": 3990,
      "nur": 3991,
      "knowledge": 3992,
      "whom": 3993,
      "inese": 3994,
      "runs": 3995,
      "famous": 3996,
      "Until": 3997,
      "Hope": 3998,
      "animal": 3999,
      "rescue": 4000,
      "neighbor": 4001,
      "nam": 4002,
      "uses": 4003,
      "interview": 4004,
      "papa": 4005,
      "Singham": 4006,
      "Offic": 4007,
      "chicken": 4008,
      "Window": 4009,
      "mile": 4010,
      "issed": 4011,
      "season": 4012,
      "demon": 4013,
      "suicide": 4014,
      "grade": 4015,
      "mary": 4016,
      "cellent": 4017,
      "wondering": 4018,
      "Dri": 4019,
      "dry": 4020,
      "zen": 4021,
      "itions": 4022,
      "upstairs": 4023,
      "scri": 4024,
      "papers": 4025,
      "entral": 4026,
      "Sweet": 4027,
      "Na": 4028,
      "Tri": 4029,
      "Wake": 4030,
      "rough": 4031,
      "armed": 4032,
      "aside": 4033,
      "ayud": 4034,
      "rub": 4035,
      "settle": 4036,
      "charac": 4037,
      "BAR": 4038,
      "dumb": 4039,
      "taste": 4040,
      "west": 4041,
      "roe": 4042,
      "unny": 4043,
      "bling": 4044,
      "walked": 4045,
      "Minister": 4046,
      "Velayud": 4047,
      "Bes": 4048,
      "Lou": 4049,
      "Night": 4050,
      "oil": 4051,
      "reli": 4052,
      "sees": 4053,
      "enn": 4054,
      "alli": 4055,
      "ura": 4056,
      "mob": 4057,
      "ulation": 4058,
      "block": 4059,
      "flat": 4060,
      "strike": 4061,
      "disappear": 4062,
      "Russian": 4063,
      "kitchen": 4064,
      "Eu": 4065,
      "fy": 4066,
      "gri": 4067,
      "tour": 4068,
      "below": 4069,
      "ashing": 4070,
      "priest": 4071,
      "ridiculous": 4072,
      "North": 4073,
      "Monroe": 4074,
      "pictures": 4075,
      "nature": 4076,
      "deliver": 4077,
      "victim": 4078,
      "confirm": 4079,
      "original": 4080,
      "Oli": 4081,
      "ocean": 4082,
      "page": 4083,
      "regu": 4084,
      "asha": 4085,
      "alf": 4086,
      "incident": 4087,
      "mirac": 4088,
      "counter": 4089,
      "Know": 4090,
      "mber": 4091,
      "dial": 4092,
      "Chinese": 4093,
      "greatest": 4094,
      "clearly": 4095,
      "ounce": 4096,
      "Shoot": 4097,
      "ummy": 4098,
      "sched": 4099,
      "Things": 4100,
      "bringing": 4101,
      "iction": 4102,
      "solve": 4103,
      "madam": 4104,
      "particular": 4105,
      "Fran": 4106,
      "bust": 4107,
      "mend": 4108,
      "vey": 4109,
      "iously": 4110,
      "dogs": 4111,
      "instru": 4112,
      "apologize": 4113,
      "pilot": 4114,
      "Velayudham": 4115,
      "fund": 4116,
      "iers": 4117,
      "sat": 4118,
      "uk": 4119,
      "meters": 4120,
      "andu": 4121,
      "rious": 4122,
      "matters": 4123,
      "Att": 4124,
      "searching": 4125,
      "steps": 4126,
      "hidden": 4127,
      "crying": 4128,
      "comfortable": 4129,
      "Gir": 4130,
      "Snow": 4131,
      "pants": 4132,
      "habit": 4133,
      "achi": 4134,
      "contract": 4135,
      "obviously": 4136,
      "cameras": 4137,
      "United": 4138,
      "chall": 4139,
      "humans": 4140,
      "arrested": 4141,
      "summer": 4142,
      "several": 4143,
      "Dire": 4144,
      "rate": 4145,
      "perhaps": 4146,
      "prefer": 4147,
      "venge": 4148,
      "avoid": 4149,
      "turns": 4150,
      "nonsense": 4151,
      "virus": 4152,
      "circ": 4153,
      "Ladies": 4154,
      "gers": 4155,
      "oja": 4156,
      "wave": 4157,
      "ander": 4158,
      "ods": 4159,
      "grad": 4160,
      "bottom": 4161,
      "Bella": 4162,
      "Mind": 4163,
      "ral": 4164,
      "stage": 4165,
      "los": 4166,
      "ender": 4167,
      "chief": 4168,
      "milk": 4169,
      "prints": 4170,
      "Pretty": 4171,
      "Rain": 4172,
      "sle": 4173,
      "staff": 4174,
      "likely": 4175,
      "stories": 4176,
      "States": 4177,
      "walls": 4178,
      "Hugo": 4179,
      "assume": 4180,
      "mi": 4181,
      "lete": 4182,
      "wire": 4183,
      "Star": 4184,
      "compan": 4185,
      "awesome": 4186,
      "bottle": 4187,
      "ITT": 4188,
      "psycho": 4189,
      "Mex": 4190,
      "bid": 4191,
      "equi": 4192,
      "ugin": 4193,
      "ern": 4194,
      "nowhere": 4195,
      "amount": 4196,
      "function": 4197,
      "secrets": 4198,
      "package": 4199,
      "Scott": 4200,
      "received": 4201,
      "Again": 4202,
      "Bad": 4203,
      "hary": 4204,
      "pin": 4205,
      "ssed": 4206,
      "atic": 4207,
      "heli": 4208,
      "prov": 4209,
      "lotte": 4210,
      "license": 4211,
      "trigger": 4212,
      "unior": 4213,
      "freedom": 4214,
      "AM": 4215,
      "Greet": 4216,
      "IR": 4217,
      "aunt": 4218,
      "fli": 4219,
      "rot": 4220,
      "sequ": 4221,
      "pocket": 4222,
      "Goodbye": 4223,
      "Roy": 4224,
      "Grace": 4225,
      "grandpa": 4226,
      "loaded": 4227,
      "incred": 4228,
      "approach": 4229,
      "disappeared": 4230,
      "Besides": 4231,
      "Ly": 4232,
      "cous": 4233,
      "link": 4234,
      "rush": 4235,
      "staring": 4236,
      "myster": 4237,
      "wash": 4238,
      "biggest": 4239,
      "Alad": 4240,
      "points": 4241,
      "legs": 4242,
      "battery": 4243,
      "survived": 4244,
      "recently": 4245,
      "Old": 4246,
      "Park": 4247,
      "Tony": 4248,
      "loud": 4249,
      "mix": 4250,
      "scan": 4251,
      "admit": 4252,
      "unty": 4253,
      "Africa": 4254,
      "Quick": 4255,
      "extreme": 4256,
      "escaped": 4257,
      "hunting": 4258,
      "journey": 4259,
      "responsibility": 4260,
      "aa": 4261,
      "national": 4262,
      "tank": 4263,
      "tha": 4264,
      "trapped": 4265,
      "stranger": 4266,
      "study": 4267,
      "drinking": 4268,
      "Chief": 4269,
      "capable": 4270,
      "excited": 4271,
      "bastard": 4272,
      "Mexic": 4273,
      "'%": 4274,
      "Hard": 4275,
      "cake": 4276,
      "cream": 4277,
      "Life": 4278,
      "easily": 4279,
      "surveill": 4280,
      "Bor": 4281,
      "Greg": 4282,
      "Str": 4283,
      "thro": 4284,
      "reve": 4285,
      "somehow": 4286,
      "herself": 4287,
      "erson": 4288,
      "courage": 4289,
      "appears": 4290,
      "subject": 4291,
      "victims": 4292,
      "Juliet": 4293,
      "mass": 4294,
      "ore": 4295,
      "phe": 4296,
      "sor": 4297,
      "lover": 4298,
      "church": 4299,
      "agon": 4300,
      "scar": 4301,
      "members": 4302,
      "chain": 4303,
      "evac": 4304,
      "trick": 4305,
      "pieces": 4306,
      "Nick": 4307,
      "_BAR": 4308,
      "tall": 4309,
      "aband": 4310,
      "meaning": 4311,
      "wenty": 4312,
      "paying": 4313,
      "distance": 4314,
      "Aladin": 4315,
      "_BAR_": 4316,
      "mot": 4317,
      "range": 4318,
      "posed": 4319,
      "bless": 4320,
      "serv": 4321,
      "directly": 4322,
      "Ass": 4323,
      "DNA": 4324,
      "satell": 4325,
      "tire": 4326,
      "cases": 4327,
      "pool": 4328,
      "ils": 4329,
      "beauty": 4330,
      "profile": 4331,
      "familiar": 4332,
      "Had": 4333,
      "Nia": 4334,
      "Pal": 4335,
      "ST": 4336,
      "suck": 4337,
      "science": 4338,
      "grown": 4339,
      "major": 4340,
      "shows": 4341,
      "Johnny": 4342,
      "profession": 4343,
      "large": 4344,
      "application": 4345,
      "Sister": 4346,
      "sin": 4347,
      "ites": 4348,
      "notice": 4349,
      "percent": 4350,
      "launch": 4351,
      "State": 4352,
      "lands": 4353,
      "kingdom": 4354,
      "wheel": 4355,
      "memories": 4356,
      "records": 4357,
      "thousands": 4358,
      "discuss": 4359,
      "suddenly": 4360,
      "Metro": 4361,
      "pregnant": 4362,
      "Seven": 4363,
      "kne": 4364,
      "itiz": 4365,
      "ara": 4366,
      "Coming": 4367,
      "easier": 4368,
      "turning": 4369,
      "bucks": 4370,
      "Whitney": 4371,
      "includ": 4372,
      "ources": 4373,
      "chest": 4374,
      "minister": 4375,
      "Seenu": 4376,
      "vili": 4377,
      "belongs": 4378,
      "Otherwise": 4379,
      "Control": 4380,
      "Mu": 4381,
      "Rose": 4382,
      "Ver": 4383,
      "lap": 4384,
      "zed": 4385,
      "ased": 4386,
      "talent": 4387,
      "stayed": 4388,
      "shift": 4389,
      "craft": 4390,
      "Robert": 4391,
      "ators": 4392,
      "balls": 4393,
      "soldier": 4394,
      "forgotten": 4395,
      "Dar": 4396,
      "Luthor": 4397,
      "Wil": 4398,
      "Its": 4399,
      "dont": 4400,
      "progress": 4401,
      "finds": 4402,
      "embar": 4403,
      "champ": 4404,
      "nearly": 4405,
      "example": 4406,
      "lliant": 4407,
      "execut": 4408,
      "Tur": 4409,
      "aches": 4410,
      "raft": 4411,
      "spy": 4412,
      "ruit": 4413,
      "Boy": 4414,
      "president": 4415,
      "Mori": 4416,
      "strugg": 4417,
      "Greetings": 4418,
      "CE": 4419,
      "Mat": 4420,
      "kin": 4421,
      "requi": 4422,
      "ats": 4423,
      "units": 4424,
      "demand": 4425,
      "ease": 4426,
      "grandfather": 4427,
      "AP": 4428,
      "Wr": 4429,
      "font": 4430,
      "itz": 4431,
      "enem": 4432,
      "tian": 4433,
      "esty": 4434,
      "tape": 4435,
      "ruin": 4436,
      "Tommy": 4437,
      "flowers": 4438,
      "Duke": 4439,
      "helicop": 4440,
      "Moriarty": 4441,
      "Jer": 4442,
      "OL": 4443,
      "Ral": 4444,
      "Rachel": 4445,
      "ech": 4446,
      "hook": 4447,
      "William": 4448,
      "simply": 4449,
      "connected": 4450,
      "ED": 4451,
      "fif": 4452,
      "belt": 4453,
      "guards": 4454,
      "distur": 4455,
      "Victor": 4456,
      "breathing": 4457,
      "status": 4458,
      "Officer": 4459,
      "23": 4460,
      "End": 4461,
      "fla": 4462,
      "ices": 4463,
      "nervous": 4464,
      "genius": 4465,
      "defense": 4466,
      "kidnapped": 4467,
      "prepared": 4468,
      "\"%": 4469,
      "Sen": 4470,
      "Water": 4471,
      "ker": 4472,
      "pir": 4473,
      "expen": 4474,
      "Thought": 4475,
      "mental": 4476,
      "served": 4477,
      "showing": 4478,
      "Zoe": 4479,
      "soft": 4480,
      "Files": 4481,
      "KITT": 4482,
      "Slow": 4483,
      "error": 4484,
      "Whoever": 4485,
      "brings": 4486,
      "Install": 4487,
      "writing": 4488,
      "izing": 4489,
      "sym": 4490,
      "effort": 4491,
      "brief": 4492,
      "mountain": 4493,
      "Careful": 4494,
      "enemies": 4495,
      "Either": 4496,
      "Full": 4497,
      "Hanna": 4498,
      "Kal": 4499,
      "ashes": 4500,
      "forced": 4501,
      "Charlotte": 4502,
      "tracking": 4503,
      "polis": 4504,
      "elder": 4505,
      "Commander": 4506,
      "dressed": 4507,
      "derer": 4508,
      "aint": 4509,
      "quire": 4510,
      "Class": 4511,
      "version": 4512,
      "Whether": 4513,
      "pup": 4514,
      "stit": 4515,
      "ena": 4516,
      "outta": 4517,
      "Sheriff": 4518,
      "ester": 4519,
      "licy": 4520,
      "damage": 4521,
      "millions": 4522,
      "hanging": 4523,
      "occur": 4524,
      "possibly": 4525,
      "intelligence": 4526,
      "cousin": 4527,
      "Sw": 4528,
      "rant": 4529,
      "incre": 4530,
      "stab": 4531,
      "inda": 4532,
      "trade": 4533,
      "owner": 4534,
      "buried": 4535,
      "sence": 4536,
      "fected": 4537,
      "Seriously": 4538,
      "medicine": 4539,
      "complicated": 4540,
      "Bat": 4541,
      "Eli": 4542,
      "East": 4543,
      "Him": 4544,
      "Kitt": 4545,
      "fant": 4546,
      "wet": 4547,
      "bered": 4548,
      "behavi": 4549,
      "lia": 4550,
      "pee": 4551,
      "spread": 4552,
      "emotion": 4553,
      "lots": 4554,
      "rows": 4555,
      "Bobby": 4556,
      "direction": 4557,
      "Europe": 4558,
      "Hy": 4559,
      "IM": 4560,
      "Rome": 4561,
      "Ton": 4562,
      "cure": 4563,
      "sters": 4564,
      "utter": 4565,
      "ilty": 4566,
      "stock": 4567,
      "dington": 4568,
      "loyal": 4569,
      "convince": 4570,
      "Aye": 4571,
      "Daniel": 4572,
      "Fair": 4573,
      "Vir": 4574,
      "barely": 4575,
      "fas": 4576,
      "sw": 4577,
      "iding": 4578,
      "lyn": 4579,
      "happiness": 4580,
      "Doc": 4581,
      "borrow": 4582,
      "trained": 4583,
      "wallet": 4584,
      "Speak": 4585,
      "nuclear": 4586,
      "zero": 4587,
      "Ralph": 4588,
      "AD": 4589,
      "Da": 4590,
      "ELL": 4591,
      "Fa": 4592,
      "House": 4593,
      "Sum": 4594,
      "cru": 4595,
      "ences": 4596,
      "liar": 4597,
      "rick": 4598,
      "mov": 4599,
      "Andrew": 4600,
      "trail": 4601,
      "whoever": 4602,
      "understanding": 4603,
      "Josh": 4604,
      "Program": 4605,
      "windows": 4606,
      "faces": 4607,
      "Colonel": 4608,
      "surveillance": 4609,
      "Mess": 4610,
      "Sund": 4611,
      "bass": 4612,
      "ders": 4613,
      "fought": 4614,
      "silly": 4615,
      "xim": 4616,
      "thur": 4617,
      "placed": 4618,
      "carefully": 4619,
      "certainly": 4620,
      "laughing": 4621,
      "Thir": 4622,
      "credit": 4623,
      "truly": 4624,
      "plugins": 4625,
      "90": 4626,
      "Cour": 4627,
      "SP": 4628,
      "mort": 4629,
      "pig": 4630,
      "rab": 4631,
      "hack": 4632,
      "rav": 4633,
      "shell": 4634,
      "Stu": 4635,
      "intu": 4636,
      "cares": 4637,
      "Guy": 4638,
      "Fucking": 4639,
      "June": 4640,
      "trees": 4641,
      "fortunately": 4642,
      "OO": 4643,
      "Tre": 4644,
      "dome": 4645,
      "gative": 4646,
      "rise": 4647,
      "ued": 4648,
      "rik": 4649,
      "ribut": 4650,
      "ador": 4651,
      "blew": 4652,
      "Street": 4653,
      "Shan": 4654,
      "thoughts": 4655,
      "chose": 4656,
      "awn": 4657,
      "tower": 4658,
      "expected": 4659,
      "Reddington": 4660,
      "properly": 4661,
      "vantage": 4662,
      "Death": 4663,
      "lakh": 4664,
      "former": 4665,
      "nology": 4666,
      "Though": 4667,
      "handsome": 4668,
      "closing": 4669,
      "rison": 4670,
      "Carl": 4671,
      "tunnel": 4672,
      "rifice": 4673,
      "Bus": 4674,
      "dump": 4675,
      "pse": 4676,
      "org": 4677,
      "stable": 4678,
      "rocks": 4679,
      "defe": 4680,
      "blast": 4681,
      "confused": 4682,
      "Prin": 4683,
      "Metropolis": 4684,
      "Az": 4685,
      "Ce": 4686,
      "Gun": 4687,
      "Ryan": 4688,
      "Sel": 4689,
      "avi": 4690,
      "bone": 4691,
      "bright": 4692,
      "cod": 4693,
      "elo": 4694,
      "ano": 4695,
      "tel": 4696,
      "acks": 4697,
      "seemed": 4698,
      "ilities": 4699,
      "fucked": 4700,
      "investigation": 4701,
      "300": 4702,
      "nuts": 4703,
      "patch": 4704,
      "heat": 4705,
      "holes": 4706,
      "shout": 4707,
      "goodbye": 4708,
      "umber": 4709,
      "display": 4710,
      "Forgive": 4711,
      "Boss": 4712,
      "committed": 4713,
      "bury": 4714,
      "swim": 4715,
      "Alice": 4716,
      "Vik": 4717,
      "eh": 4718,
      "associ": 4719,
      "ache": 4720,
      "deck": 4721,
      "romise": 4722,
      "Almost": 4723,
      "folks": 4724,
      "Oliver": 4725,
      "Count": 4726,
      "pit": 4727,
      "rac": 4728,
      "wide": 4729,
      "asleep": 4730,
      "Beli": 4731,
      "cia": 4732,
      "disappoint": 4733,
      "Project": 4734,
      "pulling": 4735,
      "giant": 4736,
      "offici": 4737,
      "passport": 4738,
      "sacrifice": 4739,
      "Paul": 4740,
      "knock": 4741,
      "Hot": 4742,
      "Nic": 4743,
      "cig": 4744,
      "arant": 4745,
      "eds": 4746,
      "iron": 4747,
      "fest": 4748,
      "cave": 4749,
      "butter": 4750,
      "Lock": 4751,
      "divor": 4752,
      "Chang": 4753,
      "Shre": 4754,
      "moves": 4755,
      "Force": 4756,
      "ava": 4757,
      "Except": 4758,
      "syn": 4759,
      "watched": 4760,
      "concerned": 4761,
      "punish": 4762,
      "helicopter": 4763,
      "Gent": 4764,
      "Jay": 4765,
      "Luck": 4766,
      "center": 4767,
      "gs": 4768,
      "ov": 4769,
      "sne": 4770,
      "ston": 4771,
      "comb": 4772,
      "exit": 4773,
      "shel": 4774,
      "monitor": 4775,
      "controll": 4776,
      "udhe": 4777,
      "earn": 4778,
      "solution": 4779,
      "carrying": 4780,
      "fuel": 4781,
      "22": 4782,
      "Rem": 4783,
      "Tay": 4784,
      "bite": 4785,
      "cards": 4786,
      "ita": 4787,
      "actions": 4788,
      "object": 4789,
      "Annie": 4790,
      "ruined": 4791,
      "visible": 4792,
      "Brand": 4793,
      "Christmas": 4794,
      "Majesty": 4795,
      "designed": 4796,
      "repeat": 4797,
      "sample": 4798,
      "bleeding": 4799,
      "warrior": 4800,
      "Tonight": 4801,
      "Dy": 4802,
      "bike": 4803,
      "rum": 4804,
      "rill": 4805,
      "sail": 4806,
      "quer": 4807,
      "talks": 4808,
      "shock": 4809,
      "identity": 4810,
      "Prince": 4811,
      "title": 4812,
      "Wayne": 4813,
      "Jacob": 4814,
      "Eat": 4815,
      "Vin": 4816,
      "nar": 4817,
      "tap": 4818,
      "shar": 4819,
      "trace": 4820,
      "dia": 4821,
      "planned": 4822,
      "based": 4823,
      "Pintu": 4824,
      "Tor": 4825,
      "citiz": 4826,
      "hitting": 4827,
      "wa": 4828,
      "online": 4829,
      "entered": 4830,
      "arts": 4831,
      "exact": 4832,
      "Soon": 4833,
      "career": 4834,
      "checking": 4835,
      "destru": 4836,
      "picking": 4837,
      "murderer": 4838,
      "universe": 4839,
      "umbai": 4840,
      "soldiers": 4841,
      "celebrate": 4842,
      "Susan": 4843,
      "Shannon": 4844,
      "Gand": 4845,
      "Mand": 4846,
      "PD": 4847,
      "lam": 4848,
      "lake": 4849,
      "revenge": 4850,
      "plugin": 4851,
      "commend": 4852,
      "yellow": 4853,
      "via": 4854,
      "shower": 4855,
      "opening": 4856,
      "flash": 4857,
      "higher": 4858,
      "movies": 4859,
      "Catch": 4860,
      "Lor": 4861,
      "ato": 4862,
      "root": 4863,
      "traf": 4864,
      "useless": 4865,
      "east": 4866,
      "angers": 4867,
      "Whoo": 4868,
      "abled": 4869,
      "Ange": 4870,
      "civili": 4871,
      "surround": 4872,
      "Grab": 4873,
      "deter": 4874,
      "itional": 4875,
      "relative": 4876,
      "connect": 4877,
      "Special": 4878,
      "Desktop": 4879,
      "Smallville": 4880,
      "Each": 4881,
      "Tar": 4882,
      "cise": 4883,
      "glo": 4884,
      "rible": 4885,
      "nty": 4886,
      "anya": 4887,
      "policy": 4888,
      "afford": 4889,
      "emp": 4890,
      "speech": 4891,
      "restaur": 4892,
      "messages": 4893,
      "coln": 4894,
      "bags": 4895,
      "regret": 4896,
      "Pete": 4897,
      "elev": 4898,
      "Green": 4899,
      "split": 4900,
      "traffic": 4901,
      "Bal": 4902,
      "Billy": 4903,
      "Cli": 4904,
      "DO": 4905,
      "Fle": 4906,
      "Van": 4907,
      "cam": 4908,
      "cles": 4909,
      "nic": 4910,
      "theory": 4911,
      "alous": 4912,
      "uten": 4913,
      "distract": 4914,
      "phan": 4915,
      "phones": 4916,
      "shake": 4917,
      "crimin": 4918,
      "leads": 4919,
      "returned": 4920,
      "Flash": 4921,
      "billion": 4922,
      "assistant": 4923,
      "Taylor": 4924,
      "AY": 4925,
      "ET": 4926,
      "Ear": 4927,
      "Mumbai": 4928,
      "OF": 4929,
      "bon": 4930,
      "inju": 4931,
      "plenty": 4932,
      "brace": 4933,
      "parts": 4934,
      "reports": 4935,
      "facility": 4936,
      "vault": 4937,
      "issues": 4938,
      "\"...": 4939,
      "VER": 4940,
      "Yö": 4941,
      "hh": 4942,
      "rand": 4943,
      "anny": 4944,
      "tied": 4945,
      "ables": 4946,
      "disk": 4947,
      "ships": 4948,
      "formation": 4949,
      "Quiet": 4950,
      "official": 4951,
      "Lucy": 4952,
      "Victori": 4953,
      "tickets": 4954,
      "Med": 4955,
      "Rick": 4956,
      "Tex": 4957,
      "Tra": 4958,
      "ito": 4959,
      "alarm": 4960,
      "acon": 4961,
      "uru": 4962,
      "warn": 4963,
      "trusted": 4964,
      "curse": 4965,
      "Previously": 4966,
      "xygen": 4967,
      "Vasu": 4968,
      "miracle": 4969,
      "equipment": 4970,
      "Work": 4971,
      "gree": 4972,
      "isa": 4973,
      "farm": 4974,
      "Paris": 4975,
      "employe": 4976,
      "45": 4977,
      "70": 4978,
      "Till": 4979,
      "san": 4980,
      "tag": 4981,
      "rend": 4982,
      "ading": 4983,
      "loser": 4984,
      "hoo": 4985,
      "oker": 4986,
      "cel": 4987,
      "useful": 4988,
      "guilty": 4989,
      "Change": 4990,
      "supp": 4991,
      "desk": 4992,
      "fallen": 4993,
      "expert": 4994,
      "selling": 4995,
      "loyd": 4996,
      "Christian": 4997,
      "Lincoln": 4998,
      "regular": 4999,
      "42": 5000,
      "ALL": 5001,
      "nation": 5002,
      "vour": 5003,
      "thetic": 5004,
      "educ": 5005,
      "ays": 5006,
      "mood": 5007,
      "elly": 5008,
      "Dead": 5009,
      "jobs": 5010,
      "Guard": 5011,
      "tests": 5012,
      "Maya": 5013,
      "kicked": 5014,
      "total": 5015,
      "benef": 5016,
      "illegal": 5017,
      "climb": 5018,
      "character": 5019,
      "Cra": 5020,
      "sty": 5021,
      "advantage": 5022,
      "oken": 5023,
      "delay": 5024,
      "ila": 5025,
      "stopping": 5026,
      "spell": 5027,
      "hurts": 5028,
      "shots": 5029,
      "reasons": 5030,
      "Caes": 5031,
      "officers": 5032,
      "viron": 5033,
      "Eddie": 5034,
      "Madam": 5035,
      "World": 5036,
      "streets": 5037,
      "Victoria": 5038,
      "Fish": 5039,
      "Hob": 5040,
      "Krish": 5041,
      "Mid": 5042,
      "Yet": 5043,
      "ole": 5044,
      "options": 5045,
      "tiny": 5046,
      "remem": 5047,
      "tial": 5048,
      "noise": 5049,
      "assass": 5050,
      "shield": 5051,
      "ski": 5052,
      "click": 5053,
      "While": 5054,
      "respond": 5055,
      "grav": 5056,
      "expecting": 5057,
      "brilliant": 5058,
      "Apple": 5059,
      "palace": 5060,
      "volution": 5061,
      ".,": 5062,
      "Hail": 5063,
      "Sant": 5064,
      "gro": 5065,
      "yard": 5066,
      "youn": 5067,
      "section": 5068,
      "fection": 5069,
      "terms": 5070,
      "Goa": 5071,
      "reality": 5072,
      "Haven": 5073,
      "signed": 5074,
      "whenever": 5075,
      "sweetie": 5076,
      "Maxim": 5077,
      "introduce": 5078,
      "Gentle": 5079,
      "Bank": 5080,
      "Nah": 5081,
      "ht": 5082,
      "mater": 5083,
      "anc": 5084,
      "ofield": 5085,
      "bru": 5086,
      "ully": 5087,
      "ization": 5088,
      "Devi": 5089,
      "desper": 5090,
      "prior": 5091,
      "laws": 5092,
      "Enter": 5093,
      "Drink": 5094,
      "highly": 5095,
      "imeter": 5096,
      "technology": 5097,
      "robber": 5098,
      "parking": 5099,
      "Major": 5100,
      "mentioned": 5101,
      "incredible": 5102,
      "80": 5103,
      "Ali": 5104,
      "Hon": 5105,
      "Men": 5106,
      "threw": 5107,
      "argu": 5108,
      "icate": 5109,
      "plate": 5110,
      "manage": 5111,
      "perform": 5112,
      "blank": 5113,
      "surface": 5114,
      "attend": 5115,
      "general": 5116,
      "chase": 5117,
      "Army": 5118,
      "lence": 5119,
      "cabin": 5120,
      "throat": 5121,
      "cigaret": 5122,
      "Bru": 5123,
      "Easter": 5124,
      "Fort": 5125,
      "Isa": 5126,
      "SO": 5127,
      "Tam": 5128,
      "mum": 5129,
      "sla": 5130,
      "wid": 5131,
      "zo": 5132,
      "alse": 5133,
      "alert": 5134,
      "boot": 5135,
      "shed": 5136,
      "scient": 5137,
      "dio": 5138,
      "paint": 5139,
      "detective": 5140,
      "positive": 5141,
      "Team": 5142,
      "Feel": 5143,
      "Believe": 5144,
      "Central": 5145,
      "Ire": 5146,
      "LO": 5147,
      "Mus": 5148,
      "Mars": 5149,
      "UT": 5150,
      "Wid": 5151,
      "render": 5152,
      "ordered": 5153,
      "yourselves": 5154,
      "Whose": 5155,
      "udhary": 5156,
      "crashed": 5157,
      "weekend": 5158,
      "Such": 5159,
      "Ant": 5160,
      "IP": 5161,
      "Pan": 5162,
      "cis": 5163,
      "cret": 5164,
      "gam": 5165,
      "kar": 5166,
      "wards": 5167,
      "sem": 5168,
      "beating": 5169,
      "rier": 5170,
      "term": 5171,
      "managed": 5172,
      "exp": 5173,
      "Seems": 5174,
      "personally": 5175,
      "Keen": 5176,
      "Rohan": 5177,
      "Cool": 5178,
      "temper": 5179,
      "uniform": 5180,
      "desert": 5181,
      "Apparently": 5182,
      "Chaudhary": 5183,
      "achieve": 5184,
      "Caesar": 5185,
      "remembered": 5186,
      "Dun": 5187,
      "EM": 5188,
      "Jas": 5189,
      "Tru": 5190,
      "agents": 5191,
      "guarant": 5192,
      "otherwise": 5193,
      "cient": 5194,
      "sets": 5195,
      "garage": 5196,
      "prisoner": 5197,
      "Acc": 5198,
      "Others": 5199,
      "confirmed": 5200,
      "Wonder": 5201,
      "Zoom": 5202,
      "Alp": 5203,
      "Dark": 5204,
      "Friend": 5205,
      "UN": 5206,
      "ees": 5207,
      "rare": 5208,
      "beast": 5209,
      "lips": 5210,
      "motor": 5211,
      "nore": 5212,
      "exchange": 5213,
      "Logan": 5214,
      "Best": 5215,
      "rences": 5216,
      "gery": 5217,
      "grew": 5218,
      "grees": 5219,
      "according": 5220,
      "stronger": 5221,
      "Sergeant": 5222,
      "slave": 5223,
      "frame": 5224,
      "circum": 5225,
      "behavior": 5226,
      "21": 5227,
      "Dest": 5228,
      "Ele": 5229,
      "Fis": 5230,
      "Mir": 5231,
      "Yep": 5232,
      "cul": 5233,
      "groom": 5234,
      "inner": 5235,
      "rep": 5236,
      "replace": 5237,
      "ida": 5238,
      "uration": 5239,
      "Andy": 5240,
      "consult": 5241,
      "coinc": 5242,
      "Ans": 5243,
      "Second": 5244,
      "waited": 5245,
      "chip": 5246,
      "funeral": 5247,
      "solved": 5248,
      "scream": 5249,
      "Americans": 5250,
      "depend": 5251,
      "survivor": 5252,
      "',": 5253,
      "Lar": 5254,
      "Pop": 5255,
      "beth": 5256,
      "weather": 5257,
      "ably": 5258,
      "backup": 5259,
      "ilar": 5260,
      "favour": 5261,
      "matic": 5262,
      "warned": 5263,
      "leading": 5264,
      "entirely": 5265,
      "utenant": 5266,
      "Mine": 5267,
      "Mem": 5268,
      "uate": 5269,
      "zone": 5270,
      "rey": 5271,
      "core": 5272,
      "Beck": 5273,
      "lesson": 5274,
      "password": 5275,
      "screwed": 5276,
      "stealing": 5277,
      "practice": 5278,
      "garden": 5279,
      "photograph": 5280,
      "Fi": 5281,
      "Si": 5282,
      "ffe": 5283,
      "mare": 5284,
      "ero": 5285,
      "assure": 5286,
      "rice": 5287,
      "ching": 5288,
      "tific": 5289,
      "tears": 5290,
      "agle": 5291,
      "thered": 5292,
      "spin": 5293,
      "anged": 5294,
      "opin": 5295,
      "pretend": 5296,
      "moments": 5297,
      "passen": 5298,
      "castle": 5299,
      "shadow": 5300,
      "picious": 5301,
      "Eliza": 5302,
      "Bull": 5303,
      "Kabad": 5304,
      "pher": 5305,
      "ryan": 5306,
      "degrees": 5307,
      "rights": 5308,
      "shy": 5309,
      "Deep": 5310,
      "Meet": 5311,
      "Cheers": 5312,
      "ugly": 5313,
      "flower": 5314,
      "potenti": 5315,
      "health": 5316,
      "electri": 5317,
      "Hands": 5318,
      "Bud": 5319,
      "Eight": 5320,
      "Push": 5321,
      "ium": 5322,
      "stant": 5323,
      "rific": 5324,
      "adm": 5325,
      "thern": 5326,
      "shown": 5327,
      "express": 5328,
      "shoulder": 5329,
      "drown": 5330,
      "Rock": 5331,
      "Gray": 5332,
      "Trans": 5333,
      "changing": 5334,
      "grandma": 5335,
      "tracks": 5336,
      "footage": 5337,
      "arthik": 5338,
      "ambul": 5339,
      "Anjali": 5340,
      "dancing": 5341,
      "Yöu": 5342,
      "Fro": 5343,
      "Junior": 5344,
      "RI": 5345,
      "border": 5346,
      "centr": 5347,
      "ector": 5348,
      "guts": 5349,
      "liter": 5350,
      "wine": 5351,
      "hale": 5352,
      "consu": 5353,
      "gear": 5354,
      "woke": 5355,
      "asks": 5356,
      "pted": 5357,
      "Ann": 5358,
      "monkey": 5359,
      "Marg": 5360,
      "remains": 5361,
      "drinks": 5362,
      "document": 5363,
      "torture": 5364,
      "restaurant": 5365,
      "Fif": 5366,
      "Kon": 5367,
      "aled": 5368,
      "punch": 5369,
      "invent": 5370,
      "heaven": 5371,
      "mete": 5372,
      "lection": 5373,
      "decl": 5374,
      "saur": 5375,
      "entry": 5376,
      "seek": 5377,
      "stood": 5378,
      "Instead": 5379,
      "desktop": 5380,
      "mers": 5381,
      "drill": 5382,
      "metal": 5383,
      "screw": 5384,
      "unique": 5385,
      "darkness": 5386,
      "System": 5387,
      "Suri": 5388,
      "Ramona": 5389,
      "student": 5390,
      "satellite": 5391,
      "Kabaddi": 5392,
      "Cas": 5393,
      "Egg": 5394,
      "bby": 5395,
      "mouse": 5396,
      "oul": 5397,
      "recommend": 5398,
      "sey": 5399,
      "ened": 5400,
      "dece": 5401,
      "ilver": 5402,
      "Chit": 5403,
      "sooner": 5404,
      "engaged": 5405,
      "invited": 5406,
      "doctors": 5407,
      "joined": 5408,
      "Gru": 5409,
      "Ling": 5410,
      "Penny": 5411,
      "SH": 5412,
      "dust": 5413,
      "gather": 5414,
      "insur": 5415,
      "reward": 5416,
      "istr": 5417,
      "itation": 5418,
      "tear": 5419,
      "provide": 5420,
      "torm": 5421,
      "condu": 5422,
      "kinda": 5423,
      "Neither": 5424,
      "flood": 5425,
      "Brian": 5426,
      "specific": 5427,
      "zzle": 5428,
      "firm": 5429,
      "predict": 5430,
      "Austral": 5431,
      "Cham": 5432,
      "Dave": 5433,
      "Eve": 5434,
      "Erik": 5435,
      "Gar": 5436,
      "Han": 5437,
      "Ret": 5438,
      "cand": 5439,
      "fro": 5440,
      "oxygen": 5441,
      "vote": 5442,
      "behave": 5443,
      "mole": 5444,
      "Lost": 5445,
      "prevent": 5446,
      "grate": 5447,
      "sergeant": 5448,
      "corrupt": 5449,
      "ountain": 5450,
      "transport": 5451,
      "Current": 5452,
      "silent": 5453,
      "Drive": 5454,
      "extremely": 5455,
      "Cre": 5456,
      "Frid": 5457,
      "Jud": 5458,
      "Port": 5459,
      "piss": 5460,
      "tast": 5461,
      "becoming": 5462,
      "cancer": 5463,
      "aging": 5464,
      "useum": 5465,
      "Need": 5466,
      "Unable": 5467,
      "decent": 5468,
      "Anybody": 5469,
      "Boone": 5470,
      "Enjoy": 5471,
      "Desmond": 5472,
      "crores": 5473,
      "families": 5474,
      "devil": 5475,
      "director": 5476,
      "wasting": 5477,
      "Texas": 5478,
      "99": 5479,
      "mechan": 5480,
      "sons": 5481,
      "hardly": 5482,
      "Left": 5483,
      "defend": 5484,
      "coward": 5485,
      "Choose": 5486,
      "circumst": 5487,
      "Margaret": 5488,
      "==": 5489,
      "Bag": 5490,
      "Fall": 5491,
      "Leve": 5492,
      "Nat": 5493,
      "bones": 5494,
      "ilet": 5495,
      "kins": 5496,
      "rink": 5497,
      "attract": 5498,
      "stret": 5499,
      "erg": 5500,
      "precious": 5501,
      "angle": 5502,
      "brary": 5503,
      "Real": 5504,
      "logical": 5505,
      "touched": 5506,
      "gods": 5507,
      "Amanda": 5508,
      "bullets": 5509,
      "vinced": 5510,
      "Scofield": 5511,
      "burned": 5512,
      "Raju": 5513,
      "Vie": 5514,
      "meal": 5515,
      "vels": 5516,
      "role": 5517,
      "aper": 5518,
      "peri": 5519,
      "grat": 5520,
      "obvious": 5521,
      "handed": 5522,
      "friendship": 5523,
      "fuckin": 5524,
      "supply": 5525,
      "Excellent": 5526,
      "genet": 5527,
      "alien": 5528,
      "professional": 5529,
      "Gentlemen": 5530,
      "Ari": 5531,
      "Cr": 5532,
      "Ham": 5533,
      "Knight": 5534,
      "Pass": 5535,
      "Riz": 5536,
      "Roman": 5537,
      "vamp": 5538,
      "yo": 5539,
      "atab": 5540,
      "began": 5541,
      "del": 5542,
      "shark": 5543,
      "convinced": 5544,
      "geon": 5545,
      "coat": 5546,
      "grid": 5547,
      "foreign": 5548,
      "broad": 5549,
      "chosen": 5550,
      "bedroom": 5551,
      "Arthur": 5552,
      "valid": 5553,
      "THAT": 5554,
      "detect": 5555,
      "passing": 5556,
      "network": 5557,
      "agreement": 5558,
      "specially": 5559,
      "Bloody": 5560,
      "Doug": 5561,
      "coincidence": 5562,
      "Bang": 5563,
      "LD": 5564,
      "Land": 5565,
      "Rag": 5566,
      "false": 5567,
      "gust": 5568,
      "joking": 5569,
      "kitt": 5570,
      "initi": 5571,
      "enge": 5572,
      "web": 5573,
      "loan": 5574,
      "unknown": 5575,
      "ula": 5576,
      "wherever": 5577,
      "sidered": 5578,
      "nightmare": 5579,
      "harder": 5580,
      "crown": 5581,
      "Book": 5582,
      "growing": 5583,
      "jacket": 5584,
      "currently": 5585,
      "Teddy": 5586,
      "England": 5587,
      "nurse": 5588,
      "Ku": 5589,
      "Mi": 5590,
      "Money": 5591,
      "Plan": 5592,
      "Sign": 5593,
      "Switch": 5594,
      "Vi": 5595,
      "bie": 5596,
      "represent": 5597,
      "becomes": 5598,
      "rip": 5599,
      "hill": 5600,
      "bol": 5601,
      "affair": 5602,
      "surely": 5603,
      "motherfucker": 5604,
      "lower": 5605,
      "corn": 5606,
      "Steven": 5607,
      "ERE": 5608,
      "fortune": 5609,
      "bombs": 5610,
      "perfectly": 5611,
      "ONE": 5612,
      "Aarush": 5613,
      "concern": 5614,
      "results": 5615,
      "Clean": 5616,
      "Louis": 5617,
      "LI": 5618,
      "Law": 5619,
      "Tag": 5620,
      "Tem": 5621,
      "fruit": 5622,
      "aries": 5623,
      "ammo": 5624,
      "tip": 5625,
      "Justin": 5626,
      "Room": 5627,
      "fishing": 5628,
      "struct": 5629,
      "activated": 5630,
      "prepare": 5631,
      "Phil": 5632,
      "Understand": 5633,
      "Vishal": 5634,
      "Irene": 5635,
      "opinion": 5636,
      "atabase": 5637,
      "Bas": 5638,
      "GO": 5639,
      "Jap": 5640,
      "Nina": 5641,
      "kant": 5642,
      "multi": 5643,
      "rely": 5644,
      "acce": 5645,
      "goti": 5646,
      "considered": 5647,
      "coordin": 5648,
      "prince": 5649,
      "cially": 5650,
      "maid": 5651,
      "Nemo": 5652,
      "valu": 5653,
      "creature": 5654,
      "fairy": 5655,
      "module": 5656,
      "Tech": 5657,
      "Jaikant": 5658,
      "folder": 5659,
      "wishes": 5660,
      "sharp": 5661,
      "Level": 5662,
      "Base": 5663,
      "Date": 5664,
      "Dem": 5665,
      "RA": 5666,
      "Text": 5667,
      "flies": 5668,
      "maker": 5669,
      "tin": 5670,
      "tes": 5671,
      "babies": 5672,
      "chopper": 5673,
      "ception": 5674,
      "legal": 5675,
      "protection": 5676,
      "classified": 5677,
      "hundreds": 5678,
      "NOW": 5679,
      "guests": 5680,
      "species": 5681,
      "Janet": 5682,
      "protocol": 5683,
      "lakhs": 5684,
      "robbery": 5685,
      "Elizabeth": 5686,
      "Den": 5687,
      "Hind": 5688,
      "Idi": 5689,
      "dess": 5690,
      "nce": 5691,
      "nandu": 5692,
      "winter": 5693,
      "ining": 5694,
      "leak": 5695,
      "alco": 5696,
      "adv": 5697,
      "scary": 5698,
      "Looking": 5699,
      "stops": 5700,
      "greater": 5701,
      "strate": 5702,
      "crimes": 5703,
      "norm": 5704,
      "operate": 5705,
      "model": 5706,
      "jealous": 5707,
      "product": 5708,
      "including": 5709,
      "Ain": 5710,
      "GP": 5711,
      "Guru": 5712,
      "anch": 5713,
      "doc": 5714,
      "tron": 5715,
      "ctic": 5716,
      "raju": 5717,
      "impressed": 5718,
      "awake": 5719,
      "sweat": 5720,
      "falls": 5721,
      "burning": 5722,
      "offered": 5723,
      "alent": 5724,
      "explosion": 5725,
      "Mexico": 5726,
      "Dylan": 5727,
      "Cob": 5728,
      "aim": 5729,
      "cage": 5730,
      "uce": 5731,
      "meth": 5732,
      "dozen": 5733,
      "chasing": 5734,
      "urgent": 5735,
      "illa": 5736,
      "medal": 5737,
      "insist": 5738,
      "corpor": 5739,
      "century": 5740,
      "Couldn": 5741,
      "media": 5742,
      "nesses": 5743,
      "tware": 5744,
      "Finally": 5745,
      "separate": 5746,
      "custody": 5747,
      "Lauda": 5748,
      "younger": 5749,
      "eli": 5750,
      "vat": 5751,
      "hest": 5752,
      "cago": 5753,
      "ppy": 5754,
      "arda": 5755,
      "imate": 5756,
      "Los": 5757,
      "glasses": 5758,
      "flag": 5759,
      "engagement": 5760,
      "grave": 5761,
      "horrible": 5762,
      "machines": 5763,
      "fingers": 5764,
      "competition": 5765,
      "abandoned": 5766,
      "expensive": 5767,
      "Azhar": 5768,
      "According": 5769,
      "Bon": 5770,
      "Cover": 5771,
      "Eric": 5772,
      "Squ": 5773,
      "bio": 5774,
      "lack": 5775,
      "spoken": 5776,
      "homes": 5777,
      "partners": 5778,
      "sitive": 5779,
      "signs": 5780,
      "murders": 5781,
      "complex": 5782,
      "pattern": 5783,
      "Prime": 5784,
      "Syd": 5785,
      "statement": 5786,
      "engineer": 5787,
      "Jasmine": 5788,
      "ambulance": 5789,
      "Jones": 5790,
      "NE": 5791,
      "task": 5792,
      "anish": 5793,
      "forman": 5794,
      "amma": 5795,
      "anti": 5796,
      "naught": 5797,
      "background": 5798,
      "costu": 5799,
      "Going": 5800,
      "arsing": 5801,
      "versity": 5802,
      "identify": 5803,
      "Doro": 5804,
      "Cassie": 5805,
      "vironment": 5806,
      "Sydney": 5807,
      "Chen": 5808,
      "equ": 5809,
      "ires": 5810,
      "ware": 5811,
      "removed": 5812,
      "edge": 5813,
      "ushed": 5814,
      "coast": 5815,
      "colate": 5816,
      "sheriff": 5817,
      "tongue": 5818,
      "Also": 5819,
      "smells": 5820,
      "Grandma": 5821,
      "delivery": 5822,
      "grateful": 5823,
      "Found": 5824,
      "Ken": 5825,
      "NY": 5826,
      "Tha": 5827,
      "lon": 5828,
      "lone": 5829,
      "lting": 5830,
      "thi": 5831,
      "meat": 5832,
      "liqu": 5833,
      "nels": 5834,
      "Nope": 5835,
      "sole": 5836,
      "rah": 5837,
      "however": 5838,
      "letters": 5839,
      "caused": 5840,
      "presence": 5841,
      "badly": 5842,
      "awful": 5843,
      "stern": 5844,
      "guessing": 5845,
      "Brad": 5846,
      "trial": 5847,
      "systems": 5848,
      "curious": 5849,
      "cleaning": 5850,
      "slowly": 5851,
      "mirror": 5852,
      "Break": 5853,
      "twist": 5854,
      "suffer": 5855,
      "Obviously": 5856,
      "mobile": 5857,
      "naughty": 5858,
      "\",": 5859,
      "Face": 5860,
      "Lloyd": 5861,
      "Twenty": 5862,
      "bage": 5863,
      "bait": 5864,
      "nut": 5865,
      "nard": 5866,
      "rass": 5867,
      "thirst": 5868,
      "artist": 5869,
      "istan": 5870,
      "ankar": 5871,
      "istence": 5872,
      "sett": 5873,
      "hurting": 5874,
      "crit": 5875,
      "similar": 5876,
      "Child": 5877,
      "decisions": 5878,
      "Sanjay": 5879,
      "circle": 5880,
      "Niki": 5881,
      "Angel": 5882,
      "valuable": 5883,
      "formance": 5884,
      "49": 5885,
      "AK": 5886,
      "Especially": 5887,
      "Hall": 5888,
      "gli": 5889,
      "lamp": 5890,
      "height": 5891,
      "tos": 5892,
      "arily": 5893,
      "lip": 5894,
      "advent": 5895,
      "grace": 5896,
      "bride": 5897,
      "tors": 5898,
      "desire": 5899,
      "boring": 5900,
      "Comp": 5901,
      "cells": 5902,
      "Chicago": 5903,
      "photos": 5904,
      "waters": 5905,
      "Satur": 5906,
      "shelter": 5907,
      "potential": 5908,
      ").": 5909,
      "Kid": 5910,
      "Options": 5911,
      "Sand": 5912,
      "nin": 5913,
      "arian": 5914,
      "limit": 5915,
      "negoti": 5916,
      "chances": 5917,
      "agers": 5918,
      "commission": 5919,
      "Being": 5920,
      "Chance": 5921,
      "Goddamn": 5922,
      "surgery": 5923,
      "Delete": 5924,
      "singing": 5925,
      "Marudhe": 5926,
      "cuff": 5927,
      "entrance": 5928,
      "panic": 5929,
      "software": 5930,
      "Ellis": 5931,
      "crowd": 5932,
      "Marudheera": 5933,
      "Camp": 5934,
      "Dick": 5935,
      "Fre": 5936,
      "Might": 5937,
      "Ya": 5938,
      "bum": 5939,
      "cot": 5940,
      "jana": 5941,
      "pha": 5942,
      "ths": 5943,
      "proced": 5944,
      "prepar": 5945,
      "clue": 5946,
      "Carly": 5947,
      "related": 5948,
      "football": 5949,
      "virt": 5950,
      "arrive": 5951,
      "Module": 5952,
      "relig": 5953,
      "Message": 5954,
      "Friday": 5955,
      "Kiss": 5956,
      "bly": 5957,
      "junk": 5958,
      "tro": 5959,
      "wand": 5960,
      "uta": 5961,
      "degree": 5962,
      "suits": 5963,
      "foc": 5964,
      "propo": 5965,
      "stomach": 5966,
      "grant": 5967,
      "ureau": 5968,
      "cleared": 5969,
      "intend": 5970,
      "believes": 5971,
      "attitude": 5972,
      "counting": 5973,
      "dealing": 5974,
      "charges": 5975,
      "techn": 5976,
      "violent": 5977,
      "Lieutenant": 5978,
      "eggs": 5979,
      "Princess": 5980,
      "circumstances": 5981,
      "Ajay": 5982,
      "Came": 5983,
      "Jen": 5984,
      "Jose": 5985,
      "Pho": 5986,
      "Val": 5987,
      "bunk": 5988,
      "cub": 5989,
      "ek": 5990,
      "mode": 5991,
      "nia": 5992,
      "smu": 5993,
      "swing": 5994,
      "tan": 5995,
      "riots": 5996,
      "tiger": 5997,
      "elu": 5998,
      "ideas": 5999,
      "sche": 6000,
      "perimeter": 6001,
      "puts": 6002,
      "Poor": 6003,
      "protected": 6004,
      "royal": 6005,
      "violence": 6006,
      "Lucky": 6007,
      "criminals": 6008,
      "Dorothy": 6009,
      "Gl": 6010,
      "Gra": 6011,
      "Jed": 6012,
      "Pay": 6013,
      "Rom": 6014,
      "SA": 6015,
      "Tab": 6016,
      "athe": 6017,
      "bond": 6018,
      "tent": 6019,
      "melt": 6020,
      "ora": 6021,
      "stress": 6022,
      "rict": 6023,
      "hop": 6024,
      "oked": 6025,
      "female": 6026,
      "plat": 6027,
      "boo": 6028,
      "brand": 6029,
      "brush": 6030,
      "Inspector": 6031,
      "iley": 6032,
      "Unfortunately": 6033,
      "loading": 6034,
      "treasure": 6035,
      "dragon": 6036,
      "mountains": 6037,
      "released": 6038,
      "threatened": 6039,
      "mixed": 6040,
      "Nine": 6041,
      "Shas": 6042,
      "pink": 6043,
      "sink": 6044,
      "vy": 6045,
      "wra": 6046,
      "inspector": 6047,
      "reject": 6048,
      "oted": 6049,
      "ality": 6050,
      "espe": 6051,
      "hibit": 6052,
      "noble": 6053,
      "ives": 6054,
      "Howard": 6055,
      "images": 6056,
      "Wells": 6057,
      "Getting": 6058,
      "chef": 6059,
      "licate": 6060,
      "craw": 6061,
      "factory": 6062,
      "blowing": 6063,
      "jumped": 6064,
      "balance": 6065,
      "Murph": 6066,
      "challenge": 6067,
      "insurance": 6068,
      "Aryan": 6069,
      "Brun": 6070,
      "Cer": 6071,
      "Lane": 6072,
      "Many": 6073,
      "Tal": 6074,
      "bang": 6075,
      "dawn": 6076,
      "fright": 6077,
      "smar": 6078,
      "ww": 6079,
      "toilet": 6080,
      "lend": 6081,
      "gues": 6082,
      "iest": 6083,
      "iguration": 6084,
      "scr": 6085,
      "brains": 6086,
      "reek": 6087,
      "laid": 6088,
      "cared": 6089,
      "shape": 6090,
      "drove": 6091,
      "Pooja": 6092,
      "bott": 6093,
      "Bablu": 6094,
      "Jean": 6095,
      "physical": 6096,
      "Director": 6097,
      "Bruce": 6098,
      "Chitti": 6099,
      "alentine": 6100,
      "\"..": 6101,
      "26": 6102,
      "Gi": 6103,
      "Imag": 6104,
      "Kno": 6105,
      "Ph": 6106,
      "Promise": 6107,
      "cen": 6108,
      "candy": 6109,
      "jer": 6110,
      "vil": 6111,
      "aco": 6112,
      "rig": 6113,
      "icon": 6114,
      "someday": 6115,
      "ulate": 6116,
      "proceed": 6117,
      "Throw": 6118,
      "wore": 6119,
      "performance": 6120,
      "Beat": 6121,
      "cheese": 6122,
      "underground": 6123,
      "cies": 6124,
      "monsters": 6125,
      "Read": 6126,
      "athi": 6127,
      "mming": 6128,
      "hug": 6129,
      "tricks": 6130,
      "riding": 6131,
      "buying": 6132,
      "Monday": 6133,
      "occas": 6134,
      "Stephen": 6135,
      "snake": 6136,
      "Anjuta": 6137,
      "settings": 6138,
      "sneak": 6139,
      "elevator": 6140,
      "survivors": 6141,
      "especially": 6142,
      "'...": 6143,
      "Bomb": 6144,
      "Gab": 6145,
      "Kur": 6146,
      "dent": 6147,
      "hits": 6148,
      "item": 6149,
      "levels": 6150,
      "doin": 6151,
      "goin": 6152,
      "forces": 6153,
      "nest": 6154,
      "Helen": 6155,
      "naked": 6156,
      "default": 6157,
      "worn": 6158,
      "trunk": 6159,
      "conference": 6160,
      "concentr": 6161,
      "resources": 6162,
      "conditions": 6163,
      "minds": 6164,
      "childhood": 6165,
      "Norm": 6166,
      "Prep": 6167,
      "failure": 6168,
      "society": 6169,
      "River": 6170,
      "appointment": 6171,
      "quarter": 6172,
      "description": 6173,
      "slept": 6174,
      "mystery": 6175,
      "Sunday": 6176,
      "desperate": 6177,
      "77": 6178,
      "Amy": 6179,
      "Dhar": 6180,
      "Pur": 6181,
      "WI": 6182,
      "Washing": 6183,
      "mama": 6184,
      "pure": 6185,
      "piz": 6186,
      "pounds": 6187,
      "inting": 6188,
      "orphan": 6189,
      "library": 6190,
      "delive": 6191,
      "mani": 6192,
      "sugar": 6193,
      "However": 6194,
      "China": 6195,
      "discovered": 6196,
      "warrant": 6197,
      "tension": 6198,
      "Mean": 6199,
      "Conf": 6200,
      "instinct": 6201,
      "regard": 6202,
      "maintain": 6203,
      "treated": 6204,
      "Owen": 6205,
      "digging": 6206,
      "indeed": 6207,
      "queror": 6208,
      "htt": 6209,
      "guarantee": 6210,
      "Ama": 6211,
      "CP": 6212,
      "Main": 6213,
      "Narsing": 6214,
      "Py": 6215,
      "Varda": 6216,
      "WO": 6217,
      "nick": 6218,
      "wings": 6219,
      "inic": 6220,
      "items": 6221,
      "beard": 6222,
      "esc": 6223,
      "iff": 6224,
      "eau": 6225,
      "menu": 6226,
      "Unknown": 6227,
      "blocks": 6228,
      "evol": 6229,
      "Group": 6230,
      "freaking": 6231,
      "Connie": 6232,
      "patients": 6233,
      "suffering": 6234,
      "documents": 6235,
      "Angeles": 6236,
      "scientist": 6237,
      "View": 6238,
      "Fitz": 6239,
      "JO": 6240,
      "Lake": 6241,
      "Ori": 6242,
      "Ocean": 6243,
      "Renu": 6244,
      "SI": 6245,
      "Sti": 6246,
      "cca": 6247,
      "hay": 6248,
      "pting": 6249,
      "retire": 6250,
      "ancy": 6251,
      "ancient": 6252,
      "assa": 6253,
      "beloved": 6254,
      "outs": 6255,
      "deposit": 6256,
      "spring": 6257,
      "mons": 6258,
      "Short": 6259,
      "amed": 6260,
      "Key": 6261,
      "iana": 6262,
      "Manager": 6263,
      "protecting": 6264,
      "screaming": 6265,
      "treatment": 6266,
      "Shouldn": 6267,
      "recei": 6268,
      "ivid": 6269,
      "crossed": 6270,
      "announce": 6271,
      "federal": 6272,
      "Washington": 6273,
      "Hill": 6274,
      "Half": 6275,
      "Lisa": 6276,
      "Number": 6277,
      "Power": 6278,
      "Ring": 6279,
      "Tan": 6280,
      "jury": 6281,
      "nis": 6282,
      "pite": 6283,
      "theme": 6284,
      "begging": 6285,
      "weal": 6286,
      "alle": 6287,
      "notes": 6288,
      "unte": 6289,
      "unable": 6290,
      "hers": 6291,
      "guide": 6292,
      "cheat": 6293,
      "Island": 6294,
      "player": 6295,
      "creep": 6296,
      "Marcus": 6297,
      "deton": 6298,
      "Fox": 6299,
      "garbage": 6300,
      "Spider": 6301,
      "throwing": 6302,
      "Freeze": 6303,
      "GHT": 6304,
      "script": 6305,
      "schedule": 6306,
      "Create": 6307,
      "Shashi": 6308,
      "CA": 6309,
      "Jar": 6310,
      "Karen": 6311,
      "Tit": 6312,
      "eed": 6313,
      "slight": 6314,
      "skills": 6315,
      "inch": 6316,
      "infected": 6317,
      "require": 6318,
      "aya": 6319,
      "wich": 6320,
      "rican": 6321,
      "therap": 6322,
      "demo": 6323,
      "caves": 6324,
      "ained": 6325,
      "trash": 6326,
      "acted": 6327,
      "actual": 6328,
      "scent": 6329,
      "tool": 6330,
      "Initi": 6331,
      "Secret": 6332,
      "kidney": 6333,
      "resist": 6334,
      "yaar": 6335,
      "eaten": 6336,
      "tempor": 6337,
      "susp": 6338,
      "eleph": 6339,
      "events": 6340,
      "community": 6341,
      "activity": 6342,
      "depends": 6343,
      "betrayed": 6344,
      "Girl": 6345,
      "embarrass": 6346,
      "Fun": 6347,
      "Kind": 6348,
      "vari": 6349,
      "analy": 6350,
      "veget": 6351,
      "domin": 6352,
      "advis": 6353,
      "icient": 6354,
      "abdu": 6355,
      "unz": 6356,
      "ppers": 6357,
      "downstairs": 6358,
      "apt": 6359,
      "standard": 6360,
      "stays": 6361,
      "winning": 6362,
      "ploy": 6363,
      "pathy": 6364,
      "gentleman": 6365,
      "fancy": 6366,
      "WHAT": 6367,
      "Vincent": 6368,
      "Crazy": 6369,
      "http": 6370,
      "35": 6371,
      "Erica": 6372,
      "Fight": 6373,
      "Linda": 6374,
      "MO": 6375,
      "MP": 6376,
      "Sky": 6377,
      "dating": 6378,
      "stink": 6379,
      "negative": 6380,
      "update": 6381,
      "urning": 6382,
      "ifer": 6383,
      "eland": 6384,
      "umble": 6385,
      "wolf": 6386,
      "helps": 6387,
      "newsp": 6388,
      "Although": 6389,
      "latest": 6390,
      "Tracy": 6391,
      "covering": 6392,
      "pushing": 6393,
      "eventually": 6394,
      "Bernard": 6395,
      "Type": 6396,
      "babe": 6397,
      "Bravo": 6398,
      "Gregson": 6399,
      "required": 6400,
      "Shrek": 6401,
      "assassin": 6402,
      "gusting": 6403,
      "27": 6404,
      "Bil": 6405,
      "Ghost": 6406,
      "Pac": 6407,
      "Scre": 6408,
      "TI": 6409,
      "Top": 6410,
      "ration": 6411,
      "thony": 6412,
      "hav": 6413,
      "eta": 6414,
      "adult": 6415,
      "hire": 6416,
      "tering": 6417,
      "mos": 6418,
      "chem": 6419,
      "buff": 6420,
      "intention": 6421,
      "mates": 6422,
      "drum": 6423,
      "compli": 6424,
      "mistakes": 6425,
      "legend": 6426,
      "rolling": 6427,
      "radi": 6428,
      "basement": 6429,
      "itors": 6430,
      "exists": 6431,
      "identified": 6432,
      "succeed": 6433,
      "German": 6434,
      "Raymond": 6435,
      "pipe": 6436,
      "Internet": 6437,
      "impressive": 6438,
      "Attention": 6439,
      "Answer": 6440,
      "Imagine": 6441,
      "escort": 6442,
      "120": 6443,
      "Aunt": 6444,
      "Bir": 6445,
      "Dur": 6446,
      "Mia": 6447,
      "Shad": 6448,
      "database": 6449,
      "kil": 6450,
      "mun": 6451,
      "soup": 6452,
      "zard": 6453,
      "lifet": 6454,
      "Gold": 6455,
      "Joan": 6456,
      "drama": 6457,
      "safely": 6458,
      "arranged": 6459,
      "Lovely": 6460,
      "popular": 6461,
      "planted": 6462,
      "material": 6463,
      "literally": 6464,
      "Konqueror": 6465,
      "Saturday": 6466,
      "lifetime": 6467,
      "Cam": 6468,
      "Honest": 6469,
      "Ira": 6470,
      "Path": 6471,
      "Tot": 6472,
      "aver": 6473,
      "cti": 6474,
      "cities": 6475,
      "dive": 6476,
      "ival": 6477,
      "pages": 6478,
      "pissed": 6479,
      "wins": 6480,
      "tham": 6481,
      "selection": 6482,
      "omi": 6483,
      "artic": 6484,
      "constru": 6485,
      "aked": 6486,
      "exer": 6487,
      "goodness": 6488,
      "affect": 6489,
      "clever": 6490,
      "Shankar": 6491,
      "services": 6492,
      "chocolate": 6493,
      "frag": 6494,
      "operating": 6495,
      "Harris": 6496,
      "touching": 6497,
      "invite": 6498,
      "answering": 6499,
      "roads": 6500,
      "accepted": 6501,
      "laughter": 6502,
      "robbed": 6503,
      "squad": 6504,
      "Said": 6505,
      "ashamed": 6506,
      "Fischer": 6507,
      "meteor": 6508,
      "Australia": 6509,
      "Prepare": 6510,
      "Dance": 6511,
      "Faster": 6512,
      "Pink": 6513,
      "pul": 6514,
      "rr": 6515,
      "atin": 6516,
      "stations": 6517,
      "verton": 6518,
      "nai": 6519,
      "agency": 6520,
      "pel": 6521,
      "existence": 6522,
      "Note": 6523,
      "Stick": 6524,
      "disease": 6525,
      "shaw": 6526,
      "personnel": 6527,
      "lately": 6528,
      "charged": 6529,
      "freezing": 6530,
      "midnight": 6531,
      "flesh": 6532,
      "limits": 6533,
      "wounded": 6534,
      "odds": 6535,
      "Thirty": 6536,
      "Court": 6537,
      "48": 6538,
      "Bay": 6539,
      "Cons": 6540,
      "Done": 6541,
      "Iran": 6542,
      "Mel": 6543,
      "Sk": 6544,
      "Sch": 6545,
      "TER": 6546,
      "cult": 6547,
      "mous": 6548,
      "lder": 6549,
      "individ": 6550,
      "romantic": 6551,
      "owns": 6552,
      "Ohh": 6553,
      "landing": 6554,
      "cloud": 6555,
      "awk": 6556,
      "cycle": 6557,
      "logist": 6558,
      "Configure": 6559,
      "Damu": 6560,
      "Franklin": 6561,
      "survival": 6562,
      "fortunate": 6563,
      "Milverton": 6564,
      "Lizzy": 6565,
      "OOD": 6566,
      "priority": 6567,
      "Iraq": 6568,
      "Bi": 6569,
      "Egy": 6570,
      "Lab": 6571,
      "asant": 6572,
      "cakes": 6573,
      "aina": 6574,
      "butt": 6575,
      "offering": 6576,
      "resting": 6577,
      "chill": 6578,
      "shore": 6579,
      "visual": 6580,
      "Atl": 6581,
      "greed": 6582,
      "Print": 6583,
      "Brook": 6584,
      "blackmail": 6585,
      "allows": 6586,
      "rupees": 6587,
      "cooking": 6588,
      "Contact": 6589,
      "smooth": 6590,
      "communication": 6591,
      "installed": 6592,
      "vacation": 6593,
      "fashi": 6594,
      "injured": 6595,
      "Eggsy": 6596,
      "Chennai": 6597,
      "Pak": 6598,
      "Rour": 6599,
      "Ugh": 6600,
      "Valentine": 6601,
      "Wit": 6602,
      "revolution": 6603,
      "sear": 6604,
      "environment": 6605,
      "iona": 6606,
      "shine": 6607,
      "safer": 6608,
      "spit": 6609,
      "scen": 6610,
      "Stark": 6611,
      "viol": 6612,
      "earned": 6613,
      "toward": 6614,
      "Comple": 6615,
      "frequ": 6616,
      "Harold": 6617,
      "heroes": 6618,
      "beaten": 6619,
      "Trying": 6620,
      "\\\\{": 6621,
      "princi": 6622,
      "slip": 6623,
      "pushed": 6624,
      "Failed": 6625,
      "bassy": 6626,
      "sync": 6627,
      "Rourke": 6628,
      "Gard": 6629,
      "Nag": 6630,
      "Ta": 6631,
      "Und": 6632,
      "gay": 6633,
      "gment": 6634,
      "jun": 6635,
      "lit": 6636,
      "trop": 6637,
      "refer": 6638,
      "bee": 6639,
      "aling": 6640,
      "pest": 6641,
      "debt": 6642,
      "sober": 6643,
      "Thor": 6644,
      "grass": 6645,
      "houses": 6646,
      "resses": 6647,
      "mighty": 6648,
      "Percy": 6649,
      "creatures": 6650,
      "hostage": 6651,
      "journal": 6652,
      "quarters": 6653,
      "Error": 6654,
      "random": 6655,
      "NYPD": 6656,
      "pizza": 6657,
      "Cou": 6658,
      "Dory": 6659,
      "Sto": 6660,
      "Ti": 6661,
      "Yas": 6662,
      "karthik": 6663,
      "lm": 6664,
      "anni": 6665,
      "itive": 6666,
      "armor": 6667,
      "hab": 6668,
      "utala": 6669,
      "adam": 6670,
      "uss": 6671,
      "unusual": 6672,
      "istic": 6673,
      "unde": 6674,
      "angel": 6675,
      "Seth": 6676,
      "Stupid": 6677,
      "sisters": 6678,
      "True": 6679,
      "Quite": 6680,
      "addict": 6681,
      "idiots": 6682,
      "Chautala": 6683,
      "explosive": 6684,
      "healthy": 6685,
      "requested": 6686,
      "Ronnie": 6687,
      "score": 6688,
      "neighborhood": 6689,
      "Francis": 6690,
      "Palmer": 6691,
      "disturb": 6692,
      "gravity": 6693,
      "cigarette": 6694,
      "period": 6695,
      "delivered": 6696,
      "64": 6697,
      "Cali": 6698,
      "Kapo": 6699,
      "Line": 6700,
      "Mum": 6701,
      "Source": 6702,
      "User": 6703,
      "Va": 6704,
      "Ward": 6705,
      "bread": 6706,
      "gates": 6707,
      "vig": 6708,
      "forth": 6709,
      "social": 6710,
      "ignore": 6711,
      "scow": 6712,
      "peror": 6713,
      "Uni": 6714,
      "ggy": 6715,
      "sessed": 6716,
      "dealer": 6717,
      "winner": 6718,
      "ARS": 6719,
      "Perfect": 6720,
      "Alexander": 6721,
      "rescued": 6722,
      "dirt": 6723,
      "welve": 6724,
      "highest": 6725,
      "rabbit": 6726,
      "officially": 6727,
      "supplies": 6728,
      "acceler": 6729,
      "Idiot": 6730,
      "Gal": 6731,
      "Ja": 6732,
      "Tower": 6733,
      "Us": 6734,
      "Uday": 6735,
      "Wing": 6736,
      "bin": 6737,
      "bars": 6738,
      "niss": 6739,
      "pti": 6740,
      "insult": 6741,
      "remon": 6742,
      "istered": 6743,
      "stake": 6744,
      "okes": 6745,
      "ferences": 6746,
      "igning": 6747,
      "Bee": 6748,
      "Been": 6749,
      "rude": 6750,
      "plays": 6751,
      "teams": 6752,
      "wallow": 6753,
      "Wasn": 6754,
      "slap": 6755,
      "Color": 6756,
      "sealed": 6757,
      "beneath": 6758,
      "Danny": 6759,
      "Katniss": 6760,
      "divorce": 6761,
      "genetic": 6762,
      "Rizvan": 6763,
      "smugg": 6764,
      "Crew": 6765,
      "Evo": 6766,
      "Evan": 6767,
      "Gonna": 6768,
      "Hm": 6769,
      "Hal": 6770,
      "Jump": 6771,
      "SC": 6772,
      "Vol": 6773,
      "Wanna": 6774,
      "uff": 6775,
      "wow": 6776,
      "riot": 6777,
      "Web": 6778,
      "poet": 6779,
      "summ": 6780,
      "comin": 6781,
      "Sol": 6782,
      "everyday": 6783,
      "cheating": 6784,
      "Station": 6785,
      "marine": 6786,
      "contains": 6787,
      "rooms": 6788,
      "Boys": 6789,
      "Enable": 6790,
      "baseball": 6791,
      "Laura": 6792,
      "Human": 6793,
      "thieves": 6794,
      "swimming": 6795,
      "extraordinary": 6796,
      "Miller": 6797,
      "amongst": 6798,
      "Wrong": 6799,
      "lonely": 6800,
      "occasion": 6801,
      "BA": 6802,
      "CD": 6803,
      "Cir": 6804,
      "Dist": 6805,
      "Emer": 6806,
      "Game": 6807,
      "HO": 6808,
      "Navy": 6809,
      "Sleep": 6810,
      "Wild": 6811,
      "aunty": 6812,
      "cin": 6813,
      "kh": 6814,
      "math": 6815,
      "slo": 6816,
      "sides": 6817,
      "uri": 6818,
      "vember": 6819,
      "stalk": 6820,
      "editor": 6821,
      "abl": 6822,
      "odi": 6823,
      "nap": 6824,
      "agger": 6825,
      "hys": 6826,
      "plus": 6827,
      "mann": 6828,
      "whore": 6829,
      "choices": 6830,
      "comprom": 6831,
      "cris": 6832,
      "sentence": 6833,
      "custom": 6834,
      "grandmother": 6835,
      "victory": 6836,
      "Wouldn": 6837,
      "worthy": 6838,
      "commander": 6839,
      "quietly": 6840,
      "suspects": 6841,
      "aboard": 6842,
      "prayers": 6843,
      "impact": 6844,
      "Whenever": 6845,
      "authority": 6846,
      "holid": 6847,
      "Autobot": 6848,
      "scratch": 6849,
      "(%": 6850,
      "Gust": 6851,
      "Kelly": 6852,
      "Pen": 6853,
      "Sound": 6854,
      "osaur": 6855,
      "heir": 6856,
      "vet": 6857,
      "stro": 6858,
      "altern": 6859,
      "rod": 6860,
      "icons": 6861,
      "trai": 6862,
      "proved": 6863,
      "torney": 6864,
      "establ": 6865,
      "Moscow": 6866,
      "missile": 6867,
      "drone": 6868,
      "iko": 6869,
      "pression": 6870,
      "dinosaur": 6871,
      "Genius": 6872,
      "Edit": 6873,
      "occup": 6874,
      "teaching": 6875,
      "limb": 6876,
      "generation": 6877,
      "neckl": 6878,
      "refused": 6879,
      "authorities": 6880,
      "politic": 6881,
      "politics": 6882,
      "students": 6883,
      "laptop": 6884,
      "Earl": 6885,
      "passengers": 6886,
      "Cross": 6887,
      "Oc": 6888,
      "Sud": 6889,
      "hra": 6890,
      "museum": 6891,
      "pian": 6892,
      "rage": 6893,
      "silver": 6894,
      "ume": 6895,
      "toast": 6896,
      "rose": 6897,
      "icy": 6898,
      "ups": 6899,
      "November": 6900,
      "combat": 6901,
      "Docu": 6902,
      "brow": 6903,
      "Reg": 6904,
      "server": 6905,
      "believ": 6906,
      "returning": 6907,
      "sites": 6908,
      "drones": 6909,
      "Asia": 6910,
      "crush": 6911,
      "Gotta": 6912,
      "attacks": 6913,
      "passion": 6914,
      "messed": 6915,
      "largest": 6916,
      "sticks": 6917,
      "traum": 6918,
      "golden": 6919,
      "Correct": 6920,
      "helmet": 6921,
      "Breathe": 6922,
      "********": 6923,
      "Julia": 6924,
      "Beaut": 6925,
      "satis": 6926,
      "emotional": 6927,
      "surrounded": 6928,
      "Champ": 6929,
      "Kapoor": 6930,
      "Bhar": 6931,
      "Eagle": 6932,
      "National": 6933,
      "Scar": 6934,
      "cart": 6935,
      "rack": 6936,
      "rele": 6937,
      "recall": 6938,
      "tox": 6939,
      "vere": 6940,
      "enced": 6941,
      "loving": 6942,
      "Heavy": 6943,
      "brown": 6944,
      "audi": 6945,
      "intent": 6946,
      "planes": 6947,
      "dynam": 6948,
      "finitely": 6949,
      "dropping": 6950,
      "villain": 6951,
      "\\\\\\\\{": 6952,
      "NOT": 6953,
      "successful": 6954,
      "Report": 6955,
      "assignment": 6956,
      "companion": 6957,
      "servation": 6958,
      "Santa": 6959,
      "Consider": 6960,
      "Beautiful": 6961,
      "Mister": 6962,
      "Ple": 6963,
      "Wade": 6964,
      "Woman": 6965,
      "bble": 6966,
      "fare": 6967,
      "hm": 6968,
      "rings": 6969,
      "influ": 6970,
      "toy": 6971,
      "isco": 6972,
      "lled": 6973,
      "otions": 6974,
      "wipe": 6975,
      "forms": 6976,
      "hil": 6977,
      "poll": 6978,
      "consequ": 6979,
      "timent": 6980,
      "quir": 6981,
      "grou": 6982,
      "carried": 6983,
      "Shark": 6984,
      "blown": 6985,
      "Tool": 6986,
      "akesh": 6987,
      "formal": 6988,
      "Arab": 6989,
      "mommy": 6990,
      "population": 6991,
      "exciting": 6992,
      "punished": 6993,
      "Honor": 6994,
      "Code": 6995,
      "Glad": 6996,
      "Kick": 6997,
      "equal": 6998,
      "pump": 6999,
      "pier": 7000,
      "swit": 7001,
      "wreck": 7002,
      "zomb": 7003,
      "insu": 7004,
      "reaction": 7005,
      "repair": 7006,
      "meas": 7007,
      "orn": 7008,
      "begun": 7009,
      "ami": 7010,
      "Noah": 7011,
      "Information": 7012,
      "maxim": 7013,
      "landed": 7014,
      "clan": 7015,
      "sens": 7016,
      "struck": 7017,
      "visiting": 7018,
      "effe": 7019,
      "interrupt": 7020,
      "learning": 7021,
      "gines": 7022,
      "leaders": 7023,
      "Normal": 7024,
      "burg": 7025,
      "horses": 7026,
      "response": 7027,
      "shortly": 7028,
      "transferred": 7029,
      "taxi": 7030,
      "defeat": 7031,
      "Target": 7032,
      "benefit": 7033,
      "Alpha": 7034,
      "tificate": 7035,
      "conduct": 7036,
      "Fed": 7037,
      "Font": 7038,
      "Jess": 7039,
      "Naina": 7040,
      "Rakesh": 7041,
      "Scan": 7042,
      "Tues": 7043,
      "Yester": 7044,
      "dates": 7045,
      "var": 7046,
      "vate": 7047,
      "pride": 7048,
      "cheap": 7049,
      "Inte": 7050,
      "ishing": 7051,
      "Stat": 7052,
      "disco": 7053,
      "kinds": 7054,
      "strangers": 7055,
      "decor": 7056,
      "sweets": 7057,
      "collap": 7058,
      "packed": 7059,
      "foolish": 7060,
      "jewel": 7061,
      "square": 7062,
      "organization": 7063,
      "channel": 7064,
      "Setting": 7065,
      "Liesel": 7066,
      "fonts": 7067,
      "Trevor": 7068,
      "Mandira": 7069,
      "Bruno": 7070,
      "Yesterday": 7071,
      "Die": 7072,
      "Fiona": 7073,
      "Kath": 7074,
      "Ras": 7075,
      "Rand": 7076,
      "Rod": 7077,
      "UCK": 7078,
      "gut": 7079,
      "ired": 7080,
      "pai": 7081,
      "rounds": 7082,
      "review": 7083,
      "youth": 7084,
      "advan": 7085,
      "abort": 7086,
      "fever": 7087,
      "nasty": 7088,
      "explan": 7089,
      "stands": 7090,
      "contro": 7091,
      "Deal": 7092,
      "matically": 7093,
      "ubborn": 7094,
      "Order": 7095,
      "cuts": 7096,
      "Johnson": 7097,
      "breaks": 7098,
      "humanity": 7099,
      "mistaken": 7100,
      "seats": 7101,
      "Sanjana": 7102,
      "unex": 7103,
      "Highness": 7104,
      "Tyler": 7105,
      "sacrific": 7106,
      "jamin": 7107,
      "threatening": 7108,
      "ghosts": 7109,
      "Depart": 7110,
      "Burrows": 7111,
      "assigned": 7112,
      "ennifer": 7113,
      "approaching": 7114,
      "struggle": 7115,
      "occurred": 7116,
      "destruction": 7117,
      "multiple": 7118,
      "assault": 7119,
      "believable": 7120,
      "400": 7121,
      "75": 7122,
      "Gib": 7123,
      "Jennifer": 7124,
      "Kh": 7125,
      "Kyle": 7126,
      "Sin": 7127,
      "bhai": 7128,
      "fis": 7129,
      "gor": 7130,
      "lat": 7131,
      "uled": 7132,
      "wrap": 7133,
      "invisible": 7134,
      "ota": 7135,
      "acing": 7136,
      "okie": 7137,
      "terminal": 7138,
      "boots": 7139,
      "Load": 7140,
      "Allen": 7141,
      "prey": 7142,
      "previous": 7143,
      "chess": 7144,
      "thrown": 7145,
      "serving": 7146,
      "series": 7147,
      "prize": 7148,
      "Carter": 7149,
      "Service": 7150,
      "fools": 7151,
      "entering": 7152,
      "entertain": 7153,
      "Spir": 7154,
      "slipped": 7155,
      "Dorian": 7156,
      "applications": 7157,
      "basically": 7158,
      "tablet": 7159,
      "Girls": 7160,
      "increase": 7161,
      "disappointed": 7162,
      "Nichol": 7163,
      "smarter": 7164,
      "Stig": 7165,
      "Screen": 7166,
      "43": 7167,
      "Live": 7168,
      "Ou": 7169,
      "Sort": 7170,
      "cate": 7171,
      "kn": 7172,
      "ln": 7173,
      "rs": 7174,
      "sch": 7175,
      "vit": 7176,
      "sting": 7177,
      "aris": 7178,
      "rail": 7179,
      "Donald": 7180,
      "mentary": 7181,
      "friendly": 7182,
      "cargo": 7183,
      "Stone": 7184,
      "Shar": 7185,
      "blade": 7186,
      "Cannot": 7187,
      "international": 7188,
      "values": 7189,
      "pathetic": 7190,
      "versary": 7191,
      "hostile": 7192,
      "porter": 7193,
      "Edward": 7194,
      "Georg": 7195,
      "capture": 7196,
      "captured": 7197,
      "volunte": 7198,
      "LES": 7199,
      "Freddy": 7200,
      "possibility": 7201,
      "pills": 7202,
      "effects": 7203,
      "Naomi": 7204,
      "citizens": 7205,
      "47": 7206,
      "Burn": 7207,
      "Eh": 7208,
      "Eyes": 7209,
      "Ender": 7210,
      "Gene": 7211,
      "HA": 7212,
      "IF": 7213,
      "Nad": 7214,
      "Pol": 7215,
      "bump": 7216,
      "rell": 7217,
      "tories": 7218,
      "behalf": 7219,
      "lion": 7220,
      "aki": 7221,
      "offense": 7222,
      "blem": 7223,
      "Allow": 7224,
      "fiance": 7225,
      "mud": 7226,
      "types": 7227,
      "homework": 7228,
      "pleased": 7229,
      "apparently": 7230,
      "surrender": 7231,
      "venue": 7232,
      "smiling": 7233,
      "steel": 7234,
      "payment": 7235,
      "greet": 7236,
      "pected": 7237,
      "deny": 7238,
      "Bennet": 7239,
      "Hero": 7240,
      "gifts": 7241,
      "Dugg": 7242,
      "tured": 7243,
      "begins": 7244,
      "Nardo": 7245,
      "Swan": 7246,
      "fantastic": 7247,
      "Cecil": 7248,
      "Widmore": 7249,
      "vatar": 7250,
      "Gusteau": 7251,
      "28": 7252,
      "Block": 7253,
      "Fix": 7254,
      "Folder": 7255,
      "Ice": 7256,
      "Lance": 7257,
      "MI": 7258,
      "Naz": 7259,
      "Pack": 7260,
      "Rest": 7261,
      "Sou": 7262,
      "TS": 7263,
      "dra": 7264,
      "oven": 7265,
      "informed": 7266,
      "lix": 7267,
      "ros": 7268,
      "agne": 7269,
      "pointing": 7270,
      "manip": 7271,
      "conven": 7272,
      "constant": 7273,
      "fox": 7274,
      "sphere": 7275,
      "mostly": 7276,
      "steady": 7277,
      "chased": 7278,
      "solid": 7279,
      "passes": 7280,
      "profit": 7281,
      "Lucia": 7282,
      "osite": 7283,
      "spotted": 7284,
      "hunter": 7285,
      "considering": 7286,
      "refuse": 7287,
      "Russians": 7288,
      "tattoos": 7289,
      "challeng": 7290,
      "lynn": 7291,
      "eloped": 7292,
      "Gandalf": 7293,
      "Larry": 7294,
      "Alf": 7295,
      "Author": 7296,
      "CR": 7297,
      "Cisco": 7298,
      "Funny": 7299,
      "Nell": 7300,
      "NAS": 7301,
      "bom": 7302,
      "fence": 7303,
      "mig": 7304,
      "nig": 7305,
      "pana": 7306,
      "sia": 7307,
      "whale": 7308,
      "thumb": 7309,
      "reactor": 7310,
      "accom": 7311,
      "format": 7312,
      "indust": 7313,
      "suffe": 7314,
      "extract": 7315,
      "quis": 7316,
      "minim": 7317,
      "tale": 7318,
      "servant": 7319,
      "retri": 7320,
      "breach": 7321,
      "compass": 7322,
      "sentiment": 7323,
      "stein": 7324,
      "chamber": 7325,
      "anese": 7326,
      "Benjamin": 7327,
      "Simran": 7328,
      "enjoying": 7329,
      "dollar": 7330,
      "Machi": 7331,
      "Radhe": 7332,
      "Awesome": 7333,
      "URL": 7334,
      "Kalpana": 7335,
      "shouting": 7336,
      "elimin": 7337,
      "troops": 7338,
      "effective": 7339,
      "Nicholas": 7340,
      "Nash": 7341,
      "Sco": 7342,
      "Tu": 7343,
      "Var": 7344,
      "aar": 7345,
      "een": 7346,
      "pis": 7347,
      "ua": 7348,
      "vacc": 7349,
      "thal": 7350,
      "heck": 7351,
      "..?": 7352,
      "vernor": 7353,
      "pleasant": 7354,
      "wered": 7355,
      "happily": 7356,
      "tooth": 7357,
      "Together": 7358,
      "smoking": 7359,
      "walks": 7360,
      "Nora": 7361,
      "ibly": 7362,
      "beats": 7363,
      "professor": 7364,
      "Barnes": 7365,
      "juice": 7366,
      "spoil": 7367,
      "daily": 7368,
      "separated": 7369,
      "employ": 7370,
      "instructions": 7371,
      "Batman": 7372,
      "itol": 7373,
      "Tuesday": 7374,
      "suffered": 7375,
      "Darling": 7376,
      "Fer": 7377,
      "Gn": 7378,
      "Ko": 7379,
      "Mason": 7380,
      "Nin": 7381,
      "PK": 7382,
      "Pun": 7383,
      "dup": 7384,
      "sions": 7385,
      "swords": 7386,
      "sorrow": 7387,
      "tend": 7388,
      "uced": 7389,
      "reput": 7390,
      "itial": 7391,
      "etch": 7392,
      "aday": 7393,
      "hoped": 7394,
      "usive": 7395,
      "shrink": 7396,
      "excellent": 7397,
      "perfu": 7398,
      "emotions": 7399,
      "apply": 7400,
      "Took": 7401,
      "studying": 7402,
      "fights": 7403,
      "Club": 7404,
      "deserves": 7405,
      "generous": 7406,
      "costs": 7407,
      "Finish": 7408,
      "Ronan": 7409,
      "experiment": 7410,
      "Collector": 7411,
      "Tamil": 7412,
      "costume": 7413,
      "compromised": 7414,
      "necklace": 7415,
      "Department": 7416,
      "accompl": 7417,
      "Machiraju": 7418,
      "Bel": 7419,
      "Irish": 7420,
      "Pu": 7421,
      "Por": 7422,
      "SU": 7423,
      "aire": 7424,
      "motion": 7425,
      "sod": 7426,
      "ufact": 7427,
      "ouch": 7428,
      "oring": 7429,
      "stubborn": 7430,
      "asset": 7431,
      "nephe": 7432,
      "unite": 7433,
      "bled": 7434,
      "acts": 7435,
      "tools": 7436,
      "restri": 7437,
      "cutting": 7438,
      "messing": 7439,
      "ANK": 7440,
      "Chester": 7441,
      "atory": 7442,
      "Focus": 7443,
      "transmission": 7444,
      "heroin": 7445,
      "modern": 7446,
      "judgment": 7447,
      "bills": 7448,
      "privacy": 7449,
      "kidnap": 7450,
      "stretch": 7451,
      "procedure": 7452,
      "explanation": 7453,
      "nephew": 7454,
      "=\\\\\\\\{": 7455,
      "Avatar": 7456,
      "Bhai": 7457,
      "FOR": 7458,
      "Hay": 7459,
      "Ki": 7460,
      "Kel": 7461,
      "aid": 7462,
      "bail": 7463,
      "measure": 7464,
      "ensure": 7465,
      "encry": 7466,
      "timing": 7467,
      "sometime": 7468,
      "congrat": 7469,
      "Behind": 7470,
      "div": 7471,
      "Church": 7472,
      "Sebast": 7473,
      "answered": 7474,
      "Staff": 7475,
      "disgusting": 7476,
      "Moon": 7477,
      "Coop": 7478,
      "pretending": 7479,
      "interrog": 7480,
      "skull": 7481,
      "freight": 7482,
      "operations": 7483,
      "clip": 7484,
      "Proper": 7485,
      "legacy": 7486,
      "Says": 7487,
      "Capitol": 7488,
      "Previous": 7489,
      "suspicious": 7490,
      "locate": 7491,
      "election": 7492,
      "Speed": 7493,
      "hostages": 7494,
      "added": 7495,
      "rupted": 7496,
      "azz": 7497,
      "Activ": 7498,
      "opposite": 7499,
      "immediate": 7500,
      "corrected": 7501,
      "Plus": 7502,
      "Modi": 7503,
      "political": 7504,
      "wasted": 7505,
      "knee": 7506,
      "requires": 7507,
      "combination": 7508,
      "Krishna": 7509,
      "adventure": 7510,
      "Dharma": 7511,
      "chemical": 7512,
      "Honestly": 7513,
      "Duggal": 7514,
      "Ball": 7515,
      "GL": 7516,
      "Gaj": 7517,
      "II": 7518,
      "Iris": 7519,
      "Kore": 7520,
      "Made": 7521,
      "Mummy": 7522,
      "Nate": 7523,
      "cue": 7524,
      "gie": 7525,
      "jet": 7526,
      "uary": 7527,
      "reverse": 7528,
      "engines": 7529,
      "tee": 7530,
      "indic": 7531,
      "manent": 7532,
      "conce": 7533,
      "conspir": 7534,
      "boom": 7535,
      "umn": 7536,
      "bugger": 7537,
      "civil": 7538,
      "movement": 7539,
      "Somewhere": 7540,
      "Form": 7541,
      "attached": 7542,
      "bush": 7543,
      "fourth": 7544,
      "integr": 7545,
      "Carlos": 7546,
      "Hari": 7547,
      "Conne": 7548,
      "grandson": 7549,
      "subway": 7550,
      "reported": 7551,
      "Blu": 7552,
      "pressing": 7553,
      "Babu": 7554,
      "recorded": 7555,
      "Sara": 7556,
      "souls": 7557,
      "Flor": 7558,
      "sexy": 7559,
      "Horse": 7560,
      "developed": 7561,
      "Click": 7562,
      "employees": 7563,
      "alcohol": 7564,
      "advance": 7565,
      "proposal": 7566,
      "exercise": 7567,
      "Pleasure": 7568,
      "32": 7569,
      "Edi": 7570,
      "GR": 7571,
      "Kas": 7572,
      "KNOW": 7573,
      "Sea": 7574,
      "Told": 7575,
      "Taking": 7576,
      "Wed": 7577,
      "Zam": 7578,
      "bind": 7579,
      "duck": 7580,
      "fting": 7581,
      "yards": 7582,
      "attorney": 7583,
      "eter": 7584,
      "ghs": 7585,
      "utch": 7586,
      "termin": 7587,
      "exposed": 7588,
      "propose": 7589,
      "wol": 7590,
      "Beans": 7591,
      "prise": 7592,
      "cheer": 7593,
      "cheque": 7594,
      "ints": 7595,
      "disaster": 7596,
      "mustn": 7597,
      "belief": 7598,
      "Molly": 7599,
      "fulfill": 7600,
      "matches": 7601,
      "meds": 7602,
      "sensitive": 7603,
      "recru": 7604,
      "ginal": 7605,
      "differently": 7606,
      "Quest": 7607,
      "magn": 7608,
      "facing": 7609,
      "Mission": 7610,
      "Private": 7611,
      "targets": 7612,
      "creating": 7613,
      "located": 7614,
      "prisoners": 7615,
      "Address": 7616,
      "Rajat": 7617,
      "ighs": 7618,
      "spending": 7619,
      "council": 7620,
      "ICE": 7621,
      "whistle": 7622,
      "Deputy": 7623,
      "ritual": 7624,
      "Wallace": 7625,
      "fetch": 7626,
      "knees": 7627,
      "Hyder": 7628,
      "mortal": 7629,
      "Pacific": 7630,
      "NASA": 7631,
      "Sebastian": 7632,
      "Amen": 7633,
      "Eko": 7634,
      "Later": 7635,
      "Sile": 7636,
      "bask": 7637,
      "frog": 7638,
      "resu": 7639,
      "dock": 7640,
      "union": 7641,
      "ceremon": 7642,
      "nail": 7643,
      "plot": 7644,
      "manufact": 7645,
      "exha": 7646,
      "rape": 7647,
      "fianc": 7648,
      "udes": 7649,
      "lightning": 7650,
      "compound": 7651,
      "studied": 7652,
      "cript": 7653,
      "Prot": 7654,
      "facts": 7655,
      "honour": 7656,
      "garh": 7657,
      "pursu": 7658,
      "rocket": 7659,
      "accounts": 7660,
      "honestly": 7661,
      "Wood": 7662,
      "reveal": 7663,
      "invented": 7664,
      "normally": 7665,
      "liquor": 7666,
      "cuffs": 7667,
      "Gnome": 7668,
      "Hun": 7669,
      "Makes": 7670,
      "Oz": 7671,
      "Pind": 7672,
      "Sandy": 7673,
      "bour": 7674,
      "knot": 7675,
      "mour": 7676,
      "oled": 7677,
      "onent": 7678,
      "seal": 7679,
      "bels": 7680,
      "Young": 7681,
      "alo": 7682,
      "adjust": 7683,
      "chant": 7684,
      "anytime": 7685,
      "commer": 7686,
      "sper": 7687,
      "Beera": 7688,
      "undercover": 7689,
      "retto": 7690,
      "Toretto": 7691,
      "mercy": 7692,
      "Jackson": 7693,
      "entific": 7694,
      "frust": 7695,
      "corpse": 7696,
      "Meen": 7697,
      "Dragon": 7698,
      "clients": 7699,
      "Emmet": 7700,
      "nearby": 7701,
      "199": 7702,
      "generator": 7703,
      "Berlin": 7704,
      "Riya": 7705,
      "Rudy": 7706,
      "Quickly": 7707,
      "Jerry": 7708,
      "Hotel": 7709,
      "thirsty": 7710,
      "traitor": 7711,
      "Settings": 7712,
      "911": 7713,
      "@}": 7714,
      "Battle": 7715,
      "Case": 7716,
      "Jona": 7717,
      "Pot": 7718,
      "bend": 7719,
      "dict": 7720,
      "kissed": 7721,
      "rever": 7722,
      "stones": 7723,
      "rifle": 7724,
      "goal": 7725,
      "Heard": 7726,
      "irty": 7727,
      "cant": 7728,
      "shh": 7729,
      "sharing": 7730,
      "entin": 7731,
      "raising": 7732,
      "Dog": 7733,
      "spill": 7734,
      "cheated": 7735,
      "underwear": 7736,
      "Intern": 7737,
      "mini": 7738,
      "apple": 7739,
      "Definitely": 7740,
      "dram": 7741,
      "senior": 7742,
      "ails": 7743,
      "trusting": 7744,
      "dreaming": 7745,
      "Problem": 7746,
      "patience": 7747,
      "tested": 7748,
      "OUT": 7749,
      "fixing": 7750,
      "Ahh": 7751,
      "purse": 7752,
      "joining": 7753,
      "appropri": 7754,
      "threats": 7755,
      "elders": 7756,
      "rassed": 7757,
      "involve": 7758,
      "Contin": 7759,
      "drawn": 7760,
      "Shiva": 7761,
      "routine": 7762,
      "fraud": 7763,
      "whisper": 7764,
      "humili": 7765,
      "describe": 7766,
      "waves": 7767,
      "mysterious": 7768,
      "determin": 7769,
      "Figu": 7770,
      "consequences": 7771,
      "wolves": 7772,
      "Jonathan": 7773,
      "Agn": 7774,
      "Aunty": 7775,
      "BO": 7776,
      "Fam": 7777,
      "Fil": 7778,
      "Ga": 7779,
      "Pam": 7780,
      "Sutter": 7781,
      "WE": 7782,
      "XX": 7783,
      "cord": 7784,
      "ego": 7785,
      "eff": 7786,
      "retired": 7787,
      "atures": 7788,
      "hend": 7789,
      "ishi": 7790,
      "leng": 7791,
      "liber": 7792,
      "tex": 7793,
      "deer": 7794,
      "cken": 7795,
      "pless": 7796,
      "killers": 7797,
      "Inside": 7798,
      "Reed": 7799,
      "Reyes": 7800,
      "serial": 7801,
      "breed": 7802,
      "beings": 7803,
      "cursed": 7804,
      "closest": 7805,
      "parties": 7806,
      "Chef": 7807,
      "Gotya": 7808,
      "dogan": 7809,
      "hania": 7810,
      "boxes": 7811,
      "Singhania": 7812,
      "Spanish": 7813,
      "Simmons": 7814,
      "cookies": 7815,
      "Descri": 7816,
      "limited": 7817,
      "knocked": 7818,
      "Erdogan": 7819,
      "Karl": 7820,
      "Cobb": 7821,
      "settled": 7822,
      "focused": 7823,
      "Knock": 7824,
      "wealth": 7825,
      "Crewes": 7826,
      "holiday": 7827,
      "Protect": 7828,
      "2000": 7829,
      "AC": 7830,
      "Bunny": 7831,
      "Deve": 7832,
      "DON": 7833,
      "EP": 7834,
      "Flynn": 7835,
      "Hud": 7836,
      "Java": 7837,
      "Ky": 7838,
      "Kenny": 7839,
      "LY": 7840,
      "Len": 7841,
      "Mount": 7842,
      "Nep": 7843,
      "Sid": 7844,
      "Sta": 7845,
      "Vari": 7846,
      "Ye": 7847,
      "ctory": 7848,
      "dar": 7849,
      "eu": 7850,
      "fying": 7851,
      "glow": 7852,
      "pad": 7853,
      "sar": 7854,
      "tact": 7855,
      "twenty": 7856,
      "incl": 7857,
      "independ": 7858,
      "hesit": 7859,
      "lle": 7860,
      "oraj": 7861,
      "sect": 7862,
      "argue": 7863,
      "aser": 7864,
      "bees": 7865,
      "cancell": 7866,
      "boar": 7867,
      "coma": 7868,
      "Sooraj": 7869,
      "ieur": 7870,
      "uckles": 7871,
      "chemist": 7872,
      "selfish": 7873,
      "obli": 7874,
      "Into": 7875,
      "izes": 7876,
      "Joey": 7877,
      "Neha": 7878,
      "damned": 7879,
      "Roll": 7880,
      "Ark": 7881,
      "speaks": 7882,
      "testing": 7883,
      "invitation": 7884,
      "ysis": 7885,
      "ibility": 7886,
      "Leaving": 7887,
      "Press": 7888,
      "distribut": 7889,
      "vention": 7890,
      "Liam": 7891,
      "muscle": 7892,
      "fields": 7893,
      "fleet": 7894,
      "casino": 7895,
      "Teri": 7896,
      "twins": 7897,
      "UST": 7898,
      "quality": 7899,
      "television": 7900,
      "besides": 7901,
      "Wilson": 7902,
      "embarrassed": 7903,
      "Business": 7904,
      "employee": 7905,
      "Frodo": 7906,
      "Joseph": 7907,
      "temporary": 7908,
      "kilome": 7909,
      "fashion": 7910,
      "29": 7911,
      "Ban": 7912,
      "Bass": 7913,
      "Coun": 7914,
      "Gri": 7915,
      "Lily": 7916,
      "ML": 7917,
      "Prison": 7918,
      "Rap": 7919,
      "Ze": 7920,
      "aus": 7921,
      "batt": 7922,
      "gins": 7923,
      "ogre": 7924,
      "pant": 7925,
      "rated": 7926,
      "sque": 7927,
      "thunder": 7928,
      "rear": 7929,
      "..'": 7930,
      "bears": 7931,
      "hated": 7932,
      "essen": 7933,
      "wiped": 7934,
      "forbid": 7935,
      "lymp": 7936,
      "aggress": 7937,
      "pean": 7938,
      "sav": 7939,
      "plants": 7940,
      "sucks": 7941,
      "concept": 7942,
      "Solo": 7943,
      "Anthony": 7944,
      "Replace": 7945,
      "Alison": 7946,
      "shared": 7947,
      "Meena": 7948,
      "confidence": 7949,
      "THING": 7950,
      "Carrie": 7951,
      "patrol": 7952,
      "Peeta": 7953,
      "meantime": 7954,
      "Saroja": 7955,
      "imagination": 7956,
      "Synd": 7957,
      "fella": 7958,
      "capital": 7959,
      "traveling": 7960,
      "continues": 7961,
      "storage": 7962,
      "Russia": 7963,
      "Highlight": 7964,
      "GHS": 7965,
      "festival": 7966,
      "punishment": 7967,
      "Buddy": 7968,
      "searched": 7969,
      "groups": 7970,
      "Gnomeo": 7971,
      "Meenamma": 7972,
      "Cat": 7973,
      "Event": 7974,
      "Jon": 7975,
      "MY": 7976,
      "Nand": 7977,
      "PH": 7978,
      "Part": 7979,
      "Wi": 7980,
      "cs": 7981,
      "dated": 7982,
      "mitted": 7983,
      "oath": 7984,
      "obey": 7985,
      "pace": 7986,
      "yn": 7987,
      "thread": 7988,
      "reporter": 7989,
      "aded": 7990,
      "ams": 7991,
      "unning": 7992,
      "teries": 7993,
      "quant": 7994,
      "stored": 7995,
      "lph": 7996,
      "permanent": 7997,
      "dimen": 7998,
      "ademy": 7999,
      "surgeon": 8000,
      "shoe": 8001,
      "chap": 8002,
      "visited": 8003,
      "Meera": 8004,
      "confusion": 8005,
      "Fog": 8006,
      "150": 8007,
      "ARE": 8008,
      "ringing": 8009,
      "ification": 8010,
      "forcement": 8011,
      "drawing": 8012,
      "Germany": 8013,
      "execute": 8014,
      "symbol": 8015,
      "passports": 8016,
      "citizen": 8017,
      "broadcast": 8018,
      "suspended": 8019,
      "summit": 8020,
      "Develo": 8021,
      ".?": 8022,
      "Flight": 8023,
      "Pin": 8024,
      "Vill": 8025,
      "Word": 8026,
      "dish": 8027,
      "ebe": 8028,
      "kre": 8029,
      "lers": 8030,
      "nit": 8031,
      "nik": 8032,
      "pound": 8033,
      "uals": 8034,
      "atmo": 8035,
      "heh": 8036,
      "beans": 8037,
      "rogue": 8038,
      "allerg": 8039,
      "holy": 8040,
      "cancel": 8041,
      "ckets": 8042,
      "Andre": 8043,
      "sale": 8044,
      "sales": 8045,
      "ously": 8046,
      "berg": 8047,
      "diag": 8048,
      "missions": 8049,
      "finan": 8050,
      "counts": 8051,
      "Ennis": 8052,
      "rane": 8053,
      "Emperor": 8054,
      "burnt": 8055,
      "ensive": 8056,
      "paths": 8057,
      "Ramse": 8058,
      "Smith": 8059,
      "idential": 8060,
      "Brend": 8061,
      "Shikre": 8062,
      "fifty": 8063,
      "relatives": 8064,
      "frozen": 8065,
      "coordinates": 8066,
      "influence": 8067,
      "Hyderabad": 8068,
      "exhaust": 8069,
      "815": 8070,
      "Adam": 8071,
      "Bane": 8072,
      "Cus": 8073,
      "Center": 8074,
      "Diana": 8075,
      "Fab": 8076,
      "Gas": 8077,
      "Making": 8078,
      "Math": 8079,
      "OP": 8080,
      "Olymp": 8081,
      "amy": 8082,
      "fans": 8083,
      "rak": 8084,
      "insp": 8085,
      "thent": 8086,
      "atre": 8087,
      "itar": 8088,
      "Thea": 8089,
      "abilities": 8090,
      "washed": 8091,
      "uncomfortable": 8092,
      "nold": 8093,
      "comment": 8094,
      "exhibit": 8095,
      "erstood": 8096,
      "aps": 8097,
      "spark": 8098,
      "filed": 8099,
      "chee": 8100,
      "achin": 8101,
      "oses": 8102,
      "theirs": 8103,
      "Repe": 8104,
      "sighs": 8105,
      "Boston": 8106,
      "buildings": 8107,
      "instant": 8108,
      "registered": 8109,
      "Peri": 8110,
      "bribe": 8111,
      "Jere": 8112,
      "Elise": 8113,
      "Jimmy": 8114,
      "tunnels": 8115,
      "automatically": 8116,
      "communicate": 8117,
      "Wolf": 8118,
      "claims": 8119,
      "intelligent": 8120,
      "demons": 8121,
      "companies": 8122,
      "Strange": 8123,
      "Viktor": 8124,
      "candid": 8125,
      "technically": 8126,
      "Understood": 8127,
      "Califor": 8128,
      "Autobots": 8129,
      "1st": 8130,
      "Ay": 8131,
      "Ford": 8132,
      "Glo": 8133,
      "Glen": 8134,
      "Hart": 8135,
      "Lib": 8136,
      "Leland": 8137,
      "Pand": 8138,
      "Som": 8139,
      "Storm": 8140,
      "Yell": 8141,
      "bun": 8142,
      "eving": 8143,
      "mant": 8144,
      "iner": 8145,
      "thew": 8146,
      "araj": 8147,
      "acity": 8148,
      "...'": 8149,
      "plastic": 8150,
      "sheet": 8151,
      "improve": 8152,
      "players": 8153,
      "Deon": 8154,
      "shocked": 8155,
      "Ungli": 8156,
      "string": 8157,
      "daught": 8158,
      "rising": 8159,
      "Boom": 8160,
      "configuration": 8161,
      "charm": 8162,
      "ANS": 8163,
      "miser": 8164,
      "Quit": 8165,
      "aliens": 8166,
      "positions": 8167,
      "register": 8168,
      "faced": 8169,
      "Import": 8170,
      "honeymoon": 8171,
      "Marty": 8172,
      "terrorists": 8173,
      "parked": 8174,
      "Update": 8175,
      "remaining": 8176,
      "Rayna": 8177,
      "firing": 8178,
      "development": 8179,
      "robots": 8180,
      "efforts": 8181,
      "Jedi": 8182,
      "Kurt": 8183,
      "therapy": 8184,
      "lmmy": 8185,
      "fiancé": 8186,
      "Jeremy": 8187,
      "Aug": 8188,
      "Lang": 8189,
      "Person": 8190,
      "Sna": 8191,
      "ctron": 8192,
      "eze": 8193,
      "fits": 8194,
      "mall": 8195,
      "skill": 8196,
      "yers": 8197,
      "zzy": 8198,
      "thick": 8199,
      "onica": 8200,
      "llor": 8201,
      "stic": 8202,
      "wears": 8203,
      "rial": 8204,
      "unstable": 8205,
      "someplace": 8206,
      "traged": 8207,
      "spons": 8208,
      "undry": 8209,
      "itect": 8210,
      "disgu": 8211,
      "Moose": 8212,
      "lessly": 8213,
      "drivers": 8214,
      "intercept": 8215,
      "Manny": 8216,
      "operative": 8217,
      "voy": 8218,
      "completed": 8219,
      "Indeed": 8220,
      "ballo": 8221,
      "boats": 8222,
      "Sym": 8223,
      "Raja": 8224,
      "Rao": 8225,
      "Ravi": 8226,
      "Corpor": 8227,
      "potato": 8228,
      "weakness": 8229,
      "micro": 8230,
      "poisoned": 8231,
      "tradition": 8232,
      "pyram": 8233,
      "scheduled": 8234,
      "revealed": 8235,
      "Matthew": 8236,
      "Fairy": 8237,
      "cruel": 8238,
      "officials": 8239,
      "argument": 8240,
      "Bombay": 8241,
      "Gabri": 8242,
      "Original": 8243,
      "construction": 8244,
      "reputation": 8245,
      "Hudson": 8246,
      "36": 8247,
      "Ak": 8248,
      "Bug": 8249,
      "Creat": 8250,
      "Gren": 8251,
      "Gaur": 8252,
      "KE": 8253,
      "Kim": 8254,
      "Lower": 8255,
      "Mont": 8256,
      "Non": 8257,
      "Nur": 8258,
      "Ress": 8259,
      "Rum": 8260,
      "dign": 8261,
      "inher": 8262,
      "towel": 8263,
      "issa": 8264,
      "assem": 8265,
      "beep": 8266,
      "bearing": 8267,
      "andra": 8268,
      "goons": 8269,
      "Hear": 8270,
      "chid": 8271,
      "unfortunate": 8272,
      "urai": 8273,
      "caution": 8274,
      "aksh": 8275,
      "ulu": 8276,
      "ques": 8277,
      "downtown": 8278,
      "scum": 8279,
      "Through": 8280,
      "precise": 8281,
      "brew": 8282,
      "resort": 8283,
      "aircraft": 8284,
      "Charu": 8285,
      "misunderstanding": 8286,
      "accused": 8287,
      "Reddy": 8288,
      "France": 8289,
      "arrival": 8290,
      "imagined": 8291,
      "strict": 8292,
      "supported": 8293,
      "Pardon": 8294,
      "Radha": 8295,
      "fingerprints": 8296,
      "publ": 8297,
      "arrangement": 8298,
      "impression": 8299,
      "evacuate": 8300,
      "loyalty": 8301,
      "Selvi": 8302,
      "Wonderful": 8303,
      "vampire": 8304,
      "Japanese": 8305,
      "scheme": 8306,
      "advised": 8307,
      "radiation": 8308,
      "advanced": 8309,
      "controls": 8310,
      "ceremony": 8311,
      "Ressler": 8312,
      "DV": 8313,
      "Dig": 8314,
      "Gone": 8315,
      "Hans": 8316,
      "Jup": 8317,
      "Mud": 8318,
      "MAR": 8319,
      "Net": 8320,
      "Opti": 8321,
      "Rid": 8322,
      "SS": 8323,
      "Sep": 8324,
      "Sweetheart": 8325,
      "Sully": 8326,
      "shat": 8327,
      "swallow": 8328,
      "vast": 8329,
      "anno": 8330,
      "isol": 8331,
      "arest": 8332,
      "loop": 8333,
      "icing": 8334,
      "irt": 8335,
      "Theme": 8336,
      "deaf": 8337,
      "contr": 8338,
      "sayin": 8339,
      "pton": 8340,
      "Chan": 8341,
      "Canada": 8342,
      "shopping": 8343,
      "shares": 8344,
      "blocked": 8345,
      "listened": 8346,
      "Mariko": 8347,
      "Commit": 8348,
      "deaths": 8349,
      "tracked": 8350,
      "Leon": 8351,
      "Priest": 8352,
      "gym": 8353,
      "rats": 8354,
      "recovered": 8355,
      "Smart": 8356,
      "treating": 8357,
      "flee": 8358,
      "difficul": 8359,
      "activate": 8360,
      "kidnapping": 8361,
      "assumed": 8362,
      "Radio": 8363,
      "psychi": 8364,
      "Safe": 8365,
      "Engine": 8366,
      "silence": 8367,
      "Mindy": 8368,
      "Mexican": 8369,
      "Write": 8370,
      "divorced": 8371,
      "determine": 8372,
      "temperature": 8373,
      "Friends": 8374,
      "electricity": 8375,
      "corruption": 8376,
      "individual": 8377,
      "Gardner": 8378,
      "underest": 8379,
      "relevant": 8380,
      "Libby": 8381,
      "\"\"": 8382,
      "33": 8383,
      "Aj": 8384,
      "PA": 8385,
      "Sad": 8386,
      "Size": 8387,
      "Sana": 8388,
      "Stra": 8389,
      "Tig": 8390,
      "UP": 8391,
      "Witch": 8392,
      "bul": 8393,
      "bark": 8394,
      "bureau": 8395,
      "sari": 8396,
      "toe": 8397,
      "orbit": 8398,
      "omed": 8399,
      "neath": 8400,
      "abuse": 8401,
      "unconscious": 8402,
      "urally": 8403,
      "aine": 8404,
      "hypo": 8405,
      "guilt": 8406,
      "sci": 8407,
      "Beez": 8408,
      "lame": 8409,
      "Ananya": 8410,
      "throne": 8411,
      "believing": 8412,
      "iah": 8413,
      "chop": 8414,
      "powder": 8415,
      "studies": 8416,
      "privi": 8417,
      "glitch": 8418,
      "signature": 8419,
      "internal": 8420,
      "locker": 8421,
      "Commission": 8422,
      "THER": 8423,
      "ANT": 8424,
      "cliff": 8425,
      "ikes": 8426,
      "Abhay": 8427,
      "Shake": 8428,
      "Train": 8429,
      "Fool": 8430,
      "transl": 8431,
      "Preview": 8432,
      "Baba": 8433,
      "responding": 8434,
      "Tej": 8435,
      "Laure": 8436,
      "Madhav": 8437,
      "Vegas": 8438,
      "investigate": 8439,
      "Walker": 8440,
      "sandwich": 8441,
      "education": 8442,
      "Hindi": 8443,
      "Nandini": 8444,
      "California": 8445,
      "Gaurav": 8446,
      "Brow": 8447,
      "Cance": 8448,
      "Fountain": 8449,
      "Gam": 8450,
      "Ir": 8451,
      "Kids": 8452,
      "MA": 8453,
      "Nig": 8454,
      "Sl": 8455,
      "central": 8456,
      "gig": 8457,
      "imed": 8458,
      "kok": 8459,
      "lun": 8460,
      "mac": 8461,
      "uated": 8462,
      "recover": 8463,
      "anx": 8464,
      "arctic": 8465,
      "Doyle": 8466,
      "worker": 8467,
      "underneath": 8468,
      "maan": 8469,
      "worlds": 8470,
      "Negative": 8471,
      "Jackie": 8472,
      "chaos": 8473,
      "tensed": 8474,
      "Mehra": 8475,
      "parole": 8476,
      "bargain": 8477,
      "architect": 8478,
      "remark": 8479,
      "drops": 8480,
      "Holly": 8481,
      "highway": 8482,
      "appeared": 8483,
      "graph": 8484,
      "Benny": 8485,
      "Benji": 8486,
      "filthy": 8487,
      "reaching": 8488,
      "flew": 8489,
      "delicious": 8490,
      "posted": 8491,
      "cowboy": 8492,
      "dragged": 8493,
      "Devon": 8494,
      "necessarily": 8495,
      "LAU": 8496,
      "customer": 8497,
      "shadows": 8498,
      "scale": 8499,
      "particularly": 8500,
      "motive": 8501,
      "Much": 8502,
      "Veronica": 8503,
      "Bullshit": 8504,
      "declared": 8505,
      "Emergency": 8506,
      "quiry": 8507,
      "jewelry": 8508,
      "Repeat": 8509,
      "August": 8510,
      "Gabriel": 8511,
      "'..": 8512,
      "55": 8513,
      "Gang": 8514,
      "Kings": 8515,
      "List": 8516,
      "Oper": 8517,
      "Scho": 8518,
      "Ven": 8519,
      "WAS": 8520,
      "diction": 8521,
      "kings": 8522,
      "mr": 8523,
      "ux": 8524,
      "uum": 8525,
      "vul": 8526,
      "replaced": 8527,
      "angu": 8528,
      "odka": 8529,
      "ived": 8530,
      "backs": 8531,
      "istent": 8532,
      "Sovi": 8533,
      "apers": 8534,
      "shoulders": 8535,
      "Beeth": 8536,
      "branch": 8537,
      "affected": 8538,
      "diary": 8539,
      "Incoming": 8540,
      "inton": 8541,
      "chips": 8542,
      "applied": 8543,
      "Toby": 8544,
      "desc": 8545,
      "opens": 8546,
      "drives": 8547,
      "autas": 8548,
      "Maria": 8549,
      "learnt": 8550,
      "intel": 8551,
      "halfway": 8552,
      "OULD": 8553,
      "Aleya": 8554,
      "distress": 8555,
      "radar": 8556,
      "superhero": 8557,
      "Syl": 8558,
      "grabbed": 8559,
      "specif": 8560,
      "reminds": 8561,
      "understorm": 8562,
      "conscience": 8563,
      "adopted": 8564,
      "possession": 8565,
      "traditional": 8566,
      "Renautas": 8567,
      "Faraday": 8568,
      "dialog": 8569,
      "champagne": 8570,
      "pirate": 8571,
      "stitute": 8572,
      "slapped": 8573,
      "structure": 8574,
      "preparing": 8575,
      "jerk": 8576,
      "WOMAN": 8577,
      "Oceanic": 8578,
      "Labs": 8579,
      "maximum": 8580,
      "Question": 8581,
      "cancelled": 8582,
      "Madhavgarh": 8583,
      "Beethoven": 8584,
      "'!": 8585,
      "Aha": 8586,
      "Cri": 8587,
      "Cast": 8588,
      "Fant": 8589,
      "Job": 8590,
      "Kai": 8591,
      "Mist": 8592,
      "Moses": 8593,
      "Pai": 8594,
      "Sof": 8595,
      "Town": 8596,
      "Tina": 8597,
      "bou": 8598,
      "rd": 8599,
      "tub": 8600,
      "vital": 8601,
      "wal": 8602,
      "hates": 8603,
      "acci": 8604,
      "gosh": 8605,
      "admin": 8606,
      "lod": 8607,
      "aby": 8608,
      "odor": 8609,
      "devices": 8610,
      "somethin": 8611,
      "worries": 8612,
      "saken": 8613,
      "abouts": 8614,
      "pled": 8615,
      "cope": 8616,
      "Gotham": 8617,
      "bles": 8618,
      "Wherever": 8619,
      "wont": 8620,
      "aud": 8621,
      "Stri": 8622,
      "Recent": 8623,
      "clar": 8624,
      "clown": 8625,
      "Decept": 8626,
      "finest": 8627,
      "tries": 8628,
      "Quill": 8629,
      "colors": 8630,
      "interests": 8631,
      "magaz": 8632,
      "filtr": 8633,
      "Liar": 8634,
      "Liqu": 8635,
      "colleague": 8636,
      "13th": 8637,
      "depth": 8638,
      "orgeous": 8639,
      "Windows": 8640,
      "snap": 8641,
      "Rango": 8642,
      "Republic": 8643,
      "warriors": 8644,
      "confirmation": 8645,
      "talented": 8646,
      "elderman": 8647,
      "codes": 8648,
      "associate": 8649,
      "Lori": 8650,
      "global": 8651,
      "GPS": 8652,
      "University": 8653,
      "Interesting": 8654,
      "Syndicate": 8655,
      "Amm": 8656,
      "BUT": 8657,
      "Eye": 8658,
      "Gor": 8659,
      "Hide": 8660,
      "Having": 8661,
      "Kam": 8662,
      "Ox": 8663,
      "Page": 8664,
      "Riley": 8665,
      "Shen": 8666,
      "TA": 8667,
      "Tick": 8668,
      "Trent": 8669,
      "Vo": 8670,
      "Yash": 8671,
      "jing": 8672,
      "nod": 8673,
      "rag": 8674,
      "tis": 8675,
      "wre": 8676,
      "rehab": 8677,
      "abber": 8678,
      "cape": 8679,
      "wanting": 8680,
      "plates": 8681,
      "istics": 8682,
      "rase": 8683,
      "Loading": 8684,
      "gray": 8685,
      "prank": 8686,
      "Justice": 8687,
      "phard": 8688,
      "mothers": 8689,
      "stepped": 8690,
      "certificate": 8691,
      "Armaan": 8692,
      "confess": 8693,
      "confident": 8694,
      "flare": 8695,
      "paign": 8696,
      "hara": 8697,
      "Carver": 8698,
      "colony": 8699,
      "secretary": 8700,
      "hammer": 8701,
      "cuit": 8702,
      "burden": 8703,
      "Monkeys": 8704,
      "district": 8705,
      "films": 8706,
      "Chicken": 8707,
      "raining": 8708,
      "electron": 8709,
      "blows": 8710,
      "existed": 8711,
      "deeper": 8712,
      "casual": 8713,
      "enjoyed": 8714,
      "Gerry": 8715,
      "ogle": 8716,
      "authorized": 8717,
      "Rancho": 8718,
      "containment": 8719,
      "introduced": 8720,
      "Collins": 8721,
      "grief": 8722,
      "Royal": 8723,
      "educated": 8724,
      "Annunz": 8725,
      "predictable": 8726,
      "mechanic": 8727,
      "1206": 8728,
      "anniversary": 8729,
      "poetry": 8730,
      "Octo": 8731,
      "switched": 8732,
      "=\\\\\\\\{@}": 8733,
      "appropriate": 8734,
      "daughters": 8735,
      "Beezus": 8736,
      "Annunzio": 8737,
      "Ash": 8738,
      "EOL": 8739,
      "Fib": 8740,
      "Nation": 8741,
      "Pit": 8742,
      "Rio": 8743,
      "Smo": 8744,
      "wan": 8745,
      "thrill": 8746,
      "theast": 8747,
      "hears": 8748,
      ".....": 8749,
      "enforcement": 8750,
      "belly": 8751,
      "beacon": 8752,
      "haunt": 8753,
      "accur": 8754,
      "Ital": 8755,
      "dem": 8756,
      "herd": 8757,
      "bold": 8758,
      "sheep": 8759,
      "Shephard": 8760,
      "Doing": 8761,
      "spaces": 8762,
      "obsessed": 8763,
      "Yours": 8764,
      "autop": 8765,
      "wrist": 8766,
      "blon": 8767,
      "kiddo": 8768,
      "realise": 8769,
      "Default": 8770,
      "shaking": 8771,
      "Exe": 8772,
      "ggage": 8773,
      "mmm": 8774,
      "damaged": 8775,
      "checks": 8776,
      "metres": 8777,
      "News": 8778,
      "painful": 8779,
      "instit": 8780,
      "Luca": 8781,
      "properties": 8782,
      "Scot": 8783,
      "Background": 8784,
      "netic": 8785,
      "terribly": 8786,
      "starving": 8787,
      "DEA": 8788,
      "ASE": 8789,
      "Jeff": 8790,
      "paperwork": 8791,
      "engineering": 8792,
      "feeding": 8793,
      "Murphy": 8794,
      "vehicles": 8795,
      "qualified": 8796,
      "Blood": 8797,
      "Nathan": 8798,
      "Parker": 8799,
      "fifth": 8800,
      "puppy": 8801,
      "samples": 8802,
      "critical": 8803,
      "Children": 8804,
      "retirement": 8805,
      "newspaper": 8806,
      "audience": 8807,
      "Bless": 8808,
      "Bond": 8809,
      "Cub": 8810,
      "Kab": 8811,
      "Psy": 8812,
      "Screw": 8813,
      "bree": 8814,
      "fled": 8815,
      "jah": 8816,
      "native": 8817,
      "pour": 8818,
      "vation": 8819,
      "ouille": 8820,
      "bean": 8821,
      "beside": 8822,
      "hobby": 8823,
      "abor": 8824,
      "urs": 8825,
      "ilton": 8826,
      "fooled": 8827,
      "ousse": 8828,
      "Than": 8829,
      "embrace": 8830,
      "tortured": 8831,
      "Anim": 8832,
      "Rey": 8833,
      "retreat": 8834,
      "Def": 8835,
      "compared": 8836,
      "nerve": 8837,
      "smiles": 8838,
      "Waiting": 8839,
      "lawyers": 8840,
      "barbar": 8841,
      "confession": 8842,
      "shooter": 8843,
      "Carol": 8844,
      "invas": 8845,
      "marked": 8846,
      "cleaned": 8847,
      "horn": 8848,
      "Bellick": 8849,
      "Papi": 8850,
      "belonged": 8851,
      "issued": 8852,
      "Display": 8853,
      "ICK": 8854,
      "claimed": 8855,
      "Riva": 8856,
      "Object": 8857,
      "Maggie": 8858,
      "dialo": 8859,
      "massive": 8860,
      "County": 8861,
      "racing": 8862,
      "Isabel": 8863,
      "Currently": 8864,
      "Certain": 8865,
      "tragedy": 8866,
      "Jupiter": 8867,
      "%.": 8868,
      "Bot": 8869,
      "Fast": 8870,
      "Fear": 8871,
      "Kom": 8872,
      "Menu": 8873,
      "Rub": 8874,
      "Sty": 8875,
      "Tanya": 8876,
      "TARS": 8877,
      "Wig": 8878,
      "bare": 8879,
      "fid": 8880,
      "pond": 8881,
      "sis": 8882,
      "shave": 8883,
      "sie": 8884,
      "swell": 8885,
      "tho": 8886,
      "thus": 8887,
      "infiltr": 8888,
      "toms": 8889,
      "toler": 8890,
      "mere": 8891,
      "orange": 8892,
      "envelo": 8893,
      "becca": 8894,
      "otic": 8895,
      "ads": 8896,
      "outfit": 8897,
      "delete": 8898,
      "deploy": 8899,
      "guitar": 8900,
      "prophe": 8901,
      "blessed": 8902,
      "diplo": 8903,
      "wondered": 8904,
      "aching": 8905,
      "Rebecca": 8906,
      "intense": 8907,
      "clusive": 8908,
      "Deli": 8909,
      "Asgard": 8910,
      "stron": 8911,
      "lief": 8912,
      "penny": 8913,
      "sweep": 8914,
      "clearance": 8915,
      "rancho": 8916,
      "ika": 8917,
      "smaller": 8918,
      "Norman": 8919,
      "burst": 8920,
      "rolled": 8921,
      "banks": 8922,
      "YOUR": 8923,
      "strip": 8924,
      "salary": 8925,
      "Grey": 8926,
      "McCall": 8927,
      "luggage": 8928,
      "assistance": 8929,
      "bugs": 8930,
      "Dominic": 8931,
      "Babe": 8932,
      "index": 8933,
      "Subject": 8934,
      "complaint": 8935,
      "characters": 8936,
      "abandon": 8937,
      "Hannah": 8938,
      "Virgin": 8939,
      "Gandhi": 8940,
      "Middle": 8941,
      "Amazing": 8942,
      "explosives": 8943,
      "retrieve": 8944,
      "Ag": 8945,
      "Action": 8946,
      "Apri": 8947,
      "Card": 8948,
      "DA": 8949,
      "Kadam": 8950,
      "OS": 8951,
      "Saint": 8952,
      "Sachin": 8953,
      "chim": 8954,
      "gat": 8955,
      "gall": 8956,
      "gage": 8957,
      "junior": 8958,
      "mister": 8959,
      "rin": 8960,
      "rank": 8961,
      "tone": 8962,
      "anal": 8963,
      "heist": 8964,
      "arrow": 8965,
      "enna": 8966,
      "pple": 8967,
      "Sold": 8968,
      "ulated": 8969,
      "Door": 8970,
      "ideal": 8971,
      "itty": 8972,
      "moron": 8973,
      "disrespect": 8974,
      "disabled": 8975,
      "Goodwin": 8976,
      "bitches": 8977,
      "Debugger": 8978,
      "warf": 8979,
      "aval": 8980,
      "despite": 8981,
      "Explain": 8982,
      "ggs": 8983,
      "promotion": 8984,
      "pardon": 8985,
      "Marine": 8986,
      "Marines": 8987,
      "Martha": 8988,
      "figures": 8989,
      "Hospital": 8990,
      "denied": 8991,
      "villages": 8992,
      "witnesses": 8993,
      "worthless": 8994,
      "packing": 8995,
      "Barbie": 8996,
      "contacts": 8997,
      "recording": 8998,
      "recovery": 8999,
      "approval": 9000,
      "kicking": 9001,
      "correctly": 9002,
      "nesday": 9003,
      "thorough": 9004,
      "labor": 9005,
      "impy": 9006,
      "Wanted": 9007,
      "medication": 9008,
      "Ellie": 9009,
      "arrangements": 9010,
      "possess": 9011,
      "Chandu": 9012,
      "Sweetie": 9013,
      "Shreya": 9014,
      "waist": 9015,
      "Stevens": 9016,
      "strategy": 9017,
      "concentrate": 9018,
      "dynamite": 9019,
      "unexpected": 9020,
      "conspiracy": 9021,
      "diagno": 9022,
      "October": 9023,
      "April": 9024,
      "Cait": 9025,
      "Dall": 9026,
      "Ip": 9027,
      "Lan": 9028,
      "Mouse": 9029,
      "Mons": 9030,
      "Pad": 9031,
      "Rat": 9032,
      "Tink": 9033,
      "bish": 9034,
      "dd": 9035,
      "iman": 9036,
      "inity": 9037,
      "infection": 9038,
      "rebels": 9039,
      "anony": 9040,
      "heavi": 9041,
      "ories": 9042,
      "ario": 9043,
      "accus": 9044,
      "oki": 9045,
      "delight": 9046,
      "cocon": 9047,
      "cooperate": 9048,
      "Gov": 9049,
      "Goines": 9050,
      "spray": 9051,
      "whereabouts": 9052,
      "scound": 9053,
      "assholes": 9054,
      "showers": 9055,
      "drew": 9056,
      "joint": 9057,
      "policeman": 9058,
      "fighter": 9059,
      "Grant": 9060,
      "calcul": 9061,
      "THIS": 9062,
      "THERE": 9063,
      "Carla": 9064,
      "Harrison": 9065,
      "ridge": 9066,
      "bombing": 9067,
      "graphi": 9068,
      "Surely": 9069,
      "ENT": 9070,
      "personality": 9071,
      "buttons": 9072,
      "helpless": 9073,
      "Congress": 9074,
      "zzi": 9075,
      "climbing": 9076,
      "experienced": 9077,
      "stream": 9078,
      "blanket": 9079,
      "Fifty": 9080,
      "Phoebe": 9081,
      "elephant": 9082,
      "Document": 9083,
      "Wednesday": 9084,
      "pyramid": 9085,
      "Dallas": 9086,
      "Monsieur": 9087,
      "1000": 9088,
      "Arav": 9089,
      "Chat": 9090,
      "JUST": 9091,
      "LJ": 9092,
      "Lots": 9093,
      "Pear": 9094,
      "Win": 9095,
      "fuse": 9096,
      "jar": 9097,
      "nan": 9098,
      "rard": 9099,
      "enabled": 9100,
      "hacked": 9101,
      "wick": 9102,
      "lobby": 9103,
      "irrit": 9104,
      "plague": 9105,
      "mankind": 9106,
      "bored": 9107,
      "evey": 9108,
      "helpful": 9109,
      "laun": 9110,
      "laundry": 9111,
      "Intellig": 9112,
      "Moss": 9113,
      "Joy": 9114,
      "Already": 9115,
      "senpai": 9116,
      "Road": 9117,
      "prick": 9118,
      "signific": 9119,
      "lockdown": 9120,
      "patriots": 9121,
      "wheels": 9122,
      "explained": 9123,
      "Luke": 9124,
      "sticking": 9125,
      "Times": 9126,
      "suitable": 9127,
      "Applic": 9128,
      "salt": 9129,
      "oppo": 9130,
      "bald": 9131,
      "ounced": 9132,
      "Terminal": 9133,
      "forgiveness": 9134,
      "produce": 9135,
      "bothering": 9136,
      "Gerrard": 9137,
      "Nikki": 9138,
      "experiments": 9139,
      "relieve": 9140,
      "motiv": 9141,
      "Senator": 9142,
      "fascin": 9143,
      "width": 9144,
      "Bangkok": 9145,
      "negotiate": 9146,
      "Value": 9147,
      "manifest": 9148,
      "compliment": 9149,
      "average": 9150,
      "Egypt": 9151,
      "crisis": 9152,
      "Agnes": 9153,
      "aggressive": 9154,
      "Brenda": 9155,
      "thentic": 9156,
      "School": 9157,
      "Aravind": 9158,
      "Dinner": 9159,
      "Flo": 9160,
      "Kit": 9161,
      "KELL": 9162,
      "Low": 9163,
      "Malley": 9164,
      "Pitt": 9165,
      "Tim": 9166,
      "Tran": 9167,
      "Uk": 9168,
      "econ": 9169,
      "eager": 9170,
      "rul": 9171,
      "vas": 9172,
      "wounds": 9173,
      "reception": 9174,
      "relief": 9175,
      "yout": 9176,
      "tol": 9177,
      "states": 9178,
      "stamp": 9179,
      "oting": 9180,
      "antib": 9181,
      "deput": 9182,
      "poster": 9183,
      "polar": 9184,
      "epr": 9185,
      "Donkey": 9186,
      "Thunderstorm": 9187,
      "Secure": 9188,
      "keeper": 9189,
      "tons": 9190,
      "throughout": 9191,
      "fulfilled": 9192,
      "Alan": 9193,
      "ggle": 9194,
      "driven": 9195,
      "Rosa": 9196,
      "frank": 9197,
      "Brown": 9198,
      "Arrow": 9199,
      "icted": 9200,
      "booked": 9201,
      "Poss": 9202,
      "fastest": 9203,
      "colour": 9204,
      "attacking": 9205,
      "engage": 9206,
      "Spec": 9207,
      "Speaking": 9208,
      "batteries": 9209,
      "Tere": 9210,
      "burns": 9211,
      "fellas": 9212,
      "Location": 9213,
      "Place": 9214,
      "crossing": 9215,
      "songs": 9216,
      "tube": 9217,
      "sacred": 9218,
      "collection": 9219,
      "transp": 9220,
      "basic": 9221,
      "Satan": 9222,
      "sequence": 9223,
      "stabbed": 9224,
      "Stuart": 9225,
      "Truth": 9226,
      "photographs": 9227,
      "religion": 9228,
      "platform": 9229,
      "lendar": 9230,
      "embarrassing": 9231,
      "Vasee": 9232,
      "measures": 9233,
      "Spirit": 9234,
      "commercial": 9235,
      "Cancel": 9236,
      "Fantastic": 9237,
      "ousseau": 9238,
      ")?": 9239,
      "CC": 9240,
      "DOU": 9241,
      "During": 9242,
      "GU": 9243,
      "Hum": 9244,
      "Hung": 9245,
      "JEM": 9246,
      "Kale": 9247,
      "Lat": 9248,
      "Rever": 9249,
      "dull": 9250,
      "fond": 9251,
      "fug": 9252,
      "jin": 9253,
      "rhy": 9254,
      "vs": 9255,
      "zi": 9256,
      "න්": 9257,
      "antha": 9258,
      "stash": 9259,
      "dos": 9260,
      "arer": 9261,
      "anta": 9262,
      "gettin": 9263,
      "ceiling": 9264,
      "tips": 9265,
      "nails": 9266,
      "rypton": 9267,
      "nothin": 9268,
      "soil": 9269,
      "expose": 9270,
      "Goddess": 9271,
      "ansas": 9272,
      "intended": 9273,
      "resign": 9274,
      "attach": 9275,
      "Alu": 9276,
      "holds": 9277,
      "Clu": 9278,
      "interfe": 9279,
      "interface": 9280,
      "Arm": 9281,
      "reasonable": 9282,
      "questioning": 9283,
      "Shah": 9284,
      "stuffed": 9285,
      "subconscious": 9286,
      "Food": 9287,
      "reporting": 9288,
      "graphy": 9289,
      "Lewis": 9290,
      "element": 9291,
      "surprises": 9292,
      "risks": 9293,
      "approve": 9294,
      "salad": 9295,
      "Killing": 9296,
      "apologies": 9297,
      "Brien": 9298,
      "dragons": 9299,
      "repeated": 9300,
      "chatter": 9301,
      "Superman": 9302,
      "graduation": 9303,
      "struggling": 9304,
      "Destroy": 9305,
      "consultant": 9306,
      "Memory": 9307,
      "Return": 9308,
      "tasty": 9309,
      "granted": 9310,
      "wrapped": 9311,
      "Complete": 9312,
      "accelerator": 9313,
      "vaccine": 9314,
      "restricted": 9315,
      "dignity": 9316,
      "Optimus": 9317,
      "Paige": 9318,
      "61": 9319,
      "Buck": 9320,
      "Eas": 9321,
      "Jill": 9322,
      "Less": 9323,
      "Pon": 9324,
      "Spr": 9325,
      "Smell": 9326,
      "Touch": 9327,
      "Valley": 9328,
      "Yup": 9329,
      "dim": 9330,
      "nth": 9331,
      "pm": 9332,
      "pon": 9333,
      "signing": 9334,
      "wink": 9335,
      "thirty": 9336,
      "tore": 9337,
      "iser": 9338,
      "isle": 9339,
      "seiz": 9340,
      "arrog": 9341,
      "hail": 9342,
      "acid": 9343,
      "accent": 9344,
      "dose": 9345,
      "golf": 9346,
      "forgetting": 9347,
      "usage": 9348,
      "upper": 9349,
      "fee": 9350,
      "donkey": 9351,
      "ryn": 9352,
      "causing": 9353,
      "tractive": 9354,
      "aku": 9355,
      "umps": 9356,
      "stow": 9357,
      "Reset": 9358,
      "max": 9359,
      "understands": 9360,
      "sition": 9361,
      "badge": 9362,
      "crushed": 9363,
      "fighters": 9364,
      "Around": 9365,
      "calc": 9366,
      "freeze": 9367,
      "Harvey": 9368,
      "column": 9369,
      "Amelia": 9370,
      "ounty": 9371,
      "ferti": 9372,
      "Cabe": 9373,
      "Embassy": 9374,
      "transmit": 9375,
      "Callie": 9376,
      "destroying": 9377,
      "Peterson": 9378,
      "jee": 9379,
      "Simple": 9380,
      "territory": 9381,
      "Felix": 9382,
      "Between": 9383,
      "2008": 9384,
      "spirits": 9385,
      "blamed": 9386,
      "gathered": 9387,
      "jammed": 9388,
      "successfully": 9389,
      "Linus": 9390,
      "busted": 9391,
      "sucker": 9392,
      "ximately": 9393,
      "Remote": 9394,
      "narrow": 9395,
      "Maximus": 9396,
      "gambling": 9397,
      "Frost": 9398,
      "frightened": 9399,
      "Meaning": 9400,
      "CPU": 9401,
      "article": 9402,
      "Pakistan": 9403,
      "stroke": 9404,
      "Sudden": 9405,
      "Ouch": 9406,
      "perfume": 9407,
      "include": 9408,
      "Hartley": 9409,
      "Certainly": 9410,
      "anonymous": 9411,
      "Ae": 9412,
      "Blow": 9413,
      "Cell": 9414,
      "Dimpy": 9415,
      "Ext": 9416,
      "HANK": 9417,
      "Mith": 9418,
      "Swi": 9419,
      "Tax": 9420,
      "Wha": 9421,
      "fres": 9422,
      "lust": 9423,
      "ored": 9424,
      "sust": 9425,
      "valley": 9426,
      "rein": 9427,
      "onacci": 9428,
      "toys": 9429,
      "ofthe": 9430,
      "alike": 9431,
      "ghan": 9432,
      "loso": 9433,
      "homic": 9434,
      "hopes": 9435,
      "amu": 9436,
      "cance": 9437,
      "tier": 9438,
      "agen": 9439,
      "traced": 9440,
      "Log": 9441,
      "pread": 9442,
      "affection": 9443,
      "closet": 9444,
      "maze": 9445,
      "Moving": 9446,
      "compromise": 9447,
      "Near": 9448,
      "signals": 9449,
      "cricket": 9450,
      "worrying": 9451,
      "confli": 9452,
      "charity": 9453,
      "sounded": 9454,
      "villagers": 9455,
      "Samantha": 9456,
      "Lee": 9457,
      "sorts": 9458,
      "commands": 9459,
      "Immy": 9460,
      "travelling": 9461,
      "hunger": 9462,
      "discussion": 9463,
      "practically": 9464,
      "develop": 9465,
      "evacuation": 9466,
      "controller": 9467,
      "campaign": 9468,
      "Marshal": 9469,
      "Baggins": 9470,
      "insisted": 9471,
      "Couple": 9472,
      "Warden": 9473,
      "Evos": 9474,
      "establish": 9475,
      "freighter": 9476,
      "Editor": 9477,
      "basket": 9478,
      "Description": 9479,
      "scientific": 9480,
      "Fibonacci": 9481,
      "Italian": 9482,
      "Intelligence": 9483,
      "4th": 9484,
      "5000": 9485,
      "AW": 9486,
      "EL": 9487,
      "FO": 9488,
      "Int": 9489,
      "Kay": 9490,
      "Mun": 9491,
      "Mountain": 9492,
      "Test": 9493,
      "Telu": 9494,
      "Woo": 9495,
      "Year": 9496,
      "dun": 9497,
      "jur": 9498,
      "kers": 9499,
      "pitch": 9500,
      "info": 9501,
      "injustice": 9502,
      "atom": 9503,
      "merely": 9504,
      "orient": 9505,
      "stare": 9506,
      "essed": 9507,
      "lovers": 9508,
      "Hector": 9509,
      "usty": 9510,
      "abama": 9511,
      "agues": 9512,
      "deeds": 9513,
      "pole": 9514,
      "posi": 9515,
      "pockets": 9516,
      "bolt": 9517,
      "coach": 9518,
      "Weller": 9519,
      "yell": 9520,
      "handling": 9521,
      "estate": 9522,
      "cipl": 9523,
      "auction": 9524,
      "blink": 9525,
      "Deacon": 9526,
      "penet": 9527,
      "pengu": 9528,
      "pension": 9529,
      "studio": 9530,
      "primary": 9531,
      "intern": 9532,
      "locks": 9533,
      "ushka": 9534,
      "quired": 9535,
      "collar": 9536,
      "madness": 9537,
      "listed": 9538,
      "Monica": 9539,
      "osity": 9540,
      "Space": 9541,
      "Image": 9542,
      "Impossible": 9543,
      "computers": 9544,
      "volume": 9545,
      "pancakes": 9546,
      "apologise": 9547,
      "prayer": 9548,
      "Robin": 9549,
      "communications": 9550,
      "contained": 9551,
      "compete": 9552,
      "pussy": 9553,
      "satellites": 9554,
      "execution": 9555,
      "CEO": 9556,
      "adorable": 9557,
      "Remind": 9558,
      "Hobbs": 9559,
      "favourite": 9560,
      "admire": 9561,
      "Kubo": 9562,
      "methods": 9563,
      "Graiman": 9564,
      "Phone": 9565,
      "evolution": 9566,
      "Brooklyn": 9567,
      "interrogation": 9568,
      "knots": 9569,
      "cheeks": 9570,
      "miserable": 9571,
      "underestimate": 9572,
      "Telugu": 9573,
      "250": 9574,
      "65": 9575,
      "AB": 9576,
      "Aman": 9577,
      "CV": 9578,
      "CAN": 9579,
      "Div": 9580,
      "Esca": 9581,
      "Fra": 9582,
      "Gale": 9583,
      "Greek": 9584,
      "HN": 9585,
      "Krypton": 9586,
      "Lay": 9587,
      "MS": 9588,
      "Nel": 9589,
      "Pas": 9590,
      "Sighs": 9591,
      "Tok": 9592,
      "Whis": 9593,
      "ape": 9594,
      "cable": 9595,
      "gorgeous": 9596,
      "sses": 9597,
      "thri": 9598,
      "inction": 9599,
      "inches": 9600,
[...]
