{"!":0,"\"":1,"#":2,"$":3,"%":4,"&":5,"'":6,"(":7,")":8,"*":9,"+":10,",":11,"-":12,".":13,"/":14,"0":15,"1":16,"2":17,"3":18,"4":19,"5":20,"6":21,"7":22,"8":23,"9":24,":":25,";":26,"<":27,"=":28,">":29,"?":30,"@":31,"A":32,"B":33,"C":34,"D":35,"E":36,"F":37,"G":38,"H":39,"I":40,"J":41,"K":42,"L":43,"M":44,"N":45,"O":46,"P":47,"Q":48,"R":49,"S":50,"T":51,"U":52,"V":53,"W":54,"X":55,"Y":56,"Z":57,"[":58,"\\":59,"]":60,"^":61,"_":62,"`":63,"a":64,"b":65,"c":66,"d":67,"e":68,"f":69,"g":70,"h":71,"i":72,"j":73,"k":74,"l":75,"m":76,"n":77,"o":78,"p":79,"q":80,"r":81,"s":82,"t":83,"u":84,"v":85,"w":86,"x":87,"y":88,"z":89,"{":90,"}":91,"~":92,"¡":93,"¢":94,"£":95,"¤":96,"¥":97,"¦":98,"§":99,"¨":100,"©":101,"ª":102,"«":103,"¬":104,"®":105,"¯":106,"°":107,"±":108,"²":109,"³":110,"´":111,"µ":112,"¶":113,"·":114,"¸":115,"¹":116,"º":117,"»":118,"¼":119,"½":120,"¾":121,"¿":122,"Â":123,"Ã":124,"Ì":125,"Î":126,"à":127,"â":128,"ï":129,"Ċ":130,"č":131,"Ġ":132,"Ģ":133,"ģ":134,"Ĥ":135,"ĥ":136,"Ħ":137,"ħ":138,"Ĩ":139,"ĩ":140,"Ī":141,"ī":142,"Ĭ":143,"ĭ":144,"Į":145,"į":146,"İ":147,"ı":148,"Ĳ":149,"ĳ":150,"Ĵ":151,"ĵ":152,"Ķ":153,"ķ":154,"ĸ":155,"Ĺ":156,"ĺ":157,"Ļ":158,"ļ":159,"Ľ":160,"ľ":161,"Ŀ":162,"ŀ":163,"Ł":164,"ł":165,"Ń":166,"à®":167,"à¯":168,"à¯į":169,"à¯įà®":170,"Ġà®":171,"à¯ģ":172,"à®¿":173,"à®¿à®":174,"à®¾":175,"à¯ģà®":176,"à®¾à®":177,"à¯įà®ķ":178,"à¯Ī":179,"à®°":180,"à®³":181,"à®µ":182,"®à¯į":183,"à®¤":184,"à®©":185,"à¯įà®ķà®³":186,"à¯įà®¤":187,"à¯ĩ":188,"à®¯":189,"Ġà®ħ":190,"ķà¯įà®ķ":191,"à¯ģà®®à¯į":192,"à¯Ĩ":193,"čĊ":194,"à¯įà®ª":195,"Ġà®¨":196,"Ġà®ķ":197,"à®Ł":198,"à®²":199,"à®±":200,"à®®":201,"à¯įà®Ł":202,"à¯įà®ķà®³à¯į":203,"Ġà®ª":204,"Ġà®µ":205,"à®ª":206,"à¯Īà®¯":207,"à®µà®°":208,"Ġà®®":209,"à¯įà®±":210,"Ġà®ĩ":211,"à®¿à®¯":212,"à¯Ģ":213,"à®ķ":214,"à®Ļ":215,"à®¾à®ķ":216,"à®¿à®²":217,"Ġà®ļ":218,"à®¾à®©":219,"à®¾à®°":220,"à®¿à®©":221,"à¯ģà®ķà¯įà®ķ":222,"Ġà®¤":223,".čĊ":224,"Ġ(":225,"Ġà®İ":226,"à®¿à®°":227,"¨à¯įà®¤":228,"à¯įà®²":229,"Ġà®ī":230,"à®¤à¯įà®¤":231,"à¯Ĥ":232,"à®¿à®Ł":233,"à®£":234,"Ġà®ħà®µà®°":235,"à®²à¯įà®²":236,"à®©à¯į":237,"à®®à¯į":238,"à®ªà¯įà®ª":239,"à®¤à¯ģ":240,"à¯įà®µ":241,"à¯ģà®ķ":242,"à¯ģà®¤":243,"à®¿à®²à¯į":244,"à®¿à®±":245,"à®ķà¯įà®ķ":246,"à®¾à®©à¯į":247,"à¯įà®ļ":248,"à¯ģà®Ł":249,"Ġà®ļà¯Ĩ":250,"à®¨":251,"à®Łà¯įà®Ł":252,"à¯ģà®µ":253,"ªà¯įà®ª":254,"à®ħ":255,"à®Ļà¯įà®ķà®³à¯į":256,"à®©à¯įà®±":257,"à¯įà®©":258,"à®ļ":259,"à®¾à®²":260,"à®Ļà¯įà®ķà®³":261,"à®¾à®¤":262,"à®¾à®®à¯į":263,"à®°à¯į":264,"Ġà®ĩà®°":265,"Ġà®¨à¯Ģ":266,"à®´":267,"à®±à¯įà®±":268,"à®¨à¯įà®¤":269,"Ġà®ļà¯Ĩà®¯":270,"à®¿à®©à¯į":271,"à®¿à®ķ":272,"à®¿à®°à¯ģà®":273,"à®²à¯įà®²à®¾à®":274,"à®®à®¾à®ķ":275,"à®¿à®¤":276,"à¯ģà®ķà¯įà®ķà¯ģ":277,"à®²à¯įà®²à®¾à®¹":278,"à®¿à®ķà¯įà®ķ":279,"à®¿à®ļ":280,"à®©à¯įà®©":281,"à®¾à®²à¯į":282,"à®µà®©":283,"à®ĩ":284,"à®¾à®Ł":285,"à¯ģà®¤à¯įà®¤":286,"à¯Īà®¯à¯ģà®®à¯į":287,"à¯ģà®®":288,"Ġà®ķà¯Ĥ":289,"à¯įà®³":290,"Ġà®ħà®²à¯įà®²à®¾à®¹":291,"£à¯įà®Ł":292,"Ġà®ħà®µà®°à¯įà®ķà®³":293,"à¯ģà®Łà¯Īà®¯":294,"à¯įà®®":295,"Ġà®Ĩ":296,"à®µà®©à¯į":297,"Ġà®ħà®µà®°à¯įà®ķà®³à¯į":298,"à®¿à®ļà¯įà®ļ":299,"à®©à¯įà®±à¯ģ":300,"à®£à¯įà®Ł":301,"Ġà®Ĵ":302,"à¯Īà®ķ":303,"à®¿à®ļà¯įà®ļà®¯":304,"à¯Ģà®°":305,"à®¿à®ļà¯įà®ļà®¯à®®à®¾à®ķ":306,"à®µà¯ĩ":307,"à®¾à®°à¯įà®ķà®³à¯į":308,"à®µà®°à¯įà®ķà®³":309,"à®¿à®µ":310,"Ġà®ķà¯Ĥà®±":311,"Ġà®¨à¯Ģà®Ļà¯įà®ķà®³à¯į":312,"à®ªà¯į":313,"à®µà¯ģà®®à¯į":314,"Ġà®µà¯ĩ":315,"à¯ĭ":316,"à¯ģà®±":317,"à®¿à®¤à¯įà®¤":318,"à®¿à®ªà¯įà®ª":319,"à®¿à®°à¯ģà®¨à¯įà®¤":320,"à®¿à®Łà¯įà®Ł":321,"à¯ģà®³":322,"à®İ":323,"Ġà®ªà¯Ĩ":324,"à®¤à¯Ī":325,"Ġà®ĩà®°à¯ģà®ķà¯įà®ķ":326,"à®ªà¯įà®ªà®Ł":327,"à®¿à®©à¯įà®±":328,"Ġà®īà®Ļà¯įà®ķà®³":329,"Ġà®İà®©à¯įà®±à¯ģ":330,"à®¾à®°à¯į":331,"à®¾à®¯":332,"Ġà®ªà¯ĩ":333,"Ġà®¨à®¿à®ļà¯įà®ļà®¯à®®à®¾à®ķ":334,"Ġà®ĩà®±":335,"à®Ļà¯įà®ķ":336,"à®¾à®µ":337,"à¯ģà®ªà¯įà®ª":338,"à®¾à®±":339,"à®¿à®²à¯įà®²":340,"Ġ\"":341,"Ļà¯įà®ķà®³à¯į":342,"Ġ-":343,"à¯Īà®¤à¯įà®¤":344,"à®¾à®ķà¯įà®ķ":345,"à®²à¯į":346,"à®µà¯įà®µ":347,"Ġà®Ĵà®°":348,"à®±à¯įà®ķ":349,"Ġà®®à¯Ģ":350,"à®¾à®Łà¯įà®Ł":351,"à®¾à®³":352,"à®©à¯įà®©à¯ģà®®à¯į":353,"Ġà®İà®©":354,"Ġà®ħà®²à¯įà®²à®¾à®¹à¯įà®µ":355,"à¯ģà®ķà¯į":356,"Ġà®ļà¯Ĩà®¯à¯įà®¤":357,"Ġà®ħà®²à¯įà®²à®¾à®¹à¯į":358,"à¯įà®¯":359,"à®ªà¯įà®ªà®Łà¯įà®Ł":360,"à¯ĩà®°":361,"à¯ģà®ķà®¿à®±":362,"à®µà®°à¯įà®ķà®³à¯į":363,"à®¤à¯į":364,"à¯ģà®ª":365,"Ġà®¨à®¾à®®à¯į":366,"à®¾à®¤à¯ģ":367,"Ġà®®à¯ģà®":368,"à¯Ĭ":369,"Ġà®ħà®¤":370,"à¯ĩà®¾":371,"à®³à¯į":372,"à¯ĩà®²":373,"à®¿à®²à¯įà®²à¯Ī":374,"à®Łà¯ģà®¤à¯įà®¤":375,"à¯Īà®µ":376,"à¯Īà®ķà¯į":377,"à®¿à®Łà®®à¯į":378,"à¯Īà®ķà¯įà®ķ":379,"Ġà®Ĵà®°à¯ģ":380,"Ġà®ı":381,"Ġà®ħà®±":382,"Ġà®ħà®µà®©":383,"Ġà®ĩà®±à¯Ī":384,"Ġà®µà®¿à®Łà¯įà®Ł":385,"à¯Īà®ªà¯į":386,"Ġà®µà®°":387,"à®¿à®¯à¯ĩ":388,"à®ī":389,"à¯ģà®Ļà¯įà®ķà®³à¯į":390,"à¯ģà®³à¯įà®³":391,"à¯ģà®¨à¯įà®¤":392,"à®¸":393,"?čĊ":394,"à®¤à®±à¯įà®ķ":395,"à®¿à®°à¯ģà®¨à¯įà®¤à¯ģ":396,"Ġà®ħà®µà®©à¯į":397,"à®¿à®°à¯ģà®ķà¯įà®ķ":398,"à®®à¯įà®®":399,"à®¤à¯įà®¤à¯Ī":400,"à®ļà¯į":401,"à®¾à®®":402,"à®¿à®¨à¯įà®¤":403,"à¯ĩà®²à¯ģà®®à¯į":404,"Ġà®¨à¯Ģà®°à¯į":405,"à®³à¯įà®³":406,"à®µà®±à¯įà®±":407,"à®¾à®ķà®µà¯ģà®®à¯į":408,"à®©à¯Ī":409,"à®°à¯įà®ķà®³":410,"à®Ĩ":411,"à¯Ģà®°à¯įà®ķà®³à¯į":412,"à®³à¯Ī":413,"à¯ģà®°":414,"Ġà®µà¯Ĩ":415,"à®¿à®¯à¯ģà®®à¯į":416,"à¯Īà®ªà¯įà®ª":417,"Ġà®ļà¯Ĩà®¯à¯įà®¯":418,"me":419,"Ġà®ķà¯ĩ":420,"Ġà®µà®´":421,"à¯įà®ķà¯įà®ķ":422,"on":423,"à®¨à¯Ģ":424,"à®®à¯įà®ª":425,"Ġà®µà®¿à®Ł":426,"à®¿à®ķà¯į":427,"Ġà®ĩà®©à¯įà®©à¯ģà®®à¯į":428,"à¯ĩà®©à¯į":429,"à®ķà¯į":430,"à®ļà¯įà®ļ":431,"Ġà®µà¯ĩà®£à¯įà®Ł":432,"..":433,"à®ķà¯įà®ķà¯ģ":434,"à¯Īà®¯à®¿à®²à¯į":435,"Ġà®ĩà®°à¯ģà®¨à¯įà®¤":436,"à®©à®¾à®²à¯į":437,"à¯Īà®¯à¯Ī":438,"Ġà®¯":439,"Ġà®¨à®¾à®©à¯į":440,"à®¿à®²à¯ģà®®à¯į":441,"à®¾à®°à¯įà®ķà®³":442,"Ġn":443,"à®¤à¯įà®¤à®¿à®²à¯į":444,"Ġà®®à¯Ģà®¤à¯ģ":445,"à¯įà®¤à¯įà®¤":446,")čĊ":447,"à¯įà®¨à¯įà®¤":448,"Ġà®®à¯ģà®Ł":449,"Ġà®īà®³à¯įà®³":450,"Ġà®ĩà®°à¯ģà®ķà¯įà®ķà®¿à®©à¯įà®±":451,"Ġà®ħà®´":452,"ti":453,"à®¿à®°à¯ģà®ªà¯įà®ª":454,"Ġà®İà®©à¯įà®©":455,"à®®à®¾à®©":456,"Ġà®ķà¯Ĥà®±à®¿à®©":457,"à®µà®°à¯į":458,"à¯Ĩà®°":459,"Ġà®µà¯ĩà®¤":460,"Ġà®ķà®¾à®":461,"à®ªà®¿à®¯à¯ĩ":462,"Ġà®®à¯ģà®©":463,"Ġà®ĩà®±à¯Īà®µà®©":464,"à®¿à®²à®¿à®°à¯ģà®¨à¯įà®¤à¯ģ":465,"à¯įà®£":466,"Ġà®īà®Ļà¯įà®ķà®³à¯į":467,"!)":468,"à¯įà®ªà¯įà®ª":469,"Ġà®ħà®©":470,"Ġà®ªà®¿à®©":471,"Ġà®Ĩà®ķ":472,";.":473,"Ġà®¤à¯Ĥ":474,"Ġà®ħà®²à¯įà®²":475,"à®¨à¯įà®¤à¯ģ":476,"à®µà®¿à®²à¯įà®²à¯Ī":477,"Ġà®ªà®¯":478,"Ġà®ĩà®²à¯įà®²":479,"®à¯įà®ª":480,"Ġà®¤à®µ":481,"à¯Īà®¯à¯ĩ":482,"Ġà®ªà®Ł":483,"ame":484,"Ġà®ļà¯Ĩà®¯à¯įà®¤à¯ģ":485,"à¯ģà®Łà®©à¯į":486,"à®£à¯įà®£":487,"Ġà®¨à®©":488,"Ġà®ħà®Ł":489,"Ġà®ĩà®°à¯ģà®ķà¯įà®ķà®¿à®±":490,"Ġà®®à®¿à®ķ":491,"à®¿à®ª":492,"à®Ļà¯įà®ķà®³à¯Ī":493,"à®µà¯įà®µà®¾à®±":494,"Ġà®®à®©":495,"à¯ģà®ķà¯įà®ķà¯ģà®®à¯į":496,"Ġà®ķà¯ģà®±":497,"Ġt":498,"à®¾à®±à¯įà®±":499,"à®®à¯Ĥ":500,"Ġà®īà®Ļà¯įà®ķà®³à¯ģà®ķà¯įà®ķà¯ģ":501,"Ġà®ħà®µà®°à¯įà®ķà®³à¯ģà®ķà¯įà®ķà¯ģ":502,"à¯įà®ķà®¿à®±":503,"à¯Īà®ķà®³":504,"Ġà®®à¯ĩà®²à¯ģà®®à¯į":505,"an":506,"tion":507,"à®¨à®¿à®ļà¯įà®ļà®¯à®®à®¾à®ķ":508,"à¯ģà®µà®°":509,"à®¿à®ķà®³":510,"à¯Ģà®°à®¾à®ķ":511,"ĥà®ª":512,"à®±à¯įà®ª":513,"à®¨à¯Ģà®Ļà¯įà®ķà®³à¯į":514,"Ġà®ªà®¾à®°":515,"à®©à®°à¯į":516,"Ġà®ħà®µà®°à¯į":517,"Ġà®īà®£":518,"à®±à¯įà®±à®¿":519,"Ġà®®à®±":520,"à¯ģà®ªà¯į":521,"Ġà®ħà®°":522,"à®¾à®ķà¯ģà®®à¯į":523,"à¯Ĥà®®":524,"Ġà®®à¯Ĥ":525,"à®¹":526,"à®¤à¯ģà®®à¯į":527,"à®¿à®°à¯ģà®®à¯įà®ª":528,"à®ĩà®©à¯įà®©à¯ģà®®à¯į":529,"Ġà®¨à¯ĩà®°":530,"à®ķà®¤à¯įà®¤":531,"à¯Ĩà®¯":532,"à®¾à®Ļà¯įà®ķà®³à¯į":533,"Ġà®ªà®¿à®°":534,"à¯įà®°":535,"in":536,"à®¾à®Łà¯įà®ļ":537,"à®¿à®¯à¯Ī":538,"à®¿à®¤à¯įà®¤à¯ģ":539,"Ġà®¨à®¿à®°":540,"à®¿à®Łà®®":541,"Ġà®ħà®²à¯įà®²à®¾à®¹à¯įà®µà®¿à®©à¯į":542,"Ġà®µà®¿à®":543,"Ġà®ĩà®²à¯įà®²à¯Ī":544,"Ġà®¨à¯ĩ":545,"Ļà¯įà®ķ":546,"Ġà®ħà®µà®°à¯įà®ķà®³à¯Ī":547,"à®ħà®²à¯įà®²à®¾à®¹":548,"à®¿à®¯à®¿à®²à¯į":549,"à¯įà®®à¯Īà®¯":550,"Ġà®ħà®²à¯įà®²à®¤à¯ģ":551,"à®µà¯Ī":552,"à¯ģà®ķà®³":553,"à®¨à®¾à®©à¯į":554,"Ġà®®à®¾à®Łà¯įà®Ł":555,"à¯įà®©à®°à¯į":556,"Ġà®¤à®¾à®©à¯į":557,"à¯ģà®®à¯įà®ª":558,"Ġà®īà®®à¯įà®®":559,"à®²à¯Ī":560,"Ġà®īà®°":561,"Ġà®ķà¯Ĥà®±à¯ģà®µ":562,"Ġà®ªà¯Ĥà®®":563,"Ġà®ªà¯Ĩà®°":564,"à®¿à®®":565,"es":566,"à®¿à®±à¯įà®ķ":567,"Ġà®ĵ":568,"à®µà¯ģ":569,"Ġà®µà®¨à¯įà®¤":570,"à®±à¯ģ":571,"Ġà®ĩà®°à¯ģà®ªà¯įà®ª":572,"Ġà®ļà¯Ĩà®¯à¯įà®µ":573,"Ġà®Ī":574,"!čĊ":575,"à®©à¯įà®ª":576,"Ġà®ħà®¤à¯Ī":577,"Ġà®Ĩà®©à®¾à®²à¯į":578,"Ġà®ķà®Ł":579,"à®©à¯įà®±à®¿":580,"Ġà®¤à¯ĩ":581,"Ġà®ļà¯Ĩà®²":582,"Ġà®İà®©à¯įà®ª":583,"à¯ģà®ļ":584,":čĊ":585,"Ġà®ħà®µà®°à¯įà®ķà®³à¯ģà®Łà¯Īà®¯":586,"Ġà®ħà®®":587,"à®Ĵ":588,"Ġà®¤à¯Ĥà®¤":589,"à®Łà®¿à®¯":590,"à¯ĩà®¯":591,"it":592,"à¯ģà®´":593,"Ġà®¨à®¿à®²":594,"à®ŀ":595,"à®®à®¾à®©à¯į":596,"à®¾à®ļ":597,").čĊ":598,"Ġà®ĩà®¤":599,"Ġà®¨à®¾à®³":600,"Ġà®®à®©à®¿à®¤":601,"à®¤à®±à¯įà®ķà¯ģ":602,"Ġà®µà¯Ĩà®³":603,"er":604,"à¯ģà®ķà®³à¯į":605,"à®©à¯įà®±à®¿à®¯à¯ģà®®à¯į":606,"à¯Īà®¤à¯į":607,"Ġà®İà®©à¯įà®±":608,"Ġà®ħà®³":609,"Ġà®®à¯ģà®Łà®¿à®¯":610,"à®¿à®¨à¯įà®¤à¯ģ":611,"Ġà®¨à®¾à®Ł":612,"Ġà®®à¯ģà®±":613,"Ġa":614,"à¯ĭà®ªà¯įà®ª":615,"à®¤à®µ":616,"Ġà®īà®£à¯įà®Ł":617,"à¯Ģà®°à¯įà®ķà®³":618,"Ġà®¨à®Ł":619,"Ġà®ªà®¾à®¤":620,"Ġà®ħà®±à®¿à®µ":621,"Ġà®ĩà®±à¯Īà®µà®©à¯į":622,"Ġà®ķà¯ĩà®Ł":623,"Ġà®İà®¤":624,"à®¾à®ķà®°":625,"à®ŀà¯įà®ļ":626,"Ġà®ħà®¤à¯ģ":627,"à®¿à®©à¯ģà®®à¯į":628,"à¯ģà®²":629,"à¯ģà®¤à®¿à®¯":630,"Ġà®®à®±à¯įà®±":631,"Ġà®ķà®Łà¯įà®Ł":632,"Ġà®ĩà®Ł":633,"à®¿à®ķà¯įà®ķà¯Ī":634,"Ġà®¤à®µà®¿à®°":635,"Ġà®ħà®¨":636,"Ġk":637,"al":638,"à®®à¯ĩà®²à¯ģà®®à¯į":639,"à®¾à®©à¯įà®±":640,"à®¾à®ķà®µà¯ĩ":641,"la":642,"Ġà®İà®´":643,"Ġà®®à®ķ":644,"à¯ģà®©":645,"Ġà®¨à®®à¯įà®ª":646,"à®ħà®µà®°à¯įà®ķà®³":647,"à¯ģà®¤à¯į":648,"Ġà®ķà®¾à®£":649,"Ġà®¨à®¾à®Ļà¯įà®ķà®³à¯į":650,"à®²à¯įà®²à®¾à®®à¯į":651,"à¯Ĩà®³":652,"à®®à®¿à®©":653,"à¯įà®ķà®³à¯Ī":654,"Ġà®ħà®¤à¯įà®¤":655,"à®°à¯įà®ķà®³à¯į":656,"Ġà®ĩà®¨à¯įà®¤":657,"Ġà®ªà®±à¯įà®±à®¿":658,"Ġà®®à®©à¯įà®©":659,"à®ªà¯įà®ªà®Łà¯ģà®®à¯į":660,"à®İà®©":661,"à®¤à¯ĩ":662,"à®°à¯ģà®®à¯į":663,"Ġà®µà¯ĩà®£à¯įà®Łà¯ģà®®à¯į":664,"à®¿à®¯à®¾à®¯":665,"ed":666,"Ġà®ķà®¾à®°":667,"à¯įà®¨":668,"à®¿à®´":669,"à¯ģà®®à¯Īà®¯":670,"or":671,"Ġà®İà®©à¯į":672,"ĥà®ªà®¿à®°":673,"Ġà®ķà¯Ĥà®±à®¿à®©à®¾à®°à¯į":674,"à¯Ĩà®Ł":675,"à®¿à®ķà®³à¯į":676,"Ġà®¤à¯Ģ":677,"Ġà®¤à®®à¯į":678,"Ġd":679,"Ġà®¤à¯ĩà®°":680,"à¯Īà®¤à¯įà®¤à¯ģ":681,"Ġà®¨à®¿à®°à®¾à®ķà®°":682,"à®µà¯įà®µà®¾à®±à¯ģ":683,"à¯Ĩà®©":684,"Ġà®¨à®¿à®±":685,"Ġp":686,"Ġà®ĩà®°à¯ģà®ķà¯įà®ķà®¿à®©à¯įà®±à®¾à®©à¯į":687,"à¯įà®¸":688,"ĥà®®à®¿à®©":689,"gm":690,"à®ħà®µà®°à¯įà®ķà®³à¯į":691,"Ġà®Īà®®à®¾à®©à¯į":692,"à®¾à®¯à¯į":693,"Ġà®ļà®¿à®²":694,"Name":695,"Ġkgm":696,"Ġà®µà®ļ":697,"Ġà®®à®¿à®ķà¯įà®ķ":698,"ro":699,"Ġà®¨à®²à¯įà®²":700,"à®¿à®°à¯ģà®ķà¯įà®ķà®¿à®±":701,"Ġà®ļà®®à¯Ĥ":702,"Ġà®ªà®²":703,"Ġà®ªà®ķ":704,"Ġà®ªà®°":705,"à®¾à®´":706,"à®¤à®¿à®²à¯į":707,"Ġà®¨à®©à¯įà®ķ":708,"Ġà®ħà®µà®±à¯įà®±":709,"Ġà®Ĩà®ķà®µà¯ĩ":710,"Ġà®īà®¯":711,"Ġà®īà®±":712,"Ġà®®à¯ģà®©à¯įà®©":713,"ran":714,"Ġà®ļà®¨à¯įà®¤":715,"à®¾à®²à¯ģà®®à¯į":716,"Ġà®®à¯ĩ":717,"op":718,"à®¿à®¤à¯įà®¤à¯ģà®ķà¯į":719,"à¯ĭà®®à¯į":720,"à®ķà¯Īà®¯":721,"Ġà®µà¯ĩà®¤à®©":722,"à®¤à¯įà®¤à®¿à®¯":723,"à®¾à®ķà¯įà®ķà®¿":724,"Ġà®ĩà®±à®ķà¯įà®ķ":725,"à®°à¯ģ":726,"Ġà®ļà®®à¯Ĥà®ķà®¤à¯įà®¤":727,"Ġà®µà®¿à®°à¯ģà®®à¯įà®ª":728,"?\"":729,"Ġà®ħà®©à¯ģà®ªà¯įà®ª":730,"Ġà®ķà®¾à®Łà¯įà®Ł":731,"Ġà®¨à®¿à®©":732,"Ġà®ķà¯ĭà®ªà¯įà®ª":733,"à®ħà®²à¯įà®²à®¾à®¹à¯įà®µ":734,"à®¤à¯Īà®¯à¯ģà®®à¯į":735,"Ġà®īà®Ļà¯įà®ķà®³à¯Ī":736,"Ġà®İà®µà®°":737,"Ġname":738,"Ġà®ħà®¤à¯įà®¤à®¾à®Łà¯įà®ļ":739,"à¯Ģà®°à¯į":740,"à¯ģà®ļà¯į":741,"Ġà®ĩà®¤à¯ģ":742,"à¯ģà®¤à®¿":743,"à¯ģà®ķà®¿à®©à¯įà®±":744,"Ġà®¸":745,"à¯Ĩà®²à¯įà®²à®¾à®®à¯į":746,"à®Łà¯įà®Łà¯ģ":747,"à®Ĩà®ķ":748,"à®°à®ķ":749,"Ġà®īà®¤à®µ":750,"Ġà®µà®¾à®©":751,"ot":752,"à¯ģà®³à¯į":753,"Ġà®ļà¯ĩ":754,"Ġà®®à®¿à®ķà®µà¯ģà®®à¯į":755,"Ġà®®à®¾à®±à¯įà®±":756,"à¯ģà®ķà¯įà®ķà®¾à®ķ":757,"à®¿à®¯à®¾à®ķ":758,"Ġà®ļà¯ĩà®°":759,"Ġà®®à¯Ģà®¤à¯ģà®®à¯į":760,"à®¿à®µà®¿à®Ł":761,"à®ķà®°":762,"Ġà®İà®©à¯įà®ªà®¤à¯Ī":763,"Ġà®ıà®±à¯įà®ª":764,"Ġà®µà¯Īà®¤à¯įà®¤":765,"à¯Īà®ķà®³à¯į":766,"Ġà®ļà®ķ":767,"...čĊ":768,"Ġà®ķà¯Ĥà®Łà¯įà®Ł":769,"Ġà®ľ":770,"\"čĊ":771,"à®Łà¯Ī":772,"Ġà®īà®®":773,"ity":774,"Ġà®µà®¿à®³":775,"à®µà®©à®¾à®ķà®µà¯ģà®®à¯į":776,"Ġà®ĩà®°à¯ģà®ķà¯įà®ķà®¿à®±à®¤à¯ģ":777,"Ġà®¤à®©à¯į":778,"à®¤à¯įà®¤à®¿à®©à¯į":779,"à®¤à®±à¯įà®ķà®¾à®ķ":780,"Ġà®İà®¨à¯įà®¤":781,"à®¿à®©à®¾à®²à¯į":782,"à®Ļà¯įà®ķà®³à¯ģà®ķà¯įà®ķà¯ģ":783,"à¯įà®µà®´":784,"Ġà®°":785,"à®¤à®¿":786,"à®¾à®¤à¯Ģà®°à¯įà®ķà®³à¯į":787,"à®¿à®°à¯ģà®ķà¯įà®ķà¯ģà®®à¯į":788,"rans":789,"à®¤à¯įà®¤à®¿à®±à¯įà®ķ":790,"Ġà®®à®°":791,"Ġà®ķà®£":792,"à¯ģà®Ļà¯įà®ķ":793,"Ġà®ĩà®¯":794,"à®°à¯Ī":795,"City":796,"ransla":797,"à®µà®°à¯įà®ķà®³à®¾à®ķ":798,"à¯Ģà®´":799,"à®¿à®Łà®®à®¿à®°à¯ģà®¨à¯įà®¤à¯ģ":800,"à¯įà®¨à¯įà®¤à¯ģ":801,"Ġtransla":802,"à®µà®°à¯įà®ķà®³à¯ģà®ķà¯įà®ķà¯ģ":803,"Ġs":804,"à®¿à®ķà¯įà®ķà®ªà¯įà®ªà®Łà¯įà®Ł":805,"Ġà®ªà®¿à®©à¯įà®©à®°à¯į":806,"à¯Ĩà®³à®¿à®µ":807,"à®ĩà®±":808,"Ġà®ħà®µ":809,"Ġà®ļà®®":810,"à¯ģà®ķà®¿à®±à®¤à¯ģ":811,"option":812,"à®©à¯įà®±à¯ģà®®à¯į":813,"à®¾à®°à¯įà®¤à¯įà®¤":814,"Ġà®ļà¯Ĥ":815,"Ġà®ĩà®£":816,"Ġà®ļà®¿à®±":817,"Ġà®®à®©à¯įà®©à®¿à®ªà¯įà®ª":818,"Ġà®¨à¯Ĩà®°":819,"Ġà®ħà®ļà¯įà®ļ":820,"à®©à¯ģà®®à¯į":821,"Ġà®ķà®¾à®²":822,"à®®à®¾à®Łà¯įà®Ł":823,"à¯Īà®ķà®³à¯Ī":824,"à®ĩà®¤à¯ģ":825,"Ġà®Ĩà®ķà¯įà®ķ":826,"Ġà®ķà®°":827,"Ġà®ļà¯Ĩà®¯à¯įà®ķà®¿à®±":828,"à®Ĩà®ķà®µà¯ĩ":829,"à®²à®¾à®®à¯į":830,"Ġà®¤à®°":831,"ly":832,"Ġà®µà¯Ģ":833,"à®ªà¯įà®ªà®Łà¯ģà®¤à¯įà®¤":834,"à®ħà®¤":835,"Ġà®ħà®¨à¯įà®¤":836,"à¯ģà®ķà®³à¯Ī":837,"à®¿à®ķà¯įà®ķà¯ģà®®à¯į":838,"Ġà®ļà¯Ĩà®¯à®²":839,"à¯ģà®ķà¯įà®ķà¯ģà®ķà¯į":840,"à®¾à®±à¯ģ":841,"Ġà®ªà¯Ĩà®±":842,"à®ĩà®¨à¯įà®¤":843,"optional":844,"à¯įà®®à¯Ī":845,"Ġà®İà®£à¯įà®£":846,"à¯ģà®ķà®¿à®±à®¾à®°à¯įà®ķà®³à¯į":847,"Ġà®ħà®¤à®¿à®ķ":848,"Ġà®µà®¿à®Łà¯įà®Łà¯ģà®®à¯į":849,"Ġà®ĩà®°à¯ģà®ķà¯įà®ķà¯ģà®®à¯į":850,"Ġà®ļà®°":851,"à®Ļà¯įà®ķà®³à®¿à®²à¯į":852,"...":853,"à®¾à®ª":854,"Ġà®¤à¯Ģà®°":855,"Ġpro":856,"à¯Īà®µà¯ģ":857,"Ġà®¤à¯Ĩà®³à®¿à®µ":858,"ba":859,"à¯Ĭà®Ł":860,"à®µà®°à¯įà®ķà®³à¯Ī":861,"en":862,"Ġà®ħà®¨à®¿à®¯à®¾à®¯":863,"Ġà®īà®Ł":864,"Ġà®ªà®Łà¯įà®Ł":865,"à®ªà¯įà®ªà®Łà¯ģà®µ":866,"Ġà®ªà®¯à®©à¯įà®ª":867,"(à®ħ":868,"à®Ļà¯įà®ķà¯ģ":869,"Ġà®®à®±à¯įà®±à¯ģà®®à¯į":870,"Ġà®µà®¿à®°":871,"Ġà®īà®®à¯į":872,"Ġà®¨à¯ĩà®°à¯įà®µà®´":873,"à¯ģà®°à®¿à®¯":874,"à¯ģà®ķà¯įà®ķà¯ĩ":875,"Ġà®İà®©à®µà¯ĩ":876,"Ġà®ĩà®µà¯įà®µ":877,"à¯Īà®¯à®¾":878,"Ġà®ķà®¿à®Ł":879,"Ġà®®à¯ģà®ĥà®®à®¿à®©":880,"Ġne":881,"à¯ģà®ķà¯įà®ķà¯ģà®ªà¯į":882,"Ġà®ªà¯Ĥà®®à®¿à®¯":883,"Ġà®ªà¯Ĩà®£":884,"Ġà®¯à®¾à®°à¯į":885,"Ġà®®à®¾à®Łà¯įà®Łà®¾à®°à¯įà®ķà®³à¯į":886,"Ġnot":887,"Ġà®ªà®¿à®Ł":888,"à®Łà¯ģ":889,"Ġà®µà®£":890,"à¯Īà®¯à®¾à®ķ":891,"à¯ģà®ķà®¿à®±à®¾à®©à¯į":892,"Ġà®¤à®¿à®°à¯ģà®®à¯įà®ª":893,"à®¿à®©à¯ĭà®®à¯į":894,"à®µà®±à¯įà®±à¯Ī":895,"Ġà®µà®¿à®Łà¯ģà®µ":896,"Ġà®µà®¿à®Łà¯įà®Łà¯ģ":897,"à®¿à®³":898,"à®ı":899,"à¯Ĭà®°":900,"Ġà®īà®£à¯įà®®à¯Īà®¯":901,"à®¿à®ķà¯įà®ķà®¿à®±":902,"Ġà®¤à¯Ĩà®°":903,"Ġà®Ĩà®¤":904,"Ġà®ªà®¾à®µ":905,"Ġà®İà®©à®ķà¯įà®ķà¯ģ":906,"Ġà®ªà®¿à®©à¯įà®ª":907,"Ġà®®à¯ĩà®²":908,"Ġdo":909,"à®Ĩà®©à®¾à®²à¯į":910,"Ġà®¨à®®à¯įà®®":911,"à®ľ":912,"à®ħà®µà®©":913,"à®Łà®¿":914,"Ġà®ļà¯Ĩà®¯à¯įà®ª":915,"à®ļà¯įà®ļà®°":916,"Ġà®ªà®¾à®°à¯įà®ķà¯įà®ķ":917,".\"čĊ":918,"Ġà®ħà®©à¯įà®±à®¿à®¯à¯ģà®®à¯į":919,"Ġ'":920,"à®µà®¿à®²à¯įà®²":921,"Ġneed":922,"Ġà®ŀ":923,"Ġà®ļà®¤à¯įà®¤à®¿à®¯":924,"Ġtranslation":925,"à®¿à®ķà®³à¯Ī":926,"Ġà®ķà®£à¯įà®Ł":927,"à®ķà¯įà®ķà®¾à®°":928,"à¯įà®¤à®¿à®¯":929,"à®®à¯ģà®®à¯į":930,"Ġà®ĩà®µà®°à¯įà®ķà®³à¯į":931,"Ġà®ªà¯Ĩà®¯":932,"bab":933,"à®®à¯ĩ":934,"Ġà®µà®ļà®©":935,"à®İà®©à¯įà®±à¯ģ":936,"à®¤à¯įà®¤à¯Īà®¯à¯ģà®®à¯į":937,"à®¿à®°à¯ģà®ª":938,"re":939,"Ġà®ªà®ķà¯įà®ķ":940,"Ġà®¤à®Ļà¯įà®ķà®³à¯į":941,"Ġà®ķà¯Ĩ":942,"he":943,"Ġà®ªà®Łà¯Īà®¤à¯įà®¤":944,"à¯ģà®¤à¯ģ":945,"à®Ļà¯įà®ķà®³à¯Īà®¯à¯ģà®®à¯į":946,"Ġc":947,"Ġin":948,"Ġdoes":949,"Ġà®¤à®¿à®°":950,"Ġà®¨à®©à¯įà®ķà®±":951,"Ġà®ªà¯Ĩà®±à¯įà®±":952,"à®¤à¯įà®¤à®ķà¯Īà®¯":953,"Ġprobab":954,"à¯ģà®£":955,"à®Łà¯įà®Łà®¿":956,"Ġprobably":957,"Ġà®İà®Łà¯ģà®¤à¯įà®¤":958,"Ġà®ħà®µà®©à¯ģà®Łà¯Īà®¯":959,"Ġà®ķà¯Ĥà®±à¯ģà®µà¯Ģà®°à®¾à®ķ":960,"à®µà®©à®¾à®ķ":961,"Ġà®İà®©à®¿à®©à¯ģà®®à¯į":962,"Ġà®ªà¯ģà®±":963,"à®¾à®©à®¾à®²à¯į":964,"Ġà®Ĵà®µà¯įà®µ":965,"Ġà®ħà®±à®¿à®¨à¯įà®¤à¯ģ":966,"à®¿à®°à¯ģà®ķà¯įà®ķà®¿à®©à¯įà®±":967,"à¯įà®µà¯ģ":968,"Ġà®ħà®ŀà¯įà®ļ":969,"à®İà®©à¯į":970,"à®ķà¯ģ":971,"Ġà®®à®²":972,"à®¿à®©à¯Ī":973,"à®£à®®à¯į":974,"Ġà®ŀà®¾à®©":975,"à®ħà®²à¯įà®²à®¾à®¹à¯į":976,"à®¤à®¿à®¯":977,"Ġà®µà®¿à®²":978,"à®ķà¯įà®ķà¯Ĥ":979,"à¯ģà®£à¯įà®Ł":980,"à¯Ģà®°à¯įà®ķà®³à®¾":981,"Ġà®ħà®µà®°à¯įà®ķà®³à®¿à®²à¯į":982,"Ġà®µà®¾à®´":983,"à®ħà®©à¯įà®±à®¿à®¯à¯ģà®®à¯į":984,"à®¾à®Ļà¯įà®ķ":985,"Ġà®ķà®¾à®ĥà®ªà®¿à®°":986,"à®¾à®£":987,"à¯įà®ļà¯įà®ļ":988,"Ġà®ħà®µà®°à¯įà®ķà®³à®¿à®Łà®®à¯į":989,"Ġà®ªà¯ģà®ķ":990,"Ġà®ķà®¾à®£à¯įà®ª":991,"à®¾à®°à¯įà®ķà¯įà®ķ":992,"Ġà®İà®µà®°à¯į":993,"à¯Īà®ªà¯įà®ªà¯ģ":994,",čĊ":995,"à®¾à®µà®¤à¯ģ":996,"Ġà®µà¯ĩà®±à¯ģ":997,"nt":998,"Ġà®ļà¯Ĩà®²à¯įà®²":999,"Ġà®ħà®µà®©à¯ĩ":1000,"à¯ģà®¤à®²à¯į":1001,"à®¾à®®à®²à¯į":1002,"Ġà®¹":1003,"à®²à®¿":1004,"à®Łà¯įà®Łà¯ģà®®à¯į":1005,"à®·":1006,"Ġà®īà®£à¯įà®Łà¯ģ":1007,"à®µà¯įà®µà®¾à®±à¯ĩ":1008,"à¯ĩà®¯à¯ĩ":1009,"Ġà®µà®£à®Ļà¯įà®ķ":1010,"à®¾à®ķà¯įà®ķà®¿à®¯":1011,"à®Ĵà®°à¯ģ":1012,"Ġà®µà®´à®¿":1013,"Ġà®ķà¯Ģà®´":1014,"Ġà®ĵà®°à¯į":1015,"à®¤à®¿à®²à¯įà®²à¯Ī":1016,"ar":1017,"Ġà®µà¯ĩà®¤à®©à¯Ī":1018,"Ġà®ħà®±à®¿à®¯":1019,"à®¤à®¾à®ķ":1020,"Ġà®ļà®®à¯Ĥà®ķà®¤à¯įà®¤à®¾à®°":1021,"à®Ļà¯įà®ķà¯ĩ":1022,"Ġà®İà®¤à®¿à®°":1023,"Ġà®ķà¯Ĥà®±à¯ģà®®à¯į":1024,"Ġà®ªà®¿à®©à¯į":1025,"om":1026,"à®¿à®²à¯ģà®³à¯įà®³":1027,"Ġà®ķà¯ģà®´":1028,"à¯Īà®¨à¯įà®¤":1029,"Ġà®ħà®¤à®±à¯įà®ķ":1030,"Ġà®ªà®¤":1031,"Ġà®ĩà®´":1032,"à®¨à®¾à®®à¯į":1033,"Ġà®¤à®¾à®®à¯į":1034,"à®¤à¯Īà®ªà¯į":1035,"à®ªà®ķ":1036,"à®¿à®µà¯ģ":1037,"Ġà®Ł":1038,"Ġà®ªà®¾à®¤à¯ģà®ķ":1039,"à®ªà¯įà®ªà®Łà®¿":1040,"Ġà®īà®¯à®¿à®°":1041,"Ġà®®à¯ģà®Łà®¿à®¯à®¾à®¤à¯ģ":1042,"à®¾à®¯à®¾à®ķ":1043,"Ġà®Ĵà®°à¯ģà®µ":1044,"à¯įà®ķà®³à¯ģà®ķà¯įà®ķà¯ģ":1045,"à®±à¯įà®±à®¿à®¯":1046,"Ġà®®à®©à®¿à®¤à®°à¯įà®ķà®³":1047,"Ġà®µà®¾à®ķà¯įà®ķ":1048,"Ġà®¨à®®à¯įà®ªà®¿à®ķà¯įà®ķà¯Ī":1049,"Ġà®ħà®¤à®¿à®²à¯į":1050,"at":1051,"Ġà®µà¯Ĩà®³à®¿à®¯à¯ĩ":1052,"ou":1053,"à®ĩà®¤":1054,"à®ļà®°":1055,"à®¾à®Łà¯ģ":1056,"à®¿à®Łà¯Īà®¯à¯ĩ":1057,"Ġà®İà®©à¯įà®©à¯Ī":1058,"à®²à®®à¯į":1059,"Ġà®¤à¯ĩà®°à¯įà®¨à¯įà®¤":1060,"Ġà®¨à®®à¯į":1061,"à®ªà®¿à®©":1062,"Ġà®ļà¯Ĩà®²à¯ģà®¤à¯įà®¤":1063,"Ġà®¨à®°à®ķ":1064,"Ġà®ħà®µà¯įà®µ":1065,"à®¾à®©à¯ĭ":1066,"Ġà®ħà®°à¯ģà®³":1067,"à®µà¯Īà®¯":1068,"Ġà®ªà®¯à®©à¯įà®ªà®Łà¯ģà®¤à¯įà®¤":1069,"Ġà®®à¯ģà®©à¯į":1070,"à®¿à®ªà¯įà®ªà¯ģ":1071,"Ġà®īà®³à¯įà®³à®¤à¯ģ":1072,"Ġà®īà®®à®ķà¯įà®ķà¯ģ":1073,"à¯ģà®µà®¿à®Ł":1074,"à®¿à®ļà¯į":1075,"Ġà®īà®¤à®µà®¿":1076,"Ġ.čĊ":1077,"Ġà®¤à®Ļà¯įà®ķ":1078,"Ġà®µà¯ĩà®±":1079,"à®£à¯įà®Łà¯ģ":1080,"à®£à¯įà®Łà¯ģà®®à¯į":1081,"à®ħà®¤à¯ģ":1082,"Ġà®İà®ļà¯įà®ļà®°":1083,"Ġà®ļà¯Ĩà®µ":1084,"Ġà®µà®¿à®ļ":1085,"Ġà®ħà®´à®ķ":1086,"Ġà®īà®°à¯ģà®µ":1087,"Ġà®ķà¯Ĥà®Łà¯įà®Łà®¤à¯įà®¤":1088,"ic":1089,"is":1090,"à¯įà®¤à¯įà®¤à¯ģ":1091,"à¯ģà®®à®¾":1092,"Ġà®ħà®¤à®©à¯į":1093,"Ġà®¤à¯Ģà®°à¯įà®ªà¯įà®ª":1094,"à®¿à®²à®¿à®°à¯ģà®¨à¯įà®¤":1095,"le":1096,"à¯įà®ķà®³à¯Īà®¯à¯ģà®®à¯į":1097,"à¯įà®¤à®¾à®©à¯į":1098,"à®¾à®³à®°":1099,"à®ĩà®±à¯Ī":1100,"à®¯à®¾à®µ":1101,"à¯įà®¨à®¾à®³":1102,"à¯ģà®µà®¿à®Łà¯įà®Ł":1103,"Ġà®¤à®Ł":1104,"à®İà®©à¯įà®©":1105,"à¯Ĩà®©à®¿à®²à¯į":1106,"Ġà®Ĭ":1107,"à®İà®©à®µà¯ĩ":1108,"Ġà®¯à®¾à®µ":1109,"à®°à¯Īà®¯à¯ģà®®à¯į":1110,"à®¿à®¤à¯į":1111,"Ġà®ıà®±à¯įà®±":1112,"à¯Īà®¯à¯ģà®Łà¯Īà®¯":1113,"Ġà®Ĳ":1114,"Ġà®İà®Ļà¯įà®ķà®³à¯į":1115,"à®¾à®¤à¯įà®¤":1116,"Ġà®īà®®à¯įà®®à¯ģà®Łà¯Īà®¯":1117,"Ġà®ªà®¿à®±":1118,"à®®à¯Ī":1119,"Ġà®ķà¯ĩà®Łà¯įà®Ł":1120,"Ġà®ķà¯Ĥà®±à®¿à®©à®¾à®°à¯įà®ķà®³à¯į":1121,"Ġà®İà®´à¯ģà®¤":1122,"Ġà®ªà¯ĩà®ļ":1123,"Ġà®ķà®Łà¯įà®Łà®³":1124,"à®īà®Ļà¯įà®ķà®³à¯į":1125,"Ġà®¨à®¾à®Łà®¿à®¯":1126,"Ġà®ªà®¿à®©à¯įà®©":1127,"!\"":1128,"Ġà®ļà¯Ĩà®¯à¯įà®¯à¯ģà®®à¯į":1129,"Ġà®ķà¯ģà®°":1130,"Ġà®µà®°à¯Ī":1131,"à®Ļà¯įà®ķà®³à¯ģà®®à¯į":1132,"Ġà®ħà®µà®°à¯Ī":1133,"à¯ģà®¤à®²":1134,"Ġà®İà®©à¯įà®±à¯ģà®®à¯į":1135,"à¯ģà®®à¯Ī":1136,"à¯įà®Ĩ":1137,"à®ħà®µà®°à¯į":1138,"Ġà®®à¯ģà®ķ":1139,"à¯ģà®®à®¿à®²à¯įà®²à¯Ī":1140,"à¯ģà®ķà¯įà®ķà¯ģà®¤à¯į":1141,"Ġà®·":1142,"à¯ģà®µà¯ĩ":1143,"ĠC":1144,"à®Łà¯įà®ļ":1145,"à®©à¯Ĩà®©à®¿à®²à¯į":1146,"Ġà®ķà¯ģà®±à¯įà®±":1147,"à®²à®ķ":1148,"Ġà®¤à®¿à®Łà¯įà®Ł":1149,"Ġà®İà®Ļà¯įà®ķà®³":1150,"Ġà®Ĩà®£":1151,"Ġà®ĩà®°à¯ģà®¨à¯įà®¤à®¾à®²à¯į":1152,"Ġà®ķà¯ģà®±à®¿à®ªà¯įà®ª":1153,"Ġà®ķà¯ĩà®Łà¯įà®ķ":1154,"à®µà¯ĩà®¤":1155,"Ġà®ħà®µà®©à¯ģà®ķà¯įà®ķà¯ģ":1156,"à¯ģà®¤à¯įà®¤à¯ģ":1157,"Ġà®¨à®©à¯įà®®":1158,"Ġà®¤à¯Ĩà®³à®¿à®µà®¾à®©":1159,"à®¿à®¸":1160,"à®ªà¯įà®ªà®Łà¯įà®Łà®¤à¯ģ":1161,"Ġà®µà¯ĩà®£à¯įà®Łà®¾à®®à¯į":1162,"Ġb":1163,"à¯Īà®ķà¯įà®ķà¯ģ":1164,"Ġà®ĩà®±à¯Īà®µà®©à®¿à®©à¯į":1165,"à®ķà¯įà®ķà¯Ĥà®Łà®¿à®¯":1166,"·à®¯":1167,"Ġà®ªà¯ĭ":1168,"Ġà®ķà®¿à®°à¯ģà®ª":1169,"à®¿à®©à®¾à®©à¯į":1170,"Ġà®ķà®¾à®°à®£":1171,"Ġà®µà¯Īà®ķà¯įà®ķ":1172,"à®¸à®¾à®µ":1173,"à¯įà®ħ":1174,"à®Łà¯įà®Łà¯Ī":1175,"à®¸à¯į":1176,"Ġà®īà®Ļà¯įà®ķà®³à¯ģà®Łà¯Īà®¯":1177,"Ġà®¨à®¿à®²à¯Ī":1178,"à®¾à®ªà¯įà®ª":1179,"à¯įà®¨à®¾à®³à®¿à®²à¯į":1180,"Ġà®¤à®ķ":1181,"Ġà®¤à¯ĩà®Ł":1182,"à®®à®±":1183,"Ġà®ĩà®µà®°à¯įà®ķà®³":1184,"à¯ģà®±à¯įà®±":1185,"Ġà®ļà®¾à®°":1186,"Ġà®ªà®¿à®°à®¾à®°à¯įà®¤à¯įà®¤":1187,"Ġà®¨à¯Ĩà®°à¯ģà®ªà¯įà®ª":1188,"à®±à¯įà®±à¯Īà®¯à¯ģà®®à¯į":1189,"Ġà®ªà®¿à®©à¯įà®ªà®±à¯įà®±":1190,"à®¿à®°à¯ģà®µà®°":1191,"Ġà®ħà®©à¯ģà®®":1192,"à®¿à®ķà¯įà®ķà®¿à®©à¯įà®±":1193,"ment":1194,"Ġà®²":1195,"à®µà®¾à®©":1196,"à®¤à¯įà®¤à®¿à®²à®¿à®°à¯ģà®¨à¯įà®¤à¯ģ":1197,"Ġà®Ĩà®µ":1198,"à®µà®¿à®²à¯įà®²à¯Īà®¯à®¾":1199,"Ġà®¤à®Ļà¯įà®ķà®³":1200,"à®¿à®ªà¯į":1201,"Ġà®¤à®©":1202,"Ġà®µà®Ł":1203,"il":1204,"à¯įà®¸à¯į":1205,"à¯įà®ķà®³à¯ģà®®à¯į":1206,"à®®à¯ģà®Łà¯Īà®¯":1207,"à®ķà¯įà®ķà®£":1208,"à¯Ĩà®Łà¯ģà®ķà¯įà®ķ":1209,"à®©à®¾à®ķ":1210,"à¯ģà®³à¯įà®³à®¤à¯ģ":1211,"Ġà®ķà¯Ĩà®Łà¯įà®Ł":1212,"à®¿à®Łà®¤à¯įà®¤à®¿à®²à¯į":1213,"à®¹à¯įà®®":1214,"Ġà®¨à®¾à®³à®¿à®²à¯į":1215,"à®¾à®¯à®¿à®©à¯į":1216,"Ġà®İà®µà®°à¯įà®ķà®³à¯į":1217,"à¯Ĥà®°":1218,"Ġà®ļà®¾à®Łà¯įà®ļ":1219,"Ġà®īà®±à¯ģà®¤à®¿à®¯":1220,"à®µà¯ĩà®±à¯ģ":1221,"Ġà®ĩà®°à¯ģà®¨à¯įà®¤à¯ģ":1222,"Ġà®¨à®ķà®°":1223,"Ġthe":1224,"Ġà®ªà®£":1225,"à®®à¯ģà®":1226,"à®¾à®®à®¾":1227,"à®®à®©":1228,"Ġà®¤à®¿à®°à¯ģà®ªà¯įà®ª":1229,"Ġà®µà®²":1230,"Ġf":1231,"Ġà®Ĵà®°à¯ģà®µà®°":1232,"à®¿à®°à¯ģà®¨à¯įà®¤à®¾à®²à¯į":1233,"à¯ģà®²à®ķ":1234,"Ġà®µà®¨à¯įà®¤à¯ģ":1235,"à¯ģà®¤à®¾à®©à¯į":1236,"Ġà®ªà¯Ĥà®®à®¿à®¯à®¿à®²à¯į":1237,"Ġà®ļà¯Ĥà®´":1238,"Ġà®ħà®µà®°à¯ģà®ķà¯įà®ķà¯ģ":1239,"Ġà®ķà¯ģà®Ł":1240,"à¯ģà®µà®¾à®°à¯įà®ķà®³à¯į":1241,"à®¿à®²à¯ĩà®¯à¯ĩ":1242,"à®İà®©à¯įà®±à¯ģà®®à¯į":1243,"à¯ģà®®à¯ĩ":1244,"à®¤à¯ĩà®ļ":1245,"Ġà®īà®©à¯įà®©":1246,"à¯Īà®¯à®¾à®©":1247,"Ġà®µà®¿à®µ":1248,"Ġà®ķà®¾à®ªà¯įà®ª":1249,"Ġw":1250,"à¯ģà®ķà®¿à®±à¯ĩà®©à¯į":1251,"Ġà®īà®Ļà¯įà®ķà®³à®¿à®Łà®®à¯į":1252,"à¯įà®Łà¯ģ":1253,"Ġà®¤à®¿à®±":1254,"Ġà®ħà®µà®©à¯Ī":1255,"Ġà®µà®¿à®¤":1256,"Ġà®ħà®µà®°à¯ģà®Łà¯Īà®¯":1257,"à®±à®¿à®¯":1258,"Ġà®īà®°à¯ģà®µà®¾à®ķà¯įà®ķ":1259,"Ġà®ļà¯Ĩà®©à¯įà®±":1260,"Ġà®ķà¯Ĭ":1261,"Ġà®ĩà®¯à®²":1262,"ol":1263,"Ġà®µà®¾à®°":1264,"à¯įà®ķà®³à®¿à®©à¯į":1265,"à®¾à®¹":1266,"Ġà®ĩà®°à¯ģ":1267,"Ġà®ħà®±à®¿à®¨à¯įà®¤":1268,"à®ħà®µà®°":1269,"à¯įà®ķà®¿à®©à¯įà®±":1270,"à¯Īà®¯à®¿à®©à¯į":1271,"Ġà®ħà®²":1272,"Ġà®ķà®¾à®°à®¿à®¯":1273,"Ġà®ħà®Łà®¿à®¯":1274,"à®¤à®¾à®ķà¯ģà®®à¯į":1275,"à®ĩà®°":1276,"Ġà®µà®´à®¿à®ķ":1277,"Ġà®µà®ķ":1278,"à¯įà®ķà®³à®¿à®²à¯į":1279,"Ġà®ªà¯ĩà®°":1280,"à®¤à®¿à®°":1281,"Ġà®·à¯Īà®¤à¯įà®¤":1282,"Ġà®¤à®¨à¯įà®¤":1283,"Ġà®ªà¯ģà®±à®ķà¯įà®ķà®£":1284,"-čĊ":1285,"Ġà®¨à¯Ģà®ķà¯įà®ķ":1286,"à®¿à®µà®¿à®Łà¯įà®Ł":1287,"à®¿à®¯à®¾":1288,"Ġà®ªà¯ģà®°":1289,"à®ļà¯Ĩà®¯":1290,"Ġà®®à¯ģà®Łà®¿à®¯à®µà®¿à®²à¯įà®²à¯Ī":1291,"Ġà®ķà¯ĩà®Łà¯įà®ª":1292,"à¯Īà®ķà¯įà®ķà¯ģà®®à¯į":1293,"à®¾à®³à¯į":1294,"Ġà®ļà¯ģà®µ":1295,"à®·à¯įà®Ł":1296,"Ġà®µà®¿à®·à®¯":1297,"à®µà®°à¯įà®ķà®³à®¿à®²à¯į":1298,"Ġà®µà®¾à®ķà¯įà®ķà¯ģà®±":1299,"à®¤à®®à¯į":1300,"à®¤à¯įà®¤à®¿à®±à¯įà®ķà¯ģ":1301,"Ġà®ķà®µà®©":1302,"à®ªà®¯":1303,"Ġà®¤à¯Ĥà®¤à®°":1304,"à®±à¯įà®±à¯ģ":1305,"Ġà®İà®Łà¯ģà®¤à¯įà®¤à¯ģà®ķà¯į":1306,"à®°à¯įà®ķà®³à®¾à®ķ":1307,"à®ķà®®à¯į":1308,"Ġà®ħà®²à¯įà®²à®¾à®¹à¯įà®µà¯ģà®ķà¯įà®ķà¯ģ":1309,")à®ķ":1310,"à®İà®Ļà¯įà®ķà®³à¯į":1311,"Ġà®®à¯ģà®±à¯įà®±":1312,"Ġà®®à®©à¯Īà®µ":1313,"Ġà®ħà®¨à®¿à®¯à®¾à®¯à®®à¯į":1314,"Ġà®¤à®¿à®Ł":1315,"Ġà®®à®¤":1316,"Ġà®īà®Ļà¯įà®ķà®³à®¿à®²à¯į":1317,"à¯įà®ľ":1318,"à®ħà®µà®©à¯į":1319,"omment":1320,"Ġà®µà¯ĩà®£à¯įà®Łà®¿à®¯":1321,"Ġà®İà®²à¯įà®²à®¾à®":1322,"Ġà®ħà®ªà¯įà®ª":1323,"à®®à¯ģà®©":1324,"à®ªà®ķà¯įà®¤à®¿à®¯":1325,"à®¹à¯Ģ":1326,"à®¸à®¾":1327,"à®¿à®¯à®¾à®©":1328,"à®¤à®¾":1329,"Ġà®®à¯Ĥà®²à®®à¯į":1330,"Ġà®¨à®¿à®°à®¾à®ķà®°à®¿à®ªà¯įà®ª":1331,"à¯Ĩà®©à¯įà®±":1332,"Ġà®¨à®±à¯įà®ķ":1333,"Ġà®ļà¯ĩà®®":1334,"à®¿à®Łà®®à¯ĩ":1335,"à®¨à®¾à®Ļà¯įà®ķà®³à¯į":1336,"Ġà®Ĵà®©à¯įà®±à¯ģ":1337,"à¯ģà®£à¯įà®Łà¯ģ":1338,"00":1339,"à¯įà®ħà®µ":1340,"à¯ģà®µà¯ģà®®à¯į":1341,"à®¿à®¯à®®à¯į":1342,"à®Ļà¯įà®ķà®³à®¿à®©à¯į":1343,"Ġà®¯à®¾à®°":1344,"à¯Īà®¯à®¾à®³":1345,"Ġà®¨à®¾à®¯":1346,"à¯ģà®ķà¯įà®ķà¯ģà®ļà¯į":1347,"Ġà®ıà®©à¯Ĩà®©à®¿à®²à¯į":1348,"Ġà®µà¯ĩà®¤à®©à¯Īà®¯":1349,"à®ªà®¿à®©à¯įà®©à®°à¯į":1350,"Ġà®µà¯Ĩà®³à®¿à®ªà¯įà®ª":1351,"Ġà®µà¯Īà®ªà¯įà®ª":1352,"Ġà®ħà®¤à®©à¯Ī":1353,"ĥà®ªà®¿à®°à¯įà®ħà®µ":1354,"ĥà®ªà®¿à®°à¯įà®ħà®µà¯įà®©":1355,"à¯Ĥà®¤":1356,"à®Łà¯ģà®¤à¯įà®¤à¯ģ":1357,"Ġà®®à¯ĩà®²à¯į":1358,"Ġà®ĩà®°à¯ģà®ķà¯įà®ķà®¿à®©à¯įà®±à®©":1359,"à®®à®±à¯įà®±":1360,"à®īà®Ļà¯įà®ķà®³":1361,"Ġà®ĩà®¤à¯Ī":1362,"Ġà®ªà¯Ĩà®°à¯ģà®®à¯į":1363,"à®ķà¯Ĥ":1364,"à®©à¯Īà®¯à¯ģà®®à¯į":1365,"à®ķà¯ĩ":1366,"à¯įà®ķà®³à¯ĩ":1367,"à®Łà¯ģà®®à¯į":1368,"à®ªà®¤":1369,"à®¿à®¹":1370,"à®µà®°à¯įà®ķà®³à¯ĩ":1371,"à®ķà¯ģà®±":1372,"Comment":1373,"Ġà®ķà¯Ĥà®±à¯ģà®ķà®¿à®±à®¾à®°à¯įà®ķà®³à¯į":1374,"à®ħà®²à¯įà®²à®¾à®¹à¯įà®µà®¿à®©à¯į":1375,"à®¾à®¸":1376,"à¯ģà®®à®¾à®±à¯ģ":1377,"Ġà®ªà®±à¯įà®±":1378,"ĠS":1379,"à¯ģà®µà¯Ģà®°à®¾à®ķ":1380,"à®²à¯įà®²à¯Ī":1381,"à®Ī":1382,"ing":1383,"à®¾à®®à¯ĩ":1384,"Ġà®ıà®±à¯įà®ªà®Łà¯ģà®¤à¯įà®¤":1385,"à¯ģà®ķà®¿à®©à¯įà®±à®©à®°à¯į":1386,"à®¿à®²à®¿à®°à¯ģà®¨à¯įà®¤à¯ģà®®à¯į":1387,"Ġà®®à¯ģà®´":1388,"Ġà®ķà¯Ĥà®±à®¿à®¯":1389,"à®²à®¿à®²à¯į":1390,"Ġà®īà®®à¯įà®®à¯Ī":1391,"à®±à¯įà®ļ":1392,"Ġà®īà®¯à®°":1393,"Ġà®®à¯ģà®Łà®¿à®¯à¯ģà®®à¯į":1394,"à®¿à®°à®®":1395,"à®²à¯įà®²à®¤à¯ģ":1396,"à¯Īà®¯à®©à¯įà®±à®¿":1397,"Ġà®®à®¾à®±":1398,"Ġà®ļà¯Ĩà®²à¯įà®µ":1399,"à¯ģà®µà®¾à®©à¯į":1400,"Ġà®ªà®¾à®°à¯įà®¤à¯įà®¤":1401,"à®¿à®£":1402,"Ġà®Ĩà®¯":1403,"Ġà®®à¯ģà®±à¯įà®±à®¿à®²à¯ģà®®à¯į":1404,"Ġà®ķà¯Ĥà®±à¯ģà®µà®¾à®°à¯įà®ķà®³à¯į":1405,"à¯Ĩà®¯à¯įà®¯":1406,"à®¤à¯įà®¤à¯Īà®ķà¯į":1407,"à¯Ĩà®©à¯įà®±à¯ģà®®à¯į":1408,"Ġà®µà®°à®®à¯įà®ª":1409,"à®²à¯įà®ķà®³à¯į":1410,"à¯Īà®ķà®³à¯Īà®¯à¯ģà®®à¯į":1411,"à®¿à®¯à®¿à®©à¯į":1412,"Ġà®µà®´à®Ļà¯įà®ķ":1413,"Ġà®¨à®©à¯įà®±à®¿":1414,"Ġà®ħà®°à¯ģà®Ł":1415,"Ġà®ļà¯ģà®®":1416,"à®¾à®©à¯įà®©":1417,"à®¾à®ķà®¿à®¯":1418,"Ġà®¨à®¿à®©à¯Īà®µà¯ģ":1419,"Ġà®®à¯ģà®©à¯įà®©à®°à¯į":1420,"Ġà®¤à¯Ĭ":1421,"à®ħà®Ł":1422,"à®¿à®Łà¯įà®Łà¯ģ":1423,"Ġà®®à®¾à®°à¯įà®ķà¯įà®ķ":1424,"à®µà®°à¯įà®ķà®³à¯ģà®®à¯į":1425,"à®ĩà®µà¯įà®µà®¾à®±à¯ģ":1426,"Ġà®ªà¯Ĭà®°":1427,"à¯Īà®¯à®¿à®²à¯ģà®®à¯į":1428,"à®°à¯ĩ":1429,"à®µà¯Īà®¯à¯ģà®®à¯į":1430,"Ġà®ħà®²à¯įà®²à®¾à®¹à¯įà®µà¯Ī":1431,"à®¨à®®à¯į":1432,"Ġà®īà®°à®¿à®¯":1433,"Ġà®¨à®¾à®³à¯į":1434,"à¯įà®®à¯Īà®¯à®¾à®©":1435,"à®¾à®°à¯įà®ķà®³à¯ĩ":1436,"Ġà®īà®¤":1437,"Ġà®¤à®²":1438,"Ġà®ªà®¯à®ªà®ķà¯įà®¤à®¿à®¯":1439,"Ġà®ķà¯Ĥà®Ł":1440,"à®¿à®±à®¾à®©à¯į":1441,"Ġà®ħà®ķ":1442,"Ġà®İà®²à¯įà®²":1443,"à®£à¯į":1444,"à®¿à®±à®¤à¯ģ":1445,"Ġà®¤à¯Ĥà®¯":1446,"à®¿à®®à¯įà®ª":1447,"Ġà®¨à®¿à®²à¯Īà®¯à®¿à®²à¯į":1448,"à®¿à®ķà¯įà®ķà¯ģ":1449,"st":1450,"à®®à¯ģà®ĥà®®à®¿à®©":1451,"à®¿à®©à®°à¯į":1452,"Ġà®¨à¯ģà®´":1453,"à®¾à®¹à¯Ģ":1454,"ia":1455,"Ġà®¤à®²à¯Ī":1456,"à¯ģà®®à®¾à®©":1457,"à®¾à®²à®¿à®¹":1458,"à®®à®°":1459,"à®ªà®Ł":1460,"Ġà®¤à¯Ģà®®":1461,"Ġà®µà®¿à®²à®ķ":1462,"à®¾à®°à®£":1463,"Ġà®ªà¯Ĩà®¯à®°à¯į":1464,"Ġà®µà®¿à®°à¯ģà®ªà¯įà®ª":1465,"Ġà®µà®¾à®´à¯įà®ķà¯įà®ķ":1466,"à®ªà¯įà®ªà®Łà®¿à®¯":1467,")à®¤":1468,"à®²à¯įà®µ":1469,"à®ħà®©":1470,"Ġà®¤à®©à¯įà®©":1471,"à®³à¯įà®µ":1472,"),":1473,"Ġà®¤à¯Ĭà®Ł":1474,"(à®ķ":1475,"Ġà®ªà¯Ĩà®°à¯ģà®®à¯įà®ª":1476,"à¯Īà®¨à¯įà®¤à¯ģ":1477,"à®®à®©à®¿à®¤":1478,"à¯ĩà®¤":1479,"Ġà®®à®²à®ķà¯įà®ķ":1480,"Ġà®ħà®£":1481,";)":1482,"Ġà®ĩà®±à¯Īà®µà®©à¯ĩ":1483,"à¯Īà®ķà®³à®¿à®²à¯į":1484,"Ġà®¨à®©à¯įà®®à¯Ī":1485,"Ġà®µà®¿à®³à¯Īà®¯":1486,"à¯Īà®µà®¿à®Ł":1487,"Ġà®ĩà®µà¯įà®µà¯ģà®²à®ķ":1488,"Ġà®µà®´à®¿à®¯":1489,"Ġà®ªà®¿à®´":1490,"à®ķà¯įà®ķà®®à¯į":1491,"Ġà®¨à®©à¯įà®ķà¯ģ":1492,"Ġà®µà®Łà®¿à®µ":1493,"Ġà®İà®©à®ķà¯į":1494,"Ġà®ķà¯ĭà®ªà¯įà®ªà¯ģ":1495,"à®®à®ķà¯įà®ķ":1496,"Ġà®ħà®ļà¯įà®ļà®®à¯Ĥ":1497,"à®®à®¾à®ķà¯ģà®®à¯į":1498,"Ġà®ħà®¤à¯įà®¤à®¾à®Łà¯įà®ļà®¿à®ķà®³":1499,"à®¾à®°à®®à¯į":1500,");":1501,":%":1502,"Ġà®¨à®¿à®©à¯įà®±":1503,"Ġà®ļà®®à¯įà®ª":1504,"Ġà®µà®¾à®Ļà¯įà®ķ":1505,"Ġà®ªà¯Ĭ":1506,"à®µà®£":1507,"à®ķà¯ĭà®ªà¯įà®ª":1508,"à®¤à®±à¯įà®ķà®¾à®ķà®µà¯ģà®®à¯į":1509,"Ġà®¨à®ª":1510,"Ġà®ĩà®°à¯ģà®ķà¯įà®ķà®¿à®©à¯įà®±à®©à®°à¯į":1511,"à®©à®¿à®¯":1512,"à®°à¯įà®ķà®³à¯Ī":1513,"à®Łà®¿à®ķà¯įà®ķ":1514,"Ġà®µà¯Ĩà®±":1515,"Ġà®¨à®¿à®©à¯Īà®µ":1516,"Ġà®ħà®²à¯įà®²à®¾à®¹à¯įà®µà¯ģà®ķà¯įà®ķà¯ĩ":1517,"Ġà®ªà¯Ĩà®°à¯ģà®®à¯įà®ªà®¾à®²":1518,"Ġà®¨à¯ĩà®ļ":1519,"Ġà®ĩà®°à¯ģà®ªà¯įà®ªà®¾à®°à¯įà®ķà®³à¯į":1520,"Ġà®ħà®µà®°à¯įà®ķà®³à¯Īà®ªà¯į":1521,"à®µà®²":1522,"Ġà®®à¯ĩà®²à®¾à®©":1523,"à®¾à®ķà¯į":1524,"à¯Ĩà®©à¯įà®±à®¾à®²à¯į":1525,"Ġà®ªà®¾à®¤à¯Īà®¯à®¿à®²à¯į":1526,"à®®à¯ģà®Ł":1527,"Ġà®µà®°à¯ģà®®à¯į":1528,"Ġà®īà®£à¯įà®Łà®¾à®ķà¯įà®ķ":1529,"Ġà®ªà®¿à®±à®ķà¯ģ":1530,"à®ļà®°à®¿":1531,"Ġà®ķà®£à¯įà®£":1532,"Ġà®ĩà®±à®ķà¯įà®ķà®¿":1533,"Ġm":1534,"à®¿à®±à¯ĩà®©à¯į":1535,"Ġà®İà®©à®ķà¯įà®ķ":1536,"Ġà®¤à®µà®±":1537,"à®¾à®ķà¯įà®ķà®³":1538,"à¯Ĩà®¯à¯įà®µ":1539,"à¯ĩà®Ł":1540,"à®ªà¯įà®°":1541,"à¯ĭà®¤":1542,"Ġà®ªà®Łà¯įà®Łà®¿à®¯":1543,"à¯įà®Łà¯į":1544,"à¯ģà®©à¯įà®ª":1545,"Ġà®ªà®ķà®¿à®°":1546,"Ġà®ķà®¾à®ªà¯įà®ªà®¾à®±à¯įà®±":1547,"à®¸à¯įà®ª":1548,"et":1549,"à®ħà®²à¯įà®²à®¤à¯ģ":1550,"Ġà®ĵà®¤":1551,"Ġà®ĩà®¸":1552,"Ġà®¤à¯ĩà®°à¯įà®µà¯ģ":1553,"Ġto":1554,"à®®à®¾à®Łà¯įà®Łà®¾à®°à¯įà®ķà®³à¯į":1555,"Ġà®¨à¯ĩà®°à¯įà®µà®´à®¿":1556,"Ġà®¤à®£à¯įà®Ł":1557,"Ġà®ħà®µà¯Ī":1558,"Ġà®ħà®ķà¯įà®ķ":1559,"à®ĩà®µà¯įà®µ":1560,"Ġà®ħà®ļà¯įà®ļà®®à¯Ĥà®Łà¯įà®Łà®¿":1561,"à®¾à®ķà®ķà¯į":1562,"Ġà®İà®µà¯įà®µ":1563,"à®©à¯įà®®":1564,"à®¨à®²à¯įà®²":1565,"ck":1566,"à¯ģà®¨":1567,"Ġà®ªà®ķà¯įà®ķà®®à¯į":1568,"Ġà®ŀà®¾à®©à®®à¯į":1569,"Ġà®®à®¿à®ķà¯Īà®¤à¯įà®¤":1570,"à®£à¯įà®ª":1571,"Ġà®µà®ļà®©à®Ļà¯įà®ķà®³à¯Ī":1572,"Ġà®ķà¯ģà®°à¯įà®Ĩ":1573,"Ġà®ķà®©":1574,"à®ħà®¨à¯įà®¤":1575,"Ġà®®à¯ģà®±à¯Ī":1576,"Ġà®¨à®·à¯įà®Ł":1577,"ªà¯į":1578,"à¯ģà®ķà®³à®¿à®²à¯į":1579,"à¯Ĥà®²":1580,"Ġà®ħà®µà®°à¯įà®ķà®³à®¿à®©à¯į":1581,"à®ħà®¨":1582,"Ġà®İà®Ļà¯įà®ķà®³à¯ģà®ķà¯įà®ķà¯ģ":1583,"à®¤à¯įà®¤à¯ģ":1584,"à®ªà¯įà®ªà¯ģ":1585,"à®¾à®µà®²":1586,"(à®¤à¯į":1587,"à®µà®¿à®Ł":1588,"à®Łà¯Īà®¨à¯įà®¤":1589,"\\\\":1590,"Ġà®Ĵà®©à¯įà®±":1591,"à®µà®±à¯įà®±à¯Īà®¯à¯ģà®®à¯į":1592,"à¯ĩà®ķ":1593,"à®©à¯ĩ":1594,"à¯ģà®ķà®¿à®±à¯Ģà®°à¯įà®ķà®³à¯į":1595,"à®ĵ":1596,"Ġà®ıà®±à¯įà®ªà®Łà¯įà®Ł":1597,"Ġà®ķà¯Ĥà®²":1598,"Ġx":1599,"Ġà®ĩà®±à¯Īà®µà®©à®¿à®Łà®®à®¿à®°à¯ģà®¨à¯įà®¤à¯ģ":1600,"Ġà®ĩà®°à¯ģà®¨à¯įà®¤à®¤à¯ģ":1601,"Ġà®µà¯ĩà®±à®¿à®²à¯įà®²à¯Ī":1602,"Ġà®®à®ķà®¤à¯įà®¤":1603,"Ġà®ķà¯Ģà®´à¯ĩ":1604,"à®°à¯įà®µ":1605,"à®ĩà®²à¯įà®²à¯Ī":1606,"Ġà®ķà¯Ĥà®Łà®¿à®¯":1607,"(à®ªà¯į":1608,"Ġà®ļà¯Ĩà®¯à¯į":1609,"Ġà®µà¯ĩà®¤à®©à¯Īà®¯à¯Ī":1610,"à¯ģà®®à¯Īà®¯à®¿à®²à¯į":1611,"à®µà®¾":1612,"Ġà®İà®©à¯įà®©à¯ģà®Łà¯Īà®¯":1613,"à¯įà®¤à®¿":1614,"Ġà®®à¯ģà®¯":1615,"à®¤à®©à¯į":1616,"à¯ģà®¤à®¯":1617,"à®ħà®¤à®±à¯įà®ķà¯ģ":1618,"à¯ĩà®ļ":1619,"à®ªà¯Ĩ":1620,"à¯ģà®µà®°à¯įà®ķà¯įà®ķ":1621,"Ġà®ļà®¤à¯įà®¤à®¿à®¯à®®à®¾à®ķ":1622,"Ġà®ļà¯Ĩà®¯à®²à¯įà®ª":1623,"à®¾à®°à¯ģà®®à¯į":1624,"à®ļà¯Ĩ":1625,"à®¨à®°à®ķ":1626,"(_":1627,"à®µà¯ĩà®£à¯įà®Ł":1628,"à¯Ģà®²":1629,"Ġà®ĩà®µà®°à¯įà®ķà®³à¯ģà®ķà¯įà®ķà¯ģ":1630,"à®Īà®®à®¾à®©à¯į":1631,"à®ļà®¿à®¯":1632,"à®Łà¯įà®Łà®¿à®²à¯į":1633,"Ġà®ħà®¤à®±à¯įà®ķà¯ģ":1634,"Ġà®¤à¯Ĩà®°à®¿à®¯":1635,"Ġà®ħà®µà®±à¯įà®±à¯Ī":1636,"à®°à¯įà®¨à¯įà®¤à¯ģ":1637,"Ġà®°à®¹à¯įà®®":1638,"à®±à®¿":1639,"Ġà®¨à®©à¯įà®ķà®±à®¿à®¨à¯įà®¤":1640,"ĠM":1641,"à®¤à¯įà®¤à®¿à®²à¯ģà®®à¯į":1642,"à®¨à®¿à®±":1643,"Ġà®®à¯Ģà®£à¯įà®Łà¯ģà®®à¯į":1644,"Ġà®ĩà®¤à®¯":1645,"Ġà®ħà®¨à®¿à®¯à®¾à®¯à®ķà¯įà®ķà®¾à®°":1646,"à¯įà®ªà¯ģ":1647,"à®®à¯ģà®±":1648,"à®Ļà¯į":1649,"Ġà®¨à¯Ĩà®°à¯ģà®Ļà¯įà®ķ":1650,"Ġà®¨à¯ĩà®°à®®à¯į":1651,"à®¾à®²à®¿à®¹à®¾à®©":1652,"à®ħà®µà®°à¯įà®ķà®³à¯ģà®ķà¯įà®ķà¯ģ":1653,"Ġà®İà®Ļà¯įà®ķà®³à¯Ī":1654,"à®µà®°à®¾à®ķ":1655,"us":1656,"Ġà®ĩà®°à¯ģà®¤à®¯":1657,"à®°à¯ģà®³":1658,"Ġà®ħà®³à®µà¯ģ":1659,"Ġà®¤à®¾à®©":1660,"Ġà®ĥà®ªà®¿à®°à¯įà®ħà®µà¯įà®©":1661,"Ġà®¨à®¾à®©":1662,"Ġà®µà®¾à®ķà¯įà®ķà®³":1663,"Ġà®¤à¯ģà®µ":1664,"à®¾à®£à¯įà®Ł":1665,"Ġà®ħà®µà®±à¯įà®±à®¿à®©à¯į":1666,"à®¨à®¿à®°":1667,"à¯Īà®ļà¯į":1668,"ec":1669,"à®ķà¯įà®ķà®¿":1670,"Ġà®ħà®µà¯įà®µà®¿à®°à¯ģà®µà®°":1671,"Ġà®İà®©à¯įà®±à¯Ĩà®©à¯įà®±à¯ģà®®à¯į":1672,"à¯ģà®Łà¯įà®Ł":1673,"à®µà®°à¯Ī":1674,"à®¿à®©à¯įà®©":1675,"Ġà®Ĵà®°à¯ģà®µà®°à¯į":1676,"à¯ĩà®¯à®©à¯įà®±à®¿":1677,"Ġà®ħà®Łà®¿à®¯à®¾à®°à¯įà®ķà®³":1678,"Ġà®ļà¯Ĩà®©à¯įà®±à¯ģ":1679,"à¯ģà®ĥà®ª":1680,"Ġà®®à¯Ĥà®¸à®¾à®µ":1681,"Ġà®ķà®£à®ķà¯įà®ķ":1682,"ra":1683,"Ġà®īà®Ļà¯įà®ķà®³à¯Īà®ªà¯į":1684,"Ġà®ªà®´":1685,"à®ħà®¤à¯Ī":1686,"à®¤à¯įà®¤à®¾à®²à¯į":1687,"Ġà®ķà¯Ĥà®²à®¿":1688,"à®µà®³":1689,"à®İà®©à®¿à®©à¯ģà®®à¯į":1690,"Ġà®ªà®°à®¿à®ļ":1691,"à®ĥ":1692,"Ġà®¤à¯ģà®©à¯įà®ª":1693,"à®¾à®®à®²":1694,"à¯ģà®ªà¯įà®ªà¯ģ":1695,"Ġà®ļà¯Ģ":1696,"Ġà®ªà®Łà¯ģà®¤à¯įà®¤":1697,"Ġà®ªà®ķà®¿à®°à®Ļà¯įà®ķ":1698,"Ġà®ĩà®°à®µ":1699,"à®ĩà®¤à¯Ī":1700,"à¯Īà®µà¯ĩ":1701,"à¯įà®ķà®³à®¾à®ķ":1702,"à®¾à®ļà®®à¯į":1703,"el":1704,"Ġà®ħà®´à¯Īà®ķà¯įà®ķ":1705,"Ġà®İà®ļà¯įà®ļà®°à®¿à®ķà¯įà®ķà¯Ī":1706,"Ġà®ħà®¨à¯įà®¨à®¾à®³à®¿à®²à¯į":1707,"Ġà®®à®ķà®¤à¯įà®¤à®¾à®©":1708,"à¯Ĩà®Łà¯ģà®¤à¯įà®¤":1709,"à®®à®¾à®ķà®µà¯ģà®®à¯į":1710,"Ġà®ĩà®°à¯ģà®ķà¯įà®ķà®¿à®±à®¾à®°à¯įà®ķà®³à¯į":1711,"Ġ,":1712,"Ġà®®à®¾à®±à¯ģ":1713,"Ġà®ĩà®¤à®¿à®²à¯į":1714,"à®¤à®¾à®©":1715,"à®¿à®²à¯įà®²à®¾à®¤":1716,"à®¿à®±à¯įà®ķà¯ģ":1717,"Ġà®µà®´à®¿à®ª":1718,"à¯ģà®µà®¤à¯ģ":1719,"à®µà®°à¯ģà®®à¯į":1720,"Ġà®īà®Łà¯Īà®¯":1721,".)čĊ":1722,"Ġà®ĩà®°à¯ģà®ķà¯įà®ķà®¿à®±à®¾à®©à¯į":1723,"à®µà®¾à®³":1724,"à®¿à®©à®°":1725,"Ġà®µà®°à®®à¯įà®ªà¯ģ":1726,"à®¿à®ķà®´":1727,"Ġà®¨à®Łà®¨à¯įà®¤à¯ģ":1728,"Ġà®¨à®®à¯įà®®à¯ģà®Łà¯Īà®¯":1729,"Ġà®ļà¯ĩà®°à¯įà®ķà¯įà®ķ":1730,"Ġà®·à¯Īà®¤à¯įà®¤à®¾à®©":1731,"Ļà¯į":1732,"Ġà®ªà¯ģà®ķà®´":1733,"à¯Īà®¤à¯įà®¤à¯ģà®ķà¯į":1734,"Ġà®ļà®¿à®¨à¯įà®¤":1735,"à®µà®´":1736,"Ġà®ķà®Łà¯įà®Łà®³à¯Īà®¯":1737,"à®ªà®¿à®°":1738,"à®¿à®¯à¯ģà®³à¯įà®³":1739,"Ġà®ĩà®°à®£à¯įà®Łà¯ģ":1740,"Ġà®ıà®¤":1741,"à®¿à®±à¯įà®±":1742,"Ġà®İà®²à¯įà®²à®¾à®ªà¯į":1743,"Ġà®µà®¿à®³à®ķà¯įà®ķ":1744,"à®¾à®°à®¾à®¯":1745,"à®¾à®°à¯įà®ķà®³à®¾":1746,"à®¿à®ķà¯įà®ķà®µà¯ģà®®à¯į":1747,"Ġà®ªà®¿à®´à¯Ī":1748,"à®®à®¾à®ķà¯įà®ķ":1749,"Ġà®µà®¾à®¯":1750,"à®¤à¯įà®¤à®¾à®°":1751,"à®¯à®¾à®µà®±à¯įà®±à¯Īà®¯à¯ģà®®à¯į":1752,"Ġà®µà®¿à®´":1753,"à®¿à®ķà¯įà®ķà®ªà¯įà®ªà®Ł":1754,"à®¿à®ķà®³à®¿à®²à¯į":1755,"Ġà®İà®´à¯ģà®ªà¯įà®ª":1756,"Ġà®ķà®¾à®°à®£à®®à®¾à®ķ":1757,"Ġà®ļà®ª":1758,"Ġà®µà®£à¯įà®£":1759,"à®µà®©à¯ģà®®à¯į":1760,"à®µà¯Ĩ":1761,"à¯Ģà®¤à¯ģ":1762,"ĠT":1763,"à®¿à®¯à®¾à®®":1764,"Ġà®İà®µà®°à¯ģà®®à¯į":1765,"Ġà®ļà®¿à®±à®¿à®¤":1766,"Ġo":1767,"à®īà®Ļà¯įà®ķà®³à¯ģà®ķà¯įà®ķà¯ģ":1768,"à¯ģà®ķà¯įà®ķà¯ģà®°à®¿à®¯":1769,"à®Ļà¯įà®ķà®³à®¿à®²à¯ģà®®à¯į":1770,"à®µà®¿à®°":1771,"ag":1772,"Ġà®¤à¯Ĩà®¯à¯įà®µ":1773,"Ġà®ĩà®©":1774,"Ġà®ĩà®µà¯įà®µà®¾à®±à¯ĩ":1775,"Ġà®¨à®¿à®±à¯ģà®¤à¯įà®¤":1776,"Ġà®ķà¯Ĥà®Łà¯įà®Łà®¤à¯įà®¤à®¾à®°":1777,"Ġà®ªà¯ģà®¤à®¿à®¯":1778,"Ġà®¨à®©à¯įà®®à®¾à®°à®¾à®¯":1779,"Ġà®ħà®Łà¯Īà®µ":1780,"Ġà®ĩà®µà¯įà®µà®¾à®±à¯ģ":1781,"Ġà®®à®¾à®¤":1782,"à®Łà¯Īà®¯":1783,"Ġà®ıà®©à¯į":1784,"à®°à¯įà®ķà®³à¯ĩ":1785,"Ġà®ıà®´":1786,"à¯ģà®ªà®µ":1787,"à®¨à¯ĩà®°":1788,"Ġà®ħà®µà®°à¯įà®ķà®³à¯ģà®ķà¯įà®ķà¯ģà®ķà¯į":1789,"Ġà®µà®¿à®µà®°":1790,"Ġà®ķà®¾à®Łà¯įà®Łà¯ģ":1791,"à®®à¯Īà®¯":1792,"à®¾à®ķà®¿":1793,"Ġà®ªà¯Ĩà®°à®¿à®¯":1794,"Ġà®ļà®¿à®²à®°à¯į":1795,"Ġà®ħà®©à¯įà®±à®¿":1796,"à®¿à®°à¯ģà®ķà¯įà®ķà®¿à®±à®¤à¯ģ":1797,"Ġà®ķà¯ģà®Łà¯ģà®®à¯įà®ª":1798,"à®¤à¯Īà®ķà¯į":1799,"à®¿à®¯à¯ģà®Ļà¯įà®ķà®³à¯į":1800,"Ġà®µà¯ĩà®£à¯įà®Łà®¾à®®à®¾":1801,").":1802,"Ġà®İà®¤à¯ģà®µà¯ģà®®à¯į":1803,"Ġà®ļà¯Ĩà®²à®µà¯ģ":1804,"Ġà®ĩà®Ļà¯įà®ķà¯ĩ":1805,"(à®ħà®¤à®±à¯įà®ķà¯ģ":1806,"Ġh":1807,"à®ªà¯įà®ªà®Łà¯įà®Łà®¾à®²à¯į":1808,"Ġà®ĩà®²":1809,"ut":1810,"Ġà®ħà®³à®¿à®¤à¯įà®¤":1811,"Ġ&":1812,"ĠD":1813,"à®Ĵà®°":1814,"Ġà®®à¯ģà®±à¯įà®ª":1815,"Ġà®¨à¯ĩà®°à¯į":1816,"Ġà®īà®®à¯įà®®à®¿à®Łà®®à¯į":1817,"à®²à¯įà®²à®¾à®®":1818,"Ġà®Ĵà®³":1819,"à¯ģà®²à¯į":1820,"Ġà®¨à®ķà®°à¯įà®¤à¯įà®¤à¯ģ":1821,"Ġà®µà¯Ĩà®³à®¿à®¯":1822,"Ġà®ªà®¾à®°à¯įà®ªà¯įà®ª":1823,"Ġà®¨à®©à¯įà®®à¯Īà®¯":1824,"à¯ģà®µà®°à¯į":1825,"ad":1826,"à¯ģà®®à¯Īà®¯à®¾à®©":1827,"\"à®¨à®¿à®ļà¯įà®ļà®¯à®®à®¾à®ķ":1828,"Ġà®¨à®Łà®ķà¯įà®ķ":1829,"Ġà®ļà®¾à®³à®°":1830,"Ġà®¨à¯ĩà®°à¯įà®µà®´à®¿à®¯à®¿à®²à¯į":1831,"Ġà®İà®ªà¯įà®ªà®Łà®¿":1832,"à¯ģà®ªà®¤à¯ĩà®ļ":1833,"Ġà®ªà®¯à®ªà®ķà¯įà®¤à®¿à®¯à¯ģà®Łà¯Īà®¯":1834,"à®ķà®Ł":1835,"à®¾à®¤à¯Ģà®°à¯į":1836,"Ġà®µà®¿à®Łà¯įà®Łà®¤à¯ģ":1837,"Ġà®¤à¯Ĥà®¤à®°à¯įà®ķà®³":1838,"Ġà®ªà®¾à®¤à¯ģà®ķà®¾à®µà®²":1839,"Ġà®ªà®¾à®¤à¯ģà®ķà®¾à®ªà¯įà®ª":1840,"Ġà®ĩà®±à¯Īà®µà®©à®¿à®Łà®®à¯į":1841,"Ġà®®à®©à®¿à®¤à®©à¯į":1842,"à®¿à®°à®®à¯į":1843,"à®³à®µà¯ģ":1844,"Ġà®Ĩà®¤à¯įà®®":1845,"Ġà®ĩà®²à¯įà®²à®¾à®¤":1846,"Ġà®¨à®ķ":1847,"à®¤à¯ĩà®°":1848,"à®®à®ķà¯įà®ķà¯ģ":1849,"Ġà®ħà®Ļà¯įà®ķà¯ģ":1850,"à®ĩà®±à¯Īà®µà®©":1851,"à¯Ĩà®Łà¯ģ":1852,"à¯įà®ļà¯įà®ļà®¿":1853,"Ġà®Ĩà®ķà®¿à®¯":1854,"à®ĩà®£":1855,"Ġà®ķà¯ģà®´à®ªà¯įà®ª":1856,"à®®à®¾à®±à¯įà®±":1857,"à®ļà¯Ī":1858,"ur":1859,"à¯ģà®µà®¤à®±à¯įà®ķà®¾à®ķ":1860,"(à®¯":1861,"à¯ĭà®¤à¯ģ":1862,"Ġà®ªà®±à¯įà®±à®¿à®¯":1863,"Ġà®ļà¯ģà®±à¯įà®±":1864,"Ġà®ļà®®à¯įà®ªà®¾à®¤":1865,"Ġà®ļà¯ģà®µà®°à¯įà®ķà¯įà®ķ":1866,"Ġà®ħà®µà®©à¯ģà®ķà¯įà®ķà¯ĩ":1867,"à¯ĩà®¯à®¾à®ķà¯ģà®®à¯į":1868,"Ġà®ļà¯Ĩà®¯à¯įà®¯à®ªà¯įà®ªà®Ł":1869,"Ġà®ķà®¿à®Łà¯Īà®¤à¯įà®¤":1870,"à¯Īà®¯à¯Ĩà®²à¯įà®²à®¾à®®à¯į":1871,"à®ªà¯įà®ªà®Łà¯įà®Łà¯ģ":1872,"Ġà®İà®ªà¯įà®ª":1873,"Ġà®īà®ª":1874,"à®¨à®¿à®²":1875,"à®ªà¯ģà®¤à®¿à®¯":1876,"Ġà®ħà®ķà¯įà®ķà®¿à®°à®®":1877,"à®ªà®¿à®©à¯į":1878,"à®®à¯Ģ":1879,"Ġà®īà®®à®ķà¯įà®ķ":1880,"à¯Ĥà®¸":1881,"à®ħà®µà®°à¯įà®ķà®³à¯ģà®Łà¯Īà®¯":1882,"à¯ģà®µà®¤":1883,"Ġà®ļà¯Ĩà®¯à¯įà®¤à®¾à®²à¯į":1884,"Ġà®ªà®¾à®°à¯įà®µ":1885,"à®®à¯ģà®©à¯įà®©":1886,"Ġà®¤à®ķà®µ":1887,"Ġà®ļà¯ģà®µà®©":1888,"Ġà®ħà®²à¯įà®²à®¾à®¹à¯įà®µà®¿à®Łà®®à¯į":1889,"Ġà®ªà®¾à®ķà¯įà®ķà®¿à®¯":1890,"à®£à®¿":1891,"à®¤à¯įà®¤à¯Īà®ªà¯į":1892,"Ġà®®à®¾à®Łà¯įà®Łà®¾à®©à¯į":1893,"à®īà®°":1894,"Ġà®ªà®¾à®²à¯į":1895,"à®¨à¯Ģà®°à¯į":1896,"Ġà®ļà¯Ĩà®¯à¯įà®ķà®¿à®©à¯įà®±":1897,"Ġà®ļà®¨à¯įà®¤à®¤à®¿à®¯":1898,"à¯Īà®µà®¾":1899,"Ġà®µà®¿à®Łà¯ģà®Ļà¯įà®ķà®³à¯į":1900,"à®¿à®ªà¯įà®ªà®Łà¯įà®Ł":1901,"Ġà®¨à®¾à®¯à®©à¯į":1902,"Ġà®ªà®¿à®°à®¿à®µ":1903,"à®µà®±à¯įà®±à®¿à®©à¯į":1904,"Ġà®ķà®Łà®¿à®©":1905,"Ġ...":1906,"Ġà®µà¯Ģà®Ł":1907,"à®¾à®Łà¯įà®Łà¯ģ":1908,"Ġà®¨à¯Ĥ":1909,"Ġà®¤à¯Ĩà®°à®¿à®¯à¯ģà®®à¯į":1910,"Ġà®ļà®°à®¿":1911,"à®ªà®¾à®µ":1912,"Ġà®¤à¯Ĥà®¤à®°à¯į":1913,"Ġà®¤à®¯":1914,"Ġà®®à¯ģà®¨à¯įà®¤":1915,"ĠA":1916,"à®īà®£":1917,"Ġà®ĩà®¤à®±à¯įà®ķà¯ģ":1918,"Ġà®īà®£à¯įà®®":1919,"Ġà®İà®µà®©à¯į":1920,"Ġà®¤à¯Ģà®Ļà¯įà®ķ":1921,"Ġà®ħà®µà®°à¯įà®ķà®³à¯ģà®®à¯į":1922,"Ġà®®à¯Ĩà®¯à¯įà®¯":1923,"à®¾à®Ļ":1924,"à®®à®¾à®ķà®ķà¯į":1925,"Ġà®¤à®Łà¯ģà®ķà¯įà®ķ":1926,"Ġà®µà®¹à¯Ģ":1927,"Ġà®ķà¯ģà®´à®¨à¯įà®¤":1928,"Ġà®Ĩà®±":1929,"Ġà®µà¯Ĩà®±à¯įà®±à®¿à®¯":1930,"à®¿à®°à¯ģà®ķà¯įà®ķà®¿à®©à¯įà®±à®¾à®©à¯į":1931,"à®¾à®³à®°à¯į":1932,"Ġà®ħà®³à®µ":1933,"Ġà®ĵà®Ł":1934,"Ġà®ħà®®à¯Īà®ªà¯įà®ª":1935,"(à®¨":1936,"à®Ļà¯įà®ķà®³à¯Īà®ªà¯į":1937,"Ġ\"(":1938,"Ġà®¨à¯Ģà®ķà¯įà®ķà¯ģ":1939,"à¯ģà®µà®°à¯ģà®®à¯į":1940,"Ġà®īà®£à¯įà®®à¯Ī":1941,"Ġà®µà®¿à®Łà¯įà®Łà®¾à®²à¯į":1942,"Ġà®µà¯Ĩà®³à®¿à®ªà¯įà®ªà®Łà¯ģà®¤à¯įà®¤":1943,"à®µà®°à¯įà®ķà®³à®¾à®ķà®µà¯ģà®®à¯į":1944,"Ġà®ļà¯Ĩà®¯à¯įà®¯à¯ģà®Ļà¯įà®ķà®³à¯į":1945,"à¯ĩà®©à¯ģà®®à¯į":1946,"Ġà®®à¯ģà®Łà®¿à®µà¯ģ":1947,"à®ªà¯įà®ªà®Łà¯ģà®µà®¾à®°à¯įà®ķà®³à¯į":1948,"Ġà®ıà®¤à®¾à®µà®¤à¯ģ":1949,"Ġà®İà®©à¯įà®ªà®¤à¯Īà®¯à¯ģà®®à¯į":1950,"Ġà®µà®´à®¿à®¯à®¿à®²à¯į":1951,"Ġà®®à®ķà¯įà®ķà®³à¯į":1952,"Ġà®µà®¾à®ļ":1953,"à®¿à®ļà¯Ī":1954,"Ġof":1955,"Ġà®īà®©à¯į":1956,"Ġà®ıà®µ":1957,"à®µà®±à¯įà®±à®¿à®²à¯į":1958,"ld":1959,"and":1960,"à®µà¯ĩà®±":1961,"à¯ģà®®à¯įà®ªà®Ł":1962,"Ġà®¨à®£à¯įà®ª":1963,"Ġà®ħà®©à¯Īà®¤à¯įà®¤à¯ģ":1964,"Ġà®ķà¯Ĥà®±à®ªà¯įà®ªà®Łà¯ģà®®à¯į":1965,"à®ªà¯įà®ªà®Łà¯įà®Łà¯ģà®³à¯įà®³":1966,"Ġà®¨à®²à¯įà®²à¯ģà®ªà®¤à¯ĩà®ļ":1967,"Ġà®Ĵà®°à¯ĩ":1968,"à®ķà®¾à®²":1969,"Ġà®īà®±à¯ģà®¤":1970,"Ġ%":1971,"Ġà®¤à¯ĩà®°à¯įà®µ":1972,"Ġà®µà¯Ĩà®±à¯įà®±à®¿":1973,"Ġà®ªà¯Ĩà®£à¯į":1974,"à®µà®°à¯įà®ķà®³à®¿à®©à¯į":1975,"Ġà®ªà®¤à®¿à®²":1976,"Ġà®µà®¾à®ķà¯įà®ķà¯ģà®±à¯ģà®¤à®¿":1977,"AN":1978,"à¯Ĥà®Łà¯įà®Ł":1979,"à¯ģà®©à¯į":1980,"Ġà®İà®¤à¯Ī":1981,"à®İà®´":1982,"à®ªà¯Ĥà®®":1983,"Ġà®¤à¯ĩà®°à¯įà®¨à¯įà®¤à¯Ĩà®Łà¯ģà®ķà¯įà®ķ":1984,"Ġà®¤à®°à¯įà®ķà¯įà®ķ":1985,"Ġà®ħà®©à¯ģà®®à®¤":1986,"Ġà®¤à®µà®£":1987,"à®±à¯į":1988,"à®¨à®Ł":1989,"Ġà®ļà¯Ĩà®¯à¯įà®ķà®¿à®±à®¾à®©à¯į":1990,"à®®à¯ģà®³à¯įà®³":1991,"à®īà®®à¯įà®®":1992,"Ġà®ªà®¯à®©":1993,"Ġà®ħà®©à¯Īà®¤à¯įà®¤":1994,"Ġà®ªà®¿à®³":1995,"Ġà®¨à¯Ĩ":1996,"Ġà®ķà®£à¯įà®£à®¿à®¯":1997,"Ġà®µà®¿à®Łà¯įà®Łà®¾à®©à¯į":1998,"Ġà®®à®±à¯ģà®®à¯Īà®¯":1999,"à®¤à®°":2000,"à¯ģà®±à¯Ī":2001,"à®ªà®²":2002,"Ġà®ħà®µà®³à¯į":2003,"Ġà®ķà®±à¯įà®ª":2004,"à®¤à¯įà®¤à¯ģà®Łà®©à¯į":2005,"enc":2006,"(à®ĩ":2007,"Ġà®®à¯ģà®Łà®¿à®¯à®¾à®¤":2008,"Ġà®¤à®°à¯ģà®®à¯į":2009,"Ġà®ķà¯ĭ":2010,"Ġà®®à¯ģà®Łà®¿à®µ":2011,"Ġà®İà®©à¯įà®±à®¾à®²à¯į":2012,"à¯Ĩà®©à¯įà®±à¯ģ":2013,"à®ħà®²":2014,"Ġl":2015,"à®ħà®µà®©à¯ĩ":2016,"Ġà®®à¯Ĥà®¸à®¾":2017,"Ġ/":2018,"Ġà®ĩà®£à¯Ī":2019,"à®¤à¯Ģ":2020,"Ġà®®à®Łà¯įà®Łà¯ģà®®à¯į":2021,"à®¾à®¤à¯Īà®¯":2022,"à¯ģà®®à®¤à®¿":2023,"Ġà®ªà®Łà¯Īà®ªà¯įà®ª":2024,"à¯įà®¹":2025,"Ġà®¤à®¿à®°à¯ģà®®à¯įà®ªà®¿":2026,"à®ªà¯įà®±":2027,"Ġà®İà®Ł":2028,"ĠK":2029,"Ġà®¤à¯Ĭà®ķ":2030,"à¯ģà®µà¯Ģà®°à¯įà®ķà®³à¯į":2031,"à®¿à®ķà®°":2032,"Ġà®ªà®¾à®ķ":2033,"à¯ģà®¨à¯įà®¤à¯ģ":2034,"Ġà®¤à®Łà¯ģà®¤à¯įà®¤":2035,"\"(":2036,"à®ªà¯įà®ªà®Łà¯ģà®µà¯Ģà®°à¯įà®ķà®³à¯į":2037,"Ġà®İà®´à¯ģà®¤à¯įà®¤":2038,"Ġà®ªà®ķà¯Ī":2039,"Ġà®ħà®°à¯ģà®³à¯į":2040,"Ġà®ªà®Łà¯Īà®ķà¯įà®ķ":2041,"à®¤à¯Īà®¤à¯į":2042,"Ġà®Ĩà®ķà¯ģà®®à¯į":2043,"Ġà®ħà®²à¯įà®²à®¾à®¹à¯įà®µà¯ĩ":2044,"Ġà®µà®ķà¯Ī":2045,"Ġà®¨à®¿à®±à¯Īà®µà¯ĩ":2046,"Ġà®ħà®©à¯Ī":2047,"Ġà®ķà®¿à®Łà¯Īà®ķà¯įà®ķà¯ģà®®à¯į":2048,"Ġà®ªà®¿à®®à¯įà®ª":2049,"Ġst":2050,"Ġà®µà¯Īà®¤à¯įà®¤à¯ģ":2051,"Ġà®¤à®¿à®±à®ķà¯įà®ķ":2052,"Ġà®ħà®´à®ķà®¾à®©":2053,"à®¨à®®à¯įà®ª":2054,"Ġà®ħà®µà®±à¯įà®±à®¿à®²à¯į":2055,"à®¤à®©":2056,"à¯įà®¤à¯ģ":2057,"Ġà®īà®¯à®¿à®°à¯įà®ªà¯įà®ª":2058,"Ġà®¤à¯Ĥà®¤à®°à¯įà®ķà®³à¯į":2059,"Ġà®¸à®¾à®²à®¿à®¹à®¾à®©":2060,"col":2061,"Ġà®ħà®±à®¿à®¯à®¾à®¤":2062,"à¯ģà®ķà®³à®¿à®©à¯į":2063,"à®°à¯įà®ķà®³à¯ģà®ķà¯įà®ķà¯ģ":2064,"Ġà®µà¯Ĩà®±à¯įà®±":2065,"Ġà®ªà¯Ĥà®®à®¿à®¯à¯Īà®¯à¯ģà®®à¯į":2066,"à®ħà®µ":2067,"à¯Īà®¯à¯Īà®¯à¯ģà®®à¯į":2068,"Ġà®ħà®²à¯įà®²à®¾à®¹à¯įà®µà¯ģà®Łà¯Īà®¯":2069,"Ġà®¨à®©à¯įà®±":2070,"Ġà®ªà®°à®¿à®ķ":2071,"Ġà®Ĩà®°":2072,"à¯Īà®ķà®³à¯ģà®®à¯į":2073,"Ġà®ħà®Łà¯Īà®¯":2074,"Ġà®ĩà®±à®¨à¯įà®¤":2075,"Ġà®ķà®²":2076,"à®ħà®´":2077,"Ġà®Ĩà®ķà®¿à®µà®¿à®Ł":2078,"à®°à®¿à®¯":2079,"(à®µ":2080,"à®ħà®µà¯įà®µ":2081,"Ġà®īà®ªà®¤à¯ĩà®ļ":2082,"Ġà®®à®°à®£":2083,"à®®à¯Īà®ªà¯įà®ªà¯ģ":2084,"Ġà®ªà®¯à®ªà¯įà®ªà®Ł":2085,"à®ªà¯ĩ":2086,"Ġà®Ĵà®ªà¯įà®ª":2087,"Ġà®¯à®¾à®¤":2088,"Ġà®İà®±":2089,"Ġà®µà®°à¯Īà®¯à®¿à®²à¯į":2090,"à®¤à®¾à®¤à¯Īà®¯":2091,"Ġà®ħà®¤à®©à®¾à®²à¯į":2092,"Ġà®İà®²à¯įà®²à®¾à®®à¯į":2093,"un":2094,"à¯ģà®®à¯įà®ªà®Łà®¿":2095,"Ġà®¨à®¾à®Łà®¿à®©à®¾à®²à¯į":2096,"Ġà®µà®¾à®°à¯ģà®Ļà¯įà®ķà®³à¯į":2097,"à®®à®ķ":2098,"Ġà®ħà®¤à®©":2099,"à¯ģà®Łà®©à¯ģà®®à¯į":2100,"à®©à®®à¯į":2101,"Ġà®¤à¯Ģà®°à¯įà®ªà¯įà®ªà¯ģ":2102,"à®¿à®Łà¯ģ":2103,"à¯ģà®ķà¯įà®ķà®¾à®©":2104,"à®ħà®¤à®©à¯į":2105,"à®¿à®ķà®³à¯Īà®¯à¯ģà®®à¯į":2106,"à¯Īà®µà®¾à®©":2107,"Ġà®ħà®´à¯Īà®ªà¯įà®ª":2108,"à®³à®¿à®ªà¯įà®ª":2109,"à®¿à®¯à®¿à®°à¯ģà®ªà¯įà®ª":2110,"Ġà®ªà®¿à®Łà®¿à®¤à¯įà®¤à¯ģà®ķà¯į":2111,"ow":2112,"Ġà®®à®¾à®±à¯įà®±à¯ģ":2113,"Ġà®ļà¯Ĩà®¯à¯įà®¯à®µà¯ģà®®à¯į":2114,"Ġà®ªà®°à®¿à®ļà¯ģà®¤à¯įà®¤":2115,"à¯įà®ķà¯į":2116,"à®µà®°à¯Īà®¯à¯ģà®®à¯į":2117,"à®²à¯įà®²à®¾à®®à®²à¯į":2118,"Ġà®ħà®¤à®¿à®²à®¿à®°à¯ģà®¨à¯įà®¤à¯ģ":2119,"Ġà®İà®µà¯įà®µà®¿à®¤":2120,"à®ħà®¨à¯įà®¨à®¾à®³à®¿à®²à¯į":2121,"Ġà®ħà®µà®°à¯įà®ķà®³à¯ģà®ķà¯įà®ķà¯ģà®ªà¯į":2122,"Ġà®ķà®°à¯ģà®µ":2123,"Ġà®ħà®®à¯Ī":2124,"Ġinf":2125,"Ġà®®à¯Ģà®±":2126,"Ġth":2127,"Ġà®¨à®¿à®ķà®´":2128,"ri":2129,"Ġà®ĩà®±à¯Īà®µà®¾":2130,"Ġà®ªà®±":2131,"à®¿à®Łà®¿":2132,"à¯ģà®µà®¤à®±à¯įà®ķà¯ģ":2133,"ĠI":2134,"Ġà®¨à¯Ģà®Ļà¯įà®ķà®³à¯ģà®®à¯į":2135,"à®¾à®ķà®ªà¯į":2136,"Ġà®µà®¿à®°à¯ģà®®à¯įà®ªà¯ģà®ķà®¿à®±":2137,"à®ķà¯ģà®°":2138,"Ġà®ķà®´":2139,"¿½":2140,"ï¿½":2141,"Ġï¿½":2142,"à®¿à®¤à¯įà®¤à¯ģà®ªà¯į":2143,"Ġà®ħà®©à¯ģà®®à®¤à®¿":2144,"à®ħà®µà¯įà®µà®¾à®±à¯ģ":2145,"Ġà®µà®¿à®Łà¯ģà®®à¯į":2146,"Ġà®Ĩà®¤à¯įà®®à®¾à®µ":2147,"à®¤à¯ģà®µ":2148,"Ġà®¤à¯ĩà®µà¯Īà®¯":2149,"à®µà®°à®¾à®ķà®µà¯ģà®®à¯į":2150,"Ġà®µà®¯":2151,"Ġà®ħà®©à¯ģà®ªà¯įà®ªà®¿":2152,"Ġà®ķà®Łà¯ģà®®à¯Īà®¯à®¾à®©":2153,"Ġà®µà¯Ģà®£":2154,"\"à®İà®©à¯į":2155,"Ġà®īà®Ļà¯įà®ķà®³à¯ģà®ķà¯įà®ķà®¾à®ķ":2156,"à®¿à®®à¯Ī":2157,"à®īà®³à¯įà®³":2158,"Ġà®ħà®®à¯Īà®ķà¯įà®ķ":2159,"à®¿à®°à¯ģà®¨à¯įà®¤à¯ģà®®à¯į":2160,"Ġà®¨à®¿à®¯à®¾à®¯":2161,"à®¤à¯įà®¤à®¿à®°":2162,"à¯Ĥà®¤à¯ģ":2163,"à¯įà®¸à®¿à®©à¯į":2164,"Ġà®īà®²":2165,"Ġà®¨à¯ĩà®°à®¾à®©":2166,"Ġà®Ĵà®Łà¯įà®Ł":2167,"Ġà®µà®´à®¿à®ķà¯ĩ":2168,"à®µà®°à¯įà®ķà®³à¯Īà®¯à¯ģà®®à¯į":2169,"Ġà®®à¯Ĥà®¤à®¾à®¤à¯Īà®¯":2170,"Ġà®ļà®¨à¯įà®¤à¯ĩà®ķ":2171,"à®ĥà®ª":2172,"à®¿à®Łà®®à¯ģà®®à¯į":2173,"Ġà®¤à®¿à®Łà®®à®¾à®ķ":2174,"à¯įà®¤à®¾à®®à¯į":2175,"à®¨à®¿à®°à®¾à®ķà®°":2176,"à®ªà¯įà®±à®¾à®¹à¯Ģ":2177,"Ġà®µà¯Ĩà®³à®¿à®¯à¯ĩà®±à¯įà®±":2178,"à®ªà®°":2179,"ĠF":2180,"à®İà®©à®ķà¯įà®ķà¯ģ":2181,"à®Ĳ":2182,"Ġà®ĩà®¯à®ķà¯įà®ķ":2183,"Ġà®ıà®±à¯įà®±à¯ģà®ķà¯į":2184,"à¯ģà®ľ":2185,"à¯Ģà®Łà¯ģ":2186,"à®®à®¾à®Łà¯įà®Łà®¾à®©à¯į":2187,"à®ªà®¿à®±":2188,"Ġà®ħà®´à®ķà®¿à®¯":2189,"à®Ĵà®µà¯įà®µ":2190,"à¯ģà®±à¯ģà®¤à¯įà®¤":2191,"Ġà®īà®£à¯įà®®à¯Īà®¯à®¾à®©":2192,"Ġà®ļà®¿à®²à®°":2193,"à¯įà®ķà®¿à®±à®¾à®°à¯įà®ķà®³à¯į":2194,"em":2195,"à®¿à®ķà¯įà®ķà®¿à®±à®¾à®©à¯į":2196,"à®©à®ķà¯įà®ķà¯ģ":2197,"Ġà®®à®©à¯Īà®µà®¿à®¯":2198,"Ġà®ļà¯Ĥà®©à®¿à®¯":2199,"à®İà®µà®°à¯įà®ķà®³à¯į":2200,"Ġà®ķà®¾à®¤à¯įà®¤":2201,"à®¿à®Łà¯įà®Łà®¾à®²à¯į":2202,"Ġà®İà®©à¯įà®©à¯ģà®®à¯į":2203,"ĠP":2204,"age":2205,"Ġà®®à®ķà¯įà®ķà®³à¯ģà®ķà¯įà®ķà¯ģ":2206,"à®ļà®¤à¯įà®¤à®¿à®¯":2207,",)":2208,"Ġà®¨à®¾à®®à¯ĩ":2209,"à®ĩà®µà®°à¯įà®ķà®³à¯į":2210,"Ġà®ħà®©à¯ģà®ªà®µ":2211,"\"à®¨à¯Ģà®Ļà¯įà®ķà®³à¯į":2212,"Ġà®®à®Łà¯įà®Ł":2213,"à®¨à®¾à®©":2214,"à®µà¯Ĩà®³":2215,"à®©à¯Īà®¯à¯Ī":2216,"à®¾à®°à¯įà®Ł":2217,"à®ĩà®°à¯ģ":2218,"Ġà®®à®ķà®¿à®´":2219,"Ġï¿½\\":2220,"Ġà®¨à®¿à®©à¯Īà®ķà¯įà®ķ":2221,"Ġà®®à¯ģà®¯à®±à¯įà®ļ":2222,"Ġà®¤à®®à¯įà®®":2223,"à®¿à®ķà®³à®¿à®©à¯į":2224,"à®¿à®¯à®¾à®ķà®µà¯ģà®®à¯į":2225,"Ġà®ļà¯Ĭ":2226,"à¯ģà®ķà®³à¯ģà®®à¯į":2227,"à¯ģà®¤à®¾à®¯":2228,"Ġà®ªà®ķà®¿à®°à®Ļà¯įà®ķà®®à®¾à®©":2229,"Ġà®ķà¯Ī":2230,"Ġà®®à¯ģà®¤":2231,"Ġà®Ĩà®Łà¯įà®ļ":2232,"à¯ģà®µà®¾à®¯à®¾à®ķ":2233,"à®ªà¯įà®ªà®Łà®¿à®¯à®²à¯įà®²":2234,"Ġre":2235,"Ġà®ķà®¿à®°à¯ģà®ªà¯Īà®¯à¯ģà®Łà¯Īà®¯":2236,"ils":2237,"à®ħà®ªà¯įà®ª":2238,"Ġà®īà®³à¯įà®³à®©":2239,"Ġà®ªà¯ģà®ļ":2240,"Ġà®ķà¯ĩà®³à¯įà®µ":2241,"à®¤à®¯":2242,"à®¤à¯įà®¤à¯Īà®¤à¯į":2243,"à®µà®¾à®ļ":2244,"Ġà®µà®¾à®°à¯įà®¤à¯įà®¤":2245,"Ġà®®à®¿à®ķà¯įà®ķà®µà®©à¯į":2246,"Ġà®ķà¯ģà®±à®¿à®ªà¯įà®ªà®¿à®Łà¯įà®Ł":2247,"à®īà®¯":2248,"à®´à¯įà®ķ":2249,"ce":2250,"ĠB":2251,"Ġà®İà®¤à¯Īà®ªà¯į":2252,"Ġà®®à¯Ģà®³":2253,"Ġà®ĩà®°à®ķ":2254,"à¯Ģà®¹":2255,"Ġà®ļà®¿à®¤à¯įà®¤":2256,"Ġà®īà®¤à®µà®¿à®¯":2257,"Ġà®İà®¤à®¿à®°à¯įà®ª":2258,"Ġà®ķà¯Ĥà®±à®¿":2259,"Ġà®¨à®©à¯įà®ķà®±à®¿à®ª":2260,"à®ħà®µà®°à¯įà®ķà®³à¯Ī":2261,"Ġà®¤à¯ĩà®°à¯įà®¨à¯įà®¤à¯Ĩà®Łà¯ģà®¤à¯įà®¤":2262,"Ġà®ķà¯Ĥà®±à¯ģà®Ļà¯įà®ķà®³à¯į":2263,"Ġà®İà®¤à¯Īà®¯à¯ģà®®à¯į":2264,"à®ķà®Łà¯įà®Ł":2265,"Ġà®ªà¯ģà®±à®ķà¯įà®ķà®£à®¿à®¤à¯įà®¤à¯ģ":2266,"St":2267,"à¯ģà®µà®¤à®¿à®²à¯įà®²à¯Ī":2268,"Ġà®ħà®ŀà¯įà®ļà®¿":2269,"Ġinfo":2270,"Ġà®ªà®¾à®°à¯ģà®Ļà¯įà®ķà®³à¯į":2271,"à®¨à®¿à®©":2272,"à¯ģà®Łà¯Īà®¯à®µà®©à¯į":2273,"Ġà®ĩà®£à¯Īà®µ":2274,"à®¯à®¾à®µà®°à¯Īà®¯à¯ģà®®à¯į":2275,"Ġà®ĩà®±à¯Īà®µà®©à¯ģà®Łà¯Īà®¯":2276,"Ġà®ħà®²à¯įà®²à®¾à®¹à¯įà®µà®¿à®Łà®®à®¿à®°à¯ģà®¨à¯įà®¤à¯ģ":2277,"Ġà®ĩà®´à®¿à®µ":2278,"à®¿à®ķà®¿à®±à®¾à®©à¯į":2279,"Ġà®µà¯ĩà®£à¯įà®Łà¯ģà®®":2280,"Ġà®¨à®±à¯įà®ķà¯Ĥà®²":2281,"à®®à®¾à®®à¯į":2282,"Ġà®¨à¯Ģà®°":2283,"à®¿à®ķà®³à¯ģà®®à¯į":2284,"à®Ļà¯įà®ķà®¿":2285,"Ġà®īà®²à®ķ":2286,"th":2287,"Ġà®ĩà®ªà¯įà®ª":2288,"Ġà®ķà®³":2289,"Ġà®İà®µà®°à¯Īà®¯à¯ģà®®à¯į":2290,"DE":2291,"Ġà®¤à®ķà¯įà®ķ":2292,"à¯ģà®µà®¤à¯Ī":2293,"Ġà®µà¯ĩà®£à¯įà®Łà¯ģà®®à®¾":2294,"(à®¤à¯įà®¤à®ķà¯Īà®¯":2295,"Ġà®¨à®¿à®°à®¾à®ķà®°à®¿à®¤à¯įà®¤":2296,"Ġà®ļà®¾à®¤":2297,"Ġà®Ĵà®´":2298,"Ġà®ļà¯Ĩà®µà®¿à®¯à¯ĩ":2299,"Ġà®ķà®¿à®³":2300,"Ġà®®à®©à¯įà®©à®¿à®ªà¯įà®ªà®µà®©à®¾à®ķà®µà¯ģà®®à¯į":2301,"à®³à®¿à®ķà¯įà®ķ":2302,"ss":2303,"Ġà®İà®µà¯įà®µà®¾à®±à¯ģ":2304,"à®©à¯Īà®¯":2305,"Ġà®īà®±à¯ģà®¤à®¿à®¯à®¾à®ķ":2306,"à®¿à®ķà¯įà®ķà®¿à®©à¯įà®±à®¾à®©à¯į":2307,"Ġà®®à¯Ģà®¤à¯ĩ":2308,"Ġà®ļà®¾à®¯":2309,"Ġà®¯à®¾à®µà®°à¯Īà®¯à¯ģà®®à¯į":2310,"¸à¯įà®²":2311,"Ġà®ĩà®¤à¯įà®¤à®ķà¯Īà®¯":2312,"Ġà®¤à¯Ĭà®Łà®°":2313,"à®İà®©à¯įà®©à¯ģà®Łà¯Īà®¯":2314,"Ġà®ļà®¤à¯įà®¤à®¿à®¯à®®à¯į":2315,"à®µà®¿à®©":2316,"à®ķà¯Ģà®´":2317,"Ġg":2318,"à®®à¯Ĥà®¸à®¾à®µ":2319,"Ġà®Ĩà®¤à®°":2320,"Ġà®ĩà®Łà®¤à¯įà®¤à®¿à®²à¯į":2321,"Ġà®ļà¯ģà®ķ":2322,")à®¤à¯Ī":2323,"à¯įà®İ":2324,"à®ļà®¿à®±":2325,"à®ªà¯įà®ªà®Łà¯ģà®ķà®¿à®±à®¤à¯ģ":2326,"à®Ĩà®¤":2327,"à®¿à®²à¯ĩ":2328,"Ġà®¤à®¿à®°à¯ģà®ª":2329,"Ġà®ķà®¾à®Łà¯įà®ļ":2330,"à¯Īà®¯à¯ģà®Ļà¯įà®ķà®³à¯į":2331,"Ġà®ļà¯Ĩà®¯à¯įà®¤à®¾à®©à¯į":2332,"Ġà®ªà¯Ĥà®®à®¿":2333,"à¯ģà®£à®°":2334,"Ġà®µà®°à¯Īà®¯":2335,"Ġà®ĩà®¤à®©à¯Ī":2336,"Ġà®¤à®¿à®Łà¯įà®Łà®®à®¾à®ķ":2337,"encils":2338,"Ġà®®à®¤à®¿à®ªà¯įà®ª":2339,"à®µà¯Ģ":2340,"Ġà®ļà®®à¯ģà®¤à®¾à®¯":2341,"Ġà®ħà®ķà®¿à®²":2342,"Ġà®ªà¯Ĥà®°":2343,"Ġà®ħà®±à®¿à®µà®¿à®ªà¯įà®ª":2344,"Ġà®ªà¯Ĩà®¯à®°":2345,"à®µà®©à®¾à®ķà®µà¯ĩ":2346,"à¯Īà®¯à®¾à®ķà¯įà®ķ":2347,"Ġà®¸à¯ģà®ľ":2348,"Ġà®ªà®Łà¯Īà®¤à¯įà®¤à®¾à®©à¯į":2349,"à¯ģà®ªà®µà®©à¯į":2350,"à®¿à®±à¯įà®±à¯ģ":2351,"Ġtranslat":2352,"à¯Ģà®°à¯įà®ķà®³à®¾à®©à®¾à®²à¯į":2353,"Ġà®īà®Ļà¯įà®ķà®³à¯ģà®ķà¯įà®ķà¯ģà®ķà¯į":2354,"Ġà®ħà®µà®©à®¿à®Łà®®à¯į":2355,"Ġà®ļà¯Ĩà®¯à¯įà®¯à®ªà¯įà®ªà®Łà¯įà®Ł":2356,"à¯įà®·":2357,"à¯ģà®¯":2358,"à®ħà®±":2359,"color":2360,"Ġà®ħà®Łà¯Īà®¯à®¾à®³":2361,"Ġà®¨à®Łà®ªà¯įà®ª":2362,"se":2363,"à®²à®¿à®©à¯į":2364,"Ġà®®à®´":2365,"à®¿à®ķà¯įà®ķà®ļà¯į":2366,"Ġà®ĩà®±à¯ģà®¤à®¿":2367,"à¯įà®°à®¾à®¯":2368,"à®²à¯įà®ª":2369,"Ġà®ĩà®°à¯ģà®µà®°à¯ģà®®à¯į":2370,"à®µà¯ĩà®±à¯Ĩ":2371,"à¯ĭà®ķ":2372,"à®¿à®¯à®¤à¯ģ":2373,"à®¾à®¤à¯ĩ":2374,"Ġà®®à®©à®¿à®¤à®°à¯įà®ķà®³à¯į":2375,"Ġà®µà®¿à®°à¯Īà®µ":2376,"à®¿à®°à®£à¯įà®Ł":2377,"Ġà®ªà¯ģà®³à¯įà®³":2378,"Ġà®ħà®Łà¯Īà®¨à¯įà®¤":2379,"à®ķà¯Ī":2380,"Ġà®¨à®¿à®±à¯ģà®µ":2381,"Ġà®īà®£à®°":2382,"Ġà®ķà¯Ĥà®±à¯ģà®ķà®¿à®©à¯įà®±à®©à®°à¯į":2383,"Ġà®ªà®¿à®©à¯įà®©à®°à¯ģà®®à¯į":2384,"Ġà®ħà®¤à¯įà®¤à®¾à®Łà¯įà®ļà®¿à®ķà®³à¯Ī":2385,"à®ĩà®¯":2386,"à®Łà¯į":2387,"Ġà®ķà®¿à®¯à®¾à®®":2388,"à®¯à¯į":2389,"Ġà®ķà®¾à®²à®®à¯į":2390,"à®¿à®±à®¾à®°à¯įà®ķà®³à¯į":2391,"à¯ģà®ķà®¿à®±à®¾à®©à¯ĭ":2392,"Ġà®¨à®®à¯įà®ªà®¿à®ķà¯įà®ķ":2393,"à®¿à®°à¯ģà®ªà¯įà®ªà¯ģ":2394,"Ġà®¨à®©à¯įà®ķà®±à®¿à®µ":2395,"à¯Īà®¯à®¾à®Ł":2396,"ĠO":2397,"Ġà®ĩà®°à¯ģà®ķà¯įà®ķà®¿à®±à¯ĩà®©à¯į":2398,"Ġà®¤à®ķà®µà®²à¯į":2399,"Ġà®ħà®¤à¯įà®¤à®¾à®Łà¯įà®ļà®¿à®ķà®³à¯į":2400,"à®¨à®®à¯įà®®":2401,"Ġà®®à¯Ĥà®Ł":2402,"à¯įà®°à®¹à¯įà®®":2403,"à®ħà®¤à®¿à®²à¯į":2404,"à®ªà¯įà®°à®¾à®¹à¯Ģ":2405,"Ġà®®à¯Ĩà®¯à¯įà®¯à®¾à®ķà®µà¯ĩ":2406,"à¯įà®ķà¯ģ":2407,"Ġà®ĩà®°à¯ģà®ķà¯įà®ķà®µà®¿à®²à¯įà®²à¯Ī":2408,"à®¤à¯ĩà®©à¯ģà®®à¯į":2409,"à¯įà®ķà®¿à®±à¯ĩà®©à¯į":2410,"à®µà®°à¯ģà®ķà¯įà®ķà¯ģ":2411,"Ġit":2412,"ver":2413,"Ġà®µà®¾à®©à®¤à¯įà®¤à®¿à®²à®¿à®°à¯ģà®¨à¯įà®¤à¯ģ":2414,"ch":2415,"Ġà®¤à¯Ģà®¯":2416,"à¯ĭà®°":2417,"à®İà®²à¯įà®²":2418,"pp":2419,"Ġà®İà®©à¯įà®©à®¿à®Łà®®à¯į":2420,"à¯ģà®®à¯ģà®³à¯įà®³":2421,"à®µà®¾à®±à¯ģ":2422,"Ġà®®à®¿à®ķà¯Īà®¤à¯įà®¤à®µà®©à¯į":2423,"Ġà®Ĩà®Ł":2424,"à¯ģà®µà®¿à®Łà¯ģà®®à¯į":2425,"Ġà®İà®³":2426,"à¯ģà®®à¯Īà®¯à¯Ī":2427,"Ġà®¤à®Ļà¯įà®ķà®³à¯ģà®Łà¯Īà®¯":2428,"Ġà®¨à¯Ģà®Ļà¯įà®ķà®³":2429,"à®İà®¨à¯įà®¤":2430,"à®īà®®à¯į":2431,"Ġà®ħà®®à¯Īà®¤à¯įà®¤":2432,"Ġà®İà®µà®°à¯ĩà®©à¯ģà®®à¯į":2433,"Ġà®ķà®¾à®ĥà®ªà®¿à®°à¯įà®ķà®³à¯į":2434,"à®ĩà®Ł":2435,"à®¿à®¤à¯įà®¤à®¾à®©à¯į":2436,"Ġà®µà®Łà¯įà®Łà¯ģ":2437,"à®®à®¾à®©à®¤à¯ģ":2438,"à®¿à®Łà®ªà¯įà®ªà®Łà¯įà®Ł":2439,"Ġà®İà®¤à¯įà®¤":2440,"à®®à®±à¯ģà®®à¯Īà®¯à®¿à®²à¯į":2441,"à®¨à®¿à®°à®¾à®ķà®°à®¿à®ªà¯įà®ª":2442,"..čĊ":2443,"à®®à®¾":2444,"à®µà®Ł":2445,"Ġà®ķà®£à¯įà®Łà¯ģà®ª":2446,"Ġà®ļà¯ģà®µà®©à®ªà®¤":2447,"Ġà®ħà®±à®¿à®ª":2448,"Ġà®µà®¿à®²à®ķà¯įà®ķ":2449,"à®µà¯ĩà®£à¯įà®Łà¯ģà®®à¯į":2450,"Ġà®İà®²à¯įà®²à®¾":2451,"à®Ļà¯įà®ķà¯ģà®®à¯į":2452,"à¯Ĩà®´":2453,"Ġà®īà®£à®µà¯ģ":2454,"Ġbe":2455,"à®ªà¯Ĩà®°":2456,"à¯Ĭà®Łà¯ģà®ķà¯įà®ķ":2457,"Ġà®ķà®°à¯ģà®£":2458,"à¯ĭà®Ł":2459,"Ġà®¤à®¾à®Ļà¯įà®ķà®³à¯į":2460,"ts":2461,"à¯Ĭà®°à¯ģ":2462,"à®ļà®¿":2463,"Ġà®İà®Ļà¯įà®ķà¯ĩ":2464,"Ġà®İà®¤à®¿à®°à®¾à®ķ":2465,"à¯Ĭà®´":2466,"Ġà®ĩà®¤à¯ģà®µà¯ĩ":2467,"Ġà®ķà¯ģà®±à¯įà®±à®µà®¾à®³":2468,"Ġà®ħà®²à¯įà®²à®°à¯į":2469,"de":2470,"IN":2471,"Ġà®·à¯Īà®¤à¯įà®¤à®¾à®©à¯į":2472,"Ġà®īà®¯à®¿à®°à¯į":2473,"Ġy":2474,"Ġà®¤à®Ļà¯įà®ķà¯ģà®®":2475,"Ġà®ħà®µà®°à¯įà®ķà®³à¯ģà®ķà¯įà®ķà®¾à®ķ":2476,"Ġà®ķà®¿à®°à¯ģà®ªà¯Ī":2477,"Ġà®®à®£":2478,"Ġà®¨à®°":2479,"à®©à¯Ĩà®©à¯įà®±à®¾à®²à¯į":2480,"Ġà®ļà¯Ĩà®¯à¯įà®µà®¾à®©à¯į":2481,"à®³à®µ":2482,"à®ļà¯ĩ":2483,"à®®à¯Ĩ":2484,"Ġà®¨à®±à¯įà®ª":2485,"à¯Ĥà®¸à¯ģà®ĥà®ª":2486,"ĠL":2487,"à®µà®²à¯Ī":2488,"ĠN":2489,"Ġà®ħà®¤à¯Īà®ªà¯į":2490,"à®ħà®°":2491,"à¯ģà®°à¯ģ":2492,"à¯ģà®ķà®¿à®©à¯įà®±à®¾à®©à¯į":2493,"ess":2494,"à®¾à®°à¯ģà®Łà¯Īà®¯":2495,"à®¨à¯įà®¨":2496,"Ġà®ħà®¤à¯įà®¤à®¾à®Łà¯įà®ļà®¿":2497,"Ġà®ĩà®°à®ķà®ļà®¿à®¯":2498,"à®¿à®µà®°":2499,"Ġà®®à¯Ĥà®´à¯įà®ķ":2500,"à®®à®¿à®ķà¯įà®ķ":2501,"Ġà®ļà®¿à®±à®¨à¯įà®¤":2502,"à®¿à®¨":2503,"Ġà®ķà¯įà®ķ":2504,"à¯Īà®¯à¯Īà®ķà¯į":2505,"Ġà®ħà®²à¯įà®²à®¾à®¤":2506,"Ġà®ļà¯ĩà®°à¯į":2507,"à®®à®¤à¯ģ":2508,"à®®à¯ģà®ķ":2509,"Ġà®ªà®¿à®°à®µà¯ĩ":2510,"Ġà®µà®¿à®³à¯Īà®¯à®¾à®Łà¯įà®Ł":2511,"Ġà®µà¯Īà®¤à¯įà®¤à¯ģà®ķà¯į":2512,"Ġà®ķà®¾à®Łà¯įà®Łà¯ģà®®à¯į":2513,"à¯ģà®Łà¯Īà®¯à®µà¯ģà®®à¯į":2514,"Ġà®ħà®²à¯įà®²à®¾à®¹à¯įà®µà¯ģà®ķà¯įà®ķà¯ģà®®à¯į":2515,"à¯Īà®ķà®³à®¿à®©à¯į":2516,"Ġà®µà®´à®¿à®ªà®Ł":2517,"à®ħà®²à¯įà®²à®¾à®¹à¯įà®µà¯ģà®ķà¯įà®ķà¯ģ":2518,"Ġà®ħà®µà®°à¯įà®ķà®³à¯Īà®¤à¯į":2519,"Ġà®ªà¯Ĩà®°à¯ģà®®à¯Īà®¯":2520,"à¯įà®°à®¿à®ķà¯įà®ķ":2521,"Ġà®¸à¯ģà®ľà¯Ĥà®¤à¯ģ":2522,"Ġà®ļà¯Ĩà®¯à¯įà®µà®¤à¯Ī":2523,"Ġà®ªà¯ģà®¤à¯įà®¤":2524,"à¯ģà®¤à®¿à®¯à¯Ī":2525,"à®¤à®¾à®©à¯į":2526,"Ġà®īà®¤à®¾à®°à®£":2527,"Ġà®µà¯ĩà®¤à®©à¯Īà®¯à¯ģà®®à¯į":2528,"à®ªà¯įà®ªà®Łà¯ģà®¤à¯įà®¤à®¿":2529,"à®ħà®¤à®±à¯įà®ķ":2530,"Ġà®ĩà®Łà®®à¯į":2531,"Ġà®Ĩà®¤à®¾à®°":2532,"Ġà®ªà¯ĩà®°à®¾à®±à¯įà®±":2533,"Ġà®İà®©à¯įà®ªà®¤à¯ģ":2534,"Ġà®ļà¯Ĩà®²à¯įà®²à¯ģà®®à¯į":2535,"·à¯įà®°à®¿à®ķà¯įà®ķ":2536,"à®¿à®°à¯ģà®Ļà¯įà®ķà®³à¯į":2537,"à¯ĩà®±à¯įà®±":2538,"Ġà®İà®¤à¯įà®¤à®ķà¯Īà®¯":2539,"Ġà®µà®Łà¯įà®Ł":2540,"Ġà®¤à¯ģà®ķà¯įà®ķ":2541,"à®¾à®©à®¾":2542,"à®ķà¯ģà®±à®¿à®ªà¯įà®ª":2543,"à®ĩà®±à¯Īà®µà®©à¯į":2544,"à®¿à®±à¯įà®ķà¯ģà®®à¯į":2545,"\"%":2546,"à®°à¯ģà®®":2547,"à¯Ģà®Łà¯įà®Ł":2548,"à®¿à®°à¯ģà®ķà¯įà®ķà®¿à®±à®¾à®©à¯į":2549,"Ġà®ļà®¾à®°à®¾à®°à¯ģà®®à¯į":2550,"à®©à¯įà®®à¯Ī":2551,"à®ĩà®ªà¯įà®ª":2552,"à®µà®¿à®³":2553,"Ġà®ļà®¾à®Łà¯įà®ļà®¿":2554,"Ġà®¤à¯Ĩà®³à®¿à®µà®¾à®ķ":2555,"Ġà®®à®¿à®ķà®ķà¯į":2556,"ter":2557,"Ġà®¤à®¨à¯įà®¤à¯Īà®¯":2558,"Ġà®ªà®¤à®¿à®²à¯į":2559,"ex":2560,"à®ħà®¤à®¿à®ķ":2561,"à®İà®©à¯įà®±":2562,"Ġà®ĩà®¤à®©à¯į":2563,"Ġà®ħà®´à¯Īà®¤à¯įà®¤":2564,"à®¿à®¯à¯Īà®¯à¯ģà®®à¯į":2565,"Ġà®¤à®®à®ķà¯įà®ķ":2566,"à®®à¯ĩà®²":2567,"Ġà®ĥà®ª":2568,"Ġà®ħà®µà®©à¯Īà®¤à¯į":2569,"Ġà®¨à®¿à®°à®¾à®ķà®°à®¿à®¤à¯įà®¤à¯ģ":2570,"Ġà®īà®Ļà¯įà®ķà®³à¯ģà®ķà¯įà®ķ":2571,"ĠG":2572,"Ġà®ķà®±à¯įà®±":2573,"Ġà®¤à¯Ģà®£à¯įà®Ł":2574,"à¯Ģà®ª":2575,"à¯ģà®¤à®²à¯įà®µ":2576,"à¯Īà®ķà®³à¯Īà®ķà¯į":2577,"Ġà®µà®¾à®´à¯įà®µ":2578,"à®ķà¯ģà®°à¯įà®Ĩ":2579,"Ġà®ķà®£à¯įà®Łà¯ģà®ªà®¿à®Ł":2580,"à®¤à®¾à®ķà®µà¯ģà®®à¯į":2581,"Ġà®ķà®¾à®ĥà®ªà®¿à®°à¯įà®ķà®³":2582,"à®ķà®£":2583,"ĠR":2584,"Ġà®ļà¯ģà®°":2585,".)":2586,"à¯ģà®ķà¯įà®ķà®³à¯į":2587,"Ġà®ªà¯ģà®°à®¿à®¨à¯įà®¤":2588,")à®¤à¯ģ":2589,"Ġà®ªà¯Ĥà®®à®¿à®¯à®¿à®²à¯ģà®®à¯į":2590,"à¯ģà®ķà®³à¯Īà®¯à¯ģà®®à¯į":2591,"Ġà®µà®¾à®©à®Ļà¯įà®ķà®³à¯Īà®¯à¯ģà®®à¯į":2592,"Ġà®¤à®ªà¯įà®ª":2593,"uck":2594,"ate":2595,"à¯Īà®¯à¯Īà®ªà¯į":2596,"Ġà®µà¯ĩà®²à¯Ī":2597,"Ġà®µà®³":2598,"Ġà®ħà®µà®°à¯įà®ķà®³à¯Īà®ķà¯į":2599,"Ġà®¨à®Łà®¨à¯įà®¤":2600,"à¯ģà®µà¯ĩà®©à¯į":2601,"am":2602,"à®¿à®°à®¿à®¯":2603,"Ġà®¤à¯ĩà®°à¯įà®¨à¯įà®¤à¯Ĩà®Łà¯ģ":2604,"(à®¤":2605,"à®ļà¯Ĥ":2606,"Ġà®ĩà®Łà¯įà®Ł":2607,"à®¾à®µà¯Ī":2608,"ion":2609,"à®¿à®©à¯įà®±à®©à®°à¯į":2610,"Stencils":2611,"à¯ģà®Łà®©":2612,"Ġà®ķà®Łà¯įà®Łà®³à¯Ī":2613,"200":2614,"Ġà®Ĵà®¤":2615,"à®¿à®©à¯įà®ª":2616,"à®¿à®Łà®¤à¯įà®¤":2617,"Ġà®®à®±à¯ģà®®à¯Īà®¯à®¿à®²à¯į":2618,"Ġà®ĩà®µà¯Ī":2619,"à¯ģà®ķà®¿à®©à¯įà®±à®©":2620,"Ġà®µà®¿à®©":2621,"à®ļà®¾à®³à®°":2622,"ĥà®ªà¯į":2623,"à¯Ģà®°à®¾":2624,"à¯ģà®ªà®Łà¯ģà®¤à¯įà®¤":2625,"à®¯à®®à¯į":2626,"Ġà®Ĩà®ķà¯įà®ķà®¿à®©à¯ĭà®®à¯į":2627,"Ġà®ļà®¿à®±à®¿à®¤à¯ģ":2628,"à®©à®¿":2629,"Ġà®ħà®µà®°à¯įà®ķà®³à¯ģà®ķà¯įà®ķ":2630,"Ġà®ıà®±à¯įà®ķ":2631,"Ġà®ķà¯Ĥà®Łà®¾à®¤à¯ģ":2632,"à¯Ģà®°à¯įà®ķà®³à®¾à®ķ":2633,"Ġà®ªà®Łà¯įà®Łà®¿à®¯à®²à¯į":2634,"à®±à¯įà®ķà¯ģ":2635,"Ġà®ªà¯ĭà®¤à¯ģ":2636,"Ġà®ĩà®ļà¯įà®ļ":2637,"Ġà®µà®¿à®²à®ķà®¿à®ķà¯į":2638,"Ġà®ķà¯ĩà®Łà¯ģà®¤à®¾à®©à¯į":2639,"à®°à®¿":2640,"Ġà®ķà®¿à®Łà¯Īà®¤à¯įà®¤à®¤à¯ģ":2641,"Ġà®®à¯Ĥà®²":2642,"Ġà®īà®¯à®°à¯įà®¤à¯įà®¤":2643,"Ġà®®à¯ģà®¤à®²":2644,"Ġà®¨à®¾à®Łà¯įà®Ł":2645,"Ġà®ªà¯ģà®¤à®²à¯įà®µ":2646,"Ġà®īà®±à¯ģà®¤à®¿à®¯à®¾à®©":2647,"Ġà®ªà®¾à®²":2648,"à¯ģà®ļà¯įà®ļ":2649,"à®¤à¯Ĩà®²à¯įà®²à®¾à®®à¯į":2650,"à®¿à®ªà¯įà®ªà®Łà¯ģà®¤à¯įà®¤":2651,"Ġà®ķà¯Ĭà®£à¯įà®Ł":2652,"à¯Īà®¯à®¿à®²à®¿à®°à¯ģà®¨à¯įà®¤à¯ģ":2653,"à®µà®ļ":2654,"à¯ģà®®à®¾à®©à®¾à®²à¯į":2655,"à®ħà®®":2656,"Ġà®¨à®¾à®³à®¿à®©à¯į":2657,"Ġà®®à¯ģà®ķà®µà®°":2658,"à®ļà®¿à®²":2659,"à®²à®¾à®²à¯į":2660,"Ġà®ªà®±à¯įà®±à®¿à®¯à¯ģà®®à¯į":2661,"à®¾à®®à¯įà®ª":2662,"Ġ-čĊ":2663,"à®¿à®©à¯įà®±à®¿":2664,"à®¤à®¯à®µà¯ģ":2665,"Ġà®ļà®¾à®°à®¾à®°à¯ģà®Łà¯Īà®¯":2666,"à¯įà®°à®¾à®¯à¯Ģà®²":2667,"Ġà®®à¯ģà®¤à®²à¯į":2668,"Ġà®ļà¯ĩà®°à¯įà®ªà¯įà®ª":2669,"Ġ\"%":2670,"Ġor":2671,"à¯ģà®µà®¤à®±à¯įà®ķ":2672,"Ġà®ļà¯Ĥà®°à®¿à®¯":2673,"Ġà®¤à¯ģà®£":2674,"Ġà®µà®´à®¿à®¯à¯Ī":2675,"à®Ļà¯įà®ķà®³à¯Īà®ķà¯į":2676,"Ġà®ķà¯ĩà®³":2677,"Ġà®ħà®³à®¿à®ķà¯įà®ķ":2678,"Ġà®µà¯Ĩà®³à®¿à®¯à¯ĩà®±":2679,"Ġà®ļà¯Ĩà®¯à¯įà®µà¯Ģà®°à®¾à®ķ":2680,"Ġà®¤à®£à¯įà®£":2681,"Ġà®īà®°à®¿à®¯à®¤à¯ģ":2682,"Ġà®ļà®®à¯įà®ªà®¾à®¤à®¿à®¤à¯įà®¤":2683,"Ġà®µà®¿à®°à¯ģà®®à¯įà®ªà®¿à®¯":2684,"Ġà®ħà®µà¯įà®µà®¾à®±à¯ģ":2685,"à®¿à®¯à®©à¯į":2686,"à®ħà®ļà¯įà®ļ":2687,"à®ħà®µà¯įà®µà®¾à®±à¯ĩ":2688,"à®ªà®¿à®©à¯įà®©":2689,"à®ķà¯ĭà®ªà¯įà®ªà¯ģ":2690,"Ġà®ħà®µà®°à¯įà®ķà®³à¯Īà®ļà¯į":2691,"à®īà®Ļà¯įà®ķà®³à¯Ī":2692,"Ġà®µà®¿à®±":2693,"ada":2694,"ist":2695,"Ġà®ķà®¿à®°":2696,"Ġà®¨à¯Ĥà®¹":2697,"Ġà®ķà¯ģà®°à¯įà®Ĩà®©à¯Ī":2698,"à®ŀà¯įà®ļà®²à¯į":2699,"anada":2700,"Ġà®Īà®®à®¾à®©":2701,"Ġà®¤à¯ĩà®µà¯Ī":2702,"Ġà®¤à¯Ĥà®¤à®°à¯ģà®ķà¯įà®ķà¯ģà®®à¯į":2703,"Ġà®®à¯ģà®ĥà®®à®¿à®©à¯įà®ķà®³":2704,";čĊ":2705,"Ġà®ħà®µà®°à¯įà®ķà®³à¯ģà®Łà®©à¯į":2706,"Ġà®İà®£à¯įà®£à®¿à®ķà¯į":2707,"Ġà®®à¯ģà®ĥà®®à®¿à®©à®¾à®©":2708,"Ġà®ħà®´à®¿à®¤à¯įà®¤":2709,"à¯ģà®Ļà¯į":2710,"Ġà®Ĩà®µà®£":2711,"]čĊ":2712,"à®ªà®Łà¯įà®Ł":2713,"Ġà®¤à®¸à¯įà®ª":2714,"Ġà®¨à®©à¯įà®®à®¾à®°à®¾à®¯à®Ļà¯į":2715,"Ġà®ĩà®°à®£à¯įà®Ł":2716,"Ġà®¤à®£à¯įà®Łà®©à¯Ī":2717,"à®¤à¯Ĭ":2718,"Ġà®®à¯ģà®±à¯Īà®¯à®¿à®²à¯į":2719,"Ġà®ĩà®ªà¯įà®±à®¾à®¹à¯Ģ":2720,"Ġà®®à®±à®¨à¯įà®¤à¯ģ":2721,"à®©à®¿à®©à¯į":2722,"Ġà®ħà®´à®¿à®¤à¯įà®¤à¯ģ":2723,"Ġà®®à®±à¯Īà®¤à¯įà®¤à¯ģ":2724,"Ġà®ķà¯ģà®±à®¿à®ªà¯įà®ªà®¿à®Ł":2725,"12":2726,"à®¿à®µà®¿à®Łà¯ģà®®à¯į":2727,"Ġà®īà®°à¯Ī":2728,"à®¾à®°à®¾":2729,"Ġà®®à®²à®ķà¯įà®ķà¯ģà®ķà®³à¯į":2730,"Ġà®İà®Łà¯ģà®ķà¯įà®ķ":2731,"à®°à¯ģà®ķ":2732,"Ġà®ĩà®Ļà¯įà®ķà¯ģ":2733,"ation":2734,"à¯įà®ķà®³à¯Īà®ļà¯į":2735,"Ġà®®à¯ģà®¤à¯įà®¤":2736,"Ġà®ıà®¤à¯ĩà®©à¯ģà®®à¯į":2737,"Ġà®µà¯Ĩà®ķà¯ģ":2738,"Ġà®ĩà®¯à®²à®µà®¿à®²à¯įà®²à¯Ī":2739,"ay":2740,"à®īà®±":2741,"à®¾à®¨à¯įà®¤":2742,"Ġà®ļà®ķà¯įà®¤à®¿à®¯":2743,"Ġà®¨à®¿à®±à¯Īà®µà¯ĩà®±à¯įà®±":2744,"Ġà®®à®¾à®Łà¯įà®Łà¯Ģà®°à¯įà®ķà®³à¯į":2745,"à®©à¯ģà®ķà¯įà®ķà¯ģ":2746,"à¯Īà®ªà¯įà®ªà®±à¯įà®±à®¿":2747,"Ġà®ªà®¿à®Łà®¿à®ķà¯įà®ķ":2748,"Ġà®ªà®¿à®°à®µà¯ĩà®ļ":2749,"Ġà®īà®©à¯įà®©à¯Ī":2750,"à®²à¯ģà®®à¯į":2751,"à¯įà®ļà¯įà®ļà®¿à®¯":2752,"Ġà®ĩà®±à¯Īà®µà®©à¯Ī":2753,"Ġà®ħà®µà®ļà®°":2754,"à®®à®£à¯įà®Ł":2755,"Ġà®¤à®µà¯įà®ª":2756,"Ġà®ŀà®¾à®©à®®à¯ģà®Łà¯Īà®¯":2757,"à®¿à®ªà¯įà®ªà®Ł":2758,"Ġà®ķà®Łà®µ":2759,"Ġà®ªà¯Ĩà®£à¯įà®ķà®³à¯į":2760,"à®°à¯įà®ķà®³à®¿à®©à¯į":2761,"à®ħà®ªà¯įà®ªà®Łà®¿à®¯à®²à¯įà®²":2762,"Ġà®ªà¯ĩà®ļà¯įà®ļ":2763,"Ġà®®à¯ģà®©à¯įà®©à®¾à®²à¯į":2764,"Ġà®īà®³à¯įà®³à®¿à®Ł":2765,"\"à®ĩà®©à¯įà®©à¯ģà®®à¯į":2766,"à®ĩà®µà¯įà®µà®¾à®±à¯ĩ":2767,"Ġà®¨à®®à®ķà¯įà®ķà¯ģ":2768,"à®Łà¯įà®Łà®µà®£":2769,"Ġà®®à¯ģà®¸à¯įà®²":2770,"Ġà®ħà®¤à¯Īà®ķà¯į":2771,"Ġà®İà®¤à¯ģ":2772,"Ġà®®à¯Ĥà®©à¯įà®±à¯ģ":2773,"Ġà®µà®¾à®´à¯įà®ķà¯įà®ķà¯Ī":2774,"à®ªà¯įà®ªà®Łà®µà®¿à®²à¯įà®²à¯Ī":2775,"à®ħà®µà®°à¯įà®ķà®³à®¿à®²à¯į":2776,"Ġà®ħà®°à¯įà®°à®¹à¯įà®®":2777,"Ġà®ªà®¿à®°à®¾à®°à¯įà®¤à¯įà®¤à®©à¯Ī":2778,"Ġà®µà®¾à®ķà¯įà®ķà®³à®¿à®ķà¯įà®ķà®ªà¯įà®ªà®Łà¯įà®Ł":2779,")à®µà®°à¯įà®ķà®³à¯į":2780,"à¯Ģà®¹à¯ģ":2781,"Ġà®İà®£à¯įà®£à®¿à®ķà¯įà®ķà¯Ī":2782,"Ġà®ķà®Łà¯įà®Łà¯ģà®ªà¯įà®ª":2783,"à®¿à®©à®¾à®°à¯į":2784,"Ġà®ķà®¾à®°à®£à®®à¯į":2785,"à®®à®¿à®²à¯įà®²à¯Ī":2786,"Ġà®ĩà®ªà¯įà®°à®¾à®¹à¯Ģ":2787,"à®®à®©à¯įà®©":2788,"à®Łà®¿à®¯à®¾à®ķ":2789,"Ġà®¹à®°":2790,"à®İà®²à¯įà®²à®¾à®":2791,"à®Ĩà®¯":2792,"à®ķà¯įà®ķà®¤à¯įà®¤à®¿à®±à¯įà®ķ":2793,"à®®à®¾à®ķà®µà¯ĩ":2794,"Ġà®ļà®¨à¯įà®¤à®¿à®ªà¯įà®ª":2795,"Ġà®Ĩà®ķà®¿à®µà®¿à®Łà¯įà®Ł":2796,"à¯ģà®µà®¤à¯ģà®®à¯į":2797,"Ġà®¤à®Ļà¯įà®ķà®³à¯ģà®ķà¯įà®ķà¯ģ":2798,"à¯ģà®ªà®µà®°à¯į":2799,"Ġà®Ĩà®¯à®¿à®©à¯ģà®®à¯į":2800,"Ġà®®à®£à¯įà®£":2801,"Ġà®Ĵà®´à¯ģà®Ļà¯įà®ķ":2802,"Ġà®īà®£à¯įà®®à¯Īà®¯à®¾à®³":2803,"Ġà®ķà®ªà¯įà®ª":2804,"à®¸à¯įà®Ł":2805,"à®Ĩà®°":2806,"Ġà®ħà®´à¯ģà®¤à¯įà®¤":2807,"Ġà®µà®Łà¯įà®Łà¯Ī":2808,"à®µà®±à¯įà®±à®¿à®²à®¿à®°à¯ģà®¨à¯įà®¤à¯ģ":2809,"à®¿à®¸à¯į":2810,"ĠU":2811,"Ġà®®à®©à®¿à®¤à®°à¯įà®ķà®³à®¿à®²à¯į":2812,"à®©à¯įà®®à¯Īà®¯":2813,"Ġà®ħà®®à¯įà®®":2814,"Ġà®ļà¯ģà®Łà¯įà®Ł":2815,"Ġà®ķà®¾à®¤":2816,"à¯Īà®µà®¿à®Łà¯įà®Łà¯ģ":2817,"wor":2818,"à®ªà¯įà®ªà®±à¯įà®±à®¿":2819,"Ġà®ĩà®°à¯ģà®¨à¯įà®¤à®©à®°à¯į":2820,"à¯ģà®®à¯įà®ªà¯ĭà®¤à¯ģ":2821,"Ġà®ļà®®à¯Ģà®ª":2822,"Ġà®İà®ļà¯įà®ļà®°à®¿à®ķà¯įà®ķ":2823,"à¯Ĥà®±à¯ģ":2824,"Ġà®īà®£à®µà®³":2825,"Ġà®ļà¯ĩà®®à®¿à®ķà¯įà®ķ":2826,"à®¤à¯ĩà®°à¯įà®¨à¯įà®¤":2827,"ĠCanada":2828,"Ġà®ªà¯Ĩà®£à¯įà®ķà®³":2829,"Ġ>":2830,"Ġà®īà®Ļà¯įà®ķà®³à¯ģà®Łà®©à¯į":2831,"Ġà®İà®Łà¯ģà®¤à¯įà®¤à¯ģ":2832,"à®ħà®µà¯įà®µà®¾à®±":2833,"Ġà®ķà®¾à®±à¯įà®±":2834,"à¯įà®ĩ":2835,"Ġà®ĩà®¤à¯įà®¤":2836,"à®ķà®¾à®°":2837,"Ġà®ħà®µà®°à¯įà®ķà®³à¯ģà®ķà¯įà®ķà¯ģà®¤à¯į":2838,"Ġà®ħà®ķà¯įà®ķà®¿à®°à®®à®ķà¯įà®ķà®¾à®°":2839,"à¯Ĩà®²":2840,"à®¤à¯įà®¤à¯Īà®ļà¯į":2841,"Ġà®®à®±à¯ģà®®à¯Ī":2842,"Ġà®µà®¿à®Łà¯ģà®µà®¾à®°à¯įà®ķà®³à¯į":2843,"Ġis":2844,"Ġà®ķà¯Ĥà®°à¯įà®µ":2845,"à¯ģà®¤à®¿à®¯à®¿à®²à¯į":2846,"à®®à®¤":2847,"Ġà®®à®±à¯Īà®ķà¯įà®ķ":2848,"Ġà®ļà®Łà¯įà®Ł":2849,"à®¨à®®à¯įà®ªà®¿à®ķà¯įà®ķà¯Ī":2850,"ener":2851,"Ġà®ªà¯Ĭà®¤à¯įà®¤":2852,"à¯Īà®¯à®¾à®²à¯į":2853,"à®¿à®®à®¾à®°à¯įà®ķà®³":2854,"à®¹à¯Ģà®©":2855,"à®ªà¯Ĭ":2856,"Ġà®ļà¯ĩà®®à®¿":2857,"Ġà®ªà¯ģà®²":2858,"Ġà®ħà®µà®©à®¿à®Łà®®à¯ĩ":2859,"Ġà®¨à®¿à®°à®¾à®ķà®°à®¿à®¤à¯įà®¤à¯ģà®ķà¯į":2860,"Ġà®®à¯Ģà®Łà¯įà®Ł":2861,"Ġà®ªà¯ģà®¤":2862,"Ġ..":2863,"à¯ģà®ķà¯įà®ķà®¿à®¯":2864,"à®¿à®©à®¾à®²à¯ģà®®à¯į":2865,"Ġà®ªà¯Ĩà®°à¯ģà®®à¯Īà®¯à®Ł":2866,"Ġà®ĩà®±à®Ļà¯įà®ķ":2867,"Ġà®¨à®©à¯įà®±à®¾à®ķ":2868,"Ġà®ķà¯įà®ķà¯ģ":2869,"Ġà®ħà®¤à®¿à®ķà®¾à®°":2870,"Ġà®¨à¯Ĩà®°à¯ģà®Ļà¯įà®ķà®¿à®¯":2871,"Ġà®ķà¯Ĩà®Ł":2872,"à®¿à®¯à®²à¯į":2873,"µà®±à¯įà®±à¯Īà®¯à¯ģà®®à¯į":2874,";,":2875,"à®ıà®©à¯Ĩà®©à®¿à®²à¯į":2876,"Ġà®ħà®±à®¿à®µà®¿à®¤à¯įà®¤":2877,"yp":2878,"Ġà®¤à¯ģà®°":2879,"Ġà®¤à¯Ĩ":2880,"Ġà®ķà®±à¯įà®ªà®©à¯Ī":2881,"Ġà®ĩà®±à®ķà¯įà®ķà®¿à®¯":2882,"à®®à®¾à®©à®µà®©à¯į":2883,"à®°à¯įà®ķà®³à®¿à®²à¯į":2884,"Ġà®ļà¯Ĩà®¯à¯įà®¤à®¿":2885,"Ġà®¤à¯Ĥà®°":2886,"Ġà®µà®¿à®Łà¯įà®Łà®¾à®°à¯įà®ķà®³à¯į":2887,"à®¾à®©à®®à¯į":2888,"Ġà®ªà¯ģà®±à®ķà¯įà®ķà®£à®¿à®¤à¯įà®¤":2889,"ig":2890,"Ġà®®à®ķà¯įà®ķà®³":2891,"Ġà®Īà®Ł":2892,"Ġà®ļà¯Ĥà®´à¯įà®¨à¯įà®¤à¯ģ":2893,"à®©à®¾":2894,"Ġà®ĩà®±à®¨à¯įà®¤à¯ģ":2895,"à®¿à®ķà¯įà®ķà®ªà¯į":2896,"Ġà®¤à®©à¯įà®©à¯ģà®Łà¯Īà®¯":2897,"Ġà®ħà®µà®ķ":2898,"Ġà®¨à®¾à®Łà®¿à®¯à®¿à®°à¯ģà®¨à¯įà®¤à®¾à®²à¯į":2899,"Ġà®ķà¯ģà®±à®¿à®¤à¯įà®¤à¯ģ":2900,"(à®ļà¯į":2901,"ul":2902,"Ġà®¤à¯ģà®µà®ķà¯įà®ķ":2903,"à®İà®©à¯įà®ª":2904,"Ġ~":2905,"à¯ģà®®à¯įà®ªà®Łà®¿à®ļà¯į":2906,"Ġà®ķà¯Ģà®´à¯įà®ª":2907,"à®±à¯įà®ªà¯ĭà®¤":2908,"Ġà®®à®©à¯įà®©à®¿à®ªà¯įà®ªà®µà®©à¯į":2909,"Ġà®ķà¯ĭà®ªà¯įà®ªà¯ģà®ķà®³à¯Ī":2910,"Ġà®µà®¾à®°à®¿à®ļ":2911,"à®µà®©à¯Ī":2912,"à®¿à®²à®¿à®°à¯ģà®¨à¯įà®¤à¯ĩ":2913,"Ġà®ħà®²à¯įà®²à®¾à®¹à¯įà®µà¯Īà®¯à®©à¯įà®±à®¿":2914,"Ġà®¨à¯Ģà®¯":2915,"Ġà®İà®µà®°à¯ģà®®à®¿à®²à¯įà®²à¯Ī":2916,"Ġà®ħà®©à¯įà®ª":2917,"à¯ģà®ĥà®ªà¯įà®°":2918,"à¯Ĩà®¯à®°":2919,"Ġà®Ĩà®µà®¾à®°à¯įà®ķà®³à¯į":2920,"Ġà®ħà®±à®¿à®µà®¾à®©à¯į":2921,"à®¿à®¯à¯Īà®ķà¯į":2922,"10":2923,"Ġà®ķà®¿à®Łà¯Īà®ķà¯įà®ķ":2924,"à®ªà¯įà®ªà®Łà®¾à®¤":2925,"à®¿à®ªà¯įà®ªà¯Ģà®°à®¾à®ķ":2926,"à¯ģà®ķà¯įà®ķà¯ģà®³à¯į":2927,"Ġà®ľà®¿à®©":2928,"à¯Īà®ķà®³à¯Īà®ªà¯į":2929,"Ġà®¤à®¾à®¯":2930,"Ġà®¨à®²à¯įà®²à®Łà®¿à®¯":2931,"à®ªà¯įà®ªà®Łà¯įà®Łà¯ģà®³à¯įà®³à®¤à¯ģ":2932,"Ġà®ħà®²à¯įà®²à®¾à®¹à¯įà®µà®¿à®Łà®®à¯ĩ":2933,"Ġà®¤à®¸à¯įà®ªà¯Ģà®¹à¯ģ":2934,"Ġà®®à¯ģà®·à¯įà®°à®¿à®ķà¯įà®ķ":2935,"à®ķà¯ģà®´":2936,"Ġà®¨à®±à¯įà®ķà®°à¯ģà®®":2937,"Ġà®ķà¯ģà®´à®ªà¯įà®ªà®®à¯į":2938,"Ġà®µà®£à®Ļà¯įà®ķà¯ģà®Ļà¯įà®ķà®³à¯į":2939,"Ġà®ļà¯ĩà®°à¯įà®¨à¯įà®¤":2940,"Ġà®Łà®¿à®µà®¿à®Ł":2941,"Ġà®¨à¯ĩà®ļà®¿à®ªà¯įà®ª":2942,"à®ªà¯įà®²":2943,"à®Ĩà®®à®¾à®®à¯į":2944,"Ġà®ļà®ķà¯įà®¤à®¿":2945,"à®¾à®µà®¿à®Łà¯įà®Łà®¾à®²à¯į":2946,"Ġà®®à¯ģà®©à¯įà®©à®¿à®°à¯ģà®¨à¯įà®¤":2947,"Ġà®ħà®ļ":2948,"Ġ(%":2949,"Ġà®µà®¿à®ļà®¾à®²":2950,"à®ķà¯ĭ":2951,"Ġà®İà®³à®¿à®¤":2952,"Ġà®ļà®¨à¯įà®¤à®¿à®°":2953,"à¯Īà®ªà¯įà®ªà¯Ī":2954,"Ġà®īà®¯à®°à¯įà®¨à¯įà®¤":2955,"à®¿à®¯à¯ĭ":2956,"à®Ļà¯įà®ķà®¾à®°":2957,"Ġà®¨à®¿à®®":2958,"à®ħà®ķ":2959,"Ġà®¤à®°à¯įà®ķà¯įà®ķà®®à¯į":2960,"Ġà®ļà®¿à®²à®°à¯Ī":2961,"à®ħà®µà®©à¯ģà®ķà¯įà®ķà¯ģ":2962,"Ġme":2963,"Ġà®ħà®Łà¯Īà®µà¯ģ":2964,"à®ªà¯įà®ªà®Łà¯ģà®¤à¯įà®¤à®¿à®ķà¯į":2965,"Ġà®ªà¯ģà®ķà¯ģà®¤à¯įà®¤":2966,"Ġà®ļà®¾à®Łà¯įà®ļà®¿à®¯à®¾à®ķ":2967,"Ġà®ļà¯Ĩà®¯à¯įà®ķ":2968,"Ġà®ļà¯Ĩà®¯à®²à¯į":2969,"ort":2970,"à®ªà¯įà®ªà¯ģà®±":2971,"\"à®İà®Ļà¯įà®ķà®³à¯į":2972,"AR":2973,"Ġà®¤à¯ĭ":2974,"Ġà®®à®±à¯Īà®µà®¾à®©":2975,"Ġà®ħà®µà¯įà®µà®¿à®°à¯ģà®µà®°à¯ģà®®à¯į":2976,"Ġà®¨à®²à¯įà®²à¯ģà®ªà®¤à¯ĩà®ļà®®à¯į":2977,"à®µà®ŀà¯įà®ļ":2978,"Ġà®¤à®¾à®®à¯ĩ":2979,"um":2980,"à®¨à¯įà®¤à®°":2981,"Ġà®ħà®µà®³":2982,"à®°à¯įà®ķà®³à¯Īà®¯à¯ģà®®à¯į":2983,"Ġà®ĵà®¤à®¿à®ķà¯į":2984,"Ġà®ķà¯Ĥà®±à¯ģà®ķà®¿à®±à®¾à®©à¯į":2985,"à®Łà¯Īà®¨à¯įà®¤à¯ģ":2986,"Ġà®ªà¯Ĩà®£à¯įà®£":2987,"Ġà®Ĩà®£à¯įà®Ł":2988,"Ġà®ķà®¾à®ĥà®ªà®¿à®°à¯įà®ķà®³à¯ģà®ķà¯įà®ķà¯ģ":2989,"Ġà®µà¯ĩà®¤à®¤à¯įà®¤à¯Ī":2990,"Ġà®ªà¯ĩà®°à®¾à®±à¯įà®±à®²":2991,"Ġà®ļà¯ĩà®°à¯įà®¨à¯įà®¤à¯ģ":2992,"à¯Ĥà®°à¯į":2993,"à®¿à®ķà®³à®¾à®ķ":2994,"à®®à¯Ĥà®¸à®¾":2995,"à®¿à®©à¯įà®±à®©":2996,"Ġà®¤à®¿à®°à¯ģà®¤à¯įà®¤":2997,"Ġà®īà®Ļà¯įà®ķà®³à¯Īà®ķà¯į":2998,"ain":2999,"à®Łà®ķà¯įà®ķ":3000,"tle":3001,"à®¿à®·":3002,"à®¾à®°à¯įà®ķà®³à®¾à®©à®¾à®²à¯į":3003,"Ġà®µà®´à®¿à®ķà®¾à®Łà¯įà®Ł":3004,"à®¿à®¯à®¾à®ķà¯ģà®®à¯į":3005,"Ġà®ļà®®à®¾à®¤":3006,"à®¾à®ķà¯įà®ķà¯ģ":3007,"Ġà®ĩà®¸à¯įà®°à®¾à®¯à¯Ģà®²":3008,"à¯Īà®ªà¯įà®ªà®¿à®Ł":3009,"Ġà®ªà¯Īà®¤à¯įà®¤":3010,"Ġà®ļà®ªà¯įà®¤":3011,"Ġà®ªà¯Ĭà®°à¯ģà®³":3012,"Ġà®¨à®¾à®©à¯ģà®®à¯į":3013,"à®¿à®Łà¯Īà®¯à®¿à®²à¯į":3014,"à®¿à®°à®¿":3015,"à®¿à®°à¯ģ":3016,"ey":3017,"à®®à¯Īà®ķà¯įà®ķ":3018,"Ġà®ķà®£à¯įà®Łà¯ģ":3019,"ve":3020,"Ġà®®à¯ģà®©à¯įà®©à¯ĭ":3021,"Ġà®ıà®±à¯įà®ªà®Ł":3022,"à®İà®©à¯įà®©à¯Ī":3023,"Ġà®ħà®©à¯ģà®ªà¯įà®ªà®¿à®¯":3024,"Ġà®ªà®¤à®¿à®µà¯ģ":3025,"à¯ģà®ķà®³à¯ģà®ķà¯įà®ķà¯ģ":3026,"Ġà®ħà®¤à¯įà®¤à®ķà¯Īà®¯":3027,"Ġà®¤à®¿à®°à¯ģà®":3028,"Ġà®ķà¯ģà®³":3029,"à®®à¯ģà®Łà®¿à®¯":3030,"à®¿à®²à¯Ī":3031,"Ġà®ļà¯Ģà®ķà¯įà®ķ":3032,"Ġà®¤à¯Ĥà®¯à¯įà®®à¯Īà®¯à®¾à®©":3033,"Ġà®ķà¯ģà®±à¯įà®±à®®à¯į":3034,"Ġà®¤à®µà®±à¯ģ":3035,"à¯Īà®¯à®¿à®©":3036,"Ġti":3037,"à®¿à®¯à®¿à®°à¯ģà®¨à¯įà®¤":3038,"à®µà®ķ":3039,"if":3040,"Ġà®ĩà®µà¯įà®µà¯ĩà®¤":3041,"Ġà®®à®©à®¿à®¤à®°à¯įà®ķà®³à¯ģà®ķà¯įà®ķà¯ģ":3042,"Ġà®¨à®©à¯įà®ķà®±à®¿à®µà®¾à®©à¯į":3043,"à¯Īà®ķà®³à¯ģà®ķà¯įà®ķà¯ģà®®à¯į":3044,"Ġà®ıà®´à¯ģ":3045,"Ġà®®à®¿à®©à¯įà®©":3046,"à¯ģà®¤à¯ģà®®à¯į":3047,"Ġà®µà¯ĩà®±à¯Ĩ":3048,"à®ĩà®¤à®©à¯į":3049,"Ġà®İà®ļà¯įà®ļà®°à®¿à®ªà¯įà®ª":3050,"à®ªà¯įà®ªà¯Ĩ":3051,"Ġà®¨à®¾à®³à¯Ī":3052,"Ġà®®à®©à®¿à®¤à®°":3053,"Ġà®ķà¯ģà®±à®¿à®¯":3054,"eg":3055,"Ġà®ªà¯Ĥà®®à®¿à®¯à®¿à®²à¯ģà®³à¯įà®³":3056,"Ġà®®à®¸":3057,"à®µà®°à¯įà®ķà®³à®¾à®ķà®µà¯ĩ":3058,"Ġà®µà®ļà®©à®Ļà¯įà®ķà®³à¯Īà®ªà¯į":3059,"Ġà®®à®¤à®¿à®ªà¯įà®ªà¯ģ":3060,"à®¨à®±à¯į":3061,"Ġà®ħà®©à¯ģà®ªà¯įà®ªà®ªà¯įà®ªà®Łà¯įà®Ł":3062,"Ġà®µà®¿à®Łà¯įà®Łà¯ģà®µà®¿à®Ł":3063,"qu":3064,"à®¾à®©à¯ĩ":3065,"Ġà®ļà¯Ģà®°":3066,"Ġà®ªà¯Ĩà®°à®¿à®¤":3067,"Ġà®ļà¯Ĩà®µà®¿à®¯":3068,"Ġà®¨à®¿à®²à¯Īà®¯à®¾à®©":3069,"à¯Ĭà®°à¯ģà®ķ":3070,"Ġcom":3071,"im":3072,"Ġà®µà®²à¯įà®²":3073,"à®ķà®¤à¯įà®¤à®¿à®©à¯į":3074,"à®¾à®ľ":3075,"Ġà®ªà¯Ĥà®®à®¿à®¯à¯Ī":3076,"Ġà®®à®¾à®²":3077,"à®ķà¯įà®ķà¯ģà®®à¯į":3078,"Ġ?čĊ":3079,"Ġfor":3080,"à®¤à®¿à®²à®¿à®°à¯ģà®¨à¯įà®¤à¯ģ":3081,"Ġà®®à¯Ģà®±à®¿à®¯":3082,"Ġac":3083,"Ġyou":3084,"Ġà®¤à®³":3085,"Ġon":3086,"Ġà®®à¯ģà®¯à®±à¯įà®ļà®¿":3087,"à®¿à®Łà¯ģà®®à¯į":3088,"à®ĩà®¤à¯įà®¤à®ķà¯Īà®¯":3089,"à®İà®µà®°":3090,"Ġà®¨à®¿à®´":3091,"Ġà®µà®¾à®©à®Ļà¯įà®ķà®³":3092,"Ġà®ħà®®à¯Īà®ªà¯įà®ªà¯ģ":3093,"Ġà®¨à¯ĩà®°à®¤à¯įà®¤à®¿à®²à¯į":3094,"à®¤à¯Ĭà®Ł":3095,"Ġà®µà®¨à¯įà®¤à®¤à¯ģ":3096,"à®ħà®£":3097,"ang":3098,"à®µà®°à¯įà®ķà®³à¯Īà®ªà¯į":3099,"Ġà®µà¯Īà®¤à¯įà®¤à®¾à®©à¯į":3100,"à¯ģà®®à®¿à®Łà¯Īà®¯à¯ĩ":3101,"Ġà®ĩà®¯à®²à®¾à®¤à¯ģ":3102,"Ġà®īà®Ļà¯įà®ķà®³à¯ģà®ķà¯įà®ķà¯ģà®¤à¯į":3103,"Ġà®ħà®´à¯Īà®¤à¯įà®¤à¯ģ":3104,"Ġà®ªà®²à®©":3105,"Ġà®ĩà®µà®°à¯į":3106,"à®ĥà®ªà®¿à®°à¯įà®ħà®µà¯įà®©":3107,"à¯Īà®ª":3108,"Ġà®µà®´à®¿à®ªà¯įà®ªà®Łà¯įà®Ł":3109,"Ġà®ĩà®±à¯Īà®µà®©à¯ģà®ķà¯įà®ķà¯ģ":3110,"à®ķà®¤à¯įà®¤à¯Ī":3111,"Ġà®ĩà®°à¯ģà®¨à¯įà®¤à®¾à®°à¯į":3112,"à¯įà®µà®¾à®¯à®¾à®ķ":3113,"Ġà®¤à®Łà¯ģà®¤à¯įà®¤à¯ģ":3114,"à®¯à®µà®ŀà¯įà®ļ":3115,"Ġà®īà®©à®ķà¯įà®ķà¯ģ":3116,"à®ĩà®¤à®±à¯įà®ķà¯ģ":3117,"Ġà®İà®Ļà¯įà®ķà®³à¯ģà®Łà¯Īà®¯":3118,"Ġà®®à®°à¯įà®¯":3119,"Ġà®ķà¯Ĥà®°à¯įà®µà¯Ģà®°à®¾à®ķ":3120,"à®īà®Ł":3121,"à¯Ĩà®©à¯į":3122,"Ġà®ĩà®°à¯ģà®ªà¯įà®ªà®¿à®©à¯į":3123,"à®®à¯ģà®´":3124,"Ġà®µà®¿à®Łà®¾à®¤à¯Ģà®°à¯įà®ķà®³à¯į":3125,"eneric":3126,"Ġà®ķà®¾à®°à®£à®¤à¯įà®¤à®¾à®²à¯į":3127,"Ġà®Ĩà®ļà¯įà®ļà®°":3128,"ount":3129,"Ġà®Ĩà®ķà¯įà®ķà®¿à®ķà¯į":3130,"à®¿à®¤à®´":3131,"à¯ģà®®à¯Īà®¯à®¾à®ķ":3132,"à¯Īà®µà¯Ĩà®³":3133,"Ġà®¤à¯Ģà®Ļà¯įà®ķà®¿à®´":3134,"à¯ģà®¤à®²à¯Ī":3135,"Ġà®ıà®®à®¾à®±à¯įà®±":3136,"à®¿à®¯à¯įà®¯":3137,"Ġà®ħà®µà¯įà®µà®¾à®±":3138,"OR":3139,"Ġà®¨à®¿à®²à¯Īà®¯":3140,"Ġà®ķà®Łà®¿à®©à®®à®¾à®©":3141,"Ġà®¨à®ķà®²":3142,"à®¿à®ªà¯įà®ªà®¾à®©à¯į":3143,"à®ķà®¾à®¤à¯įà®¤":3144,"à®¹à®¾à®°à¯įà®Ł":3145,"à®¾à®°à®£à®®à¯į":3146,"à®ĩà®µà¯įà®µà¯ģà®²à®ķ":3147,"Ġà®ªà®²à®¹à¯Ģà®©":3148,"Ġà®¹à®¾à®°":3149,"Ġà®¯à®¾à®µà®°à¯ģà®®à¯į":3150,"à®±à¯įà®ªà¯ĭà®¤à¯Īà®¯":3151,"à¯ģà®³à¯įà®³à®¾à®©à¯į":3152,"à®µà®¾à®°":3153,"Ġà®īà®±à¯ģà®¤à®¿":3154,"Ġwh":3155,"Ġà®ªà®ķà¯įà®ķà®¤à¯įà®¤à®¿à®²à¯į":3156,"à®¿à®ķà¯įà®ķà®¿à®±à®¤à¯ģ":3157,"AT":3158,"Ġà®ķà¯Īà®ªà¯įà®ª":3159,"Ġà®µà®£à¯įà®£à®®à¯į":3160,"ME":3161,"Ġà®ļà¯Ĩà®°à¯ģà®ķ":3162,"à®¾à®ķà®®à¯į":3163,"Ġà®µà®Łà®¿à®ķ":3164,"Ġà®¤à¯ģà®£à¯įà®Ł":3165,"Ġà®ķà®°à¯ģà®¤":3166,"à®īà®²à®ķ":3167,"âĻ":3168,"âĻª":3169,"Ġà®ħà®°à®ļ":3170,"Ġà®®à¯Ģà®¤":3171,"Ġà®İà®£à¯į":3172,"Ġà®¨à®¿à®²à¯Īà®¤à¯įà®¤":3173,"à®ªà®¿à®±à®ķà¯ģ":3174,"Ġà®¨à®©à¯įà®ķà®±à®¿à®ªà®µà®©à¯į":3175,"à®ªà¯Ĥà®®à®¿à®¯à®¿à®²à¯į":3176,"à®¿à®Ļà¯įà®ķ":3177,"à®¤à®¾à®²à¯į":3178,"à®¾à®¤à¯į":3179,"à®¿à®¤à¯įà®¤à®¾à®°à¯į":3180,"Ġà®ħà®ªà¯įà®ªà®¾à®²à¯į":3181,"Ġà®µà®¿à®Łà¯įà®Łà®©":3182,"à®®à®¿à®ķ":3183,"Ġ(_":3184,"Ġà®®à¯ĩà®²à¯ĩ":3185,"à®°à¯įà®¨à¯įà®¤":3186,"Ġà®ĩà®©à¯į":3187,"Ġà®īà®Ļà¯įà®ķà®³à¯ģà®ķà¯įà®ķà¯ģà®ªà¯į":3188,"Ġà®µà®ļà®¤":3189,"%s":3190,"Ġà®µà®¾à®ķà¯įà®ķà¯ģ":3191,"Ġà®ķà¯ĭà®ªà¯įà®ªà¯ģà®ķà®³à¯į":3192,"Ġà®°à®¹à¯įà®®à®¤à¯įà®¤":3193,"Ġà®®à®©à¯įà®©à®¿à®ªà¯įà®ªà¯ģà®ķà¯į":3194,"Ġà®Ĩà®±à¯ģà®ķà®³à¯į":3195,"Ġà®īà®®à®¤à¯ģ":3196,"Ġà®ħà®©à¯ģà®ªà¯įà®ªà®¿à®©à¯ĭà®®à¯į":3197,"Ġà®ļà®¿à®±à®¿à®¯":3198,"à¯ģà®µà®¤à®¿à®²à¯į":3199,"à®ħà®µà®°à¯įà®ķà®³à®¿à®Łà®®à¯į":3200,"à®ķà¯įà®ķà®¤à¯įà®¤à®¿à®±à¯įà®ķà¯ģà®°à®¿à®¯":3201,"à¯ģà®ļà¯įà®ļà¯Ĭ":3202,"Ġsh":3203,"Ġà®¤à®µà®£à¯Ī":3204,"à®¾à®ĥà®ª":3205,"Ġà®®à®Ł":3206,"Ġà®ĩà®Łà¯Īà®¯à¯ĩ":3207,"à®Ļà¯įà®ķà®³à¯Īà®ļà¯į":3208,"Ġà®®à¯ģà®ĥà®®à®¿à®©à¯įà®ķà®³à¯į":3209,"Ġà®Ĩà®²":3210,"à¯ģà®ķà¯įà®ķà¯Ĩà®²à¯įà®²à®¾à®®à¯į":3211,"Ġà®ļà®¨à¯įà®¤à¯ĩ":3212,"Ġà®ļà®Ļà¯įà®ķ":3213,"Ġà®ĩà®±à®ķà¯įà®ķà®ªà¯įà®ªà®Łà¯įà®Ł":3214,"Ġà®ħà®¤à¯ģà®µà¯ĩ":3215,"(à®ķà¯į":3216,"Ġà®ĩà®°à¯ģà®¨à¯įà®¤à®¾à®°à¯įà®ķà®³à¯į":3217,"à®Ĩà®¯à®¿à®©à¯ģà®®à¯į":3218,"à®ªà®Łà¯įà®ļ":3219,"à®¹à®¾à®°à¯įà®Łà¯įà®¸à®¿à®©à¯į":3220,"à®µà®±à¯įà®±à¯Īà®¯à¯Ĩà®²à¯įà®²à®¾à®®à¯į":3221,"Ġà®¨à¯Ĩà®ŀà¯įà®ļ":3222,"Ġà®®à¯ģà®±à¯įà®ªà®Łà¯įà®Ł":3223,"ĠName":3224,"ent":3225,"à®¤à¯Īà®¯à¯ĩ":3226,"à®İà®µà®°à¯į":3227,"Ġà®¨à®¿à®°à®¾à®ķà®°à®¿à®ķà¯įà®ķà®¿à®±":3228,"Ġà®ļà¯ĭà®¤":3229,"Ġà®ķà®²à¯įà®µ":3230,"Ġà®Ĵà®²":3231,"Ġà®®à®Łà¯įà®Łà¯ģà®®à¯ĩ":3232,"à®Ļà¯įà®ķà®¿à®ķà¯į":3233,"à¯Ģà®°à¯įà®ķà®³à®¾à®¯à®¿à®©à¯į":3234,"à®®à®¿à®©à¯į":3235,"Ġà®¤à®°à¯įà®®":3236,"SL":3237,"Ġà®ļà®°à®¿à®¯à®¾à®©":3238,"à®ħà®©à¯Īà®¤à¯įà®¤à¯ģ":3239,"Ġà®²à¯Ĥ":3240,"Ġà®µà®°à®²":3241,"à®°à®¿à®©à¯į":3242,"Ġà®ĩà®®à¯įà®®":3243,"Ġà®µà®¿à®Łà¯ģà®ķà®¿à®±à®¾à®©à¯į":3244,"Ġà®ªà®ķà¯įà®ķà®®à¯ĩ":3245,"(à®µà¯įà®µ":3246,"à®İà®¤à®¿à®°":3247,"nu":3248,"à¯Ĥà®©à¯į":3249,"à®¤à®¿à®Ł":3250,"à®Ĩà®®à¯į":3251,"à®¾à®®à®²à¯ģà®®à¯į":3252,"à®¤à®¿à®Łà¯įà®Ł":3253,"Ġà®¨à®¿à®©à¯įà®±à¯ģà®®à¯į":3254,"à®īà®Ļà¯įà®ķà®³à®¿à®²à¯į":3255,"à¯Ĩà®°à®¿à®¯":3256,"Ġand":3257,"Ġà®¨à®¾à®Ļ":3258,"Ġà®ªà®¾à®¤à¯Īà®¯à¯Ī":3259,"Ġà®®à®¾à®©":3260,"Ġà®ªà®¯à®©à¯įà®ªà®Łà¯ģà®¤à¯įà®¤à¯ģ":3261,"Ġà®ĩà®µà®°à¯įà®ķà®³à¯Ī":3262,"Ġà®ªà®¾à®°à¯įà®¤à¯įà®¤à¯ģ":3263,"Ġà®µà®¿à®°à¯Īà®µà®¿à®²à¯į":3264,"ph":3265,"à®¿à®İ":3266,"Ġà®ļà¯Ĭà®°à¯ģà®ķ":3267,"à¯įà®ªà¯įà®ªà¯ģ":3268,"Ġà®ļà®¾à®©à¯įà®±":3269,"à®®à¯ĩà®±à¯įà®ķà¯ģ":3270,"à®ĩà®µà¯Ī":3271,"Ġà®¨à®ķà®°à¯įà®¤à¯įà®¤":3272,"Ġà®µà®¿à®°à¯ģà®®à¯įà®ªà¯ģà®ķà®¿à®±à¯Ģà®°à¯įà®ķà®³à®¾":3273,"Ġà®ªà¯Ĩà®¯à®°à¯Ī":3274,"Ġà®īà®Łà®©à¯įà®ª":3275,"Ġà®¨à¯Ĩà®°à¯ģà®ķà¯įà®ķ":3276,"Ġà®ļà®¾à®°à¯įà®¨à¯įà®¤":3277,"Ġà®®à¯ĩà®±à¯įà®ķ":3278,"à¯Īà®¯à¯Īà®ļà¯į":3279,"vi":3280,"à®µà®°à¯įà®ķà®³à¯Īà®¤à¯į":3281,"à®²à¯Ĥ":3282,"Ġà®¨à®¿à®©à¯Īà®¤à¯įà®¤":3283,"Ġà®Ĩà®Łà¯įà®ļà®¿":3284,"Ġà®ļà¯Ĩà®¯à¯įà®¤à®¾à®²à¯ģà®®à¯į":3285,"Ġà®īà®°à®¿à®®":3286,"Ġà®Ĩà®ķà¯įà®ķà®¿":3287,"Ġà®µà®¿à®°à¯Īà®¨à¯įà®¤à¯ģ":3288,"à¯ĩà®°à¯į":3289,"Ġà®¯à®¾à®µà®±à¯įà®±à¯Īà®¯à¯ģà®®à¯į":3290,"Ġà®®à¯ģà®ĥà®®à®¿à®©à¯įà®ķà®³à¯ģà®ķà¯įà®ķà¯ģ":3291,"à®¿à®ľ":3292,"à®ªà¯įà®²à¯Ģ":3293,"Ġà®ķà®Łà®®à¯Īà®¯":3294,"à®¿à®Ļà¯į":3295,"Ġà®ªà¯ģà®°à®¿à®¯":3296,"Ġà®¯à®¾à®µà¯ģà®®à¯į":3297,"à¯Ģà®Ł":3298,"Ġà®ļà¯ĩà®°à¯įà®¤à¯įà®¤à¯ģ":3299,"Ġà®ķà¯Ĥà®±à¯ģà®ª":3300,"Ġà®īà®®à¯įà®®à¯Ģà®¤à¯ģ":3301,"Ġà®ķà¯ĩà®Łà¯įà®ªà¯Ģà®°à®¾à®ķ":3302,"Ġà®ķà¯ĩà®³à¯įà®µà®¿":3303,"à¯ģà®²à¯Ī":3304,"à®ªà®¿à®®à¯įà®ª":3305,"Ġà®®à¯ģà®ĥà®®à®¿à®©à¯įà®ķà®³à®¾à®ķ":3306,"as":3307,"à®¿à®©à®¾à®°à¯įà®ķà®³à¯į":3308,"Ġà®ĩà®µà®°à¯įà®ķà®³à¯ģà®Łà¯Īà®¯":3309,"à¯Ĥà®²à®¿":3310,"Ġà®ħà®µà®©à¯Īà®¯à®©à¯įà®±à®¿":3311,"à®ªà®Łà®¿":3312,"à®µà¯ģà®®à®¿à®²à¯įà®²à¯Ī":3313,"Ġà®ªà®¤à®¿à®µ":3314,"Ġà®Ĩà®£à¯į":3315,"à¯įà®ķà®¿à®±à®¤à¯ģ":3316,"Ġà®īà®®à®ķà¯įà®ķà¯ģà®ķà¯į":3317,"à®°à¯įà®ķà®³à¯ģà®®à¯į":3318,"Ġla":3319,"Ġà®¤à®Łà¯įà®Ł":3320,"Ġà®İà®µà®©":3321,"Ġà®®à¯ģà®©à¯įà®ª":3322,"à®°à¯ĭ":3323,"à®¾à®ĥà®ªà®¿à®°":3324,"à®īà®Ļà¯įà®ķà®³à¯ģà®Łà¯Īà®¯":3325,"à¯įà®ķà®¾à®£":3326,"à®¤à®ķà¯įà®ķ":3327,"à¯Īà®ķà¯įà®ķà¯ģà®°à®¿à®¯":3328,"Ġà®µà®°à¯ģà®Ł":3329,"Ġcon":3330,"à¯įà®ĥà®ª":3331,"Ġà®µà®¾à®©à®Ļà¯įà®ķà®³à®¿à®²à¯ģà®®à¯į":3332,"Ġà®¨à¯Ģà®°à¯ģà®®à¯į":3333,"Ġà®ªà®¤à®¿à®²à®¾à®ķ":3334,"Ġà®ħà®µà®°à¯ģà®Łà®©à¯į":3335,"Ġà®ĩà®°à¯ģà®¤à®¯à®Ļà¯įà®ķà®³à¯į":3336,"Ġà®ªà®Łà®¿":3337,"Ġà®ªà®¿à®©à¯įà®©à®¾à®²à¯į":3338,"Ġà®Ĵà®°à¯ģà®µà®°à®¾à®ķ":3339,"(à®©à¯į":3340,"à®ķà¯įà®³":3341,"Ġà®ħà®Ļà¯įà®ķ":3342,"Ġà®ªà®¯à®¨à¯įà®¤à¯ģ":3343,"Ġà®ħà®Ļà¯įà®ķà¯ĩ":3344,"à®¿à®Łà®®à®¿à®°à¯ģà®¨à¯įà®¤":3345,"Ġà®ķà¯ģà®Łà¯ģà®®à¯įà®ªà®¤à¯įà®¤à®¾à®°":3346,"Ġà®ļà¯Ĩà®¯à®²à¯įà®ªà®Łà¯ģà®¤à¯įà®¤":3347,"Ġà®®à®¾à®Łà¯įà®Łà®¾à®¤à¯ģ":3348,"Ġà®ļà¯ģà®¤à¯įà®¤":3349,"Ġà®µà¯Ĩà®³à®¿à®ªà¯įà®ªà®Ł":3350,"Ġbut":3351,"à®²à¯įà®ķà®³à¯Ī":3352,"Ġà®¤à®²à¯Īà®ªà¯įà®ªà¯ģ":3353,"Ġà®ªà¯Ĩà®°à¯ģà®®à¯Ī":3354,"à®īà®¯à®¿à®°":3355,"à®Ļà¯įà®ķà®³à®¿à®²à®¿à®°à¯ģà®¨à¯įà®¤à¯ģ":3356,"Ġà®¨à®Łà®¤à¯įà®¤":3357,"Ġà®ªà®ķà¯ģà®¤à®¿":3358,"Ġ...čĊ":3359,"à®¤à®µà®±":3360,"Ġà®ķà¯ģà®±à¯Īà®¨à¯įà®¤":3361,"Ġà®µà®¾":3362,"Ġà®ĩà®°à¯ģà®³":3363,"à¯Īà®¯à¯Īà®¤à¯į":3364,"Ġà®ķà¯ĩà®Łà¯įà®Łà®¾à®°à¯į":3365,"ĠX":3366,"à®®à®£à¯įà®Łà®¿à®©à¯į":3367,"à®¨à¯Ģà®Ļà¯įà®ķà®³":3368,"à¯įà®ľà®¿à®©":3369,"à®µà®°à¯įà®ķà®³à®¿à®Łà®®à¯į":3370,"Ġà®ħà®¤à®¿à®ķà®®à®¾à®ķ":3371,"Ġà®Ĩà®ļà¯įà®ļà®°à®¿à®¯":3372,"à®¤à®¿à®©à¯į":3373,"Ġà®¤à®¾à®´":3374,"à¯įà®ķà®³à¯Īà®ªà¯į":3375,"à®¿à®©à®¾à®²":3376,"à®Łà¯įà®Łà®µà®£à¯Ī":3377,"à®°à®Ļà¯įà®ķ":3378,"ub":3379,"art":3380,"Ġà®¤à¯ģà®Ł":3381,"Ġ()":3382,"Ġà®¤à®µà®±à®¾à®©":3383,"à¯įà®ªà®Łà¯ģà®¤à¯įà®¤":3384,"Ġà®īà®¤à®¾à®°à®£à®®à¯į":3385,"Ġà®¤à®µà¯įà®ªà®¾":3386,"Ġà®ħà®£à¯ģà®ķ":3387,"Ġà®Ĩà®°à®®à¯įà®ª":3388,"à®İà®¤":3389,"à®¿à®°à¯ģà®µà®°à¯ģà®®à¯į":3390,"Ġà®ªà®¾à®°à¯įà®¤à¯įà®¤à¯ģà®ķà¯į":3391,"Ġà®ķà®±à¯įà®±à¯ģà®ķà¯į":3392,"à¯Ĭà®°à¯ģà®³à¯į":3393,"à®ªà®¯à®©à¯įà®ª":3394,"Ġà®ªà®¿à®°à®¯":3395,"à®¾à®£à¯įà®Łà¯į":3396,"à®µà®©à¯ĩ":3397,"Ġà®ªà®Łà®¿à®ªà¯įà®ª":3398,"Ġà®ĩà®¯à®²à®¾à®¤":3399,")\"":3400,"Ġà®¨à®²":3401,"Ġà®ıà®©à¯Ĩà®©à¯įà®±à®¾à®²à¯į":3402,"à¯Ĩà®¯à¯į":3403,"à®¾à®©à¯Ī":3404,"Ġà®¨à®±à¯įà®ķà¯Ĥà®²à®¿":3405,"à¯įà®ľà®¿à®©à®¿à®¯à®¾":3406,"Ġà®ħà®²à¯įà®²à®¾à®¹à¯įà®µà¯Īà®¤à¯į":3407,"à®±à¯įà®ļà¯Ĩà®¯":3408,"à®®à®¾à®Łà¯įà®Łà¯Ģà®°à¯į":3409,"à®¤à¯Ĥà®¤":3410,"Ġà®ªà®¾à®µà®Ļà¯įà®ķà®³à¯Ī":3411,"à®¨à®¿à®±à¯ģà®¤à¯įà®¤":3412,"Ġà®¤à®®à®ķà¯įà®ķà¯ģà®¤à¯į":3413,"Ġà®ļà®¨à¯įà®¤à®¤":3414,"à®ħà®µà®©à¯ģà®Łà¯Īà®¯":3415,"Ġà®İà®¨à¯įà®¤à®ªà¯į":3416,"Ġà®®à®°à®£à®®à¯į":3417,"à®¾à®ªà¯į":3418,"Ġà®µà®¿à®±à¯įà®ľà®¿à®©à®¿à®¯à®¾":3419,"oo":3420,"à¯ĩà®Łà®¿à®©à¯į":3421,"à®²à®¾à®©":3422,"à¯Ģà®©à¯į":3423,"Ġà®ħà®±à®¿à®ķà®¿à®±à®¾à®©à¯į":3424,"à¯įà®°à¯ģ":3425,"Ġà®ľà¯ĭ":3426,"à®ªà®¿":3427,"Ġà®ħà®µà®ķà®¾à®ļà®®à¯į":3428,"Generic":3429,"à®¾City":3430,"Ġà®ħà®®à®²à¯įà®ķà®³à¯į":3431,"Ġà®ĩà®°à¯ģà®ªà¯įà®ªà¯Ģà®°à®¾à®ķ":3432,"Ġà®®à¯ģà®¸à¯įà®²à®¿à®®":3433,"à®¿à®µà¯Īà®¤à¯įà®¤":3434,"Ġà®µà®¿à®³à¯Īà®¯à®¾à®Ł":3435,"à®ĩà®®à¯įà®®":3436,"Ġà®µà®¿à®Łà¯įà®Łà¯ģà®ļà¯į":3437,"Ġà®¨à®¾à®¯à®©":3438,"Ġà®ªà®¾à®µà®®à¯į":3439,")à®ķà¯į":3440,"Ġà®¤à®¾à®®":3441,"Ġà®ĩà®°à¯ģà®Ļà¯įà®ķà®³à¯į":3442,"à®¸à¯įà®ªà¯ĩà®Łà®¿à®©à¯į":3443,"ind":3444,"Ġà®¤à®¿à®©":3445,"à®°à¯ģà®ķà¯įà®ķà¯ģà®®à¯į":3446,"Ġà®¹à®°à®¾à®®":3447,"Ġà®µà®ļà®©à®Ļà¯įà®ķà®³à¯į":3448,"Ġà®¤à¯Ĥà®¤à®°à¯ģà®®à¯į":3449,"ucking":3450,"¤à¯įà®¤":3451,"Ġà®µà¯Ĩà®³à¯įà®³":3452,"à®ħà®ķà¯įà®ķ":3453,"Ġà®ªà¯Ĩà®±à¯įà®±à¯ģà®ķà¯į":3454,"à®±à®¿à®µ":3455,"Ġà®ļà®®à¯Ĥà®ķà®¤à¯įà®¤à®¾à®°à®¿à®Łà®®à¯į":3456,"à¯Īà®ķà¯įà®ķà®¾à®ķ":3457,"à®ıà®¯à¯į":3458,"à®¿à®°à¯ģà®ªà¯įà®ªà®¾à®°à¯įà®ķà®³à¯į":3459,"Ġà®®à¯ģà®©à¯įà®©à®°à¯ĩ":3460,"Ġà®¤à®Ļà¯įà®ķà®³à¯Ī":3461,"à¯ģà®®à®¾à®ķ":3462,"à®¾à®µà®¿à®²à¯į":3463,"Ġà®µà¯ĩà®¤à®©à¯Īà®¯à¯Īà®ķà¯į":3464,"Ġà®ħà®²à¯įà®²à®¾à®¹à¯įà®µà¯Īà®¯à¯ģà®®à¯į":3465,"Ġà®ĩà®±à¯Īà®µà®©à®¿à®Łà®¤à¯įà®¤à®¿à®²à¯į":3466,"à®Łà¯Īà®µ":3467,"Ġà®ķà®µà®©à®¿à®¤à¯įà®¤":3468,"Ġà®®à®¯":3469,"Ġà®®à®¾à®Łà¯įà®Łà¯ĩà®©à¯į":3470,"Ġà®ªà®¿à®Łà®¿à®¤à¯įà®¤":3471,"Ġà®İà®±à®¿à®¯":3472,"Ġ@":3473,"Ġà®¤à®¿à®°à¯ģà®ªà¯įà®ªà®¿":3474,"ĠH":3475,"Ġà®ļà®®à®®à®¾à®ķ":3476,"à®®à®Łà¯įà®Ł":3477,"à®¾à®µà®¤à®¾à®ķ":3478,"Ġà®¨à®¿à®©à¯Īà®µà¯Ĥà®Łà¯įà®Ł":3479,"Ġà®ļà¯Ĩà®µà®¿à®¯à¯ģà®±":3480,"Ġus":3481,"à®®à®¯":3482,"à®ļà®¾à®¤":3483,"à¯Ĩà®°à®¿à®ķà¯įà®ķ":3484,"à®µà¯Īà®¯à®¾à®ķ":3485,"Ġà®®à¯ģà®¨à¯įà®¤à®¿à®¯":3486,"à®¨à®¿à®²à¯Ī":3487,"à®ķà¯Ģà®´à¯į":3488,"Ġà®ªà¯Ĥ":3489,"à¯ģà®ªà®Łà¯įà®Ł":3490,"Ġà®ķà®µà®²à¯Ī":3491,"à®¿à®²à¯įà®²à®¾à®®à®²à¯į":3492,"tur":3493,"Ġà®ļà¯Ĩà®¯à®²à¯įà®ķà®³à¯į":3494,"à¯įà®®à¯Ģà®¤à¯ģ":3495,"Ġà®ĩà®Łà¯Īà®µà¯Ĩà®³":3496,"Ġà®ªà®¿à®£":3497,"à®İà®Ļà¯įà®ķà®³":3498,"à®¤à®±à¯įà®ķà¯ģà®®à¯į":3499,"Ġà®īà®±à¯ģà®¤à®¿à®ªà¯įà®ªà®Łà¯ģà®¤à¯įà®¤":3500,"à®¿à®¸à¯įà®ķ":3501,"ile":3502,"à®°à®¾à®ķ":3503,"Ġà®ĵà®Łà®¿à®ķà¯įà®ķ":3504,"\"à®ĩ":3505,"Ġà®¨à®®à¯įà®®à¯Ī":3506,"à®ħà®¤à¯įà®¤":3507,"Ġà®ħà®²à®Ļà¯įà®ķà®¾à®°":3508,"Ġà®ļà¯Ĥà®´à¯įà®ļà¯įà®ļà®¿":3509,"à¯įà®®à®¾à®©":3510,"Ġà®Ĩà®¤à®²à®¾à®²à¯į":3511,"(à®ª":3512,"à®¿à®ķà®³à¯Īà®ķà¯į":3513,"à®ħà®µà®©à¯Ī":3514,"à®²à®¾à®®":3515,"Ġà®īà®°à¯Īà®¯à®¾à®Ł":3516,"à¯ģà®µà®¿à®Łà¯įà®Łà®¾à®²à¯į":3517,"à®ķà®¿à®°":3518,"Ġà®¤à®¿à®°à¯ģà®®à¯įà®ªà®¿à®ļà¯į":3519,"à®ĩà®¤à¯įà®¤":3520,"Ġà®īà®Łà®©à¯į":3521,"Ġà®ķà®¾à®²à¯į":3522,"à®µà®¿à®²":3523,"Ġà®ªà®¿à®©à¯įà®ªà¯ģ":3524,"à¯įà®ķà®¾à®°":3525,"à¯įà®Łà®©à¯į":3526,"à¯ģà®ķà¯įà®ķà®³à¯Ī":3527,"Ġà®ħà®µà¯įà®µà®¾à®±à¯ĩ":3528,"Ġà®ļà¯ģà®´":3529,"Ġà®®à®ķà®©à¯į":3530,"Ġà®ķà¯ģà®°à¯įà®Ĩà®©à¯į":3531,"Ġà®ķà¯Ĥà®Łà¯įà®Łà®¤à¯įà®¤à®¾à®°à¯į":3532,"à¯įà®ľà®¿à®¤":3533,"à¯Ĩà®Łà¯įà®Ł":3534,"à®ħà®¤à®©à¯Ī":3535,"Ġà®ĩà®£à¯Īà®µà¯Īà®ªà¯įà®ª":3536,"à®µà®°à¯įà®ķà®³à¯ģà®ķà¯įà®ķà¯ģà®®à¯į":3537,"Ġà®ħà®²à¯įà®²à®¾à®¹à¯įà®µà¯ģà®®à¯į":3538,"à®ħà®µà®°à¯Ī":3539,"Ġà®ļà¯ģà®±à¯įà®±à®¿":3540,"Ġà®µà®´à®¿à®ķà¯ĩà®Łà¯įà®Łà®¿à®²à¯į":3541,"Ġà®¨à®¿à®°à®¾à®ķà®°à®¿à®ªà¯įà®ªà®µà®°à¯įà®ķà®³à¯į":3542,"(à®¤à¯ģ":3543,"à®¾à®ķà¯įà®ķà®¿à®ķà¯į":3544,"Ġà®¨à®°à®ķà®¤à¯įà®¤à®¿à®²à¯į":3545,"Ġà®¤à®¿à®Łà¯įà®Łà®®à¯į":3546,"Ġà®ķà¯ģà®®":3547,"ers":3548,"Ġà®¨à®¾à®©à¯įà®ķà¯ģ":3549,"à®¾à®³à®¿à®ķ":3550,"à¯Ĥà®¹":3551,"Ġà®ķà®Łà¯Īà®ªà¯įà®ªà®¿à®Ł":3552,"Ġà®¯à®¾à®°à¯ģà®®à¯į":3553,"ĠW":3554,"à®µà®¾à®©à®Ļà¯įà®ķà®³":3555,"à¯Ĩà®©à¯įà®ª":3556,"(à®ļ":3557,"à®¾à®Łà¯įà®Łà®¿":3558,"Ġà®¤à®²à¯Īà®®à¯ģà®±":3559,"tt":3560,"à¯ģà®©à®¿à®¤":3561,"Ġà®ĩà®±à®ķà¯įà®ķà¯ģà®®à®¤à®¿":3562,"Ġà®¤à®¿à®Łà®©à®¾à®ķ":3563,"Ġà®®à®ķà¯įà®ķà®³à¯Ī":3564,"à¯ģà®µà®¿à®Łà¯įà®Łà®¤à¯ģ":3565,"Ġà®ħà®µà®°à®¿à®Łà®®à¯į":3566,"Ġà®¨à®·à¯įà®Łà®®":3567,"Ġà®ļà¯ĩà®°à¯įà®¤à¯įà®¤":3568,"à®Łà¯Īà®®à®£à¯įà®Łà®¿à®©à¯į":3569,"Ġà®ªà®°à®¾à®®":3570,"Ġà®ħà®Łà®¿à®®":3571,"à®µà¯ĩà®£à¯įà®Łà®¿à®¯":3572,"à®±à¯ģà®®à¯į":3573,"Ġà®µà¯Ĩà®Łà¯įà®Ł":3574,"à®Łà¯įà®ķ":3575,"Ġà®µà¯Ģà®Łà¯įà®Ł":3576,"Ġà®ĩà®°à¯ģà®ķà¯įà®ķà®¿à®©à¯įà®±à¯ĩà®©à¯į":3577,"Ġà®ļà¯Ĩà®¯à¯įà®ķà®¿à®±à®¾à®°à¯įà®ķà®³à¯į":3578,"Ġà®ķà®¾à®£à®µà®¿à®²à¯įà®²à¯Ī":3579,"Ġà®Ĵà®²à®¿":3580,"Ġà®¤à¯Ĩà®°à®¿à®¯à®¾à®¤à¯ģ":3581,"à®¯à®¾à®°à¯į":3582,"à¯įà®ªà®¾à®©":3583,"IS":3584,"Ġà®¨à¯Ģà®¯à¯ĩ":3585,"Ġun":3586,"Ġà®µà®´à®ķà¯įà®ķ":3587,"Ġà®®à¯Īà®¯":3588,"Ġà®ħà®¨à¯įà®¤à®°à®Ļà¯įà®ķ":3589,"Ġà®ķà®£à¯įà®Łà¯ģà®ªà®¿à®Łà®¿à®ķà¯įà®ķ":3590,"Ġà®ªà®Ļà¯įà®ķ":3591,"tin":3592,"Ġà®¨à¯ģà®´à¯Īà®¯":3593,"Ġà®¨à®¾à®Łà¯įà®ķà®³à®¿à®²à¯į":3594,"à¯įà®µà¯Ī":3595,"à®¾à®µà®¿à®©à¯į":3596,"à®©à®µà¯ĩ":3597,"à¯įà®¤à¯įà®¤à®¿":3598,"à¯ģà®ķà®¿à®±à¯Ģà®°à¯įà®ķà®³à®¾":3599,"Ġà®ļà¯Ĥà®©à®¿à®¯à®ķà¯įà®ķà®¾à®°":3600,"à®Łà¯Īà®¯à¯ģà®®à¯į":3601,"Ġr":3602,"à®©à¯įà®Ł":3603,"Ġà®ħà®°à¯ģà®ķ":3604,"à¯ĭà®Łà¯ģ":3605,"à®®à¯Ĥà®¤à¯ģ":3606,"Ġà®¨à®¿à®°à®¾à®ķà®°à®¿à®ķà¯įà®ķà®¿à®©à¯įà®±":3607,"Ġà®¨à®¿à®°à¯įà®µ":3608,"Ġà®ªà®ķà®²":3609,"Ġà®¤à¯Ĥà®¯à¯įà®®à¯Īà®¯":3610,"Ġà®ĩà®°à¯ģà®ķà¯įà®ķà®¿à®©à¯įà®±à®¤à¯ģ":3611,"Ġà®µà®²à®¤à¯ģ":3612,"jec":3613,"Ġà®ķà¯Ģà®´à¯į":3614,"Ġà®ªà¯ģà®°à®¿à®µ":3615,"à®ķà®¤à¯įà®¤à®¿à®²à¯į":3616,"Ġà®ħà®¤à®¿à®ķà®ªà¯įà®ªà®Łà¯ģà®¤à¯įà®¤":3617,"Ġà®ķà¯ĩà®Łà¯įà®Łà¯ģ":3618,"Ġà®µà®¿à®²à¯įà®²":3619,"Ġà®¨à®¾à®®":3620,"Ġà®ħà®¤à¯Īà®¤à¯į":3621,"Ġà®ħà®µà®³à¯Ī":3622,"à®¾à®³à®©à¯į":3623,"Ġà®ĩà®£à¯Īà®ªà¯įà®ªà¯ģ":3624,"à®µà®±à¯įà®±à¯Īà®ªà¯į":3625,"Ġà®¯à¯Ĥà®¸à¯ģà®ĥà®ª":3626,"Ġà®ĩà®²à¯įà®²à¯Īà®¯à®¾":3627,"à®ķà¯įà®ķà®°":3628,"Ġà®µà®¿à®Łà¯ģà®µà®¾à®©à¯į":3629,"Ġà®ħà®²à¯įà®²à®¾à®¹à¯įà®µà¯Īà®¯à¯ĩ":3630,"(à®¨à¯įà®¤":3631,"à®¾à®ķà®ļà¯į":3632,"à®ħà®Ļà¯įà®ķà¯ģ":3633,"Ġà®ľà®ķà®¾à®¤à¯įà®¤":3634,"Ġà®µà¯ĩà®¤à®©à¯Īà®¯à¯Īà®ļà¯į":3635,"Ġà®īà®Łà®©à¯ĩ":3636,"Ġà®ķà®£à®¿à®©":3637,"oun":3638,"à¯Ĥà®Ł":3639,"Ġà®®à®±à¯ģà®®à¯Īà®¯à®¿à®²à¯ģà®®à¯į":3640,"Ġà®ħà®µà®°à¯įà®ķà®³à¯ģà®ķà¯įà®ķà¯ģà®®à¯į":3641,"à¯ģà®µà®¤à®±à¯įà®ķà®¾à®ķà®µà¯ģà®®à¯į":3642,"Ġà®ħà®µà®°à®¤à¯ģ":3643,"Ġà®Ĵà®°à¯ģà®µà®©à¯į":3644,"id":3645,"Ġà®īà®£à¯įà®®à¯Īà®¯à¯Īà®ķà¯į":3646,"Ġà®®à¯ģà®³":3647,"Ġà®ķà¯Ĥà®²à®¿à®¯à¯Ī":3648,"à®µà®¿à®²à¯įà®²à¯Īà®¯":3649,"à¯įà®¨à®Ł":3650,"Ġà®®à¯Ģà®±à®¿":3651,"Ġà®ħà®µà®°à¯įà®ķà®³à®¿à®Łà¯Īà®¯à¯ĩ":3652,"Ġse":3653,"Ġà®ħà®µà®©à¯įà®¤à®¾à®©à¯į":3654,"à®¤à®ķ":3655,"à®¸à®¾à®²à®¿à®¹à®¾à®©":3656,"Ġà®ļà¯Ĩà®¯à¯įà®ªà®µà®±à¯įà®±à¯Ī":3657,"à®¾à®¸à¯į":3658,"à®¤à¯įà®¤à®¿à®©à®¾à®²à¯į":3659,"Ġà®¤à®£à¯įà®£à¯Ģà®°à¯į":3660,"Ġà®ªà®¿à®°à®¯à®¾à®£":3661,"Ġà®Ĭà®°":3662,"Ġà®®à¯ģà®´à¯ģ":3663,"Ġà®¤à¯Ĩà®¯à¯įà®µà®Ļà¯įà®ķà®³à¯Ī":3664,"Ġà®®à¯ģà®Łà®¿à®¨à¯įà®¤":3665,"Ġà®¨à®±à¯įà®ķà®°à¯ģà®®à®Ļà¯įà®ķà®³à¯į":3666,"Ġà®µà®°à¯ģà®µ":3667,"Ġà®µà®¿à®·à®¯à®¤à¯įà®¤à®¿à®²à¯į":3668,"ML":3669,"Ġà®ķà¯įà®³":3670,"Ġà®¸à¯ģà®²à¯Ī":3671,"Ġà®īà®Ļà¯įà®ķà®³à¯ģà®ķà¯įà®ķà¯ģà®ļà¯į":3672,"Ġà®ªà¯ĩà®£":3673,"Ġ..čĊ":3674,"Ġà®ĩà®©à¯įà®±à¯ģ":3675,"ould":3676,"Ġà®¨à®ªà®¿à®®à®¾à®°à¯įà®ķà®³":3677,"Ġà®ĩà®¤à®±à¯įà®ķ":3678,"Ġà®ļà®®à¯Ĥà®ķà®¤à¯įà®¤à®¾à®°à¯Ī":3679,"Ġà®ķà¯ĭà®ªà¯įà®ªà®¿à®©à¯Ī":3680,"up":3681,"Ġà®¤à®Łà¯ģà®¤à¯įà®¤à¯ģà®ķà¯į":3682,"à®ªà¯ĭ":3683,"à®¿à®±à¯Ģà®°à¯įà®ķà®³à¯į":3684,"Ġà®ħà®µà®©à¯Īà®¯à¯ĩ":3685,"à®¾à®µà®¾à®°à¯įà®ķà®³à¯į":3686,"à®İà®´à¯ģà®¤à¯įà®¤":3687,"Ġà®µà¯ĩà®¤à®®à¯į":3688,"20":3689,".\"":3690,"à¯Ĩà®Łà¯ģà®¤à¯įà®¤à¯ģ":3691,"à®ĥà®ķà¯Ĥ":3692,"Ġà®µà¯ĩà®¤à®¤à¯įà®¤à¯Īà®¯à¯ģà®®à¯į":3693,"à¯Īà®¯à®¿à®©à®¾à®²à¯į":3694,"Ġà®ķà¯ĩà®Łà¯įà®ķà®¿à®±à®¾à®°à¯įà®ķà®³à¯į":3695,"Ġà®īà®Ļà¯įà®ķà®³à¯Īà®¤à¯į":3696,")à®®à¯į":3697,"ac":3698,"à®µà®¿à®¤":3699,"Ġà®µà¯ĩà®²":3700,"à®¾à®²à®¿à®ķ":3701,"Ġà®ħà®±à®¿à®µà®¿à®ķà¯įà®ķà®ªà¯įà®ªà®Łà¯įà®Ł":3702,"Ġà®ķà®¿à®´":3703,"à¯ģà®µà®¤à¯Īà®¯à¯ģà®®à¯į":3704,"Ġà®ªà®¿à®°à®ķ":3705,"à¯ģà®ķà¯įà®ķà®ªà¯įà®ªà®Łà¯įà®Ł":3706,"à®¾à®µà®²à¯į":3707,"Ġà®®à¯ģà®Łà®¿à®¯à¯ģà®®à®¾":3708,"Ġà®µà®°à¯ģà®¨à¯įà®¤":3709,"à®±à¯Ī":3710,"à®¿à®±à®¿à®¸":3711,"Ġà®ħà®±à®¿à®µà®¿à®ķà¯įà®ķ":3712,"Ġà®İà®µà¯įà®µà®³à®µà¯ģ":3713,"Ġà®ļà¯Ĩà®µà®¿à®¯à¯ĩà®±à¯įà®ª":3714,"Ġà®ķà®·à¯įà®Ł":3715,"Ġde":3716,"à®¾à®ķà¯įà®ķà®ªà¯įà®ªà®Łà¯įà®Ł":3717,"Ġà®¨à¯Ģà®£à¯įà®Ł":3718,"à®µà¯ĩà®£à¯įà®Łà®¾à®®à¯į":3719,"Ġà®ħà®Łà¯ģà®¤à¯įà®¤":3720,"à¯įà®®à¯Īà®¯à¯Ī":3721,"Ġà®ļà¯Ĩà®²à¯įà®²à¯ģà®Ļà¯įà®ķà®³à¯į":3722,"Ġà®ĩà®²à¯į":3723,"Ġà®ķà¯Īà®ªà¯įà®ªà®±à¯įà®±":3724,"Ġà®İà®°":3725,"à¯Ģà®©":3726,"Ġà®ķà®Łà¯Ī":3727,"à¯Ĩà®ķ":3728,"Ġà®ĩà®²à¯įà®²à®¾à®®à®²à¯į":3729,"à®ªà¯įà®ªà®Łà®¿à®ļà¯į":3730,"à®¤à¯Ģà®¯":3731,"à®¾à®©à®¤à¯ģ":3732,"à®®à®²":3733,"à®¿à®¯à¯Īà®ªà¯į":3734,"Ġà®¤à¯Ĥà®£à¯įà®Ł":3735,"Ġà®Ĵà®©à¯įà®±à¯Ī":3736,"Ġà®ªà®¿à®°à®¾à®£":3737,"à®¿à®ķà¯įà®ķà®¾à®©":3738,"à®¤à®Ł":3739,"à¯ģà®µà¯Ī":3740,"à®®à®±à¯įà®±à¯ģà®®à¯į":3741,"à®¤à¯įà®¤à¯Īà®¯à¯ģà®Łà¯Īà®¯":3742,"ĠE":3743,"à®ķà®¿à®¯à®¾à®®":3744,"à®ħà®µà®³à¯į":3745,"Ġà®ħà®µà®°à¯įà®ķà®³à¯ĩ":3746,"Ġà®µà¯Ĩà®³à®¿à®¯à®¾à®ķà¯įà®ķ":3747,"Ġà®İà®²":3748,"(à®µà¯į":3749,"Ġà®ªà®¿à®©à¯įà®ªà®±à¯įà®±à®¿":3750,"Ġà®ªà¯Ĭà®°à¯ģà®³à¯į":3751,"à®ĩà®¤à®©à¯Ī":3752,"à®°à¯ģà®³à¯įà®µà®¾à®¯à®¾à®ķ":3753,"Ġà®ļà¯Ĥà®´à¯įà®ļà¯įà®ļ":3754,"à¯įà®¨à¯įà®¤à®¤à¯ģ":3755,"Ġà®µà¯Ĩà®±à¯ģà®ªà¯įà®ª":3756,"Ġà®ħà®Łà®¿à®¯à®¾à®°à¯įà®ķà®³à®¿à®²à¯į":3757,"Ġà®µà®¿à®ļà®¾à®°":3758,"à®¿à®ªà¯įà®ªà®¤à¯ģ":3759,"Ġà®ļà¯ģà®®à®¨à¯įà®¤à¯ģ":3760,"Ġà®ķà¯ĩà®Łà¯įà®ªà®¾à®°à¯įà®ķà®³à¯į":3761,"Ġà®¨à®¿à®©à¯įà®±à¯ģà®®à¯ģà®³à¯įà®³":3762,"Ġà®ļà¯Ĩà®¯à¯įà®µà®¾à®°à¯įà®ķà®³à¯į":3763,"Ġà®ķà®°à¯ģà®£à¯Īà®¯à¯ģà®Łà¯Īà®¯":3764,"à®ªà®¾à®¤":3765,"Ġtranslate":3766,"Ġà®ªà®¿à®°à®¿à®µà®¿à®©à®°à¯į":3767,"à®®à¯įà®ªà¯ģ":3768,"à¯ģà®ªà¯įà®ªà®¿":3769,"à®®à®±à¯ģà®®à¯Ī":3770,"Ġà®®à¯ģà®©à¯įà®©à¯ĩ":3771,"Ġà®ĩà®²à¯ĩà®ļ":3772,"Ġà®ħà®±à®¿à®¨à¯įà®¤à®µà®©à¯į":3773,"à¯Īà®¯à®¾à®ķà¯ģà®®à¯į":3774,"!\"čĊ":3775,"Ġtitle":3776,"Ġà®ªà¯Ĥà®°à®£":3777,"Ġà®®à®±à¯Ī":3778,"Ġà®ļà¯Ĩà®¯à¯įà®µà®¤à¯ģ":3779,"Ġà®ªà®¿à®°à®ļà¯įà®ļ":3780,"Ġà®¤à¯Ģà®°à¯įà®ªà¯įà®ªà®³à®¿à®ªà¯įà®ª":3781,"Ġà®īà®±à¯įà®±":3782,"Ġà®¨à®©à¯įà®®à®¾à®°à®¾à®¯à®®à¯į":3783,"à®īà®©à¯įà®©":3784,"à¯ģà®®à®¾à®ķà®¿à®¯":3785,"his":3786,"à®¿à®¯à¯Īà®¤à¯į":3787,"à®īà®²":3788,"à®İà®µà®©à¯į":3789,"Ġà®İà®±à®¿à®¨à¯įà®¤":3790,"Ġà®īà®®à¯įà®®à¯Īà®ªà¯į":3791,"Ġà®¨à®Łà¯įà®ļ":3792,"Ġà®ķà¯ģà®®à®¾à®°":3793,"à¯Īà®ļà¯įà®ļ":3794,"Ġà®ĩà®Łà®¤à¯įà®¤à¯Ī":3795,"Ġà®ħà®²à¯įà®²à®¾à®¹à¯įà®¤à®¾à®©à¯į":3796,"Ġà®®à®¿à®ķà®ªà¯į":3797,"à®¤à®²":3798,"Ġà®ªà¯Ĩà®±à¯ģà®®à¯į":3799,"\"à®®à¯ĩà®²à¯ģà®®à¯į":3800,"Ġà®ķà¯Ĥà®Łà¯įà®Łà®¾à®³":3801,"ir":3802,"Ġà®ķà®¾à®Łà¯įà®ļà®¿":3803,"\"à®ħà®©à¯įà®±à®¿à®¯à¯ģà®®à¯į":3804,"Ġà®¨à®°à®ķà®®à¯į":3805,"à¯Ĭà®°à¯ģà®³":3806,"à¯įà®µà®°à¯Ī":3807,"à®¿à®¯à®¿à®²à®¿à®°à¯ģà®¨à¯įà®¤à¯ģ":3808,"Ġà®¤à®³à¯įà®³":3809,"à®µà®¾à®¯":3810,"à®³à®®à¯į":3811,"à®©à®ķà¯įà®ķ":3812,"Ġà®®à®©à¯įà®©à®¿à®¤à¯įà®¤à¯ģ":3813,"à¯ģà®ªà¯įà®ªà¯Ĭ":3814,"bel":3815,"Ġà®¤à®¯à®µà¯ģ":3816,"à®Ļà¯įà®ķà®¿à®°à¯ģà®¨à¯įà®¤à¯ģ":3817,"à®©à¯įà®±à¯Īà®¯":3818,"à®ħà®¤à®©à®¾à®²à¯į":3819,"Ġà®ļà¯Ĩà®¯à¯įà®¯à®¾à®¤à¯Ģà®°à¯įà®ķà®³à¯į":3820,"Ġà®īà®£à¯įà®®à¯Īà®¯à®¾à®³à®°à¯įà®ķà®³à®¾à®ķ":3821,"Ġà®ļà¯Ĩà®µà®¿à®®":3822,"à®¾à®¸à®°à¯ĭ":3823,"Ġà®İà®©à®ķà¯įà®ķà¯ģà®®à¯į":3824,"Ġà®¤à®¨à¯įà®¤à¯Ī":3825,"à®Ĭ":3826,"Ġà®ķà¯Ĭà®£à¯įà®Łà¯ģ":3827,"à®³à¯įà®ķ":3828,"à¯įà®ļà®¿":3829,"Ġà®®à®¾à®°":3830,"à¯Īà®¯à®¾à®ķà®ķà¯į":3831,"og":3832,"Ġà®ļà¯Ĩà®¯à¯įà®¤à®¤à¯ģ":3833,"Ġà®µà®ķà¯Īà®¯":3834,"à¯ģà®ķà®³à¯Īà®ķà¯į":3835,"Ġà®ªà®ļ":3836,"Ġà®®à¯ģà®©à¯įà®©à®°à¯ģà®®à¯į":3837,"Ġà®ħà®´à®¿à®¨à¯įà®¤à¯ģ":3838,"Ġà®µà®¿à®Łà¯įà®Łà¯Ģà®°à¯įà®ķà®³à¯į":3839,"Ġà®ķà®°à¯ģà®µà®¿":3840,"à®ħà®µà®©à¯įà®¤à®¾à®©à¯į":3841,"Ġà®ķà¯Ĭà®³à¯įà®³":3842,"à®µà®¿à®ļ":3843,"Ġà®¨à®®à¯įà®®à®¿à®Łà®®à¯į":3844,"Ġà®īà®³à¯įà®³à®µà¯Īà®¯à¯ģà®®à¯į":3845,"Ġà®¤à¯Ĩà®°à®¿à®¯à¯ģà®®à®¾":3846,"à®µà®£à¯įà®£":3847,"Ġà®ĩà®°à®µà¯ģ":3848,"à®¤à®£à¯įà®Ł":3849,"Ġà®ķà®£à¯įà®ķà®¾à®£":3850,"Ġà®ªà¯ĩà®°à¯Ģ":3851,"Ġà®ļà®¿à®±à®¿à®¤à¯ģà®®à¯į":3852,"Ġà®ĩà®¤à¯ģà®¤à®¾à®©à¯į":3853,"à®¿à®°à¯ģà®ķà¯įà®ķà®¿à®©à¯įà®±à®©":3854,"à¯ģà®µà®©":3855,"Ġà®µà®¿à®³à¯Īà®¯à®¾à®Łà¯įà®Łà¯ģ":3856,"à¯ģà®²à®ª":3857,"Ġà®®à®¾à®±à®¿":3858,"Ġà®ħà®´à®¿à®¨à¯įà®¤":3859,"à®¤à¯įà®¤à¯Īà®¯à¯ĩ":3860,"Ġà®ķà®¾à®²à¯įà®¨à®Ł":3861,"Ġà®¨à®±à¯įà®ļà¯Ĩà®¯":3862,"à®¨à¯įà®¤à®¿à®°":3863,"à®¿à®ķà®³à¯ĩ":3864,"Ġà®ħà®±à®¿à®µà¯ģà®Łà¯Īà®¯":3865,"Ġà®ļà®¾à®Łà¯įà®ļà®¿à®¯":3866,"à¯Ģà®²à¯į":3867,"Ġà®®à®¾à®©à®ķà¯įà®ķ":3868,"Ġà®¯à¯Ĥà®¤":3869,"Ġà®®à®±à¯Īà®¨à¯įà®¤":3870,"Ġà®¤à¯ģà®¤":3871,"Ġà®ħà®©à¯ģà®®à®¤à®¿à®¯":3872,"à®¤à¯ĩà®°à¯įà®¨à¯įà®¤à¯Ĩà®Łà¯ģà®ķà¯įà®ķ":3873,"à®°à¯įà®ķà®³à¯ģà®ķà¯įà®ķà¯ģà®®à¯į":3874,"Ġà®®à®¸à¯įà®ľà®¿à®¤":3875,"à¯Ģà®°à¯įà®ķà®³à¯ĩ":3876,"rance":3877,"à®µà®¿à®©à¯į":3878,"Ġà®Ĩà®¤à®°à®µà¯ģ":3879,"à®¤à¯įà®¤à®¿à®©":3880,"Ġà®¤à¯Ĥà®¤à®°à¯Ī":3881,"à®©à¯Īà®ªà¯į":3882,"Ġà®¤à®ķà®µà®²":3883,"Ġà®īà®±à®µà®¿à®©":3884,"Ġà®ĩà®°à®µà®¿à®²à¯į":3885,"Ġà®Ĩà®´":3886,"Ġà®¨à®¾à®Łà®¿à®¯à®µà®°à¯įà®ķà®³à¯Ī":3887,"Ġà®ªà®°à®¾à®®à¯ģà®ķ":3888,"Ġà®µà®´à®¿à®ķà¯ĩà®Łà¯įà®Ł":3889,"à¯įà®ķà¯įà®ķà¯ģ":3890,"Ġà®®à¯ĩà®²à®¾à®©à®µà®©à¯į":3891,"à®¿à®¤à¯įà®¤à®²à¯į":3892,"Ġà®ªà¯Ĥà®®à®¿à®¯à®¿à®©à¯į":3893,"à®µà¯Īà®¯à¯Ĩà®²à¯įà®²à®¾à®®à¯į":3894,"à®¯à®µà®ŀà¯įà®ļà®ķ":3895,"à®µà®¾à®´":3896,"Ġà®ķà¯ģà®ĥà®ªà¯įà®°":3897,"à¯Īà®¤à¯įà®¤à®µà®¿à®°":3898,"à®İà®©à¯įà®ªà®¤à¯Ī":3899,"Ġà®µà®ļà®©à®Ļà¯įà®ķà®³":3900,"à®¾à®³à®°à®¾à®ķ":3901,"à¯Ĩà®Łà¯į":3902,"Ġà®¤à®Łà¯ģà®ªà¯įà®ª":3903,"à®¾à®·":3904,"à®®à¯ģà®®à®¿à®²à¯įà®²à¯Ī":3905,"Ġà®Ĵà®¤à¯ģà®Ļà¯įà®ķ":3906,"Ġà®ªà®¯à®ªà®ķà¯įà®¤à®¿à®¯à¯ģà®Łà®©à¯į":3907,"Ġà®ĩà®±à¯Īà®µà®©à®¾à®ķà®¿à®¯":3908,"Ġà®¤à¯Ģà®°à¯įà®ªà¯įà®ªà¯ģà®ļà¯į":3909,"Ġthis":3910,"à®īà®¤à®µ":3911,"Ġà®ĥà®ªà®¿à®°à¯įà®ħà®µà¯įà®©à¯į":3912,"à¯ģà®µà®¿à®Łà¯įà®Łà¯ģ":3913,"Ġà®¤à¯ģà®µà®Ļà¯įà®ķ":3914,"à®¿à®·à®¯":3915,"Ġà®ļà¯ĩà®µà¯Īà®¯":3916,"Ġà®ħà®°à¯įà®·":3917,"à¯ģà®µà®°à¯Ī":3918,"rip":3919,"Ġà®¨à®²à¯įà®²à®Łà®¿à®¯à®¾à®°à¯įà®ķà®³":3920,"à®¤à®Ļà¯įà®ķà®³":3921,"à¯Īà®ķà®³à¯ģà®ķà¯įà®ķà¯ģ":3922,"à®ķà®®à®¾à®ķ":3923,"à®²à¯įà®ķà®³":3924,"à®¸à¯įà®¤":3925,"Ġà®°à®¸":3926,"à®¯à®¾":3927,"à®µà®°à¯įà®ķà®³à¯ģà®Łà®©à¯į":3928,"à®¾à®³à®°à¯įà®ķà®³à¯į":3929,"à¯ĩà®©":3930,"Ġà®ªà¯Ĩà®Łà¯įà®Ł":3931,"à®¿à®°à¯ģà®¨à¯įà®¤à®¤à¯ģ":3932,"à®īà®°à¯Ī":3933,"Ġà®ħà®³à®¿à®ªà¯įà®ª":3934,"Ġà®µà¯ĩà®¤à®©à¯Īà®¯à¯ģà®£à¯įà®Łà¯ģ":3935,"à®°à®¾":3936,"Ġà®µà®¿à®³à¯Īà®µ":3937,"\"à®¨à®¾à®©à¯į":3938,"Ġà®īà®®à¯įà®®à¯Īà®ķà¯į":3939,"Ġà®¤à®Ļà¯įà®ķà¯ģà®®à®¿à®Łà®®à¯į":3940,"à®ķà®²à¯į":3941,"ue":3942,"à®¿à®ķà®³à¯ģà®ķà¯įà®ķà¯ģ":3943,"à¯Īà®¯à®¿à®²":3944,"Ġà®ıà®±à¯įà®ķà®©à®µà¯ĩ":3945,"à®ĩà®Ļà¯įà®ķà¯ĩ":3946,"?\"čĊ":3947,"Ġà®ķà®µà®©à®¿à®ķà¯įà®ķ":3948,"à®¾à®µà¯ģà®®à¯į":3949,"à®ķà®¿à®Ł":3950,"à®ªà¯Ī":3951,"à¯ģà®ªà¯įà®ªà®¿à®©à¯į":3952,"à®ªà¯įà®¸à®¿à®©à¯į":3953,"à®¿à®µà®¾à®©":3954,"Ġà®ķà®¿à®±à®¿à®¸":3955,"à®Łà®¿à®ķà¯įà®ķà¯Ī":3956,"Ġà®ļà®°à®¿à®¯à®¾à®ķ":3957,"RL":3958,"à®ħà®¤à®¾à®µà®¤à¯ģ":3959,"à®¾à®±à¯įà®ķ":3960,"Ġà®ļà®¿à®©à¯įà®©":3961,"Ġà®µà¯ĩà®³":3962,"à¯ģà®ķà®³à®¾à®ķ":3963,"Ġà®ªà®¿à®³à¯įà®³":3964,"Ġà®ªà®¾à®ķà¯įà®ķà®¿à®¯à®®à¯į":3965,"à®°à¯ģà®ķà¯įà®ķà¯ģ":3966,"à¯Īà®µà®¿à®Łà¯įà®Ł":3967,"Ġà®ķà¯ģà®³à®¿à®°":3968,"Ġà®¨à®¿à®°à®ªà¯įà®ª":3969,"Ġà®µà®¿à®°à¯ģà®®à¯įà®ªà®¿à®©à®¾à®²à¯į":3970,"ric":3971,"à¯įà®Łà®°à¯į":3972,"à¯Ĩà®¤à®¿à®°":3973,"Ġà®ļà®¤":3974,"à¯Īà®ķà®³à®¿à®²à®¿à®°à¯ģà®¨à¯įà®¤à¯ģ":3975,"Ġà®īà®ªà®¯":3976,"Ġà®ļà¯ģà®°à¯ģà®ķà¯įà®ķ":3977,"Ġà®µà®¾à®ķà¯įà®ķà®³à®¿à®¤à¯įà®¤":3978,"Ġà®¤à¯ģà®©à¯įà®ªà®®à¯į":3979,"Ġà®ķà®¤":3980,"Ġ(\"":3981,"ab":3982,"Ġà®īà®£à¯įà®£":3983,"Ġà®ķà¯ģà®°à¯ģà®Ł":3984,"Ġà®Ĩà®©à¯įà®®":3985,"ry":3986,"Ġà®ļà¯ģà®²à®ª":3987,"à¯ģà®ķà¯įà®ķà¯Ĭ":3988,"à®¿à®¯à®¿à®°à¯ģà®ķà¯įà®ķ":3989,"Ġà®īà®°à¯ģà®µà®¾à®ķà¯įà®ķà¯ģ":3990,"à®ļà¯Ĩà®²à¯įà®²":3991,"Ġà®ļà®¿à®°":3992,"Ġà®ıà®±":3993,"à®¤à¯įà®¤à®¿à®±à¯įà®ķà¯ģà®ªà¯į":3994,"Ġà®Ĩà®£à¯įà®ķà®³à¯ģà®®à¯į":3995,"Ġà®ļà®°à®¿à®ª":3996,"Ġà®ªà¯ģà®ķà®Łà¯įà®Ł":3997,"ith":3998,"Ġà®ħà®µà®©à¯Īà®ªà¯į":3999,"à¯ģà®¤à¯įà®¤à®¾à®©à¯į":4000,"à¯ģà®ªà®µà®°à¯įà®ķà®³à¯į":4001,"à®¾à®Łà¯įà®Łà¯Ī":4002,"à®°à¯įà®ķà®³à®¾à®ķà®µà¯ģà®®à¯į":4003,"ext":4004,"à®®à®©à¯įà®©à®¿à®ªà¯įà®ª":4005,"à®¨à¯Ĩ":4006,"ŀà¯įà®ļ":4007,"à®¾à®¯à®¾":4008,"à®¤à®±à¯įà®ķà®¾à®ķà®µà¯ĩ":4009,"à®ķà¯įà®³à®ªà¯įà®¸à®¿à®©à¯į":4010,"Ġà®ķà¯ĩà®³à¯ģà®®à¯į":4011,"Ġà®¨à¯Ĩà®°à¯ģà®ªà¯įà®ªà®¿à®©à¯į":4012,"\"à®ħà®²à¯įà®²à®¾à®¹à¯įà®µ":4013,"?)čĊ":4014,"di":4015,"à®´à¯Ī":4016,"Ġà®ªà¯Ĩà®£à¯įà®ķà®³à¯ģà®®à¯į":4017,"Ġà®®à®¾à®©à®ķà¯įà®ķà¯ĩà®Ł":4018,"Ġà®ĩà®°à¯ģà®ķà¯įà®ķà®¿à®©à¯įà®±à®¾à®°à¯įà®ķà®³à¯į":4019,"Ġà®ĩà®¸à¯įà®°à®¾à®¯à¯Ģà®²à®¿à®©à¯į":4020,"Ġà®µà¯Ģà®Łà¯ģà®ķà®³à®¿à®²à¯į":4021,"Ġà®ªà®³à¯įà®³":4022,"Ġà®¨à®¿à®©à¯Īà®ķà¯įà®ķà®¿à®±à¯ĩà®©à¯į":4023,"?)":4024,"à®®à®°à®£":4025,"à®ĩà®±à¯ģà®¤à®¿":4026,"Ġà®µà®¿à®°à¯ģà®®à¯įà®ªà®µà®¿à®²à¯įà®²à¯Ī":4027,"Ġà®ķà®£à¯įà®£à®¿à®¯à®®à®¾à®©":4028,"à®İà®²à¯įà®²à®¾à®µà®±à¯įà®±à¯Īà®¯à¯ģà®®à¯į":4029,"Ġà®ħà®¤à®¿à®ķà®¾à®°à®®à¯į":4030,"à®¾à®Łà¯įà®ļà®¿":4031,"Ġ//":4032,"angu":4033,"Ġà®¤à®¾à®µ":4034,"à¯Īà®¯à®¿à®Ł":4035,"à¯Īà®¯à®©à¯į":4036,"Ġà®Ĩà®±à¯ģ":4037,"gre":4038,"Ġà®µà¯Ĩà®±à¯įà®±à¯ģ":4039,"à®¿à®ļà¯įà®ļà®®à®¯":4040,"Ġitem":4041,"Ġà®®à¯ģà®¤à¯įà®¤à®¿à®°":4042,"à®ķà¯ģà®°à¯įà®Ĩà®©à¯Ī":4043,"à®¨à®¿à®©à¯Īà®µ":4044,"Ġà®®à¯Ĥà®´à¯įà®ķà®Ł":4045,"Ġà®ļà®¾à®ª":4046,"Ġà®īà®³à¯įà®³à®Ļà¯įà®ķà®³à®¿à®²à¯į":4047,"Ġà®ħà®µà®°à¯Īà®ªà¯į":4048,"Ġà®¤à¯ĩà®°à¯įà®¨à¯įà®¤à¯Ĩà®Łà¯ģà®ķà¯įà®ķà®µà¯ģà®®à¯į":4049,"crip":4050,"à¯ĩà®Łà¯į":4051,"à®ªà®¾à®°":4052,"Ġà®ļà®¿à®Łà®¿":4053,"à®¿à®ªà¯įà®°":4054,"Ġà®ĩà®©à¯įà®ª":4055,"world":4056,"Ġà®Ĩà®ķà®¾à®°":4057,"Ġà®¤à¯Ģà®®à¯Ī":4058,"à®¿à®ķà¯įà®ķà®¿à®±à¯ĩà®©à¯į":4059,"lic":4060,"Ġà®ĩà®´à®¿à®µà¯ģ":4061,"Ġà®®à¯ĩà®©à¯įà®®à¯Īà®¯":4062,"Ġà®İà®£à¯įà®£à®¿à®ķà¯įà®ķ":4063,"Ġà®ħà®ªà¯įà®ªà®Łà®¿":4064,"à®¿à®©à¯įà®±à®¾à®©à¯į":4065,"Ġà®µà¯Ģà®£à®¾à®©":4066,"à®®à¯Ĥà®²":4067,"à¯įà®ī":4068,"à®¿à®¤à®®à¯į":4069,"Ġà®Ĩà®±à¯įà®±":4070,"Ġà®īà®£à¯įà®Łà®¾à®ķà¯įà®ķà®¿":4071,"ber":4072,"à®¿à®ªà¯įà®ªà®¾à®ķ":4073,"Ġà®¨à®²à¯įà®²à¯ģà®£à®°":4074,"Ġà®ĩà®ªà¯įà®°à®¾à®¹à¯Ģà®®à¯į":4075,"à®®à¯ģà®©à¯įà®©à®¿à®°à¯ģà®ªà¯įà®ªà¯ģ":4076,"Ġà®īà®£à¯įà®Łà®¾":4077,"Ġà®¤à®µà¯įà®°":4078,"Ġà®¨à®¿à®±à®®à¯į":4079,"Ġà®ªà®°à®¿à®ļà¯ģà®¤à¯įà®¤à®®à®¾à®©":4080,"Ġà®®à®¾à®³à®¿à®ķ":4081,"Ġà®ħà®µà®°à¯įà®ķà®³à¯ģà®ķà¯įà®ķà¯ģà®ļà¯į":4082,"ew":4083,"Ġà®ķà¯ĭà®ªà¯įà®ªà¯Ī":4084,"Ġà®µà®¾à®©à®Ļà¯įà®ķà®³à¯į":4085,"Ġà®®à¯ģà®±à¯įà®ªà®Łà¯ģà®¤à¯įà®¤":4086,"à®¾à®£à®¿":4087,"à®ħà®µà¯Ī":4088,"Ġà®µà®¿à®Łà¯įà®Łà®¾à®°à¯į":4089,"Ġà®ķà¯ģà®´à®¨à¯įà®¤à¯Ī":4090,"Ġe":4091,"Ġà®µà¯Ģà®Łà¯ģ":4092,"à¯ģà®¤à®¿à®¯à®¾à®ķ":4093,"Ġà®īà®Łà¯įà®ķà®¾à®°":4094,"rit":4095,"Ġà®ªà¯Ĩà®£à¯įà®ķà®³à¯Ī":4096,"Ġà®ĩà®Łà¯įà®Łà¯ģà®ķà¯į":4097,"Ġà®¨à®®à®¤à¯ģ":4098,"Ġà®ħà®±à¯įà®ª":4099,"Ġà®ŀà®¾à®©à®¤à¯įà®¤à¯Īà®¯à¯ģà®®à¯į":4100,"à®ļà¯Ģ":4101,"Ġà®ıà®±à¯įà®ªà®Łà¯ģà®®à¯į":4102,"Ġà®µà¯Ĩà®±à¯ģà®®à¯į":4103,"à®¿à®°à¯ģà®ªà¯įà®ªà®¿à®©à¯į":4104,"Ġà®īà®ªà®¯à¯ĭà®ķ":4105,"à¯Ĩà®¯à¯įà®¤à¯ģ":4106,"Ġà®İà®Ļà¯įà®ķà®³à¯ģà®ķà¯įà®ķà®¾à®ķ":4107,"Ġà®İà®´à¯ģà®¤à¯ģà®¤à®²à¯į":4108,"Ġà®ķà®Łà¯įà®Łà®³à¯Īà®¯à¯Ī":4109,"à®ªà®ķà¯įà®ķ":4110,"Ġ'%":4111,"50":4112,"Ġà®Ĩà®ļ":4113,"Ġà®ħà®²à¯įà®²à®¾à®¹à¯įà®µà®¿à®Łà®¤à¯įà®¤à®¿à®²à¯į":4114,"Ġà®ķà¯ģà®±à¯Īà®µ":4115,"à®İà®²à¯įà®²à®¾à®®à¯į":4116,"à¯ģà®µà®©à¯į":4117,"à¯įà®®à¯Īà®¯à®¿à®²à¯į":4118,"Ġà®µà®¿à®°à¯ģà®®à¯įà®ªà¯ģà®®à¯į":4119,"à®¤à¯įà®¤à®¿":4120,"Ġà®ħà®¤à®±à¯įà®ķà¯ģà®°à®¿à®¯":4121,"à®ķà®Łà®µ":4122,"Ġà®µà®¿à®¤à®®à®¾à®©":4123,"à®ķà¯Ĥà®Łà¯įà®Ł":4124,"Ġà®ļà¯Ĩà®¯à®²à¯Ī":4125,"à®¿à®¤à¯įà®¤à®¿à®¯":4126,"Ġà®ļà¯Ĩà®²à¯įà®ª":4127,"Ġà®®à¯Ĥà®©à¯įà®±":4128,"Ġà®ķà®³à¯Ī":4129,"Ġà®µà®¨à¯įà®¤à¯ģà®³à¯įà®³":4130,"Ġà®ħà®ª":4131,"bo":4132,"à®¤à®±à¯įà®ķà®¾à®©":4133,"Ġà®ªà®³":4134,"à¯ģà®ķà®³à®¿à®²à®¿à®°à¯ģà®¨à¯įà®¤à¯ģ":4135,"est":4136,"Ġà®¤à®¿à®©à®®à¯į":4137,"anguage":4138,"à®µà¯ģà®®":4139,"à®©à®¿à®²à¯į":4140,"Ġà®µà®¿à®Łà®µà¯ģà®®à¯į":4141,"Ġà®®à®¾à®±à¯įà®±à¯ģà®ķ":4142,"Ġà®¤à®¿à®°à¯ģà®®":4143,"Ġà®īà®³à¯įà®³à®Łà®ķà¯įà®ķ":4144,"Ġlabel":4145,"Ġà®ªà®´à¯Īà®¯":4146,"à®ķà®Łà¯Ī":4147,"Ġà®İà®©à¯įà®©à¯Īà®ªà¯į":4148,"Ġà®µà®¿à®²à®ķà®¿":4149,"à®¨à®Łà®ªà¯įà®ªà¯ģ":4150,"ail":4151,"à¯ģà®µà®¾à®©":4152,"out":4153,"ct":4154,"Ġà®¤à¯Ģà®°à¯įà®®à®¾à®©":4155,"Ġà®ļà®¿à®¤":4156,"à®īà®©à®ķà¯įà®ķà¯ģ":4157,"Ġà®ħà®¤à¯įà®¤à®¾à®Łà¯įà®ļà®¿à®ķà®³à¯Īà®ķà¯į":4158,"Ġaction":4159,"60":4160,"Ġà®®à®¹":4161,"Ġà®¨à®¿à®ļà¯įà®ļà®¯à®®à®¾à®ķà®ķà¯į":4162,"Ġà®ĩà®£à¯Īà®ªà¯įà®ª":4163,"Ġà®ĵà®Łà®¿à®ķà¯į":4164,"à®¿à®ķà¯įà®ķà®ªà¯įà®ªà®Łà¯ģà®®à¯į":4165,"Ġà®ķà¯Ĥà®²à®¿à®¯à®¾à®ķ":4166,"à®¾à®ķà¯įà®ķà®¿à®©à®¾à®©à¯į":4167,"Ġà®®à®¾à®©à®ķà¯įà®ķà¯ĩà®Łà®¾à®©":4168,"Ġà®ļà®¿à®¤à¯įà®¤à®®à¯į":4169,"Ġà®ħà®®à¯Īà®ªà¯įà®ªà¯ģà®ķà®³à¯į":4170,"Ġ=":4171,"Ġà®µà®¿à®·à®¯à®®à¯į":4172,"Ġà®ħà®©à¯Īà®µà®°à¯Īà®¯à¯ģà®®à¯į":4173,"à®¤à®Ļà¯įà®ķà®³à¯į":4174,"à®¤à¯Īà®ļà¯į":4175,"à®¿à®°à¯ģà®ķà¯įà®ķà®¿à®±à¯ĩà®©à¯į":4176,"\"à®İà®©à¯įà®©à¯ģà®Łà¯Īà®¯":4177,"Ġà®ķà¯Ĥà®±à¯įà®±":4178,"Ġà®İà®´à¯ģà®¤à®ķà¯įà®ķà¯Ĥà®Łà®¿à®¯":4179,"à®®à¯Ĭ":4180,"Ġà®īà®©à¯įà®©à¯ģà®Łà¯Īà®¯":4181,"Ġà®®à®±à¯ģà®®à¯Īà®¯à®¿à®©à¯į":4182,"Ġà®ķà¯ģà®±à¯įà®±à®®à®¿à®²à¯įà®²à¯Ī":4183,"à®®à¯Ĩà®¯à¯įà®¯":4184,"Ġà®ĩà®µà®°":4185,"Ġà®īà®®à¯įà®®à¯Īà®¤à¯į":4186,"Ġà®µà®¿à®³à®Ļà¯įà®ķà®¿à®ķà¯į":4187,"Ġà®ļà®®à¯Ĥà®ķà®¤à¯įà®¤à®¾à®°à¯į":4188,"Ġà®¨à®Łà¯įà®ļà®¤à¯įà®¤à®¿à®°":4189,"Ġà®®à¯ģà®©à®¾à®ĥà®ª":4190,"Ġà®µà®¿à®ļà¯Ī":4191,"Ġà®īà®£à¯įà®®à¯Īà®¯à®¿à®²à¯į":4192,"à®ħà®©à¯Īà®¤à¯įà®¤":4193,"à®īà®®à¯įà®®à¯Ī":4194,"Ġà®ªà®¿à®©à¯įà®¤":4195,"Ġà®¨à®¿à®±à¯įà®ª":4196,"à®ªà®£":4197,"à®Ļà¯įà®ķà®³à¯Īà®¤à¯į":4198,"Ġà®ħà®©à¯Īà®¤à¯įà®¤à¯ģà®®à¯į":4199,"à®¾à®¤à®¾":4200,"à®¿à®°à¯ģà®³":4201,"Ġà®¯à®ĥà®ķà¯Ĥ":4202,"Ġà®¤à¯ĩà®Łà®¿à®ķà¯į":4203,"Ġà®ķà®¾à®¤à¯įà®¤à¯ģà®ķà¯į":4204,"Ġà®ªà®¾à®Ł":4205,"Ġà®®à¯Ĩà®¯":4206,"à®ķà¯ģà®±à¯įà®±":4207,"Ġà®¤à®¿à®°à¯ģà®ªà¯įà®¤à®¿à®¯":4208,"Ġà®ļà¯Ĩà®¯à¯įà®ªà®µà®°à¯įà®ķà®³à¯į":4209,"Ġà®ĩà®°à¯ģà®¨à¯įà®¤à¯Ģà®°à¯įà®ķà®³à¯į":4210,"Ġà®¤à¯ĩà®Łà®¿":4211,"Ġà®ļà¯Ĩà®¯à¯įà®¯à®¾à®¤":4212,"à®²à¯įà®²à®°à¯į":4213,"Ġà®µà®¾à®ķà¯įà®ķà¯ģà®±à¯ģà®¤à®¿à®¯à¯Ī":4214,"à®¤à¯įà®¤à¯ģà®ķà¯įà®ķà¯ģ":4215,")à®ķà®³à¯Ī":4216,"Ġà®µà®Łà®¿à®ķà®Łà¯įà®Łà®¿":4217,"à®ļà¯įà®ļà¯Ī":4218,"Ġà®Ĩà®ķà¯įà®ķà®¿à®¯":4219,"Ġà®ļà®®à¯Ĥà®ķà®¤à¯įà®¤à®¾à®°à¯ģà®ķà¯įà®ķà¯ģ":4220,"Ġà®ļà®®à®¾à®¤à®¾à®©":4221,"Ġà®®à®°à®¿à®¤à¯įà®¤":4222,"Ġà®ĩà®¤à®¯à®Ļà¯įà®ķà®³à®¿à®²à¯į":4223,"à¯įà®ªà®¾à®²à¯į":4224,"Ġà®¤à¯Ĥà®¤à®°à¯įà®ķà®³à¯Ī":4225,"Ġà®ªà®°à®¿à®ķà®ļ":4226,"à¯ģà®ªà®µà®°à¯įà®ķà®³à®¾à®ķ":4227,"à®ĩà®¤à¯ģà®µà¯ĩ":4228,"RO":4229,"Ġà®ªà®¿à®®à¯įà®ªà®¤à¯įà®¤à¯Ī":4230,"Ġà®İà®µà®°à¯įà®ķà®³à¯Ī":4231,"à¯Ĩà®£":4232,"Ġà®¨à®²à¯įà®²à¯ģà®£à®°à¯įà®µà¯ģ":4233,"à®¤à®µà®±à®¾à®©":4234,"à®¾à®©à¯įà®ķ":4235,"Ġà®īà®£à¯įà®®à¯Īà®¯à¯Ī":4236,"à®¾à®ķà¯įà®ķà®¿à®©à¯ĭà®®à¯į":4237,"Ġà®µà®¿à®´à¯ģà®Ļà¯įà®ķ":4238,"Ġà®ķà¯ģà®µ":4239,"Ġà®¨à¯Ģà®¤":4240,"à®µà¯į":4241,"à¯įà®ķà¯Ĥà®±à¯ģ":4242,"Ġà®¯à¯Ĥ":4243,"Ġà®®à®±à¯ģà®®à¯Īà®¯à¯Ī":4244,"Ġà®ªà¯Īà®¤à¯įà®¤à®¿à®¯":4245,"Ġà®ķà®Łà®¨à¯įà®¤à¯ģ":4246,"à®¨à¯ĩà®°à¯įà®µà®´":4247,"à®¿à®ķà®¿à®±":4248,"Ġà®ķà¯ĩà®Łà¯įà®ªà®¾à®©à¯į":4249,"Ġà®ķà¯ģà®±à®¿à®¤à¯įà®¤":4250,"RAN":4251,"Ġà®ķà®¾à®¯":4252,"Ġà®ªà¯Ĩà®±à¯įà®±à¯ģ":4253,"Ġà®ħà®°à¯įà®°à®¹à¯įà®®à®¾à®©":4254,"Ġà®ıà®±à¯įà®±à¯ģ":4255,"Ġà®ļà¯Ĩà®¯à¯įà®µà®¤":4256,"à®²à¯įà®²à®µà®¾":4257,"Ġà®°à®¹à¯įà®®à®¤à¯įà®¤à¯Ī":4258,"à¯ĩà®²à¯į":4259,"Ġà®ªà¯ģà®ķà®´à¯į":4260,"Ġà®ĩà®µà®±à¯įà®±à¯Ī":4261,"à®¾à®ķà¯įà®ķà®®à¯į":4262,"Ġà®¨à®¿à®°à®¨à¯įà®¤à®°":4263,"Ġà®®à¯ģà®ķà®µà®°à®¿":4264,"à®¿à®²à¯Ĩà®²à¯įà®²à®¾à®®à¯į":4265,"Ġà®ķà¯Īà®¯":4266,"int":4267,"à¯ģà®ķà®¿à®±à®¾à®°à¯į":4268,"Ġà®¤à®¯à®¾à®°":4269,"à¯įà®ķà®³à®¿à®²à¯ģà®®à¯į":4270,"à®©à¯įà®®à®¾à®°à¯įà®ķà¯įà®ķ":4271,"Ġà®Ĭà®¤":4272,"Ġare":4273,"à¯ĭà®©à®¿":4274,"à®ļà®¾à®°":4275,"à®¤à¯įà®¤à®°":4276,"Ġà®ļà®¿à®ķà¯įà®ķ":4277,"Ġà®¨à¯ģà®´à¯Īà®µ":4278,"à®ķà¯Ĥà®±":4279,"à®ķà¯ģà®±à®¿à®ªà¯įà®ªà®¿à®Łà¯įà®Ł":4280,"ill":4281,"à®¨à¯Ĩà®°":4282,"à®®à®¾à®ķà®ªà¯į":4283,"à®¿à®²à¯įà®²à®¾":4284,"à®ļà¯įà®ļà¯ģ":4285,"Ġà®¯à¯Ī":4286,"à®®à¯Ģà®£à¯įà®Łà¯ģà®®à¯į":4287,"à¯ģà®µà®¾à®°à¯į":4288,"à¯ģà®°à¯Ī":4289,"à®¿à®²à¯Īà®¯à®¿à®²à¯į":4290,"ER":4291,"Ġà®ļà¯Ĩà®¯à¯įà®¯à®²à®¾à®®à¯į":4292,"à¯ģà®®à¯ģà®±à¯Ī":4293,"à®ħà®µà®°à¯ģà®Łà¯Īà®¯":4294,"Ġà®ļà¯Ĩà®µà¯įà®µ":4295,"à®¨à®¿à®©à¯Īà®µà¯ģ":4296,"à®¿à®¤à¯įà®¤à®¿à®°":4297,"à®¤à¯ĩà®°à¯įà®µà¯ģ":4298,"Ġà®Ĩà®©":4299,"Ġà®µà®¿à®Łà¯ģ":4300,"Ġà®µà®¾à®¤":4301,"Ġà®ļà¯Ĩà®¯à¯įà®¯à®µà®¿à®²à¯įà®²à¯Ī":4302,"à®¿à®ķà¯įà®ķà®ªà¯įà®ªà®Łà¯įà®Łà¯ģ":4303,"Ġà®µà®¿à®´à¯ģà®¨à¯įà®¤à¯ģ":4304,"Ġà®ĩà®Łà¯Ī":4305,"Ġà®µà®¿à®°à®¿à®µ":4306,"Ġà®ķà®¿à®±à®¿à®¸à¯įà®¤":4307,"à¯ģà®®à®¾à®±":4308,"Ġà®ĩà®¤à®¯à®Ļà¯įà®ķà®³à¯į":4309,"à®µà®Łà¯įà®Łà¯ģ":4310,"à®¤à®±à¯įà®ªà¯ĭà®¤à¯Īà®¯":4311,"Ġà®ĩà®°à¯ģà®¨à¯įà®¤à®©":4312,"Ġà®ħà®³à®µà¯Ī":4313,"Ġà®īà®£à¯įà®Łà®¾à®µà®¤à®¾à®ķ":4314,"Ġà®®à¯ģà®°":4315,"à®¿à®ªà¯įà®ªà®¾à®°à¯įà®ķà®³à¯į":4316,"à¯Ĩà®¯à®°à¯į":4317,"Ġà®İà®©à¯įà®©à¯ģà®Łà®©à¯į":4318,"Ġà®®à¯ģà®¤à¯ģà®ķ":4319,"à®¤à¯Ĩà®°à®¿à®¯":4320,"à®ķà¯įà®ķà®¿à®¯":4321,"à¯Ĩà®©à®ķà¯į":4322,"Ġà®¤à®Ļà¯įà®ķà¯ģà®®à®¿à®Ł":4323,"Ġà®ļà®¿à®±à¯ģ":4324,"Ġà®ļà¯Ĭà®²à¯įà®²":4325,"Ġà®ªà®Łà¯įà®Łà®¿à®¯à®²":4326,"Ġà®ķà¯Ĭà®Łà¯ģà®ķà¯įà®ķ":4327,"her":4328,"Ġà®ĩà®°à¯ģà®¨à¯įà®¤à®¾à®²à¯ģà®®à¯į":4329,"Ġà®ķà®Łà®²":4330,"Ġà®ªà®£à®®à¯į":4331,"ING":4332,"à®°à¯įà®ª":4333,"Ġà®ħà®µà®±à¯įà®±à¯Īà®ªà¯į":4334,"Ġà®®à¯ģà®±à¯Īà®ªà¯įà®ªà®Łà®¿":4335,"à¯įà®ķà®³à¯ģà®ķà¯įà®ķà¯ģà®®à¯į":4336,"Ġà®ķà¯ģà®±à®¿":4337,"Ġà®¤à®¿à®ķ":4338,"Ġà®ªà®¾à®¤à¯Ī":4339,"Ġà®ĩà®¸à¯įà®¹":4340,"Ġà®¤à¯Ģà®Ļà¯įà®ķà¯ģà®®à¯į":4341,"Ġà®®à®¿à®ķà®¤à¯į":4342,"à®Ļà¯įà®ķà®³à®¾à®ķ":4343,"Ġà®Ĵà®°à¯ģà®µà®©":4344,"Ġà®İà®¤à®¿à®°à¯įà®ªà®¾à®°à¯įà®¤à¯įà®¤":4345,"Ġà®ķà¯Ĥà®±à®¿à®¯à®¤à¯Ī":4346,"Ġà®ĩà®µà¯įà®µà®¿à®°à®£à¯įà®Ł":4347,"Ġà®ķà®Łà¯įà®Łà®³à¯Īà®¯à®¿à®Ł":4348,"à®°à¯įà®¤à¯įà®¤":4349,"Ġà®ĩà®°à®µà®¿à®©à¯į":4350,"à¯Īà®ķà¯įà®ķà®¾à®©":4351,"(à®ĩà®µà¯įà®µà®¾à®±à¯ģ":4352,"à¯Ĩà®²à¯į":4353,"Ġà®ħà®µà®©à®¤à¯ģ":4354,"Ġà®¨à®®à¯įà®ªà®¿":4355,"Ġà®¤à®¿à®°à¯ģ":4356,"Ġà®ĩà®ªà¯įà®ªà¯Ĥà®®":4357,"ties":4358,"Ġà®®à¯Ĥà®¸à®¾à®µà¯ģà®ķà¯įà®ķà¯ģ":4359,"Ġà®ĩà®¤à¯Īà®ķà¯į":4360,"Ġà®ħà®°à¯ģà®³à®¿à®¯":4361,"à®µà®¾à®©à®Ļà¯įà®ķà®³à¯Īà®¯à¯ģà®®à¯į":4362,"à®®à®¾à®ķà¯įà®ķà®¿à®ķà¯į":4363,"Ġà®īà®®à¯įà®®à¯ģà®Łà®©à¯į":4364,"Ġà®ħà®¤à¯įà®¤à®¾à®Łà¯įà®ļà®¿à®ķà®³à®¿à®²à¯į":4365,"Ġà®ªà®¤à®µ":4366,"Ġà®ħà®±à®¿à®¨à¯įà®¤à®µà®©à®¾à®ķ":4367,"Ġà®īà®Ļà¯įà®ķà®³à®¿à®Łà¯Īà®¯à¯ĩ":4368,"Ġà®¤à®¿à®°à¯ģà®ªà¯įà®ªà®¿à®ķà¯į":4369,"à®¤à¯įà®¤à®¿à®²à®¿à®°à¯ģà®¨à¯įà®¤à¯ģà®®à¯į":4370,"Ġà®īà®ªà®¤à¯ĩà®ļà®®à¯į":4371,"erver":4372,"Ġà®µà¯Ģà®£à¯į":4373,"Ġà®Ĵà®°à¯ģà®µà®©à®¾à®ķ":4374,"Ġà®¤à®¿à®Łà¯įà®Łà®¤à¯įà®¤à¯Ī":4375,"à®¨à®®à¯įà®®à¯ģà®Łà¯Īà®¯":4376,"Ġà®ªà®Łà®¿à®ķà¯įà®ķ":4377,"Ġà®ªà®°à®¾à®®à¯ģà®ķà®®à®¾à®ķ":4378,"Ġà®µà®¿à®ª":4379,"Ġà®ªà®°à®¿à®¨à¯įà®¤à¯ģ":4380,"Ġà®īà®Ļà¯įà®ķà®³à¯Īà®ļà¯į":4381,"à®¿à®ªà¯įà®ªà®¤à®±à¯įà®ķà®¾à®ķ":4382,"à®İà®©à¯įà®©à¯ģà®®à¯į":4383,"Ġà®¤à¯Ĩà®°à®¿à®¨à¯įà®¤":4384,"à®ĩà®µà®°à¯į":4385,"à®İà®ªà¯įà®ª":4386,"Ġà®ķà¯Ĩà®Łà¯įà®Łà®¤à¯ģ":4387,"à®®à®¾à®°à¯įà®ķà¯įà®ķ":4388,"Ġà®¤à®Ļà¯įà®ķà®¿à®¯à®¿à®°à¯ģà®ªà¯įà®ª":4389,"à®¿à®ļà¯įà®ļà®®à®¯à®¾à®ķ":4390,"ap":4391,"Ġà®µà®¨à¯įà®¤à®¾à®²à¯į":4392,"Ġà®ħà®±à®¿à®ªà®µà®©à®¾à®ķà®µà¯ģà®®à¯į":4393,"sia":4394,"Ġà®Ĳà®¨à¯įà®¤à¯ģ":4395,"Ġà®¤à¯ģà®ķà¯įà®ķà®ªà¯įà®ªà®Ł":4396,"Ġà®ĩà®£à¯Īà®¯à®¾à®ķà¯įà®ķ":4397,"Ġà®¤à®©à®ķà¯įà®ķà¯ģ":4398,"Ġà®ıà®°à®¿":4399,"à®®à¯Ĩà®¯à¯įà®¯à®¾à®ķà®µà¯ĩ":4400,"à®ķà®¾à®ĥà®ªà®¿à®°":4401,"à®ħà®²à¯įà®²à®¾à®¹à¯įà®µà¯Ī":4402,"Ġà®Īà®®à®¾à®©à¯Ī":4403,"Ġà®ħà®ŀà¯įà®ļà®¿à®ķà¯į":4404,"Ġà®®à®ķà®¿à®´à¯įà®µ":4405,"Ġà®®à®¾à®Łà¯ģ":4406,"Ġà®¨à®¿à®°à®²à¯į":4407,"à®ļà®¾à®²":4408,"à®ħà®²à¯įà®²à®¾à®¹à¯įà®µà®¿à®Łà®®à¯į":4409,"Ġà®ĩà®©à®¿":4410,"à¯Ĩà®±":4411,"à®ļà¯ģà®´":4412,"Ġà®¨à¯Ģà®Ļà¯įà®ķà®³à¯ĩ":4413,")à®µà®©à¯į":4414,"à®©à¯įà®ªà®¤à¯ģ":4415,"MAN":4416,"Ġà®®à¯ģà®©à¯įà®ªà¯ģ":4417,"à®ªà®´":4418,"Ġà®ªà®¯à®ªà®ķà¯įà®¤à®¿à®¯à¯ģà®Łà¯Īà®¯à®µà®°à¯įà®ķà®³à¯ģà®ķà¯įà®ķà¯ģ":4419,"Ġà®İà®©à®ķà¯įà®ķà¯ģà®ķà¯į":4420,"ttp":4421,"Ġ!čĊ":4422,"Ġà®ħà®´à¯Īà®ķà¯įà®ķà¯ģà®®à¯į":4423,"Ġà®ªà®±à®µ":4424,"Ġà®ĩà®°à¯ģà®ªà¯įà®ªà®¤à¯ģ":4425,"Ġà®İà®¤à®¿à®°à¯į":4426,"Ġà®ļà®ķà¯įà®¤":4427,"Ġà®İà®²à¯ģà®®à¯įà®ª":4428,"Ġà®ªà¯ģà®ļà®¿à®¯à¯ģà®Ļà¯įà®ķà®³à¯į":4429,"ine":4430,"Ġà®ķà®£à®ķà¯įà®ķà¯ģ":4431,"Ġà®¤à®°à®µà¯ģ":4432,"Ġà®ĩà®Łà¯Īà®µà¯Ĩà®³à®¿":4433,"Ġà®µà®¿à®Łà¯įà®Łà®©à®°à¯į":4434,"Ġà®¨à¯Ĩà®°à¯ģà®ªà¯įà®ªà®¿à®²à¯į":4435,"Ġà®ªà®¿à®©à¯įà®ªà®±à¯įà®±à¯ģà®Ļà¯įà®ķà®³à¯į":4436,"Ġà®µà®¾à®ķà¯įà®ķà¯ģà®±à¯ģà®¤à®¿à®¯":4437,"Ġà®ķà¯ĩà®Łà¯įà®ķà¯ģà®®à¯į":4438,"Ġà®ļà®¾à®³à®°à®®à¯į":4439,"à®ĩà®£à¯Ī":4440,"à®¤à¯ĩà®°à¯įà®¨à¯įà®¤à¯Ĩà®Łà¯ģà®ķà¯įà®ķà®ªà¯įà®ªà®Łà¯įà®Ł":4441,"(à®¤à¯įà®¤":4442,"Ġà®®à¯ģà®ķà¯įà®ķà®¿à®¯":4443,"Ġà®¨à®¿à®±à¯Īà®¯":4444,"Ġà®ªà®£à®¿":4445,"à®¨à®©à¯įà®®à¯Ī":4446,"à®¿à®ķà®°à®®à®¾à®ķ":4447,"Ġà®ħà®©à¯Īà®µà®°":4448,"Ġà®¤à®¿à®ļ":4449,"Ġà®ªà®£à¯įà®ª":4450,"\"à®Ĩà®ķà®µà¯ĩ":4451,"Ġà®ħà®´à®¿à®ķà¯įà®ķ":4452,"Ġà®ķà®Łà®µà¯ģà®ļà¯įà®ļà¯Ĭ":4453,"Ġà®ªà®¾à®ķà®®à¯į":4454,"à¯ģà®Łà¯į":4455,"à¯Ĩà®°à¯ģà®®à¯į":4456,"Ġà®¤à®Ļà¯įà®ķà®¿":4457,"Ġà®ĩà®©à¯įà®©":4458,"Ġà®ļà®¿à®°à®®":4459,"Ġà®īà®³à¯įà®³à®¿à®Łà®µà¯ģà®®à¯į":4460,"à®®à¯ģà®¤à®²":4461,"à¯įà®¸à¯ĭà®©à®¿":4462,"Ġà®µà®¿à®¤à®¿à®¤à¯įà®¤":4463,"19":4464,"à®¤à®¾à®©à®¿à®¯":4465,"à¯įà®¯à¯Ĥ":4466,"Ġà®ķà®°à¯įà®ªà¯įà®ª":4467,"Ġà®ķà¯Ĩà®Łà¯įà®Łà®¤à®¾à®ķà¯ģà®®à¯į":4468,"à®¯à®¤à¯įà®¤à®¿à®²à¯į":4469,"à®µà®¿à®Łà¯įà®Ł":4470,"Ġà®µà®¿à®¯":4471,"Ġà®ļà®ķà¯įà®¸à¯ĭà®©à®¿":4472,"à®®à¯ģà®¤":4473,"TS":4474,"Ġà®¤à®°à®µ":4475,"Ġà®ķà¯ģà®¤":4476,"Ġà®ªà®¨à¯įà®¤":4477,"à®¤à¯įà®¤à®¿à®²":4478,"à¯įà®ķà®¿à®©à¯įà®±à®©à®°à¯į":4479,"à®µà®Łà¯įà®Ł":4480,"Ġà®®à¯Ĭà®´":4481,"Ġà®ħà®©à¯Īà®¤à¯įà®¤à¯Īà®¯à¯ģà®®à¯į":4482,"Ġà®Ĵà®°à¯ģà®µà®°à¯Ī":4483,"Ġà®ķà¯Ģà®´à¯įà®ªà®Ł":4484,"à¯ģà®¸":4485,"ll":4486,"Ġà®ħà®¨à®¾à®¤":4487,"Ġà®ªà®¿à®°à®¿à®¨à¯įà®¤à¯ģ":4488,"Ġà®®à¯ģà®©à¯įà®©à®¿à®°à¯ģà®ªà¯įà®ªà¯ģ":4489,"02":4490,"Ġà®¤à®¾à®Ļ":4491,"à®¤à®¾à®ķà®µà¯ĩ":4492,"Ġà®µà®Łà®¿à®µà®®à¯Īà®ªà¯įà®ªà¯ģ":4493,"Ġà®¤à¯ģà®±":4494,"Ġà®ıà®¤à¯ģà®®à¯į":4495,"Ġà®İà®¤à®©à¯Īà®¯à¯ģà®®à¯į":4496,"Ġà®¤à®ķà¯ģà®¤à®¿à®¯":4497,"Ġà®ļà¯Ĭà®Łà¯ģà®ķà¯įà®ķ":4498,"à®ªà¯įà®ªà¯Ĩà®±à¯įà®±":4499,"à®Ĩà®£":4500,"Ġà®®à®¾à®±à¯ģà®ª":4501,"à¯ģà®Ĳ":4502,"Ġà®İà®´à¯ģà®¤à¯ģ":4503,"à¯Ģà®Łà¯įà®Łà¯ģ":4504,"Ġà®ªà¯Īà®¯à®©à¯į":4505,"à®®à¯ģà®±à¯Ī":4506,"Ġà®ĩà®°à¯ģà®ªà¯įà®ªà®¾à®°à¯į":4507,"Ġà®¨à®¿à®²à¯Īà®¨à®¿à®±à¯ģà®¤à¯įà®¤":4508,"Ġà®µà®¿à®°à¯ģà®¨à¯įà®¤":4509,"Ġà®®à®±à®ķà¯įà®ķ":4510,"Ġà®ĩà®¨à¯įà®¨":4511,"à®®à®¾à®ķà¯įà®ķà®¿":4512,"à®īà®°à¯ģà®µ":4513,"à®īà®¤à®µà®¿":4514,"Ġà®®à®¿à®ķà®ªà¯įà®ª":4515,"à®¿à®µà®¿à®Łà¯įà®Łà®¤à¯ģ":4516,"à®ķà¯įà®ķà¯ģà®±":4517,"à®ªà®¿à®°à®¾à®°à¯įà®¤à¯įà®¤":4518,"Ġà®ļà¯Ĩà®µà®¿à®Ł":4519,"Ġà®®à®¾à®¤à®¿à®°à®¿":4520,"à®¿à®ķà¯įà®ķà®ªà¯įà®ªà®Łà¯įà®Łà®¤à¯ģ":4521,"Ġà®¨à¯Ģà®ķà¯įà®ķà®µà¯ģà®®à¯į":4522,"à¯Ģà®®":4523,"Ġà®¤à®Łà¯Ī":4524,"à¯ģà®®à¯ģà®©à¯į":4525,"à®¨à®ª":4526,")à®¤à®¿à®©à¯į":4527,"Ġà®ıà®±à¯įà®ªà®Łà¯įà®Łà®¾à®²à¯į":4528,"ton":4529,"Ġà®ħà®¤à®¿à®ķà®°":4530,"od":4531,"à®°à®¾à®³":4532,"Ġà®Ĩà®£à®µ":4533,"à®ħà®®à®°":4534,"Ġà®ļà¯Ĩà®¯à®²à¯įà®ªà®Łà¯ģà®¤à¯įà®¤à¯ģ":4535,"à®¿à®¯à®°à¯į":4536,"Ġà®ļà¯ĩà®ķà®°":4537,"à®µà¯ģà®®à¯ĩ":4538,"Ġà®ħà®°à¯ģà®³à®ªà¯įà®ªà®Łà¯įà®Ł":4539,"Ġà®®à®©à¯Īà®µà®¿":4540,"Ġà®µà®°à®²à®¾à®±à¯įà®±":4541,"Ġà®Ĩà®¤à¯įà®®à®¾à®µà¯ģà®®à¯į":4542,"à®¾à®°à®¤à¯įà®¤à¯Ī":4543,"à®®à¯Īà®ªà¯įà®ª":4544,"Ġà®īà®Ļà¯įà®ķà®³à¯ģà®ķà¯įà®ķà¯ģà®®à¯į":4545,"Ġà®¨à®¿à®±à¯įà®ķ":4546,"Ġà®ħà®±à®¿à®µà¯ģ":4547,"Ġà®ĩà®°à¯ģà®¤à®¯à®Ļà¯įà®ķà®³à®¿à®²à¯į":4548,"à®īà®®à¯įà®®à¯ģà®Łà¯Īà®¯":4549,"Ġà®µà¯Īà®¤à¯įà®¤à®¿à®°à¯ģà®ªà¯įà®ª":4550,"Ġà®¤à¯ģà®£à¯Ī":4551,"à¯Ģà®°à®¾à®¯à®¿à®©à¯į":4552,"à®µà®°à¯įà®ķà®³à¯ģà®Łà¯Īà®¯":4553,"à®¯à®¾à®µà¯ģà®®à¯į":4554,"Ġà®®à®¾à®°à¯įà®ķà¯įà®ķà®¤à¯įà®¤à¯Ī":4555,"Ġà®ıà®±à¯įà®ªà®Łà¯ģà®¤à¯įà®¤à®¿à®ķà¯į":4556,"sh":4557,"Ġà®µà®´à®¿à®ªà®Łà¯ģà®Ļà¯įà®ķà®³à¯į":4558,"KDE":4559,"Ġà®ŀà®¾à®©à®®à¯ģà®Łà¯Īà®¯à®µà®©à®¾à®ķà®µà¯ģà®®à¯į":4560,"Ġà®ļà®®à®®":4561,"Ġà®¨à®©à¯įà®®à¯Īà®¯à¯Ī":4562,"à®ķà®©":4563,"Ġà®ħà®µà®°à¯Īà®¯à¯ģà®®à¯į":4564,"à¯Īà®ķà®³à®¿à®²à¯ģà®®à¯į":4565,"Ġà®ªà¯Ĭà®°à¯ģà®¤à¯įà®¤":4566,"à®¤à¯Ĥ":4567,"Ġà®®à®©à¯įà®©à®¿à®ªà¯įà®ªà¯ģà®®à¯į":4568,"bia":4569,"à®¿à®¯à®¾à®²à¯į":4570,"à®ķà¯Ĥà®Ł":4571,"Ġà®ħà®ķà®²à®®à¯į":4572,"à®¿à®°à¯ģà®³à¯įà®³":4573,"à®ªà®¿à®³":4574,"Ġà®®à®±à¯ģà®ª":4575,"Ġà®Ĩà®ļà¯Ī":4576,"à®µà¯ĩà®¤à®©":4577,"à®¿à®¸à¯įà®ķà¯Ĭ":4578,"(à®®à¯į":4579,"à®¿à®ķà®³à®¾à®©":4580,"à®ĩà®µà¯įà®µà®¾à®±":4581,"à®¿à®Łà®®à®¿à®°à¯ģà®¨à¯įà®¤à¯ģà®®à¯į":4582,"Ġà®ħà®¨à®¿à®¯à®¾à®¯à®ķà¯įà®ķà®¾à®°à®°à¯įà®ķà®³à¯į":4583,"à®Łà®¿à®µà®¿à®Ł":4584,"à®ļà®¾à®¯":4585,"à®µà®¾à®©à®Ļà¯įà®ķà®³à®¿à®²à¯ģà®®à¯į":4586,"Ġà®ªà¯Ĩà®°à¯ģà®®":4587,"à®ªà¯Ĩà®±à¯įà®±":4588,"Ġà®ĩà®°à¯ģà®¨à¯įà®¤à®¾à®©à¯į":4589,"Ġà®ķà®¾à®£à¯ģà®®à¯į":4590,"à®µà®°à®¿":4591,"Ġà®¨à®®à¯įà®®à®¿à®Łà®®à¯ĩ":4592,"Ġà®ªà®¿à®©à¯įà®©à¯ģà®®à¯į":4593,"star":4594,"Ġà®¤à®©à®ķà¯įà®ķ":4595,"Ġà®İà®²à¯įà®²à®¾à®µ":4596,"Ġà®µà®¾à®¯à®¿à®²":4597,"à®ĩà®µà¯įà®µà¯ģà®²à®ķà®¿à®²à¯į":4598,"Ġà®µà®°à¯ģà®µà®¾à®°à¯įà®ķà®³à¯į":4599,"Ġà®¨à®°à®ķà®¤à¯įà®¤":4600,"Ġtranslated":4601,"à¯Ĩà®°à®¿à®ķà¯įà®ķà®¾":4602,"Ġà®ªà®£à¯įà®£":4603,"Ġà®ķà®¾à®£à®®à®¾à®Łà¯įà®Łà¯Ģà®°à¯į":4604,"à®®à®°à¯įà®¯":4605,"à®¿à®¤à¯įà®¤à®¾à®²à¯į":4606,"à®¿à®Ļ":4607,"Ġà®Ĵà®¤à¯įà®¤":4608,"à¯ģà®ķà®³à¯Īà®ªà¯į":4609,"ong":4610,"à¯Īà®®à®Łà¯įà®Ł":4611,"à®®à®¿à®Ł":4612,"à®·à¯Īà®¤à¯įà®¤":4613,"Ġà®ļà¯ģà®µà®°à¯įà®ķà¯įà®ķà®¤à¯įà®¤à®¿à®²à¯į":4614,"Ġà®ħà®©à¯Īà®µà®°à¯ģà®®à¯į":4615,"Ġà®ħà®ķà¯įà®ķà®¿à®°à®®à®®à¯į":4616,"à¯ģà®ĥà®ªà¯į":4617,"Ġà®¤à¯Ģà®Ļà¯įà®ķà¯ģ":4618,"Ġà®µà®ļà®ªà¯įà®ªà®Łà¯ģà®¤à¯įà®¤à®¿à®ķà¯į":4619,"à¯Ĥà®¸à¯ģà®ĥà®ªà¯į":4620,"Ġà®ķà®¾à®ĥà®ªà®¿à®°à¯įà®ķà®³à¯Ī":4621,"à®İà®²à¯įà®²à®¾":4622,"Ġà®īà®©à®ķà¯įà®ķ":4623,"CO":4624,"à®µà®±":4625,"Ġà®ħà®¤à¯įà®¤à®¾à®Łà¯įà®ļà®¿à®ķà®³à¯ģà®Łà®©à¯į":4626,"à®ĩà®±à¯Īà®µà®©à¯ģà®ķà¯įà®ķà¯ģ":4627,"Ġà®¤à®µà¯įà®°à®¾à®¤à¯įà®¤":4628,"à®¾à®ķà¯įà®ķà¯ģà®®à¯į":4629,"ussia":4630,"à®¿à®Łà®¤à¯įà®¤à®¿à®²à¯ģà®®à¯į":4631,"à®ªà®¿à®´":4632,"Ġà®īà®¤à®µà®¿à®¯à®¾à®³":4633,"à®ħà®®à¯įà®®":4634,"à®ļà®¨à¯įà®¤":4635,"Ġà®ķà®¾à®ªà¯įà®ªà®¾à®±à¯įà®±à®¿à®©à¯ĭà®®à¯į":4636,"Ġà®ļà¯Ĩà®µà®¿à®¯à¯ģà®±à¯ģà®µ":4637,"Ġà®¨à®°à®ķà®µà®¾à®ļ":4638,"Ġà®ķà¯Ĥà®±à®ªà¯įà®ªà®Łà¯įà®Łà®¾à®²à¯į":4639,"à¯Ĩà®´à¯ģà®¤à¯įà®¤":4640,"Ġà®İà®µà®°à¯ģà®Łà¯Īà®¯":4641,"oc":4642,"ug":4643,"à®¤à¯įà®¤à®¿à®²à¯ģà®³à¯įà®³":4644,"à®İà®©à®ķà¯į":4645,"à®ĥà®ªà¯į":4646,"Ġà®īà®±à¯įà®±à¯ģ":4647,"Ġà®Ĭà®±à¯įà®±":4648,"Ġà®µà®°à¯ģà®¨à¯įà®¤à¯ģà®ķà®¿à®±à¯ĩà®©à¯į":4649,"Ġà®ļà¯Ĩà®¯à¯įà®ķà®¿à®±à¯ĩà®©à¯į":4650,"à®Łà¯įà®ļà®¿à®¯":4651,"ĠKDE":4652,"à®¿à®ªà¯įà®ªà®¤à¯Ī":4653,"à®ľà¯įà®ľ":4654,"Ġà®İà®¤à®¿à®°à¯įà®ªà®¾à®°à¯įà®ķà¯įà®ķ":4655,"Ġà®¸à®²à®¾à®®à¯į":4656,"Ġà®ªà¯Ĩà®°à¯ģà®®à¯Īà®¯à®Łà®¿à®¤à¯įà®¤à¯ģà®ķà¯į":4657,"à®®à®©à¯į":4658,"Ġà®ªà®¿à®°à®¿à®¯":4659,"Ġà®ĵà®°":4660,"à¯įà®ªà¯į":4661,"Ġà®¤à®¾à®°":4662,"à®ļà®¿à®¸à¯įà®ķà¯Ĭ":4663,"Ġà®Ĵà®ªà¯įà®ªà®Ł":4664,"Ġà®¤à¯ģà®Łà¯Īà®ķà¯įà®ķ":4665,"à¯Īà®¯à®¾à®¤à¯ģ":4666,"à¯Īà®ķà®³à®¾à®²à¯į":4667,"Ġà®īà®£à¯įà®Łà®¾à®ķà¯įà®ķà®¿à®©à®¾à®©à¯į":4668,"Ġà®ªà®Łà¯Īà®¤à¯įà®¤à®µà®©à¯į":4669,"à®Ĵà®°à¯ģà®µà®°":4670,"Ġà®İà®Ļà¯įà®ķà¯ģ":4671,"ATOR":4672,"à¯įà®Ĵ":4673,"Ġà®ķà®¾à®²à®¤à¯įà®¤à®¿à®²à¯į":4674,"à®¾à®Łà®¿":4675,"Ġà®ħà®Łà®¿à®¯à®¾à®°à¯įà®ķà®³à¯Ī":4676,"à®¿à®®à¯į":4677,"Ġà®¤à®µà®±à®¿à®¯":4678,"Ġà®ĩà®£à¯Īà®ķà¯įà®ķ":4679,"à®ķà®³à¯į":4680,"ĠY":4681,"Ġà®ħà®ªà¯įà®ªà®Łà®¿à®¯":4682,"à®¤à¯įà®¤à®¾à®©à¯į":4683,"Ġà®ĩà®°à¯ģà®ªà¯įà®ªà®¤à¯Ī":4684,"Ġà®¤à®¿à®°à¯ģà®ªà¯įà®¤à®¿":4685,"à®ķà®²":4686,"Ġà®µà®¿à®ļà®¾à®°à®£":4687,"à®¤à¯Ĭà®ķ":4688,"escrip":4689,"à®®à®¾à®Łà¯įà®Łà®¾à®¤à¯ģ":4690,"Ġà®ĩà®Łà®¤à¯ģ":4691,"Ġà®īà®³à¯įà®³à¯ĩ":4692,"à¯įà®ķà®³à¯Īà®ķà¯į":4693,"Ġà®ķà¯įà®³à®¿à®ķà¯į":4694,"à®µà®¾à®±":4695,"Ġà®ļà¯Ĩà®²à¯į":4696,"ome":4697,"à®ħà®Łà¯ģà®¤à¯įà®¤":4698,"Ġà®ħà®ªà¯įà®ªà®Ł":4699,"à®İà®´à¯ģà®¤":4700,"à®ļà®®":4701,"Ġà®īà®°à®¿à®®à¯Ī":4702,"à¯Ĩà®Łà¯ģà®ªà¯įà®ª":4703,"Ġà®ħà®´à®¿à®µ":4704,"à®²à®¾à®®à¯ģà®©à¯į":4705,"Ġà®ļà®¾à®ªà¯įà®ª":4706,"Ġà®®à¯ģà®¤à®²à®¿à®²à¯į":4707,"à¯Ĥà®Łà¯įà®Łà¯ģà®®à¯į":4708,"AME":4709,"Ġà®µà®¿à®Łà¯ģà®µà¯ĩà®©à¯į":4710,"Ġà®ħà®¤à®±à¯įà®ķà®¾à®ķ":4711,"à¯įà®ķà®³à¯Īà®¤à¯į":4712,"Ġà®¨à®¿à®ļà¯įà®ļà®¯":4713,"à®®à¯Īà®¯à¯ģà®®à¯į":4714,"Ġà®¤à®¾à®©à®¿à®¯":4715,"Ġà®¤à¯Ĭà®ķà¯ģà®ªà¯įà®ª":4716,"egion":4717,"à®ħà®¤à¯Īà®ªà¯į":4718,"Ġstat":4719,"à®¤à¯ģà®ª":4720,"Ġà®ķà®Łà®²à®¿à®²à¯į":4721,"Ġà®ļà®¤à®¿":4722,"Ġà®ħà®©à¯Īà®¤à¯įà®¤à¯ģà®ªà¯į":4723,"Ġà®ķà®¿à®Łà®ķà¯įà®ķ":4724,"Ġà®ķà®¤à¯Ī":4725,"Ġà®ķà®Łà¯įà®Łà®³à¯Īà®ķà®³à¯Ī":4726,"Ġà®µà®°à®¿":4727,"à®¿à®ķà®³à®¿à®Łà®®à¯į":4728,"à®ħà®µà®°à¯įà®ķà®³à®¿à®©à¯į":4729,"Ġà®ªà¯ģà®©à®¿à®¤":4730,"à¯ĭà®°à¯į":4731,"à®¾à®¯à®¿à®©à¯ģà®®à¯į":4732,"Ġà®µà¯Ĩà®±à¯ģà®¤à¯įà®¤":4733,"Ġà®ªà®¤à¯įà®¤à¯ģ":4734,"à¯įà®®à¯ĩà®ļ":4735,"à®Łà®¿à®¯à¯ĭ":4736,"ĠSt":4737,"Ġà®ıà®±à¯įà®±à¯ģà®®à®¤à®¿":4738,"Ġà®ĩà®°à®ķà¯įà®ķ":4739,"Ġà®ħà®²à¯įà®²à®¾à®®à®²à¯į":4740,"à®µà®¿à®³à¯Īà®¯":4741,"Ġà®¨à®²à¯įà®²à®¤à¯ģ":4742,"Ġà®ķà¯ĩà®Łà¯įà®Łà¯ģà®ķà¯į":4743,"LE":4744,"Ġà®ļà¯Ĥà®´à¯įà®¨à¯įà®¤":4745,"Ġà®ļà¯Ĩà®²à¯ģà®¤à¯įà®¤à¯ģà®ķà®¿à®±à®¾à®©à¯į":4746,"Ġà®ĩà®¤à¯Īà®ªà¯į":4747,"à®¨à¯į":4748,"Ġà®Ĵà®©à¯įà®ªà®¤à¯ģ":4749,"Ġà®µà®Łà®¿à®µà®®à¯į":4750,"à®¿à®°à¯į":4751,"Ġà®īà®£à®°à¯įà®¨à¯įà®¤à¯ģ":4752,"Ġà®īà®£à®µ":4753,"Ġà®ķà®¾à®£à¯įà®ķà®¿à®±":4754,"à®¤à®¿à®°à¯ģà®®à¯įà®ª":4755,"à®ĩà®¤à®¿à®²à¯į":4756,"à®¾à®Łà¯ģà®ķà®³à¯į":4757,"Ġà®īà®°à¯ģà®µà®¾à®ķà¯įà®ķà¯ģà®ķ":4758,"à®ħà®£à¯ģà®ķ":4759,"ting":4760,"(à®ħà®¤à¯ģ":4761,"Ġà®ĩà®°à¯ģà®ķà¯įà®ķà®²à®¾à®®à¯į":4762,"à¯ĩà®³à¯Ī":4763,"à¯įà®ªà®Ł":4764,"à®ķà®¿à®³":4765,"ype":4766,"à®ħà®¤à¯įà®¤à®ķà¯Īà®¯":4767,"à®¤à¯įà®¤à®¿à®±à¯įà®ķà¯ģà®®à¯į":4768,"à®µà®Łà®¿à®µ":4769,"Ġà®İà®µà®°à¯Ī":4770,"Ġà®ªà¯ģà®°à®¿à®¨à¯įà®¤à¯ģ":4771,"à®Łà¯Īà®ķ":4772,"end":4773,"Ġà®ªà®¯à®©à¯įà®ªà®Łà¯ģà®¤à¯įà®¤à®¿":4774,"Ġà®ªà¯ģà®ķà®²":4775,"à¯ģà®Łà¯Ī":4776,"Ġà®ªà®°à®¿à®ķà®¾à®ļà®®à¯į":4777,"Ġà®ļà¯Ģà®ķà¯įà®ķà®¿à®°":4778,"Ġà®īà®£à¯įà®Łà®¾à®ķà¯įà®ķà®¿à®¯":4779,"à®®à®ķà¯įà®ķà®³à¯Ī":4780,"Ġà®ĩà®Łà¯įà®Łà¯ģà®ķà¯įà®ķ":4781,"Ġà®¨à®¾à®Ļà¯įà®ķà®³à¯ģà®®à¯į":4782,"france":4783,"à¯Īà®ªà¯įà®ªà®Ł":4784,"Ġà®ķà¯ģà®ªà¯įà®ª":4785,"Ġà®µà¯ĩà®¤à®©à¯Īà®¯à®¿à®²à¯į":4786,"Ġà®®à®¾à®°à¯įà®ķà¯įà®ķà®¤à¯įà®¤à®¿à®²à¯į":4787,"Ġà®ħà®µà®±à¯įà®±à¯Īà®ķà¯į":4788,"Ġà®Łà®¿à®µà®¿à®Łà®¿":4789,"à®©à¯įà®®à¯Īà®¯à®¾à®©":4790,"Ġà®ħà®Łà¯įà®Łà®µà®£à¯Ī":4791,"Ġà®ķà¯Ĥà®±à¯ģà®ķà®¿à®©à¯įà®±":4792,"Ġà®µà¯ĩà®¤à®¤à¯įà®¤à¯Īà®ķà¯į":4793,"à®®à®¾à®ķà®¤à¯į":4794,"Ġà®ªà®±à¯įà®±à®¿à®ķà¯į":4795,"Ġà®¤à®¾à®®à®¤":4796,"à¯įà®Łà®¿":4797,"Ġà®ªà®¿à®°à®µà¯ĩà®ļà®¿à®ķà¯įà®ķà®ļà¯į":4798,"Ġà®®à®ķà¯įà®ķà®³à®¿à®²à¯į":4799,"à®¿à®ķà¯įà®ķà®¿à®©à¯įà®±à®©à®°à¯į":4800,"à®¿à®ĥà®ªà¯į":4801,"Ġà®ĩà®±à®ķà¯įà®ķà®¿à®¯à®°à¯ģà®³":4802,"Ġà®ļà®¾à®¯à¯įà®¨à¯įà®¤à¯ģ":4803,"Ġà®ªà®²à®©à¯Ī":4804,"Ġà®ĩà®£à¯Īà®¯":4805,"Ġà®®à®©à¯įà®©à®¿à®ªà¯įà®ªà¯ģ":4806,"à®İà®Ļà¯įà®ķà®³à¯ģà®ķà¯įà®ķà¯ģ":4807,"Ġà®ªà®¿à®°à®¾à®°à¯įà®¤à¯įà®¤à®¿à®¤à¯įà®¤à®¾à®°à¯į":4808,"11":4809,"Ġ#":4810,"à¯ģà®ķà¯įà®ķà®¿":4811,"à¯įà®ļà¯į":4812,"Ġà®ļà®¤à¯įà®¤à®¿à®¯à®¤à¯įà®¤à¯Ī":4813,")à®²":4814,"Ġà®īà®¯à®¿à®°à¯ģà®³à¯įà®³":4815,"à®µà®´à®¿":4816,"à®¤à®¾à®Ļà¯įà®ķà®³à¯į":4817,"à®¤à®¿à®¯à®¾à®ķ":4818,"à®¿à®°à¯ģà®¨à¯įà®¤à®¾à®°à¯įà®ķà®³à¯į":4819,"Ġà®ªà®¿à®°à®ķà®¾à®ļ":4820,"à®¿à®°à¯ģà®ªà¯įà®ªà®¤à¯ģà®®à¯į":4821,"Ġà®¤à¯Ĥà®¤à®°à¯įà®ķà®³à¯Īà®ªà¯į":4822,"Ġà®ªà®¿à®®à¯įà®ªà®®à¯į":4823,"à®®à®¿à®©à¯įà®©":4824,"Ġà®¤à¯Ĥà®¤à®°à®¾à®ķ":4825,"Ġà®ªà®Ļà¯įà®ķà¯ģ":4826,"Ġà®¤à®¿à®¯à®¾à®©":4827,"Ġà®µà¯ĩà®¤à®¤à¯įà®¤à®¿à®©à¯į":4828,"Ġà®ķà¯Ĥà®Łà¯įà®Łà®¤à¯įà®¤à®¿à®©à®°":4829,"Ġà®Ĵà®³à®¿":4830,"Ġà®ħà®®à¯Īà®ķà¯įà®ķà®µà¯ģà®®à¯į":4831,"Ġà®¹à®¾à®°à¯Ĥ":4832,"à®Ļà¯įà®ķà®³à¯ģà®ķà¯įà®ķà¯Ĩà®²à¯įà®²à®¾à®®à¯į":4833,"Ġà®ħà®Łà¯Īà®¨à¯įà®¤à¯ģ":4834,"à®īà®©à¯į":4835,"à®ªà¯įà®²à¯Ģà®¸":4836,"Ġà®¤à¯Ĩà®°à®¿à®µ":4837,"à®µà®°à®¿à®ļà¯Ī":4838,"Ġà®¨à®©à¯įà®ķà®±à®¿à®ķà®¿à®±à®¾à®©à¯į":4839,"ĠTRAN":4840,"Ġà®®à®©à¯Īà®µà®¿à®¯à®°":4841,"SLATOR":4842,"ĠTRANSLATOR":4843,"ĠTRANSLATORS":4844,"à®µà®¿à®¯":4845,"Ġà®Ĩà®ķà¯įà®ķà®¿à®µà®¿à®Ł":4846,"Ġà®¸à¯ģà®²à¯Īà®®à®¾à®©":4847,"à®ķà¯įà®ķà¯Ĥà®Ł":4848,"à®ķà¯įà®ļ":4849,"Ġà®ļà¯Ĩà®¯à¯įà®µà®¾à®¯à®¾à®ķ":4850,"Ġà®¨à¯Ģà®ķà¯įà®ķà®¿":4851,"Ġà®ķà®¿à®°à¯ģà®ªà¯Īà®¯à¯ģà®Łà¯Īà®¯à®µà®©à®¾à®ķà®µà¯ģà®®à¯į":4852,"Ġshould":4853,"à®¿à®ªà¯įà®°à®¯":4854,"Ġà®ĩà®°à¯ģà®ķà¯įà®ķà®¿à®©à¯įà®±à¯Ģà®°à¯įà®ķà®³à¯į":4855,"à®ªà®¤à®¿à®µ":4856,"Ġà®Ĵà®Łà¯įà®Łà®ķà®®à¯į":4857,"à¯ģà®Łà¯įà®ª":4858,"Ġà®İà®©à¯įà®ªà®¤à¯Īà®ªà¯į":4859,"Ġà®ļà¯Ĩà®¯à®²à¯įà®ķà®³à¯Īà®ļà¯į":4860,"Ġà®¨à®®à¯įà®®à®¿à®Łà®®à®¿à®°à¯ģà®¨à¯įà®¤à¯ģ":4861,"Ġà®ļà¯Ĩà®²à¯ģà®¤à¯įà®¤à¯ģà®®à¯į":4862,"Ġà®¨à¯ģà®´à¯Īà®¯à¯ģà®Ļà¯įà®ķà®³à¯į":4863,"Ġà®®à¯Ĥà®¸à®¾à®µà®¿à®©à¯į":4864,"Ġà®ªà®¿à®¨à¯įà®¤":4865,"à®¿à®Łà¯Īà®¯à®¿à®²à¯ģà®®à¯į":4866,"à®µà®©à¯ģà®ķà¯įà®ķà¯ģ":4867,"Ġà®¨à®¾à®Łà®¿à®¯à®µà®°à¯įà®ķà®³à¯ģà®ķà¯įà®ķà¯ģ":4868,"Ġà®¤à¯ĩà®µà¯Īà®¯à®¾à®©":4869,"Ġà®ªà®¯à®©à®°à¯į":4870,"Ġà®ķà®±":4871,"à¯Ģà®ķà¯įà®ķ":4872,"à®µà¯ĩà®¤à®©à¯Ī":4873,"Ġà®ķà®³à®¿à®®":4874,"Ġà®µà®²à®ķà¯įà®ķà®°":4875,"Ġà®ĵà®¤à®¿à®ķà¯įà®ķ":4876,"à¯įà®ķà®¿à®±à®¾à®©à¯į":4877,"Ġà®µà®¿à®¯à®¾à®ª":4878,"Ġà®®à®¾à®²à¯Īà®¯à®¿à®²à¯ģà®®à¯į":4879,"ĠOF":4880,"à®¨à®©à¯įà®®":4881,"Ġà®¨à®·à¯įà®Łà®µà®¾à®³":4882,"à®Ĩà®µà®£":4883,"à®±à¯įà®ªà¯ĭà®¤à¯ģ":4884,"Ġà®¨à®¿à®°à®¾à®ķà®°à®¿à®ķà¯įà®ķ":4885,"VD":4886,"Ġà®īà®¤à¯įà®¤à®°":4887,"Ġà®µà®²à®ªà¯įà®ªà¯ģà®±":4888,"Ġà®¤à¯ģà®ķà¯įà®ķà®ªà¯įà®ªà®Łà®µà¯ģà®®à¯į":4889,"à®¾à®Łà¯į":4890,"à®ıà®©à¯į":4891,"Ġà®ķà¯Ĥà®Łà¯įà®Łà®¤à¯įà®¤à®¿à®©à®°à¯į":4892,"Ġà®ªà®¯à®ªà®ķ":4893,"à¯įà®¤à¯įà®¤à¯ģà®ķà¯į":4894,"Ġà®ªà®°à®¿à®ª":4895,"Ġà®ķà¯Īà®ļ":4896,"Ġà®®à¯Ĩà®¯à¯įà®ªà¯įà®ª":4897,"à®¿à®ªà¯įà®ªà®µà®©à¯į":4898,"à®®à¯ģà®¨à¯įà®¤":4899,"à®¾à®°à¯įà®ķà®³à®¾à®¯à®¿à®©à¯į":4900,"à®²à®ķà¯Ī":4901,"à®©à®¾à®ķà®¿à®¯":4902,"à®ļà¯Ĩà®¯à¯įà®¤":4903,"Ġà®¤à¯Ģà®°à¯įà®ķà¯įà®ķ":4904,"Ġorg":4905,"Ġà®ĩà®¯à®ķà¯įà®ķà®¿":4906,"vin":4907,"Ġà®ħà®µà®°à¯ģà®ķà¯įà®ķà¯ģà®ķà¯į":4908,"à¯Īà®¤à¯įà®¤à¯ģà®ªà¯į":4909,"Ġà®ªà®¾à®¤à¯ģà®ķà®¾à®¤à¯įà®¤":4910,"Ġà®ļà¯Ĩà®¯à¯įà®ķà®¿à®±à®¾à®©à¯ĭ":4911,"Ġà®¤à¯Ĭà®²à¯Ī":4912,"Ġ[":4913,"à®¸à¯įà®ķ":4914,"Ġà®ħà®©à¯ģà®ªà¯įà®ªà®µà®¿à®²à¯įà®²à¯Ī":4915,"à®ħà®µà®°à¯ģà®ķà¯įà®ķà¯ģ":4916,"à®¿à®ĥà®ª":4917,"Ġà®ķà¯Īà®ļà¯ĩà®¤":4918,"à®µà®°à¯įà®ķà®³à®¾à®ķà®¿":4919,"Ġà®µà¯Ĩà®±à¯įà®±à®¿à®ķà®°à®®à®¾à®ķ":4920,"Ġà®ªà®¾à®°à¯į":4921,"Ġà®¤à¯ĩà®°à¯įà®¨à¯įà®¤à¯Ĩà®Łà¯ģà®¤à¯įà®¤à¯ģà®ķà¯į":4922,"Ġv":4923,"à®¿à®Ĳ":4924,"à¯įà®®à¯Īà®¯à®¾à®ķ":4925,"Ġà®¨à®©à¯įà®®à¯Īà®¯à®¾à®©":4926,"à®©à®¾à®ķà®µà¯ģà®®à¯į":4927,"escription":4928,"Ġà®ħà®²à¯įà®²à®¾à®¹à¯įà®µà¯ģà®Łà®©à¯į":4929,"Ġà®ļà¯Ĩà®¯à®²à¯įà®ķà¯Ĥà®±à¯ģ":4930,"Ġà®ªà®ķà®²à¯Ī":4931,"Ġà®µà®¿à®°à¯ģà®®à¯įà®ªà¯ģà®ķà®¿à®±à¯ĩà®©à¯į":4932,"Ġà®²à¯į":4933,"à®¤à¯ģà®°":4934,"à¯ģà®ķà¯įà®ķà®¿à®Łà¯Īà®¯à¯ĩ":4935,"Ġà®ĩà®°à®¤à¯įà®¤":4936,"Ġà®¨à®·à¯įà®Łà®®à®Łà¯Īà®¨à¯įà®¤":4937,"à®ļà¯Ĩà®¯à®²à¯įà®ª":4938,"Ġà®İà®´à¯ģà®¤à¯įà®¤à¯ģà®°à¯ģ":4939,"Ġà®ļà¯ĩà®°à¯ģà®®à¯į":4940,"Ġà®ªà¯Ĩà®±à¯ģà®µà®¤à®±à¯įà®ķà®¾à®ķ":4941,"Ġà®µà®¾à®´à¯įà®ķà¯įà®ķà¯Īà®¯à®¿à®²à¯į":4942,"Ġà®ĩà®±à¯ģà®¤":4943,"Ġà®¨à¯ĩà®°à¯įà®¨à¯įà®¤à®¤à¯ģ":4944,"Ġà®¨à®¾à®Łà®¿":4945,"Ġà®ħà®ļà¯įà®ļà¯ģà®ªà¯įà®ªà¯Ĭ":4946,"Ġà®ªà®¿à®±à®¨à¯įà®¤":4947,"à®¿à®ķà®°à¯į":4948,"à®ªà¯ģà®ķ":4949,"Ġà®İà®Ļà¯įà®ķ":4950,"Ġà®ĩà®´à¯ģà®¤à¯įà®¤":4951,"à®¨à¯ĩà®°à®¾à®©":4952,"Ġà®ªà¯Ģ":4953,"à®¿à®±à®¾à®°à¯į":4954,"à®ıà®©à¯Ĩà®©à¯įà®±à®¾à®²à¯į":4955,"Ġà®ªà®¾à®°à¯įà®ķà¯įà®ķà®µà¯ģà®®à¯į":4956,"à¯Īà®ķà¯įà®ķà¯ģà®ªà¯į":4957,"Ġà®µà®¿à®ļà®¾à®²à®®à®¾à®©":4958,"Ġà®ĩà®°à¯ģà®¨à¯įà®¤à¯ģà®®à¯į":4959,"à®Ĵà®²à®¿":4960,"Ġà®ķà¯ģà®±à®¿à®ªà¯įà®ªà¯ģ":4961,"Ġà®ħà®¤à®¿à®°":4962,"Ġà®¨à®¿à®±à¯Īà®¨à¯įà®¤":4963,"Ġà®µà®¿à®ķ":4964,"rom":4965,"Ġà®ĩà®´à®¨à¯įà®¤à¯ģ":4966,"lo":4967,"à®¨à¯įà®¤à¯Ī":4968,"Ġà®ļà¯Ĩà®¯à¯įà®ªà®µà®°à¯į":4969,"Ġà®ªà¯Īà®¤à¯įà®¤à®¿à®¯à®ķà¯įà®ķà®¾à®°":4970,"à®ķà®°à¯į":4971,"Ġ--":4972,"à®ħà®µà®±à¯įà®±à¯Ī":4973,"à¯ĩà®±à¯ģ":4974,"Ġà®®à¯ģà®ķà®®à¯į":4975,"Ġà®µà®¿à®Łà¯įà®Łà¯ĩà®©à¯į":4976,"à®µà®°à®¿à®©à¯į":4977,"Ġà®ķà®µà®²":4978,"Ġà®µà®´à®¿à®ªà¯įà®ªà®Ł":4979,"à®ıà®±à¯įà®ª":4980,"à®®à¯ģà®¤à®²à¯į":4981,"à®İà®²":4982,"Ġà®ªà¯Ĭà®¤à¯įà®¤à®¾à®©à¯Ī":4983,"onth":4984,"à®ĩà®¸":4985,"à¯įà®£à®¯":4986,"Ġà®µà®¾à®Ļà¯įà®ķà®¿":4987,"uer":4988,"_:":4989,"à®¨à®¿à®ķà®´":4990,"Ġà®®à®±à¯Īà®µ":4991,"à®¿à®ªà®¤à®¿":4992,"Ġà®ķà®Łà®©à¯į":4993,"Ġsp":4994,"à®¿à®®à¯ģà®±à¯Ī":4995,"Ġà®ķà®°à¯ģà®¤à¯įà®¤à¯ģ":4996,"Ġà®ĩà®°à®Łà¯įà®Ł":4997,"Ġà®ķà¯Īà®ķà®³à¯į":4998,"Ġà®ªà®´à®¿":4999,"Ġà®¤à¯ģà®ªà¯įà®ª":5000,"à®¿à®°à¯ģà®ªà¯įà®ªà®¤à¯Ī":5001,"à¯Ģà®Łà¯įà®Łà¯Ī":5002,"Ġà®ħà®µà®©à¯Īà®ķà¯į":5003,"Ġà®¤à¯ģà®£à¯įà®Łà¯ģ":5004,"Ġà®ĩà®´à®ªà¯įà®ª":5005,"à®ķà®°à¯ģà®µ":5006,"Ġà®¨à®¿à®©à¯įà®±à¯ģ":5007,"à¯ĩà®ļà®¿":5008,"Ġà®ķà®²à¯įà®µà®¿":5009,"à®³à®¿à®ķà¯įà®ķà¯ģà®®à¯į":5010,"Ġà®®à®¾à®±à¯įà®±à®¿":5011,"Ġà®īà®²à®ķà®¤à¯įà®¤":5012,"Ġà®ļà¯Ĩà®¯à¯įà®¤à®¿à®¯à¯Ī":5013,"Ġà®ķà¯ĩà®³à¯ģà®Ļà¯įà®ķà®³à¯į":5014,"à®¿à®¤à®´à¯į":5015,"Ġà®ħà®¤à¯ĩ":5016,"à®¤à¯įà®¤à®¾à®°à¯į":5017,"à®¤à¯ģà®¤à®¾à®©à¯į":5018,"à®±à¯įà®±à¯Ī":5019,"ase":5020,"à®®à®¿à®©à¯įà®±à®¿":5021,"à¯Īà®¯à¯ģà®®à¯ĩ":5022,"à®ªà¯įà®°à®¾à®¸à®°à¯ĭ":5023,"Ġà®®à¯Ģà®³à¯įà®µ":5024,"Ġà®®à®²à¯Īà®ķà®³à¯Ī":5025,"Ġà®¤à®¿à®°à¯ģà®Ł":5026,"Ġà®¸à¯įà®ª":5027,"Ġà®µà¯Ĩà®±à¯ģà®ķà¯įà®ķ":5028,"à®ļà¯Ĭ":5029,"Ġà®µà®¾à®©à®®à¯į":5030,"PI":5031,"à®¨à®ķà®°":5032,"Ġcoun":5033,"Ġà®ħà®´à¯Īà®ªà¯įà®ªà¯ģ":5034,"Ġà®¨à®¿à®°à¯įà®£à®¯":5035,"Ġà®ħà®´à¯Īà®¤à¯įà®¤à¯ģà®ķà¯į":5036,"lass":5037,"à®µà®¿à®°à¯ģà®ªà¯įà®ª":5038,"Ġà®¨à®¿à®°à¯įà®ªà¯įà®ª":5039,"Ġà®ħà®ŀà¯įà®ļà¯ģà®Ļà¯įà®ķà®³à¯į":5040,"Ġà®¤à®¤à¯įà®¤":5041,"Ġà®İà®Łà¯įà®Łà¯ģ":5042,"Ġà®µà¯ĩà®£à¯įà®Łà¯ģà®®à¯ĩ":5043,"à®¿à®¯à®¾à®¯à®®à¯į":5044,"Ġà®ļà®¿à®±à®ªà¯įà®ª":5045,"ountry":5046,"à®®à¯Īà®¯à®¾à®ķ":5047,"Ġà®ķà®£à¯įà®Łà®¾à®°à¯į":5048,"Ġà®ķà®¾à®°à®¿à®¯à®¤à¯įà®¤à¯Ī":5049,"à®°à®¾à®³à®®à®¾à®©":5050,"Ġà®ķà¯Ĥà®°à¯įà®¨à¯įà®¤à¯ģ":5051,"Ġà®ķà®Łà®®à¯Īà®¯à®¾à®ķà¯ģà®®à¯į":5052,"à®¿à®©à®°à¯ģà®®à¯į":5053,"à¯ģà®ªà¯įà®ªà®Łà¯ģà®¤à¯įà®¤":5054,"Ġà®īà®£à¯įà®Łà®¾à®ķ":5055,"Ġà®¨à¯ĩà®°à¯įà®µà®´à®¿à®¯à¯Ī":5056,"Ġà®ķà¯ģà®´à®ªà¯įà®ªà®¤à¯įà®¤à¯Ī":5057,"à®Ļà¯įà®ķà¯ģà®¤à¯įà®¤à¯ģ":5058,"à®ĩà®°à¯ģà®ķà¯įà®ķ":5059,"à®ĩà®²":5060,"à®¿à®ķà®³à¯Īà®ªà¯į":5061,"Ġà®µà®£à®ķà¯įà®ķà®¤à¯įà®¤à®¿à®±à¯įà®ķà¯ģà®°à®¿à®¯":5062,"Ġà®ķà®Łà¯įà®Łà®³à¯Īà®¯à®¿à®Łà¯įà®Ł":5063,"Ġà®ħà®µà®°à¯įà®ķà®³à®¿à®²à®¿à®°à¯ģà®¨à¯įà®¤à¯ģ":5064,"Ġà®¤à¯Ĥà®¯à®µà®©à¯į":5065,"Ġ<":5066,"Ġà®ħà®µà®°à¯įà®ķà®³à¯įà®¤à®¾à®®à¯į":5067,"à®¿à®µà®ķ":5068,"à®¿à®°à¯ģà®ķà¯įà®ķà®µà¯ģà®®à¯į":5069,"Ġà®¨à¯Ĩà®°à¯ģà®ªà¯įà®ªà¯ģ":5070,"à®¾à®²à¯Ī":5071,"Ġà®İà®Ļà¯įà®ķà®³à®¿à®Łà®®à¯į":5072,"Ġà®ĩà®ªà¯įà®±à®¾à®¹à¯Ģà®®à¯į":5073,"à¯Ĩà®°à®¿à®¯à¯ģà®®à¯į":5074,"Ġà®µà®°à¯Īà®¯à®±":5075,"Ġà®ħà®Łà®¿à®¤à¯įà®¤":5076,"Ġà®µà®´à®¿à®ªà®Łà¯įà®Ł":5077,"à¯ģà®Łà®©à¯ĩà®¯à¯ĩ":5078,"à®¤à¯Ĩà®°à®¿à®¯à®¾à®¤":5079,"Ġà®ļà¯Ĩà®µà®¿à®®à®Ł":5080,"à¯Īà®¯à¯ģà®³à¯įà®³":5081,"Ġà®ĩà®°à®Łà¯įà®ļ":5082,"Ġfucking":5083,"Ġà®ĩà®Łà¯įà®Łà¯ģà®ķà¯įà®ķà®Łà¯įà®Ł":5084,"Ġà®®à®²à®ķà¯įà®ķà¯ģà®ķà®³":5085,"à¯ĭà®ļ":5086,"à®¤à®¿à®Łà®®à®¾à®ķ":5087,"à¯ģà®ķà¯įà®ķà¯ģà®±":5088,"Ġà®ªà¯Ĩà®°à¯ģà®Ļà¯įà®ķ":5089,"Ġà®ķà®¿à®°à¯ģà®ªà¯Īà®¯à®¾à®³":5090,"à®®à®¾à®¯à¯į":5091,"Ġà®īà®¤à®µà®¿à®¯à¯ģà®®à¯į":5092,"Ġà®ªà¯ģà®ķà®´à¯ģà®®à¯į":5093,"à®İà®ªà¯įà®ªà®Łà®¿":5094,"Ġà®ªà®¾à®¤à¯ģà®ķà®¾à®ķà¯įà®ķ":5095,"à®ħà®Łà¯Īà®µà¯ģ":5096,"Ġà®¨à®¿à®¯à®¾à®¯à®¤à¯į":5097,"Ġà®ĩà®¤à¯įà®¤à¯Ĥà®¤":5098,"à®¤à®©à®¾à®²à¯į":5099,"à®¤à¯įà®¤à®¿à®±à¯įà®ķà®¾à®ķ":5100,"à®¤à¯įà®¤à¯ģà®Łà¯Īà®¯":5101,"à®ħà®ŀà¯įà®ļà®²à¯į":5102,"Ġcounties":5103,"Ġà®Ĩà®®à®¾à®®à¯į":5104,"Ġà®ķà¯ĩà®Łà¯ģ":5105,"Ġà®ķà¯ĩà®Łà¯įà®Łà®¾à®°à¯įà®ķà®³à¯į":5106,"Ġà®ĩà®µà®°à¯įà®ķà®³à®¿à®²à¯į":5107,"Ġà®ħà®Łà¯Īà®¯à®¾à®³à®®à¯į":5108,"ire":5109,"à¯įà®ķà®³à®¿à®²à®¿à®°à¯ģà®¨à¯įà®¤à¯ģ":5110,"à®ħà®Łà¯Īà®µ":5111,"Ġà®¨à®©à¯įà®®à¯Īà®¯à®¾à®ķà¯ģà®®à¯į":5112,"(à®ħà®µà®°à¯įà®ķà®³à¯į":5113,")à®ªà¯į":5114,"à®¿à®²à¯ģà®®à¯ģà®³à¯įà®³":5115,"Ġà®ªà®²à®©à¯į":5116,"Ġà®ħà®µà¯įà®µà®¿à®°à®£à¯įà®Ł":5117,"Ġà®īà®Ļà¯įà®ķà®³à¯ģà®ķà¯įà®ķà¯ĩ":5118,"à®±à¯įà®ļà®¿":5119,"Ġà®·à¯Īà®¤à¯įà®¤à®¾à®©à®¿à®©à¯į":5120,"Ġà®İà®©à¯įà®©à¯Īà®¯à¯ģà®®à¯į":5121,"Ġà®ħà®°à¯ģà®¨à¯įà®¤":5122,"à®ªà®¯à®ªà®ķà¯įà®¤à®¿à®¯":5123,"Ġà®īà®¯à®°à¯įà®¨à¯įà®¤à®µà®©à¯į":5124,"à®µà®²à¯į":5125,"Ġà®ªà¯Ĥà®®à®¿à®ķà¯įà®ķà¯ģà®®à¯į":5126,"Ġà®®à¯ĩà®²à®¾à®³à®°à¯į":5127,"ard":5128,"Ġà®ªà®¿à®³à®¨à¯įà®¤à¯ģ":5129,"Ġà®Ĩà®µà¯ĩ":5130,"Ġà®ħà®¤à®¾à®µà®¤à¯ģ":5131,"Ġà®Īà®¸à®¾à®µ":5132,"Ġà®ªà¯įà®°":5133,"Ġà®İà®µà®°à¯įà®ķà®³à¯ģà®ķà¯įà®ķà¯ģ":5134,"à¯ĭà®¤à¯ģà®®à¯į":5135,"Ġà®®à®©à¯įà®©à®¿à®ªà¯įà®ªà®¾à®©à¯į":5136,"Ġà®µà¯ĩà®¤à®©à¯Īà®¯à®¿à®²à®¿à®°à¯ģà®¨à¯įà®¤à¯ģ":5137,"Ġà®īà®Łà®©à¯įà®ªà®Łà®¿à®ķà¯įà®ķà¯Ī":5138,"\"à®ħà®²à¯įà®²à®¾à®¹à¯į":5139,"Ġà®ªà¯Ĩà®£à¯įà®ķà®³à¯Īà®¯à¯ģà®®à¯į":5140,"à®¨à®Łà®¿à®ķà®°":5141,"Ġà®®à¯ģà®ķà®Ļà¯įà®ķà®³à¯į":5142,"à®µà¯Ĩà®±à¯įà®±à¯ģ":5143,"Ġà®µà®¿à®¤à®¿à®ķà¯įà®ķà®ªà¯įà®ªà®Łà¯įà®Ł":5144,"Ġà®¤à¯Ĥà®¤à®°à¯Īà®¯à¯ģà®®à¯į":5145,"à®ħà®¤à®±à¯įà®ķà®µà®°à¯įà®ķà®³à¯į":5146,"Ġà®¨à®¿à®ļà¯įà®ļà®¯à®®à®¾à®ķà®ªà¯į":5147,"(à®ĩà®¤à¯ģ":5148,"à®¨à¯Ĥà®¹":5149,"à®ļà¯Ĥà®©à®¿à®¯":5150,"(G":5151,"à®®à¯įà®¤à®¾à®©à¯į":5152,"à®Łà®¿à®¯à¯ģà®Ļà¯įà®ķà®³à¯į":5153,"Ġà®µà®¿à®³à®ķà¯įà®ķà®®à¯į":5154,"Ġunit":5155,"à¯ģà®ħ":5156,"à®ĩà®µà®°à¯įà®ķà®³à¯ģà®ķà¯įà®ķà¯ģ":5157,"à¯ģà®°à¯ģà®µ":5158,"Ġà®ªà®¿à®©à¯įà®ªà®±à¯įà®±à®¿à®¯":5159,"à®İà®Ļà¯įà®ķà®³à¯ģà®Łà¯Īà®¯":5160,"à®©à¯Īà®ķà¯į":5161,"Ġà®ķà¯Īà®ķà®³à¯Ī":5162,"Ġà®ķà¯Ĥà®±à®ªà¯įà®ªà®Łà¯įà®Ł":5163,"Ġà®¤à®¿à®°à¯ģà®ªà¯įà®ªà®ªà¯įà®ªà®Ł":5164,"à®¿à®Łà¯įà®Łà¯ģà®ķà¯į":5165,"Ġà®ĵà®Łà¯įà®Ł":5166,"Ġà®ĩà®¨à¯įà®¤à®¿à®°à®¿à®¯":5167,"Ġà®ħà®°à¯ģà®³à¯Ī":5168,"Ġà®¤à®²à¯Īà®µà®°à¯įà®ķà®³à¯į":5169,"à®µà®£à®ķà¯įà®ķà®¤à¯įà®¤à®¿à®±à¯įà®ķà¯ģà®°à®¿à®¯":5170,"Ġà®İà®±à®¿à®¨à¯įà®¤à¯ģ":5171,"Ġà®®à¯ģà®³à¯Īà®ªà¯įà®ª":5172,"Ġà®ħà®²à¯įà®²à®¾à®¹à¯įà®µà¯Īà®ªà¯į":5173,"Ġà®ĩà®²à¯įà®²à¯Īà®¯":5174,"Ġà®ħà®©à¯ģà®ªà®µà®¿à®ķà¯įà®ķ":5175,"à®µà¯Ĩà®³à®¿à®¯à¯ĩ":5176,"Ġà®µà®°à¯įà®£":5177,"Ġmonth":5178,"Ġwill":5179,"Ġà®ħà®±à®¿à®¨à¯įà®¤à®µà®©à®¾à®ķà®µà¯ģà®®à¯į":5180,"Ġà®ªà®ķà¯ģà®¤":5181,"Ġwor":5182,"à®¿City":5183,"Ġà®ĩà®°à¯ģà®ªà¯įà®ªà®µà®°à¯įà®ķà®³à¯į":5184,"Ġà®®à®©à®¿à®¤à®©à¯ģà®ķà¯įà®ķà¯ģ":5185,"Ġà®¨à®¿à®´à®²":5186,"Ġkde":5187,"Ġà®ķà®¾à®µà®²":5188,"Ġà®¤à®®à¯įà®®à¯ģà®Łà¯Īà®¯":5189,"à®¿à®©à®¿à®©à¯įà®±":5190,"à®©à¯Īà®¤à¯įà®¤":5191,"Ġà®ħà®¤à®±à¯įà®ķà¯ģà®ªà¯į":5192,"à®¿à®ķà®¿à®±à®¤à¯ģ":5193,"Ġà®®à®ķà®¿à®´à¯įà®ļà¯įà®ļà®¿":5194,"Ġà®µà®Łà®¿à®µà®®à¯Īà®ķà¯įà®ķ":5195,"Ġà®ªà®¿à®Łà®¿":5196,"Ġà®ªà®¯à®©à¯įà®ªà®Łà¯ģà®®à¯į":5197,"Ġà®ļà®¾à®¤à®©":5198,"Ġà®ķà¯ģà®´à¯ģ":5199,"Ġà®¨à®ķà®²à¯Ĩà®Łà¯ģà®ķà¯įà®ķ":5200,"ob":5201,"Ġà®ħà®¤à¯įà®¤à®¾à®Łà¯įà®ļà®¿à®¯à¯Ī":5202,"à®®à®¾à®±":5203,"Ġà®Ĩà®³":5204,"Ġà®ªà®¾à®¤à¯ģà®ķà®¾à®µà®²à®©à¯į":5205,")à®ķà¯įà®ķ":5206,"*.":5207,"à®ļà®¾à®©à¯įà®±":5208,"Ġà®®à¯Ĥà®²à®®à®¾à®ķ":5209,"à®ķà®Łà¯įà®Łà®³":5210,"Ġà®°à®¸à¯Ĥà®²":5211,"ines":5212,"Ġà®ķà¯Ĥà®±à¯ģà®µà®¤à¯ģ":5213,"Ġà®µà¯Īà®ķà¯įà®ķà¯ģà®®à¯į":5214,"Ġà®ªà®¿à®°à®¿à®¤à¯įà®¤":5215,"Ġà®ĩà®Łà®Ļà¯įà®ķà®³à®¿à®²à¯į":5216,"Ġà®ľà®¾à®ķà¯į":5217,"Ġà®¤à®¿à®Łà¯Ģà®°":5218,"we":5219,"Ġà®ķà¯Īà®¯à¯Ī":5220,"à¯Ģà®¯":5221,",%":5222,"Ġà®Īà®¸à®¾":5223,"Ġà®¤à®¿à®°à¯Ī":5224,"à¯Īà®ķà®³à¯Īà®ļà¯į":5225,"Ġà®¨à¯Ĩà®°à¯ģà®Ļà¯įà®ķà®¿":5226,"Ġà®īà®Ļà¯įà®ķà®³à¯Īà®¯à¯ģà®®à¯į":5227,"Ġà®¸à¯įà®Ł":5228,"Ġà®ĩà®°à¯ģà®µà®°":5229,"à¯įà®¸à¯įCity":5230,"à¯ģà®®à®¿à®Łà®®à¯į":5231,"à®ħà®³":5232,"à®ļà¯ģà®µà®°à¯įà®ķà¯įà®ķ":5233,"Ġà®®à¯ģà®´à¯ģà®µà®¤à¯ģà®®à¯į":5234,"à®°à¯ģà®¨à¯įà®¤":5235,"à®ħà®®à¯Ĩà®°à®¿à®ķà¯įà®ķà®¾":5236,"à¯ģà®ķà®³à®¿à®²à¯ģà®®à¯į":5237,"à®¿à®ķà¯Ī":5238,"Ġstate":5239,"à®®à®¿à®ķà®µà¯ģà®®à¯į":5240,"Ġà®®à®±à¯Īà®¤à¯įà®¤":5241,"à®¯à¯Ĥà®¸à¯ģà®ĥà®ª":5242,"à¯Ĩà®¯à¯įà®¤":5243,"Ġà®°à®¾à®ľ":5244,"Ġà®®à¯ģà®±à¯Īà®®à¯Ī":5245,"à®ıà®±à¯įà®±":5246,"Ġà®ªà®¿à®Łà®¿à®¤à¯įà®¤à¯ģ":5247,"Ġ{":5248,"Ġà®¨à®®à®ķà¯įà®ķ":5249,"à®¤à¯įà®¤à®¿à®±à¯įà®ķà®¾à®©":5250,"à®µà®¿à®Łà¯įà®Łà¯ģ":5251,"Ġà®ĩà®°à¯ģà®ķà¯įà®ķà®¿à®±à¯Ģà®°à¯įà®ķà®³à¯į":5252,"Ġà®¨à®Łà¯Ī":5253,"Ġà®Ĩà®ķà®¿à®¯à®µà®±à¯įà®±à®¿à®©à¯į":5254,"à®¤à¯Ĭà®²à¯Ī":5255,"Ġà®ĩà®µà®±à¯įà®±":5256,"Ġà®¹à®²":5257,"Ġà®®à¯Ĩ":5258,"à®¯à®©à¯į":5259,"à¯ģà®±à®®à¯į":5260,"Ġà®ļà¯Ĩà®¯à®²à¯įà®ķà®³à¯Ī":5261,"Ġà®µà¯ĩà®±à¯ģà®ª":5262,"Ġà®ªà®¯à®ªà¯įà®ªà®Łà¯ģà®ķà®¿à®±à¯ĩà®©à¯į":5263,"Ġà®ķà®¾à®£à¯įà®ªà®¿à®ķà¯įà®ķ":5264,"Ġà®¤à¯ĩà®µ":5265,"Ġà®µà®°à¯ģà®ķà®¿à®±à®¤à¯ģ":5266,"Ġà®İà®²à¯įà®²à®¾à®µà®±à¯įà®±à¯Īà®¯à¯ģà®®à¯į":5267,"Ġà®ħà®¨à¯ĩà®ķ":5268,"Ġà®İà®©à¯įà®ªà®¤à¯Īà®¤à¯į":5269,"Ġà®µà®¾à®²":5270,"à®¨à®¾à®®":5271,"Ġà®¨à®¿à®²à¯Īà®¯à¯Ī":5272,"ĠURL":5273,"Ġà®¤à¯Ģà®µà®¿à®°":5274,"à®¤à®©à¯įà®©":5275,"à®¾à®ªà¯įà®ªà¯ģ":5276,"à®®à¯ģà®Łà®¿à®¯à®¾à®¤à¯ģ":5277,"Ġà®ĩà®¸à¯įà®²":5278,"à®¸à®²à®¾à®®à¯ģà®©à¯į":5279,"à®¾à®±à¯įà®±à¯ģ":5280,"ice":5281,"Ġà®®à®¾à®±à®¾à®ķ":5282,"Ġdist":5283,"TML":5284,"Ġà®®à®±à®¨à¯įà®¤":5285,"Ġà®ķà¯Ĥà®ªà¯įà®ª":5286,"ont":5287,"à®İà®²à¯įà®²à®¾à®ªà¯į":5288,"à®Łà¯įà®°":5289,"Ġà®ĩà®°à¯ģà®ķà¯įà®ķà®¿à®±à®¤à®¾":5290,"Ġà®®à¯Ĥà®Łà¯įà®Ł":5291,"à®²à¯įà®²à®¾à®¤":5292,"ari":5293,"Ġà®µà®´à®¿à®ªà¯įà®ª":5294,"Ġà®µà®¿à®·":5295,"Ġà®¯à®¾à®°à¯Ī":5296,"Ġà®ħà®¤à®©à¯Īà®ķà¯į":5297,"great":5298,"Ġà®ķà¯Īà®¯à®¾à®³":5299,"Ġà®®à¯ģà®¤à¯įà®¤à®¿à®°à¯Īà®¯":5300,"à®ķà¯ģà®±à¯Īà®¨à¯įà®¤":5301,"à¯įà®®à®ķ":5302,"Ġà®ķà¯Ĭà®³à¯įà®ķ":5303,"Ġà®ªà®¾à®Ļà¯įà®ķ":5304,"Ġà®ķà®¾à®Łà¯įà®Łà®¿à®¯":5305,"Ġfile":5306,"Ġà®¤à®©à¯įà®©à¯Ī":5307,"Country":5308,"à®¿à®©à®°à¯Ī":5309,"Ġà®¤à®¾à®¯à¯į":5310,"ipp":5311,"à¯įà®©à¯į":5312,"à¯ģà®ķà¯Ĥ":5313,"à®®à®¾à®ķà®¿":5314,"à®¸à¯įà®µ":5315,"Ġà®ªà®¤à®¿à®ªà¯įà®ªà¯ģ":5316,"Ġle":5317,"à®©à®¾à®¤":5318,"à®¿à®¯à¯ģà®Łà®©à¯į":5319,"Ġà®īà®µ":5320,"à®ļà¯ĩà®°":5321,"Ġà®®à¯ĩà®®à¯įà®ª":5322,"Ġcont":5323,"à®©à®¿à®¯à®¾":5324,"Ġà®ļà®¾à®¨à¯įà®¤":5325,"à®¾à®±à¯įà®ª":5326,"MA":5327,"Ġà®Ĩà®ª":5328,"Ġà®Ĵà®©à¯įà®±à¯ģà®®à¯į":5329,"Ġà®ļà®¿à®²à®µà®±à¯įà®±à¯Ī":5330,"Ġà®ªà®£à®¿à®¯":5331,"à®±à®¿à®µà¯ģ":5332,"Ġà®µà®¿à®²à¯įà®²à¯Ī":5333,"à®¾à®¤à®®à¯į":5334,"Ġsy":5335,"Ġà®ħà®¤à®©à¯įà®ª":5336,"à®µà®¿à®²à¯įà®²à¯Īà®¯à¯ĩ":5337,"Ġà®¤à¯ģà®©à¯įà®ªà¯ģà®±à¯ģà®¤à¯įà®¤":5338,"Ġà®ªà®°à®ªà¯įà®ª":5339,"à®µà®¤à¯ģ":5340,"à®ĩà®©à¯įà®©":5341,"Ġà®ĩà®°à¯ģà®ķà¯įà®ķà®¿à®±à®¾à®¯à¯į":5342,"Ġà®ĥà®ªà®¿à®°à¯įà®ħà®µà¯įà®©à®¿à®©à¯į":5343,"à®®à¯ģà®ķà¯įà®ķà¯ģ":5344,"à®ªà¯ģà®±":5345,"à¯ģà®¯à®²à¯į":5346,"à¯Īà®¯à¯ģà®Łà®©à¯į":5347,"à®µà®°à¯įà®ķà®³à®¾":5348,"Ġà®®à¯Ģà®£à¯įà®Łà¯ģ":5349,"à®¨à®¾à®³":5350,"Ġà®µà®°à®¿à®ļà¯Ī":5351,"Ġà®¨à®¾à®µ":5352,"à®®à®¾à®ķà®ļà¯į":5353,"Ġà®¤à®£à¯įà®£à¯Ģà®°":5354,"tic":5355,"Ġà®ļà¯Ĩà®¯à¯įà®µà®¤à®±à¯įà®ķà®¾à®ķ":5356,"Ġà®µà¯Ģà®Łà¯įà®Łà®¿à®²à¯į":5357,"à®ªà¯įà®ªà®Łà¯įà®Łà¯ģà®³à¯įà®³à®©":5358,"à®µà®¨à¯įà®¤":5359,"UN":5360,"à®¯à®¾à®°":5361,"ritain":5362,"à®¨à®¾à®Ł":5363,"Ġhow":5364,"Ġà®µà®¿à®Łà¯įà®Łà¯ģà®¤à¯į":5365,"The":5366,"Ġà®µà®¿à®°à¯ģà®®à¯įà®ªà¯ģà®ķà®¿à®±à®¾à®°à¯įà®ķà®³à¯į":5367,"Ġà®µà®°à¯ģà®µà®¤":5368,"Ġà®µà®¿à®°à®Łà¯įà®Ł":5369,"à®¯à®©à¯įà®±à®¿":5370,"à®µà®°à¯įà®ķà®³à®¾à®©":5371,"Ġà®ļà®¿à®¨à¯įà®¤à®¿à®¤à¯įà®¤à¯ģà®ªà¯į":5372,"Ġà®¤à¯ĭà®²à¯įà®µ":5373,"à¯ģà®ķà¯įà®ķà®µà¯ģà®®à¯į":5374,"Ġà®ķà¯Ĥà®±à¯ģà®ķà®¿à®±":5375,"Ġà®ħà®±à®¿à®¯à®®à®¾à®Łà¯įà®Łà®¾à®°à¯įà®ķà®³à¯į":5376,"Ġà®¨à®¾à®Łà®¿à®¯à®µà®°à¯Ī":5377,"Ġà®¨à®¿à®°à¯įà®ªà¯įà®ªà®¨à¯įà®¤":5378,".%":5379,"à®ªà¯ģà®²":5380,"Ġà®ħà®µà®°à¯įà®ķà®³à¯Īà®¯à¯ģà®®à¯į":5381,"Ġà®µà®¿à®Łà¯ģà®µà¯Ģà®°à®¾à®ķ":5382,"Ġà®Īà®Łà¯ĩà®±à¯įà®±":5383,"Ġà®¨à®¾à®ļ":5384,"Ġà®µà®¿à®Łà¯ģà®µà¯Ģà®°à¯įà®ķà®³à¯į":5385,"Ġà®µà®£à®Ļà¯įà®ķà®¿à®ķà¯į":5386,"à®ĩà®°à¯ģà®ªà¯įà®ª":5387,"Ġà®®à®´à¯Ī":5388,"à®ĩà®¤à¯Īà®ķà¯į":5389,"ĠSh":5390,"Ġà®¨à®¿à®ļà¯įà®ļà®®à®¯à®¾à®ķ":5391,"Ġà®µà®´à®¿à®¤":5392,"à®ĩà®¤à®¿à®²à®¿à®°à¯ģà®¨à¯įà®¤à¯ģ":5393,"Ġà®µà®¾à®ķà¯įà®ķà¯ģà®±à¯ģà®¤":5394,"Ġà®ħà®µà®±à¯įà®±à®¿à®²à®¿à®°à¯ģà®¨à¯įà®¤à¯ģ":5395,"Ġbritain":5396,"Ġà®µà®´à®¿à®¯à®¾à®ķà¯ģà®®à¯į":5397,"à®¿à®ķà¯įà®ķà®¾à®¤à¯Ģà®°à¯įà®ķà®³à¯į":5398,"Ġà®ļà®®à®¯à®®à¯į":5399,"Ġà®ħà®¨à®¿à®¯à®¾à®¯à®ķà¯įà®ķà®¾à®°à®©à¯į":5400,"Ġà®®à®¾à®®":5401,"Ġà®µà®¾à®©à®¤à¯įà®¤à¯Ī":5402,"Ġà®īà®ªà®ķ":5403,"à®ļà®¿à®¯à®®à¯į":5404,"Ġà®ħà®ļà®¤à¯įà®¤à®¿à®¯":5405,"Ġà®ħà®ªà¯įà®ªà®Łà®¿à®¯à®²à¯įà®²":5406,"Ġà®ļà¯ģà®®à®ªà¯įà®ª":5407,"Ġà®İà®¤à®©à¯Ī":5408,"Ġà®ªà®¾à®µà®®à®©à¯įà®©à®¿à®ªà¯įà®ª":5409,"Ġà®İà®Ļà¯įà®ķà®³à¯Īà®ªà¯į":5410,"à®Ĩà®¤à¯ģ":5411,"Ġà®®à®©à¯įà®©à®¿à®ªà¯įà®ªà¯ģà®¤à¯į":5412,"Ġà®ĩà®µà®°à¯įà®ķà®³à®¿à®©à¯į":5413,"Ġà®ķà®µà®©à®¿à®ªà¯įà®ªà¯Ģà®°à®¾à®ķ":5414,"Ġà®µà®¨à¯įà®¤à®¤à¯ģà®®à¯į":5415,"Ġà®ķà¯Ĩà®Łà¯ģà®¤à¯įà®¤":5416,"à®©à¯įCity":5417,"Ġch":5418,"Ġà®İà®ªà¯įà®ªà®Łà®¿à®¯":5419,"Ġà®ļà¯Ĩà®¯à¯įà®ªà®µà®©à¯į":5420,"Ġcan":5421,"à®¤à¯įà®¤à®¾à®°à®¿à®Łà®®à¯į":5422,"à®īà®£à¯įà®®à¯Īà®¯":5423,"à¯Ĩà®©à¯įà®©":5424,"Ġà®ħà®®à¯Īà®¨à¯įà®¤":5425,"Ġà®ªà¯Ĥà®®à®¿à®¯à®¿à®²à®¿à®°à¯ģà®¨à¯įà®¤à¯ģ":5426,"Ġà®¤à®©à®¤à¯ģ":5427,"Ġà®¨à®¿à®®à®¿à®Ł":5428,"à®¤à¯ģà®µà¯ģà®®à¯į":5429,"Ġà®¨à®°à®ķà®¤à¯įà®¤à®¿à®©à¯į":5430,"Ġà®®à¯Ģà®¤à¯ģà®³à¯įà®³":5431,"CK":5432,"Ġà®ħà®¤à¯Īà®ªà¯įà®ªà®±à¯įà®±à®¿":5433,"Ġà®ħà®°à¯įà®°à®¹à¯įà®®à®¾à®©à¯į":5434,"ik":5435,"à®¿à®²à¯ģà®³à¯įà®³à®µà¯Īà®¯à¯ģà®®à¯į":5436,"Ġà®İà®©à®ķà¯įà®ķà¯ĩ":5437,"Ġà®ļà¯ģà®µà®©à®ªà®¤à®¿à®ķà®³à®¿à®²à¯į":5438,"Ġà®ªà¯Ĥà®®à®¿à®¯à®¿à®²à¯ģà®³à¯įà®³à®µà¯Īà®¯à¯ģà®®à¯į":5439,"\"à®ĩà®¤à¯ģ":5440,"à®®à¯Ĩà®²à¯įà®²à®¾à®®à¯į":5441,"à®Ĩà®ļ":5442,"Ġà®īà®£à¯įà®®à¯Īà®¯à®¾à®©à®¤à¯ģ":5443,"Ġà®īà®£à¯įà®ª":5444,"Ġà®¤à¯Ģà®°à¯įà®ªà¯įà®ªà¯ģà®ķà¯įà®ķà¯ģà®°à®¿à®¯":5445,"Ġà®µà®´à®¿à®¯à¯Īà®ķà¯į":5446,"à®īà®²à®ķà®¿à®²à¯į":5447,"Ġà®¨à®±à¯įà®ķà¯Ĥà®²à®¿à®¯à¯Ī":5448,"à®¤à¯įà®¤à¯ĩà®°":5449,"Ġà®ļà¯Ĩà®¯à¯įà®ķà®¿à®©à¯įà®±à®©à®°à¯į":5450,"Ġà®ļà®¨à¯įà®¤à¯ĩà®ķà®¤à¯įà®¤":5451,"Ġclass":5452,"Ġà®¤à¯Ĩà®¯à¯įà®µà®Ļà¯įà®ķà®³à¯į":5453,"Ġex":5454,"Ġà®µà®¿à®Łà¯įà®Łà¯ģà®ªà¯į":5455,"Ġà®ĩà®µà¯įà®µà¯ĩà®¤à®¤à¯įà®¤à¯Ī":5456,"Ġà®Ĩà®²à¯į":5457,"Ġà®ħà®©à¯ģà®ªà¯įà®ªà¯ģ":5458,"Ġà®¤à®²à¯Īà®®à¯ģà®±à¯Īà®¯à®¿à®©":5459,"à®ķà®³":5460,"Ġà®īà®´":5461,"à®ļà®¾à®¨à¯įà®¤":5462,"à®Ļà¯įà®ķà®³à¯ģà®ķà¯įà®ķà®¾à®ķ":5463,"Ġà®ªà®Łà¯Īà®¤à¯įà®¤à¯ģ":5464,"à®¤à¯ģà®®à®¿à®²à¯įà®²à¯Ī":5465,"à®°à¯įà®ķà®³à®¿à®Łà®®à¯į":5466,"Ġà®ħà®Łà¯Īà®¯à¯ģà®®à¯į":5467,"(à®¨à¯į":5468,"Ġà®ļà®¿à®°à®®à¯į":5469,"Ġà®ķà¯ģà®±à¯įà®±à®Ļà¯įà®ķà®³à¯Ī":5470,"--":5471,"à®°à¯įà®ķà¯įà®ķ":5472,"à®ĩà®¨à¯įà®¤à®ªà¯į":5473,"Ġà®ĩà®©à¯įà®ľ":5474,"Ġà®®à¯ģà®±à¯įà®ªà®Ł":5475,"à®¿à®£à¯įà®Ł":5476,"Ġà®µà®´à®¿à®ķà¯ĩà®Łà¯įà®Łà®¿à®²à¯ĩà®¯à¯ĩ":5477,"à¯ģà®ªà®µà®°à¯įà®ķà®³à®¿à®²à¯į":5478,"Ġà®ªà¯ĩà®ļà®¿à®ķà¯į":5479,"Ġà®®à¯ģà®Łà¯įà®Ł":5480,"Ġà®īà®°à®¿à®®à¯Īà®¯":5481,"Ġan":5482,"à®Ĵà®°à¯ĩ":5483,"à¯įà®µà®°":5484,"à®®à®¿à®ļà¯įà®ļ":5485,"à¯ģà®ªà¯įà®ªà®Ł":5486,"Ġà®īà®©à¯įà®©à®¿à®Łà®®à¯į":5487,"¨à®¾à®®":5488,"Ġà®ĩà®µà¯įà®µà¯ģà®²à®ķà®¿à®²à¯į":5489,"à¯ģà®¨à®¿à®°":5490,"Ġà®¨à®ķà®²à¯į":5491,"Ġà®ļà®¿à®¤à¯įà®¤à®ªà¯įà®ªà®Łà¯ģà®¤à¯įà®¤à®¿":5492,"Ġà®ħà®µà®°à¯įà®ķà®³à¯ģà®ķà¯įà®ķà®¿à®Łà¯Īà®¯à¯ĩ":5493,"Ġbutton":5494,"à®®à¯ĩà®¯à®©à¯įà®±à®¿":5495,"Ġà®ļà®¨à¯įà®¤à¯ĩà®ķà®®à¯į":5496,"Ġà®¤à®Ļà¯įà®ķà®¿à®¯à®¿à®°à¯ģà®ªà¯įà®ªà®¾à®°à¯įà®ķà®³à¯į":5497,"à®¤à®¿à®±":5498,"à®ĩà®Ļà¯įà®ķà¯ģ":5499,"à®¿à®Łà¯į":5500,"Ġà®ħà®ķà®¿à®²à®Ļà¯įà®ķà®³à®¿à®©à¯į":5501,"à®¿à®ķà¯įà®ķà®ªà¯įà®ªà®Łà¯įà®Łà®¾à®²à¯į":5502,"à®®à¯ģà®Łà¯Īà®¯à®µà®©à¯į":5503,"Ġà®ķà®Łà®¨à¯įà®¤":5504,"à®ĩà®®à¯įà®®à¯Īà®¯à®¿à®²à¯į":5505,"Ġà®ħà®©à¯įà®ªà¯ģà®Łà¯Īà®¯":5506,"Ġà®¤à¯Ģà®Ļà¯įà®ķà®¿à®´à¯Īà®¤à¯įà®¤à¯ģà®ķà¯į":5507,"Ġà®¨à®¿à®ķà®°":5508,"Ġà®ªà¯Ĩà®°à¯ģà®Ļà¯į":5509,"à®¿à®ķà¯Ĩà®©à¯į":5510,"ject":5511,"Ġà®ħà®¤à¯Īà®ļà¯į":5512,"Ġkey":5513,"à®ĥà®ªà®¿à®°à¯įà®ħà®µà¯įà®©à¯į":5514,"Ġà®ªà®¿à®°à®¯à®¾à®£à®®à¯į":5515,"Ġà®¤à¯Ĩà®°à®¿à®¨à¯įà®¤à¯ģ":5516,"Ġà®ĩà®©à¯įà®ľà¯Ģà®²":5517,"à®ħà®²à¯įà®²à®¾à®¹à¯įà®µà¯ĩ":5518,"Ġà®ķà®£à¯įà®ķà®³à¯į":5519,"à¯įà®µà¯ģà®ķà®³à¯į":5520,"Ġà®ħà®ŀà¯įà®ļà®²à¯į":5521,"à¯įà®Ĳ":5522,"Ġà®ĩà®©à¯įà®±à¯Īà®¯":5523,"Ġà®ķà®¾à®ĥà®ªà®¿à®°à¯įà®ķà®³à®¾à®ķ":5524,"Ġwith":5525,"Ġà®¤à¯ĩà®°à¯įà®µà¯ģà®ķà®³à¯į":5526,"à®¿à®©à¯įà®ªà®¾à®²à¯į":5527,"à®®à®¿à®ļà¯įà®ļà®¿à®ķà¯Ĩà®©à¯į":5528,"Region":5529,"Ġà®ĩà®°à¯ģà®¨à¯įà®¤à®¿à®°à¯ģà®ķà¯įà®ķ":5530,"à®ħà®µà®°à¯įà®ķà®³à¯ģà®ķà¯įà®ķà¯ģà®ķà¯į":5531,"SE":5532,"à®ªà¯ģà®°":5533,"à®ķà¯ĭà®ªà¯įà®ªà®¿à®©à¯Ī":5534,"Ġà®ķà¯Ĭà®Ł":5535,"Ġà®¤à¯ģà®¤à®¿":5536,"à¯ģà®®à®²à¯įà®²":5537,"Ġà®±":5538,"Ġà®ħà®´à¯Īà®ķà¯įà®ķà®¿à®©à¯įà®±":5539,"à®©à¯ĭ":5540,"à®¤à®µà®¿à®°":5541,"Ġà®ħà®Łà¯Īà®µà¯Ī":5542,"Ġà®µà®¾à®©à®Ļà¯įà®ķà®³à®¿à®²à¯į":5543,"Ġà®ªà®Łà¯Īà®ķà¯įà®ķà®ªà¯įà®ªà®Łà¯įà®Ł":5544,"à®ķà¯Ĭ":5545,"à®¤à®±à¯įà®ķà®¾à®²à®¿à®ķ":5546,"Ġà®®à®±à¯ģ":5547,"Ġà®ķà®¾à®£à¯įà®ªà®¿à®¤à¯įà®¤":5548,"Ġà®ļà¯Ĩà®¯à®±à¯įà®ª":5549,"(à®µà¯įà®µà¯ĩà®¤":5550,"à®¿à®®à¯ģà®±":5551,"Ġà®ļà¯Ĩà®²à¯įà®ķà®¿à®©à¯įà®±":5552,"à®¿à®¯à¯ģà®³à¯įà®³à®¾à®©à¯į":5553,"Ġà®¤à¯ĩà®°à¯įà®¨à¯įà®¤à¯Ĩà®Łà¯ģà®ķà¯įà®ķà®ªà¯įà®ªà®Łà¯įà®Ł":5554,"Ġà®¤à¯ģà®³":5555,"Ġà®ķà¯ģà®°à¯įà®ªà®¾à®©":5556,"Ġà®ªà¯Ĩà®Łà¯įà®Łà®¿":5557,"Ġà®Ĩà®ķà¯Īà®¯à®¾à®²à¯į":5558,"Ġà®ļà®®à®¯à®¤à¯įà®¤à®¿à®²à¯į":5559,"Ġà®ķà¯ĩà®Łà¯įà®ķà®µà®¿à®²à¯įà®²à¯Ī":5560,"Ġà®®à¯ģà®±à¯Īà®¯à®¾à®ķ":5561,"à®ķà¯įà®ķà¯Ĥà®Łà¯ģà®®à¯į":5562,"à®µà¯ģà®Łà®©à¯į":5563,"Ġà®ªà®¯à®©à¯įà®ªà®Łà¯ģà®¤à¯įà®¤à®µà¯ģà®®à¯į":5564,"ult":5565,"Ġà®µà¯Ī":5566,"Ġà®¤à®¿à®°à¯ģà®¤à¯įà®¤à¯ģ":5567,"à®ķà®µà®©":5568,"Ġà®®à®©à®¿à®¤à®©à¯Ī":5569,"Ġà®ħà®®à®°à¯įà®µ":5570,"Ġà®¨à®¿à®±à¯ģà®¤à¯įà®¤à¯ģ":5571,"Ġhe":5572,"à®ĩà®¤à®±à¯įà®ķ":5573,"Ġà®ķà¯ģà®±à¯Īà®ķà¯įà®ķ":5574,"à¯ģà®²à¯įà®²":5575,"à®µà¯ĩà®£à¯įà®Łà¯ģà®®à®¾":5576,"Ġà®ļà®¿à®¨à¯įà®¤à®¿à®ķà¯įà®ķ":5577,"à®¾à®ªà¯Ĩà®°à¯ģà®®à¯į":5578,"à®¤à®¿à®¯à®¿à®©à¯į":5579,"à®®à®¿à®²à¯įà®²":5580,"à®²à®¾à®ķ":5581,"à®¿à®°à¯ģà®¤à¯įà®¤":5582,"ions":5583,"Ġà®īà®³à¯įà®³à®¿à®Łà¯ģ":5584,"Ġà®ĩà®±à¯Īà®µà®©à¯ģà®®à¯į":5585,"Ġà®ªà®¯à®©à¯įà®ªà®¾à®Łà¯ģ":5586,"Ġthat":5587,"Ġà®ķà¯ģà®±à¯įà®±à®µà®¾à®³à®¿à®ķà®³à¯į":5588,"à¯Īà®¯à®®à¯į":5589,"à®ļà¯Ĥà®°":5590,"Ġà®İà®©à¯įà®©à¯Īà®ķà¯į":5591,"IG":5592,"à®®à¯ĩà®²à¯į":5593,"Ġà®®à®¿à®©à¯įà®©à®ŀà¯įà®ļà®²à¯į":5594,"Ġà®ĩà®¤à®©à®¾à®²à¯į":5595,"à®®à¯ģà®©à¯į":5596,"Ġà®ħà®ķà®±à¯įà®±":5597,"à®ļà®¿à®±à®¿à®¤":5598,"Ġà®ļà¯ģà®²à®ªà®®à®¾à®©":5599,"à®®à®¾à®Łà¯įà®Łà¯ĩà®©à¯į":5600,"Ġà®ķà®Łà¯Īà®ļà®¿":5601,"Ġà®®à®¾à®±à¯įà®±à®¿à®ķà¯į":5602,"Ġà®¤à¯ĩà®°à¯įà®µà¯ģà®ļ":5603,"à®¤à¯Ĩà®³à®¿à®µ":5604,"à®ħà®£à¯ģà®ķà®ķà¯įà®ķà¯Ĥà®Łà®¿à®¯":5605,"Ġà®ħà®ļà¯įà®ļà¯ģ":5606,"Ġà®ªà®¯à®¨à¯įà®¤":5607,"Ġsub":5608,"à®¨à®¿à®²à¯Īà®¯à®¾à®©":5609,"à®ļà¯ĭà®¤":5610,"Ġà®¨à®¿à®°à®²":5611,"Ġà®¤à®¿à®Łà¯Ģà®°à¯Ĩà®©":5612,"Ġà®®à¯ģà®¨à¯įà®¤à¯Īà®¯":5613,"Ġà®Ĳà®¯à®¾":5614,"Ġà®ªà®¿à®©à¯įà®©à®£à®¿":5615,"ary":5616,"à®®à®¤à®¿à®ªà¯įà®ªà¯ģ":5617,"à®ĩà®²à¯įà®²":5618,"Ġà®ķà®Łà¯įà®Łà®³à¯Īà®ķà¯įà®ķà¯ģ":5619,"Ġà®ķà®¾à®µà®²à¯į":5620,"Ġà®īà®³à¯įà®³à¯Ģà®Łà¯ģ":5621,"à®¤à¯ģà®µà®¾à®ķ":5622,"ost":5623,"à¯ģà®ķà®³à¯Īà®¤à¯į":5624,"Ġà®Ĩà®¯à®¿à®±à¯įà®±à¯ģ":5625,"Ġà®ıà®±à¯įà®ªà®Łà¯ģà®¤à¯įà®¤à®¿à®¯":5626,"Ġà®ļà¯Ĩà®¯à®²à¯įà®ªà®Ł":5627,"à¯ģà®£à®°à¯įà®ķà®¿à®±à¯ĩà®©à¯į":5628,"à®¾à®Łà¯įà®Łà®¿à®²à¯į":5629,"à®¿Name":5630,"à®¾à®¨":5631,"Ġà®ķà®¿à®£":5632,"ania":5633,"à®ļà¯Ĩà®²à¯įà®µ":5634,"Ġà®¤à®ķà®µà®²à¯Ī":5635,"à®ĩà®¤à¯Īà®ªà¯į":5636,"ere":5637,"Ġà®µà®°à¯Īà®ªà®Ł":5638,"Ġà®ªà¯Ĭà®°à¯ģà®¨à¯įà®¤":5639,"à®®à¯ģà®¤à®²à®¿à®²à¯į":5640,"à®¾à®¹à¯į":5641,"Ġà®Ĩà®£à¯įà®Łà¯ģà®ķà®³à¯į":5642,"Ġà®¤à¯Ĭà®Łà®°à¯įà®ª":5643,"à®µà®¾à®¤":5644,"Ġà®ķà¯ģà®±à¯Īà®¤à¯įà®¤à¯ģ":5645,"à®ªà®ļà¯Ĥ":5646,"Ġà®®à®£à®¿":5647,"Ġà®¤à®¾à®Ļà¯įà®ķà®³à¯ĩ":5648,"à®®à¯Īà®¯à®¿à®²à¯į":5649,"à®¾à®£à¯įà®ª":5650,"à®µà¯Īà®¯à®¾à®ķà¯ģà®®à¯į":5651,"Ġà®¤à¯ĩà®µà¯Īà®¯à®±à¯įà®±":5652,"à®µà¯Īà®¯à¯ĩ":5653,"à®©à¯ģà®ķà¯įà®ķà¯ģà®®à¯į":5654,"per":5655,"à¯ģà®µà®¾à®¯":5656,"à®³à®©":5657,"ilipp":5658,"ilippines":5659,"à®¿à®¯à®®":5660,"Ġà®µà®°à®¿à®ļ":5661,"à®ħà®µà®±à¯įà®±à®¿à®²à¯į":5662,"à®¤à®¾à®®à¯į":5663,"Ġà®ļà¯Ĩà®¯à¯įà®¤à¯ģà®µà®¿à®Łà¯įà®Ł":5664,"Ġà®¤à®Ļà¯įà®ķà®¿à®¯":5665,"à®ªà®¿à®Ł":5666,"Ġà®¨à®¾à®Łà¯įà®ķà®³à¯į":5667,"Ġà®¤à®¿à®°à¯ģà®®à®£à®®à¯į":5668,"Ġà®ħà®Łà®¿à®¯à®¾à®°à¯įà®ķà®³à¯ģà®ķà¯įà®ķà¯ģ":5669,"Ġà®µà¯Ĩà®³à®¿à®ªà¯įà®ªà®Łà¯Īà®¯à®¾à®©":5670,"à®ıà®´":5671,"Ġà®İà®²à¯įà®²à®¾à®ķà¯į":5672,"indow":5673,"ds":5674,"Ġà®ķà¯ģà®©":5675,"à®ķà¯ĩà®³à¯įà®µ":5676,"à¯įà®®à¯į":5677,"Ġà®µà®°à®®à¯įà®ªà¯Ī":5678,"Ġà®ļà¯ģà®®à®ķà¯įà®ķ":5679,"Ġà®ªà®Łà¯įà®Łà®¿à®¯à®²à®¿à®²à¯į":5680,"à¯ģà®İ":5681,"Ġà®¨à¯Ģà®Ļà¯įà®ķ":5682,"à®ĩà®¨à¯įà®¨":5683,"Ġà®®à®°à®¿à®ķà¯įà®ķà®ļà¯į":5684,"Ġà®īà®°à¯Īà®¯à®¾à®Łà®²à¯į":5685,"à¯ģà®ķà¯įà®ķà¯ģà®³à¯įà®³":5686,"Ġà®ĩà®´à®¨à¯įà®¤":5687,"philippines":5688,"à®ªà¯įà®²à¯Ģà®¸à¯į":5689,"à®¿à®©à®¾à®²à®©à¯įà®±à®¿":5690,"Ġà®ªà¯ĩà®°à¯Ģà®¤à¯įà®¤":5691,"à®ħà®ªà¯įà®ªà®Łà®¿à®¯":5692,"Ġà®ħà®³à®¿à®¤à¯įà®¤à®¾à®©à¯į":5693,"Ġà®¨à®Łà®ķà¯įà®ķà¯ģà®®à¯į":5694,"à®¨à¯Ģà®Ļà¯įà®ķà®³à¯ģà®®à¯į":5695,"Ġà®ħà®Łà®¿à®ļà¯įà®ļ":5696,"à®Ĵà®°à¯ģà®µ":5697,"Ġà®İà®¤à®¿à®°à¯įà®ªà®¾à®°":5698,"à®ªà®¯à®©à®°à¯į":5699,"Ġà®®à¯ģà®©à®¾à®ĥà®ªà®¿à®ķà¯įà®ķ":5700,"AE":5701,"tor":5702,"à®®à¯Ĭà®´":5703,"Ġà®ļà®¾à®Łà¯įà®ļà®¿à®¯à®®à¯į":5704,"Ġà®īà®±à¯ģà®¤à®¿à®®":5705,"os":5706,"Ġà®¨à®¾à®³à®¿à®²à¯ģà®®à¯į":5707,"à®µà¯ĩà®¤à®¤à¯įà®¤à¯Īà®¯à¯ģà®Łà¯Īà®¯":5708,"ak":5709,"à®¾à®£à¯įà®Łà¯įà®¸à¯į":5710,"à®ħà®µà¯įà®µà®¾à®±à®¾à®¯à®¿à®©à¯į":5711,"Ġà®ļà¯Ĩà®¯à¯įà®¯à¯ģà®®à®¾à®±à¯ģ":5712,"Ġà®ħà®Łà¯ģà®ķà¯įà®ķ":5713,"Ġà®ķà®£à¯į":5714,"Ġà®ħà®ķà®¿à®²à®¤à¯įà®¤à®¾à®°":5715,"à®ªà®¿à®´à¯Ī":5716,"Ġà®ķà¯Īà®¯à®¿à®²à¯į":5717,"à®ªà¯ģà®³à¯įà®³":5718,"Ġà®ļà®¾à®²":5719,"Ġà®ħà®¤à¯Īà®µà®¿à®Ł":5720,"à®Ĵà®³":5721,"Ġà®¤à¯Ĥà®¤à®°à¯įà®ķà®³à¯Īà®¯à¯ģà®®à¯į":5722,"Ġà®ªà®ķà®²à¯Īà®¯à¯ģà®®à¯į":5723,"CD":5724,"à¯ģà®ķà¯ģ":5725,"à®¸à®®à¯Ĥà®¤à¯ģ":5726,"Ġà®¸à®®à¯Ĥà®¤à¯ģ":5727,"Ġà®ªà¯Ĥà®°à¯įà®¤à¯įà®¤à®¿":5728,"Ġà®µà®¿à®·à®®":5729,"Ġà®¤à®¿à®°à®¾à®Łà¯įà®ļ":5730,"Ġà®ªà®±à¯įà®±à®¿à®¤à¯į":5731,"à®ļà®¤à¯įà®¤à®¿à®¯à®¤à¯įà®¤à¯Ī":5732,"Ġà®ļà®¿à®¤à®±":5733,"Ġà®®à®¾à®±à¯įà®±à®®à¯į":5734,"Ġà®ªà®Łà¯įà®Łà®¿à®¯à®²à¯Ī":5735,"Ġà®ļà®ķà¯įà®¤à®¿à®¯à®±à¯įà®±":5736,"Ġà®ħà®®à¯įà®®à®¾":5737,"à®®à®²à®ķà¯įà®ķ":5738,"à®®à®¾à®Ł":5739,"Ġà®µà¯ĩà®¤à®¤à¯įà®¤à®¿à®²à¯į":5740,"Ġà®ªà®£à®¿à®¨à¯įà®¤à¯ģ":5741,"à®´à®¿":5742,"Ġà®ĩà®°à¯ģà®ķà¯įà®ķà®¿à®±à¯Ģà®°à¯įà®ķà®³à®¾":5743,"Ġà®ĵà®¯":5744,"Ġà®ªà¯Ĭà®¤à¯ģ":5745,"Ġà®ıà®°à®¾à®³à®®à®¾à®©":5746,"à®¯à®¾à®µà®°à¯ģà®®à¯į":5747,"à®ķà¯įà®¸":5748,"Ġà®ħà®¤à®©à¯Īà®ªà¯į":5749,"Ġà®ªà¯Ĥà®®à®¿à®¯à®¿à®©":5750,"à®Łà¯Īà®¨à¯įà®¤à®¤à¯ģ":5751,"Ġà®®à®´à¯Īà®¯à¯Ī":5752,"Ġà®ħà®³à®¿à®ķà¯įà®ķà®ªà¯įà®ªà®Łà¯įà®Ł":5753,"à¯Ģà®¸à¯į":5754,"à®°à¯įà®ķà®³à®¾à®©":5755,"à¯ģà®°à¯įà®Ĩ":5756,"Ġà®¤à®¿à®°à®Łà¯įà®Ł":5757,"ht":5758,"Ġà®ħà®µà®°à¯Īà®¤à¯į":5759,"à®¾à®¤à®¿à®°à¯ģà®ªà¯įà®ª":5760,"Ġà®µà¯Īà®ªà¯įà®ªà®¾à®¯à®¾à®ķ":5761,"Ġà®·à¯Īà®¤à¯įà®¤à®¾à®©à¯įà®ķà®³à¯į":5762,"Ġà®µà®¹à¯Ģà®¯":5763,"Ġà®ļà®¿à®²à®°à¯Īà®µà®¿à®Ł":5764,"à¯Į":5765,"à®²à®µ":5766,"Ġà®ļà¯Ĩà®¯à¯įà®¤à¯ģà®µà®¿à®Ł":5767,"Ġà®ħà®¤à®¿à®ķà®®à®¾à®ķà¯įà®ķ":5768,"Ġà®ļà¯Ĩà®¯à¯įà®ªà®µà®°à¯įà®ķà®³à¯Ī":5769,"Ġà®ªà®¯à®©à¯įà®ªà®Łà¯ģà®¤à¯įà®¤à®ªà¯įà®ªà®Łà¯ģà®®à¯į":5770,"Ġà®ªà®±à¯įà®±à®¿à®ªà¯į":5771,"Ġà®¨à®¿à®¤à¯įà®¤à®¿à®¯":5772,"Ġà®ķà¯Ĥà®±à®¿à®ķà¯į":5773,"Ġà®µà®¿à®µà®¾à®ķà®®à¯į":5774,"Ġà®ķà®£à®ķà¯įà®ķà¯ģà®ķà¯į":5775,"Ġà®īà®£à¯įà®®à¯Īà®¯à¯ĩ":5776,"Ġà®¨à®¿à®":5777,"à®ĩà®ªà¯įà®±à®¾à®¹à¯Ģ":5778,"Ġà®ļà®®à¯Ĥà®ķà®¤à¯įà®¤à®¾à®°à¯ģà®®à¯į":5779,"Ġà®ħà®¤à¯įà®¤à®¾à®Łà¯įà®ļà®¿à®ķà®³à¯Īà®¯à¯ģà®®à¯į":5780,"Ġà®ªà®Łà¯Īà®ķà¯įà®ķà®µà®¿à®²à¯įà®²à¯Ī":5781,"Ġà®¹à®²à®¾à®²":5782,"à®īà®®à®ķà¯įà®ķà¯ģ":5783,"Ġà®ķà®¾à®ĥà®ªà®¿à®°à¯įà®ķà®³à®¿à®©à¯į":5784,"Ġà®¤à¯Ĥà®¤à®°à¯įà®ķà®³à®¿à®²à¯į":5785,"Ġà®īà®Łà®©à¯įà®ªà®Łà®¿à®ķà¯įà®ķ":5786,"à¯Īà®µà®¿à®Łà¯įà®Łà¯ģà®®à¯į":5787,"à¯ĩà®¤à®®à¯į":5788,"à®¿à®Łà®¤à¯įà®¤à®¿à®²à®¿à®°à¯ģà®¨à¯įà®¤à¯ģ":5789,"Ġà®¤à¯ĩà®Łà¯ģ":5790,"Ġà®İà®µà®°à¯ģà®ķà¯įà®ķà¯ģà®®à¯į":5791,"ĠCD":5792,"à®¾à®µà®¾à®°à¯į":5793,"Ġà®ħà®±à®¿à®µà®¿à®²à¯įà®²à®¾à®¤":5794,"Ġà®µà®´à®¿à®ªà®Łà¯įà®Łà¯ģ":5795,"Ġà®ķà®³à®¿à®®à®£à¯įà®£":5796,"Ġà®ķà®²à¯įà®²":5797,"Ġà®ħà®µà®°à¯įà®ķà®³à®¿à®Łà®¤à¯įà®¤à®¿à®²à¯į":5798,"Ġà®Ĵà®°à¯ģà®Ļà¯įà®ķ":5799,"Ġà®Ĭà®°à¯Ī":5800,"Ġà®®à®¿à®ķà¯Īà®¤à¯įà®¤à®µà®©à®¾à®ķà®µà¯ģà®®à¯į":5801,"Ġà®ļà®¨à¯įà®¤à®¿à®°à®©à¯Īà®¯à¯ģà®®à¯į":5802,"à®£à¯įà®Łà¯Ī":5803,"Ġà®ªà¯ĩà®°à¯į":5804,"à®¿à®®à®¾à®±à¯įà®±":5805,"à®¿à®©à®°à¯ģà®ķà¯įà®ķà¯ģ":5806,"(à®¨à¯įà®¨":5807,"à®¾à®°à¯Ī":5808,"à¯Ĩà®¤à®¿à®°à®¾à®ķ":5809,"à®µà¯ĭ":5810,"Ġà®ħà®²à¯įà®²à®¾à®¹à¯įà®µà¯ģà®ķà¯įà®ķà®¾à®ķ":5811,"Ġà®ªà®¿à®©à¯įà®ªà®±à¯įà®±à¯ģà®ķà®¿à®±à®¾à®°à¯įà®ķà®³à¯į":5812,"à®ķà¯Ĩà®²":5813,"Ġà®Ĩà®¤à¯ģ":5814,"à¯įà®¨à¯įà®¤à®¿à®°à¯ģà®ªà¯įà®ª":5815,"Ġà®ªà®°à¯ģà®ķ":5816,"Ġà®Ĵà®Łà¯įà®Łà®ķ":5817,"à®ªà®¯à®©à¯įà®ªà®Łà¯ģà®¤à¯įà®¤":5818,"Ġà®ķà®Łà¯Īà®ªà¯įà®ªà®¿à®Łà®¿à®¤à¯įà®¤à¯ģ":5819,"Ġà®¨à®¾à®³à¯Īà®¯à¯ģà®®à¯į":5820,"à®ħà®ķà®¿à®²":5821,"à®ķà¯ģà®±à¯įà®±à®µà®¾à®³":5822,"Ġà®ªà®¿à®°à®¤":5823,"Ġà®µà®¿à®²à¯Īà®ķà¯įà®ķà¯ģ":5824,"Ġà®īà®¯à®¿à®°à¯įà®ķà®³à¯Īà®¯à¯ģà®®à¯į":5825,"à®¿à®Łà®®à®¿à®°à¯ģà®¨à¯įà®¤à¯ģà®³à¯įà®³":5826,"à¯įà®¤à¯į":5827,"Ġà®µà®ļà®ªà¯įà®ªà®Łà¯ģà®¤à¯įà®¤":5828,"Ġà®ŀà®¾à®ª":5829,"à®°à¯ģà®µ":5830,"Ġà®ķà®¾à®³":5831,"Ġà®ħà®ªà¯įà®ªà¯Ĩà®£":5832,"Ġà®ħà®®à¯Īà®¯à¯ģà®®à¯į":5833,"à®ħà®°à¯ģà®³à¯į":5834,"à¯Īà®ķà¯įà®ķà¯ģà®³à¯į":5835,"Ġas":5836,"Ġà®¤à®Ļà¯įà®ķà®¿à®¯à®¿à®°à¯ģà®¨à¯įà®¤":5837,"Ġà®ħà®Łà®¿à®¯à®¾à®°à¯įà®ķà®³à¯į":5838,"à¯ģà®µà®¤à¯Ĩà®²à¯įà®²à®¾à®®à¯į":5839,"à®¿à®ķà¯įà®ķà®ªà¯įà®ªà®Łà¯ģà®µà®¾à®°à¯įà®ķà®³à¯į":5840,"à¯ģà®®à¯įà®ªà®Łà®¿à®¯à¯ģà®®à¯į":5841,"Ġà®ķà¯Ģà®´à¯įà®ªà®Łà®¿à®¯à¯ģà®Ļà¯įà®ķà®³à¯į":5842,"à®ħà®³à®µà¯ģ":5843,"Ġà®ªà®°à®¿à®ķà®¾à®°":5844,"à®ħà®±à®¿à®¨à¯įà®¤à¯ģ":5845,"Ġà®ĩà®±à¯Īà®µà®©à¯Īà®ªà¯į":5846,"Ġà®¨à®¾à®³à®¾à®ķà¯ģà®®à¯į":5847,"Ġà®¨à®©à¯įà®ķà®±à®¿à®ªà®µà®©à®¾à®ķà®µà¯ģà®®à¯į":5848,"Ġà®ķà¯ģà®Łà¯ģà®®à¯įà®ªà®¤à¯įà®¤à®¾à®°à¯Īà®¯à¯ģà®®à¯į":5849,"Ġ_":5850,"à®¤à®²à¯įà®²":5851,"Ġà®µà®¯à®¿à®±":5852,"Ġà®¤à®¿à®°à¯ģà®¨à®¾à®®":5853,"land":5854,"Ġra":5855,"à®¯à®¾à®ķà¯ģà®®à¯į":5856,"à®®à®¾à®¤":5857,"Ġà®µà®¾à®Ļà¯įà®ķà®¿à®ķà¯į":5858,"à®µà®¾à®ķ":5859,"mage":5860,"à®ħà®µà®±à¯įà®±":5861,"à®ļà¯Ĩà®¯à¯įà®¯":5862,"Ġà®ħà®³à®¿à®¤à¯įà®¤à¯ģà®³à¯įà®³":5863,"Ġà®ªà¯Ĭà®¤à¯įà®¤à®¾à®©à¯į":5864,"Ġà®µà®¿à®°à¯ģà®ªà¯įà®ªà®¤à¯įà®¤à¯ĩà®°":5865,"Ġà®ªà®¾à®°à¯ģà®®à¯į":5866,"Ġoption":5867,"Ġà®µà®ļà®¿à®¤à¯įà®¤":5868,"Ġà®ķà®¾à®²à¯Īà®¯à®¿à®²à¯ģà®®à¯į":5869,"IL":5870,"Ġà®ķà®´à¯ģà®¤":5871,"Ġà®¨à¯Ģà®Łà¯įà®Ł":5872,"à®ªà¯įà®Ł":5873,"à®¾à®°à¯įà®ķà®³à®¾à®ķ":5874,"Ġà®ļà¯ĩà®µà®ķ":5875,"à®³à®µà®¿à®²à¯į":5876,"à®ķà¯ģà®°à¯įà®Ĩà®©à¯į":5877,"DVD":5878,"à¯Ĭà®ªà¯įà®ª":5879,"à®ªà¯Ĩà®±":5880,"à®²à®¾à®®à®¾":5881,"Ġà®ªà¯ģà®£à®°à¯įà®ķà®¿à®±à¯ĩà®©à¯į":5882,"Ġà®ķà®¾à®Łà¯įà®Łà¯ģà®ķ":5883,"ĠServer":5884,"Ġà®ļà¯Ģà®Łà¯įà®Łà¯ģ":5885,"ep":5886,"Ġà®µà¯Ĩà®³à®¿à®¯à¯ĩà®±à¯įà®±à®¿":5887,"Ġà®ħà®´à®ķà®¾à®ķ":5888,"à¯Ģà®®à¯į":5889,"à®ªà¯Ĭà®²":5890,"Ġà®µà®¿à®Łà®²à®¾à®®à¯į":5891,"Ġà®°à®ªà¯įà®ª":5892,"pi":5893,"Ġà®ĩà®´à®ķà¯įà®ķ":5894,"Ġà®µà¯Ĩà®³à®¿à®ļà¯įà®ļ":5895,"à®ħà®ªà¯įà®ªà®¾à®²à¯į":5896,"Ġà®µà¯Ģà®Łà¯ģà®ķà®³":5897,"our":5898,"à®©à¯Īà®¯à®¾à®ķ":5899,"Ġà®ħà®±à®¿à®ķ":5900,"Ġà®İà®´à¯ģà®¨à¯įà®¤":5901,"ĠDPI":5902,"à®¨à®¾à®³à¯į":5903,"à®Łà¯įà®Łà¯ģà®®à®¾":5904,"Ġà®ªà®¾à®µà®¿à®ķà®³":5905,"Ġà®ļà¯ĩà®°à¯įà®ķà¯įà®ķà¯ģà®®à¯į":5906,"Ġà®ķà®µà®²à¯Īà®ªà¯įà®ªà®Ł":5907,"Ġà®¤à¯Ĩà®°à®¿à®ķà®¿à®±à®¤à¯ģ":5908,"Ġà®µà®¿à®ļà¯Īà®¯à¯Ī":5909,"Ġà®ħà®´à¯ģà®¤à¯įà®¤à®µà¯ģà®®à¯į":5910,"Ġà®ļà¯Ĩà®µà®¿à®¯à¯ĩà®±à¯įà®±":5911,"Ġà®¨à¯Ĩà®Ł":5912,"à®Łà¯ĩ":5913,"Ġby":5914,"Ġà®¨à®¿à®¨à¯įà®¤":5915,"Ġà®ĩà®²à¯įà®²à®¾à®®":5916,"Ġà®µà®¾à®´à¯įà®µà®¿à®²à¯į":5917,"à®¤à®¿à®¯à®¾à®©":5918,"Ġà®İà®Łà¯įà®Ł":5919,"Ġà®®à®¤à®¿à®ªà¯įà®ªà¯Ī":5920,"à®ħà®©à¯Ī":5921,"Ġà®ļà¯ģà®µà®°à¯įà®ķà¯įà®ķà®ļà¯į":5922,"Ġà®®à¯ģà®Łà®¿à®¨à¯įà®¤à®¤à¯ģ":5923,"Ġà®İà®´à¯ģà®¤à¯įà®¤à¯ģ":5924,"Ġà®ļà¯Ĩà®¯à¯įà®ķà®¿à®±à¯Ģà®°à¯įà®ķà®³à¯į":5925,"Ġà®¤à®ķà¯įà®µ":5926,"(à®ĩà®¤à®±à¯įà®ķà¯ģ":5927,"à®İà®´à¯ģà®¤à¯įà®¤à¯ģà®°à¯ģ":5928,"à®®à®¿à®Łà¯įà®Ł":5929,"à®¿à®ķà¯įà®ķà®¿à®±à®¾à®°à¯į":5930,"à®¨à®©à¯įà®±à®¿":5931,"Ġà®İà®©à¯ģà®®à¯į":5932,"ico":5933,"à®¿à®ªà¯įà®ªà¯Ī":5934,"Ġà®ķà®´à¯ģà®¤à¯įà®¤":5935,"à®ļà®¾à®³à®°à®¤à¯įà®¤à¯Ī":5936,"à¯ģà®µà¯ĩà®³à¯Ī":5937,"à®ħà®µà®³":5938,"à¯įà®ķà¯įà®ķà¯Ī":5939,"à®İà®¤à¯ģà®µà¯ģà®®à¯į":5940,"ns":5941,"à¯Īà®ķà¯įà®ķà®ªà¯įà®ªà®Łà¯įà®Ł":5942,"Ġstatus":5943,"Ġà®ķà®©à®µ":5944,"à®¨à®¾à®Ļ":5945,"ress":5946,"à®¤à®¾à®¯à¯į":5947,"à®¨à®¿à®±à®®à¯į":5948,"Ġà®ħà®±à®¿à®ķà¯įà®ķ":5949,"Ġà®ªà®¾à®°à¯įà®µà¯Ī":5950,"Ġà®īà®£à¯įà®®à¯Īà®¯à®¾à®ķ":5951,"à®¿à®°à¯Ī":5952,"à®Ĩà®£à¯į":5953,"à®®à¯ģà®ķà¯įà®ķà®¿à®¯":5954,"Ġà®µà®²à¯Ī":5955,"Ġà®®à®©à¯įà®©à®¿à®¤à¯įà®¤":5956,"Ġà®¤à®²à¯Īà®ªà¯įà®ª":5957,"à®ķà®£à®¿à®©":5958,"Ġà®ļà¯Ĩà®µà®¿à®¯à¯ĩà®±à¯įà®ªà®µà®©à¯į":5959,"à®µà®£à®ķà¯įà®ķà®®à¯į":5960,"box":5961,"ments":5962,"à¯Īà®µà¯Ĥà®Łà¯įà®Ł":5963,"ces":5964,"à®©à®¿à®ķà¯įà®ķ":5965,"Ġà®ķà¯ĭà®ªà¯įà®ªà®¿à®©à¯į":5966,"ust":5967,"à¯Ĩà®²à¯įà®²":5968,"Ġà®®à¯ģà®¹":5969,"Ġà®ħà®´à¯Īà®¯à¯ģà®Ļà¯įà®ķà®³à¯į":5970,"à¯Ĩà®©à¯įà®Łà¯į":5971,"Ġà®īà®¯à®¿à®°à¯ģà®Łà®©à¯į":5972,"\"à®Ĩà®©à®¾à®²à¯į":5973,"à®īà®£à¯įà®®à¯Īà®¯à®¾à®©":5974,"à®¿à®ķà¯įà®ķà®µà®¿à®²à¯įà®²à¯Ī":5975,"Ġà®µà¯Ģà®ļ":5976,"à®ªà¯įà®ªà®¿à®°":5977,"à®ļà®¿à®Łà®¿":5978,"'%":5979,"à®¿à®ŀ":5980,"Ġà®ªà¯ĭà®ķ":5981,"à¯įà®¯à¯ģ":5982,"à¯įà®¯à®©à¯į":5983,"à®¿à®ķà®³à¯Īà®¤à¯į":5984,"à®¾à®°à¯įà®µ":5985,"Ġà®¤à®¿à®±à®¨à¯įà®¤à¯ģ":5986,"Ġà®¤à®±à¯įà®ªà¯ĭà®¤à¯Īà®¯":5987,"à®²à¯įà®¸à¯į":5988,"à®¿à®ĩ":5989,"Ġà®¨à®Łà®ªà¯įà®ªà¯ģ":5990,"Ġmess":5991,"Ġà®ķà®°à¯ģà®£à¯Ī":5992,"Ġà®ļà®¿à®ª":5993,"Ġà®ķà¯ĭà®°":5994,"Ġà®¨à®®à¯įà®ªà®¿à®ķà¯įà®ķà¯Īà®ķà¯įà®ķà¯ģà®°à®¿à®¯":5995,"Ġà®ªà®¾à®¤à¯ģà®ķà®¾à®ªà¯įà®ªà¯ģ":5996,"Ġà®®à®¾à®®à®¿à®ļ":5997,"à®®à¯ģà®±à¯įà®±":5998,"à®®à®Łà¯Īà®¯":5999,"Ġà®µà®¿à®Łà¯ģà®¤à®²à¯Ī":6000,"Ġà®ķà®¾à®°à®£à®¤à¯įà®¤à®¿à®©à®¾à®²à¯į":6001,"Ġà®ķà¯Ĥà®Łà¯įà®Łà¯ģ":6002,"à¯ģà®ªà®µà®°à¯įà®ķà®³à¯ģà®ķà¯įà®ķà¯ģ":6003,"à®¿à®¯à®¾à®ķà®ªà¯į":6004,"Ġà®ķà®°à¯ģà®¤à®¿":6005,"Ġà®®à®©à®¿à®¤à®°à¯į":6006,"à®İà®¤à¯Īà®¯à¯ģà®®à¯į":6007,"Ġà®¤à¯ĩà®¤à®¿":6008,"Ġà®ķà®¿à®Łà¯Īà®¯à®¾à®¤à¯ģ":6009,"à¯ģà®®à®¤":6010,"Ġà®®à®©à®®à¯į":6011,"Ġà®ľà¯Ģ":6012,"Ġà®µà®¯à®¤à¯ģ":6013,"'čĊ":6014,"Ġà®µà¯ĩà®³à¯Ī":6015,"Ġà®İà®£":6016,"à®ħà®ªà¯įà®ªà®Ł":6017,"Ġtype":6018,"orm":6019,"à®©à¯ģà®ªà¯įà®ª":6020,"à®¤à¯įà®¤à®¾à®ķà¯įà®ķ":6021,"ore":6022,"Ġà®ĩà®¯à®Ļà¯įà®ķ":6023,"Ġà®ķà®¾à®£à¯įà®ªà®¿à®ªà¯įà®ª":6024,"Ġà®¨à®Łà®¨à¯įà®¤à®¤à¯ģ":6025,"à®¨à®¿à®¯à®¾à®¯":6026,"ella":6027,"Ġà®¨à®¿à®¯à®¾à®¯à®®à®¾à®©":6028,"Ġà®Ĩà®±à¯įà®±à®²":6029,"Ġà®µà®´à®¿à®¯à®¾à®ķ":6030,"Ġà®¨à®¾à®©à¯ĩ":6031,"Ġà®¤à¯Ĭà®Łà®°à¯įà®ªà¯ģ":6032,"à®¿à®°à®¿à®¯à®°à¯į":6033,"Ġà®µà®¨à¯įà®¤à®¾à®°à¯į":6034,"Ġà®µà®¾à®´à¯įà®ķà¯įà®ķà¯Īà®¯à®¿à®©à¯į":6035,"Ġà®®à¯Ĩà®¯à¯įà®¯à®¾à®ķ":6036,"à®¿à®ľà¯įà®°":6037,"à®²à¯įà®²à®©à¯į":6038,"Ġà®ħà®°à¯ģà®ķà¯ĩ":6039,"Ġà®ļà®®à®¾à®¤à®¾à®©à®®à¯į":6040,"Ġà®¨à®¿à®©à¯Īà®¤à¯įà®¤à¯ĩà®©à¯į":6041,"à®ħà®Łà¯įà®Łà®µà®£à¯Ī":6042,"Ġà®µà®²à®¿à®®à¯Ī":6043,"à®¿à®°à®£à¯įà®Łà¯ģ":6044,"Ġà®ķà¯Ĥà®Łà¯įà®Łà®®à¯į":6045,"Ġà®®à¯ģà®Łà®ķà¯įà®ķà¯ģ":6046,"Ġà®ļà¯Ĩà®¯à¯įà®ķà®¿à®±à®¤à¯ģ":6047,"à®Łà¯įà®Łà¯ĭ":6048,"Ġà®µà®¨à¯įà®¤à®¾à®²à¯ģà®®à¯į":6049,"Ġà®ļà®µà®©":6050,"Ġà®ªà®²à®ķ":6051,"à®Ĵà®°à¯ģà®µà¯ĩà®³à¯Ī":6052,"Ġà®¨à®Łà®ķà¯įà®ķà®¿à®±à®¤à¯ģ":6053,"à®¾à®°à¯Īà®¯à¯ģà®®à¯į":6054,"à¯įà®©à¯ģ":6055,"à®¾à®ļà¯Ī":6056,"Ġà®µà®¿à®°à¯ģà®®à¯įà®ªà¯ģà®µ":6057,"Ġà®²à®¿à®²à¯įà®²":6058,"Ġà®ħà®µà®°à¯ģà®ķà¯įà®ķà®¾à®ķ":6059,"à¯Ĭà®©à®¿à®¯à®¾":6060,"à®ħà®µà®°à¯įà®ķà®³à¯Īà®ªà¯į":6061,"à®¿à®ĥà®ªà¯Ĭà®©à®¿à®¯à®¾":6062,"à®ķà¯Ĩà®²à®¿à®ĥà®ªà¯Ĭà®©à®¿à®¯à®¾":6063,"à®¾à®Łà¯įà®Łà®¿à®©à¯į":6064,"Ġà®ªà®¯à®£à®®à¯į":6065,"Ġà®ªà®°à®¿à®¨à¯įà®¤":6066,"Ġà®¨à®¿à®©à¯Īà®µà®¿à®²à¯į":6067,"Ġà®¤à¯Ĭà®Łà®Ļà¯įà®ķ":6068,"100":6069,"à®¨à®®à®¤à¯ģ":6070,"à®ķà®Łà¯Īà®ļà®¿":6071,"à¯ģà®®à®¾à®±à¯ģà®®à¯į":6072,"Ġà®ļà¯ĩà®°à¯įà®ªà¯įà®ªà®¾à®©à¯į":6073,"ĠÂ":6074,"à¯Ģà®°à¯įà®ªà¯įà®ª":6075,"à®®à®£":6076,"Ġà®ļà¯Ĩà®¯à¯įà®µà®¤à®¿à®²à¯į":6077,"Ġà®¤à®²à®¾à®ķà¯į":6078,"Ġà®ªà¯Ĩà®£à¯įà®ķà®³à¯ģà®ķà¯įà®ķà¯ģà®®à¯į":6079,"Ġà®ħà®µà®©à®©à¯įà®±à®¿":6080,"Ġà®µà®¿à®Łà¯ģà®ķà®¿à®±à®¾à®©à¯ĭ":6081,"Ġà®ļà¯Ĩà®¯à¯įà®ªà®µà®©":6082,"à®¤à®¾à®ķà®ķà¯į":6083,"à®ļà¯Ĩà®¯à®²à¯į":6084,"port":6085,"à®°à¯įà®Ł":6086,"Ġà®¨à¯ĩà®°à¯įà®®à¯Īà®¯à®¾à®©":6087,"Ġà®ļà®¨à¯įà®¤à®¿à®¤à¯įà®¤":6088,"à®¾à®®à®²à®¿à®°à¯ģà®ķà¯įà®ķ":6089,"Ġà®ķà¯Ĥà®Łà¯įà®Łà®¤à¯įà®¤à®¾à®°à¯Ī":6090,"à®ªà¯Ĭà®°à¯ģà®³":6091,"à¯ģà®ķà®¿à®©à¯įà®±à®¤à¯ģ":6092,"Ġà®ĩà®µà®°à¯įà®ķà®³à¯ģà®®à¯į":6093,"à®¤à®¿à®²à¯ģà®®à¯į":6094,"Ġà®ķà¯ģà®£":6095,"Ġà®ļà®¿à®¨à¯įà®¤à®¿à®¤à¯įà®¤à¯ģ":6096,"Ġà®ķà¯Ĥà®±à¯ģà®µà®¤à¯Ī":6097,"Ġà®ªà®Łà¯įà®Łà®¿":6098,"Ġà®¨à®¾à®Łà®¿à®©à®¾à®²à®©à¯įà®±à®¿":6099,"à®®à¯ģà®¸à¯įà®²":6100,"Ġà®µà®ķà¯Īà®¯à®¾à®©":6101,"à®ŀà¯įà®ļà®®à¯į":6102,"à®ľà®¾à®ķà¯į":6103,"Ġà®µà®°à®²à®¾à®±à¯įà®±à¯Ī":6104,"à®¿à®ľà¯įà®°à®¤à¯į":6105,"Ġà®ĩà®°à¯ģà®ķà¯įà®ķà®¿à®©à¯įà®±à®¾à®°à¯į":6106,"Ġà®®à®¯à®ķà¯įà®ķ":6107,"Ġà®ĩà®±à¯Īà®µà®©à®¾à®²à¯į":6108,"Ġà®¯à®¾à®ķà¯ģà®®à¯į":6109,"Ġà®°à¯ģà®ķà¯Ĥ":6110,"Ġà®°à¯ģà®ķà¯Ĥà®ĥ":6111,"Ġà®¨à®¾à®¯à®©à®¿à®²à¯įà®²à¯Ī":6112,"ĠÃ":6113,"OM":6114,"à®ħà®¨à¯įà®¨":6115,")!čĊ":6116,"Ġà®ļà¯Ĩà®¯à¯įà®ªà®µà®°":6117,"Ġà®µà®ļà®©à®Ļà¯įà®ķà®³à¯Īà®¯à¯ģà®®à¯į":6118,"Ġà®¤à®Ļà¯įà®ķà®³à®¿à®Łà®®à¯į":6119,"à®®à®Łà¯įà®Łà¯ģà®®à¯į":6120,"Ġà®İà®µà®°à¯ģà®ķà¯įà®ķà¯ģ":6121,"Ġà®¤à¯Ĥà®°à®®à¯į":6122,"360":6123,"à¯įà®ķà®³à®¾à®²à¯į":6124,"Ġà®ļà®°à®¿à®¯":6125,"à®¤à®°à¯įà®²":6126,"Ġà®µà¯Ĩà®³à¯įà®³à¯Ī":6127,"à®¤à®¿à®ķ":6128,"Ġà®ķà¯Īà®ķà®³à¯Īà®¯à¯ģà®®à¯į":6129,"à®Łà¯įà®Łà®¿à®©à¯į":6130,"Ġà®İà®¤à®©à¯į":6131,"à®ķà¯įà®ķà®¾à®°à®°à¯įà®ķà®³à¯į":6132,"Ġà®ªà¯ĭà®©à¯įà®±":6133,"à®ªà®¯à®ªà®ķà¯įà®¤à®¿à®¯à¯ģà®Łà¯Īà®¯":6134,"à®¨à¯įà®¤à®®à¯į":6135,"Ġà®ħà®°à®ªà®¿":6136,"Ġà®ıà®±à¯įà®ªà®Łà¯įà®Łà¯ģ":6137,"Ġà®Ĩà®£à¯įà®ķà®³à¯į":6138,"Ġà®Ĩà®µà®£à®®à¯į":6139,"à¯Ĥà®°à¯įà®µ":6140,"à®ĩà®±à¯Īà®µà®©à®¿à®©à¯į":6141,"Ġà®ļà®¤à®¾":6142,"Ġà®ĩà®°à®µà¯Īà®¯à¯ģà®®à¯į":6143,"à®¸à®²à®¾à®®à¯į":6144,"Ġà®ªà®Łà®¿à®ªà¯įà®ªà®¿à®©à¯Ī":6145,"à®¾à®¯à®¿à®±à¯įà®±à¯ģ":6146,"Ġà®ļà¯Ĩà®¯à¯įà®¤à®µà®°à¯įà®ķà®³à¯į":6147,"Ġà®ļà¯Ĩà®¯à¯įà®¯à®¾à®¤à¯ģ":6148,"Ġà®µà®¿à®Łà¯ģà®ķà®¿à®©à¯įà®±à®©à®°à¯į":6149,"Ġà®ķà¯Īà®¤à¯įà®¤":6150,"à®®à¯ĩà®¯à¯ĩ":6151,"à®ħà®²à¯įà®²à®¾à®¹à¯įà®¤à®¾à®©à¯į":6152,"Ġà®İà®©à¯įà®±à¯ĩ":6153,"à¯ģà®ķà®ļà¯į":6154,"Ġà®ħà®Łà®¿à®¤à¯įà®¤à¯ģà®ķà¯į":6155,"Ġà®ļà®¨à¯įà®¤à®¿à®ķà¯įà®ķ":6156,"Ġà®®à¯ģà®ĥà®®à®¿à®©à¯įà®ķà®³à¯Ī":6157,"Ġà®ļà®¾à®®à¯įà®ª":6158,"Ġà®¨à®¿à®ļà¯įà®ļà®¯à®®à®¾à®ķà®¤à¯į":6159,"à®ªà®°à®¿à®ķ":6160,"(à®ªà®¿à®©à¯įà®©à®°à¯į":6161,"Ġà®®à®±à¯ģà®ķà¯įà®ķ":6162,"Ġà®®à¯Ĥà®Łà¯ģ":6163,"14":6164,"Ġà®ļà¯ģà®µà¯Īà®ķà¯įà®ķ":6165,"Ġà®ħà®ķà®¿à®²à®Ļà¯įà®ķà®³à¯ģà®ķà¯įà®ķà¯Ĩà®²à¯įà®²à®¾à®®à¯į":6166,"Ġà®¤à®Łà¯įà®Łà®´":6167,"à®¨à®±à¯įà®ª":6168,"Ġà®µà®¾à®Ļà¯įà®ķà®¿à®©à¯ĭà®®à¯į":6169,"Ġà®¨à®°à®ķà®®à¯ĩ":6170,"Ġmenu":6171,"Ġà®īà®ªà®ķà®¾à®°à®®à¯į":6172,"à®®à¯ģà®©à¯įà®©à®°à¯į":6173,"à®¿à®Łà®ļà¯į":6174,"Ġà®ĩà®®à¯įà®®à¯Īà®¯à®¿à®²à¯ģà®®à¯į":6175,"Ġà®ĩà®²à¯įà®²à®¾à®¤à®¿à®°à¯ģà®¨à¯įà®¤à®¾à®²à¯į":6176,"Ġà®ªà®¯à®©à®³à®¿à®ķà¯įà®ķ":6177,"à®¤à®°à®µà¯ģ":6178,"Ġà®ķà¯Īà®¯à¯ĩ":6179,"Ġà®ħà®µà®°à¯Īà®ķà¯į":6180,"Ġà®ħà®¤à®¿à®²à¯ģà®³à¯įà®³":6181,"à®¾à®°à¯įà®ķà®³à¯ģà®®à¯į":6182,"Ġà®ĩà®²à¯ĩà®ļà®¾à®ķà¯įà®ķ":6183,"à®¨à¯Ĩà®¤à®°à¯įà®²":6184,"Ġà®µà®¸":6185,"Ġà®ħà®Łà¯Īà®ķ":6186,"à®®à¯Ĥà®ķà®¤à¯įà®¤":6187,"à®ĩà®¤à®©à®¾à®²à¯į":6188,"Ġà®ķà®Łà®¿à®©à®®à®¾à®ķ":6189,"Ġà®¤à®Łà¯ģà®ķà¯įà®ķà®ªà¯įà®ªà®Łà¯įà®Ł":6190,"Ġà®µà®£à®Ļà¯įà®ķà¯ģà®ª":6191,"Ġà®İà®Ļà¯įà®ķà®³à¯ģà®ķà¯įà®ķà¯ģà®ķà¯į":6192,"à®¿à®ķà¯įà®ķà®ªà¯įà®ªà®Łà®µà®¿à®²à¯įà®²à¯Ī":6193,"Ġà®ıà®´à¯Īà®ķà®³à¯ģà®ķà¯įà®ķà¯ģà®®à¯į":6194,"Ġà®ļà®®à¯ģà®¤à®¾à®¯à®¤à¯įà®¤":6195,"Ġà®®à®°à¯įà®¯à®®à®¿à®©à¯į":6196,"à®¤à®ķà®µà®²à¯į":6197,"zer":6198,"à¯įà®®à®¾à®¯":6199,"à®¿à®ªà¯įà®ªà¯ģà®²":6200,"Ġà®¨à®©à¯įà®®à¯Īà®¯à¯Īà®ķà¯į":6201,"Ġà®µà®¾à®°à¯įà®¤à¯įà®¤à¯Ī":6202,"Ġà®µà®´à®¿à®ķà®¾à®Łà¯įà®Łà®¿à®¯à®¾à®ķà®µà¯ģà®®à¯į":6203,"ror":6204,"à®©à®¿à®¯à®®à¯į":6205,"à¯ģà®ķà¯įà®ķà®®à¯į":6206,"Ġà®īà®±à¯ģà®ªà¯įà®ª":6207,"heck":6208,"Ġà®ķà®Łà®µà¯ģà®³":6209,"Ġà®ħà®´à®¿à®ªà¯įà®ª":6210,"à¯ģà®ķà®³à®¾à®ķà®µà¯ģà®®à¯į":6211,"à®ľà¯įà®¤":6212,"Ġà®ļà¯Ĩà®¯à¯įà®ªà®µà®©à®¾à®ķ":6213,"à®¿à®µà®¿à®Łà¯įà®Łà®¾à®²à¯į":6214,"Ġà®®à¯Īà®¯à®®à¯į":6215,"Ġà®ħà®µà®°à¯įà®ķà®³à®¿à®Łà®®à®¿à®°à¯ģà®¨à¯įà®¤à¯ģ":6216,"Ġà®İà®¤à¯ģà®µ":6217,"Ġà®ļà¯Ĥà®°à®¿à®¯à®©à¯Īà®¯à¯ģà®®à¯į":6218,"à®ªà®¿à®©à¯įà®©à®°à¯ģà®®à¯į":6219,"Ġà®µà®¿à®Łà¯įà®Łà¯Ĩà®°à®¿à®¯à¯ģà®®à¯į":6220,"Ġà®īà®£à®°à¯įà®µ":6221,"Ġà®®à¯ĩà®²à®¾à®©à®¤à¯ģ":6222,"Ġà®ħà®¨à®¿à®¯à®¾à®¯à®ķà¯įà®ķà®¾à®°à®°à¯įà®ķà®³à¯ģà®ķà¯įà®ķà¯ģ":6223,"Ġà®µà®¿à®³à¯Īà®ļà¯įà®ļ":6224,"Ġà®ļà®°à®¿à®ªà®¾à®°à¯įà®ķà¯įà®ķ":6225,")à®¤à¯Īà®¯à¯ģà®®à¯į":6226,"Ġà®Ĵà®©à¯įà®±à®¾à®ķ":6227,"Ġà®¨à®¿à®ķà®´à¯įà®µ":6228,"lease":6229,"Ġà®¨à¯Ĩà®°à¯ģà®ªà¯įà®ªà¯Ī":6230,"à®µà®¿à®µà®°":6231,"à®¤à¯įà®¤à®ķà¯įà®ķ":6232,"Ġà®ļà®¾à®¯à¯įà®¨à¯įà®¤":6233,"à®²à¯Ĥà®¯":6234,"à®©à®¾à®¤à®¿à®ªà®¤à®¿":6235,"Ġà®ļà®®à¯Ĥà®ķà®¤à¯įà®¤à®¿à®±à¯įà®ķà¯ģ":6236,"Ġ>čĊ":6237,"à®ªà®¿à®£":6238,"à®ķà¯įà®ķà®®à®¾à®©":6239,"à¯Īà®ķà®³à¯Īà®¤à¯į":6240,"à®µà¯ĩà®¤à®©à¯Īà®¯à¯Ī":6241,"Ġà®µà®¿à®°à¯ģà®ªà¯įà®ªà®®à¯į":6242,"à®ķà®Łà¯įà®Łà®³à¯Ī":6243,"Ġà®¨à®¿à®©à¯Īà®µà¯Ĥà®Łà¯įà®Łà¯ģà®µà¯Ģà®°à®¾à®ķ":6244,"à®®à¯įà®¤à¯ģ":6245,"à¯Īà®µà¯ģà®ķà®³à¯į":6246,"Ġà®®à®©à¯įà®©à®¿à®ķà¯įà®ķ":6247,"Ġà®ļà®¨à¯įà®¤à®¿à®ķà¯įà®ķà¯ģà®®à¯į":6248,"Ġà®ļà¯Ĩà®µà®¿à®ªà¯įà®ªà¯ģà®²":6249,"à®µà®²à®¤à¯ģ":6250,"Ġà®ĩà®¸à¯įà®®à®¾à®¯":6251,"à¯įà®¹à®®à¯įà®¤à¯ģ":6252,"à®¤à®¿à®©à®¾à®²à¯į":6253,"Ġà®ĩà®µà®°à¯Ī":6254,"Ġà®µà¯ĩà®Łà®¿à®ķà¯įà®ķ":6255,"à®¤à¯ĩà®¤à®¿":6256,"à®Ĵà®°à¯ģà®µà®©à®¾à®ķ":6257,"Ġà®®à¯Ģà®Łà¯įà®ķ":6258,"Ġà®ļà®¾à®°à¯į":6259,"Ġà®ħà®µà®ļà®°à®ªà¯įà®ªà®Ł":6260,"\";":6261,"Ġà®İà®ľ":6262,"Ġà®µà®¿à®Łà®¿à®¯":6263,"Ġà®ļà®ķà®¿à®¤à¯įà®¤à¯ģà®ķà¯į":6264,"Ġà®İà®¨à¯įà®¤à®¤à¯į":6265,"Ġà®ķà¯ĩà®Łà¯įà®ķà®ªà¯įà®ªà®Łà¯ģà®®à¯į":6266,"Ġà®¤à¯Ģà®®à¯Īà®¯à¯Ī":6267,"Ġà®İà®ľà®®à®¾à®©":6268,"à¯ģà®®à¯Īà®¯à¯ģà®®à¯į":6269,"Ġà®¨à®®à¯įà®ªà®¾à®¤":6270,"Ġà®·à¯Īà®¤à¯įà®¤à®¾à®©à¯Ī":6271,"Ġà®ªà®°à®µ":6272,"ure":6273,"Ġpre":6274,"Ġà®µà®¿à®°à¯ģà®ªà¯įà®ªà®Ļà¯įà®ķà®³à¯į":6275,"Ġà®ªà®¾à®¤à¯ģà®ķà®¾à®µà®²à®°à¯įà®ķà®³à®¾à®ķ":6276,"Ġà®¤à¯ĭà®±à¯įà®±":6277,"Language":6278,"à¯ĭà®¸à¯į":6279,"Ġà®ħà®¨à®¿à®¯à®¾à®¯à®ķà¯į":6280,"Ġà®®à¯ģà®¯à®²":6281,"à®²à¯Īà®¯à¯ģà®®à¯į":6282,"Ġà®µà¯Ģà®´":6283,"à®¨à®©à¯įà®®à¯Īà®¯":6284,"à®ĩà®µà®°à¯įà®ķà®³":6285,"à¯įà®¤à¯įà®¤à®¿à®ķà¯į":6286,"Ġà®ķà®Łà¯įà®Łà¯ģà®ªà¯įà®ªà®Łà¯ģà®¤à¯įà®¤":6287,"Ġà®¤à®±à¯įà®ķ":6288,"à®µà¯ĩà®¤à®®à¯į":6289,"Con":6290,"à®¿à®¯à®¾à®ļ":6291,"à®ħà®ªà¯įà®ªà®Łà®¿":6292,"Ġà®ļà¯Ĩà®²à¯įà®ķà®¿à®±":6293,"à®ķà¯įà®ķà®¾à®³":6294,"Ġà®ķà¯ģà®Łà®¿à®ªà¯įà®ª":6295,"Ġà®ħà®µà¯įà®µà®¾à®±à®¾à®¯à®¿à®©à¯į":6296,"Ġà®ªà¯ģà®°à®¿à®¯à¯ģà®Ļà¯įà®ķà®³à¯į":6297,"Ġà®īà®³à¯įà®³à®ļà¯įà®ļ":6298,"Ġà®īà®£à¯įà®®à¯Īà®¯à®¾à®³à®°à®¾à®ķ":6299,"ets":6300,"Ġà®¤à¯ĩà®°à¯įà®µà¯Ī":6301,"li":6302,"Ġà®ªà¯ģà®³à¯įà®³à®¿":6303,"Ġà®®à®©à®¿à®¤à®©à¯ģà®®à¯į":6304,"Ġà®¨à¯ģà®´à¯Īà®¨à¯įà®¤":6305,"jects":6306,"Ġà®®à¯ĩà®±à¯įà®ª":6307,"Ġà®İà®©à¯įà®±à®¾à®²à¯ģà®®à¯į":6308,"Ġà®¨à®©à¯įà®±à®¿à®¯":6309,"Ġà®ļà®¾à®¤à¯įà®¤à®¿à®¯":6310,"(c":6311,"Ġà®¤à¯Ģà®°à¯įà®ªà¯įà®ªà®³à®¿à®ķà¯įà®ķ":6312,"à®ķà®¾à®ªà¯įà®ª":6313,"Ġà®ħà®°à¯ģà®Łà¯į":6314,"à®ħà®®à¯Īà®ªà¯įà®ª":6315,"Ġà®ªà®¤à¯įà®¤à¯Ī":6316,"à®¿à®°à®¾à®¤":6317,"\")":6318,"Ġà®¨à¯ĭ":6319,"Ġà®®à¯ģà®ķà®Ļà¯įà®ķà®³à¯Ī":6320,"à®¿à®¯à®¾à®©à®¾":6321,"à®ķà¯ģà®´à¯ģ":6322,"Ġà®ķà®£à¯įà®ķà®¾à®£à®¿à®ªà¯įà®ª":6323,"à¯įà®®à¯ĩà®ļà¯Ī":6324,"25":6325,"à®µà¯ĩà®²":6326,"Ġà®ļà¯Ĩà®¯à¯įà®¤à®¿à®ķà®³à¯Ī":6327,"Ġà®®à®²à®ķà¯įà®ķà¯ģ":6328,"à¯įà®ķà®³à®¿à®Łà®®à¯į":6329,"Ġà®®à¯ĩà®¯":6330,"à®ķà®ªà¯įà®ª":6331,"à®ĩà®°à®£à¯įà®Ł":6332,"Ġà®¨à®¯à®µà®ŀà¯įà®ļà®ķ":6333,"Ġà®ķà®¾à®£à¯įà®ªà®¿":6334,"Ġà®Ĩà®¯à¯ģà®¤":6335,"Ġà®ªà®ķà¯ģà®¤à®¿à®¯":6336,"à®ĩà®µà¯įà®µà¯ĩà®¤":6337,"Ġà®¨à®¿à®²à¯Īà®¯à®¿à®²à¯ĩà®¯à¯ĩ":6338,"Ġà®¤à®¾à®´à¯įà®¨à¯įà®¤":6339,"Ġà®ĩà®Ļà¯įà®ķà®¿à®°à¯ģà®¨à¯įà®¤à¯ģ":6340,"à®µà®¿à®Łà®¿à®¯à¯ĭ":6341,"Ġà®®à®²à®ķà¯įà®ķà¯ģà®ķà®³à¯ģà®®à¯į":6342,"Ġà®ªà¯ģà®¤à¯įà®¤à®ķ":6343,"à®ªà¯Ĭà®²à®¾à®£à¯įà®Łà¯į":6344,"Ġà®ķà¯Ĥà®Łà®¾à®¤à®¾":6345,"Ġà®ªà®¿à®±à¯įà®ªà®Łà¯ģà®¤à¯įà®¤":6346,"Ġà®īà®£à®µà¯ģà®®à¯į":6347,"à®®à¯įà®ªà®¿":6348,"Ġsome":6349,"Ġà®ķà¯ģà®±à®¿à®¯à¯Ģà®Łà¯ģ":6350,"30":6351,"à®¨à¯ĩà®°à¯į":6352,"Ġfil":6353,"Ġà®īà®³à¯įà®³à®¿à®Łà¯ģà®ķ":6354,"à®ļà®ķ":6355,"Ġà®®à¯ģà®±à®¿à®¤à¯įà®¤à¯ģ":6356,"Ġà®ļà®®à®®à®¾à®©à®¤à¯ģ":6357,"Ġà®ļà¯Ĩà®¯à®²à¯įà®ķà®³à®¿à®©à¯į":6358,"Ġà®ªà®¾à®¤à¯ģà®ķà®¾à®¤à¯įà®¤à¯ģà®ķà¯į":6359,"Ġà®īà®³à¯įà®³à®µà®±à¯įà®±à¯Ī":6360,"Ġà®ıà®±à¯įà®ªà®Łà¯įà®Łà®¤à¯ģ":6361,"\"à®¨à®¾à®®à¯į":6362,"Ġà®ħà®±à®¿à®µà®¿à®¤à¯įà®¤à®¤à¯ģ":6363,"à®®à¯Ĩà®¯":6364,"à®Ļà¯įà®ķà®³à®¿à®²à¯ģà®³à¯įà®³":6365,"à®¿à®ªà¯įà®ªà®Łà¯Ī":6366,"Ġà®ħà®®à¯Īà®¤à¯įà®¤à®¾à®©à¯į":6367,"HS":6368,"à®Ļà¯įà®ķà®°":6369,"Ġà®ªà®ķà®²à®¿à®²à¯į":6370,"Ġà®¨à¯ĩà®°à®¤à¯įà®¤à¯Ī":6371,"sp":6372,"Ġà®ķà®¾à®Łà¯įà®Łà®¿":6373,"Ġà®īà®°à¯ģà®µà®¾à®ķà¯įà®ķà¯ģà®ķà®¿à®±à®¤à¯ģ":6374,"à®®à®¿à®°":6375,"à®®à¯Īà®¯à¯Ī":6376,"à¯Īà®¯à®¾à®µà®¤à¯ģ":6377,"à®ļà¯ģà®°":6378,"à®¿à®ķà®³à¯Īà®ļà¯į":6379,"à®ķà¯ĭà®£":6380,"ĠV":6381,"ml":6382,"Ġà®®à¯ģà®´à¯ģà®®à¯Īà®¯à®¾à®ķ":6383,"Ġà®ķà®¾à®²à®¿":6384,"Ġà®ªà®°à®¿à®ļà®¤à¯įà®¤":6385,"Ġà®ĩà®°à®¾à®¤à¯ģ":6386,"Ġà®ĩà®¤à¯ģà®µ":6387,"Ġà®ķà®¾à®²à¯Ī":6388,"à®µà®¿à®²à¯įà®²à¯Īà®¯à®¾à®©à®¾à®²à¯į":6389,"à®ķà®£à¯įà®£":6390,"Ġà®µà®¨à¯įà®¤à¯ģà®³à¯įà®³à®¤à¯ģ":6391,"à®Ĵà®´":6392,"Ġà®Ĩà®¯à®¿à®°à®®à¯į":6393,"à®®à¯ģà®±à¯įà®±à®¿à®²à¯ģà®®à¯į":6394,"à®¿à®±à®¾à®¯à¯į":6395,"Ġà®ķà¯ģà®±à¯Ī":6396,"Ġà®ªà¯ģà®±à®Ļà¯įà®ķ":6397,"Ġà®ļà¯ĩà®®à®¿à®¤à¯įà®¤à¯ģ":6398,"à®ķà¯Ģà®´à¯ĩ":6399,"à®ļà®¾à®¤à®©":6400,"à®µà®¿à®´":6401,"Ġà®Ĵà®°à¯ģà®ª":6402,"Ġà®µà¯Ĩà®ķ":6403,"Ġà®µà¯Īà®¤à¯įà®¤à®¿à®°à¯ģà®ķà¯įà®ķ":6404,"Ġà®¤à®±à¯įà®ķà®¾à®²à®¿à®ķ":6405,"Ad":6406,"stella":6407,"à¯ģà®ªà®Łà¯ģà®¤à¯įà®¤à¯ģà®®à¯į":6408,"stellation":6409,"à¯ĭCity":6410,"Ġà®¤à¯Ĩà®³à®¿à®µà®¾à®ķà¯įà®ķ":6411,"à®¨à®¿à®±à¯Īà®µà¯ĩ":6412,"Ġà®ħà®£à¯ģà®µ":6413,"à®ĩà®£à¯Īà®ªà¯įà®ªà¯ģ":6414,"Ġà®ĩà®°à¯ģà®ķà¯įà®ķà®¿à®±à®¾à®°à¯į":6415,"russia":6416,"à®¿à®¤à®¾à®ķ":6417,"Ġà®ħà®²à®¾à®°":6418,"Ġà®ļà¯Ĩà®¯à®²à¯įà®ªà®¾à®Łà¯ģ":6419,"à®µà¯ĩà®£à¯įà®Łà¯ģà®®":6420,"à®ªà¯Ĩà®°à¯ģà®®à¯į":6421,"Ġà®ķà®¿à®´à®ķà¯įà®ķ":6422,"à¯ģà®®à¯įà®µà®°à¯Ī":6423,"à®¿à®¤à¯įà®¤à®¾à®°à¯įà®ķà®³à¯į":6424,"à®ķà®¿à®Łà¯Īà®®à®Łà¯įà®Ł":6425,"à®µà®¿":6426,"Ġà®ħà®ªà¯į":6427,"à®©à¯įà®±à¯Ī":6428,"menu":6429,"Ġà®ªà®¿à®©à¯įà®µ":6430,"Ġà®ķà®°à¯ģà®¤à¯įà®¤":6431,"à®¨à®²à¯įà®²à®¤à¯ģ":6432,"Ġà®µà¯ĩà®ķà®®à¯į":6433,"à¯įà®ļà¯įà®ļà®¿à®¯à®¾à®ķ":6434,"Ġà®¨à®£à¯įà®ªà®°à¯įà®ķà®³à¯į":6435,"à®īà®Ļà¯įà®ķà®³à®¿à®Łà®®à¯į":6436,"Ġà®®à®ŀà¯įà®ļ":6437,"à®¨à®ķà®²à¯į":6438,"Ġà®ļà¯Ĩà®¯à¯įà®¤à®²à¯į":6439,"Ġà®¤à®¾à®Ļà¯įà®ķ":6440,"à®ķà®±à¯įà®ª":6441,"Ġà®İà®´à¯ģà®¤à®¿à®¯":6442,"Ġà®µà®£à¯įà®£à®¤à¯įà®¤à¯Ī":6443,"à®ĩà®´":6444,"à®ħà®¤à¯ģà®µà¯ĩ":6445,"Ġà®ĩà®ªà¯įà®ªà®Łà®¿":6446,"Ġà®¤à®µà®¿à®°à¯įà®¤à¯įà®¤à¯ģ":6447,"Ġà®Ĵà®µà¯įà®µà¯Ĭà®°à¯ģ":6448,"Ġà®ķà®¾à®°à®¿à®¯à®®à¯į":6449,"Ġà®¨à®¾à®Ļà¯įà®ķà®³":6450,"âĢ":6451,"Ġà®ķà¯ĭà®ªà¯įà®ªà®¿à®²à¯į":6452,"Ġreg":6453,"à®ķà¯įà®ļà®®à¯į":6454,"Ġà®ªà®¾à®´":6455,"Ġà®µà¯Īà®¯à¯ģà®Ļà¯įà®ķà®³à¯į":6456,"à®ķà¯įà®¸à¯į":6457,"à®ļà®²":6458,"à¯ĭà®²":6459,"Ġà®µà¯Ĩà®Łà¯įà®ķ":6460,"Ġà®īà®²à®¾à®µ":6461,"CT":6462,"other":6463,"à¯įà®Łà¯įCity":6464,"Ġà®ħà®±à®¿à®µà®¿à®ªà¯įà®ªà®¾à®©à¯į":6465,"à®ĩà®¯à®²à¯įà®ª":6466,"à®µà¯ģà®©à¯į":6467,"Ġà®®à®¾à®±à¯įà®±à®Ļà¯įà®ķà®³à¯į":6468,"à®ķà®¾à®Łà¯įà®Ł":6469,"à¯Ĩà®Łà¯ģà®ªà¯įà®ªà¯ģ":6470,"Ġà®¤à¯ĭà®²à¯įà®µà®¿à®¯":6471,"Ġ.":6472,"Ġà®ħà®²à¯Ī":6473,"à®¿à®ķà®¿à®©à¯įà®±":6474,"der":6475,"Ġà®¤à®¾à®³à¯į":6476,"Ġà®µà®¿à®Łà®¿à®¯à¯ĭ":6477,"ricts":6478,"Ġà®®à®ķà®©à¯ĩ":6479,"isc":6480,"Ġà®¤à®¾à®©à¯ĩ":6481,"à®µà®¾à®±à¯ĩ":6482,"Ġà®ĩà®µà¯Īà®¯":6483,"Ġà®ļà¯Ĩà®¯à¯įà®¯à®ªà¯įà®ªà®Łà¯ģà®®à¯į":6484,"Ġà®®à®©à®¿à®¤à®°à¯įà®ķà®³à¯Ī":6485,"Ġà®ļà®¾à®µ":6486,"Ġà®ħà®±à®¿à®ķà¯įà®ķà¯Ī":6487,"à®ķà¯įà®ķà¯Ĥà®Łà¯įà®Ł":6488,"Ġà®ħà®²à®Łà¯įà®ļà®¿à®¯":6489,"à®®à¯Ģà®©à¯į":6490,"Ġba":6491,"Ġà®®à®±à¯ģà®¤à¯įà®¤à¯ģ":6492,"Ġà®īà®³à¯įà®³à®¤à®¾":6493,"à®ķà®°à¯Ī":6494,"Ġà®µà®¯à®¿à®±à¯įà®±":6495,"à®¿à®ķà¯įà®ļ":6496,"à®ķà®¾à®²à®®à¯į":6497,"Ġà®ħà®®à¯Īà®¤à¯įà®¤à¯ģà®ķà¯į":6498,"ON":6499,"Ġà®ªà®¾à®¯":6500,"à®®à®¾à®µà®¤à¯ģ":6501,"Ġà®®à®©à¯Īà®µà®¿à®¯à¯Ī":6502,"à®ħà®©à¯ģà®ªà¯įà®ª":6503,"Ġdistricts":6504,"Ġà®ħà®®à¯Īà®ªà¯įà®ªà¯Ī":6505,"Ġà®ħà®Łà¯įà®Ł":6506,"Ġà®®à®ķà¯įà®ķà®³à®¿à®©à¯į":6507,"Ġà®¤à¯Ĩà®°à®¿à®¯à®¾à®¤":6508,"Ġà®¤à®¿à®±à®¨à¯įà®¤":6509,"Ġà®®à¯ģà®´à¯ģà®®à¯Īà®¯":6510,"Ġà®ķà®¤à®¿à®°":6511,"à®¿à®©à®¾à®¯à¯į":6512,"Ġà®ħà®®à®²":6513,"Ġà®ĩà®°à¯ģà®ªà¯įà®ªà®¿à®©à¯ģà®®à¯į":6514,"Ġà®ħà®±à®¿à®µà®¿à®ªà¯įà®ªà¯ģ":6515,"à¯ģà®Łà¯įà®Łà®¿":6516,"à®īà®£à¯įà®®à¯Ī":6517,"Ġà®ļà¯Ĭà®°à¯ģà®ķà¯ģà®ªà¯įà®ª":6518,"Ġà®¤à®¾à®©à®¾à®ķ":6519,"Ġà®®à¯ģà®¤à¯įà®¤à®¿à®°à¯Īà®¯à®¿à®Łà¯įà®Łà¯ģ":6520,"à®¤à®ªà¯įà®ª":6521,"Ġà®ªà¯ĭà®²":6522,"are":6523,"Ġprovin":6524,"Ġprovinces":6525,"Ġà®ķà®¯":6526,"à®¾à®²à¯Īà®¯à®¿à®²à¯į":6527,"à®Ĩà®´":6528,"Ġà®µà¯Īà®¤à¯įà®¤à®¿à®°à¯ģà®¨à¯įà®¤":6529,"Ġà®ªà®¾à®µà®¤à¯įà®¤à®¿à®©à¯į":6530,"Ġà®ļà¯Ĩà®µà®¿":6531,"à®ĩà®ķà¯įà®ķ":6532,"Ġà®µà®¿à®ļà¯ģà®µ":6533,"à¯ģà®µà®¤à®±à¯įà®ķà®¾à®©":6534,"ff":6535,"Ġà®ķà¯ģà®Łà¯ģà®®à¯įà®ªà®¤à¯įà®¤":6536,"Ġyour":6537,"à®¿à®ķà¯įà®ķà®ķà¯į":6538,"à¯ģà®®à®¿à®Ł":6539,"Ġà®µà®¿à®Łà¯ģà®ķà®¿à®±à®¤à¯ģ":6540,"Ġà®®à¯ĩà®ķ":6541,"à®©à¯ģà®Łà¯Īà®¯":6542,"à®¨à®®à®ķà¯įà®ķà¯ģ":6543,"à¯ģà®µà®¿à®Łà¯įà®Łà®¾à®©à¯į":6544,"Ġà®ªà®¾à®£à®¿":6545,"Ġà®ħà®µà®©à¯Īà®ļà¯į":6546,"à®ļà¯Ĩà®¯à¯įà®¤à®¿":6547,"Ġà®¨à®ķà®±à¯įà®±à¯ģ":6548,"à®¨à¯Ĩà®°à¯ģà®ªà¯įà®ª":6549,"à®¤à¯įà®¤à¯ģà®®à¯į":6550,"ĠQ":6551,"Ġtext":6552,"à®Ĵà®µà¯įà®µà¯Ĭà®°à¯ģ":6553,"à®İà®¤à¯įà®¤à®ķà¯Īà®¯":6554,"Ġà®ħà®¤à¯ģà®¤à®¾à®©à¯į":6555,"à®¿à®°à¯ģà®ķà¯įà®ķà®ķà¯į":6556,"Ġà®¨à®Łà¯ģà®Ļà¯įà®ķ":6557,"Ġà®ķà¯ģà®´à¯ģà®µ":6558,"Ġà®¤à¯Ĭà®ķà¯ģà®ªà¯įà®ªà¯ģ":6559,"Ġà®µà¯ĩà®£à¯įà®Łà¯ģà®®à¯Ĩà®©":6560,"à®µà®°à®®à¯įà®ªà¯ģ":6561,"Ġà®ļà®¾à®¸":6562,"Ġà®ħà®Łà®¿à®ª":6563,"Ġà®µà®´à¯ģ":6564,"Ġà®īà®£à¯įà®Łà®¾à®ķà¯ģà®®à¯į":6565,"ree":6566,"Ġà®Ĭà®Ł":6567,"à¯Ĥà®¤à®°à¯įà®ķà®³à¯į":6568,"Ġà®µà®¿à®©à®µ":6569,"\"à®¨à®¾à®Ļà¯įà®ķà®³à¯į":6570,"key":6571,"à®¤à¯ģà®©à¯įà®ª":6572,"Ġà®¤à®¾à®ķà¯įà®ķ":6573,"à®ªà¯įà®ªà®Łà®®à®¾à®Łà¯įà®Łà®¾à®¤à¯ģ":6574,"à®ļà®¿à®¨à¯įà®¤":6575,"Ġà®¯à®¾à®°à®¾à®µà®¤à¯ģ":6576,"à®´à¯ģà®µ":6577,"à®ªà¯įà®ªà®Łà¯įà®Łà¯ģà®ķà¯į":6578,"à¯ģà®ªà®µà®°":6579,"Ġà®ļà¯Ĩà®¯à¯įà®¤à®©à®°à¯į":6580,"Ġà®µà®ķà¯Īà®¯à¯Ī":6581,"Ġà®Ĩà®µà®£à®¤à¯įà®¤à¯Ī":6582,"Ġà®ħà®°à®ļà®¾à®Ļà¯įà®ķ":6583,"Ġà®İà®©à¯įà®±à®¾à®°à¯į":6584,"Ġà®µà®°à¯ģà®ķà®¿à®±à¯ĩà®©à¯į":6585,"à®ĩà®±à¯ģà®¤":6586,"Ġà®īà®³à¯įà®³à®µà®°à¯įà®ķà®³à¯ģà®®à¯į":6587,"Ġà®¤à¯Ģà®°à¯įà®ªà¯įà®ªà¯ģà®ķà¯į":6588,"Ġà®µà¯Ĩà®±à¯įà®±à®¿à®¯à®¾à®³à®°à¯įà®ķà®³à¯į":6589,"à®¿à®ªà¯įà®²":6590,"Ġab":6591,"Ġà®ħà®¤à¯įà®¤à®¾à®Łà¯įà®ļà®¿à®ķà®³à¯Īà®ªà¯į":6592,"Ġà®¨à®¿à®©à¯Īà®µà¯ģà®±à¯ģà®¤à¯įà®¤":6593,"à®¾à®®à®¾à®©":6594,"Ġà®®à®¿à®ķà¯Īà®ªà¯įà®ª":6595,"Ġà®ħà®µà®©à®¿à®Łà®¤à¯įà®¤":6596,"Ġà®ħà®°à¯įà®¤à¯įà®¤":6597,"Ġà®¨à®¾à®Łà¯ģà®ķà®¿à®±à®¾à®©à¯į":6598,"à®¿à®¯à®¾à®¯à®¿à®©à¯į":6599,"Ġà®ĩà®±à®ķà¯įà®ķà®¿à®µ":6600,"Ġà®ıà®µà®ªà¯įà®ªà®Łà¯įà®Łà¯ģà®³à¯įà®³":6601,"Ġà®ħà®µà®³à¯ģà®ķà¯įà®ķà¯ģ":6602,"Ġà®ĩà®©à¯įà®ªà®®à¯į":6603,"à®¨à¯Ĩà®¤à®°à¯įà®²à®¾à®£à¯įà®Łà¯įà®¸à¯į":6604,")à®Ł":6605,"à®¿à®°à¯ģà®ķà¯įà®ķà®µà®¿à®²à¯įà®²à¯Ī":6606,"Ġcol":6607,"Ġà®ĩà®ķà¯įà®ķ":6608,"Ġà®µà¯Ĩà®£":6609,"Ġà®ĩà®µà¯įà®µà®¿à®°à¯ģà®µà®°à¯ģà®®à¯į":6610,"Ġà®¤à®Ļà¯įà®ķà®¿à®µà®¿à®Ł":6611,"Ġà®ķà¯ĩà®Łà¯įà®Łà®¾à®²à¯į":6612,"\"à®ħà®²à¯įà®²à®¤à¯ģ":6613,"à®ħà®¤à®±à¯įà®ķà®¾à®ķ":6614,"Ġà®ħà®µà®©à¯ģà®ķà¯įà®ķà¯ģà®ªà¯į":6615,"Ġà®®à®°à®Ļà¯įà®ķà®³à¯ģà®®à¯į":6616,"Ġinmenu":6617,"Ġà®ķà®¾à®±à¯įà®±à¯Ī":6618,"Ġà®ħà®ķà¯įà®ķà®¿à®°à®®à®ķà¯įà®ķà®¾à®°à®°à¯įà®ķà®³à¯į":6619,"à¯Īà®ķà®³à¯Īà®¯à¯ĩ":6620,"Ġà®¨à®¾à®³à¯įà®µà®°à¯Ī":6621,"Ġà®ĩà®¨à¯įà®¤à®ªà¯į":6622,"à®Ĩà®ķà®¿à®¯":6623,"lect":6624,"à®µà¯ĩà®±à¯Ĩà®µà®°à¯Īà®¯à¯ģà®®à¯į":6625,"ud":6626,"Ġà®İà®¤à¯Īà®ķà¯į":6627,"Ġà®¨à®®à¯įà®®à®¿à®Łà®¤à¯įà®¤à®¿à®²à¯į":6628,"Ġà®ķà®¾à®°à®¿à®¯à®Ļà¯įà®ķà®³à¯į":6629,"Ġà®ħà®¤à®©à¯Īà®ļà¯į":6630,"Ġà®İà®´à¯ģà®ªà¯įà®ªà®ªà¯įà®ªà®Łà¯ģà®®à¯į":6631,"à¯ģà®©à¯įà®©":6632,"à®¿à®°à¯ģà®ķà¯įà®ķà®¿à®©à¯įà®±à®©à®°à¯į":6633,"Ġà®®à¯ģà®´à®ķà¯įà®ķà®®à¯į":6634,"Ġà®ħà®¨à¯ĩ":6635,"Ġsubjects":6636,"à®¿à®ķà¯įà®ķà®¿à®±à®¾à®°à¯įà®ķà®³à¯į":6637,"Ġà®®à¯ģà®©à¯įà®ªà¯ģà®®à¯į":6638,"Ġà®ªà®¿à®°à®¾à®°à¯įà®¤à¯įà®¤à®©à¯Īà®¯à¯Ī":6639,"Ġà®ħà®µà¯įà®µà®¾à®±à®²à¯įà®²":6640,"Ġà®°à®¹à¯įà®®à®¤à¯įà®¤à®¾à®ķà®µà¯ģà®®à¯į":6641,"Ġà®Ĩà®£à®µà®®à¯į":6642,"Ġà®®à¯ģà®ĥà®®à®¿à®©à¯įà®ķà®³à®¾à®©":6643,"Ġà®ķà®ªà¯įà®ªà®²à®¿à®²à¯į":6644,"iz":6645,"Ġà®ķà¯Ĩà®Łà¯ģà®ķà¯įà®ķ":6646,"à¯Īà®¯à®¾à®ķà®µà¯ģà®®à¯į":6647,"à®ķà®¾à®Łà¯įà®ļà®¿":6648,"Ġà®¨à¯Ģà®³":6649,"\\\\\\\\":6650,"à®µà¯Ģà®Łà®¿à®¯à¯ĭ":6651,"à®°à®®à¯į":6652,"à®ħà®³à®µ":6653,"Ġà®ķà¯Ĥà®±à®¿à®µà®¿à®Ł":6654,"à®¿à®ªà¯įà®ªà®µà®°à¯įà®ķà®³à¯ģà®ķà¯įà®ķà¯ģ":6655,"Ġà®ªà®¾à®¤à¯Īà®¯à®¿à®²à®¿à®°à¯ģà®¨à¯įà®¤à¯ģ":6656,"Ġà®ķà®¿à®Łà®¨à¯įà®¤":6657,"Ġà®ªà®¾à®µà®Ļà¯įà®ķà®³à®¿à®©à¯į":6658,"Ġà®ªà¯ĩà®ļà¯ģà®®à¯į":6659,"Ġà®ħà®µà¯įà®µà®¿à®°à¯ģà®µà®°à¯ģà®ķà¯įà®ķà¯ģà®®à¯į":6660,"Ġà®ļà®¿à®²à®°à¯Īà®¤à¯į":6661,")à®µà®°à¯įà®ķà®³":6662,"Ġà®ķà¯ģà®ķ":6663,"à®²à¯Īà®ķà¯į":6664,"Ġà®¤à¯ģà®²":6665,"Ġà®¤à¯ģà®©à¯įà®ªà®¤à¯įà®¤à¯Ī":6666,"à¯ģà®¤à®²à¯ģà®®à¯į":6667,"Ġà®ķà¯Ĥà®²à®¿à®¯à®¾à®ķà¯ģà®®à¯į":6668,"à®ĩà®±à¯Īà®µà®©à¯Ī":6669,"Ġà®ļà¯Ĭà®Łà¯ģà®ķà¯įà®ķà®µà¯ģà®®à¯į":6670,"à¯ĩà®ķà¯į":6671,"à¯ģà®°à®¿à®®à¯Ī":6672,"Ġà®®à®±à¯Īà®¤à¯įà®¤à¯ģà®ķà¯į":6673,"Ġà®ħà®¨à¯įà®¨":6674,"Ġà®ļà¯Ĩà®¯à¯įà®ªà®µà®°à¯įà®ķà®³à¯ģà®ķà¯įà®ķà¯ģ":6675,"à®¤à®¿à®°à¯ģ":6676,"Ġà®Ĩà®¤à¯įà®®à®¾à®µà¯ģà®ķà¯įà®ķà¯ģà®®à¯į":6677,"Ġà®Ĵà®¤à¯ģà®ķà¯įà®ķ":6678,"à®¤à®Ļà¯įà®ķà®³à¯ģà®ķà¯įà®ķà¯ģ":6679,"à®²à¯ģà®ķà¯įà®ķà¯ģ":6680,"Ġà®ħà®°à¯ģà®®":6681,"à®µà¯Ĩà®±à¯įà®±":6682,"à®¨à®®à¯įà®ªà®¿à®ķà¯įà®ķ":6683,"Ġà®¤à¯Ģà®Ļà¯įà®ķà®¿à®´à¯Īà®ķà¯įà®ķ":6684,"à¯ĩà®±à¯įà®ª":6685,"à¯ģà®µà¯Ģà®°à¯įà®ķà®³à®¾à®ķ":6686,"Ġà®ļà®®à¯Ĥà®ķà®¤à¯įà®¤à®¾à®°à®¿à®©à¯į":6687,"Ġà®ļà¯ģà®µà¯Īà®¤à¯įà®¤à¯ģà®ªà¯į":6688,"Ġà®ªà®ķà®¿à®°à®Ļà¯įà®ķà®®à®¾à®ķ":6689,"Ġà®¤à®°à¯įà®ķà¯įà®ķà®¿à®¤à¯įà®¤à¯ģà®ķà¯į":6690,"Ġà®ħà®³à®¿à®ķà¯įà®ķà®¾à®¤à¯ģ":6691,"Ġà®ķà¯Ĥà®²à®¿à®¯à®¾à®ķà®ķà¯į":6692,"Ġà®İà®©à¯įà®©à¯Īà®ļà¯į":6693,"Ġà®ķà®¿à®Łà¯įà®Ł":6694,"Ġà®İà®¤à¯Īà®ļà¯į":6695,"à®ħà®°à¯ģà®³":6696,"à¯ĩà®¯à®¿à®²à¯įà®²à¯Ī":6697,"Ġà®¨à®ªà®¿":6698,"Ġà®Ĩà®ķà®¿":6699,"à¯ģà®ķà¯įà®ķà®¿à®Łà¯Īà®¯à®¿à®²à¯į":6700,"à¯ģà®µà¯Ģà®°à¯įà®ķà®³à®¾à®©à®¾à®²à¯į":6701,"Ġ(#":6702,"Ġà®ħà®Łà®ķà¯įà®ķà®¿à®¯":6703,"Ġph":6704,"Ġà®®à¯ģà®©à¯įà®©à¯ĭà®ķà¯įà®ķà®¿":6705,"Ġà®ħà®Łà®ķà¯įà®ķà®¿à®¯à®¾à®³":6706,"à®¤à¯Ĩà®¯à¯įà®µ":6707,"à®ķà¯ģà®ĥà®ªà¯įà®°":6708,"à®µà®©à®¾":6709,"Ġà®ķà®Łà¯ģà®®à¯Īà®¯à®¾à®©à®µà®©à¯į":6710,"Ġà®ļà®®à®®à®¾à®µ":6711,"Ġà®µà®²à®¿à®®":6712,"Ġà®īà®¯à®°à®®à¯į":6713,"Ġà®ķà®¾à®ªà¯įà®ªà®¾à®±à¯įà®±à®¿":6714,"Ġà®µà®²à¯įà®²à®®":6715,"Ġà®µà®¾à®²à®¿à®ª":6716,"à®İà®Ļà¯įà®ķà®³à¯Ī":6717,"Ġà®ħà®µà®©à¯ĭ":6718,"Ġà®¤à®©à¯įà®©à®¿à®Łà®®à®¿à®°à¯ģà®¨à¯įà®¤à¯ģ":6719,"Ġà®ªà®¿à®°à®¿à®µà®¿à®©":6720,"Ġà®ļà¯Ĩà®µà®¿à®¯à¯ĩà®±à¯įà®ķ":6721,"Ġà®ľà®ķà®¾à®¤à¯įà®¤à¯ģà®®à¯į":6722,"Ġà®ħà®ªà¯įà®ªà®Łà®¿à®¯à®¿à®°à¯ģà®¨à¯įà®¤à¯ģà®®à¯į":6723,"Ġà®ħà®ªà®¯":6724,"à®µà®±à¯įà®±à¯Īà®ļà¯į":6725,"Ġà®µà®¿à®ļà®©":6726,"Ġà®ªà®Łà¯Īà®ķà¯įà®ķà®¿à®±à®¾à®©à¯į":6727,"Ġà®īà®¯à®¿à®°à¯įà®ªà¯įà®ªà®¿à®ķà¯įà®ķà®¿à®±à®¾à®©à¯į":6728,"Ġà®¨à®¿à®°à®¨à¯įà®¤à®°à®®à®¾à®ķ":6729,";\"":6730,"à®ħà®ªà¯įà®ªà®Łà®¿à®ļà¯į":6731,"à®¾à®¯à¯ĩ":6732,"à®¿à®Łà®®à¯ģà®³à¯įà®³":6733,"Ġà®ªà®£à®¿à®µ":6734,"Ġà®µà®´à®¿à®¯à¯Īà®ªà¯į":6735,"à®¤à®©à®ķà¯įà®ķ":6736,"Ġà®ļà¯ģà®ķà®®à¯į":6737,"Ġà®¨à®±à¯įà®ªà®¾à®ķà¯įà®ķà®¿à®¯":6738,"Ġà®°à®¹à¯įà®®à®¤à¯įà®¤à¯ģà®®à¯į":6739,"(à®ħà®¤à®±à¯įà®ķ":6740,"Ġà®īà®°à®¿à®¯à®©":6741,"Ġà®ļà¯Ģà®Łà¯įà®Ł":6742,"à®®à¯ĩà®²à®¾à®©":6743,"Ġà®¨à¯Ĥà®¹à¯į":6744,"à®ķà®Łà®µà¯ģà®ļà¯įà®ļà¯Ĭ":6745,"(S":6746,"CH":6747,"à¯įà®±à¯ģ":6748,"à®¾à®©à®¾à®ķ":6749,"Ġà®µà®¿à®Łà¯įà®Łà¯ģà®ķà¯į":6750,"Ġà®ķà¯Ĩà®Łà¯įà®Łà®µà®°à¯įà®ķà®³à¯į":6751,"Ġà®µà¯ĩà®¤à®©à¯Īà®¯à¯Īà®¯à¯ģà®®à¯į":6752,"Ġà®µà¯Īà®ªà¯įà®ªà¯Ģà®°à®¾à®ķ":6753,"Ġà®®à¯ģà®Łà®¿à®µà®¿à®²à¯į":6754,"Ġà®¯à®ĥà®ķà¯Ĥà®ª":6755,"Ġà®İà®²à¯įà®²à®¾à®µà®±à¯įà®±":6756,"Ġà®ªà¯ģà®ķà®²à®¿à®Łà®®à¯į":6757,"cess":6758,"Ġà®µà®±":6759,"Ġà®İà®µà®°à¯įà®ķà®³à¯ģà®Łà¯Īà®¯":6760,"roup":6761,"Ġà®¸à®ľà¯įà®¤":6762,"Ġà®ªà®¿à®±à®¿à®¤":6763,"à®µà®¾à®ļà®¿à®ķà®³à¯į":6764,"Ġà®īà®¯à®°à¯įà®¤à¯įà®¤à®¿":6765,"Ġà®ļà¯Ĥà®©à®¿à®¯à®ķà¯įà®ķà®¾à®°à®°à¯įà®ķà®³à¯į":6766,"(à®Ĩà®©à®¾à®²à¯į":6767,"à®µà®°à®¾à®ķà®µà¯ĩ":6768,"à¯ģà®ķà¯įà®ķà®¾à®²à¯ģà®®à¯į":6769,"Ġà®İà®¨à¯įà®¤à®ķà¯į":6770,"Ġà®Łà®ķà¯įà®ķ":6771,"à¯ģà®¨à®°à¯į":6772,"Ġà®ļà®®à¯įà®ªà®¾à®¤à®¿à®¤à¯įà®¤à¯ģà®ķà¯į":6773,"à®¿à®¯à®¿à®°à¯ģà®ªà¯įà®ªà®¾à®©à¯į":6774,"à®µà®©à®¿à®Łà®®à¯į":6775,"Ġà®ķà®¾à®£à¯įà®ªà®¿à®ķà¯įà®ķà®ªà¯įà®ªà®Łà¯įà®Łà®¾à®²à¯į":6776,"Ġà®īà®¯à®¿à®°à¯įà®ªà¯įà®ªà®¿à®¤à¯įà®¤à¯ģ":6777,"Ġà®ĩà®±à¯Īà®µà®©à®¾à®ķ":6778,"Ġà®ķà®©à®¿":6779,"Ġà®İà®´à¯ģà®ªà¯įà®ªà®ªà¯įà®ªà®Łà¯ģà®µ":6780,"à®ĩà®¤à®±à¯įà®ķà®¾à®ķ":6781,"Ġà®®à®©à®¤à®¿à®²à¯į":6782,"Ġà®īà®³à¯įà®³à®µà®±à¯įà®±à¯Īà®¯à¯ģà®®à¯į":6783,"à®¿à®±à¯įà®ķà¯ģà®®à®¿à®Łà¯Īà®¯à¯ĩ":6784,"Ġà®®à®¸à¯įà®ľà®¿à®¤à¯ģà®²à¯į":6785,"Ġà®İà®£à¯įà®£à®¿à®ķà¯įà®ķà¯Īà®¯à¯Ī":6786,"Ġà®ļà®¨à¯įà®¤à¯ĩà®ķà®¤à¯įà®¤à®¿à®²à¯ĩà®¯à¯ĩ":6787,"à¯Ĩà®±à¯įà®±":6788,"à®¿à®¯à®µà®°à¯įà®ķà®³à®¾à®ķ":6789,"à®ľà¯į":6790,"Ġà®ªà®¾à®°à¯įà®µà¯Īà®ķà®³à¯Īà®¯à¯ģà®®à¯į":6791,"Ġà®®à¯ģà®±à¯įà®ªà®Łà¯ģà®¤à¯įà®¤à®¿":6792,"à¯ģà®ĩ":6793,"à®ľà®¿à®©":6794,"Ġà®ªà®¾à®¤à¯ģà®ķà®¾à®µà®²à®©à®¾à®ķ":6795,"Ġà®ļà¯Ĩà®µà®¿à®®à®Łà¯ģà®ªà¯įà®ª":6796,"à®¿à®°à¯ģà®¨à¯įà®¤à®¿":6797,"Ġà®īà®Ļà¯įà®ķà®³à®¾à®²à¯į":6798,"à®¾à®³à®¿":6799,"Ġà®ħà®Łà®¿à®ªà¯įà®ªà®Ł":6800,"Ġà®İà®´à¯ģà®¨à¯įà®¤à¯ģ":6801,"Ġà®°à¯ĩ":6802,"à®®à®±à¯ģà®®à¯Īà®¯":6803,"Ġà®İà®©à®ķà¯įà®ķà®¾à®ķ":6804,"Ġà®¨à®¿à®°à¯įà®µà®ķ":6805,"Ġà®¤à®°à®µà¯ģà®¤à¯įà®¤":6806,"Ġà®¨à®¿à®ķà®°à®±à¯įà®±":6807,"Ġà®ªà¯Ĥà®®à®¿à®¯à¯ģà®®à¯į":6808,"ite":6809,"à®ħà®²à¯įà®²à®¾à®¹à¯įà®µà¯ģà®Łà¯Īà®¯":6810,"Ġà®¨à¯ĩà®°à¯įà®µà®´à®¿à®¯":6811,"à®ĩà®°à®£à¯įà®Łà¯ģ":6812,"Ġà®ªà¯Ĭà®´":6813,"OP":6814,"Ġà®ļà®²":6815,"à®Łà®¿à®¯à®¿":6816,"Ġà®ĩà®¤à®¿à®²à¯ĩ":6817,"Ġà®ªà®°à¯ģà®µ":6818,"à®ľà®¿à®ªà¯įà®°à®¯":6819,"à®®à®¯à®®à¯į":6820,"Ġà®ıà®¸à¯į":6821,"à®¿à®°à¯ģà®ķà¯įà®ķà®¿à®±à®¾à®°à¯įà®ķà®³à¯į":6822,"à¯ģà®£à¯įà®®à¯Īà®¯à¯Ī":6823,"Ġà®ĩà®µà®°à¯įà®ķà®³à¯ĩ":6824,"Ġà®®à®²à®ķà¯įà®ķà¯ģà®ķà®³à¯Ī":6825,"Ġà®ªà®¤à®¿à®²à®³":6826,"Ġà®ķà¯Ĥà®Łà¯įà®Łà®¤à¯įà®¤à®¾à®°à¯ģà®®à¯į":6827,"Ġà®İà®´à¯ģà®¤à¯ģà®®à¯į":6828,"Ġà®¨à®¾à®Łà®¿à®¯à®µà®°à¯ģà®ķà¯įà®ķà¯ģ":6829,"Ġà®°à®¹à¯įà®®à®¤à¯įà®¤à®¿à®²à¯į":6830,"Ġà®ļà®Łà¯įà®Łà®®à¯į":6831,"Ġà®ªà¯Īà®¤à¯įà®¤à®¿à®¯à®®à¯į":6832,"à®¿à®Łà®®à®¿à®°à¯ģà®¨à¯įà®¤à¯ĩ":6833,"Ġà®Ĩà®£à¯įà®ķà®³à¯Īà®¯à¯ģà®®à¯į":6834,"à®¤à®¿à®°à¯Ī":6835,"Ġà®ĩà®°à®µà®¿à®²à¯ģà®®à¯į":6836,"à¯ĩà®©à®¾":6837,"à®ĩà®±à¯ģà®¤à®¿à®¤à¯į":6838,"Ġà®ķà¯Ĥà®²à®¿à®¯à¯ģà®®à¯į":6839,"Ġà®®à®ķà¯įà®ķà®³à¯ģà®®à¯į":6840,"à®īà®£à¯įà®®à¯Īà®¯à®¿à®²à¯į":6841,"Ġà®ķà®¿à®³à®¿à®ķà¯į":6842,"à®¿à®©à¯įà®±à®¾à®°à¯įà®ķà®³à¯į":6843,"all":6844,"Ġà®µà®¾à®©à®¤à¯įà®¤à®¿à®©à¯į":6845,"Ġà®ªà¯ģà®ķà®´à¯Īà®ķà¯į":6846,"Ġà®¤à¯Ĩà®¯à¯įà®µà®Ļà¯įà®ķà®³":6847,"Ġà®®à®ķà®¿à®´à¯įà®ļà¯įà®ļà®¿à®¯":6848,"ĠZ":6849,"Ġà®ªà®ķà¯ģà®¤à®¿à®¯à¯Ī":6850,"Ġà®¤à®¿à®°à¯ģà®®à¯įà®ªà¯ģà®®à¯į":6851,"à®ħà®µà®°à®¤à¯ģ":6852,"Ġà®¨à®ªà®¿à®¯à®¾à®ķ":6853,"ĠMB":6854,"Ġà®¨à®©à¯įà®®à¯Īà®¯à®¾à®ķ":6855,"Ġunits":6856,"à®ķà¯ĩà®³à¯įà®µà®¿":6857,"\"à®īà®Ļà¯įà®ķà®³à¯į":6858,"Ġà®¨à¯Ĭà®Ł":6859,"Ġà®¨à®¾à®Łà¯ģ":6860,"Ġà®ħà®¤à®¿à®ķà®¾à®°à®®à¯ģà®®à¯į":6861,"Ġà®®à®°à¯įà®¯à®®à¯ģà®Łà¯Īà®¯":6862,"Ġà®¤à®¿à®ķà¯įà®°à¯ģ":6863,"à®ķà®Ļà¯įà®ķà®³":6864,"Ġà®®à®¿à®ķà¯Īà®¤à¯įà®¤à¯ģ":6865,"à¯ģà®¨à®¿à®²à¯Ī":6866,"à®¾à®°à¯ģà®ķà¯įà®ķà¯ģ":6867,"Ġà®Ĩà®£à¯Īà®¯à®¾à®ķ":6868,"Ġà®ħà®²à¯įà®²à®¾à®¤à®µà®±à¯įà®±à¯Ī":6869,"à®±à¯įà®±à¯ģà®®à¯Ī":6870,"Ġà®ļà®ķà®²":6871,"à®ªà¯Ĩà®¤à¯į":6872,"Ġà®¤à®µà¯įà®ªà®¾à®µà¯Ī":6873,"Ġà®¨à¯Ģà®¤à®¿":6874,"Ġà®ªà®Łà¯Īà®¤à¯įà®¤à¯ģà®³à¯įà®³":6875,"à®ļà®¾à®³à®°à®®à¯į":6876,"Ġà®¤à®Ļà¯įà®ķà®³à¯ģà®ķà¯įà®ķà¯ģà®³à¯į":6877,"Ġà®ħà®µà®°à¯ģà®ķà¯įà®ķà¯ģà®ªà¯į":6878,"Ġà®µà¯ĩà®ķà®®à®¾à®ķ":6879,"Ġà®ķà¯ĩà®Łà¯įà®ªà®µà®©à®¾à®ķà®µà¯ģà®®à¯į":6880,"Ġà®®à®¿à®ķà¯Īà®¤à¯įà®¤à®µà®©à¯ģà®®à¯į":6881,"à¯ģà®Ļà¯įà®ķà®¿":6882,"BAR":6883,"à®ªà®¿à®©à¯įà®©à¯ģà®®à¯į":6884,"Ġà®ļà®®à¯ģà®¤à®¾à®¯à®®à¯į":6885,"Ġà®®à®¿à®¤":6886,"PS":6887,"à®¤à¯ĭ":6888,"à®ļà¯ĩà®µà¯Īà®¯":6889,"ft":6890,"à¯įà®ķà¯ĭ":6891,"à®ķà®¾à®°à®£":6892,"Ġà®¤à¯ĩà®¤":6893,"à®¤à¯Ĩ":6894,"à¯įà®¸à®¿à®¯à®¾à®©à®¾":6895,"Ġà®ļà®°à®¿à®¯à®¾":6896,"à®²à¯Ĥà®¯à¯įà®¸à®¿à®¯à®¾à®©à®¾":6897,"Ġà®İà®´à¯ģà®¤à®¿":6898,"Ġà®ªà®¾à®°à¯įà®ķà¯įà®ķà¯ģà®®à¯į":6899,"à¯Ĩà®ķà¯įà®¸":6900,"Ġà®ĩà®µà¯įà®µà®¾à®±":6901,"Ġà®ļà®©à¯įà®®à®¾à®°à¯įà®ķà¯įà®ķ":6902,"à®¿à®±à®©à¯į":6903,"Ġà®¯à®¾à®°à¯ģà®ķà¯įà®ķà¯ģ":6904,"Ġà®ªà®¿à®ļ":6905,"à®¾à®©à®¿à®©à¯į":6906,"Ġà®¤à¯Ĥà®¤à®°à®¿à®©à¯į":6907,"ring":6908,"à®®à¯ģà®Łà®¿à®µà¯ģ":6909,"Ġà®®à¯ģà®·à¯įà®°à®¿à®ķà¯įà®ķà¯ģà®ķà®³à®¿à®²à¯į":6910,"Ġà®ķà¯ģà®±à¯Īà®µà®¾à®ķ":6911,"Ġà®Łà®ķà¯įà®ķà¯Ĭà®Ł":6912,"à®ĩà®µà¯Īà®¯à¯Ĩà®²à¯įà®²à®¾à®®à¯į":6913,"à¯Ĥà®±à¯įà®±":6914,"Ġà®ªà®¾à®°à¯įà®ªà¯įà®ªà®µà®©à®¾à®ķà®µà¯ģà®®à¯į":6915,"Ġà®ļà®®à¯Ĥà®ķà®¤à¯įà®¤à®¿à®©à®°":6916,"à®¿à®°à¯ģà®¨à¯įà®¤à®¾à®²à¯ģà®®à¯į":6917,"ah":6918,"Ġà®¨à®®à¯įà®ªà¯ģà®ķà®¿à®±à¯ĩà®©à¯į":6919,")à®µ":6920,"Ġà®¤à¯ĩà®°à¯įà®¨à¯įà®¤à¯Ĩà®Łà¯ģà®¤à¯įà®¤à¯ģ":6921,"Ġà®¤à®©à®¿à®¤à¯įà®¤":6922,"Ġà®ªà®¾à®©":6923,"Ġà®ķà¯ģà®´à®¨à¯įà®¤à¯Īà®ķà®³à¯į":6924,"à®¨à®Łà¯įà®ļ":6925,"Ġà®¤à¯Ĥà®¤à®©à¯į":6926,"Ġà®ħà®©à¯ģà®®à®¤à®¿à®¯à®¿à®©à¯įà®±à®¿":6927,"ĠJ":6928,"Ġà®ķà¯Ĥà®Łà¯ģà®®à¯į":6929,"Ġà®İà®©à®¤à¯ģ":6930,"Ġà®µà¯Ģà®£à®¾à®ķà¯įà®ķ":6931,"à¯ģà®ķà¯įà®ķà¯Ĭà®³à¯įà®³":6932,"Ġà®®à¯ģà®°à®£à¯įà®ª":6933,"Ġà®ļà®¾à®ªà¯įà®ªà®¿à®Ł":6934,"16":6935,"Ġà®ķà®¾à®°à®¿à®¯à®¤à¯įà®¤à®¿à®²à¯į":6936,"à®ªà®¾à®Ł":6937,"à®¿à®ļà®ªà¯Ĩà®¤à¯į":6938,"à¯ģà®®à®²à¯į":6939,"Ġà®¤à¯Ĥà®³":6940,"Ġà®īà®£à®°à¯įà®¨à¯įà®¤":6941,"Ġà®µà®Łà®¿à®ķà®Łà¯įà®Łà®¿Name":6942,"à¯ģà®ķà®¿":6943,"à®¨à®°":6944,"arch":6945,"à®¤à¯Īà®¯":6946,"à®ķà¯įà®ķà¯Ĥà®Łà®¾à®¤à¯ģ":6947,"720":6948,"wat":6949,"Ġà®ļà¯ĭà®¤à®©à¯Ī":6950,"à®©à®¿à®ķà¯įà®ķà®¿à®´":6951,"à®¤à¯įà®¤à®¿à®©à¯Ī":6952,"ant":6953,"à®ĵà®°à¯į":6954,"à®µà¯Ĩà®³à®¿à®¯":6955,"umber":6956,"av":6957,"à®²à®ķà®®à¯į":6958,"Ġà®ļà®®à¯įà®ªà®¨à¯įà®¤":6959,"à¯ģà®Ĩ":6960,"à®¯à¯ģà®®à¯į":6961,"à¯Ģà®¸":6962,"à®¿à®Ļà¯įà®ķà¯į":6963,"Ġà®īà®£à®µà¯Ī":6964,"Ġà®İà®´à¯ģà®¤à®ªà¯įà®ªà®Łà¯įà®Łà®¤à¯ģ":6965,"à¯ĩà®Łà¯ģ":6966,"à®¹à®¾à®°":6967,"Ġwhat":6968,"à®µà®¾à®²":6969,"à®¨à¯ĩ":6970,"Ġà®ķà®Łà¯įà®Łà®¾à®¯":6971,"Ġà®ªà¯Ĩà®°à¯ģà®®à¯įà®ªà®¾à®²à®¾à®©":6972,"Ġà®ĥà®ªà®¿à®°à¯įà®ħà®µà¯įà®©à¯ģà®Łà¯Īà®¯":6973,"à®ħà®ļ":6974,"Ġà®ħà®®à®°":6975,"Ġà®ªà¯Ī":6976,"Ġà®ħà®°à¯įà®ªà¯įà®ª":6977,"Ġà®®à®¸à¯Ģà®¹":6978,"Ġà®ļà®¾à®ªà®®à¯į":6979,"Ġworld":6980,"MM":6981,"à¯Īà®ªà¯įà®ªà®²à®ķà¯Ī":6982,"000":6983,"Ġà®ļà¯ģà®±à¯įà®±à®¿à®¯à¯ģà®³à¯įà®³":6984,"à¯ģà®ŀ":6985,"Ġà®ªà®µ":6986,"à®¿à®²à®¾à®©":6987,"Ġà®®à®±à¯Īà®¯à®¾à®ķà¯įà®ķ":6988,"Ġà®ĩà®¯à®Ļà¯įà®ķà¯ģà®®à¯į":6989,"Ġà®ķà®Łà®µà¯ģà®ļà¯įà®ļà¯Ĭà®²à¯į":6990,"Ġà®ªà®¿à®°à®¿à®¤à¯įà®¤à¯ģ":6991,"Ġà®ªà¯Ĩà®°à®¿à®¤à¯ģà®®à¯į":6992,"à¯ģà®®à®¾à®¯à®¿à®©à¯į":6993,"Ġà®ļà®®à¯įà®ªà®µ":6994,"IM":6995,"Ġà®®à®¾à®ªà¯Ĩà®°à¯ģà®®à¯į":6996,"Ġà®µà®Łà®¿à®µà®®à¯Ī":6997,"à®Ļà¯įà®ķà®¿à®²":6998,"Ġà®µà®¾à®¯à¯įà®ªà¯įà®ªà¯ģ":6999,"Ġà®®à¯Ĭ":7000,"à®¿à®ķà¯įà®ķà®¾à®¤":7001,"Ġà®ªà®£à¯įà®ªà¯ģà®ķà®³à¯į":7002,"à®Łà¯ģà®ķà®³à¯Ī":7003,"Ġà®¤à®¿à®°à¯ģà®ªà¯įà®ªà®¿à®µà®¿à®Ł":7004,"Ġwindow":7005,"à®ĩà®¯à®ķà¯įà®ķ":7006,"à®Ļà¯įà®ķà®³à¯ģà®Łà®©à¯į":7007,"Ġà®ħà®µà¯Īà®¯":7008,"Ġà®īà®¤à®¯":7009,"Ġà®¤à®¾à®°à®¾à®³":7010,"object":7011,"Ġà®ķà®¾à®°à¯į":7012,"Ġà®ĩà®³à¯Ī":7013,"Ġà®ĩà®°à¯ģà®ķà¯įà®ķà®¾à®¤à¯ģ":7014,"Ġà®ļà¯Ĩà®¯à¯įà®¤à®¿à®°à¯ģà®ªà¯įà®ª":7015,"Ġà®ķà®£à®ķà¯įà®ķà®¿à®Ł":7016,"mb":7017,"Ġà®®à®±à¯ģà®¤à¯įà®¤":7018,"Ġà®ķà®£à¯įà®Łà®¿à®ªà¯įà®ªà®¾à®ķ":7019,"à¯Īà®¯à®¾à®³à®°à¯į":7020,"Ġà®ªà¯ģà®¤à¯ģà®ªà¯įà®ª":7021,"Ġà®©":7022,"Ġà®ĩà®ļ":7023,"à¯ĭà®²à¯į":7024,"Ġà®®à®±à¯Īà®¨à¯įà®¤à¯ģ":7025,"à®ªà¯įà®ªà®Łà¯ģà®¤à¯įà®¤à¯ģà®®à¯į":7026,"Ġà®µà®¾à®¯à¯įà®ªà¯įà®ª":7027,"à®¤à¯ģà®µà®ķà¯įà®ķ":7028,"à®®à®¿à®²à¯įà®²à®¾à®¤":7029,"à®ĩà®°à®ķ":7030,"à®¿à®°à¯ģà®¨à¯įà®¤à®©à®°à¯į":7031,"à®¹à¯įà®°":7032,"Ġà®ªà®°à®¿à®¨à¯įà®¤à¯ģà®°":7033,"à®¾à®°à®¿à®ļ":7034,"ata":7035,"à®ļà®¾à®°à¯į":7036,"came":7037,"roon":7038,"Ġà®ķà¯ģà®±à¯Īà®¨à¯įà®¤à®¤à¯ģ":7039,"waters":7040,"à®ļà®Łà¯įà®Ł":7041,"Ġà®Łà¯Ī":7042,"18":7043,"à®°à¯įà®²":7044,"à®¤à¯ģà®®à®¾à®©":7045,"à¯įà®ļà®¿à®¯à®®à¯į":7046,"à®İà®µà¯įà®µ":7047,"Ġà®ķà®¾à®²à®¿à®¯à®¾à®ķ":7048,"Ġà®Ĩà®¤à®¾à®°à®®à¯į":7049,"à®¤à®Łà®®à¯į":7050,"à¯ģà®ŀà¯į":7051,"Ġà®µà®Łà®¿à®ķà®Łà¯įà®Ł":7052,"à®°à®¿à®Łà®®à¯į":7053,"à®®à¯ģà®®":7054,"Ġà®ļà¯Ĩà®¯à¯įà®µà®¤à®±à¯įà®ķà¯ģ":7055,"Ġà®¤à¯ĩà®Łà¯ģà®®à¯į":7056,"à®¾à®µà®¿à®Ł":7057,"Ġhttp":7058,"Ġà®ķà®¾à®±à¯įà®±à¯ģ":7059,"Ġà®¤à®¯à®¾à®°à®¾à®ķ":7060,"Ġà®ħà®°à¯įà®¤à¯įà®¤à®®à¯į":7061,"NAME":7062,"Ġà®ªà®©":7063,"à®ªà¯Ĩà®£":7064,"Ġà®ľà¯ĭà®Łà®¿":7065,"DA":7066,"Ġà®®à¯Ī":7067,"à®¤à¯įà®¤à®¿à®²à¯ĩà®¯à¯ĩ":7068,"Ġà®ħà®²à¯ģà®µ":7069,"à®®à¯ģà®Łà®¿à®¯à¯ģà®®à¯į":7070,"à®¤à¯ģà®µà®¾à®©":7071,"à®¯à¯Ĥ":7072,"à®µà®°à¯ģà®ķà¯įà®ķà¯ģà®®à¯į":7073,"à®¿à®¯à®¾à®ķà¯įà®ķ":7074,"Ġà®µà¯Īà®ķà¯įà®ķà®ªà¯įà®ªà®Łà¯įà®Ł":7075,"http":7076,"à¯ģà®Łà¯įà®Łà¯ģ":7077,"Ġà®µà®°à¯ģà®µà®¤à®±à¯įà®ķà¯ģ":7078,"à®ĩà®Łà®¤à¯ģ":7079,"à®ĩà®Łà¯Ī":7080,"à®ļà¯Īà®®à®©à¯į":7081,"Ġà®ªà®¾à®°à¯įà®¤à¯įà®¤à¯ĩà®©à¯į":7082,"Ġà®ħà®ļà¯ģà®¤à¯įà®¤":7083,"à®ħà®±à¯įà®ª":7084,"ages":7085,"à®¾à®©à¯įà®Ł":7086,"Ġà®®à®ŀà¯įà®ļà®³à¯į":7087,"Ġà®Ĵà®¤à¯įà®¤à®¿à®ļ":7088,"à®ļà®¤à¯įà®¤à®¿à®¯à®®à¯į":7089,"ook":7090,"ory":7091,"Ġà®ħà®±à®¿à®¯à®¾à®®":7092,"Ġà®ķà®²à®¨à¯įà®¤à¯ģ":7093,"à¯įà®ķà¯įCity":7094,"à¯Ĥà®²à¯į":7095,"à¯įà®ļà¯Ĩà®©à¯įà®Łà¯į":7096,"à¯ģà®ªà¯įà®ªà®Łà®¿":7097,"Ġà®īà®³à¯įà®³à®¿à®Łà¯įà®Ł":7098,"ĠMi":7099,"Ġà®µà®°à¯ģà®µà®¾à®©à¯į":7100,"à®Ĩà®²":7101,"à®ļà¯Ĩà®Ļà¯įà®ķà¯ģà®¤à¯įà®¤à¯ģ":7102,"Ġregions":7103,"à®¨à®Łà¯įà®ļà®¤à¯įà®¤à®¿à®°":7104,"Ġà®ľà®©à®¾à®¤à®¿à®ªà®¤à®¿":7105,"à®¿à®ŀà¯įà®ļ":7106,"à®¨à®©":7107,"à®Łà¯įà®Łà¯ģà®ķà¯į":7108,"Ġà®®à®¾à®±à¯įà®±à®Ļà¯įà®ķà®³à¯Ī":7109,"Ġà®ķà®©à®µà¯ģ":7110,"à®¨à¯įà®¤à®¿à®°à®®à¯į":7111,"à®ªà¯Ĥà®®à®¿":7112,"Ġà®ķà®¿à®°à®¾à®®":7113,"à®ķà®¾à®Łà¯įà®ļ":7114,"Ġà®ļà¯Ĩà®¯à¯įà®¤à¯ģà®ķ":7115,"Ġà®ļà®¾à®³à®°à®¤à¯įà®¤à¯Ī":7116,"Ġà®ļà¯Ĥà®°à®¿à®¯à®©à¯į":7117,"Constellation":7118,"Ġà®ĩà®µà®±à¯įà®±à®¿à®©à¯į":7119,"Ġà®®à®²à¯Īà®ķà®³à¯į":7120,"Ġet":7121,"à¯Ĥà®Łà®¿à®¤à¯į":7122,"Ġà®µà¯ĩà®£à¯įà®Łà¯ģà®®à¯Ĩà®©à¯įà®ª":7123,"à®¿à®ķà¯įà®ķà®¤à¯į":7124,"à®ªà¯ģà®©à®¿à®¤":7125,"Ġà®µà®¿à®µà®°à®¿à®¤à¯įà®¤":7126,"part":7127,"Ġà®µà®¿à®²à®Ļà¯įà®ķ":7128,"Ġà®¨à®·à¯įà®Łà®®à¯į":7129,"à®®à®¾à®±à¯įà®±à¯ģ":7130,"à®ªà¯ģà®ķà®´":7131,"Ġà®ļà¯ģà®®à®¤à¯įà®¤":7132,"Ġà®ªà¯Ĭà®°à¯ģà®³à¯Ī":7133,"à®µà®¾à®°à®¿":7134,"à®īà®²à®ķà®¤à¯įà®¤":7135,"Ġà®µà®¿à®±à¯įà®ķ":7136,"à®µà®°à¯ĩ":7137,"à®ķà®¿à®¯":7138,"à®ķà¯įà®ķà®ªà¯įà®ªà®Łà¯įà®Ł":7139,"Ġà®ħà®±à®¿à®µà®¿à®ķà¯įà®ķà¯ģà®®à¯į":7140,"à®¤à®¾à®µ":7141,"à®ķà¯įà®ķà®¾à®©":7142,"Ġà®ħà®¤à¯ģà®ª":7143,"Ġà®ĩà®°à¯ģà®ªà¯įà®ªà®¤à®¾à®ķ":7144,"à®¿à®¸à¯įà®Ł":7145,"Ġà®ªà®¾à®¤à¯ģà®ķà®¾à®ªà¯įà®ªà®¾à®©":7146,"Ġà®µà®¾à®°à¯įà®¤à¯įà®¤à¯Īà®ķà®³à¯į":7147,"Ġà®ļà¯Ĩà®¯à¯įà®¤à®¿à®ķà®³à¯į":7148,"Ġcheck":7149,"à®°à®ļ":7150,"Ġà®µà¯ĩà®£à¯įà®Łà¯ģà®®à¯Ĩà®©à¯įà®±à¯ģ":7151,"à®¤à®¾à®®":7152,"Ġà®ķà®©à¯įà®©":7153,"à®¿à®±à¯Ģà®°à¯įà®ķà®³à®¾":7154,"à®µà®©à®¿à®©à¯į":7155,"Ġà®µà®ķà¯Īà®ķà®³à¯į":7156,"Ġà®¤à®¿à®°à¯ģà®ªà¯įà®¤":7157,"Ġà®ħà®¤à®¿à®ķà®®à¯į":7158,"Ġà®¤à¯ģà®µà®ķà¯įà®ķà¯ģ":7159,"Ġà®ļà®¿à®ªà®¾à®°à®¿à®ļ":7160,"à¯ģà®¤à¯įà®¤à®¿":7161,"ublic":7162,"à¯įà®ķà¯įà®ķà¯ģà®®à¯į":7163,"Ġà®ªà®¯à®¿à®±":7164,"Ġà®®à¯ģà®©à¯įà®©à®¿à®²à¯Īà®¯à®¿à®²à¯į":7165,"à®ªà®Łà¯įà®Łà®¿à®¯":7166,"cameroon":7167,"à®¾à®²à®¤à¯įà®¤à®¿à®²à¯į":7168,"Ġà®ªà¯ģà®ķà¯Īà®ªà¯įà®ªà®Ł":7169,"ĠAl":7170,"à®¿à®ķà¯įà®ķà®¿à®Ł":7171,"Ġà®ķà®Łà¯įà®Łà®Ł":7172,"à®ĩà®±à®¨à¯įà®¤à¯ģ":7173,"Ġà®İà®£à¯įà®£à®¿":7174,"Ġà®ķà¯Īà®µà®¿à®Ł":7175,"à®ªà¯ĩà®ļ":7176,"Ġà®ĩà®µà®±à¯įà®±à®¿à®²à¯į":7177,"Ġà®ªà®ķà¯ģà®¤à®¿à®¯à®¿à®²à¯į":7178,"ick":7179,"rack":7180,"Ġà®ªà¯ģà®³à¯įà®³à®¿à®¯à¯Ī":7181,"à®®à®©à¯įà®©à®¿à®ķà¯įà®ķà®µà¯ģà®®à¯į":7182,"Ġà®ĩà®²à¯įà®²à®¾à®®à®²":7183,"Ġà®µà®±à¯įà®ª":7184,"Ġà®īà®³à¯įà®³à®µà®±à¯įà®±":7185,"Ġà®īà®°à®¿à®¯à®¤à®¾à®ķà¯ģà®®à¯į":7186,"Ġà®µà®±à¯įà®ªà¯ģà®±à¯ģà®¤à¯įà®¤":7187,"à®¿à®©à¯ĩà®©à¯į":7188,"à®Ĵà®²":7189,"Ġà®ļà®¿à®ķ":7190,"à®¿à®±à¯įà®ķà®¾à®©":7191,"Ġà®ķà®¾à®Łà¯įà®Łà®µà¯ģà®®à¯į":7192,"à®®à®±à¯įà®±à®µà®°à¯įà®ķà®³à¯Ī":7193,"Ġà®ªà®¾à®°à¯įà®ªà¯įà®ªà®¾à®°à¯įà®ķà®³à¯į":7194,"à®¤à¯ģà®Łà®©à¯į":7195,"ound":7196,"lat":7197,"Ġà®µà®ķà¯ģà®ªà¯įà®ª":7198,"Ġetc":7199,"Ġà®¨à¯Ģà®°à¯Ī":7200,"Ġà®¨à®¿à®²à¯Īà®¯à®¿à®²à¯ģà®®à¯į":7201,"(à®ħà®µà®©à¯ĩ":7202,"à¯Īà®¯à¯ģà®®":7203,"uk":7204,")?":7205,"Ġà®İà®Łà¯ģà®¤à¯įà®¤à¯ģà®°":7206,"à®ħà®µà¯į":7207,"Ġed":7208,"à®¿à®²à®¿à®°à¯ģà®ªà¯įà®ª":7209,"Ġà®ļà¯Ĩà®¯à¯įà®ķà®¿à®©à¯įà®±à®©":7210,"Ġà®ĩà®ļà¯Ī":7211,"Ġà®ļà®¾à®Łà¯įà®Ł":7212,"Ġà®µà¯Ĩà®³à®¿à®¯à®¾à®ķ":7213,"Ġà®µà®²à®ķà¯įà®ķ":7214,"Ġà®ķà¯ģà®°à¯įà®Ĩà®©à®¿à®²à¯į":7215,"Ġà®ķà®©à®¿à®µà®ķ":7216,"Ġà®®à¯ģà®¯à®©à¯įà®±":7217,"ters":7218,"à®®à¯ģà®´à¯ģ":7219,"Ġà®ļà®µà®©à®ªà®¤":7220,"GL":7221,"à®³à®µà¯ģà®®à¯į":7222,"à®¾à®°à¯ĭ":7223,"Ġà®ħà®µà®°à¯ģà®ķà¯įà®ķà¯ĩ":7224,"Ġà®ķà¯Ĥà®±à¯ģ":7225,"à¯ģà®ªà®Ł":7226,"à®µà®Łà®ķà¯įà®ķà¯ģ":7227,"Ġà®¨à®²à¯įà®µà®´":7228,"à®ªà¯Ĩà®¯à®°":7229,"ink":7230,"Ġà®ķà®µà®©à®¿à®¤à¯įà®¤à¯ģà®ķà¯į":7231,"à¯Ĩà®©à¯įà®±à¯ĩ":7232,"Ġà®¤à¯Ĭà®Łà®°à¯į":7233,"Ġà®¨à®¿à®©à¯Īà®µà¯Ĥà®Łà¯įà®Łà¯ģà®®à¯į":7234,"Ġà®ħà®°à¯įà®·à®¿à®©à¯į":7235,"à®®à¯Ĭà®¤à¯įà®¤":7236,"à®©à¯Īà®¤à¯įà®¤à¯ģà®®à¯į":7237,"Ġrare":7238,"à®¨à¯įà®¨à®¾à®³à®¿à®²à¯į":7239,"Ġà®ķà®¾à®£à¯įà®ªà¯Ģà®°à¯įà®ķà®³à¯į":7240,"Ġà®ĩà®´à¯ģà®ķà¯įà®ķ":7241,"Ġà®®à®©à®¿à®¤à®°à¯įà®ķà®³à¯ģà®ķà¯įà®ķà®¾à®ķ":7242,"Ġà®¨à¯ĩà®ļà®¿à®ķà¯įà®ķ":7243,"Ġà®ľà¯ĭà®Łà®¿à®¯à®¾à®ķ":7244,"Ġà®ħà®Łà®¿à®ķà¯įà®ķ":7245,"Ġà®ªà®ķà¯įà®ķà®®à¯ģà®®à¯į":7246,"Ġà®¨à®©à¯įà®®à¯Īà®ķà®³à¯į":7247,"Ġà®¤à®©à¯įà®®":7248,"Ġà®®à®¤à¯įà®¯à®©à¯į":7249,"Ġà®īà®¤à®µà¯ģà®®à¯į":7250,"Ġà®ĩà®¸à¯įà®¹à®¾à®ķà¯įà®ķ":7251,"à¯įà®ķà¯ĩ":7252,"à¯Ģà®ķ":7253,"à®®à¯ģà®£à¯įà®Łà¯ģ":7254,"Ġà®ļà¯Ĩà®¯à¯įà®ªà®µà¯Ī":7255,"Ġà®¹à®¿à®ľà¯įà®°à®¤à¯į":7256,"à®ħà®±à®¿à®µ":7257,"à¯ģà®µà®¤à®¾à®ķ":7258,"à®Łà®¿à®µà®¿à®Łà®¿":7259,"In":7260,"Ġà®ħà®£à®¿à®µ":7261,"Ġà®®à¯ģà®©à¯įà®©à¯ģà®®à¯į":7262,"Ġà®ħà®ļà¯įà®ļà®®à¯į":7263,"Ġà®ĩà®µà¯įà®µà¯ģà®²":7264,"Ġlist":7265,"Ġà®®à®£à®¨à¯įà®¤à¯ģ":7266,"Ġà®ļà®¿à®²à®°à¯Īà®ļà¯į":7267,"à®®à®¾à®©à®µà®°à¯įà®ķà®³à¯į":7268,"Ġà®µà¯ĩà®¤à®¤à¯įà®¤à¯Īà®¯à¯ģà®Łà¯Īà®¯":7269,"Ġà®ªà®¯à®£":7270,"arn":7271,"Ġà®ĩà®µà¯įà®µà¯ģà®²à®ķà®¿à®²à¯ģà®®à¯į":7272,"à®¿à®¯à®Ł":7273,"Ġà®¸à®¾à®²à®¿à®¹":7274,"à®ħà®¤à®¿à®²à®¿à®°à¯ģà®¨à¯įà®¤à¯ģ":7275,"Ġà®®à¯ģà®ĥà®®à®¿à®©à¯įà®ķà®³à¯ĩ":7276,"Ġà®ªà¯Ĩà®£à¯įà®ķà®³à®¿à®©à¯į":7277,"Ġà®ªà¯ģà®±à®ªà¯įà®ªà®Łà¯įà®Ł":7278,"Ġà®¤à¯Ĥà®¤à®°à¯ģà®ķà¯įà®ķà¯ģ":7279,"Ġà®ķà¯Ĥà®Łà¯įà®Łà®¤à¯įà®¤à®¾à®°à®¿à®Łà®®à¯į":7280,"Ġà®ļà®¨à¯įà®¤à¯ĩà®ķà®¤à¯įà®¤à®¿à®²à¯į":7281,"Ġà®®à¯Ģà®Łà¯įà®Łà®ªà¯įà®ªà®Łà¯ģà®µà¯Ģà®°à¯įà®ķà®³à¯į":7282,"Ġà®µà®²à¯įà®²à®®à¯Ī":7283,"à®ĩà®ªà¯įà®±à®¾à®¹à¯Ģà®®à¯į":7284,"(à®¨à¯įà®¨à®°à®ķ":7285,"Ġà®¤à®±à¯įà®ªà¯ĭà®¤à¯ģ":7286,"à®ķà¯įà®ķà®®à®¾à®ķ":7287,"à®ĩà®ķà¯į":7288,"Ġà®ħà®±à®¿à®µà¯Ģà®°à¯įà®ķà®³à¯į":7289,"Ġà®¤à®Ļà¯įà®ķà®³à¯ģà®ķà¯įà®ķà¯ģà®¤à¯į":7290,"Ġà®īà®±à¯ģà®¤à®¿à®¯à¯ģà®Łà®©à¯į":7291,"Ġà®µà®´à®¿à®ķà¯Ĩà®Łà¯ģà®¤à¯įà®¤":7292,"à®ķà¯Ĥà®±à¯ģà®µà¯Ģà®°à®¾à®ķ":7293,"Ġà®ĩà®ªà¯įà®ªà¯Ĥà®®à®¿à®¯à®¿à®²à¯į":7294,"Ġà®ļà®¾à®¸à®©":7295,"à®µà®ķà¯Ī":7296,"à®®à®¾à®ķà®¾à®¤à¯ģ":7297,"Ġà®ªà¯Ĥà®®à®¿à®¯à®¿à®²à¯ģà®®à¯ģà®³à¯įà®³":7298,"Ġà®ıà®±à¯įà®ªà®Łà¯ģà®¤à¯įà®¤à®¿":7299,"Ġà®ķà®©à®¿à®µà®°":7300,"Ġà®İà®ļà¯įà®ļà®°à®¿à®ķà¯įà®ķà¯Īà®¯à®¾à®ķ":7301,"Ġà®ļà¯Ģà®ķà¯įà®ķà®¿à®°à®®à¯į":7302,"ROAN":7303,"Ġà®ķà®©à®¿à®µà®°à¯įà®ķà¯įà®ķ":7304,"à®ªà¯įà®ªà®µà®©à¯į":7305,"Ġà®¨à®¿à®°à®¾à®ķà®°à®¿à®ķà¯įà®ķà¯ģà®®à¯į":7306,"à®ķà®°à¯įà®ªà¯įà®ª":7307,"Ġà®ļà¯Ĩà®²à¯įà®²à®¾à®¤":7308,"Ġà®µà¯Ĩà®³à®¿à®ªà¯įà®ªà®Łà¯įà®Łà¯ģ":7309,"Ġà®µà®¾à®ļà®¿à®ķà®³à¯į":7310,"Ġà®Ĵà®°à¯ģà®ķà¯įà®ķà®¾à®²à¯ģà®®à¯į":7311,"Ġà®ħà®µà®©à¯ģà®®à¯į":7312,"Ġà®®à®©à®¿à®¤à®°à¯įà®ķà®³à®¿à®Łà¯Īà®¯à¯ĩ":7313,"Ġà®ķà¯ģà®®à®¾à®°à®°à¯į":7314,"à®¿à®¯à®¤à¯ģà®®à¯į":7315,"à®ķà®ĥà®ª":7316,"à®¿à®¤à¯įà®¤à®µà®°à¯įà®ķà®³à®¾à®ķ":7317,"Ġà®ļà¯Ĩà®¯à¯įà®ªà®µà®±à¯įà®±à¯Īà®¯à¯Ĩà®²à¯įà®²à®¾à®®à¯į":7318,"Ġà®µà®°à®®à¯įà®ªà¯ģà®ķà®³à¯Ī":7319,"Ġà®®à®¾à®°à¯įà®ķà¯įà®ķà®®à®¾à®ķà¯ģà®®à¯į":7320,"Ġà®ªà®¾à®ķà¯įà®ķà®¿à®¯à®®à¯ģà®³à¯įà®³":7321,"Ġà®ļà¯Ģà®ķà¯įà®ķà®¿à®°à®®à¯ĩ":7322,"à®¤à¯įà®¤à®¿à®±à¯įà®ķà¯ģà®³à¯įà®³":7323,"sthis":7324,"Ġà®ķà®²à®¨à¯įà®¤":7325,"Ġà®ķà¯Ĥà®±à¯ģà®ªà®µà®°à®¾à®ķà®µà¯ģà®®à¯į":7326,"Ġà®¤à¯Ģà®°à¯įà®ªà¯įà®ªà®³à®¿à®ªà¯įà®ªà®¾à®©à¯į":7327,"\"à®ħà®²à¯įà®²à®¾à®¹à¯įà®µà¯Īà®¯à®©à¯įà®±à®¿":7328,"Ġwhatsthis":7329,"à®¾à®°à®¿à®Łà®®à¯į":7330,"Ġà®İà®Ļà¯įà®ķà®³à®¿à®²à¯į":7331,"à¯ģà®ªà®µà®°à¯įà®ķà®³à®¾à®ķà®µà¯ģà®®à¯į":7332,"Ġà®İà®©à¯įà®©à¯Īà®¯à¯ĩ":7333,"Ġà®®à®¾à®±à¯įà®±à®ªà¯įà®ªà®Łà¯įà®Ł":7334,"Ġà®¤à®¿à®°à¯ģà®®à¯įà®ªà®ķà¯į":7335,"Ġà®µà®¿à®µà®ļà®¾à®¯":7336,"à®¤à®¾à®²à¯ģà®®à¯į":7337,"à®ĩà®£à¯Īà®µ":7338,"Ġà®ªà¯Ĥà®°à¯įà®¤à¯įà®¤":7339,"Ġà®µà®²à®ķà¯įà®ķà®°à®Ļà¯įà®ķà®³à¯į":7340,"à®¿à®ļà®¾à®¯":7341,"Ġà®ļà®®à¯Ĥà®ķà®¤à¯įà®¤à®¾à®°à®¾à®ķà®µà¯ĩ":7342,"à®¤à¯ĩà®Ł":7343,"Ġà®ªà¯Ĥà®®à®¿à®¯à®¿à®©à¯ģà®Łà¯Īà®¯à®µà¯ģà®®à¯į":7344,"Ġà®ªà¯Ĩà®£à¯įà®ķà®³à®¿à®²à¯į":7345,"Ġà®ħà®´à®ķà®¾à®ķà®ķà¯į":7346,"\"à®ħà®²à¯įà®²à®¾à®¹à¯įà®µà®¿à®©à¯į":7347,"à®ķà¯įà®ķà®¤à¯įà®¤à¯Ī":7348,"Ġà®ļà¯ģà®µà®©à®ª":7349,"Ġà®µà¯Ģà®Łà¯ģà®ķà®³à¯Ī":7350,"Ġà®īà®£à®°à¯įà®µà¯ģ":7351,"Ġà®®à®©à¯įà®©à®¿à®¤à¯įà®¤à®¾à®©à¯į":7352,"Ġà®µà¯Īà®ķà¯įà®ķà®¿à®±à®¾à®©à¯į":7353,"à®¿à®°à¯ģà®µà®°à¯ģà®ķà¯įà®ķà¯ģà®®à¯į":7354,"Ġà®ªà®¯à®©à®±à¯įà®±":7355,"à¯įà®¹à¯ģà®²à¯į":7356,"Ġà®µà®¿à®³à¯Īà®¯à®¾à®Łà¯įà®Łà¯Ī":7357,"Ġà®®à¯Ĥà®©à¯įà®±à®¿à®²à¯į":7358,"Ġà®®à®¹à¯įà®ĥà®ª":7359,"à®²à®µà¯įà®¹à¯ģà®²à¯į":7360,"Ġà®µà®²à¯įà®²à®®à¯Īà®¯à¯ģà®Łà¯Īà®¯":7361,"à¯ģà®ªà®µà®°à¯įà®ķà®³à¯ģà®®à¯į":7362,"Ġà®ªà®¯à®ªà¯įà®ªà®Łà¯ģà®µ":7363,"Ġà®ħà®³à®¿à®¤à¯įà®¤à¯ģ":7364,"(à®ħà®µà¯įà®µà®¾à®±à¯ģ":7365,"à®ªà®ķà¯Ī":7366,"à®µà¯Īà®¯à®¾à®ķà®µà¯ģà®®à¯į":7367,"Ġà®µà®¿à®·à®¯à®Ļà¯įà®ķà®³à¯Ī":7368,"Ġà®µà¯Īà®ªà¯įà®ªà®¤à¯Īà®¯à¯ģà®®à¯į":7369,"Ġà®ĥà®ªà®¿à®°à¯įà®ħà®µà¯įà®©à¯ģà®®à¯į":7370,"Ġà®¨à®©à¯įà®®à¯Īà®¯à¯ģà®Łà¯Īà®¯":7371,"Ġà®ļà¯Ĩà®¯à¯įà®¯à®ªà¯įà®ªà®Łà®µà¯ģà®®à¯į":7372,"Ġà®ļà¯ģà®µà®©à®ªà®¤à®¿à®¯à®¿à®²à¯į":7373,")à®³":7374,"yle":7375,"Ġj":7376,"à®²à¯įà®ķà®³à¯Īà®¯à¯ģà®®à¯į":7377,"Ġneeds":7378,"à¯Ĥà®°à®£":7379,"Ġà®¨à®ªà®¿à®®":7380,"à®ķà®¾à®²à¯įà®ļà®¿à®¯à®®à¯į":7381,"Ġà®¨à®²à¯įà®²à®Łà®¿à®¯à®¾à®°à¯įà®ķà®³à®¿à®²à¯į":7382,"Ġrarely":7383,"Ġà®ªà®¾à®ª":7384,"Ġà®İà®Ļà¯įà®ķà®³à¯ģà®ķà¯įà®ķà¯ģà®®à¯į":7385,"Ġà®¤à¯Ĩà®°à®¿à®¯à®µà®¿à®²à¯įà®²à¯Ī":7386,"Ġà®®à¯Ĥà®Łà®¿à®ķà¯į":7387,"à¯ģà®Łà¯Īà®¯à®µà®°à¯įà®ķà®³à¯į":7388,"à¯ģà®ķà®¿à®±à®¾à®°à¯įà®ķà®³à®¾":7389,"à¯Īà®ķà¯įà®ķà®ļà¯į":7390,"Ġà®®à®¿à®ķà¯ģà®¤":7391,"Ġà®ħà®°à®¿à®¯à®¾à®ļ":7392,"à¯įà®¨à¯Ģ":7393,"Ġà®ħà®µà¯įà®µà¯Ĥà®°":7394,"à®¿à®²à®¿à®°à¯ģà®¨à¯įà®¤à¯ģà®³à¯įà®³":7395,"Ġà®¨à®©à¯įà®®à¯Īà®¯à¯ģà®®à¯į":7396,"Ġà®ĥà®ªà®¾à®¸":7397,"à®ķà¯įà®ķà®¾à®³à®®à¯į":7398,"Ġà®ļà¯Ĭà®°à¯ģà®ķà¯ģà®ªà¯įà®ªà¯Ĭà®°à¯ģà®³à¯į":7399,"Ġà®ļà¯Ĩà®´":7400,"à¯Īà®ķà®³à¯ĩ":7401,"à®ħà®²à¯įà®²à®¾à®¹à¯įà®µà¯Īà®¯à®©à¯įà®±à®¿":7402,"(à®ħà®ªà¯įà®ª":7403,"Ġà®¤à®®à¯įà®®à®¿à®Łà®®à¯į":7404,"Ġà®ķà¯ģà®ĥà®ªà¯įà®°à¯Ī":7405,"Ġà®²à®¿à®²à¯įà®²à®¾à®¹à¯į":7406,"Ġà®īà®°à¯Īà®¯à¯Ī":7407,"Ġà®ļà®¿à®¨à¯įà®¤à®¿à®¤à¯įà®¤":7408,"Ġà®Ĩà®°à®¾à®¯":7409,"à®Ĵà®©à¯įà®±":7410,"Ġà®ħà®³à®µà¯ģà®ķà¯įà®ķà¯ģ":7411,"Ġà®²à¯Ĥà®¤à¯įà®¤à¯ģà®Łà¯Īà®¯":7412,"Ġà®ħà®Łà®¿à®ļà¯įà®ļà¯ģà®µ":7413,"à¯ĩà®¤à®©à¯Ī":7414,"à®·à¯ģà®Ĳ":7415,"able":7416,"à®¤à®°à¯įà®®":7417,"à®®à®Łà¯Īà®¯à®ļà¯į":7418,"Ġà®ªà¯ģà®±à®¤à¯įà®¤à®¿à®²à®¿à®°à¯ģà®¨à¯įà®¤à¯ģ":7419,"(à®¨à®¿à®©":7420,"âĻªčĊ":7421,"à®ķà®°à®¿à®¯à¯įà®¯":7422,"Ġà®®à¯ģà®¸à¯įà®²à¯Ģà®®":7423,"à®µà®¾à®°à¯ģà®Ļà¯įà®ķà®³à¯į":7424,"Ġà®¨à®©à¯įà®ķà®±à®¿à®¨à¯įà®¤à®µà®©à®¾à®ķ":7425,"à®Łà®¾à®ķ":7426,"à®ķà¯įà®ķà®³à¯į":7427,"à®ļà®°à®¿à®¯à®¾à®©":7428,"Ġà®ļà¯ĩà®°à¯įà®ķà¯įà®ķà®µà¯ģà®®à¯į":7429,"Ġà®ıà®µà®ªà¯įà®ªà®Łà¯įà®Ł":7430,"Ġà®µà®¸à®¿à®¯à¯įà®¯":7431,"à¯ģà®®à®¾à®ķà®µà¯ģà®®à¯į":7432,"Ġà®īà®³à¯įà®³à®µà¯Ī":7433,"Ġà®¤à¯Ģà®°à¯ģà®®à¯į":7434,"Ġà®ªà®¿à®©à¯įà®©à®°":7435,"à®¤à®µà¯įà®ª":7436,"Ġà®®à¯ģà®ĥà®®à®¿à®©à¯įà®ķà®³à®¿à®²à¯į":7437,"Ġà®ªà®¿à®©à¯įà®ªà®±à¯įà®±à¯ģà®µ":7438,"Ġà®¤à®²à®¤à¯įà®¤à®¿à®²à¯į":7439,"Ġà®ªà¯ĩà®°à®¾à®±à¯įà®±à®²à¯į":7440,"Ġà®ļà¯Ģà®°à¯įà®¤":7441,"\",":7442,"à®®à®¾à®°":7443,"à¯Ĥà®ª":7444,"à®ħà®Ļà¯įà®ķ":7445,"à®¿à®ķà®®à¯į":7446,"Ġà®īà®Ļà¯įà®ķà®³à®¿à®°à¯ģà®µà®°":7447,"à®ĩà®±à¯ģà®¤à®¿à®¯à®¿à®²à¯į":7448,"Ġà®İà®£à¯įà®£à¯Ī":7449,"Ġà®ªà®Łà¯Īà®¤à¯įà®¤à¯ģà®³à¯įà®³à®¾à®©à¯į":7450,"Ġà®µà¯Īà®ķà¯įà®ķà®¿à®©à¯įà®±":7451,"Ġà®ħà®µà¯įà®µà®¿à®°à¯ģà®µà®°à®¿à®©à¯į":7452,"ĠImage":7453,"Ġà®¨à®±à¯įà®ķà¯Ĥà®²à®¿à®¯":7454,"to":7455,"·à¯įà®Ł":7456,"à®²à¯įà®ķà®³à®¾à®ķ":7457,"à®ªà¯įà®ªà®Łà®¿à®ķà¯į":7458,"Ġà®ħà®µà®±à¯įà®±à¯ģà®ķà¯įà®ķà¯ģ":7459,"Ġà®ªà®£à®¿à®¨à¯įà®¤":7460,")à®¤à¯Īà®ķà¯į":7461,"ogl":7462,"à®¨à®¾à®Łà¯įà®Ł":7463,"à®²à¯įà®²à®¾à®µ":7464,"à¯ģà®®à¯įà®¤à®¾à®©à¯į":7465,"Ġà®ķà¯Ĥà®°":7466,"Ġà®ļà¯ĩà®µ":7467,"Ġà®ķà®£à¯įà®£à®¿à®¯à®®à®¿à®ķà¯įà®ķ":7468,"min":7469,"à®¤à¯Īà®¯à¯Ĩà®²à¯įà®²à®¾à®®à¯į":7470,"Ġà®®à®¿à®²à¯įà®²":7471,"à®µà®°à¯įà®ķà®³à®¾à®¯à¯į":7472,"Ġà®¤à¯Ĥà®¤à¯Ī":7473,"Ġà®¤à®µà®¿à®°à¯įà®¤à¯įà®¤à¯ģà®ķà¯į":7474,"Ġà®µà¯ĩà®¤à®©à¯Īà®ķà¯įà®ķà¯ģ":7475,"Ġà®ļà¯Ĥà®©à®¿à®¯à®®à¯į":7476,"à®ħà®°à¯įà®°à®¹à¯įà®®":7477,"Ġà®ªà¯ģà®¤à¯įà®¤à®ķà®¤à¯įà®¤à®¿à®²à¯į":7478,"Ġà®ĩà®ļà¯įà®ļà¯Īà®ķà®³à¯Ī":7479,"Ġà®µà®´à®ķà¯įà®ķà®®à®¾à®©":7480,"Ġà®¸à¯ģà®²à¯Īà®®à®¾à®©à¯į":7481,"Ġà®ªà®¯à®ªà®ķà¯įà®¤":7482,"à®ªà¯įà®ªà®±à¯įà®±":7483,"Ġà®ħà®²à¯įà®²à®¾à®¹à¯įà®µà®¿à®Łà®®à®¿à®°à¯ģà®¨à¯įà®¤à¯ĩ":7484,"Ġà®¨à®Łà®®à®¾à®Ł":7485,"Ġà®ļà¯Ĩà®¯à¯įà®ķà®¿à®©à¯įà®±à®¾à®©à¯į":7486,"Ġà®İà®²à¯ģà®®à¯įà®ªà¯ģà®ķà®³à®¾à®ķà®µà¯ģà®®à¯į":7487,"oss":7488,"Ġà®ķà®Łà®®à¯Ī":7489,"à®¨à®¿à®°à®¾à®ķà®°à®¿à®ªà¯įà®ªà®µà®°à¯įà®ķà®³à¯į":7490,"à®¤à¯ģà®¤à®¿":7491,"à®ķà®¿à®´":7492,"Ġà®¨à¯Ģà®¯à¯ģà®®à¯į":7493,"à¯ģà®¸à¯į":7494,"TP":7495,"fa":7496,"Ġà®¨à®¿à®©à¯Īà®¤à¯įà®¤à¯ģà®ªà¯į":7497,"Ġà®ıà®Łà¯įà®Łà®¿à®²à¯į":7498,"Ġà®İà®´à¯ģà®¤à®ªà¯įà®ªà®Łà¯įà®Ł":7499,"Ġà®®à¯Ĥà®¸à®¾à®µà¯ģà®ķà¯įà®ķà¯ģà®®à¯į":7500,"Ġà®ħà®µà®°à¯ģà®ķà¯įà®ķà¯ģà®¤à¯į":7501,"Ġà®¨à¯Ģà®Ļà¯įà®ķà®¿":7502,"Ġà®ħà®Łà®¿à®¯à®¾à®°à¯į":7503,"Ġim":7504,"à®©à¯Īà®¯à®¿à®²à¯į":7505,"Ġà®ļà®¿à®®":7506,"Ġà®¤à®¿à®ļà¯Ī":7507,"Ġà®ļà¯Ĩà®¤à¯įà®¤":7508,"à®¿à®¤à®®à®¾à®©":7509,"Ġà®ĩà®°à¯ģà®ķà¯įà®ķà®Łà¯įà®Łà¯ģà®®à¯į":7510,"Ġà®µà®°à®ªà¯įà®ªà®Łà¯ģà®®à¯į":7511,"Ġà®ļà®¤à¯įà®¤à®¿à®¯à®¤à¯įà®¤à¯Īà®ķà¯į":7512,"Ġà®ķà®¿à®°à®¯":7513,"à®µà®¿à®¤à®®à®¾à®©":7514,"Ġà®¨à®¿à®ļà¯įà®ļà®¯à®®à¯į":7515,"uery":7516,"15":7517,"à¯įà®ªà¯Ĭ":7518,"à®®à®¿à®¸":7519,"à®¿à®°à¯ģà®ªà¯įà®ªà®¤à¯Īà®ķà¯į":7520,"à®¿à®ªà¯ģà®°":7521,"Ġà®ªà®¿à®°à®¿":7522,"Ġà®ļà¯Ĩà®²à¯įà®ķà®¿à®±à¯ĩà®©à¯į":7523,"Ġà®īà®Łà¯Īà®¯à®µà®©à¯į":7524,"Ġà®ªà®°à®¿à®ķà®¾à®ļ":7525,"Ġà®ĩà®£à¯Īà®µà¯Īà®ķà¯įà®ķ":7526,"Ġà®Ĵà®´à¯ģà®Ļà¯įà®ķà¯ģ":7527,"Ġà®¨à®¿à®ĥ":7528,"à®²à®©à¯į":7529,"à®ªà®¤à®¿à®²à¯į":7530,"à®¾à®³à®°à¯įà®ķà®³":7531,"à¯Īà®ķà®³à®¾à®ķ":7532,"Ġà®ķà®Łà®²à¯į":7533,"à¯ģà®µà®¿à®Łà¯įà®Łà®©":7534,"à®µà®¾à®©à®µà®°à¯įà®ķà®³à¯į":7535,"ĠThe":7536,"ĠThis":7537,"à®µà®¿à®°à¯Īà®µ":7538,"à®ªà¯Ĩà®°à®¿à®¯":7539,"Ġà®®à¯Ĩà®©":7540,"Ġà®¯à¯Ĥà®¸à¯ģà®ĥà®ªà¯į":7541,"à®¿à®±à¯įà®ķà®¾à®ķ":7542,"Ġapp":7543,"Ġà®ķà¯Ĥà®Łà¯įà®Łà®®à®¾à®ķ":7544,"Ġà®®à®¾à®±à¯ģà®ªà®Łà¯įà®Ł":7545,"ack":7546,"à®¾à®µà¯ĩ":7547,"Ġà®®à®ķà¯įà®ķà®³à¯Īà®¯à¯ģà®®à¯į":7548,"Ġà®ĩà®µà¯įà®µà®¿à®°à¯ģ":7549,"à®°à¯ĭà®ªà¯įà®ª":7550,"Ġà®ĩà®±à¯ģà®¤à®¿à®¨":7551,"Ġà®ļà¯Ĩà®²à¯įà®µà®®à¯ģà®®à¯į":7552,"Ġà®ķà®¾à®²à¯Īà®¯à®¿à®²à¯į":7553,"nam":7554,"Ġà®ªà®ļà¯įà®ļà¯Ī":7555,"Ġà®ļà¯Ĩà®¯à¯įà®µà®¤à®±à¯įà®ķà®¾à®ķà®µà¯ģà®®à¯į":7556,"Ġà®ĩà®°à®Łà¯įà®Łà®¿à®ªà¯įà®ª":7557,"(à®©":7558,"à®ķà¯įà®°":7559,"Ġà®īà®Ļà¯įà®ķ":7560,"Ġà®®à¯ģà®©à¯Īà®¯":7561,"ich":7562,"à®¾à®¸à®¾à®°à¯ĭ":7563,"à¯ģà®³à¯įà®³à®©":7564,"à¯ģà®ķà®³à¯ģà®Łà®©à¯į":7565,"à¯Ĩà®©à®µà¯ĩ":7566,"Ġà®µà®¿à®µà®¾à®¤":7567,"Ġà®ķà®¾à®°à®¿à®¯à®Ļà¯įà®ķà®³à¯ģà®®à¯į":7568,"à®¨à¯ĩà®°à®®à¯į":7569,"Ġà®µà®´à®¿à®ķà®³à®¿à®²à¯į":7570,"Ġà®¨à¯ĩà®°à®Ļà¯įà®ķà®³à®¿à®²à¯į":7571,"Ġà®ħà®©à¯ģà®®à®¤à®¿à®ķà¯įà®ķà®ªà¯įà®ªà®Łà¯įà®Ł":7572,"Ġà®ªà¯ģà®¤à¯įà®¤à®ķà®®à¯į":7573,"à®¤à¯įà®¤à®¿à®°à®®à¯į":7574,"Ġà®İà®©à¯įà®©à®µ":7575,"à®®à®©à®¿à®¤à®©à¯į":7576,"Ġà®¨à®¿à®©à¯Īà®ķà¯įà®ķà®µà®¿à®²à¯įà®²à¯Ī":7577,"Ġà®ĩà®°à¯ģà®ķà¯įà®ķà¯ģ":7578,"Ġà®ĩà®±à®ķà¯įà®ķà®ªà¯įà®ªà®Ł":7579,"Ġif":7580,"Ġà®ªà®¯à®®à¯ģà®±":7581,"à®®à¯ģà®¨à¯įà®¤à¯Īà®¯":7582,"Ġà®ļà¯Ĩà®¯à®²à¯įà®ķà®³":7583,"à®¿à®µà®¿à®Łà¯įà®Łà¯ģ":7584,"Ġ)":7585,"Ġà®µà¯Ĩà®°":7586,"600":7587,"Ġà®İà®Łà¯ģ":7588,"à®ĩà®°à¯ģà®¨à¯įà®¤":7589,"à®Īà®¸à®¾":7590,"Ġà®ļà¯Ĩà®°à¯ģà®ķà¯ģ":7591,"à®ªà®¿à®®à¯įà®ªà®¤à¯įà®¤à¯Ī":7592,"Ġà®®à®±à¯ģà®ªà¯Ĩà®¯à®°":7593,"Ġà®ħà®ļà¯įà®ļà¯ģà®ªà¯įà®ªà¯Ĭà®±à®¿":7594,"à¯ģà®ķà¯Ī":7595,"à¯ģà®°à®¿à®®":7596,"Ġà®ļà¯Ĩà®²à¯įà®²à¯ģà®ª":7597,"Ġà®ħà®°à¯ģà®³à¯ģà®®à¯į":7598,"à®¿à®©à¯įà®±à®¿à®ķà¯į":7599,"à¯Ĭà®²":7600,"Ġà®ķà®Łà¯ģà®®à¯Īà®¯à®¾à®ķ":7601,"à®®à¯Ģà®³":7602,"Ġà®¤à®¯à®¾à®°à¯į":7603,"à®ķà®Łà¯Īà®ļ":7604,"PP":7605,"à¯Ģà®ķà®°":7606,"Ġà®ħà®¨à®¿à®¯à®¾à®¯à®®à®¾à®ķ":7607,"Ġà®Ĵà®Łà¯įà®Łà®ķà¯Ī":7608,"PG":7609,"17":7610,"Ġà®ħà®±à¯įà®±":7611,"Ġà®¤à®°à¯įà®®à®®à¯į":7612,"Ġà®ĩà®´à¯ģà®¤à¯įà®¤à¯ģà®ļà¯į":7613,"Ġabout":7614,"Ġà®ķà®¾à®©à¯įà®ķ":7615,"à¯ģà®ķà¯įà®ķà¯ģà®ªà¯įà®ªà®¿à®©à¯į":7616,"à®ľà¯Ĥ":7617,"à®¨à¯Ģà®°":7618,"à¯ģà®¤à¯įà®¤à®²à¯į":7619,"Ġà®µà®°à®µà®¿à®²à¯įà®²à¯Ī":7620,"à®¿à®¯à®¾à®¯à¯į":7621,"à®¿à®¤à®´à¯Ī":7622,"AS":7623,"Ġà®ħà®®à¯įà®ª":7624,"à®ħà®®à¯Īà®ªà¯įà®ªà¯ģ":7625,"Ġà®µà®ļà®¤à®¿à®¯":7626,"à®µà®¾à®´à¯įà®ķà¯įà®ķà¯Ī":7627,"à®¤à¯Ĩà®³à®¿à®µà®¾à®©":7628,"Ġà®ªà¯Ĭà®´à¯ģà®¤à¯ģ":7629,"à¯įà®²à®¿":7630,"Ġà®İà®ªà¯įà®ªà¯ĭà®¤à¯ģà®®à¯į":7631,"viet":7632,"MB":7633,"Ġà®¤à®¿à®£":7634,"à®ªà¯Ĭà®°à¯ģà®³à¯į":7635,"à®¿à®ªà¯įà®ªà®¯à®©à¯į":7636,"à¯įà®ķà®¿à®±à®¾à®°à¯į":7637,"Ġà®¨à¯Ĩà®±":7638,"à®Ĵà®´à¯ģà®Ļà¯įà®ķ":7639,"ive":7640,"à®ķà®£à®ķà¯įà®ķ":7641,"Ġà®ħà®Łà¯Īà®µà®¿à®²à¯į":7642,"Ġà®ĩà®°à¯ģà®ªà¯įà®ªà¯Ģà®°à¯įà®ķà®³à¯į":7643,"Ġà®µà®¿à®³à¯Īà®µà¯ģ":7644,"Ġà®¤à®¾à®©à®¾":7645,"=\\\\\\\\":7646,"à®°à¯ģà®ķà¯įà®ķ":7647,"Ġà®ªà¯įà®³":7648,"à®ķà®®à¯įà®ª":7649,"Ġà®ļà®µà®¾à®°à®¿":7650,"à¯ģà®µà®Łà¯Ī":7651,"à¯Īà®ķà¯įà®ķà®¾à®°":7652,"à®µà®¿à®²à¯į":7653,"Ġà®ħà®®à¯Īà®¤à¯įà®¤à¯ģ":7654,"40":7655,"Ġà®µà¯ĩà®ķ":7656,"Ġà®µà¯Ģà®Łà¯įà®Łà¯Ī":7657,"à®¿à®ķà¯įà®ķà®ªà¯įà®ªà®Łà¯ģà®ķà®¿à®±à®¤à¯ģ":7658,"à®©à®¾à®²":7659,"à¯įà®²à¯Ī":7660,"à®¿à®¤à¯įà®¤à®©à®°à¯į":7661,"EX":7662,"Ġà®ĩà®Ļà¯įà®ķ":7663,"Ġà®µà®¿à®µà®°à®®à¯į":7664,"Ġà®ķà®£à®¿à®©à®¿":7665,"à®ĩà®¯à®²à¯įà®ªà®¾à®©":7666,"à®¤à®¿à®°à¯ģà®¤à¯įà®¤":7667,"à®ķà®Ļà¯įà®ķà®³à¯į":7668,"Ġà®Ĩà®ķà®¿à®¯à®µà®±à¯įà®±à¯Ī":7669,"à®¿à®Łà¯ģà®ķ":7670,"Ġà®ľà¯ĭà®Ł":7671,"à®²à¯Īà®ªà¯į":7672,"à®ļà¯Ĩà®¯à®²":7673,"à®Ļà¯įà®ķà®¿à®¯":7674,"ĠCol":7675,"Ġen":7676,"à¯ģà®ķà®¿à®±à®¾à®¯à¯į":7677,"Ġà®ĩà®¨à¯įà®¤à®ķà¯į":7678,"à®ķà¯ĩà®Ł":7679,"à®¤à®¾à®°":7680,"à®ĩà®©à¯įà®±à¯ģ":7681,"iff":7682,"à®ªà®©":7683,"à®¿à®°à¯ģà®ªà¯įà®ªà®¤à¯ģ":7684,"Ġà®īà®°à¯ģà®ªà¯įà®ªà®Ł":7685,"Ġà®ªà¯Ĩà®±à®µà®¿à®²à¯įà®²à¯Ī":7686,"à®ħà®®à®°à¯įà®µà¯ģ":7687,"Ġà®ħà®¤à¯ģà®µà¯ģà®®à¯į":7688,"Ġà®ĩà®Łà¯Īà®¯à®¿à®²à¯į":7689,"Ġà®ļà¯ĩà®µà¯Ī":7690,"Ġà®ħà®©à¯Īà®µà®°à¯ģà®ķà¯įà®ķà¯ģà®®à¯į":7691,"Ġà®ķà®Łà¯įà®Łà®®à¯Ī":7692,"ov":7693,"à¯įà®ªà¯Ĥ":7694,"à®¿à®ķà¯įà®ķà®¾à®ķ":7695,"à®µà®Łà¯įà®Łà¯Ī":7696,"Ġà®ªà®¯à®©à¯į":7697,"Ġà®¨à®¿à®±à¯ģà®¤à¯įà®¤à®¿":7698,"à®¿à®©à¯įà®®":7699,"à®ļà¯Ĩà®²à¯įà®²à¯ģà®ª":7700,"ction":7701,"Ġdepart":7702,"Ġdepartments":7703,"Ġà®ļà¯Ĩà®¯à¯įà®¤à®¤à¯Ī":7704,"à®īà®°à®¿à®®":7705,"DI":7706,"ock":7707,"à¯ģà®ķà¯įà®ķà®¾à®ķà®µà¯ģà®®à¯į":7708,"onia":7709,"....čĊ":7710,"Ġà®ļà¯Ĩà®°à¯ģà®ķà¯ģà®µà®¾à®¯":7711,"Ġà®ļà¯Ĩà®ķà¯įà®ļà®®à¯į":7712,"à®ļà®¾à®ķ":7713,"à®®à¯Ĥà®©à¯įà®±à¯ģ":7714,"à®İà®©à®ķà¯įà®ķ":7715,"Ġà®®à®¾à®²à¯Ī":7716,"à®¿à®İà®©":7717,"Ġà®ļà¯ĩà®µà®ķà®©à¯į":7718,"ĠLong":7719,"à®¿à®©à¯įà®Łà¯į":7720,"Ġà®ĩà®Łà®¤à¯įà®¤à®¿à®±à¯įà®ķà¯ģ":7721,"à¯ģà®ļà¯Ĩà®¯à¯įà®¤à¯ģ":7722,"à¯ģà®¤à®²à¯Īà®¯à¯ģà®®à¯į":7723,"à®īà®Łà®©":7724,"à®®à®¿à®²à¯įà®²à®¾à®®à®²à¯į":7725,"Ġà®ĩà®©à®¿à®¯":7726,"Ġà®ħà®®à¯Īà®¤":7727,"Ġà®ĩà®°à¯ģà®®":7728,"Ġà®®à¯ĩà®ļ":7729,"à®¤à®¿à®°à¯ģà®":7730,"à®®à®Łà¯Īà®¨à¯įà®¤":7731,"Ġà®ĩà®°à¯ģà®ª":7732,"Ġà®ķà®¾à®Łà¯įà®Łà¯ģà®ķà®¿à®±à®¤à¯ģ":7733,"à®ķà¯įà®ķà®¤à¯įà®¤à®¿à®²à¯į":7734,"Ġà®ļà¯Ĩà®¯à¯įà®¯à®ķà¯į":7735,"Ġà®īà®Łà¯įà®ķà®¾à®°à¯įà®¨à¯įà®¤à¯ģ":7736,"Ġà®¤à¯Ī":7737,"Ġà®µà¯ĩà®Łà¯įà®Ł":7738,"à®ķà¯Īà®¯à®¿à®©à¯į":7739,"Ġà®®à¯ģà®ķà®¤à¯įà®¤à¯Ī":7740,"\"à®ĩà®¨à¯įà®¤":7741,"à®¯à¯Ī":7742,"à®£à¯Ī":7743,"à®ļà¯įà®ļà¯Ĩà®¯":7744,"à®ŀà¯į":7745,"vietnam":7746,"à®°à¯įCity":7747,"à®¿à®ķà®¾à®Łà¯įà®Ł":7748,"ital":7749,"à¯ģà®µà®¿à®Łà¯įà®Łà¯ĩà®©à¯į":7750,"ĠOnt":7751,"ario":7752,"à®¿à®®à®¾à®±":7753,"Ġfrom":7754,"à®ħà®²à®¾à®°":7755,"à®®à¯įà®ªà¯Ī":7756,"Ġà®ªà®¿à®°à®ļ":7757,"error":7758,"Ġà®İà®¤à®¿à®°à¯įà®ªà¯įà®ª":7759,"Ġà®¤à®ªà¯įà®ªà®¿":7760,"Ġà®ļà¯ģà®Łà¯įà®Łà®¿":7761,"à¯ģà®°à¯ģà®µà¯Ī":7762,"Ġà®¤à¯Ĩà®³à®¿à®µà¯ģ":7763,"Ġà®¤à®©à®¿à®¯à®¾à®ķ":7764,"à®ªà®¯à®©à¯įà®ªà®¾à®Łà¯ģ":7765,"Ġà®¤à¯ĩà®°à¯įà®µà¯ģà®ļà¯Ĩà®¯à¯į":7766,"Description":7767,"à®¿à®ķà¯įà®ķà®¾":7768,"à®¾à®Ļà¯įà®ķà¯į":7769,"à®¨à®°à®ķà®¤à¯įà®¤à®¿à®²à¯į":7770,"ĠShort":7771,"à¯įà®µà®¾à®©à¯į":7772,"Ġad":7773,"Ġà®¤à¯Ĭà®ķà¯ģ":7774,"Ġà®ªà¯Ĩà®£à¯įà®Ł":7775,"Ġà®īà®±à®µ":7776,"à®ªà¯įà®ªà®Łà¯ģà®¤à¯įà®¤à¯ģ":7777,"idg":7778,"à®ħà®©à¯Īà®¤à¯įà®¤à¯Īà®¯à¯ģà®®à¯į":7779,"à®ļà®®à¯įà®ª":7780,"Ġà®µà®¿à®³à®ķà¯įà®ķà®¤à¯įà®¤à¯Ī":7781,"oop":7782,"à®©à¯įà®ķ":7783,"Ġà®ªà¯ģà®¯à®²à¯į":7784,"Ġà®®à®ķà¯įà®ķ":7785,"à®µà®¾à®¯à®¿à®²à¯įà®²à¯Ī":7786,"Ġà®ļà¯ĩà®ķà®°à®¿à®¤à¯įà®¤à¯ģ":7787,"à®ļà¯įà®ļà®¿":7788,"à®¨à®®à¯įà®®à®¿à®Łà®®à¯į":7789,"Ġà®ıà®®à®¾à®±à¯įà®±à®¿":7790,"à®ĩà®°à®ķà®ļà®¿à®¯":7791,"ĠOntario":7792,"Ġà®¤à¯Ĥà®Ļà¯įà®ķ":7793,"à®¤à®£à¯įà®Łà®©à¯Ī":7794,"à®ĩà®£à¯Īà®ªà¯įà®ª":7795,"Ġà®īà®³à¯įà®³à¯Ģà®Ł":7796,"Ġà®ķà®°à¯ģà®®":7797,"Ġà®ªà®¿à®Łà¯į":7798,"Ġà®µà®´à®¿à®¯à¯Īà®¯à¯ģà®®à¯į":7799,"à®¿à®ķà¯įà®ķà®ªà¯įà®ªà®Łà®¾à®¤":7800,"ron":7801,"à®µà®°à®¿à®ļ":7802,"LES":7803,"Ġà®ħà®²à¯įà®²à®µà®¾":7804,"Ġà®µà®¿à®·à®¯à®Ļà¯įà®ķà®³à¯į":7805,"Ġà®ħà®µà®©à¯ģà®Łà®©à¯į":7806,"Ġà®ĩà®°à®ķà®ļà®¿à®¯à®®à¯į":7807,"ble":7808,"à®µà¯Īà®ķà¯į":7809,"Ġà®İà®Łà¯ģà®¤à¯įà®¤à¯ģà®ļà¯į":7810,"Ġà®Ĵà®°à¯ģà®µà¯ĩà®³à¯Ī":7811,"à®ļà®¿à®²à®°à¯į":7812,"pen":7813,"Ġà®µà®°à®µà¯ĩ":7814,"à®ķà®Łà®¿à®©":7815,"à¯ģà®¨à®¿à®°à®²à¯į":7816,"à®ļà®¿à®Ł":7817,"Ġà®ķà®¾à®°à®¿à®¯à®Ļà¯įà®ķà®³à¯Ī":7818,"Ġà®ªà®°à®¿à®ļà¯ģà®¤à¯įà®¤à®®à®¾à®ķà¯įà®ķ":7819,"Ġà®ħà®®à¯Īà®ķà¯įà®ķà®¿à®±à®¤à¯ģ":7820,"à®Ĩà®°à¯įà®Ĳ":7821,"Ġà®®à¯ģà®©à¯įà®ªà¯ĩ":7822,"ave":7823,"ix":7824,"à®¨à®¾à®¯":7825,"Ġà®Ĵà®°à¯ģà®¤à¯įà®¤":7826,"Ġà®µà®¿à®²à®ķà®¿à®¯":7827,"Ġà®ħà®£à®¿":7828,"Ġà®İà®³à®¿à®¤à®¾à®ķ":7829,"à®īà®©à¯įà®©à¯Ī":7830,"ĠStencils":7831,"Query":7832,"à®¤à®®à®¾à®©":7833,"à®¤à¯įà®¤à®¿à®©à®°à¯į":7834,"Ġà®ħà®µà®°à¯ģà®®à¯į":7835,"Ġà®ķà¯Ĥà®±à®µà®¿à®²à¯įà®²à¯Ī":7836,"Ġà®¤à®µà®¿à®°à¯įà®ķà¯įà®ķ":7837,"Ġà®ªà®³à¯įà®³à®¤à¯įà®¤à®¾à®ķà¯įà®ķ":7838,"à®ļà®¨à¯įà®¤à¯ĩà®ķ":7839,"à®İà®µà®°à¯ģà®®à¯į":7840,"Ġà®µà®°à¯ģà®¤à¯įà®¤":7841,"Ġà®İà®©à¯įà®©à®µà¯Ĩ":7842,"à®ªà¯įà®ªà®Łà¯ģà®¤à¯įà®¤à®¿à®¯":7843,"à®ķà¯ĩà®ªà®ļà¯Ĥ":7844,"à®ªà®Łà¯Īà®ªà¯įà®ª":7845,"Ġà®¨à¯Ģà®²à®®à¯į":7846,"à®¿à®ļà¯įà®ļà¯Ī":7847,"à®¿à®°à¯ģà®ķà¯įà®ķà®¿à®©à¯įà®±à®¤à¯ģ":7848,"à®®à¯ĩà®²à¯ĩ":7849,"Ġà®ĩà®®":7850,"à®¨à®¿à®´":7851,"Ġà®īà®Ļà¯įà®ķà®³à®¿à®Łà®®à®¿à®°à¯ģà®¨à¯įà®¤à¯ģ":7852,"Ġnew":7853,"Ġà®ļà®¾à®¤à®¾à®°à®£":7854,"à®¿à®Łà®ªà¯įà®ªà®Łà¯įà®Łà¯ģà®³à¯įà®³à®¤à¯ģ":7855,"Ġà®Łà¯ĩ":7856,"Ġthere":7857,"Ġpref":7858,"à¯ģà®¹":7859,"Ġà®īà®³à¯įà®³à®¤à®¾à®ķà¯ģà®®à¯į":7860,"Ġà®ħà®ŀà¯įà®ļà¯ģà®ķà®¿à®±à¯ĩà®©à¯į":7861,"Ġà®ªà®¯à®©à¯įà®ªà®Łà¯ģà®¤à¯įà®¤à¯ģà®®à¯į":7862,"Ġà®ªà®¿à®³à¯įà®³à¯Ī":7863,"Ġà®¤à®¿à®¯à®¾à®ķ":7864,"Ġà®ħà®¤à¯Īà®µà®¿à®Łà¯įà®Łà¯ģ":7865,"Ġà®ĩà®£à¯Īà®¯à®¾à®©":7866,"Ġà®ªà®£à®¤à¯įà®¤à¯Ī":7867,"à¯ģà®µà®¤à®±à¯įà®ķà®¾à®ķà®µà¯ĩ":7868,"Ġuse":7869,"@}":7870,"à¯įà®ķà¯Ĥ":7871,"à®¯à¯Ĥà®¤à®°à¯įà®ķà®³à¯į":7872,"à®¤à®±à¯įà®ķà¯ģà®°à®¿à®¯":7873,"Ġà®ªà®¿à®°à®¾à®¯":7874,"Ġà®ªà¯įà®°à®¾à®¸à®°à¯ĭ":7875,"Ġ{@}":7876,"à®¿à®¯à¯Ĥ":7877,"Ġà®ķà¯Ĥà®±à®¿à®©à®¾à®²à¯į":7878,"Ġà®®à®²à¯Īà®¯à®¿à®©à¯į":7879,"Ġà®ıà®±à¯įà®ªà®Łà®¾à®¤à¯ģ":7880,"à®¾à®©à®µà®°à¯įà®ķà®³à¯į":7881,"à®¿à®©à¯Ģà®°à¯įà®ķà®³à¯į":7882,"Ġà®¨à®ķà®°à®®à¯į":7883,"Ġà®ıà®´à¯Ī":7884,"Ġà®¨à®¿à®®à®¿à®Łà®Ļà¯įà®ķà®³à¯į":7885,"à®¨à®©à¯įà®ķà¯ģ":7886,"à¯ģà®ªà®µà®°à®¾à®ķ":7887,"Ġà®¨à®¿à®°à®®à¯įà®ª":7888,"Ġà®µà®£à®ķà¯įà®ķà®®à¯į":7889,"à¯ģà®ķà¯įà®ķà¯ģà®¤à¯įà®¤à®¾à®©à¯į":7890,"Ġà®®à®¾à®±à¯įà®±à®¿à®¯":7891,"à®¿à®©à®¿à®©à¯įà®±à¯ģ":7892,"Ġà®īà®³à¯įà®³à®©à®°à¯į":7893,"Ġà®®à®©à¯ĭ":7894,"Ġà®īà®£à¯įà®Łà®¾à®©":7895,"Ġà®ķà®£à¯įà®£à®¿à®¯à®®à¯į":7896,"Ġstring":7897,"Ġà®ķà¯ģà®¤à®¿à®°":7898,"à®ļà¯Ĥà®°à®¿à®¯":7899,"à®¿à®¯à®¿à®°à¯ģà®ķà¯įà®ķà¯ģà®®à¯į":7900,"Ġà®ķà®¿à®Łà¯Īà®ķà¯įà®ķà®µà®¿à®²à¯įà®²à¯Ī":7901,"Ġà®Ĵà®°à¯ģà®µà®°à¯Īà®¯":7902,"Ġà®ªà®ŀà¯įà®ļ":7903,"à®¿à®ķà¯įà®ķà¯ģà®®à®¾à®±à¯ģ":7904,"Ġà®ªà®Łà®¿à®ļà¯į":7905,"Ġà®ķà¯Īà®ķà®³":7906,"à®¿à®µà®ªà¯įà®ªà¯ģ":7907,"à®¿à®®à¯ģà®ķ":7908,"Ġà®¨à®¿à®²à¯Īà®¤à¯įà®¤à¯ģ":7909,"Ġà®·à¯ģà®Ĳ":7910,"Ġà®Ĵà®°à¯ģà®µà®°à¯Īà®¯à¯ģà®®à¯į":7911,"à®ħà®©à¯ģà®ªà¯įà®ªà®¿":7912,"Ġà®ļà¯ģà®±à¯įà®±à®¿à®ķà¯į":7913,"Ġà®Ĩà®ķà®¿à®µà®¿à®Łà¯įà®Łà®©à®°à¯į":7914,"Ġà®ªà¯ĩà®£à®¿à®ķà¯į":7915,"à®¨à®°à®ķà®¤à¯įà®¤à®¿à®©à¯į":7916,")à®ª":7917,"Ġà®¤à®¿à®°à¯ģà®¨à¯įà®¤":7918,"à¯ģà®Łà®©à¯ĩ":7919,"à®¨à¯Ĩà®Ł":7920,"ans":7921,"Ġà®¨à®¾à®Łà¯ģà®ķà®¿à®±à®¾à®©à¯ĭ":7922,"à®ķà¯ĩà®®à®¿à®°":7923,"Ġà®ķà®¾à®±à¯įà®±à¯ģà®ķà®³à¯Ī":7924,"Ġà®ħà®µà®³à¯ģà®Łà¯Īà®¯":7925,"Ġà®ļà®ªà¯įà®¤à®®à¯į":7926,"Ġà®ħà®µà®©à®¿à®Łà®¤à¯įà®¤à®¿à®²à¯ĩà®¯à¯ĩ":7927,"à®ªà¯ģà®ķà®´à¯į":7928,"HTML":7929,"à®®à¯Īà®¯à®¾à®©":7930,"à®µà®°à¯Īà®ªà¯į":7931,"à®¨à®¯à®µà®ŀà¯įà®ļà®ķ":7932,"à®¿à®±à¯įà®ķà®¾à®²":7933,"Ġà®ĵà®¤à®¿":7934,"Ġam":7935,"Ġà®µà¯ĩà®¤à®©à¯Īà®¯à®¿à®©à¯į":7936,"Ġà®ķà®£à¯įà®ķà®³à¯Ī":7937,"à®ıà®¤à¯ĩà®©à¯ģà®®à¯į":7938,"à®ªà®¿à®©à¯įà®ªà¯ģ":7939,"à®®à®©à®¿à®¤à®°à¯įà®ķà®³à¯Ī":7940,"à®¨à®¿à®±à¯ģà®µ":7941,"Ġà®ļà®¨à¯įà®¤à®¤à®¿à®¯à®¿à®©à®°à¯į":7942,"à®ħà®µà¯įà®µà®¿à®°à®£à¯įà®Ł":7943,"Ġà®īà®£à¯įà®®à¯Īà®¯à®¾à®³à®°à¯įà®ķà®³":7944,"Ġà®µà®¾à®©à®Ļà¯įà®ķà®³à¯ģà®ķà¯įà®ķà¯ģà®®à¯į":7945,"à®ĥà®ªà®¿à®°à¯įà®ħà®µà¯įà®©à®¿à®©à¯į":7946,"Ġà®ħà®Łà®¿à®ªà®£":7947,"Ġà®ıà®µà®ªà¯įà®ªà®Łà¯įà®Łà¯ģà®³à¯įà®³à¯ĩà®©à¯į":7948,"ĠâĢ":7949,"à®ªà¯ĩà®°":7950,"à®ªà¯ĭà®°":7951,"à®Ļà¯įà®ķà®³à®¿à®²à®¿à®°à¯ģà®¨à¯įà®¤à¯ģà®®à¯į":7952,"Ġà®ħà®µà®°à¯įà®ķà®³à®¾à®²à¯į":7953,"à¯įà®®à¯Ĥ":7954,"à®īà®¤":7955,"Ġà®¨à®¾à®³à®©à¯įà®±à¯ģ":7956,"Ġà®ħà®³à®¿à®ķà¯įà®ķà®¿à®©à¯įà®±à®¾à®©à¯į":7957,"à®¿à®´à®¨à¯įà®¤":7958,"Ġà®®à®¾à®±à¯įà®±à®¿à®µà®¿à®Ł":7959,"Ġà®ªà¯Ĩà®¯à¯įà®¯":7960,"Ġà®īà®Ļà¯įà®ķà®³à¯ģà®ķà¯įà®ķà¯ģà®®à®¿à®Łà¯Īà®¯à¯ĩ":7961,"Ġà®ķà¯ģà®ªà¯įà®ªà¯ģà®±":7962,"(à®ĩà®©à¯įà®©à¯ģà®®à¯į":7963,"à®°à®¿à®²à¯į":7964,"à®°à®¾à®ķà®¿à®¯":7965,"à®¿à®°à¯ģà®ªà¯įà®ªà®¿à®©à¯ģà®®à¯į":7966,"Ġà®ªà¯Ĩà®°à¯ģà®¨à¯įà®¤":7967,"Ġà®ħà®®à®²à¯į":7968,"à®ħà®¤à¯Īà®ķà¯į":7969,"Ġà®µà®¿à®²à®ķà¯įà®ķà®¿":7970,"Ġà®ļà¯Ĩà®²à¯įà®µà®¨à¯įà®¤":7971,"Ġà®īà®°à®¿à®¯à®µà¯Ī":7972,"à®ķà®Łà®²à®¿à®²à¯į":7973,"Ġà®¤à¯Ģà®µà®¿à®°à®®à®¾à®©à®µà®©à¯į":7974,"Ġà®ĩà®¸à¯įà®²à®¾à®¤à¯įà®¤":7975,"à¯ģà®®à¯Īà®ªà¯į":7976,"Ġà®ĩà®°à¯ģà®¨à¯įà®¤à®¾à®°à¯įà®ķà®³à¯ĩ":7977,"Ġà®īà®³à¯įà®³à®Ļà¯įà®ķà®³à¯į":7978,"Ġà®ªà®¯à®©à¯ģà®®à¯į":7979,"Ġà®İà®¤à®¿à®²à¯į":7980,"(à®ħà®¨à¯įà®¨à®¾à®³à®¿à®²à¯į":7981,"Ġà®ªà®¿à®©à¯įà®ªà¯ģà®±":7982,"Ġà®ļà¯Ĩà®¯à¯įà®ªà®µà®°à¯įà®ķà®³à®¾à®ķ":7983,"Ġà®µà®£à®Ļà¯įà®ķà¯ģà®ķà®¿à®±à¯Ģà®°à¯įà®ķà®³à¯į":7984,"arac":7985,"Ġà®¤à®²à¯Īà®µà®°à¯įà®ķà®³à¯Ī":7986,"Ġà®ħà®µà¯įà®µà®¿à®°à¯ģà®µà®°à¯Īà®¯à¯ģà®®à¯į":7987,"Ġà®ļà®¿à®¨à¯įà®¤à®¿à®ķà¯įà®ķà¯ģà®®à¯į":7988,"Ġà®ķà¯ĭà®£à®®à¯į":7989,"Ġà®¨à¯Ĥà®¹à¯ģà®Łà¯Īà®¯":7990,"Ġà®ħà®µà®ķà®¾à®ļ":7991,"Ġà®ľà®¿à®©à¯įà®ķà®³":7992,"Ġà®ķà®°à¯ģà®£à¯Īà®¯à¯ģà®Łà¯Īà®¯à®µà®©à®¾à®ķà®µà¯ģà®®à¯į":7993,"Ġà®ªà®¨à¯įà®¤à¯ģà®ķ":7994,"à®µà®¿à®³à¯Īà®¯à®¾à®Łà¯įà®Łà¯ģ":7995,"à®ĩà®¸à¯įà®²":7996,"Ġà®ħà®®à®²à¯įà®ķà®³à¯Īà®ļà¯į":7997,"à®µà¯ģà®ļà¯Ĩà®¯à¯įà®¤à¯ģ":7998,"à®¿à®ķà¯įà®ķà®¾à®¤à¯ģ":7999,"Ġà®İà®©à¯įà®©à¯Īà®¤à¯į":8000,"Ġà®ªà®¾à®°à®¾à®Łà¯įà®Ł":8001,"à¯Ĩà®¯à®°à¯Ī":8002,"Ġà®ļà®°à®£":8003,"Ġà®ªà¯Ĩà®£à¯įà®ķà®³à¯ģà®ķà¯įà®ķà¯ģ":8004,"Ġà®ªà®¾à®µà®¤à¯įà®¤à¯Īà®¯à¯ģà®®à¯į":8005,"à®Ĳà®°à¯ĭà®ªà¯įà®ª":8006,"Ġà®¨à®¾à®Łà¯įà®Łà¯Ī":8007,"à®¨à®¿à®¯à®¾à®¯à®¤à¯į":8008,")à®¤à¯į":8009,"13":8010,"à¯Īà®ķà®³à®¾à®ķà¯ģà®®à¯į":8011,"Ġà®ļà®¾à®°à¯įà®¨à¯įà®¤à¯ģ":8012,"Ġà®®à®©à¯Īà®µà®¿à®®à®¾à®°à¯įà®ķà®³":8013,"Ġà®µà¯ĩà®¤à®©à¯Īà®¯à¯Īà®¤à¯į":8014,"Ġà®ĩà®´à®¿à®µà®¾à®©":8015,"Ġà®īà®£à®µà®³à®¿à®ªà¯įà®ª":8016,"Ġà®¨à®ªà®¿à®®à®¾à®°à¯įà®ķà®³à¯Ī":8017,"à®µà®Łà¯įà®Łà®¿à®²à¯į":8018,"Ġà®ĩà®±à¯Īà®µ":8019,"Ġà®ħà®µà®©à®¿à®Łà®¤à¯įà®¤à®¿à®²à¯į":8020,"Ġà®¤à¯Ĥà®°à¯į":8021,"Ġà®ļà¯Ĩà®¯à¯įà®µà®¤à¯Īà®¯à¯ģà®®à¯į":8022,"Ġà®ªà¯Ĥà®®à®¿à®¯à¯ģà®Łà¯Īà®¯à®µà¯ģà®®à¯į":8023,"Ġà®ļà¯Ĩà®©à¯įà®±à®©à®°à¯į":8024,"Ġà®ļà®¨à¯įà®¤à®¿à®°à®©à¯ģà®®à¯į":8025,"Ġà®®à¯ĩà®±à¯įà®ªà®Łà¯įà®Ł":8026,"Ġà®®à®°à®ķà¯įà®ķ":8027,"à®İà®©à¯įà®±à¯Ĩà®©à¯įà®±à¯ģà®®à¯į":8028,"ode":8029,"Ġà®Ĵà®ªà¯įà®ªà¯ģà®ķà¯į":8030,"Ġà®ħà®Łà®¿à®®à¯Īà®¯à¯Ī":8031,"Ġà®ħà®¨à¯ĩà®ķà®°à¯Ī":8032,"Ġà®ļà¯Ĩà®¯à¯įà®¯à®®à®¾à®Łà¯įà®Łà®¾à®©à¯į":8033,"Ġà®īà®£à¯įà®®à¯Īà®¯à®¾à®ķà¯ģà®®à¯į":8034,"Ġà®İà®±à®¿à®¯à¯ģà®®à¯į":8035,"Ġà®®à¯Ĭà®¤à¯įà®¤":8036,"):čĊ":8037,"à®¤à¯įà®¤à®¾à®²à¯ģà®®à¯į":8038,"à®¾à®°à¯įà®ķà®³à®¿à®²à¯į":8039,"Ġà®īà®±à¯Ī":8040,"Ġà®ªà®¾à®°à¯įà®µà¯Īà®¯à¯ģà®Łà¯Īà®¯":8041,"à®īà®®à¯įà®®à¯Īà®ªà¯į":8042,"Ġà®ªà¯ģà®©à®¿à®¤à®®à®¾à®©":8043,")à®©":8044,"Ġà®ļà¯Ĩà®¯à®±à¯įà®ķ":8045,"Ġà®µà®°à®ķà¯įà®ķà¯Ĥà®Łà®¿à®¯":8046,"à®µà®±à¯įà®±à¯Īà®¯à¯ĩ":8047,"Ġà®°à®¤à¯įà®¤à¯ģ":8048,"à®ħà®µà®©à®¿à®Łà®®à¯į":8049,"Ġà®ļà¯ģà®®à¯Īà®¯à¯Īà®ļà¯į":8050,"Ġà®ķà¯Ĥà®Łà¯įà®Łà®¤à¯įà®¤à®¾à®°à¯ģà®ķà¯įà®ķà¯ģ":8051,"Ġà®ªà¯Īà®¤à¯įà®¤à®¿à®¯à®ķà¯įà®ķà®¾à®°à®°à¯į":8052,"Ġà®µà®£à®ķà¯įà®ķà®¤à¯įà®¤à®¿à®±à¯įà®ķà¯ģà®°à®¿à®¯à®µà®©à¯į":8053,"à®¾à®¤à®¿à®°à¯ģà®ªà¯įà®ªà®¾à®¯à®¾à®ķ":8054,"à®µà®°à¯ģà®Łà¯Īà®¯":8055,"à®¨à¯įà®¤à¯Ģà®°":8056,"à¯Īà®¤à¯įà®¤à®¾à®©à¯į":8057,"Ġà®ļà¯Ĩà®¯à¯įà®¤à¯ĩà®©à¯į":8058,"à¯ģà®³à¯įà®³à¯ĩà®©à¯į":8059,"lar":8060,"Ġà®¤à¯Ģà®°à¯įà®¨à¯įà®¤à¯ģ":8061,"Ġà®ŀà®¾à®©à®¤à¯įà®¤à¯Īà®ķà¯į":8062,"Ġà®®à®©à®¿à®¤à®°à¯įà®ķà®³à®¿à®©à¯į":8063,"Ġà®ªà®¿à®°à®¾à®°à¯įà®¤à¯įà®¤à®¿à®¤à¯įà®¤à¯ģà®ķà¯į":8064,"Ġà®ªà®ķà¯Īà®µà®©":8065,"à®Ĩà®¤à®®à¯ģà®Łà¯Īà®¯":8066,"Ġà®µà®¿à®²à®ķà¯įà®ķà®ªà¯įà®ªà®Łà¯įà®Ł":8067,"Ġà®µà®´à®¿à®¯à¯Īà®¤à¯į":8068,"Ġà®ĩà®Łà¯įà®Łà¯ģà®ķà¯įà®ķà®Łà¯įà®Łà®¿à®ķà¯į":8069,"Ġà®µà®¿à®ļà¯ģà®µà®¾à®ļ":8070,"ial":8071,"Ġà®ħà®¨à¯Ģ":8072,"à¯Ĩà®£à¯įà®Ł":8073,"Ġà®ĩà®µà®±à¯įà®±à¯Īà®ªà¯į":8074,"à®¿à®°à®£à¯įà®Łà¯ģà®®à¯į":8075,"Ġà®ĩà®°à®µà¯Ī":8076,"Ġà®¨à¯Ģà®¤à®¿à®¯":8077,"à¯Īà®ķà¯įà®ķà¯ģà®¤à¯į":8078,"Ġà®µà®¿à®Łà¯įà®Łà¯ģà®µ":8079,"Ġà®ķà®Łà¯įà®Łà®ªà¯įà®ªà®Łà¯įà®Ł":8080,"Ġà®ħà®¤à®¿à®ķà®®à®¤":8081,"Ġà®µà®ļà®©à®Ļà¯įà®ķà®³à®¿à®©à¯į":8082,"Ġà®µà®ļà®©à®Ļà¯įà®ķà®³à¯Īà®ķà¯į":8083,"Ġà®İà®Ļà¯įà®ķà®³à¯ģà®ķà¯įà®ķà¯ģà®¤à¯į":8084,"Ġà®īà®Łà¯Īà®¯à®µà®©à®¾à®ķà®µà¯ģà®®à¯į":8085,"Ġà®®à¯ģà®¨à¯įà®¤à®µà¯ģà®®à¯į":8086,"Ġà®İà®Łà¯ģà®ªà¯įà®ª":8087,"Ġà®Ĩà®ķà®¿à®µà®¿à®Łà®¾à®¤à¯Ģà®°à¯įà®ķà®³à¯į":8088,"Ġà®ļà®ķà¯įà®¤à®¿à®¯à¯ģà®Łà¯Īà®¯à®µà®©à¯į":8089,"Ġà®®à®¯à®ķà¯įà®ķà®¿":8090,"Ġà®ħà®³à®¿à®ªà¯įà®ªà®¾à®¯à®¾à®ķ":8091,"Ġà®ªà®¾à®Łà®²à¯į":8092,"Ġà®ªà®¿à®¨à¯įà®¤à®µà¯ģà®®à¯į":8093,"Ġà®ħà®°à¯ģà®®à¯Īà®¤à¯į":8094,"AM":8095,"à®¸à®¾à®²à®¿à®¹":8096,"Ġà®®à¯ģà®Łà®¿à®¤à¯įà®¤":8097,"Ġà®¤à¯ĩà®Łà¯ģà®µà¯Ģà®°à®¾à®ķ":8098,"Ġà®ĩà®µà®°à¯įà®ķà®³à®¿à®Łà®®à¯į":8099,"Ġà®ĩà®¤à®¯à®®à¯į":8100,"Ġà®¤à¯Ĭà®ķà¯ģà®¤à®¿":8101,"Ġà®İà®µà¯įà®µà®¿à®¤à®¤à¯į":8102,"Ġà®ķà¯Ĩà®Łà¯ģà®ªà¯įà®ª":8103,"Ġà®µà®¾à®©à®Ļà¯įà®ķà®³à¯ģà®Łà¯Īà®¯à®µà¯ģà®®à¯į":8104,"Ġà®ªà®²à®¹à¯Ģà®©à®®à®¾à®©":8105,"à®·à¯Īà®¤à¯įà®¤à®¾à®©":8106,"Ġà®¤à®¿à®°à¯ģà®ªà¯įà®ªà®ªà¯įà®ªà®Łà¯ģà®ķà®¿à®±à¯Ģà®°à¯įà®ķà®³à¯į":8107,"Ġà®ĩà®©à¯įà®ľà¯Ģà®²à¯Īà®¯à¯ģà®®à¯į":8108,"Ġà®¤à¯ĩà®µà¯Īà®¯à®±à¯įà®±à®µà®©à¯į":8109,"à®ıà®´à¯ģ":8110,"Ġà®īà®Łà®©à¯įà®ªà®Łà®¿à®ķà¯įà®ķà¯Īà®¯à¯Ī":8111,"Ġà®ªà®¾à®µà®¿à®ķà®³à®¾à®ķà®µà¯ĩ":8112,"(à®¨à®°à®ķ":8113,"à®¾à®Łà¯ģà®ķà®³à¯Ī":8114,"Ġà®ħà®µà®°à¯įà®ķà®³à®¿à®²à®¿à®°à¯ģà®¨à¯įà®¤à¯ĩ":8115,"à®İà®µà®°à¯Īà®¯à¯ģà®®à¯į":8116,"Ġà®ħà®µà®©à®¿à®Łà®®à®¿à®°à¯ģà®¨à¯įà®¤à¯ģ":8117,"Ġà®®à®¿à®ķà¯ģà®¨à¯įà®¤":8118,"Ġà®ĩà®°à¯ģà®ªà¯įà®ªà®¤à®¿à®²à¯įà®²à¯Ī":8119,"Ġà®ļà¯Ĩà®¯à¯įà®µà®¤à¯Ĩà®²à¯įà®²à®¾à®®à¯į":8120,"Ġà®īà®£à¯įà®®à¯Īà®¯à®¾à®³à®°":8121,"Ġà®īà®£à¯įà®Łà®¾à®ķà¯įà®ķà®¿à®ķà¯į":8122,"Ġà®¤à®£à¯įà®Łà®©à¯Īà®¯":8123,"Ġà®µà®¾à®ļà®¿à®ķà®³à¯ģà®®à¯į":8124,"à®®à¯Ĥà®¸à®¾à®µà¯Ī":8125,"Ġà®ªà¯ģà®¤à®²à¯įà®µà®°à¯įà®ķà®³à¯Īà®¯à¯ģà®®à¯į":8126,"Ġà®®à¯ģà®·à¯įà®°à®¿à®ķà¯įà®ķà¯ģà®ķà®³à¯į":8127,"Ġà®Ĩà®²à®¯":8128,"à®®à®²à®ķà¯įà®ķà¯ģà®ķà®³à¯į":8129,"\"à®İà®©à®µà¯ĩ":8130,"Ġerror":8131,"Ġà®ĩà®®à¯į":8132,"Ġà®ĩà®±à¯Īà®µà®©à¯Īà®¤à¯į":8133,"Ġà®®à¯ģà®©à¯įà®©à®®à¯ĩà®¯à¯ĩ":8134,"Ġà®®à®©à¯įà®©à®¿à®ªà¯įà®ªà®¾à®¯à®¾à®ķ":8135,"Ġà®®à¯ģà®ĥà®®à®¿à®©à¯įà®ķà®³à¯ģà®®à¯į":8136,"Ġà®ªà®¾à®µà®Ļà¯įà®ķà®³à¯Īà®¯à¯ģà®®à¯į":8137,"à®ħà®µà®©à¯Īà®¯à®©à¯įà®±à®¿":8138,"à®ªà®°à®£":8139,"Ġgroup":8140,
[...]
